#version: 0.2
à ¦
à §
Ġ à¦
à¦ ¾
à§ ĩ
à¦ °
à§ į
à¦ ¿
à¦ ¨
à¦ ¤
à¦ ¯
à¦ ķ
à¦ ¬
à¦ ²
à¦ ®
à§ ģ
à¦ ¼
Ġà¦ ¸
Ġà¦ ķ
Ġà¦ ¬
Ġà¦ ª
à¦ ¦
à¦ ¸
à§ ĭ
à§ Ģ
Ġà¦ Ĩ
à¦ ĩ
à¦ ·
à¦ ª
Ġà¦ ®
Ġà¦ ¨
à¦ Ł
Ġà¦ ı
à¦ ľ
à¦ ¶
Ġà¦ ¤
à¦ Ĺ
Ġà¦ ¦
Ġà¦ ħ
à¦ §
Ġà¦ ¹
à¦ Ľ
à¦ £
à¦ ¹
Ġà¦ ¯
Ġà¦ķ à¦°
à¦¼ à§ĩ
à¦ ļ
à¦ ¥
à¦ ĸ
Ġà¦ ¶
à¦ Ĥ
à¦ Ń
Ġà¦ Ĺ
Ġà¦ ľ
à¦ ¡
à§ ĥ
à§ Ł
à¦ ĵ
Ġà¦ Ń
Ġà¦ °
à§ Ĥ
Ġà¦ ļ
Ġà¦ ī
Ġà¦ ĵ
Ġà¦Ĩ à¦®
Ġà¦¸ à¦®
Ġà¦ı à¦ķ
à¦ Ļ
Ġà¦ª à¦°
à¦ ģ
à¦° à¦¤
à¦ ł
à¦¼ à¦¾
Ġà¦ħ à¦¨
Ġà¦¹ à¦¯
Ġà¦ ¥
Ġà¦ Ľ
Ġà¦Ĩ à¦°
à¦¬ à¦¨
à¦° à¦£
Ġà¦ ²
Ġà¦¬ à¦²
Ġà¦ı à¦ĩ
à¦¾ à¦ģ
Ġà¦ §
à§ Ī
à¦° à¦ķ
à¦ ŀ
Ġà¦ı à¦¬
à¦ª à¦°
à¦ľ à¦¨
à¦¬ à¦°
à¦® à¦¨
à¦ĸ à¦¨
Ġà¦ «
à¦¤ à¦°
Ġà¦ ĸ
à§ İ
Ġà¦® à¦¨
č Ċ
Ġà¦¸ à¦Ļ
čĊ č
Ġà¦ľ à¦¨
à§ Į
Ġà¦ıà¦ķ à¦Ł
à¦¤ à¦¨
à¦¯ à¦¬
Ġà¦ ĩ
à¦ª à¦¨
Ġ Ġ
Ġà¦¹ à¦²
à¦¼ à¦¿
à¦ ı
Ġà¦ ĺ
Ġà¦¹ à¦¬
à¦° à¦®
Ġà¦ķ à¦¥
à¦° à¦¬
Ġà¦ķà¦° à¦¤
à¦¯ à¦ķ
Ġà¦¸ à¦¬
Ġà¦ħ à¦¬
à¦¸ à¦¬
à§ ľ
Ġà¦Ĩà¦® à¦°
à¦· à¦£
à¦ «
Ġà¦® à¦§
Ġà¦§ à¦°
à¦ ī
à¦¾ à¦Ĥ
à¦ Ŀ
à¦ĵ à¦¯
à¦° à¦¸
à¦Ĺ à¦¤
à¦° à¦¯
Ġà¦¬ à¦°
Ġà¦¨ à¦¯
à¦¬ à¦¤
Ġà¦Ĩ à¦Ľ
à¦¨ à¦¤
Ġà¦ī à¦¦
Ġà¦® à¦¤
à¦ķ à¦¤
Ġà¦ī à¦ª
Ġà¦ħ à¦°
à¦ ĥ
à¦ķ à¦²
Ġà¦Ĩ à¦²
à¦ļ à¦¨
Ġà¦® à¦¹
Ġà¦ħ à¦¸
Ġà¦Ĩ à¦¸
Ġà¦ħ à¦Ń
Ġà¦¸ à¦¤
à¦² à¦¨
Ġà¦Ĩ à¦¬
à¦ ĺ
Ġà¦¸ à¦¹
Ġà¦ Ł
à¦® à¦¤
Ġà¦ħ à¦¤
à¦¨ à¦¬
à¦¨ à¦¨
à¦¦ à¦°
à¦° à¦¥
Ġà¦¤ à¦¬
à¦° à¦¹
à¦² à¦¤
Ġà¦¬ à¦¸
à¦¯ à¦¤
à¦¬ à¦²
Ġà¦¹ à¦¤
Ġà¦¨ à¦¤
Ġà¦¤ à¦ĸà¦¨
Ġà¦ ¡
Ġà¦¯ à¦¦
Ġà¦Ĩ à¦ľ
Ġà¦ķà¦° à¦²
Ġà¦ī à¦ł
Ġà¦¬ à¦¨
Ġà¦ħ à¦§
à¦§ à¦¨
Ġà¦ª à¦¡
à¦¼ à§ĭ
à¦ķ à¦°
à¦° à¦¨
à¦¿ à¦Ĥ
à¦ Ĩ
Ġà¦ļ à¦²
à¦° à¦¶
à¦¨ à¦ĵ
à¦° à¦¦
à¦¤ à¦¬
Ġà¦Ĩ à¦¤
Ġà¦ª à¦¥
à¦°à¦¥ à¦®
à¦ķ à¦Ł
Ġà¦¸ à¦°
à¦® à¦£
à¦¶ à¦¨
Ġà¦¬à¦² à¦²
à¦¯ à¦®
Ġà¦¹ à§Ł
Ġà¦ı à¦®à¦¨
Ġà¦¯ à¦ĸà¦¨
Ġà¦¶ à¦ķ
à¦¸ à¦®
Ġà¦ ł
Ġà¦ Ĳ
à¦² à¦ķ
à¦² à¦¬
Ġà¦¸à¦® à¦¯
Ġà¦ĺ à¦Ł
à¦° à¦ĩ
Ġà¦° à¦ķ
Ġà¦ķà¦° à¦¬
Ġà¦¬ à¦¹
Ġà¦ī à¦¨
à¦ª à¦¤
Ġà¦ı à¦¸
Ġà¦Ĩ à¦Ĺ
à¦¬ à¦¦
Ġà¦« à¦²
à¦¬ à¦ª
ĠĠ ĠĠ
à¦¯ à¦¨
Ġà¦Ĩ à¦¨
à¦¦ à¦¨
Ġà¦ħ à¦¥
Ġà¦ī à§İ
Ġà¦ĩ à¦¤
à¦¯à¦¬ à¦¹
Ġà¦¸à¦® à¦¸
Ġà¦¸ à¦¨
Ġ à§
à¦ ħ
à¦Ń à¦¬
à¦° à¦Ń
Ġà¦ı à¦°
Ġà¦ķ à¦²
à¦¸ à¦¨
à§ °
Ġà¦ķ à¦¬
Ġà¦Ĩ à¦ªà¦¨
Ġà¦Ĩ à¦§
Ġà¦¬ à¦¡
à¦® à¦ķ
Ġà¦ķà¦° à¦Ľ
à§ģ à¦ģ
à¦ĸ à¦¤
Ġà¦ı à¦¤
à¦· à¦ķ
Ġà¦ı à¦ĸà¦¨
à¦¯à¦¬ à¦¸
Ġà¦ĵ à¦ł
à¦¬ à¦¬
à¦ª à¦¦
à¦Ĺ à¦°
à¦¤ à¦®
Ġà¦ Ŀ
Ġà¦Ĩà¦° à¦ĵ
Ġà¦ī à¦¤
Ġà¦Ĩ à¦¶
Ġà¦ı à¦Ł
Ġà¦ķ à¦®
à¦¬ à¦¯
à¦· à¦¤
Ġà¦ī à¦ļ
à¦· à¦¯
Ġà¦ħ à¦ª
à¦ı à¦ĩ
à¦ĩ à¦¨
à¦° à¦ĵ
à¦ļ à¦²
à¦Ĺ à¦²
Ġà¦Ĩ à¦ķ
Ġà¦¶ à¦¬
Ġà¦² à¦ķ
à¦¶ à¦ķ
à¦¨ à¦ķ
Ġà¦ħ à¦Ĺ
Ġà¦¹ à¦ļ
Ġà¦ķ à¦ĸà¦¨
Ġà¦ª à¦¦
à¦ļ à¦¯
Ġà¦ĩ à¦¨
à¦¬ à¦ķ
à¦ª à¦ķ
à¦® à¦°
à¦°à¦¹ à¦£
Ġà¦Ĺ à¦¡
Ġà¦ ¢
à¦¤ à¦ķ
Ġà¦¶ à¦°
Ġà¦ľ à¦²
à§ĭ à¦ģ
à¦¬ à¦¸
§ à§
Ġà¦Ĺ à¦²
à¦¤ à¦¤
à¦¹ à¦¸
à¦¸ à¦°
à¦¯ à¦¸
à¦£ à¦¤
à¦ĩ à¦²
Ġà¦Ĳ à¦¤
Ġà¦ħ à¦®
à¦¯ à¦¦
à¦§ à¦ķ
à§Ł à¦¨
à¦Ľ à¦¨
à¦° à¦ľà¦¨
Ġà¦ħ à¦ªà¦°
à¦° à¦ļ
à§ĩ à¦ģ
Ġà¦¨ à§Ł
Ġà¦ı à¦ĸ
Ġà¦Ń à¦¬
à¦¨ à¦¸
à¦¥ à¦¨
Ġà¦ĵ à¦ªà¦°
Ġà¦ħà¦¬ à¦¸
à¦ĵ à§Ł
à¦ķ à¦¬
à¦° à¦§
à¦® à¦¯
Ġà¦¤ à¦¥
Ġà¦¯ à¦¤
à¦® à¦¬
Ġà¦® à¦°
Ġà¦¬à¦² à¦¤
Ġà¦Ĺ à¦°
Ġà¦ħà¦¥ à¦¬
Ġà¦¨ à¦¦
Ġà¦° à¦¬
à¦ľ à¦¸
à¦° à¦²
Ġà¦¸ à¦ļ
à¦§ à¦°
à¦¹ à¦°
à¦¬ à¦¶
à¦ĸ à¦²
à¦° à¦ª
à¦§ à¦¤
à¦ļ à¦°
Ġà¦ ĭ
Ġà¦ı à¦Ĺ
Ġà¦¶ à¦¤
à¦° à¦ľ
Ġà¦ĺ à¦°
à¦Ł à¦ķ
à¦¨ à¦¯
à¦¼ à§Ģ
à¦ī à¦²
Ġà¦ªà¦° à¦¬à¦°
Ġà§ §à§
à¦¹ à¦²
à¦¼ à§ģ
Ġà¦¹ à¦ĵà¦¯
Ġà¦¤ à¦°
à¦¦ à¦¯
Ġà¦ħà¦¬ à¦¶
Ġà¦ķ à¦¤
Ġà¦ı à¦²
Ġà¦¸à¦¹ à¦ľ
à¦« à¦²
Ġà¦ħ à¦ķ
Ġà¦ļ à¦°
à¦· à¦®à¦¤
Ġà¦¯ à¦¥
Ġà¦Ĩ à¦ļ
à¦ı à¦¸à¦¬
ĠĠ čĊč
Ġà¦Ĩà¦ľ à¦ķ
à¦ª à¦¸
à¦ļ à¦ķ
Ġà¦Ĺ à¦Ń
à¦¨ à¦°
Ġà¦ıà¦ķ à¦¦
à¦¯ à¦ĩ
à¦¯ à¦ª
Ġà¦¸ à¦ķ
à¦¸ à¦²
Ġà¦Ĩ à¦¨à¦¨
à¦¹ à¦¤
à¦Ľ à¦°
Ġà¦¸ à¦°à¦ķ
Ġà¦¯ à¦ľ
Ġà¦ıà¦ķ à¦ĩ
à¦¹ à¦¨
Ġà¦ª à¦ķ
Ġà¦¤ à¦¤
Ġà¦ī à¦²
Ġà¦¸ à¦ķà¦²
à¦ľ à¦ķ
à¦ ¢
ĠĠĠĠ ĠĠĠĠ
Ġà¦ħ à¦¦
à¦ª à¦·
à§ģ à¦ĥ
à¦® à¦¸
Ġà¦ķ à¦ł
Ġà¦Ĩà¦¸ à¦²
à¦ı à¦¬
à¦Ł à¦²
Ġà¦° à¦¯
à¦°à¦ķ à¦®
à¦· à¦®
Ġà¦Ĩ à¦¦
à¦ľ à¦°
Ġà¦ı à¦¦
Ġà¦Ĺ à¦£
Ġà¦ħ à¦Ļ
à¦¸ à¦ķ
¯ à§
Ġà¦¬ à¦Ľà¦°
Ġà¦Ĺ à¦¤
à¦ł à¦¨
à¦Ĺ à¦¨
à¦°à¦® à¦£
à¦¶ à¦¬
Ġà¦ľ à¦°
Ġà¦Ĺ à§ľ
à¦¸ à¦Ļ
Ġà¦¸à¦® à¦¨
à¦¨ à¦Ł
Ġà¦ĺà¦Ł à¦¨
Ġà¦° à¦ļà¦¨
Ġà¦¬ à¦¯
à¦¹ à¦°à¦£
à¦ķ à¦°à¦£
à¦¥ à¦ķ
à§Į à¦ģ
à¦ŀ à¦¤
Ġà¦Ĩ à¦¦à¦°
à¦Ĩ à¦®
à¦ĩ à¦ķ
Ġà¦¶ à¦¹à¦°
Ġà¦īà¦ł à¦²
Ġà¦ī à¦ªà¦°
à¦¤ à¦²
à¦ł à¦ķ
Ġà¦¦ à¦°
à¦® à¦Ĺ
à§İ à¦¸
à¦° à¦¬à¦¨
Ġà¦īà§İ à¦¸
à¦Ĺ à¦¬
à¦§ à¦¬
à¦ĩ à¦°
Ġà¦īà¦ª à¦¸
Ġà¦¬ à¦ĩ
à¦° à¦Ł
Ġà¦¨ à¦¬
Ġà¦Ń à¦¯
à§İ à¦ķ
à¦¿ à¦ĥ
Ġà¦ħ à¦²
Ġà¦ħà¦¥ à¦ļ
Ġà¦ķà¦ĸà¦¨ à¦ĵ
Ġà¦¸à¦¤ à¦¤
à¦¯ à¦°
Ġà¦ķ à¦¨
à¦¦ à¦²
à¦° à§Ł
à¦® à¦²
à¦¯ à¦¯
à¦ĸ à¦¬
à¦Ŀ à¦¤
Ġà¦ıà¦ķ à¦ľà¦¨
Ġà¦¦ à¦ķ
à¦¨ à¦¦
Ġà¦ī à¦ªà¦¨
Ġà¦ª à§ľ
à¦° à¦Ĺ
à¦¶ à¦ª
Ġà¦ľ à¦®
à¦¤à¦¨ à¦¤
Ġà¦Ń à¦°
Ġà¦ªà¦° à¦®
Ġà¦ī à¦°
Ġà¦¬ à¦Ł
Ġà¦Ľ à¦¡
à¦° à¦Ĺà¦¤
Ġà¦ħà¦¨ à¦¨
Ġà§§à§ ¯à§
Ġà¦¬à¦² à¦Ľ
Ġà¦ Ī
Ġà¦° à¦®à¦£
Ġà¦¸ à¦Ń
à§Ł à¦¤
à¦Ĺ à¦®
à¦ķ à¦¸
à¦ª à¦Ł
Ġà¦° à¦Ļ
Ġà¦ĵ à¦ĩ
Ġà¦ħà¦¤ à¦ıà¦¬
Ġà¦Ĺ à¦¨
à¦ª à¦¥
Ġà¦¸à¦¬ à¦ļ
Ġà¦¦ à¦²
à¦ľ à¦¯
à¦ĩ à¦¤
à¦· à¦¦
à¦° à¦ªà¦°
Ġà¦ıà¦ķ à¦¬
à¦£ à¦¨
à¦ľ à¦¬
à¦¨ à¦Ĺ
à¦¼ à¦Ĥ
Ġà¦ı à¦¸à¦¬
Ġà¦īà§İ à¦¸à¦¬
à¦® à¦°à¦£
Ġà¦ª à¦¤
Ġ čĊč
Ġà¦° à¦¸
à¦¯ à¦Ń
à¦² à¦¯
à¦ķ à¦¶
à¦ĩ à¦¯
Ġà¦ª à¦£
Ġà¦ĩ à¦ļ
Ġà¦§à¦° à¦¨
à¦¸ à¦¤
Ġà¦ķ à¦¯
Ġà¦¸à¦® à§Ł
à¦ķ à¦Ń
à¦¬ à¦Ń
Ġà¦Ĳ à¦ķ
à¦¡ à¦²
à¦¨ à¦ª
Ġà¦Ĩà¦° à¦®
à¦ķ à¦¦
Ġà¦§ à¦¨
Ġà¦ĭ à¦·
à¦Ń à¦°
Ġà¦¹ à¦¸
Ġà¦ħ à¦ľ
à¦ħ à¦¨
Ġà¦ª à¦¶
à¦ª à¦£
à¦ķ à¦¨
Ġà¦¹ à¦ł
à§ ¦
Ġà¦ľ à¦¯
Ġà¦Ĩ à¦¯
Ġà¦ķ à¦£
Ġà¦¨ à¦ľà¦°
Ġà¦¹ à¦°
à¦¨ à§Łà¦¨
à¦Ł à¦«
Ġà¦°à¦ķ à¦®
Ġà¦Ĩ à¦ª
Ġà¦ħ à¦¶
Ġà¦ħà¦¨ à¦²
Ġà¦ı à¦¨
Ġà¦Ĺ à¦¬
Ġà¦¬ à¦¦à¦²
Ġà¦īà§İ à¦ª
à¦£ à¦ķ
à¦® à¦ªà¦°
à¦¬ à¦®
Ġà¦Ĩ à¦¹
Ġà¦¤à¦ĸà¦¨ à¦ĩ
à¦Ń à¦Ļ
Ġà¦¸ à¦ŀ
à¦¶ à¦Ĺ
à¦² à¦®
à¦ĩ à¦¬
Ġà¦ª à¦²
Ġà¦¬ à¦ķ
à¦ķ à¦ķ
à¦· à¦°
à¦¨ à¦ĩ
à¦® à¦¹
Ġà¦¦ à¦°à¦ķ
Ġà¦ī à¦ľ
à¦®à¦¨ à¦ĩ
Ġà¦¨ à¦¨
Ġà¦¸ à¦¦
à¦Ł à¦¤
Ġà¦¨ à¦Ĺà¦°
à¦Ł à¦¨
Ġà¦īà¦ª à¦²à¦¬
à¦° à¦Ľ
à¦ı à¦°
Ġà¦ıà¦®à¦¨ à¦ķ
Ġà¦¸ à¦ł
à¦°à¦¸ à¦Ļ
à¦¤ à¦¬à¦¤
Ġà¦¬à¦² à¦¬
à¦¤ à¦¦
à¦² à¦²
à¦¯à¦¤ à¦®
à¦® à¦¦
à¦¦ à§Ł
à¦¯ à§İ
à¦® à¦§
Ġà¦ħ à¦ŀ
Ġà¦ľ à¦Ł
Ġà¦Ĩ à¦ĩà¦¨
Ġà¦ıà¦ĸà¦¨ à¦ĵ
Ġà¦Ĩà¦ļ à¦°à¦£
à¦¶ à¦¯
à¦° à¦ĸ
à¦¸à¦¬ à¦ĩ
Ġà¦Ń à¦ķ
Ġà¦Ĩ à¦¡
Ġà¦ı à¦Ń
à¦ľà¦¨ à¦¶
Ġà¦Ĩà¦ľ à¦ĵ
Ġà¦ħ à¦¹
à¦¨ à¦Ń
à¦¤ à¦¸
à¦ľ à¦¤
Ġà¦ļ à¦ķ
Ġà¦ıà¦ķ à¦®
à¦² à¦¸
à¦ĩ à¦Ł
à¦¬ à¦ļ
Ġà¦¦ à¦¶
à¦° à¦¦à¦°
à¦£ à¦¬
Ġà¦ıà¦ķ à¦¤
à¦ı à¦ķ
à¦¯à¦¬ à¦¤
à¦® à¦ľ
à¦ª à¦¡
à¦® à¦ª
à¦¨ à¦¶
à¦Ł à¦¬
à¦° à¦°
à¦¶ à¦²
à¦¬à¦¨ à¦¯
ĠĠ č
à¦¥ à¦®
à§ ¨
à¦® à§Ł
à¦ĺ à¦°
Ġà¦¬ à¦ľ
Ġà¦¯ à¦¨
à¦¤ à¦ª
Ġà¦ħ à¦«
Ġà¦¸à¦¹ à¦®à¦°
Ġà¦ª à¦ŀ
Ġà¦¸à¦¬ à¦ĩ
à¦² à¦Ń
Ġà¦Ī à¦¶
à¦ĩ à¦¡
Ġà¦ļ à¦¨
Ġà¦ħà¦¸ à¦®
à¦ĸ à¦ķ
Ġà¦¸ à§İ
à¦¯à¦ķ à¦°
Ġà¦ľ à¦¡
à¦Ĺ à¦łà¦¨
Ġà¦¸à¦® à¦Ĺ
Ġà¦ªà¦¦ à¦ķ
à¦Ĺ à¦£
à¦ĸ à¦Ľ
à¦¤ à¦Ń
Ġà¦ĵ à¦°
Ġà¦Ľ à¦¬
à¦Ń à¦¯
Ġà¦Ľ à¦¨
à¦¨ à¦²
à¦ľ à¦²
à¦¨ à¦¬à¦¤
Ġà¦ķ à¦·
à¦² à¦Ĺ
Ġà¦ħà¦¬ à¦¦
à§ §
à¦¾ à¦ĥ
à¦· à§Ł
Ġà¦ĸ à¦¬à¦°
à¦¯ à¦¥
à¦® à¦¶
à¦¥ à¦²
Ġà§ ¨
Ġà¦¬ à¦Ļ
Ġà¦ıà¦ķ à¦¥
à¦¸ à¦ª
à¦°à¦ķ à¦²
à¦ī à¦¨
à¦ıà¦¸à¦¬ à¦ĩ
à¦¦ à¦¬
Ġà¦ľà¦¨ à¦¸
Ġà¦ĩ à¦²
à¦¹ à¦¯
Ġà¦¶ à¦¹
Ġà¦ľ à¦Ĺà¦¤
ĠĠĠĠĠĠĠĠ ĠĠĠĠĠĠĠĠ
Ġà¦® à¦ľ
Ġà¦¹ à¦ĩ
Ġà¦ħ à¦ļ
Ġà¦¸à¦° à¦²
Ġà¦Ĺ à¦łà¦¨
à¦¬ à¦ľà¦¨
Ġà¦Ĩ à¦ķà¦°
à¦Ń à¦ķ
Ġà¦¯à¦¤ à¦ĩ
à¦¸à¦¬ à¦ķ
Ġà¦¹ à¦¨
à¦ļ à§Ł
à¦ľ à¦®
à¦¥ à¦¤
Ġà¦¤ à¦ªà¦¸
à¦¬ à¦ľ
Ġà¦® à¦ŀ
Ġà¦¸à¦® à¦°
Ġà¦² à¦ľ
Ġà¦īà¦ª à¦¯
Ġà¦ļà¦² à¦Ľ
à¦ķ à¦¥
à¦¬ à¦ĩ
Ġà¦¨ à¦·
Ġà¦¸à¦¹ à¦¯
à¦¦ à¦ķ
à¦ĩ à¦Ń
Ġà¦Ĩ à¦¸à¦¬
Ġà¦° à¦¹à¦¸
à¦¦ à¦¶
Ġà¦° à¦ĩà¦²
Ġà¦ļ à¦²à¦¤
Ġà¦ĺ à¦¨
Ġà¦Ĩà¦¬ à¦¦
à¦° à¦¬à¦°
Ġà¦ļ à¦°à¦®
à¦¦ à¦Ł
à¦ª à¦®
Ġà¦¬ à§ľ
Ġà¦¯ à¦¯
Ġà¦®à¦¨ à¦¨
à¦°à¦¥ à¦®à¦¤
à¦¸ à¦¹
à§İ à¦ªà¦°
Ġà¦Ĩà¦¸ à¦Ľ
à¦¨ à¦®
à¦ľà¦¨ à¦ķ
à¦¯ à¦¶
Ġà¦īà¦ł à¦¤
à¦¯ à¦ľ
Ġà¦ļ à¦¤
Ġà¦ķ à¦ļ
Ġà¦® à¦£
Ġà¦ħ à¦Łà¦²
à¦® à¦®
Ġà¦Ĩ à¦Ń
à¦¦ à¦Ĺ
Ġà¦ħ à¦Ł
Ġà¦Ĺ à¦Ļ
à¦Ł à¦°
à¦¤ à¦ĩ
à¦ķ à¦Ĺ
à¦¬ à¦°à¦£
à¦¬ à¦¹
à¦ĩ à¦Ľ
à¦Łà¦« à¦°
à¦ħ à¦¤
à¦Ĺ à¦¸
à¦¬ à¦§
Ġà¦Ĩà¦¸ à¦¤
à¦¿ à¦ģ
à¦ĩ à¦¸
à¦Ń à¦¬à¦¤
Ġà¦ľ à¦²à¦¬
Ġà¦ªà¦° à¦¸
à¦¯ à¦Ĺ
à¦² à¦Ľ
à¦¶ à¦°
Ġà¦« à¦°
à¦°à¦¬ à¦²
à¦ĺ à¦®
à¦¸à¦² à¦®
Ġà¦¶ à¦¤à¦ķ
Ġà¦ľà¦¨ à¦¨
Ġà¦ ·
Ġà¦ Ķ
Ġà¦° à¦ļ
Ġà¦Ľ à§ľ
à¦ļ à¦¤
Ġà¦īà¦ł à¦¬
à¦Ŀ à¦²
à¦® à¦ļ
à¦ĸ à¦°
à¦¯ à¦ĵ
Ġà¦Ĩ à¦Ļ
Ġà¦Ĩà¦® à¦²
à§ Ŀ
Ġà¦¸ à¦ª
Ġà¦ķ à¦²à¦ķ
Ġà¦ī à¦Ńà¦¯
à¦¤ à¦Ĺ
à¦Ľ à¦¬
à¦ĸ à¦£
Ġà¦ķà¦¤ à¦Ł
à§ «
à¦Ľ à¦¤
Ġà¦ıà¦ķ à¦¸à¦Ļ
à¦· à¦Ł
à¦°à¦® à¦¶
à¦¬ à¦°à¦¤
Ġà¦ĵ à¦¦
Ġà¦ıà¦ĩ à¦¸à¦¬
à¦¸ à¦°à¦ķ
à¦Ł à¦ª
à§ §à§
à¦Ĺ à¦ľ
à¦ĩ à¦ľ
Ġà¦¹ à¦ĵà§Ł
à¦¸à¦® à¦¯
Ġà¦ª à¦Ł
Ġà¦® à¦Ļ
Ġà¦¬à¦¹ à¦¨
à¦¬à¦¨ à¦ķ
à¦¹ à§İ
Ġà¦Ń à¦Ĺà¦¬
à¦ª à¦¬
Ġà¦ĭ à¦Ĺ
à¦° à¦ļà¦²
Ġà¦Ĩ à¦Łà¦ķ
Ġà¦® à§İà¦¸
Ġà¦ıà¦ĩ à¦°à¦ķà¦®
à¦¨à¦¬ à¦ľ
à¦Ĩ à¦°
Ġà¦¨ à¦¹
à¦¶ à¦®
à¦¬ à¦Ł
Ġà¦Ń à¦°à¦¤
à¦ı à¦ķà¦Ł
Ġà¦ľ à¦Ĺ
à¦¡ à¦¬
à¦ķ à¦¡
à¦² à§Ł
Ġà¦¦ à¦°à¦ľ
Ġà¦ıà¦¤ à¦Ł
Ġà¦¸ à¦ľ
à¦§ à¦®
Ġà¦² à¦¡
Ġà¦ Ĭ
à¦¬ à¦¤à¦¨
Ġà¦¤ à¦²
Ġà¦ĸ à¦£
Ġà¦®à¦¨ à¦¸
Ġà¦Ĩ à¦¨à¦¤
à¦°à¦¬ à¦£à¦¤
Ġà¦¬ à¦ŀ
Ġà¦ī à¦¡
Ġà¦¬ à¦¶
Ġà¦ªà¦° à¦¶
à¦¸ à¦Ń
à¦· à¦¸
à¦ľ à¦Ĺ
à¦ľ à¦ª
à¦ı à¦Ł
à¦ª à¦¯
à¦¡ à¦¬à¦¦
à¦¥ à¦¬
à¦² à¦Ł
à¦°à¦¤ à¦¬à¦°
Ġà¦Ĩà¦¬ à¦¶
Ġà¦ıà¦ĩ à¦Ń
Ġà¦¬à¦¸ à¦¨
à¦¬ à¦Ĺ
à¦¬ à§Ł
Ġà¦ľ à§Ł
Ġà¦ĩ à¦¸à¦²
Ġà¦ħà¦¬ à¦ķ
Ġà¦¸à¦¬ à¦ķ
Ġà¦¤à¦ĸà¦¨ à¦ĵ
Ġà¦ħà¦¥ à¦°
à¦¸ à¦°à¦£
Ġà¦¨ à¦®
à¦ķ à¦ª
Ġà¦ıà¦®à¦¨ à¦ĩ
à¦°à¦¸ à¦°
à¦¸ à¦Ł
à¦Ĺ à¦°à¦£
à¦ķà¦¸ à¦ĩ
à¦ī à¦°
Ġà¦ĩ à¦Ļ
Ġà¦ħà¦¬ à¦¹
à¦¹à¦°à¦£ à¦¸
à¦® à¦ŀ
Ġà¦® à¦¸
Ġà¦¤ à¦¦
à¦ķ à¦ĩ
à¦¶ à¦Ł
Ġà¦ĩ à¦¹
à¦¦ à¦®
à¦¯ à¦Ł
à¦· à¦ª
à§Ł à¦®
à¦° à¦·
à¦ī à¦Ł
à¦¨ à¦Ĩà¦®
à¦ķ à¦®
à¦ľ à¦Ł
Ġà¦¯ à¦®
à¦² à¦ª
à¦® à¦Ł
à¦Ĺ à¦ķ
à¦ī à¦ķ
à¦¤ à¦¶
Ġà¦Ŀ à¦°
Ġà¦ª à¦Ľà¦¨
à¦£ à¦¦
Ġà¦Ĺà¦£ à¦¤à¦¨
à¦Ľ à¦²
à¦Ļ à¦²
à¦Ĺ à¦¦
à¦° à¦«
à¦¹ à¦®
à¦ī à¦¦
Ġà¦ıà¦ķ à¦ķ
à¦ĸ à¦¯
Ġà¦ħà¦¸ à¦¹
Ġà¦Ń à¦¦
Ġà¦ī à¦·
à¦ķ à¦ļ
à¦² à¦ķà¦²
à¦¹ à¦ķ
Ġà¦® à¦¦
Ġà¦ı à¦¡
Ġà¦®à¦¹ à¦°
à¦¶ à¦ĩ
Ġà¦īà¦ł à¦Ľ
à¦ ĭ
à§ ©
à¦¯ à¦¹
à¦® à¦ĩ
à¦°à¦£ à¦¯
à¦¦ à¦¸
à¦¸ à¦¸
à¦· à¦Ń
Ġà¦° à¦ľ
à¦² à¦ľ
à¦² à¦ļ
Ġà¦¨ à¦ĩà¦²
à¦¶ à¦¤
à¦§ à¦¹à¦¯
ĠĠ čĊ
Ġà¦§ à¦°à¦¤
à¦¯à¦¬ à¦¦
Ġà¦Ĩà¦¸ à¦¨
Ġà¦ķ à¦ª
Ġà¦¸à¦® à¦¤
à¦® à¦Ń
Ġà¦ĵ à¦¯
à¦ĺ à¦¨
à§ ª
à¦£ à¦Ĺ
Ġà¦¸à¦® à¦¬
Ġà¦« à¦ķ
Ġà§ ©
à¦² à¦«
à¦¸ à¦«
à¦Ĺ à¦Ń
Ġà¦° à¦¥
Ġà¦° à§Ł
Ġà¦ħà¦¬ à¦§
à¦Ĩ à¦ľà¦ķ
Ġà¦ļà¦² à¦¬
à¦¬ à¦²à¦¤
à¦¶ à¦Ĺà¦¤
à¦¥ à¦°
à¦¸ à¦¦
Ġà¦Ĩ à¦ĸ
à§Ł à¦ķ
Ġà¦ħà¦¬ à¦¤
à¦« à¦²à¦¨
Ġà¦ıà¦¤ à¦ķ
Ġà¦¸ à¦«
Ġà¦¤ à§İà¦ķ
à¦Ĩ à¦®à¦°
à¦ħ à¦¬à¦¶
Ġà¦ıà¦° à¦ªà¦°
à¦¬ à¦Ľ
à¦ļ à¦Ł
Ġà¦« à¦¸à¦²
Ġà¦¸ à¦¤à¦°
Ġà¦ª à¦¹
à¦ª à¦ķà¦²
Ġà¦¬ à§Ł
à¦Ł à¦®
à¦ļ à¦°à¦£
Ġà¦Ĺ à¦°à¦®
à¦ī à¦ªà¦¸
Ġà§§à§¯à§ Ń
à§ Ń
à¦¨ à¦ļ
à¦® à¦¸à¦®
Ġà¦¸ à¦ĸ
Ġà¦¸à¦¹ à¦¸
à¦· à¦ĩ
Ġà¦® à¦®à¦¤
Ġà¦ľà¦¨ à¦Ĺ
à¦¶ à¦¦
Ġà¦Ĺ à¦¦
à¦² à¦ĩ
Ġà¦Ń à§Ł
Ġà¦īà¦ª à¦Ń
à¦ħ à¦°
à¦¤ à¦Ł
à¦¤ à¦ľ
Ġà¦Ĩ à¦¬à¦°
Ġà¦Ĩ à¦ĺ
Ġà¦Ĳ à¦¶
Ġà¦ı à¦°à¦ĩ
à¦Ĺ à¦¡
Ġà¦¬à¦¸ à¦¤
Ġà¦¸ à¦°à¦¸
Ġà¦ĸ à¦°à¦ļ
Ġà¦ħà¦¦ à¦®
à¦¨ à¦¸à¦®
à¦¦ à¦¦
à¦ª à¦Ĺ
Ġà¦° à¦¤
à§İ à¦¸à¦¬
à¦ª à¦²
Ġà¦īà¦ª à¦¦
à¦¤ à¦°à¦£
à¦¯à¦® à¦¯
à¦ķ à¦ľà¦¨
Ġà¦ħ à¦·
Ġà¦ħà¦¬ à¦²à¦®
à¦¨ à¦¹
Ġà¦ħ à¦°à¦£
à§ĩ à¦¾
Ġà¦¯à¦¤ à¦Ł
à¦¯ à¦Ļ
Ġà¦Ń à¦Ļ
Ġà¦®à¦¨ à¦ķ
Ġà¦ľà¦¨ à¦®
Ġà¦§à¦° à¦²
à¦ħà¦¤ à¦ıà¦¬
Ġà¦¦ à¦¶à¦ķ
à¦Ń à¦°à¦¤
Ġà¦ļ à¦¡
à§İ à¦ª
à¦ĩ à§Ł
Ġà§§à§¯à§ «
Ġà¦Ĭ à¦°
à¦° à¦Ļ
Ġà¦¦ à¦®
Ġà¦ķ à¦Ł
Ġà¦¬ à¦£
à¦¦ à¦ª
à¦ļ à¦¶
Ġà¦¨ à¦¬à¦¦
à¦Ŀ à¦ĸ
à¦² à¦¬à¦¨
Ġà¦¸ à¦«à¦²
à¦Ĺ à¦®à¦¨
à¦¥ à¦¸
à§Ł à¦¬à¦¦
à¦°à¦¤ à¦°
Ġà¦Ĩà¦° à¦¬
à¦£ à¦ª
Ġà¦Ĺ à¦®
à¦Ĺ à¦¬à¦¤
Ġà¦ľ à¦¬
Ġà¦Ĩà¦¬ à¦¹
Ġà¦ħà¦ª à¦®
à¦ľ à¦§
Ġà¦ª à¦¨
Ġà¦¶ à¦Ļ
à¦¨ à¦ıà¦ĩ
Ġà¦Ĩ à§Ł
à¦£ à¦¬à¦¨
Ġà¦ļ à¦Ł
Ġà¦¬à¦¸ à¦²
Ġà¦¨à¦¬ à¦ľ
Ġà§§à§¯à§Ń à§§
à¦¨ à¦Ĩ
à¦¹ à¦¦
Ġà¦ĩ à¦¯
à§° à¦¹
Ġà¦ľà¦Ĺ à§İ
à§ģ à¦Ĥ
à¦ļ à¦®
Ġà¦ıà¦ĩ à¦ĸ
à¦¬ à¦ĵ
à¦¶ à¦¸
à§° à¦¤
à¦ Ĳ
Ġà¦Ĩ à¦Ł
ĠĠ Ġ
à¦® à¦ļà¦¨
à¦°à¦¬ à¦¤
Ġà¦ļà¦² à¦²
Ġà¦¬à¦ĩ à¦¯
à¦ľ à¦Ĺà¦¤
à¦£ à¦®
à¦°à¦¸ à¦¨
à¦ª à¦ª
Ġà¦® à¦¥
à¦§à¦¨ à¦ķ
Ġà¦ıà¦¤ à¦¦
à¦² à¦¦
Ġà¦¤ à¦¨
à¦Ĺ à¦¯
Ġà¦ī à¦Ĺ
Ġà¦ı à¦Ľ
Ġà¦īà¦ª à¦ķ
Ġà¦īà¦ª à¦¹
à¦łà¦ķ à¦ķ
à¦¯ à¦ŀ
Ġà¦ĭ à¦¤
Ġà¦¬ à¦¸à¦¬
à¦ĩ à¦®
à¦Ń à¦¨
Ġà¦² à¦¤
à¦ı à¦Ĺ
Ġà¦¦ à¦¯
à¦° à¦ħà¦¨
à§Ģ à¦Ĥ
à¦£ à¦Ĺà¦¤
à¦ı à¦®à¦¨
à¦¬ à¦£
à¦¬ à§İ
Ġà¦¬ à¦§
Ġà¦¦ à¦ĸà¦²
à§ ®
à¦¯ à¦²
à¦£ à¦Ń
à¦ł à¦¤
à¦°à¦ķ à¦Ł
à¦ı à¦ĸà¦¨
à¦Ĩ à¦²
à¦®à¦£ à¦¦
à¦¯ à§Ł
Ġà¦ħ à¦¯
Ġà¦ļ à¦®à¦ķ
Ġà¦ĺ à¦£
Ġà¦¬à¦° à¦ŀ
Ġà¦īà¦¦ à¦¯
à¦· à¦ªà¦°
Ġà¦īà¦ª à¦ķà¦°à¦£
Ġà§§à§¯à§« à§¨
à¦ĩ à¦¦
Ġà¦® à¦¯
Ġà¦¦ à¦¤
à¦ķ à¦ĵ
à¦Ł à¦ĸ
Ġà¦ªà¦¥ à¦ļà¦²
Ġà¦ª à¦¯
à¦Ĺ à¦ł
à¦ī à¦ĩ
Ġà¦Ī à¦¦
à¦ª à¦ĩ
à¦ľ à¦ĵ
à¦ļ à¦¬
à¦¬à¦² à¦®
à¦¬ à¦¹à¦¨
Ġà¦° à¦®
à¦¬à¦¨ à¦§
Ġà¦¬à¦ĩ à§Ł
à§ ¬
Ġà¦¨ à¦ķà¦¶
Ġà¦®à¦¤ à¦¬
Ġà§ «
à¦® à¦ĵ
Ġà¦¬ à¦°à¦£
à¦£ à¦¯
Ġà§ ª
à¦ħ à¦¸
Ġà¦Ĩà¦¶ à¦Ļ
à¦¯ à¦¬à¦°
à¦Ĺ à¦ª
à¦¥ à¦ª
à§Ł à¦Ĺ
à¦ł à¦¸
à¦°à¦¶ à¦¸
Ġà¦® à¦¶
Ġà¦® à¦Ĺ
à¦°à¦¸ à¦®
Ġà¦¹à§Ł à¦¤
à¦·à¦ķ à¦¦
à¦¨ à¦¤à¦°
à¦¬ à¦¬à¦°
à¦ĩ à¦ĩ
à¦ĩ à¦«
Ġà¦¤ à¦ķ
à¦ı à¦Ń
Ġà¦ĺà¦Ł à¦²
Ġà¦ıà¦¤ à¦ĩ
Ġà¦¬ à¦ī
à¦¦ à¦¤
Ġà¦¨ à¦°à¦®
à¦£ à¦¸
Ġà¦ī à¦ķ
à¦Ĩ à¦§
Ġà¦¶à¦° à§İ
à¦¤ à¦ªà¦ķ
à¦¸ à¦¯
à¦ª à¦ļ
à¦¦ à¦£
Ġà¦Ĩ à¦ªà¦¤
à¦· à¦Ļ
Ġà¦ĸ à¦°
à§İ à¦¸à¦°
Ġà§¨ à§¦
à¦¨ à¦¬à¦°
à¦² à¦°
Ġà¦ª à¦¬
à¦Ĺ à¦ĩ
à¦¨à¦¤ à¦®
Ġà¦ļà¦² à¦®
à¦®à¦£ à¦¸
Ġà¦ķà¦² à¦®
à¦ķ à¦ľ
Ġà¦¶ à¦¸
à¦¤à¦° à¦Ļ
Ġà¦īà¦ª à¦®
Ġà¦Ĩà¦ķ à¦¸
Ġà¦ĭ à¦£
Ġà¦Ĺà¦£ à¦®
Ġà¦Ń à¦Ĺ
Ġà¦¸à¦® à¦ķ
Ġà¦ıà¦ķ à¦¶
à¦°à¦¤ à¦®
à¦ĭ à¦·
Ġà¦® à¦¡
à§Ł à¦¬
Ġà¦Ĩà¦® à¦¨
à¦® à¦¡
Ġà¦ķ à§Ł
Ġà¦Ĺ à¦£à¦¤
à¦¨à¦ķ à¦¥
Ġà¦ıà¦ĩ à¦Ł
Ġà¦ľà¦¨ à¦ª
Ġà¦ĩ à¦®
Ġà¦¸à¦¦ à¦¸
Ġà¦ªà¦Ł à¦Ń
à¦¨ à¦Ľ
Ġà¦¨ à¦°
à¦¹ à¦¬
à¦¬à¦¨ à¦¬
à¦Ŀ à¦¬
Ġà¦¸à¦° à¦²à¦¤
à¦ª à¦¶
Ġà¦¸à¦® à¦·
à¦°à¦¥à¦® à¦¬
Ġà¦ħà¦® à¦²
Ġà¦Ĩ à¦ŀ
à¦Ł à¦Ĺ
à¦£ à¦°
à¦ĵ à¦¨
Ġà¦ªà¦° à¦ķ
Ġà¦ľà¦¨ à¦Ĺà¦£
à¦ī à¦ľ
à¦¦à¦¨ à¦¶
Ġà¦ı à¦°à¦ķà¦®
à¦§ à¦¦
Ġà¦Ĩà¦° à¦£
Ġà¦ªà¦¥ à¦ª
à¦· à¦¬
à¦Ĺ à¦Ĺ
Ġà¦ļ à¦®
à¦¯à¦ķ à¦²
à¦¤ à¦ļ
à¦ª à¦ľ
Ġà¦ħ à¦ľà¦¸
Ġà¦ķà¦° à¦£
à¦Ń à¦°à¦¶
à¦Ł à¦¸
Ġà¦Ķ à¦ªà¦¨
à¦ĩ à¦ª
à¦Ĺ à¦Ł
à§° à¦ķ
Ġà¦ħà¦² à¦Ļ
à¦Ĳ à¦¤
Ġà¦¬ à¦¦
Ġà¦ħ à¦¬à¦¨
Ġà¦§ à¦¨à¦¤
à¦®à¦¨ à¦Ł
Ġà¦ľ à¦Ļ
à¦¨ à¦ľ
à¦· à¦ľ
à¦· à¦ķà¦°
à¦ĸ à¦¦
Ġà¦Ĩà¦ľ à¦ĩ
ĠĠĠĠĠĠĠĠĠĠĠĠĠĠĠĠ ĠĠĠĠĠĠĠĠĠĠĠĠĠĠĠĠ
à¦¨ à¦Ĺà¦°
à¦ľ à¦¦
Ġà¦¶ à¦¯
Ġà¦Ń à¦°à¦¸
Ġà¦Ľ à¦¯
Ġà¦®à¦¨ à¦¨à¦¶
Ġà¦īà¦ª à¦ľ
Ġà¦¶à¦¤ à¦ªà¦¥
Ġà¦¤à¦° à¦Ļ
à¦¯ à¦ļ
à¦Ń à§Ł
Ġà¦¶à¦°à§İ à¦ļà¦¨
à¦¤ à¦¯
à¦¤ à¦ĵ
Ġà¦ħ à¦®à¦°
à¦ĸ à¦¸
Ġà¦¨ à¦ĩ
Ġà¦Ĺ à¦ł
à¦ī à¦¡
à§ ¯
à¦¯ à¦¸à¦®
Ġà¦¨ à¦ķ
à¦ľ à¦ĩ
Ġà¦ĵ à§Ł
Ġà¦² à¦®
à¦§ à¦¸
à¦°à¦® à¦¬à¦°
à¦Ĩ à¦Ĺ
à¦ķ à¦Ľ
à¦® à¦ļà¦°
à¦ĵ à¦°
Ġà¦ıà¦ĸà¦¨ à¦ĩ
à¦ľà¦¸ à¦Ń
Ġà¦Ń à¦°à¦¦
à§Ī à¦ĥ
Ġà¦ľà¦¨ à¦ľ
Ġà¦®à¦¹ à¦¤
à¦¯à¦® à§Ł
Ġà¦® à¦®
à¦¡ à¦¨
Ġà¦ļ à¦°à¦£
Ġà¦Ĳ à¦¨
Ġà¦Ŀ à¦Ĺà¦¡
à¦¯ à¦°à¦ķà¦®
Ġà¦¦ à¦°à¦¬
à¦¡ à¦ķ
Ġà¦ıà¦ķ à¦¸
Ġà¦ħà¦¨ à¦¬à¦¦
Ġà¦ĩ à¦īà¦°
Ġà¦ªà§ľ à¦²
à¦² à¦®à¦¨
à¦ª à§ľ
Ġà¦¶ à¦¶
Ġà¦ĩ à¦īà¦¨
à¦°à¦¬ à¦£
Ġà¦ħà¦ª à¦¬
à¦°à¦¹à¦£ à¦¯
Ġà¦ķà¦¤ à¦Ĺ
à¦¸à¦ķ à¦·
Ġà¦¸à¦« à¦²à¦¤
à¦¨ à¦ı
à¦¨ à¦ħ
à¦¤ à¦¥
à¦¯ à¦ļà¦°
à¦¼ à¦ĥ
à¦¦ à¦ĩ
Ġà¦¦ à¦£
à¦ªà¦ķ à¦¥à¦¨
Ġà¦¯à¦¤ à¦¦
à¦¤ à¦¬à¦°
à¦ķ à¦£
à¦¸ à¦ĩ
à¦Ł à¦Ľ
Ġà¦¤ à¦¸
à¦°à¦£ à¦¤
à¦®à¦¬ à¦Ļ
Ġà§§à§ ¦
à¦ķ à¦¯
à¦Ł à¦Ń
Ġà¦ĵ à¦Ł
à¦² à¦®à¦²
Ġà¦ı à¦¯
à¦ļ à¦¡
à¦¥ à¦ķà¦¤
à¦¤à¦¨ à¦¶
à¦ī à§İà¦¸à¦¬
à¦¸à¦® à§Ł
Ġà¦ĩà¦¨ à¦¸
Ġà¦¤à¦¤ à¦Ł
Ġà¦Ķ à¦°à¦¸
à¦¤ à¦¹
Ġà¦¬ à§İà¦¸à¦°
Ġà¦¤ à¦ª
Ġà¦ļ à¦£
Ġà¦ĵ à¦ª
Ġà¦ĩ à¦°
à¦Ŀ à¦°
Ġà¦ľà¦² à¦ľ
à¦¨ à¦§
Ġà¦® à¦ľà¦¬
Ġà¦¨ à¦Ĺ
à¦Ł à¦¦
à¦ľ à§Ł
à¦¡ à¦¬à¦°
à¦Ĩ à¦ľ
à¦®à¦£ à¦ķ
Ġà¦¯à¦ĸà¦¨ à¦ĩ
à¦·à¦ķ à¦¶
Ġà¦¤à¦¤ à¦ĩ
à¦ķ à¦ĸ
Ġà¦ķ à¦¡
Ġà¦¬ à¦ªà¦¨
Ġà¦ı à¦ĵ
à¦¶ à¦ĵ
à¦Ĺ à¦Ľ
à¦¤à¦° à¦ĩ
Ġà¦ħà¦¬ à¦¸à¦°
Ġà¦®à¦¹ à§İ
Ġà¦Ŀ à¦¡
Ġà¦Ĩà¦ĸ à¦¡
à¦¦ à¦ĵ
Ġà¦ħà¦§ à¦°
Ġà¦ĺà¦Ł à¦¬
à¦° à¦¸à¦¬
Ġà¦² à¦Ļ
Ġà¦§ à¦°à¦£
à¦ķ à¦¬à¦°
Ġà¦Ĩ à¦ĩ
à¦Ĺ à¦ĵ
à¦§ à¦ķà¦¤
Ġà¦¯ à¦¶
Ġà¦ĵ à¦·
Ġà¦ıà¦ķ à¦°à¦ķà¦®
Ġà¦ľà¦¨ à¦¤
Ġà¦¤à¦ĸà¦¨ à¦ķ
Ġà¦ıà¦ĸà¦¨ à¦ķ
à¦ıà¦ķ à¦ľà¦¨
à¦¸ à¦ĵ
à¦Ł à¦Ĺà¦²
à¦Ĺà¦¤ à¦Ń
à¦²à¦¨ à¦®
à¦ĺ à¦ķ
Ġà¦ıà¦®à¦¨ à¦Ń
à¦¬à¦ķ à¦¦
Ġà¦ļà¦® à§İà¦ķ
à¦¦ à¦¬à¦¦
Ġà¦® à¦²
à¦§ à¦ĩ
à¦Ń à¦¸
Ġà¦ıà¦ķ à¦¯
Ġà¦ĺà¦Ł à¦Ľ
à§° à¦¬
à¦¦ à¦Ń
Ġà¦Ĩ à¦ĵà¦¯
Ġà¦ıà¦ķ à¦ª
à¦ı à¦ĸ
à¦°à¦® à¦¬
Ġà¦¸à¦¬ à¦¸à¦®à¦¯
Ġà¦¸à¦¹ à¦ķà¦°
à¦¥à¦ª à¦°à¦¤
à¦§ à¦Ł
Ġà¦Ń à¦Ł
à§ľ à¦Ľ
Ġà¦¸à¦¹ à¦¨à¦¶
à¦¨à¦ĵ à¦Ń
Ġà¦īà§İ à¦ªà¦¤
à¦¯ à¦§
Ġà¦Ĩ à¦¹à¦°à¦£
à¦¡ à¦ª
Ġà¦ıà¦ķ à¦ĸ
Ġà¦§ à¦°à¦¬
Ġà¦Ĩà¦¸ à¦°
à¦°à¦¹ à¦°
Ġà¦¬à¦¨ à¦Ń
¯à§ ¦
Ġà¦¨à¦¬ à¦¬à¦°
Ġà¦ħà¦¬à¦¨ à¦¤
à¦¯ à¦°à¦¸
Ġà¦¸ à¦¸
Ġà¦® à¦°à¦£
à¦Ľ à¦ķ
à¦Ľ à¦ª
Ġà¦ħà¦¨ à¦¸
à¦ªà¦° à¦®
Ġà¦ĺà¦Ł à¦¤
Ġà¦Ĩà¦Ĺ à¦®à¦¨
à¦ħ à¦Ń
Ġà¦¤à¦¤ à¦¦
Ġà¦īà¦² à¦Ł
à¦¯ à¦ĸà¦¨
Ġà¦¶ à¦ļ
Ġà¦Ľ à¦²
à¦ī à¦¸
à¦¨à¦¬ à¦¸à¦®
à¦Ĩ à¦ķ
Ġà¦Ŀ à¦²à¦®à¦²
à¦ķ à¦¤à¦°
à¦ľ à¦¤à¦¨
Ġà¦¶ à¦ªà¦¥
Ġà¦² à§ľ
à¦°à¦ķ à¦¨
Ġà¦ĩ à¦¸
à¦¨à¦¬ à¦¦
Ġà¦«à¦² à¦¶
Ġà¦§à¦¨ à¦¤à¦¨
à§¦ à§¦
à¦¤ à¦ĸà¦¨
à¦Ł à¦ĩ
Ġà¦¹ à¦ĩà¦¯
à¦ļ à¦¤à¦°
Ġà¦ľ à§ľ
Ġà¦ĵ à¦ķ
à¦ĺ à¦¦
Ġà¦ķà¦² à¦Ļ
à¦Łà¦¤ à¦ĩ
à¦¤ à¦°à¦ķ
à¦ķ à¦¸à¦Ļ
à¦ĩ à¦ľà¦¨
à¦ļ à¦¬à¦°
Ġà¦ħà¦¤ à¦²
à¦ªà¦ķ à¦¥
Ġà¦¨ à¦¡
Ġà¦¦ à¦®à¦¨
à¦Ń à¦ľ
Ġà¦Ĺ à¦¯
à§İ à¦ªà¦¤
à¦°à¦¬ à¦ķ
à¦ī à¦¤
Ġà¦¬à¦° à¦«
Ġà¦īà¦¤ à¦Ļ
Ġà¦ıà¦ķà¦ĩ à¦Ń
à¦ķ à¦ł
à¦· à¦¨
Ġà¦ħ à¦®à¦¨
Ġà¦¹ à¦ĩà¦²
à¦¯à¦¬ à¦§
à¦ĺ à¦Łà¦¨
Ġà§ §
à¦° à¦Ĩ
à¦¯ à¦§à¦°
à¦· à¦ĵ
à¦¹ à¦£
à¦ļ à¦¸
à¦¥ à¦¹
à¦¸à¦¬ à¦¶
à¦Ĩ à¦ª
à¦¬ à¦¡
Ġà¦¸ à¦¦à¦°
Ġà¦ķ à¦«
Ġà¦Ĩ à¦¨à¦¬
Ġà¦¦ à¦«
Ġà¦¹ à¦¨à¦¨
Ġà¦ª à§°
à¦ª à¦Ń
à¦ª à¦ĵ
à¦¥ à¦Ĺ
à¦¬à¦¨ à¦¦à¦°
Ġà¦ľà¦¨ à¦ªà¦¦
à¦°à¦¬ à¦§
à¦Ĩ à¦ªà¦¨
Ġà¦ķà¦² à¦°à¦¬
Ġà¦ıà¦ķà¦¦ à¦²
Ġà¦¦à¦¶ à¦®
à¦¯ à¦Ĺà¦¤
à¦® à¦ķà¦°
à¦® à¦¹à¦¤
Ġà¦¨ à¦°à¦ķ
à¦ľ à¦ķà¦°
à¦Ĺ à¦²à¦ķ
à¦§ à¦Ĺ
à¦¥ à¦Ł
Ġà¦ĩ à¦¬
à¦ī à¦¯
à¦²à¦¨ à¦ķ
Ġà§ ¬
Ġà¦ľà¦² à¦¦
à¦°à¦ļ à¦£
Ġà¦¸à¦ķà¦² à¦ķ
Ġà¦Ī à¦°
Ġà¦Ĩà¦ª à¦¡
à¦¨ à¦·
à¦¬ à¦°à¦ķ
à¦¬ à¦¸à¦®
à¦² à¦¸à¦¬
Ġà¦¹ à¦ĵ
Ġà¦¹ à¦ĩà¦¤
à¦£ à¦ĩ
Ġà¦ıà¦ķ à¦¸à¦®à¦¯
à¦ı à¦ķà¦¦
à¦ī à¦¬
à¦ī à¦ªà¦°
à¦ķà¦² à¦¨
à¦Ĩ à¦¤
à¦¸ à¦¤à¦¤
à¦· à¦°à¦¤
Ġà¦ı à¦®
Ġà¦ı à¦ľà¦¨
à¦°à¦¬ à¦¦
à¦·à¦£ à¦¶
Ġà¦Ĩà¦¬ à¦°à¦£
à¦°à¦« à¦¤
à¦¨à¦Ĩ à¦ªà¦¨
à¦² à¦§à¦¨
Ġà¦Ĩ à¦ł
à¦ĩ à¦ĸ
à¦· à¦¶
à¦Ł à¦ĵà¦¯
Ġà¦¹ à¦ķ
à¦¹ à¦ł
à¦¤à¦° à¦ĵ
à§İ à¦ĩ
à¦ı à¦²
à¦ī à¦ª
Ġà¦®à¦¤ à¦ĩ
Ġà¦ħà¦Ĺ à¦£
Ġà§§à§ ®
à¦¬à¦® à¦ŀ
Ġà¦ªà¦Ł à¦ļ
à¦¨ à¦ĸ
à¦¯ à¦ľà¦¨
à¦ķ à§ľ
à¦ķ à¦¶à¦¨
à¦® à¦Ľ
à¦· à¦Ĺ
à¦ª à¦ķà¦°
à¦§ à¦ĵ
à¦°à¦£ à¦ķ
à¦¬à¦° à¦¬
à¦ĺ à¦²
Ġà¦¸à¦¹ à¦ª
Ġà¦īà§İ à¦¸à¦°
à¦ħ à¦ķ
à§° à¦¸
Ġà¦Ńà¦°à¦¤ à¦¬
à¦° à¦®à¦¨
à¦¨ à¦®à¦¨
à¦® à¦īà¦¦
à¦¸ à¦ķà¦²
à¦ĩ à¦¸à¦¬
Ġà¦ı à¦ª
à¦ľ à¦ľ
Ġà¦¤ à¦¤à¦ķ
Ġà¦ľ à¦¸
Ġà¦ļ à¦ŀ
à¦ĺ à¦¤à¦®
à¦®à¦£ à¦°
Ġà§ Ń
Ġà¦¢ à¦²
Ġà¦ħà¦ªà¦° à¦¦
Ġà¦ķ à¦¦
Ġà¦¨ à¦ķà¦²
Ġà¦ħ à¦¬à¦°
Ġà¦° à¦ļà¦¯
Ġà¦Ľ à¦Ł
à¦¬à¦¨ à¦Ł
à¦·à¦£ à¦ķ
à¦¬à¦¤ à¦ĩ
à¦ķà¦² à¦®
Ġà§§à§¯à§ ª
à¦¬ à¦Ĺà¦¤
Ġà¦ı à¦¶
à¦ĵ à¦¤
à¦¨ à¦ľà¦¨
Ġà¦ķ à¦¤à¦ķ
Ġà¦Ĩ à¦«
Ġà¦¹ à¦°à¦£
à¦ł à¦¶
à¦¬à¦¨ à¦®
à¦ı à¦¤
à¦¬à¦² à¦ĩ
à¦¨à¦ĵ à¦¦
à¦² à¦ĵ
à¦ĩ à¦°à¦ķà¦®
à¦Ł à¦Ł
Ġà¦ħ à¦¯à¦¤
à¦ļ à¦Ń
Ġà¦ļ à¦¬
Ġà¦ļ à¦¶à¦®
à¦°à¦¤ à¦¨
Ġà§§à§ ©
à¦¨ à¦¸à¦¬
à¦¤ à¦Ĺà¦¤
à¦¸ à¦Ľ
à¦§ à¦ª
Ġà¦² à¦ĺ
Ġà¦« à¦²à¦¤
à¦ĺ à¦¸
à¦¨à¦¬ à¦¸
à¦Ĩ à¦¨
Ġà¦¸à¦° à¦¬à¦°
Ġà¦īà§İ à¦ķà¦°
Ġà¦ħà¦ª à¦ļà¦¯
Ġà¦¯à¦¤ à¦ĸ
Ġà¦Ĺà¦£ à¦ªà¦°
Ġà§§à§¯à§ ¯à§¦
Ġà¦· à¦¡
à¦² à¦¶
Ġà¦ª à¦Ļ
à¦¶ à¦Ń
Ġà¦ħ à¦ĸà¦£
à¦£ à¦¤à¦°
à¦¤à¦° à¦ª
Ġà¦¹à§Ł à¦¨
Ġà¦¬à§Ł à¦¸
à¦® à¦®à¦°
Ġà¦ķ à¦ļà¦ķ
Ġà¦ª à¦¤à¦¨
à¦ľ à¦Ľ
Ġà¦¤ à¦«
à¦ĸ à¦ķà¦¦
à§Ł à¦¸
Ġà¦Ń à¦¬à¦¨
Ġà¦ī à¦Ńà§Ł
à§İ à¦¸à¦ķ
à¦ī à¦ļ
à¦®à¦¤ à¦¤
à¦Ĩ à¦ļ
à¦®à¦ķ à¦°à¦£
Ġà§§à§ ¨
Ġà¦· à¦·
à¦¤ à¦Ľ
à¦ľ à¦¶
Ġà¦¦ à¦ĩ
à¦§ à¦¶
Ġà¦¹ à¦Ł
à¦¡ à¦Ĺ
Ġà¦ī à§ľ
à¦°à¦£ à¦Ĺ
Ġà¦ĸ à¦¨
à¦ī à§Ł
à¦°à¦¶ à¦ķ
Ġà¦«à¦² à¦¸
Ġà¦ħà¦® à¦Ļ
à¦° à¦ŀ
à¦¸ à¦Ĺ
Ġà¦Ĩ à¦ĵà§Ł
Ġà¦Ĩ à¦ªà¦¸
Ġà¦¨ à¦®à¦¸
à¦Ĺ à¦¬à¦¨
à¦Ľ à¦¯
à¦¹ à¦ª
Ġà¦¯ à¦ķ
Ġà¦Ń à¦£
Ġà¦° à¦ª
Ġà¦ĵ à¦ĸ
à¦°à¦¤ à¦ķ
à¦ł à¦ª
Ġà¦Ľ à¦²à¦¨
Ġà¦®à¦¨ à¦Ł
Ġà¦ľà¦¨ à¦ķ
Ġà¦ľà¦¨ à¦¸à¦®
Ġà¦ĩ à¦ŀ
Ġà¦ĩ à¦ľà¦°
à¦ı à¦¦
à¦¸à¦¬ à¦ĸ
à§° à¦¨
à¦¨à¦¦ à¦£
à¦Łà¦¬ à¦¡
à¦® à¦ĺ
Ġà¦¸ à¦¯à¦¤
à¦ľ à¦Ń
à¦Ľ à¦Ĺ
Ġà¦¯ à¦¤à¦ķ
Ġà¦¶ à¦®
Ġà¦° à¦¹
Ġà¦° à¦ĵà¦¨
Ġà¦ıà¦ķ à¦Ĺ
Ġà¦Ľ à¦¤
Ġà¦« à¦Ł
à¦°à¦® à¦°
Ġà¦¸à¦¬ à¦Ł
à¦¦à¦° à¦¬à¦¨
à¦¬à¦² à¦ľ
à¦ķà¦Ł à¦ķ
Ġà¦«à¦² à¦ª
ĠĠĠĠ Ġ
Ġà¦ķà¦² à¦¹
Ġà¦¶à¦¹à¦° à¦Ĺ
Ġà¦Ĺà¦łà¦¨ à¦®
à¦ķ à¦§à¦°
à¦¬ à¦¶à¦ķ
à¦® à¦²à¦¤
Ġà¦¬ à¦°à¦®
à¦ª à¦ªà¦¤
à¦£ à¦ĵ
à§Ł à¦¦
Ġà¦ªà¦° à¦ĵ
à¦ªà¦° à¦¬à¦°
à¦ľà¦¨ à¦ĩ
Ġà¦ĩ à¦ķ
à¦°à¦¬ à¦ļ
à¦« à¦®
Ġà¦ħà¦¸ à§İ
Ġà¦Ĩà¦¸ à¦ķ
Ġà¦ıà¦®à¦¨ à¦Ł
ĠĠĠĠ ĠĠ
à¦ħ à¦ª
Ġà¦ķà¦® à¦²
Ġà¦ħà¦ª à¦°à¦ķ
Ġà¦ªà¦¦ à¦ķà¦°
Ġà¦ľà¦² à¦°
à¦°à¦®à¦£ à¦ķ
Ġà¦Ĺà§ľ à¦¤
à¦¬à¦ľ à¦Ĺà¦¤
à¦¬ à¦Ļ
à¦¬ à¦ªà¦°
Ġà¦¨ à¦¬à¦ķ
Ġà¦¤ à¦®
à¦§ à¦Ń
à¦£ à¦Ł
Ġà¦¶ à¦°à¦£
à¦¡ à¦Ł
Ġà¦° à¦¤à¦¨
à¦ľà¦¨ à¦¨
Ġà¦ĩ à¦Ł
à¦« à¦°
à¦°à¦¸ à¦Ń
Ġà¦Ĩà¦¨ à¦Ľ
Ġà¦ķà¦¤ à¦ĸ
Ġà¦°à¦¸ à¦Ĺ
Ġà§¨ à§§
à¦¬ à¦®à¦¯
à¦® à¦°à¦ķ
Ġà¦¬ à¦ļà¦¨
à¦¸ à¦ļ
à¦ĩ à¦ļ
à¦§ à¦¯
Ġà¦Ń à¦°à¦ª
à¦¬à¦° à¦ª
Ġà¦ĩ à¦¡
à¦°à¦¬ à¦¸
à¦¸à¦® à¦¸
à¦Ĺà¦² à¦Ł
à¦°à¦ľ à¦¬
Ġà§§à§¯à§ ®
à¦¨ à¦ļà¦°
à¦¯ à¦ªà¦°
à¦ķ à¦¸à¦¬
à¦¬ à¦²à¦¨
à¦® à¦®à¦¤
à¦¸ à¦¡
Ġà¦¹ à¦«à¦®
à¦ļ à¦Ĺ
à¦ĵ à¦²
Ġà¦¸à¦® à¦Ŀ
Ġà¦ıà¦ķ à¦²à¦¬
à¦¼à¦¾ à¦Ĥ
Ġà¦Ľ à¦¦
à¦¬à¦¨ à¦¦
à§İ à¦¸à¦²
à¦°à¦¬ à¦®à¦¯
à§° à¦®
à¦ªà¦¦ à¦ķ
Ġà¦ªà¦¦ à¦ļ
à¦®à¦Ĺ à¦ŀ
à¦ıà¦ķ à¦ĩ
à¦¨ à¦§à¦°
à¦® à¦·
Ġà¦¸ à¦ªà¦ķ
à¦¹ à¦Ł
à¦°à¦£ à¦ĵ
à¦°à¦ķ à¦°
à¦ľà¦¨ à¦¦
à¦¤à¦¨ à¦Ń
Ġà¦ļà¦² à¦ļ
à¦®à¦£ à¦Ĺ
Ġà¦Ŀ à¦°à¦¨
Ġà¦¸à¦¹à¦ľ à¦²à¦Ń
Ġà¦Ĺà¦£ à¦¨
à¦¬ à§°
Ġà¦ķ à¦ķ
Ġà¦¬ à¦¨à¦¬
Ġà¦¨ à¦Ł
à¦¥ à¦¬à¦¹
Ġà¦Ĺ à¦¹
Ġà¦Ĩà¦® à¦¦
Ġà¦ªà¦° à¦ĩ
à¦ł à¦¦
Ġà¦¥ à¦®à¦ķ
Ġà¦² à¦²
Ġà¦ħà¦¸ à¦¤
à¦¤à¦¬ à¦¬
à¦ıà¦ĩ à¦¸à¦¬
Ġà¦ıà¦¨ à¦ľ
à¦°à¦ĸ à¦°
à¦·à§Ł à¦ķ
à¦®à¦¶ à¦¹à¦°
à¦ľ à¦Ļ
Ġà¦ħ à¦ļà¦²
à¦§ à¦°à¦¨
Ġà¦° à¦£
Ġà¦ıà¦ķ à¦°
Ġà¦®à¦¨ à¦®
Ġà¦ĩ à¦¦
à§ľ à¦ķ
à¦ī à¦¶à¦¨
à¦Ĩ à¦¬
Ġà¦ķà¦® à¦¬
Ġà¦ķà¦¨ à¦«
Ġà¦®à¦Ĺ à¦§
à¦° à¦ļà¦¨
à¦² à¦ĸ
Ġà¦¨ à¦¦à¦¨
à¦¹ à¦ĩ
à¦¹ à¦Ń
Ġà¦ľ à¦ª
à¦Ļ à¦¤
Ġà¦ħà¦¨ à¦¬à¦°à¦¤
à¦®à¦¨ à¦¸
à¦Ĩ à¦¨à¦¨
Ġà¦Ĩà¦¨ à¦²
à¦ľà¦Ĺ à§İ
Ġà¦¸à¦°à¦¸ à¦¤
à¦¤ à¦®à¦¨
Ġà¦ķ à¦¸
Ġà¦¨ à¦ľ
à¦ľ à¦¡
à¦¶ à¦ľ
Ġà¦¦ à¦¸
à¦£ à¦¶à¦ķ
Ġà¦ľ à¦Ĺà¦¨
à§Ł à¦£
à¦°à¦£ à§Łà¦¨
Ġà¦² à¦¬à¦£
à¦ı à¦¸
Ġà¦īà¦ª à¦¬
à¦ĺ à¦Ł
à¦¬à¦¦ à¦¨
à¦ħ à¦§
Ġà¦ľà¦² à¦ª
à¦¸à¦° à¦²
Ġà¦ĭ à¦Ĺà¦¬
Ġà¦ıà¦ķà¦¦ à¦®
à§ ¯à§
à¦¤ à¦ľà¦¨
à¦¬ à¦ļà¦¨
à¦² à¦Ļ
Ġà¦Ĩ à§ľ
à¦ĩ à¦ħà¦ķ
à¦· à¦§
à¦¶ à¦¶
Ġà¦¦ à§Ł
Ġà¦¦ à¦°à¦¦
Ġà¦Ń à¦¸
à¦¬à¦¨ à¦ĩ
Ġà¦ħà¦¬ à¦ļ
à¦ħ à¦®
à¦¨ à§Ł
à¦¯ à¦¨à¦¤
à¦¬ à¦Ľà¦°
à¦® à¦¹à¦°
Ġà¦ķ à¦ĩ
Ġà¦ķ à¦¶
à¦Ł à¦ĵà§Ł
à¦¶ à¦§
Ġà¦ħ à¦¡
à¦§ à¦²
à¦§ à¦Ĺà¦®
à¦¹ à¦ļà¦°
à¦¥ à¦Ń
à¦Ń à¦®
Ġà¦Ĺ à¦ľ
Ġà¦ªà¦° à¦¨
à¦°à¦£ à¦Ń
Ġà¦ıà¦ĩ à¦ľà¦¨
Ġà¦ĸ à¦¸
Ġà¦ľà¦¨ à¦®à¦¤
Ġà¦ħà¦¬ à¦ľ
Ġà¦Ĳ à¦¤à¦°
à¦¬à¦ķ à¦¯
Ġà§§à§ «
Ġà¦ªà§ľ à¦Ľ
Ġà¦ħà¦¹ à¦Ļ
Ġà¦Ĩà¦Ł à¦Ł
à¦¨ à¦®à¦¹
à¦¤ à¦¡
à¦® à¦®à¦¨
Ġà¦ķ à¦²à¦¤
Ġà¦ª à¦łà¦¨
à¦¸ à¦ľ
à¦ª à¦Ľ
Ġà¦® à¦¦à¦¨
Ġà¦® à¦¶à¦²
à¦§ à¦¹
à¦¥ à¦ĩ
à¦¡ à¦¬à¦ķ
Ġà¦ªà¦° à¦²
à¦ı à¦Ľ
à¦·à¦£ à¦ĩ
à¦¤à¦¬ à¦ķ
Ġà¦¯à¦ľ à¦®
Ġà¦¨à¦¬ à¦®
Ġà¦ħà¦² à¦¸
Ġà§§à§¯à§ ¨
Ġà¦¦à¦¶ à¦Ł
à¦ĭ à¦£
Ġà§¨à§¦ à§§à§
à¦° à¦ªà¦¤
à¦¨ à¦ıà¦¸à¦¬
à¦® à¦Ļ
Ġà¦ķ à¦¨à¦¸
à¦ĩ à¦¶
Ġà¦® à¦°à¦®
à¦¶ à§Ł
Ġà¦ħ à¦£
à¦£ à¦¶
Ġà¦Ń à¦ľà¦¨
à¦ľà¦¨ à¦¤
à¦¤à¦¨ à¦ķ
à¦°à¦® à¦ľ
à¦« à¦Ł
à¦ī à¦®
à¦ī à¦ªà¦¨
Ġà¦īà¦ª à¦¤
à¦Ĩ à¦¶
à¦¶à¦¨ à¦ķ
à¦²à¦ķ à¦£
à¦īà¦² à¦¦
Ġà§§à§ ª
Ġà¦ľà¦¨à¦¸ à¦ļ
à§Ŀ à¦¤
à¦ Ī
à¦² à¦¡
Ġà¦ķ à¦¹
Ġà¦Ĩ à¦ĩà¦¡
à¦Ĺ à¦ļ
à¦ĸ à¦ķà¦°
à¦¡ à¦ķà¦°
à¦ľà¦¨ à¦ĵ
à¦·à¦£ à¦®
à¦¨à¦ĵ à¦Ł
Ġà¦īà§İ à¦ķ
Ġà¦īà§İ à¦ªà¦¨
à¦ħ à¦¬
à¦¯à¦ª à¦Ł
à¦®à¦¸à¦® à¦°
à¦¼ à§į
à¦¼ à§Ĥ
à¦¸ à¦ŀ
à¦¸ à¦¨à¦¬
Ġà¦ı à¦ľ
à¦ĵ à¦¡
Ġà¦ĵ à¦¸à¦¬
Ġà¦ıà¦ĩ à¦¬
à§ľ à¦¤
à¦Ĩ à¦¦
Ġà¦ķà¦ĸà¦¨ à¦ĩ
Ġà¦¶à¦¤ à¦ķà¦°
Ġà¦ªà§ľ à¦¤
à¦Ĺà¦® à¦ŀ
Ġà¦¦à¦« à¦¤à¦°
à¦¯ à¦¬à¦¨
à¦¯ à¦Ŀ
à¦ķ à¦®à¦¤
à¦¬ à¦§à¦°
Ġà¦ķ à¦¦à¦°
à¦¦ à¦®à¦¨
à¦· à§İ
à¦Ĺ à¦¯à¦ľ
Ġà¦¦ à¦Ĺ
à¦£ à¦ľ
Ġà¦° à¦ĺ
Ġà¦¸à¦® à¦Ń
Ġà¦ıà¦ķ à¦Ń
à¦°à¦® à¦ķ
Ġà¦ħà¦¬ à¦²
Ġà¦ªà¦¥ à¦ļ
Ġà¦ıà¦®à¦¨ à¦ĵ
Ġà§ ®
à¦¸à¦¨ à¦ķ
Ġà¦Ŀ à¦ķ
à¦ıà¦ĩ à¦Ń
à¦¨à¦ª à¦¤à¦¨
Ġà¦ļà¦ķ à¦ļà¦ķ
Ġà§¨à§¦ à§¦
Ġà¦¨à¦¦à¦¨ à¦¦
à¦¤ à¦¸à¦®
à¦¯ à¦¸à¦¨
à¦¬ à¦ķà¦²
à¦¦ à¦¬à¦°
à¦ª à¦ĸ
Ġà¦ħ à¦¯à¦¥
Ġà¦Ĺ à¦ļ
à§Ł à¦ĩ
Ġà¦ī à¦§
Ġà¦ıà¦ķ à¦ľ
Ġà¦ªà¦° à¦ªà¦°
à¦ł à¦°
Ġà¦¬à¦² à¦°
Ġà¦īà¦ª à¦²à¦ķ
Ġà¦ħà¦¸ à¦¨
à¦ĺ à¦¬à¦¦
Ġà¦ħà¦§ à¦¸
à¦Ĩ à¦¦à¦°
à¦¤à¦ķ à¦°à¦£
à¦ľà¦ķ à¦¨
Ġà§§à§¯à§ §à§
à¦·à§Ł à¦Ĺ
Ġà¦¸à¦« à¦°
à¦° à¦ıà¦ĩ
à¦° à¦ıà¦¸à¦¬
à¦¨ à¦ľà¦Ł
à¦¤ à¦§
Ġà¦Ĩ à¦ĵà¦¤
à¦· à¦ľà¦¨
Ġà¦¨ à¦®à¦¨
à¦¶ à¦§à¦°
Ġà¦¦ à¦¡
à¦§ à¦ķà¦°
à¦£ à¦¬à¦°
à¦ļ à¦ª
à¦¥ à¦ªà¦°
à§Ł à¦°
à¦¬à¦¨ à¦¬à¦¤
Ġà¦² à¦¯
à¦¤à¦° à¦¸
à§ľ à¦¨
à¦·à¦£ à¦ĵ
Ġà¦§à¦° à¦Ľ
à¦°à¦¸ à¦¹
à¦¨à¦¬ à¦®à¦¨
à¦§à¦¨ à¦¸à¦Ļ
Ġà¦Ĩà¦¤ à¦Ļ
à¦°à¦¥à¦® à¦Ł
Ġà¦Ŀ à§ľ
à¦°à¦Ĩ à¦ļà¦°à¦£
à¦° à¦¡
Ġà¦¸ à¦¯
Ġà¦¸ à¦ĩà¦¤
à§ĭ à¦Ĥ
Ġà¦¨ à¦°à¦¨
à¦Ł à¦ķà¦²
Ġà¦ħ à¦ķà¦²
à¦Ń à¦°à¦¯
Ġà¦° à¦¶
Ġà¦¸à¦® à¦¬à¦¯
Ġà¦ıà¦ķ à¦ļ
à¦ŀ à¦§à¦°
à¦¤à¦° à¦Ń
à¦Ŀ à¦ªà¦¥
à¦¨à¦¤ à¦¤
Ġà¦¸à¦¹ à¦ķ
à¦¨à¦¬ à¦ķ
à¦¨à¦¬ à¦ķà¦²
Ġà¦ªà¦¥ à¦Ł
à¦ªà¦¦ à¦¬
Ġà¦Ĩà¦¶ à¦ª
Ġà§§à§¯à§ ¬
Ġà¦īà§İà¦¸à¦¬ à¦®
Ġà¦ľà¦Ĺ à¦¦
à§ĩ à¦ĥ
à¦¨ à¦¬à¦¨
à¦ķ à¦ĸà¦¨
à¦ķ à¦«
à¦ķ à¦¸à¦®
à¦® à¦ĸ
à¦® à¦°à¦¸
Ġà¦¨ à¦¥
à¦Ł à¦¯
à¦ľ à¦ļ
à¦¶ à¦°à¦ķ
à¦Ĺ à§İ
Ġà¦ħ à¦²à¦ķ
à¦§ à¦§à¦°
Ġà¦¯ à¦¬à¦¨
à¦ĸ à¦¬à¦°
à¦Ń à¦Ł
Ġà¦Ń à¦¬à¦¤
Ġà¦° à¦¨
à¦°à¦£ à¦ĩ
à¦°à¦® à¦¤
Ġà¦¸à¦¬ à¦¸à¦®à§Ł
à¦« à¦¨
à¦Ŀ à¦ķ
à¦²à¦¨ à¦ª
à¦¨à¦¬ à¦¸à¦Ń
Ġà¦¹à¦¤ à¦¬
Ġà¦ķà¦® à¦Ľ
à¦¬à¦ķ à¦¥
à¦ªà¦ķ à¦Ń
Ġà¦¸à§İ à¦¤
Ġà¦ıà¦ĩà¦°à¦ķà¦® à¦ĩ
à¦¨ à¦Ĺà¦¤
à¦¤ à¦²à¦¤
à¦¯ à¦¤à¦°
à¦¬ à¦ķà¦°
à¦² à¦ĺ
à¦² à¦ªà¦¤
à¦® à¦ªà¦¨
à¦® à¦®à¦¯
à¦® à¦ļà¦ķ
Ġà¦Ĩ à§Łà¦¤
à¦ª à¦¹
à¦Ł à¦Ĩà¦ª
à¦Ĺ à¦¹
Ġà¦¦ à¦²à¦¬
à¦Ľ à¦Ł
à¦Ľ à¦¡
à¦£ à¦ļ
à¦ļ à§Łà¦¤
à¦ĸ à¦ļ
à¦ĸ à¦ĵ
Ġà¦ªà¦° à¦¤
à¦ł à¦Ń
à¦ŀ à¦ķ
à¦ŀ à¦¬à¦²
Ġà¦ĩ à¦·
Ġà¦ĩ à¦īà¦Ł
à¦°à¦¬ à¦ª
Ġà¦¸à¦¬ à¦ĸ
Ġà¦īà¦¦ à¦ĺ
Ġà¦ħà¦¸ à¦Ń
Ġà¦ħà¦¸ à¦Ļ
Ġà¦ħà¦§ à¦®
Ġà¦ł à¦ķ
à¦¦à¦¨ à¦ķ
à¦°à¦§ à¦°
Ġà§§à§ §à§
Ġà¦ķà¦¤ à¦ķà¦Ł
Ġà¦¸à¦¹à¦ľ à¦¸à¦°à¦²
Ġà¦Ĩà¦¦ à¦²
Ġà¦īà¦ªà¦° à¦¨
Ġà¦ªà§ľ à¦¬
à§§à§ ¯à§
à¦° à¦ħ
à¦¯ à¦¸à¦¬
à¦¬ à¦ŀ
à¦¬ à¦¦à¦°
à¦² à¦¹
à¦® à¦ıà¦ĩ
Ġà¦¸ à¦Ĺ
Ġà¦ķ à¦¬à¦°
Ġà¦ķ à¦ªà¦Ł
Ġà¦ª à¦Łà¦²
à¦¦ à¦ªà¦¤
à¦ª à¦ŀ
Ġà¦® à¦ķ
à¦ļ à¦ľà¦¨
à¦Ń à¦²
à¦Ń à¦Ĺ
Ġà¦ıà¦ķ à¦ĺ
Ġà¦ħà¦¨ à¦°
à¦¬à¦¨ à¦¸
Ġà¦² à¦¨
à¦¬à¦° à¦ĩ
à¦ī à¦Ńà¦¯
à¦ĺ à¦¬
à¦Ĩ à¦¡
à¦²à¦¬ à¦§
Ġà¦ĩà¦¨ à¦«
à§Łà¦¨ à¦¯
Ġà¦ıà¦ķà¦ĩ à¦¸à¦Ļ
Ġà¦Ĩà¦¦ à¦¤
Ġà¦¬à¦ĩ à¦¤
Ġà¦¦à¦² à¦Ĺà¦¤
à¦Ĺà¦łà¦¨ à¦Ĺ
Ġà¦ķà¦¤à¦ķ à¦Ĺ
à¦¨ à¦¡
à¦¯ à¦Ĺà¦¨
à¦® à¦¶à¦ķ
Ġà¦¸ à¦¡
Ġà¦ª à¦²à¦ķ
Ġà¦Ĩ à§Łà¦¨
Ġà¦Ĩ à¦¹à¦¤
à¦ĩ à¦Ĺ
à¦ª à¦°à¦ķ
à¦Ł à¦°à¦¶
à¦Ł à¦§à¦°
à¦¶ à¦¸à¦®
à¦¶ à¦Ńà¦ķ
Ġà¦¤ à§İ
Ġà¦¹ à¦ĩà¦¬
à¦Ľ à¦¦
à¦ļ à¦Ľ
Ġà¦¶ à¦¨
Ġà¦ľ à¦¹
Ġà¦ī à¦®
Ġà¦ªà¦° à¦¬
à¦°à¦£ à¦ª
à¦ı à¦ķà¦¬
à§ľ à¦¬
à¦« à¦¸
Ġà¦Ĩà¦² à¦ªà¦¨
à¦Ĩ à¦¸
Ġà¦ķà¦² à¦¸
à¦¬à¦¸ à¦Ļ
à¦°à¦ļ à¦²à¦¨
Ġà¦¸à¦ļ à¦°
Ġà¦ķà¦¤ à¦¦
Ġà¦ķà¦ĸà¦¨à¦ĵ à¦ĩ
à¦·à¦¸ à¦¦
Ġà¦®à¦¸ à¦ľ
à§ ·
à¦¨ à¦ıà¦Ł
Ġà¦ķ à¦²à¦¨
Ġà¦¨ à¦¬à¦¬
à¦ľ à¦ķà¦¤
à¦ļ à¦¦à¦¶
à¦¥ à¦¶
à§Ł à¦ªà¦°
Ġà¦° à¦¸à¦¬
Ġà¦Ľ à¦ķ
à¦°à¦£ à¦Ł
Ġà¦ĸ à¦²
Ġà¦ħà¦¬ à¦®
à¦°à¦¯ à¦¨
Ġà¦®à¦¹ à¦²
à¦§à¦¨ à¦ĩ
Ġà¦ķà¦² à¦ķà¦²
à¦·à¦ķ à¦ķ
Ġà¦ªà¦¦ à¦¬
Ġà¦ľà¦² à¦§
à¦°à¦ļ à¦°
Ġà¦ĭ à¦ķ
Ġà¦¬à¦Ł à¦Ĺ
Ġà§§à§¯à§ ©
Ġà¦Ī à¦·à§İ
à¦ķà¦¸ à¦ľ
Ġà¦ıà¦¸à¦¬ à¦ĩ
à¦¯à¦¶ à¦¸
à¦¿ à¦¾
Ġà¦ķ à¦¤à¦¬
Ġà¦¬ à§İà¦¸
à¦ĩ à¦¹
à¦Ł à¦ķà¦°
Ġà¦ı à¦«
à¦¶ à¦¹à¦°
Ġà¦¤ à§İà¦¸
à¦Ĺ à¦¶
à¦ĸ à¦ĩ
Ġà¦ľ à¦¤
à§Ł à¦Ń
Ġà¦Ń à¦Ĺà¦¬à¦¤
Ġà¦ļ à¦ª
Ġà¦ıà¦ķ à¦®à¦¤
Ġà¦ªà¦° à¦¦
Ġà¦ªà¦° à¦ª
Ġà¦ħà¦¨ à¦¡
à¦¬à¦¨ à¦¶
à¦¬à¦° à¦¸à¦Ń
Ġà¦īà¦¦ à¦Ĺ
Ġà¦Ĩà¦² à¦®
à¦°à¦¥à¦® à¦¦
Ġà§ ¯à§
à¦ħ à¦²
à¦ªà¦¦ à¦¸
à¦¯à¦¸ à¦Ļ
Ġà§§à§ ¬
à¦°à¦Ĺ à¦£
Ġà¦§à¦¨ à¦¸à¦®
ĠĠĠĠĠĠĠĠĠĠĠĠĠĠĠĠ ĠĠĠĠĠĠĠĠ
à¦® à¦¦à¦°
Ġà¦ķ à¦¬à¦²
à¦¦ à¦¹
à¦¦ à¦°à¦¬
à¦· à¦¹
Ġà¦¨ à¦¬à¦°
à¦Ł à¦¬à¦²
à¦ľ à¦¸à¦®
à¦£ à¦ķà¦°
à¦£ à¦¸à¦®
à¦¥ à¦¯
Ġà¦¶ à¦ª
Ġà¦Ĺ à¦¤à¦ķ
à¦¡ à¦¸
à¦¡ à¦Ń
Ġà¦ļ à§ľ
à¦°à¦¤ à¦¤
à¦ł à¦¬
à¦ŀ à¦¦
Ġà¦ĩ à¦¤à¦°
Ġà¦ĺ à¦¡
Ġà¦¸à¦¹ à¦ļà¦°
à¦¨à¦¬ à¦ª
à¦°à¦¦ à¦¤
Ġà¦¬à¦¹ à¦®
à¦®à¦ķ à¦¥
Ġà¦ıà¦¤ à¦ĸ
Ġà¦Ŀ à¦²à¦ķ
à¦¨à¦¸ à¦ªà¦Ł
Ġà¦ħà¦ķ à¦ªà¦Ł
à¦ªà¦Ł à¦ª
Ġà¦°à¦ķà¦® à¦ĩ
Ġà¦Ĩà¦ĩà¦¨ à¦¶
à§§à§ ¦
Ġà¦Ķà¦°à¦¸ à¦ľ
à¦¤à¦ĸà¦¨ à¦ĩ
Ġà¦Ŀà¦ķ à¦Ŀà¦ķ
â Ģ
à§ Ĺ
à¦¤ à¦¤à¦¨
à¦¤ à¦Ńà¦°
à¦² à¦§
à¦² à¦Ĺà¦¤
à¦² à¦ļà¦°
à¦® à¦¬à¦°
à¦® à¦¹à¦²
à¦® à¦ħà¦¨
Ġà¦¸ à¦²
Ġà¦ķ à¦®à¦¤
à¦· à¦²
Ġà¦¨ à¦¸
Ġà¦¨ à¦¬à¦¯
Ġà¦ı à§ľ
à¦ľ à¦§à¦°
à¦Ľ à¦Ń
à¦ļ à§ľ
à¦¥ à¦¸à¦®
à¦ĸ à¦®
à¦ĸ à¦Ń
à¦Ń à¦¦
Ġà¦° à¦¹à¦®
Ġà¦ĵ à¦¹
Ġà¦ĵ à¦®à¦°
à¦°à¦¤ à¦ª
Ġà¦ħà¦¨ à¦Ń
Ġà¦² à¦Ń
Ġà¦« à¦²à¦¨
Ġà¦ĩ à¦ī
Ġà¦¸à¦¹ à¦¬
Ġà¦Ł à¦¯
Ġà¦¬à¦¨ à¦¸
Ġà¦ħà¦ª à¦¸
à¦°à¦ľà¦¨ à¦¨
à¦¬à¦¶ à¦°
à¦¬à¦¶ à¦¤
Ġà¦ªà¦°à¦® à¦¹
à¦ķà¦ķ à¦¥
Ġà¦Ĩà¦ĩà¦¨ à¦ķ
à¦Łà¦¬ à§ľ
Ġà§© à§¦
à¦¯ à¦ĸ
à¦¯ à¦ªà¦¨
à¦¯ à¦Łà¦ķ
à¦ķ à¦¶à¦ª
Ġà¦¸ à¦Ĺà¦°
Ġà¦ķ à¦¨à¦Ł
à¦¶ à¦ļ
à¦¶ à¦Ļ
Ġà¦¤ à¦ªà¦¤
à¦Ĺ à¦ħà¦¨
Ġà¦¹ à¦¦
à¦Ľ à¦¸
à¦£ à¦ļà¦¨
à¦£ à¦¬à¦¦
à¦¹ à¦ĵ
à¦ĸ à¦Ł
Ġà¦¶ à¦ĸ
Ġà¦Ĺ à¦®à¦¨
à¦¡ à¦°
Ġà¦¸à¦® à¦ľà¦¦
Ġà¦ıà¦ķ à¦¨
Ġà¦ıà¦ķ à¦ıà¦ķà¦Ł
à¦Ļ à¦¨
Ġà¦² à¦¬
Ġà¦² à¦Ĺ
à¦°à¦® à¦¯
à¦·à¦£ à¦¸
à¦« à¦ķ
Ġà¦īà¦ª à¦®à¦¹
Ġà¦Ĩà¦² à¦¸
Ġà¦Ł à¦²
à¦¬à¦¦ à¦²
à¦¸à¦¨ à¦¯à¦¨
à¦§à¦ķ à¦ķ
Ġà¦¬à¦ĩ à¦®
Ġà¦¬à¦ĩ à¦Ł
Ġà¦ıà¦ķà¦ľà¦¨ à¦ķ
Ġà§¨ à§«
à¦¬à¦ľ à¦Ĺà§İ
Ġà¦Ķ à¦¦
Ġà§§à§¯à§ª à§Ń
Ġà¦ªà¦łà¦¨ à¦ª
à¦¾ à§ĩ
à¦¨ à¦Ĩà¦°
à¦ķ à¦·
à¦® à¦ªà¦¤
Ġà¦¸ à§ľà¦ķ
à¦¦ à¦ļ
à¦¦ à¦¨à¦¬
Ġà¦® à¦ª
Ġà¦¨ à¦ª
Ġà¦¨ à¦ĸ
à¦¶ à¦ªà¦°à¦®
Ġà¦¤ à¦°à¦²
à¦Ĺ à¦Ńà¦Ļ
à¦£ à¦¹
à¦¹ à¦®à¦¯
à¦¥ à¦ļ
à¦ĸ à¦ĸ
Ġà¦ľ à¦²à¦ķ
à¦¡ à¦®
Ġà¦¸à¦® à¦®
Ġà¦¸à¦® à¦¤à¦²
à¦°à¦¤ à¦²
à¦ł à¦ķà¦²
Ġà¦ĸ à¦¡
à¦¤à¦¨ à¦ĩ
Ġà¦ĩ à¦ķà¦®
Ġà¦¹à¦² à¦¦
Ġà¦ķà¦¥ à¦ķà¦¤
Ġà¦ķà¦¥ à¦ķà¦ł
Ġà¦¸à¦¬ à¦²
Ġà¦ħà¦¬ à¦Ĺ
Ġà¦¬à¦° à¦¦
Ġà¦īà¦ª à¦ļ
Ġà¦Ĩà¦² à¦¤
Ġà¦Ł à¦ķ
à¦ħ à¦ľ
à¦ħ à¦ªà¦°
Ġà¦ľà¦² à¦¸
Ġà¦¶à¦¤ à¦¶
à¦¸à¦ķ à¦¦
Ġà§§à§¯à§ ¦
Ġà¦°à¦¸ à¦¸
Ġà¦Ĩà¦¹ à¦®
Ġà¦Ķ à¦·à¦§
Ġà¦Ŀà¦° à¦Ŀà¦°
à¦° à¦ĺ
à¦° à¦¸à¦¬à¦ĩ
à¦¤ à¦ķà¦°
à¦¯ à¦ªà¦¦
à¦ķ à¦¹
à¦¬ à¦ªà¦¤
à¦® à¦°à¦¨
Ġà¦¸ à¦ļà¦²
Ġà¦ķ à¦¦à¦®
Ġà¦¬ à¦¤
à¦¦ à¦ľ
à¦¦ à¦¸à¦®
à¦¸ à¦ĺ
Ġà¦Ĩ à¦ī
Ġà¦Ĩ à¦ĩà¦¸
à¦· à¦ķà¦¤
à¦ľ à¦ªà¦°
Ġà¦¦ à¦¨
à¦£ à¦®à¦¯
à¦¹ à¦ľ
à¦ļ à¦£
à¦ĵ à¦¬
à¦ĵ à¦Ł
Ġà¦ĵ à¦²
à¦ªà¦° à¦¬
Ġà¦« à¦°à¦®
Ġà¦ĺ à¦·
Ġà¦ĺ à¦°à¦¬
à¦°à¦¬ à¦Ĺ
Ġà¦ħà¦¬ à¦¯
Ġà¦ħà¦¸ à¦¹à¦¯
à¦²à¦ķ à¦¦
Ġà¦ĩà¦¤ à¦¸
Ġà¦Ŀ à¦¨
à¦§à¦ķ à¦¦
à¦¥à¦¨ à¦¯
à¦ļà§Ł à¦ĩ
Ġà¦ľà¦¨à¦Ĺ à¦£à¦ķ
Ġà¦ľà¦¨à¦ªà¦¦ à¦¬
Ġ à§ĩ
à¦ Ĭ
à¦° à¦ªà¦¦
à¦¨ à¦ªà¦°
à¦¨ à¦ķà¦²
à¦¨ à¦ķà¦°
à¦¨ à¦¶à¦¨
à¦¨ à¦ªà¦¤
à¦¯ à¦ıà¦ĩ
Ġà¦¸ à¦¶à¦¸
Ġà¦¬ à¦®
à¦¸ à¦ªà¦¤
Ġà¦Ĩ à¦ĩà¦Ł
à¦ĩ à¦ĵ
à¦ª à¦¬à¦°
à¦ª à¦¸à¦¬
Ġà¦® à¦°à¦¤
à¦Ĺ à¦ŀ
à¦Ľ à¦²à¦¤
à¦¹ à¦¤à¦¤
Ġà¦¯ à¦¸
à¦¥ à¦¦
à¦¥ à¦ĵ
à¦Ń à§İà¦¸
à¦¡ à¦¬à¦Ń
à§Ł à¦£à¦¤
à¦ĵ à¦ĩ
à¦°à¦¤ à¦¬
à¦°à¦ķ à¦°à¦£
à¦¤à¦° à¦Ł
à¦¼à¦¿ à¦Ĥ
à¦°à¦® à¦¸
Ġà¦¸à¦¬ à¦ľ
à¦« à¦¤
à¦ī à¦Ńà§Ł
Ġà¦¸à¦¹ à¦¦
à¦°à¦¹ à¦¨
à¦¯à¦¤ à¦¤
à¦Ĩ à¦¹
à¦Ĩ à¦¸à¦²
à¦°à¦¶ à¦¬
Ġà¦¬à¦¹ à¦°
à¦¬à¦ª à¦ķ
ĠĠĠĠ ĠĠĠ
Ġà¦Ĺà¦² à¦¦
à¦¨à¦¸ à¦¤
Ġà¦¸à¦¹à¦ľ à¦Ń
Ġà¦Ī à¦ª
à¦·à¦¦ à¦Ĺ
Ġà¦Ĩà¦ļà¦°à¦£ à¦¬
à¦¥à¦² à¦ľ
Ġà¦¬à§ľ à¦¦
Ġà§© à§¨
Ġà¦¦à¦²à¦¬ à¦¦
à¦° à¦ı
à¦¤ à¦¤à¦°
à¦¯ à¦¦à¦°
à¦¯ à¦ıà¦¸à¦¬
à¦¯ à¦¸à¦¬à¦ĩ
à¦ķ à¦¤à¦¨
à¦² à¦ķà¦°
à¦® à§ľ
à¦¼ à§Ī
Ġà¦ķ à¦ľà¦¨
à¦¦ à¦¸à¦¬
à¦¸ à§İ
à¦Ł à¦¹
à¦¶ à¦¹
Ġà¦ħ à¦ĸ
à¦£ à¦ļà¦°
à¦ļ à¦ĩ
à¦ĸ à¦¶
à¦Ń à¦§
Ġà¦Ĺ à¦¹à¦¨
Ġà¦ĵ à¦¡
Ġà¦² à§Ł
Ġà¦² à¦¹à¦°
à¦ŀ à¦Ĺ
à¦ľà¦¨ à¦¯
Ġà¦« à¦¤
Ġà¦®à¦¨ à¦¨à¦ķ
Ġà¦ĩ à¦¶
Ġà¦¹à¦² à¦¤
Ġà¦ķà¦¥ à¦ŀ
à¦Ŀ à¦¡
à¦¨à¦¤ à¦¤à¦°
Ġà¦¸à¦¹ à¦¨
Ġà¦¹à¦¤ à¦Ńà¦®
Ġà¦¬à¦¨ à¦²à¦¤
à¦Ĩ à¦ĩ
Ġà¦ªà¦¥ à¦ĩ
à¦ķà¦Ł à¦¬à¦°
à¦®à¦£ à¦¤
à§° à¦¯
à¦°à¦² à¦¯
à¦°à¦² à¦¸
à¦®à¦² à¦Ĺ
à¦ľà¦¬ à¦§
Ġà¦®à¦Ĺ à¦§à¦°
à¦ķà¦ľ à¦®à¦ķ
Ġà¦ĵà¦· à¦§
à¦¨ à¦¸à¦°
à¦¨ à¦ıà¦ķà¦Ł
à¦¤ à¦ļà¦°
à¦ķ à¦°à¦¬
Ġà¦¬ à¦Ń
Ġà¦ª à¦ª
à¦¸ à¦ĸ
à¦ª à¦¤à¦¨
à¦ª à¦¸à¦®
à¦ª à¦ıà¦¸à¦¬
Ġà¦® à¦Ĺà¦ľ
à¦Ł à¦ĵ
à¦Ł à¦ľà¦¨
à¦ľ à¦ķà¦²
à¦ľ à¦ªà¦¥
à¦¶ à¦®à¦¨
à¦Ĺ à§ľ
à¦£ à¦§
à¦£ à¦Ńà¦ķ
à¦ĸ à¦ª
à¦Ń à¦ª
à¦Ń à¦¬à¦¨
à¦ĵ à¦¦
Ġà¦Ń à¦ľ
Ġà¦Ń à¦°à¦£à¦ª
à¦¬à¦¨ à¦ľ
à¦¬à¦° à¦²
à¦°à¦¬ à¦®à§Ł
Ġà¦Ĩà¦² à¦Ļ
Ġà¦ħà¦Ń à¦¯
à¦ĺ à¦¶
Ġà¦¬à¦¨ à¦ľ
à¦°à¦¶ à¦®à¦¨
Ġà¦Ŀ à¦²à¦¸
Ġà¦ķà¦® à¦ª
Ġà¦ħà¦ª à¦ķ
Ġà¦ħà¦Ĺ à¦¸
à¦¬à¦¸ à¦¤
Ġà¦¶à¦¤ à¦ª
à¦īà¦² à¦°
Ġà§§à§ §
à¦łà¦ķ à¦¦
Ġà¦īà§İà¦¸à¦¬ à¦Ĺ
Ġà¦¦à¦¶ à¦ľà¦¨
Ġà§¨ à§¨
Ġà§¨ à§ª
à§§à§ ©
Ġà¦Ĭ à¦·
Ġà¦Ĭ à¦¨à¦¬
à§°à¦¹ à¦£
Ġà¦Ńà¦Ĺ à¦¬à¦¦
à§ĩ à§Ĺ
à¦° à¦ıà¦¸à¦¬à¦ĩ
à¦¨ à¦®à§Ł
à¦¨ à¦¸à¦¬à¦ķ
à¦¤ à¦ĸ
à¦¯ à¦Łà¦¨
à¦® à¦¬à¦¨
à¦® à¦«
Ġà¦¸ à¦¸à¦®
Ġà¦¬ à¦Ľ
Ġà¦ª à¦¬à¦¨
à¦¸ à¦ıà¦ĩ
Ġà¦® à¦¤à¦¨
à¦¶ à¦Ŀ
à¦¶ à¦²à¦¤
à¦Ĺ à¦«à¦²
à¦£ à¦²
à¦ĸ à¦Ĺ
à¦Ń à¦ľà¦¨
à¦¡ à¦¶
Ġà¦ĵ à¦ľà¦¨
à¦¼à¦¾ à¦ĥ
à¦ŀ à¦ª
à¦¤à¦° à¦¬
à¦¤à¦° à¦ªà¦¶
Ġà¦¹à¦² à¦¬
Ġà¦¸à¦¬ à¦Ĺ
à¦·à¦£ à¦ª
à¦Ĺà¦¤ à¦ķ
Ġà¦ħà¦¸ à¦¦
Ġà¦ħà¦¸ à¦¤à¦¤
à¦ĺ à¦£
Ġà¦Ł à¦®
à¦®à¦¤ à¦®
à¦°à¦¹ à¦¸
à¦¯à¦¤ à¦ķ
à¦Ĩ à¦ĩà¦¨
à¦¬à¦¦ à¦°à¦¬
à¦ħ à¦«
Ġà¦ıà¦¤ à¦Ĺ
Ġà¦ħà¦ª à¦ķà¦°
Ġà¦ħà¦ª à¦ļà§Ł
à¦¤à¦¤ à¦¤
Ġà¦¤à¦¤ à¦ĸ
Ġà¦ľà¦° à¦®à¦¨
Ġà¦īà¦ªà¦¨ à¦¯
à¦°à¦ªà¦° à¦ĩ
à¦®à¦¦ à¦®
à¦ĸà¦ķ à¦·
Ġà¦¸à§İ à¦Ń
à§« à§¦
à¦ĭ à¦¤
Ġà§« à§¦
à¦° à¦ªà¦¨
à¦¨ à¦®à¦¤
à¦¨ à¦ĩà¦¨
à¦¨ à¦ıà¦ķ
à¦¤ à¦ıà¦¸à¦¬
à¦¯ à¦®à¦¨
à¦¯ à¦®à¦£
à¦¬ à¦ļà¦°
à¦² à¦Ĺà¦®
à¦® à¦¬à¦²
Ġà¦¸ à¦°à¦¬
à¦ª à¦¶à¦¨
à¦ª à¦¬à¦¯
à¦ľ à¦¶à¦ķ
Ġà¦¤ à¦°à¦ķ
Ġà¦¤ à§İà¦ª
à¦Ĺ à¦ľà¦¨
à¦§ à¦ľà¦¯
à¦¹ à¦Ĺ
Ġà¦¯ à¦¤à¦¬
Ġà¦¯ à¦¶à¦¸
à¦ĸ à¦¡
Ġà¦¶ à¦°à¦¦
à¦Ń à¦ĩ
à¦¡ à¦¤
à§Ł à¦²
à§Ł à¦¶
Ġà¦° à¦ŀ
Ġà¦° à¦£à¦ķ
Ġà¦ĵ à¦¸
Ġà¦ĵ à¦¤à¦ª
à¦°à¦¤ à¦ķà¦¥
Ġà¦¥ à¦®
à¦¬à¦¨ à¦ª
à¦¬à¦¨ à¦ļà¦°
Ġà¦ıà¦ĩ à¦¯
Ġà¦ıà¦ĩ à¦®
à¦ŀ à¦¸
à¦¤à¦° à¦¦
à§İ à¦¬
Ġà¦ĩ à¦ľ
à¦°à¦® à¦¹
à¦°à¦¬ à¦¬
à¦ī à§İà¦ª
Ġà¦Ĩà¦Ľ à¦¡
à¦²à¦¨ à¦¬
à¦²à¦¨ à¦ĩ
à¦²à¦¨ à¦Ĺ
à¦°à¦¹ à¦¸à¦¨
Ġà¦¡ à¦²
à¦²à¦ķ à¦Ń
Ġà¦ľà¦² à¦Ń
Ġà¦ĸà¦¬à¦° à¦Ł
à¦¬à¦ľà¦¨ à¦ª
Ġà¦®à¦¨à¦¨ à¦ļ
à¦°à¦®à¦¶ à¦ĩ
à§§à§ ¨
Ġà¦ļà¦®à¦ķ à¦ª
ĠĠĠĠĠĠĠĠĠĠĠĠĠĠĠĠĠĠĠĠĠĠĠĠĠĠĠĠĠĠĠĠ ĠĠĠĠĠĠĠĠĠĠĠĠĠĠĠĠĠĠĠĠĠĠĠĠĠĠĠĠĠĠĠĠ
à¦¨ à¦¸à¦¨
à¦¨ à¦¯à¦¦
à¦¨ à¦ıà¦¸à¦¬à¦ĩ
à¦ķ à¦ļà¦ķ
à¦¬ à¦®à¦¨
à¦² à¦¤à¦°
à¦® à¦Ŀ
à¦® à¦Ĺà¦¤
à¦® à¦¹à¦¸
à¦® à¦ıà¦¸à¦¬
Ġà¦¸ à§İà¦ķ
Ġà¦¬ à¦ļ
Ġà¦¬ à¦°à¦¬
à¦¦ à¦°à¦®
à¦¦ à¦®à¦¯
Ġà¦Ĩ à¦ªà¦¦
à¦· à¦°à¦Ĺ
Ġà¦¨ à¦²
Ġà¦ı à¦§à¦°à¦¨
à¦ľ à¦®à¦¹
à¦¶ à¦ķà¦°
Ġà¦¤ à¦¹à¦¬
à¦Ĺ à¦²à¦¬
Ġà¦ħ à¦«à¦²
à¦§ à¦¶à¦¤
à¦£ à¦¬à¦¤
à¦ļ à¦²à¦¤
à¦¥ à¦ªà¦¤
à¦Ń à¦ªà¦¤
à¦Ń à¦ľà¦¨à¦ķ
à§Ł à¦Ł
Ġà¦° à¦Ł
Ġà¦ļ à¦°à¦ķ
Ġà¦ļ à¦ķà¦²
Ġà¦ī à¦ĩà¦²
Ġà¦ī à¦¸à¦ķ
Ġà¦ªà¦° à¦°
Ġà¦ħà¦¨ à¦Ĺ
Ġà¦§ à§°
à¦ľà¦¨ à¦¬
à¦¯à¦¬ à¦ĩà§Ł
à¦°à¦¬ à¦ŀ
Ġà¦ħà¦¬ à¦¸à¦¨
à¦·à¦£ à¦Ń
à¦Ŀ à¦¨
Ġà¦ħà¦¸ à¦¹à¦¨
à¦¨à¦¬ à¦¸à¦¤
Ġà¦¬à¦¨ à¦ľà¦Ļ
à¦°à¦¶ à¦®
Ġà¦¸à¦° à¦ŀ
à¦®à¦£ à¦¸à¦®
Ġà¦Ĳ à¦¹
Ġà¦īà§İ à¦ķà¦£
Ġà§ ¯
à¦ħ à¦¹
Ġà¦īà¦¤ à¦²
à¦Ĺà¦² à¦¦
Ġà¦¢ à¦Ļ
à¦ĩà¦² à¦Ł
Ġà¦¶à¦¤ à¦¬à¦°
Ġà§§à§ Ń
Ġà¦¬à¦ĩ à¦ĸ
Ġà¦ľà¦® à¦ľà¦®
Ġà§§à§¯à§ ¯à§
Ġà¦ħà¦¹ à¦®
Ġà¦ħà¦¹ à¦°à¦¹
à¦®à§Ł à¦ķà¦°
à§§à§ «
Ġà§ª à§¦
à¦Ĺà¦ª à§İ
Ġà¦¹à¦ķ à¦ļà¦ķ
Ġà¦ ¾
à§ĩ à¦¾à¦ģ
à¦¨ à¦®à¦¯
à¦¨ à¦ħà¦¨
à¦¨ à¦ıà¦®à¦¨
à¦¤ à¦ķà¦¤
à¦¯ à¦ªà¦¤
à¦¯ à§İà¦ķ
à¦ķ à¦¬à¦¨
à¦¬ à¦ĸ
à¦¬ à¦ħà¦¨
Ġà¦ķ à¦®à¦¨
à¦¦ à¦®à§Ł
à¦¸ à¦¸à¦¬
Ġà¦Ĩ à¦°à¦¤
Ġà¦Ĩ à¦Ĺà¦¤
Ġà¦Ĩ à¦īà¦²
Ġà¦Ĩ à¦īà¦Ł
à¦ª à¦ķà¦¤
à¦ª à¦Ĩà¦²
Ġà¦® à¦ľà¦²
Ġà¦ı à¦¹
à¦¶ à¦¬à¦¨
à¦¶ à¦ļà¦¨
à¦¶ à¦®à¦¯
Ġà¦¹ à¦ĩà¦¨
à¦£ à¦ĩà¦¤
Ġà¦Ĺ à¦ŀ
Ġà¦Ĺ à¦Ĺà¦¨
Ġà¦ļ à¦²à¦¨
Ġà¦ī à¦ĩà¦¨
Ġà¦ıà¦ķ à¦¸à¦®à§Ł
Ġà¦Ĩà¦° à¦ķ
à¦°à¦ķ à¦¦
à¦ŀ à¦°
à¦ªà¦° à¦¸
à¦®à¦¨ à¦ķ
à¦®à¦¨ à¦Ĺà¦°
Ġà¦ĸ à¦¤
Ġà¦ĸ à¦¨à¦¨
à¦¯à¦¬ à¦ĩ
Ġà¦ĩ à¦¹à¦²
Ġà¦¹à¦² à¦ķ
Ġà¦¹à¦² à¦¸
à¦°à¦® à¦§
Ġà¦ķà¦¥ à¦ķ
à¦·à¦£ à¦¤
à¦°à¦¸ à¦¤
à¦Ĺà¦¤ à¦®
Ġà¦īà¦¦ à¦°
à¦ļà¦¨ à¦ķ
Ġà¦¹à¦¤ à¦Ń
à¦§à¦¨ à¦Ĺ
à¦Ĩ à¦°à¦ĵ
à¦°à¦¦ à¦ķ
Ġà¦ªà¦¥ à¦ĵ
à¦ħ à¦¶
à§° à¦ľ
à¦¬à¦¬ à¦Ļ
à¦¤à¦® à¦¯
Ġà¦ķà¦® à¦ĩ
à¦ıà¦ĩ à¦°à¦ķà¦®
à¦¬à¦ķ à¦£
Ġà¦ĭ à¦ľ
Ġà¦ķà¦¤ à¦ľà¦¨
à¦¯à¦° à¦ļà¦¨
Ġà¦§à¦¨ à¦°à¦¤
Ġà¦Ĩà¦ª à¦²
à¦®à¦¦ à¦ķ
à¦ıà¦ķ à¦¥
à¦·à§Ł à¦Ł
Ġà¦¶à¦¹ à¦°à¦¬
à§§à§ §
à¦Ĺà¦¬à¦¤ à¦ª
Ġà§§à§¦ à§¦
Ġà§§à§¯à§® à§¯
à¦¦à¦°à¦® à¦¹à¦²
à¦¨ à¦¸à¦¬à¦ĩ
à¦¨ à¦Ĩà¦®à¦°
à¦¤ à¦ĺ
à¦¤ à¦¶à¦ķ
à¦¤ à¦ªà¦¸
à¦¤ à¦¸à¦¬à¦ĩ
à¦ķ à¦Ĩà¦ª
à¦¬ à¦¤à¦°
à¦¬ à¦ªà¦¨
à¦¬ à¦¸à¦¨
à¦² à¦¥
à¦² à¦Ŀ
à¦² à¦ķà¦Ł
à¦® à¦ªà¦¦
à§ģ à§ģ
Ġà¦¸ à¦²à¦ľ
Ġà¦ķ à¦Ń
à¦¦ à¦Ľ
à¦¦ à¦ķà¦¤
à¦¸ à¦ıà¦¸à¦¬
à§ĭ à¦ĥ
à¦ĩ à¦¨à¦¬
à¦ª à¦ļà¦°
à¦ª à¦¯à¦ľ
Ġà¦¨ à¦Ń
à¦ľ à¦²à¦ķ
à¦¶ à¦Ľ
Ġà¦¤ à¦¯
Ġà¦¤ à¦ľ
à¦Ĺ à¦°à¦¸
à¦Ĺ à¦§à¦°
Ġà¦¦ à¦¹à¦¨
Ġà¦¹ à¦ľ
à¦£ à¦¬à¦¸
à¦¹ à¦¹
à¦ļ à¦ķà¦°
Ġà¦ľ à¦ĺà¦¨
Ġà¦ľ à¦łà¦°
à§Ĥ à¦ģ
Ġà¦ī à¦¥
Ġà¦ĵ à¦¤
Ġà¦ıà¦ķ à¦²
Ġà¦¥ à¦²
à¦¬à¦¨ à¦¡
à¦°à¦£ à¦¬
Ġà¦² à¦Ł
Ġà¦² à¦ŀ
Ġà¦² à¦¹à¦®
à¦ŀ à¦¬
à¦¤à¦° à¦®
à¦¤à¦° à¦Ĺ
à¦ı à¦®
à¦ı à¦°à¦ªà¦°
à¦°à¦¬ à¦²à¦Ń
à¦·à¦£ à¦Ł
à¦·à¦£ à¦ıà¦¸à¦¬
à¦ī à¦²à¦ķ
à¦²à¦¨ à¦¸
à¦¬à¦² à¦ķ
à¦¬à¦² à¦¦
à¦¬à¦² à¦Ľ
Ġà¦Ĳ à¦°
Ġà¦Ĩà¦Ĺ à¦²
à§° à¦¦
à§° à¦§
à§° à¦ļ
à§° à¦¬à¦¨
à¦Ĺà¦² à¦ª
à¦§à¦ķ à¦¬
Ġà¦ıà¦ķà¦ĩ à¦°à¦ķà¦®
Ġà¦īà¦² à¦Ļ
à¦®à¦¸ à¦ļ
Ġà¦Ĩà¦¦ à¦°à¦£
Ġà¦¬à¦Ł à¦¬
à¦¬à¦Ń à¦ķ
à¦Łà¦« à¦Ł
à¦¦à§Ł à¦ķ
Ġà¦Ĩà¦ĩà¦¨ à¦ľ
à¦¬à¦°à¦£ à¦ķ
à§§à§ §à§
Ġà¦¬à¦¶ à¦¬à¦°
ĠĠčĊ Ġ
Ġà§ª à§«
à¦ľà¦Ń à¦¬à¦¨
Ġà¦¨à¦ľ à¦°à¦¦
à¦¨ à¦ł
à¦¨ à¦ªà¦¨
à¦¤ à¦«
à¦¤ à¦ļà¦¨
à¦¤ à¦¤à¦®
à¦¯ à¦·
à¦¯ à¦²à¦ķ
à¦ķ à¦°à¦¤
à¦ķ à¦ķà¦²
Ġà¦¸ à§°
Ġà¦¬ à¦¦à¦¨
Ġà¦ª à¦ľ
à¦¸ à¦¶
à¦¸ à¦ªà¦°
à¦¸ à¦ķà¦°
à¦ª à¦²à¦¬
Ġà¦® à¦¸à¦²
Ġà¦® à§Łà¦¦
Ġà¦¨ à¦¬à¦¨
Ġà¦¨ à¦Ĺà¦£
Ġà¦¤ à§İà¦ªà¦°
Ġà¦¦ à¦¦
Ġà¦ħ à¦¤à¦°
Ġà¦ħ à¦ĺ
Ġà¦ħ à¦ķà¦°
à¦§ à¦ļà¦¨
à¦§ à¦¸à¦®
à¦§ à¦ıà¦ĩ
à¦¹ à¦¶
Ġà¦¶ à¦°à¦¤
Ġà¦Ĺ à¦²à¦¨
Ġà¦ľ à¦®à¦¤
Ġà¦ľ à§Łà¦¨
à¦ĵ à¦ª
à¦ĵ à¦Ń
Ġà¦ļ à¦Łà¦ķ
Ġà¦ĵ à¦Ĺ
Ġà¦Ľ à¦Łà¦«à¦Ł
Ġà¦² à¦°
à¦ľà¦¨ à¦®
čĊ čĊ
Ġà¦ĺ à¦°à¦ķ
Ġà¦¸à¦¬ à¦¶
Ġà¦¸à¦¬ à¦¥
Ġà¦¸à¦¬ à¦°à¦ķà¦®
à§ľ à¦²
Ġà¦¬à¦° à¦²
à¦¬à¦¤ à¦®
Ġà¦®à¦¤ à¦ª
à¦¨à¦¬ à¦®
à¦°à¦¹ à¦ķ
à¦°à¦¹ à¦¶
à¦¬à¦² à¦¬
à¦§à¦¨ à¦®
à¦Ĩ à¦ļà¦°à¦£
à¦¤à¦¬ à¦°à¦£
Ġà¦ªà¦¥ à¦ĺ
Ġà¦¸à¦° à¦²à¦Ń
à¦¸à¦® à¦Ĺ
à¦ħ à¦ļ
à¦Ńà¦¬ à§İ
à¦¯à¦¦ à¦²
Ġà¦ĵà¦ªà¦° à¦ĩ
Ġà¦ķà¦¤ à¦ĩ
à¦¯à¦ª à¦¥
à¦°à¦®à¦£ à¦ª
Ġà¦¹à¦ł à¦¯
Ġà¦¸à§İ à¦ļà¦°
à¦Ĺà¦ľ à¦ªà¦¤
Ġà¦°à¦¥ à¦¯
Ġà¦¸à¦« à¦Łà¦ĵà¦¯
Ġà¦¸à¦« à¦Łà¦ĵà§Ł
Ġà¦Ńà§Ł à¦Ļ
à§İà¦ª à§°
à¦ıà¦®à¦¨ à¦ķ
à¦ķà¦ĵ à¦¦
Ġà¦ķà§Ł à¦²
à¦§à¦¹ à§Ł
Ġà¦ļà¦ª à¦²à¦¤
à¦° à¦Ĺà¦¨
à¦¨ à¦°à¦¤
à¦¨ à¦Ńà¦Ļ
à¦¨ à¦ıà¦°
à¦¤ à¦¸à¦¬
à¦¯ à¦ªà¦ķ
à¦¯ à¦Ĺà¦£
à¦¯ à¦ľà¦¨à¦ķ
à¦ķ à¦ªà¦°
à¦² à¦¬à¦°
à¦² à¦ľà¦¯
à¦® à¦°à¦¤
Ġà¦¸ à¦ªà¦¤
Ġà¦¬ à¦īà¦¦
à¦¦ à¦§
à¦¸ à¦ľà¦¨
à§Ģ à¦ĥ
à¦ĩ à¦ĵà¦¯
à¦ĩ à¦ıà¦°
à¦ª à¦ªà¦°
Ġà¦ı à¦·
à¦ľ à¦¹
à¦¶ à¦«
Ġà¦¤ à¦ªà¦¨
à¦§ à¦ľ
à¦§ à¦¬à¦¤
à¦§ à¦ıà¦¸à¦¬
Ġà¦¯ à¦¬
Ġà¦ķà¦° à¦¨
à¦ļ à¦¤à¦®
Ġà¦¶ à¦ķà¦Ł
Ġà¦° à¦¸à¦¨
Ġà¦ī à¦¹
Ġà¦Ĩà¦® à¦Ĺ
Ġà¦ıà¦ķ à¦ķà¦¥
à¦¬à¦¨ à¦ĵ
Ġà¦² à¦£
Ġà¦ıà¦ĩ à¦Ĺ
Ġà¦§ à¦®à¦ķ
à¦ªà¦° à¦®à¦£
à¦¬à¦° à¦¨
à¦¬à¦° à¦¸
à¦¬à¦° à¦ļà¦¨
à¦®à¦¨ à¦Ń
Ġà¦« à¦²à¦¬
à¦¤à¦° à¦«
Ġà¦ľà¦¨ à¦¶à¦ķ
Ġà¦¹à¦² à¦ª
à¦ı à¦¸à¦¸
Ġà¦¸à¦¬ à¦ķà¦Ł
à¦·à¦£ à¦¬
à¦°à¦¸ à¦Ĺ
Ġà¦Ĩà¦² à¦Ĺ
Ġà¦Ĩà¦¬ à¦Ľ
à¦²à¦¤ à¦¤
à¦¬à¦² à¦²
à¦§à¦¨ à¦ĵ
à¦¨à¦ĵ à¦°à¦ķà¦®
à¦¤à¦¬ à¦®
à¦®à¦£ à¦ª
à¦¶à¦¨ à¦¶
Ġà¦¬à¦²à¦² à¦Ĩà¦®
Ġà¦Ĳ à¦°à¦ķà¦®
Ġà¦«à¦² à¦®
à¦ħ à¦¥à¦¬
à¦ħ à¦¥à¦ļ
à¦¸à¦¨ à¦¸
à¦ĩà¦¨ à¦¸
Ġà¦Ĩà¦ķ à¦¬à¦°
à¦¬à¦ķ à¦¬
à¦°à¦ľà¦¨ à¦ªà¦¦à¦¬
Ġà¦¨à§Ł à¦ıà¦Ł
à¦¨à¦¸ à¦¹
à¦ľà¦¸ à¦ľ
Ġà¦ĺà¦° à¦Ł
Ġà¦Ĩà¦ļ à¦®à¦ķ
ĠĠĠĠĠĠĠĠ ĠĠ
à¦°à¦®à¦£ à¦ĩ
Ġà¦Ĺà§ľ à¦¬
à¦¶à¦ª à¦¥
Ġà¦°à¦Ļ à¦¬
à¦°à¦ªà¦° à¦ĵ
à¦®à¦¦ à¦¤
Ġà¦¸à§İ à¦ļ
à¦¯à¦¥ à¦Ń
Ġà¦¹à¦ĩ à¦ļà¦ĩ
à¦¬à¦¹ à¦£
à§§à§ ª
Ġà¦ľà§Ł à¦¯
ĠĠčĊ ĠĠč
Ġà¦ľà¦Ĺà§İ à¦Ł
Ġà¦®à¦¶ à¦ķà¦°
à¦°à¦¬à¦£ à¦¶à¦ķ
à¦Ī à¦¶
âĢ ī
à¦° à¦Ĩà¦®
à¦¨ à¦ľà¦¨à¦ķ
à¦¨ à¦ħà¦¸
à¦¤ à¦ļà¦ķ
à¦¯ à¦ļà¦ķ
à¦¯ à¦ħà¦¨
à¦¯ à¦¸à¦¬à¦ķ
à¦ķ à¦®à¦¯
à¦¬ à¦Ĺà¦£
à¦² à¦ªà¦°
à¦² à¦¹à¦²
à¦® à¦¥
à¦® à¦¸à¦¬
à¦® à¦§à¦¨
à¦® à¦¸à¦¨
Ġà¦¸ à¦ĩ
Ġà¦¸ à¦¶
Ġà¦ķ à§ľ
Ġà¦ķ à§°
Ġà¦¬ à§°
à¦¦ à¦īà¦ªà¦¨
à¦· à¦ļ
à¦ª à¦¬à¦¤
à¦ª à§°
Ġà¦® à¦Ł
Ġà¦¨ à¦°à¦¸
à¦Ł à¦¤à¦°
à¦ľ à¦²à¦¬
à¦¶ à¦¬à¦ķ
à¦Ĺ à¦Ļ
à¦Ĺ à¦¸à¦¨
Ġà¦¦ à¦ª
Ġà¦ħ à§°
à¦§ à¦ªà¦°
à¦§ à¦¸à¦¬à¦ķ
à¦Ľ à¦®
à¦£ à¦ªà¦¨
Ġà¦¯ à§İà¦¸
Ġà¦¯ à¦®à¦ľ
Ġà¦¶ à¦®à¦¦à¦®
à¦Ń à¦¤
à¦Ń à¦ĵ
à¦Ń à¦°à¦£
Ġà¦ľ à¦Ń
à¦¡ à¦īà¦ĩ
à§Ł à¦®à¦¨
Ġà¦° à¦«
Ġà¦ī à¦Ł
Ġà¦ī à¦¶
Ġà¦ĵ à¦®
Ġà¦ĵ à¦Ń
Ġà¦¸à¦® à¦¦
à¦Ļ à¦¬
à¦°à¦£ à¦¶
Ġà¦§ à¦ķà¦²
Ġà¦§ à¦¨à¦¬
à¦ŀ à¦Ń
à¦¬à¦° à¦¬à¦°
à¦®à¦¨ à¦¨
Ġà¦ĸ à¦¤à¦®
à¦¤à¦¨ à¦ĵ
à¦ı à¦ĵ
à¦°à¦® à¦¥
Ġà¦¸à¦¬ à¦¦
Ġà¦ħà¦¬ à§Łà¦¬
à¦¸à¦¬ à¦ļ
à§ľ à¦Ŀ
à¦« à¦²à¦ķ
à¦ī à¦¨à¦²
à¦Ŀ à¦ŀ
à¦°à¦¯ à¦¤
Ġà¦®à¦¤ à¦Ń
à¦ĺ à¦¤à¦°
à¦¨à¦¬ à¦ļ
à¦°à¦¹ à¦°à¦£
Ġà¦¡ à¦°
à¦ķà¦° à¦¶
à¦Ĩ à¦¯
à¦¨à¦ĵ à¦®à¦¤
à¦¤à¦¬ à¦¸à¦®
Ġà¦ªà¦¥ à¦¨
à¦®à¦£ à¦ĭà¦·
à¦¯à¦® à¦ķ
Ġà¦ıà¦° à¦ĵ
à§° à¦ĩ
à¦®à¦ķ à¦Ń
à¦ªà¦¦ à¦ĵ
à¦¨à¦ķ à¦ķ
Ġà¦Ĺà¦² à¦Ľ
à¦°à¦² à¦®
Ġà§§à§ ¯
à¦ļà¦ķ à¦¦
Ġà¦¶à¦¹à¦° à¦Ł
Ġà¦¬à¦ĩ à¦¬
Ġà¦¬à¦ĩ à¦Ľ
Ġà¦¦à¦² à¦Ĺ
Ġà¦ªà¦¤ à¦ŀ
à¦¦à¦¬ à¦¹
Ġà¦¹à¦ĩ à§Ł
Ġà¦¹à¦ĩ à¦¹à¦ĩ
Ġà¦ľà¦Ĺ à§İà¦ķ
à¦ľà¦Ĺ à§İà¦ķ
à§© à§¦
à¦²à¦ļ à¦²à¦¨
à¦£à¦Ĺà¦¤ à¦®
à¦¨à¦ħ à¦§
Ġà§§à§¯à§¦ à§«
à¦Ĺà¦ľà¦¨ à¦ľ
à¦¨ à¦¶à¦ķ
à¦¨ à¦ıà¦¬
à¦¨ à¦®à¦Ĺ
à¦¨ à¦ħà¦°
à¦¤ à¦®à¦¤
à¦¤ à¦ıà¦ĩ
à¦¤ à¦ĩà¦²
à¦¯ à¦ħà¦°
à¦ķ à¦¦à¦°
à¦ķ à¦Ĺà¦£
à¦¬ à¦ıà¦ĩ
à¦² à¦ĵà¦¯
à¦² à¦¸à¦¨
à¦² à¦ıà¦ĩ
à¦² à¦ªà¦¥
à¦® à¦ķà¦²
Ġà¦¸ à¦ĩà¦¬
Ġà¦ķ à¦®à¦£
Ġà¦ª à§Ł
à¦¦ à¦ļà¦¯
à¦¸ à¦°à¦¤
à¦¸ à¦ı
à¦¸ à¦¹à¦¸
à¦ĩ à¦¸à¦Ļ
à¦ª à¦ıà¦ĩ
à¦ª à¦¸à¦¬à¦ķ
Ġà¦¨ à¦ļ
Ġà¦¨ à¦ĵ
Ġà¦¨ à¦¬à¦ª
à¦Ł à¦¶
à¦ľ à¦¬à¦¨
à¦ľ à¦ªà¦¦
à¦¶ à¦ªà¦°
Ġà¦¤ à¦¦à¦¨
à¦Ĺ à¦§
à¦Ĺ à¦ªà¦°
Ġà¦¦ à¦¹
Ġà¦ħ à¦ªà¦¦
Ġà¦ħ à¦ľà¦¯
à¦§ à¦Ľ
à¦§ à¦¤à¦°
à¦¹ à¦¬à¦§
Ġà¦¶ à¦²
Ġà¦¶ à¦¶à¦¬
à§ĥ à¦Ĥ
à¦ĵ à¦ķ
Ġà¦° à¦Łà¦¨
Ġà¦Ĩà¦® à¦¬
Ġà¦ıà¦ķ à¦Ŀ
à¦Ļ à¦°
Ġà¦ªà¦° à¦®à¦°
à¦°à¦¤ à¦¸
à¦ł à¦Ł
à¦ł à¦Ĺ
à¦ł à¦¤à¦®
Ġà¦Ľ à¦®
à¦°à¦£ à¦¨
à¦°à¦£ à¦®
Ġà¦² à¦ĩà¦¯
Ġà¦¬à¦² à¦¦
Ġà¦ıà¦ĩ à¦°
Ġà¦§ à¦¸
à¦ľà¦¨ à¦Ł
à¦ľà¦¨ à¦¬à¦°
à¦ľà¦¨ à¦§à¦°
Ġà¦ĸ à¦¦
Ġà¦ĸ à¦°à¦Ĺ
à¦¤à¦¨ à¦¬
à¦°à¦® à¦®
à¦°à¦® à¦ĩ
à¦¯à¦ķ à¦¥
à¦¸à¦¬ à¦®
à¦Ŀ à§ľ
à¦¨à¦¤ à¦¬
à¦ķà¦² à¦ķ
Ġà¦ħà¦¸ à¦ļ
Ġà¦ħà¦¸ à¦®à¦¤
Ġà¦Ĩà¦¸ à¦®
Ġà¦Ł à¦¨
à¦¨à¦¬ à¦Ĺ
à¦°à¦¹ à¦¨à¦ķ
Ġà¦¡ à¦ķ
à¦§à¦¨ à¦Ńà¦ľà¦¨
à¦°à¦¦ à¦²
Ġà¦¸à¦° à¦·
à¦¯à¦® à¦ĩ
Ġà¦ķà¦°à¦¬ à¦ķ
à¦ħ à¦¦
à¦ħ à¦Ĺ
à§° à¦Ń
à§° à¦¥à¦®
Ġà¦Ŀ à¦Ł
à¦ĩà¦¨ à¦°
à¦ļà¦² à¦Ĺ
Ġà¦ħà¦Ĺ à¦®
à¦¤à¦ķ à¦¦
à¦ľà¦¸ à¦¤
Ġà¦¤à¦° à¦«
Ġà¦¸à¦¹à¦ľ à¦¬
Ġà¦ħà¦ķ à¦¸
à¦®à¦¸ à¦Ļ
à¦¸à¦ķ à¦Ĺ
Ġà¦īà¦ªà¦° à¦ĩ
Ġà¦¬à¦ĩ à¦ª
Ġà¦¬à¦ĩ à¦ªà§ľ
à¦ķà¦¸ à¦Ń
à¦¨à§Łà¦¨ à¦¶
Ġà¦Ĩà¦ĩà¦¨ à¦Ĺà¦¤
à§¨ à§¦
à¦¤à¦ª à¦²
Ġà§¨ à§®
Ġà¦¶à¦¹ à¦°à¦¤à¦²
Ġà¦· à¦Ł
Ġà¦Ķ à¦ľ
ĠĠčĊ ĠĠĠĠ
ĠĠčĊ ĠĠĠ
à¦¶à¦¦ à¦Ń
à¦¨à¦Ĩ à¦ľ
Ġà¦°à¦® à¦°à¦®
à§¬ à§¦
à¦Łà¦¸ à¦ħ
Ġà¦¨à¦Ĺ à¦°à¦ķ
Ġà¦Ĩà¦ĩ à¦ĵà¦Ł
à¦¨à§Ł à¦¨à¦ķ
Ġà¦®à¦¦à¦¨ à¦®
Ġà¦ªà¦°à¦ªà¦° à¦ĩ
à¦ķà¦ĸà¦¨ à¦ĵ
ĠĠčĊĠ č
Ń à§§
Ġà¦ ¿
à¦° à¦ĭà¦£
à¦¨ à¦«
à¦¨ à¦ªà¦¦
à¦¨ à¦®à¦°
à¦¨ à¦Ńà¦°
à¦¨ à¦īà¦¤
à¦¤ à¦£
à¦¤ à¦ªà¦°
à¦¤ à¦¸à¦¬à¦ķ
à¦¯ à§Łà¦¨
à¦¯ à¦Ĺà¦łà¦¨
à¦ķ à¦§
à¦¬ à§ľ
à¦² à¦ªà¦®
à¦® à¦Ĩà¦®
Ġà¦¸ à¦¦à¦¯
Ġà¦¬ à¦¦à¦®
Ġà¦¬ à¦īà¦ķ
Ġà¦ª à¦ļ
à¦¦ à¦Ļ
à¦¦ à¦ªà¦¦
à¦¦ à¦ıà¦¸à¦¬
à¦¸ à¦¸à¦¬à¦ķ
Ġà¦Ĩ à¦·
à¦· à¦¬à¦°à¦£
à¦ª à¦ľà¦¨
à¦ª à¦«
Ġà¦® à¦«à¦¸
Ġà¦¨ à¦Ĺà¦¦
à¦Ł à¦ļ
à¦Ł à¦ķà¦Ł
Ġà¦ı à¦®à¦¤
à¦ľ à¦®à¦¨
à¦¶ à¦ıà¦ĩ
à¦¶ à¦¸à¦¬à¦ķ
Ġà¦¤ à¦ªà¦¶
à¦Ĺ à¦®à¦¯
Ġà¦¦ à¦²à¦ķ
Ġà¦ħ à¦¹à¦°
Ġà¦ħ à¦ĺà¦Łà¦¨
à¦§ à¦¸à¦¬
Ġà¦¹ à¦°à¦®
à¦£ à¦®à¦£
à¦£ à¦ªà¦£
à¦£ à¦¯à¦ľ
à¦¹ à¦ķà¦°
à¦ĸ à¦¸à¦®
Ġà¦¶ à¦¬à¦¦
à¦Ń à¦°à¦¨
Ġà¦ľ à¦¬à¦°
à¦¡ à¦«
à¦¡ à¦²à¦ķ
à¦¡ à¦¬à¦¬
à§Ł à¦ª
Ġà¦° à¦ľà¦¨
à¦Ļ à¦Ľ
à¦Ļ à¦ļ
à¦ł à¦®
à¦ł à¦ĵ
Ġà¦ħà¦¨ à¦¤
à¦¬à¦¨ à¦ļà¦ķ
à¦ŀ à¦¬à¦¨
à¦ªà¦° à¦¦
à¦ľà¦¨ à¦¸
à¦ľà¦¨ à¦ª
à§İ à¦¶
à¦¯à¦¬ à¦¯
Ġà¦ĩ à¦¨à¦ķ
à¦ı à¦°à¦ĩ
à¦°à¦® à¦¶à¦ķ
Ġà¦ħà¦¬ à¦Ĺà¦¤
à¦·à¦£ à¦ªà¦¦
à¦°à¦¸ à¦ķà¦²
Ġà¦īà¦ª à¦¸à¦°
Ġà¦ħà¦¸ à¦®à¦¯
à¦ĺ à¦¡
à¦ĺ à¦Łà¦ķ
à¦®à¦¤ à¦Ń
Ġà¦ħà¦¤ à¦²à¦¸
à¦¨à¦¬ à¦¶
à¦°à¦¥ à¦°
Ġà¦¡ à¦Ĺ
à¦§à¦¨ à¦¦
à¦§à¦¨ à¦Ł
à¦¨à¦ĵ à¦¨
Ġà¦ªà¦¥ à¦ķ
à¦°à¦¥à¦® à¦ľ
à¦ķà¦Ł à¦°
à¦®à¦£ à¦¬
à¦®à¦£ à¦ķà¦¨
à¦¶à¦¨ à¦ĩ
à¦²à¦ķ à¦ķ
à¦¬à¦ª à¦¦
Ġà¦ıà¦¤ à¦¸à¦¬
Ġà¦ĩà¦¨ à¦Ł
à¦ªà¦ķ à¦¤à¦°
à¦¯à¦¸ à¦Ń
Ġà¦ħà¦® à¦°à¦¤
Ġà¦ħà¦ªà¦° à¦ªà¦ķ
à¦¨à¦¸ à¦ª
Ġà¦ĭ à¦¦
Ġà¦ĺà¦° à¦Ĺ
à¦®à¦¸ à¦¤
Ġà¦¬à¦Ľà¦° à¦Ĺ
à¦¥à¦ķ à¦Ń
Ġà¦¸à¦®à§Ł à¦ĩ
Ġà¦¸à¦®à§Ł à¦Ł
Ġà¦¸à§İ à¦ķà¦°
Ġà§¨ à§Ń
à¦¬à¦ľà¦¨ à¦¨
à§§à§ ¬
à¦ĩà¦ľ à¦¡
à¦²à§Ł à¦ķà¦²
à§ª à§¦
Ġà§© à§«
Ġà¦ħà¦¬à¦¤ à¦°à¦£
à¦Ĳ à¦ķ
à§® à§ª
Ġà¦¬à¦ī à¦¯
Ġà§Ń à§¦
Ġà¦ªà¦Ļ à¦ķ
à§¯à§ §à§
Ġà¦ķà¦ªà¦Ł à¦¤
Ġà¦¥à¦® à¦¥à¦®
ĠĠčĊĠĠĠĠ ĠĠč
Ġ à§į
à¦° à¦°à¦¥
à¦¨ à¦ĺ
à¦¨ à¦¦à¦°
à¦¨ à¦¦à¦¯
à¦¨ à¦®à¦§
à¦¤ à¦ªà¦¦
à¦¤ à¦ıà¦°
à¦¯ à¦¯à¦¨
à¦¯ à¦Ĺà¦°
à¦¯ à¦īà¦ª
à¦ķ à¦¶à¦ķ
à¦ķ à¦¢
à¦ķ à¦¸à¦¬à¦ĩ
à¦ķ à¦ħà¦°
à¦¬ à§İà¦¸
à¦² à¦ı
à¦² à¦§à¦°
à¦² à¦Ńà¦°
à¦® à¦ľà¦¨
à¦® à¦§à¦°
Ġà¦ķ à¦Ļ
à¦¦ à§°
à¦¦ à¦¸à¦¬à¦ĩ
Ġà¦Ĩ à¦£
à¦ĩ à¦ī
à¦ĩ à¦ıà¦ĩ
à¦ĩ à¦®à¦¸
à¦· à¦°à¦£
à¦· à¦°à¦ķ
à¦· à¦¸à¦¬
à¦· à¦¤à¦®
à¦· à¦§à¦°
à¦ª à¦§
à¦ª à¦Ĺà¦¤
à¦ª à¦¸à¦¬à¦ĩ
à¦Ł à¦ľ
à¦Ł à¦ıà¦°
à¦ľ à¦¬à¦¦
à¦ľ à¦¸à¦¨
à¦¶ à¦¨à¦¬
Ġà¦¤ à¦°à¦¬
Ġà¦¤ à¦¤à¦¬
à¦Ĺ à¦¬à¦°
Ġà¦¦ à¦§
Ġà¦¦ à¦®à¦ķ
Ġà¦ħ à¦¹à¦²
Ġà¦ħ à¦®à¦¨à¦ĩ
à¦§ à¦ļ
Ġà¦¹ à¦ľà¦®
à¦Ľ à¦ĩ
à¦Ľ à¦ļ
à¦£ à§Ł
à¦£ à¦ł
à¦£ à¦«
à¦£ à¦®à¦¹
à¦¹ à¦¸à¦®
à¦¹ à¦ªà¦¤
à¦¹ à¦¨à¦ķ
Ġà¦ľ à¦ŀ
à¦¡ à¦ĩ
à§Ł à¦¯
à§Ł à¦®à¦ķ
à¦ĵ à¦Ĺ
Ġà¦ļ à¦¯
Ġà¦ļ à¦ªà¦²
Ġà¦ıà¦ķ à¦¤à¦°à¦«
à¦Ļ à¦ķ
Ġà¦ħà¦¨ à¦§
Ġà¦Ĩà¦° à¦¬à¦°
à¦¬à¦¨ à¦¨
à¦¬à¦¨ à¦Ĺà¦°
à¦°à¦£ à¦ķà¦¬
à¦°à¦ķ à¦ķ
à¦°à¦ķ à¦£
à¦ŀ à¦¸à¦®
à¦¬à¦° à¦¦
à¦ĸà¦¨ à¦ĩ
à¦¤à¦° à¦¶
Ġà¦ľà¦¨ à¦®à¦¨
à¦¤à¦¨ à¦¯
à¦¯à¦¬ à¦²
à¦°à¦® à¦¦
à¦°à¦® à¦ª
à§ľ à¦®
à¦·à¦£ à¦¨
à¦·à¦£ à¦Ĺ
à¦ī à¦ĩà¦¯
Ġà¦®à¦¹ à¦®
à¦ĺ à¦ľ
à¦ĺ à¦Ľ
à¦ĺ à¦¦à¦°
Ġà¦¸à¦¹ à¦§à¦°
à¦²à¦¤ à¦®
Ġà¦¬à¦¨ à¦®
à¦§à¦¨ à¦¶
à¦°à¦¶ à¦¤
à¦¨à¦ĵ à¦ķ
Ġà¦ªà¦¥ à¦Ń
à¦ķà¦Ł à¦¤à¦®
à¦®à¦£ à¦¯
à¦®à¦£ à¦ĩ
à¦®à¦£ à¦Ł
à¦¯à¦® à¦¹
Ġà¦Ĳ à¦¸à¦¬
à¦²à¦¬ à¦ķ
à¦¬à¦¦ à¦®à¦¨
Ġà¦«à¦² à¦ĵ
à¦¦à¦¨ à¦®
Ġà§ ¯à§¦
à¦ħ à¦¬à¦¸
à¦Ńà¦¬ à¦ªà¦°
à¦¬à¦¬ à¦¸
à¦ªà¦¦ à¦Ł
à¦¤à¦® à¦ľ
Ġà¦ħà¦ª à¦Ľà¦¨
Ġà¦ªà¦¦ à¦¯
à¦¬à¦ķ à¦ķ
à¦ªà¦ķ à¦¦
à¦°à¦ľà¦¨ à¦¨à¦ķ
Ġà¦¨à§Ł à¦¤
à¦ķà¦¬ à¦ļ
à¦®à¦¯ à¦ľ
Ġà¦¶à¦¤ à¦¦à¦²
à¦īà¦² à¦Ĺ
Ġà¦Ĺà¦£ à¦Ĩà¦¨
à¦¹à¦°à¦£ à¦ĩ
à¦ķà¦°à¦£ à¦Ĺà¦¤
Ġà¦¬à¦ĩ à¦ĩ
Ġà¦¬à¦ĩ à¦Ĺ
à¦¨à¦¦ à¦ķ
Ġà¦ĵà¦ĩ à¦Ł
Ġà¦ĵà¦ĩ à¦°à¦ķà¦®
Ġà¦°à¦¸ à¦¶
à¦£à¦ķ à¦¥
Ġà¦Ĩà¦¹ à¦®à¦¦
à¦¤à¦¦ à¦¶
à¦²à¦¸ à¦¹à¦¦
à¦ľà¦² à¦¦
à¦·à§Ł à¦¬à¦¸
Ġà§¨ à§©
Ġà§¨ à§¬
à¦ľà¦® à¦¹à¦²
Ġà¦Ĭ à¦¹
à¦®à¦Ł à¦®
Ġà§« à§«
Ġà§« à§¦à§¦
à¦¶à¦¶ à¦¤à¦ķ
Ġà§¨à§¦à§§à§ §
Ġà§§à§¯à§¬ à§®
à§§à§¯à§ Ńà§§
Ġà¦¤à§İà¦ª à¦°à¦¤
à¦¡à¦īà¦ĩ à¦ļ
à¦° à¦ıà¦°
à¦° à¦¸à¦¬à¦ķ
à¦° à¦¡à¦¬
à¦¨ à¦ªà¦¥
à¦¨ à¦ħà¦¤
à¦¨ à¦ıà¦Ĺ
à¦¨ à¦īà¦ª
à¦¤ à¦°à¦¤
à¦¤ à§İ
à¦¤ à¦ķà¦²
à¦¯ à¦£
à¦¯ à¦°à¦ķ
à¦¯ à¦ı
à¦¯ à¦ħ
à¦ķ à¦°à¦ķ
à¦ķ à¦ıà¦°
à¦¬ à¦ıà¦¸à¦¬
à¦² à¦¸à¦¬à¦ĩ
à¦® à¦ł
à¦® à§İà¦¸
à¦® à¦·à¦ª
à§ģ à§į
Ġà¦¸ à¦°à¦¤
Ġà¦ķ à¦ŀ
Ġà¦ķ à¦·à¦¤
Ġà¦¬ à¦¬
Ġà¦¬ à¦ª
Ġà¦ª à¦¬à¦®
à¦¦ à¦¬à¦¨
à¦¦ à¦ıà¦ĩ
à¦¦ à¦ıà¦¸à¦¬à¦ĩ
à¦¦ à¦¸à¦¬à¦ķ
à¦¦ à¦ĺà¦¨
à¦¦ à¦ľà¦Ĺà¦¤
à¦¸ à¦®à¦¨
à¦¸ à¦¤à¦¨
à¦¸ à¦ıà¦¸à¦¬à¦ĩ
à¦¸ à¦¸à¦¹
à¦ĩ à¦Ĩà¦®
à¦ĩ à¦¡à¦²
à¦· à¦²à¦¤
à¦· à¦¤à¦¬
à¦ª à¦Ŀ
à¦ª à¦®à¦£
à¦ª à¦¬à¦¦
à¦ª à¦®à¦¯
Ġà¦® à¦ł
Ġà¦® à¦°à¦¶
Ġà¦¨ à§ľ
à¦Ł à¦¦à¦²
à¦ľ à§Łà¦ķ
à¦ľ à¦ĸà¦¬à¦°
à¦Ĺ à¦°à¦¦
à¦Ĺ à¦¸à¦®
à¦Ĺ à¦ľà¦¨à¦ķ
Ġà¦¦ à¦¦à¦°
Ġà¦¦ à¦¶à¦¬
Ġà¦ħ à¦ªà¦¤
à¦£ à¦¤à¦®
à¦¹ à¦®à¦¨
Ġà¦¯ à§İ
Ġà¦¯ à¦ľà¦¨à¦¯
Ġà¦ķà¦° à¦£à¦ķ
à¦ļ à¦Ĺà¦¤
à¦ļ à¦ķà¦¤
à¦ĸ à¦ķà¦¸
Ġà¦¶ à¦¤à¦°
à¦Ń à¦ķà¦°
à¦¡ à¦ľ
Ġà¦Ń à¦²
Ġà¦° à¦£à¦¸
Ġà¦ļ à¦ļ
Ġà¦ī à¦ĩ
Ġà¦ī à¦ĩà¦ķ
Ġà¦¸à¦® à¦®à¦¨
Ġà¦ıà¦ķ à¦ķà¦Ń
à¦°à¦¤ à¦Ń
à¦°à¦¤ à¦ĵ
à¦ł à¦¤à¦°
Ġà¦¥ à¦°à¦¥à¦°
Ġà¦Ĩà¦° à¦¶
à¦¬à¦¨ à¦Ĺ
à¦°à¦£ à¦¸à¦®
Ġà¦¬à¦² à¦ĸ
Ġà¦ıà¦ĩ à¦ļ
Ġà¦§ à¦¨à¦¦
Ġà¦« à¦¨
à¦¤à¦° à¦¬à¦Ļ
Ġà¦ĸ à¦¯
Ġà¦®à¦¨ à¦ª
Ġà¦ľà¦¨ à¦¶
à¦¤à¦¨ à¦Ĺ
à¦¤à¦¨ à¦ıà¦¸à¦¬
à¦¯à¦¬ à¦ĩà¦¯
Ġà¦¹à¦² à¦ıà¦ĩ
Ġà¦¹à¦² à¦«à¦¨
à¦ı à¦ķà¦¤
à¦°à¦¬ à¦Ń
à¦« à¦²à¦¤
à¦ī à¦Ĺ
à¦ī à§İà¦¸
à¦Ĺà¦¤ à¦¸
à¦Ĺà¦¤ à¦ĩ
Ġà¦īà¦ª à¦¶
Ġà¦īà¦ª à¦Ĺ
à¦²à¦¨ à¦¶
Ġà¦Ĩà¦¬ à¦¹à¦®
Ġà¦Ł à¦ª
Ġà¦Ł à¦ªà¦ķ
à¦°à¦¹ à¦¤
Ġà¦ªà¦¡ à¦ķ
à¦¼à§ĭ à¦ĥ
à¦ķà¦° à¦¦
à¦¤à¦¬ à¦¸
à¦¤à¦¬ à¦¡
à¦¶à¦¨ à¦®
à¦¶à¦¨ à¦Ĺ
à¦¯à¦® à¦ŀ
à¦²à¦ķ à¦¨
Ġà¦«à¦² à¦²
Ġà¦«à¦² à¦¦
Ġà¦Ĩà¦¨ à¦¯
à¦Ńà¦¬ à¦ķ
Ġà¦īà¦¤ à¦¥
Ġà¦ħà¦ª à¦ª
Ġà¦ªà¦¦ à¦¸
Ġà¦ªà¦¦ à¦§
à¦°à¦¹à¦£ à¦ķ
à¦¤à¦ķ à¦£
à¦¤à¦ķ à¦°à¦¬
Ġà¦ľà¦² à¦ªà¦¥
à¦°à¦ª à¦¥
à¦°à¦ľ à¦Ń
à¦īà¦² à¦ĩ
à¦īà¦² à¦ĵ
à¦īà¦² à¦«
à¦¹à¦² à¦ľà¦¨à¦ķ
ĠĠĠĠĠĠĠĠ ĠĠĠĠĠĠ
Ġà¦Ĺà¦£ à¦¸
Ġà¦Ĺà¦£ à¦ľ
à¦ķà¦°à¦£ à¦¯
à§İà¦¸ à¦¹
Ġà¦¬à¦ĩ à¦ªà¦¤
Ġà¦¨à¦¬ à¦ľà¦¨
Ġà¦ĵà¦ĩ à¦¸à¦¬
Ġà¦īà§İà¦¸à¦¬ à¦ª
Ġà¦īà§İà¦¸à¦¬ à¦Ĩà¦ļ
Ġà¦Ĳà¦ķ à¦®à¦¤
à§¨ à§®
Ġà¦ĸà¦¬à¦° à¦¦
Ġà¦¶à¦¹ à¦°à¦ķ
à¦ļà§Ł à¦ķ
à§§à§ ®
Ġà¦Ńà¦°à¦¤ à¦®
Ġà¦Ĭ à¦¨
à¦¤à¦¶ à¦¤
à¦¬à§İ à¦¸à¦®
Ġà§ª à§ª
Ġà¦¬à¦ī à¦®
à¦Ĩà¦§ à¦Ł
à¦®à¦£à¦¸ à¦ľ
à¦¨à¦ı à¦¤
Ġà¦Ĩà¦ĩ à¦¨à¦¨
à§İà¦¸à¦ķ à¦¦
Ġà¦¨à¦Ł à¦¬à¦°
Ġà§§à§¯à§§à§ Ń
Ġà§§à§§à§ §à§
Ġà¦¤à§İà¦¸ à¦¤
Ġà¦Ĩà¦ī à¦²à¦¬
à¦Ĭ à¦°
Ġà¦¬à¦°à¦¬ à§°
Ġà§§à§¯à§¯à§ «
à§ĩ à¦Ĥ
à¦° à¦°à¦ķ
à¦° à¦²à¦ķ
à¦° à¦Ĺà¦°
à¦° à¦¡à¦ķ
à¦¨ à¦²à¦ķ
à¦¨ à¦Ĺà¦®
à¦¨ à¦īà¦¦
à¦¨ à¦ıà¦ĸà¦¨
à¦¨ à¦ªà¦°à¦®
à¦¯ à¦®à¦¤
à¦¯ à§°
à¦¯ à¦¹à¦¤
à¦¯ à¦ıà¦¸à¦¬à¦ĩ
à¦ķ à¦ķà¦°
à¦ķ à¦ıà¦ĩ
à¦ķ à¦Ĩà¦°
à¦¬ à¦¸à¦¬
à¦¬ à¦Ĺà¦®
à¦² à¦®à¦¤
à¦² à¦¶à¦ķ
à¦² à¦ıà¦°
Ġà¦¸ à¦°à¦£
Ġà¦¬ à¦¦à¦°
Ġà¦¬ à¦ĩà¦ķ
à¦¦ à¦°à¦¸
à¦¦ à¦¶à¦ķ
à¦¸ à¦¸à¦¬à¦ĩ
à¦¸ à§ľà¦ķ
Ġà¦Ĩ à¦Łà¦ª
à¦ĩ à¦·
à¦· à¦°à¦ľ
à¦· à¦ªà¦¥
à¦· à¦ľà¦¨à¦ķ
Ġà¦® à¦°à¦¬
Ġà¦¨ à¦¶
Ġà¦¨ à§Łà¦¨
à¦Ł à¦¤à¦®
à¦Ł à¦¬à¦¸
Ġà¦ı à¦¥
Ġà¦ı à¦®à¦ª
à¦ľ à¦¦à¦°
à¦ľ à¦ªà¦¤
à¦ľ à¦ıà¦ĩ
à¦¶ à¦¤à¦®
à¦¶ à¦ıà¦¸à¦¬
à¦¶ à¦ıà¦°
à¦Ĺ à¦°à¦¬
à¦Ĺ à¦¸à¦¬à¦ķ
Ġà¦ħ à¦¤à¦¨
Ġà¦ħ à¦°à¦¬
à¦§ à¦®à¦¤
à¦§ à¦¸à¦¬à¦ĩ
à¦£ à¦ķà¦²
à¦¹ à¦°à¦ķ
à¦ļ à¦¤à¦¤
à¦ĸ à¦²à¦¨
à¦ĸ à¦°à¦ļ
Ġà¦ľ à¦ªà¦¤
à§Ł à¦ľ
à§Ł à¦¸à¦Ļ
Ġà¦ī à§°
Ġà¦ī à¦Ńà¦ķ
Ġà¦ĵ à¦°à¦ķà¦®
Ġà¦¸à¦® à¦ľ
Ġà¦¸à¦® à¦ªà¦°
Ġà¦¸à¦® à¦ķà¦ķ
Ġà¦ıà¦ķ à¦§à¦°à¦¨
à¦ģ à¦¾
à¦°à¦¤ à¦ļà¦¨
Ġà¦Ľ à¦²à¦ļ
Ġà¦Ĩà¦° à¦¬à¦¦
à¦¬à¦¨ à¦ļ
Ġà¦² à¦¸
Ġà¦¬à¦² à¦¶
à¦ªà¦° à¦¶
à¦ľà¦¨ à¦Ĺ
à¦ľà¦¨ à¦¸à¦¬
à¦ľà¦¨ à¦ķà¦Ń
à¦¬à¦° à¦ļ
à¦¬à¦° à¦Ń
Ġà¦« à¦²à¦ķ
Ġà¦ĸ à¦¨à¦ķ
Ġà¦®à¦¨ à¦ĵ
Ġà¦ĩ à¦Ĺ
Ġà¦ĩ à¦Ń
à¦ªà¦¨ à¦ķ
Ġà¦¹à¦² à¦¯
Ġà¦¹à¦² à¦«
à¦ı à¦«
à¦ı à¦°à¦ķà¦®
Ġà¦ĺ à¦°à¦¸
Ġà¦ĺ à¦¨à¦¤
Ġà¦ĺ à¦°à¦¦
à¦°à¦® à¦ªà¦¦
à¦°à¦® à¦¥à¦¨
à¦°à¦¬ à¦ļà¦¨
à¦¯à¦ķ à¦¤
à¦ī à¦¨à¦Ł
à¦¬à¦¤ à¦¸
à¦¨à¦¤ à¦¸
Ġà¦īà¦ª à¦¶à¦®
Ġà¦ħà¦¸ à¦®à¦°
Ġà¦ħà¦Ń à¦¦
à¦²à¦¨ à¦ĵ
Ġà¦Ł à¦°
Ġà¦Ł à¦²à¦®à¦²
Ġà¦Ł à¦®à¦Łà¦®
à¦¨à¦¬ à¦²
à¦¨à¦¬ à¦§à¦°
à¦¦à¦° à¦¦
à¦°à¦¹ à¦¬
à¦²à¦¤ à¦²
Ġà¦Ĩà¦ľ à¦¬
à¦§à¦¨ à¦¹
à¦§à¦¨ à¦ķà¦°
à¦°à¦¨ à¦ľà¦°
à¦°à¦¶ à¦¨
à¦¨à¦ĵ à¦°
à¦¨à¦ĵ à¦ĩ
à¦ķà¦Ł à¦®à¦¯
à¦¶à¦¨ à¦ª
à¦¸à¦® à¦ķ
Ġà¦Ĳ à¦²
à¦²à¦ķ à¦¬
à¦²à¦ķ à¦®à¦²
Ġà¦Ĩà¦Ĺ à¦¨
à¦¬à¦ª à¦¶
Ġà¦Ĩà¦¨ à¦®à¦¨
Ġà¦īà§İ à¦ķà¦Ł
à¦ħ à¦¸à¦®
à¦Ńà¦¬ à¦¸
à§° à¦¶
Ġà¦ķà¦¬ à¦ļ
à¦·à¦ķ à¦Ľ
à¦ĩà¦¨ à¦®
à¦ļà¦² à¦Ł
à¦Ĺà¦² à¦¸
Ġà¦ªà¦¦ à¦ª
à¦§à¦ķ à¦°à¦£
à¦¨à¦¸ à¦¦
Ġà¦ĵà¦ªà¦° à¦ĵ
Ġà¦¸à¦¹à¦ľ à¦¤à¦°
Ġà¦ħà¦ķ à¦¥
Ġà¦ıà¦ķà¦¦ à¦®à¦ĩ
ĠĠĠĠĠĠĠĠ ĠĠĠĠ
ĠĠĠĠĠĠĠĠ ĠĠĠĠĠ
à¦®à¦¸ à¦Ń
à¦¸à¦ķ à¦¦à¦²
à¦¹à¦°à¦£ à¦ĵ
à¦ķà¦¸ à¦¹
Ġà¦¦à¦² à¦¬à¦²
à¦£à¦¨ à¦Ĺà¦°
à¦¯à¦Ń à¦°
Ġà¦ħà¦ľ à¦Ĺà¦°
à¦ħà¦¨ à¦²
à¦¬à¦® à¦¹
à¦²à¦® à¦¶à¦²
à¦¦à§Ł à¦¸
Ġà¦Ĩà¦ļà¦°à¦£ à¦ĩ
à¦¨à¦Ń à¦¦
à§¨ à§ª
à§¨ à§¬
à¦·à§Ł à¦Ń
Ġà¦ħà¦ļ à¦ŀ
à¦¬à¦ľà¦¨ à¦Ĺ
à§« à§Ń
à§§à§ ¯
à§§à§ Ń
Ġà¦ĩà¦¹ à¦ķ
Ġà¦®à¦¦ à¦¨à¦¬
à¦²à¦ľ à§Ł
Ġà§© à§Ń
Ġà§§à§¯à§Ń à§¦
à¦¶à¦¸ à¦ļ
Ġà¦¬à¦ī à¦Ŀ
Ġà¦¨à¦Ĺ à¦°à¦¬
Ġà¦Ĩà¦ĩ à¦·à¦®
à¦¨à¦®à¦¨ à¦¸
Ġà§Ń à§«
à¦ĩà¦°à¦ķà¦® à¦ĩ
Ġà¦īà¦Ńà§Ł à¦ĩ
Ġà§® à§¦
Ġà¦¸à¦¬à¦¸à¦®à§Ł à¦ĩ
à§ĩà§Ĺ à¦ģ
Ġà¦ļà¦Łà¦ķ à¦¦
Ġà¦ľà¦¬à¦° à¦¦à¦¸
« à§¨
Ġà¦ Ļ
à§ĩ à§ĩ
à§ĩ à§Ģ
à¦° à¦Ĺà¦²
à¦¨ à¦ī
à¦¨ à¦ļà¦¨
à¦¨ à¦Ńà¦¬
à¦¤ à¦ªà¦¨
à¦¤ à¦¦à¦¨
à¦¤ à¦Ĺà¦£
à¦¯ à¦§à¦¨
à¦¯ à¦¶à¦ķ
à¦ķ à¦Ĺà¦¤
à¦¬ à¦¥
à¦¬ à¦®à¦¤
à¦¬ à¦ķà¦Ł
à¦¬ à¦ļà¦ķ
à¦¬ à¦ĩà¦¯
à¦² à¦®à¦£
à¦² à¦Ĺà¦°
à¦² à¦°à¦ķà¦®
à¦® à¦¤à¦¨
à¦® à¦ĵà¦¯
à¦® à¦«à¦²
à¦® à¦ıà¦°
à¦® à¦Ĩà¦ļ
Ġà¦¸ à¦¬à¦¨
Ġà¦¸ à¦ªà¦°
Ġà¦¸ à¦ĵà¦¯
Ġà¦¸ à¦ķà¦°
Ġà¦¸ à¦ľà¦²
Ġà¦ķ à¦ĵ
Ġà¦ķ à¦ĵà¦¯
Ġà¦ķ à¦ĩà¦¬
à¦¦ à¦°à¦ķ
à¦¦ à¦¤à¦¤
à¦¸ à¦¬à¦¨
à¦¸ à¦¯à¦¨
à¦¸ à¦Ĳà¦¤
à§ĭ à§ĩ
à¦· à¦Ľ
à¦· à¦®à¦¯
à¦ª à¦¦à¦°
Ġà¦® à¦ļ
Ġà¦® à¦²à¦®
Ġà¦® à§Łà¦²
Ġà¦¨ à¦°à¦¬
Ġà¦¨ à¦²à¦ķ
Ġà¦¨ à¦¬à¦¨à¦¬
Ġà¦ı à¦Ĩ
à¦ľ à¦Ńà¦¯
à¦¶ à¦ľà¦¨
à¦¶ à¦¦à¦°
à¦¶ à¦¨à¦ĵ
à¦¶ à¦Ńà¦Ļ
à¦¶ à¦°à¦¸à¦Ĺ
Ġà¦¤ à¦¦à¦¬
à¦Ĺ à¦Ĺà¦¤
à¦Ĺ à¦¬à¦²
à¦Ĺ à¦®à¦ķ
à¦Ĺ à¦®à¦¸
à¦Ĺ à¦ıà¦¸à¦¬à¦ĩ
à¦Ĺ à¦¸à¦¹
Ġà¦¦ à¦ĸ
Ġà¦¦ à¦°à¦¶à¦¨
Ġà¦ħ à¦ªà¦¦à¦¸
à¦§ à¦¬à¦¦
Ġà¦¹ à¦°à¦ª
Ġà¦¹ à¦łà¦ķ
Ġà¦¹ à¦īà¦ķ
à¦£ à¦ıà¦ĩ
à¦¹ à¦ļ
à¦¹ à¦ĵà¦¯
à¦¹ à¦¨à¦¬
Ġà¦ķà¦° à¦¦
Ġà¦ķà¦° à¦¹
à¦ļ à¦®à¦¤
à¦ĸ à¦°à¦¤
à¦ĸ à¦¢
Ġà¦¶ à¦¤à¦¬
Ġà¦¶ à¦®à¦¶
Ġà¦¶ à¦°à¦¬à¦¤
à¦Ń à¦ļ
Ġà¦Ĺ à¦ª
à¦¡ à¦ĵ
à§Ł à¦ĵ
à¦ĵ à¦ł
Ġà¦° à¦¥à¦¬
Ġà¦ī à¦Ĺà¦°
Ġà¦ī à¦Łà¦ķ
Ġà¦Ĩà¦® à¦ľà¦¨à¦¤
Ġà¦ıà¦ķ à¦«
Ġà¦ıà¦ķ à¦ªà¦ķ
Ġà¦ªà¦° à¦®à¦¤
à¦ł à¦¯
à¦ł à¦ķà¦°
à¦°à¦£ à¦¹
à¦°à¦£ à§Ł
à¦°à¦£ à¦ªà¦¤
Ġà¦¬à¦² à¦ª
à¦°à¦ķ à¦¥
à¦ŀ à¦Ł
à¦ŀ à¦ķà¦°
à¦ľà¦¨ à¦®à¦¤
à¦¬à¦° à¦ĵ
à¦®à¦¨ à¦°
à¦®à¦¨ à¦¦
Ġà¦« à¦£
à§İ à¦ªà¦¨
à§İ à¦ķà¦°
Ġà¦®à¦¨ à¦ĸ
Ġà¦ľà¦¨ à¦¯
à¦¤à¦¨ à¦®
à¦¤à¦¨ à¦Ł
à¦ı à¦®à¦¨à¦ĩ
à¦°à¦® à¦ĵ
à¦°à¦¬ à¦ĵ
à¦¸à¦¬ à¦ľ
à¦·à¦£ à¦ıà¦¸à¦¬à¦ĩ
à¦ī à¦²à¦¬
à¦¬à¦¤ à¦¤
à¦¬à¦¤ à¦¬
Ġà¦īà¦¦ à¦Ń
à¦ķà¦¤ à¦®
Ġà¦īà¦ª à¦¡
à¦ļà¦¨ à¦Ńà¦Ļ
Ġà¦¸à¦¹ à¦®à¦¤
Ġà¦¸à¦¹ à¦®à¦°à¦£
Ġà¦Ł à¦ķà¦Łà¦ķ
à¦¨à¦¬ à¦¯
à¦°à¦¥ à¦ķ
Ġà¦¤à¦¬ à¦²
à¦°à¦¹ à¦Ł
à¦¬à¦² à¦Ń
Ġà¦¹à¦¤ à¦ļà¦ķ
Ġà¦¡ à¦¬à¦²
Ġà¦¬à¦¨ à¦ļ
à¦§à¦¨ à¦ª
à¦ķà¦Ł à¦²
à¦ķà¦Ł à¦®
à¦ķà¦Ł à¦Ĺ
à¦®à¦£ à¦Ń
à¦®à¦£ à¦ªà¦£
à¦¶à¦¨ à¦¸
à¦¯à¦® à¦°
à¦¸à¦® à¦·
Ġà¦Ĳ à¦ĸ
à¦²à¦ķ à¦ª
à¦²à¦ķ à¦ļ
Ġà¦«à¦² à¦Ł
à¦¦à¦¨ à¦ª
Ġà¦īà§İ à¦ĸ
à¦ħ à¦¯
à¦ħ à¦§à¦°
à¦°à¦Ń à¦ķ
à§° à¦£
à¦ªà¦¦ à¦ĩ
Ġà¦Ŀ à¦Ļ
Ġà¦Ŀ à¦ŀ
Ġà¦Ŀ à¦°à¦Ľ
Ġà¦ķà¦® à¦ªà¦ķ
Ġà¦ħà¦ª à¦Ł
à¦ĩà¦¨ à¦«
à¦Ĺà¦² à¦®
à¦¨à¦ķ à¦¨
à¦°à¦¹à¦£ à¦ĩ
Ġà¦¢ à¦ķ
à¦¬à¦¸ à¦Ń
à¦¯à¦¸ à¦ļ
à¦¨à¦¸ à¦Ń
Ġà¦®à¦° à¦²
à¦¨à¦¯ à¦ľ
à¦ªà¦¸ à¦¤
ĠĠĠĠĠĠĠĠ Ġ
ĠĠĠĠĠĠĠĠ ĠĠĠĠĠĠĠ
à¦®à¦¸ à¦ķà¦²
Ġà¦Ĩà¦¦ à¦®
Ġà¦Ĩà¦¦ à¦ª
Ġà¦Ĺà¦£ à¦²
à¦ķà¦°à¦£ à¦ķ
à¦Ĩà¦® à¦²
à¦ĩà¦ķ à¦¶
Ġà¦īà§İà¦¸ à¦ľ
Ġà¦ķà¦¨ à¦Ń
Ġà¦ªà¦°à¦® à¦ª
Ġà¦Ī à¦¦à¦°
Ġà¦īà§İà¦¸à¦¬ à¦ĩ
Ġà¦ªà¦¤ à¦Ļ
Ġà¦¸à¦®à§Ł à¦ķ
Ġà¦¸à¦®à§Ł à¦¸
Ġà¦¸à¦®à§Ł à¦®à¦¤
à¦¬à¦Ń à¦Ļ
à¦£à¦ķ à¦®à¦²
à¦²à¦® à¦§
Ġà¦Ĩà¦ĩà¦¨ à¦¸
à¦¤à¦¸ à¦¹
à¦¤à¦¸ à¦ŀ
à¦£à¦¬ à¦§à¦°
à§¨ à§©
à¦¤à¦ª à¦ŀ
Ġà¦ĵà¦° à¦«
Ġà¦ľà¦Ĺà¦¤ à¦Ł
ĠĠĠĠĠĠĠĠĠĠĠĠĠĠĠĠ ĠĠĠĠĠ
à¦¬à¦ľà¦¨ à¦¬
à¦ĩà¦Ń à¦¸
Ġà¦ļà¦°à¦® à¦ªà¦¨
à¦¸à¦¹ à¦ľ
Ġà¦Ńà¦°à¦¤ à¦ķ
Ġà¦ľà§Ł à¦Ĺ
Ġà§© à§§
à¦Ńà¦°à¦¤ à¦¬
Ġà§§à§¯à§« à§¦
à¦Ĳ à¦¶
à¦ıà¦®à¦¨ à¦Ł
à¦¬à§İ à¦¸à¦°
Ġà¦Īà¦¦ à¦īà¦²à¦«
Ġà¦Ĺà¦ł à¦¨à¦ķ
Ġà¦¨à¦Ĺ à¦°à¦Ń
à¦°à¦Ĩ à¦¨
Ġà§¬ à§¦
Ġà¦ıà¦® à¦ı
à§¯à§ «
à¦¶à¦§ à¦°à¦¦
Ġà¦ĸà¦¸ à§ľ
Ġà§§à§¯à§¨ à§©
Ġà§¨à§¦à§§à§ ¨
Ġà§§à§¯à§§à§ ®
Ġà¦¨à¦¬à¦¬ à¦§
Ġà¦°à¦¸à¦¬ à¦¤
à¦ħà¦ªà¦° à¦¦
Ġà¦ĵà¦² à¦Łà¦ª
Ġà¦Ŀà¦¨ à¦Ŀà¦¨
à§ ¯à§¦
à¦¾ à¦¾
à¦° à¦Ŀ
à¦° à¦°à¦¸
à¦° à¦Ńà¦¬
à¦° à¦ĺà¦°
à¦° à¦Ĩà¦²
à¦¿ à§ĩ
à¦¨ à¦°à¦ķà¦®
à¦¨ à¦ĩà¦¬
à¦¤ à¦ŀ
à¦¤ à¦®à¦£
à¦¤ à¦ħà¦¨
à¦¯ à¦¤à¦¨
à¦¯ à¦°à¦®à¦£
à¦¯ à¦¹à¦®
à¦ķ à¦ªà¦ķ
à¦ķ à¦ļà¦°
à¦ķ à¦¸à¦¬à¦ķ
à¦ķ à¦ľà¦¨à¦ķ
à¦¬ à¦¬à¦¨
à¦¬ à¦ĺ
à¦¬ à¦§à¦¨
à¦¬ à¦¹à¦¤
à¦¬ à§İà¦ķ
à¦¬ à¦¸à¦¬à¦ĩ
à¦¬ à¦ĩà¦Ł
à¦² à¦«à¦²
à¦² à¦¸à¦¬à¦ķ
à¦® à¦¤à¦°
à¦® à¦®à¦£
à¦® à¦¬à¦¸
à¦® à¦¸à¦°
à¦® à¦ĵà§Ł
à¦® à¦Ĺà¦¨
à¦® à¦®à¦°à¦£
à¦® à¦īà¦¨
à¦® à¦¸à¦¬à¦ķ
à¦® à¦ħà¦°
Ġà¦¸ à¦Ł
Ġà¦¸ à¦¶à¦¬
Ġà¦¸ à¦¶à¦°
Ġà¦ķ à¦ĩà¦¤
Ġà¦¬ à¦¨à¦¨
Ġà¦¬ à¦Ĺà¦²
à¦¸ à¦°à¦¸
à¦¸ à¦ıà¦°
à¦¸ à¦¦à¦¸
Ġà¦Ĩ à¦ĵ
Ġà¦Ĩ à¦ĩà¦²
Ġà¦Ĩ à¦ļà¦°
Ġà¦Ĩ à¦£à¦¬
Ġà¦Ĩ à¦ĵà¦¡
à¦ĩ à¦®à¦¨
à¦· à¦ıà¦ĩ
à¦ª à¦²à¦ķ
Ġà¦¨ à¦¬à¦¸
Ġà¦¨ à¦°à¦²
Ġà¦¨ à¦¬à¦²à¦¬
Ġà¦ı à¦®à¦¬
Ġà¦ı à¦Ĩà¦ĩ
à¦ľ à¦ĸ
à¦ľ à¦Ĺà¦¨
à¦¶ à¦¤à¦²
Ġà¦¤ à¦¡
Ġà¦¤ à¦°à¦£
Ġà¦¤ à¦ŀ
à¦Ĺ à¦°à¦ķ
à¦Ĺ à¦ı
à¦Ĺ à¦°à¦®
à¦Ĺ à¦ķà¦°
à¦Ĺ à¦¨à¦¸
à¦Ĺ à¦ĺà¦¨
Ġà¦¦ à§ľ
à¦§ à¦®à¦¨
à¦§ à¦¨à¦¬
à¦£ à¦®à¦¤
à¦£ à¦§à¦°
à¦¹ à¦§
à¦¹ à¦«
Ġà¦ķà¦° à¦¸
à¦ļ à¦¦
à¦ļ à¦²à¦ķ
à¦ļ à¦²à¦¬
à¦¥ à¦°à¦ķ
à¦¥ à¦°à¦ļ
à¦ĸ à¦®à¦£
Ġà¦¶ à¦°à¦®
Ġà¦¶ à¦łà¦¤
Ġà¦Ĺ à¦«
Ġà¦ľ à¦ľ
Ġà¦ľ à¦Ĺà¦ľ
à¦¡ à¦¦
à§Ł à¦¹
à§Ł à¦ľà¦¨
à¦ĵ à¦¸
à¦ĵ à¦¹
Ġà¦° à¦¦
Ġà¦° à¦®à¦¨
Ġà¦° à¦¸à¦®
Ġà¦° à¦¸à¦°
Ġà¦° à¦ľà¦¬
Ġà¦ī à¦¸
Ġà¦ī à¦¥à¦²
Ġà¦ĵ à¦ľà¦¸
Ġà¦¸à¦® à¦ħà¦§
Ġà¦ıà¦ķ à¦¤à¦®
Ġà¦ıà¦ķ à¦¶à¦¤
à¦Ļ à¦Ł
à¦ł à¦ļà¦°
à¦ł à¦ļà¦ķ
Ġà¦¥ à¦¤à¦®à¦¤
Ġà¦Ľ à¦²à¦Ľ
à¦¬à¦¨ à¦¤
à¦¬à¦¨ à¦ªà¦¥
à¦°à¦£ à¦¸
Ġà¦² à¦²à¦¨
Ġà¦¬à¦² à¦¯
Ġà¦¬à¦² à¦¬à¦¤
Ġà¦§ à¦®à¦¨
à¦°à¦ķ à¦¤
à¦ŀ à¦¨
à¦ľà¦¨ à¦ıà¦¸à¦¬
à¦¬à¦° à¦°
à¦®à¦¨ à¦¬
Ġà¦« à¦¡
Ġà¦ĸ à§ľ
à§İ à¦ªà¦¦
Ġà¦®à¦¨ à¦Ń
Ġà¦ľà¦¨ à¦¬
à¦¤à¦¨ à¦¦
Ġà¦ĩ à¦¹à¦¸
Ġà¦ĩ à¦¬à¦ĩ
Ġà¦ĩ à¦¨à¦¬à¦ķ
à¦ªà¦¨ à¦¤
Ġà¦¹à¦² à¦¨
Ġà¦ĺ à§ľ
à¦°à¦® à§Ł
à¦°à¦¬ à¦¹à¦®
à¦¸à¦¬ à¦Ł
à¦·à¦£ à¦¯
à¦·à¦£ à¦ıà¦ĩ
Ġà¦§à¦° à¦¨à¦Ł
à¦ī à¦·
à¦ī à¦ªà¦¤
Ġà¦¬à¦° à¦ª
à¦¬à¦¤ à¦ª
à¦¬à¦¤ à¦¶
à¦ķà¦¤ à¦ķ
Ġà¦īà¦ª à¦ķà¦¥
Ġà¦Ĩà¦² à¦Ł
Ġà¦Ĩà¦¸ à¦Ļ
à¦²à¦¨ à¦¯
à¦²à¦¨ à¦¦
Ġà¦¸à¦¹ à¦®
Ġà¦¸à¦¹ à¦Ĺ
à¦®à¦¤ à¦²
à¦¨à¦¬ à¦¬
à¦¦à¦° à¦Ń
Ġà¦Ĩà¦ľ à¦®
Ġà¦¬à¦¨ à¦Ĺà¦®à¦¨
à¦ķà¦° à¦Ń
à¦Ĩ à¦Ł
à¦Ĩ à§Ł
à¦Ĩ à¦°à¦¬
à¦Ĩ à¦ªà¦¦
Ġà¦ªà¦¥ à¦¯
à¦°à¦¥à¦® à¦Ń
à¦ķà¦Ł à¦®à§Ł
à¦¶à¦¨ à¦²
à¦²à¦ķ à¦¥
à¦²à¦¬ à¦£
à¦²à¦¬ à¦¶à¦¤
à¦ªà¦¤ à¦Ļ
Ġà¦īà§İ à¦¸à¦®
à¦ħ à¦Ļ
à¦Ńà¦¬ à¦ĩ
à¦Ńà¦¬ à¦ĵ
à¦°à¦Ń à¦¦
à¦¸à¦¨ à¦ĩ
à§° à¦·
à§° à¦ª
à§° à¦¬à¦²
Ġà¦Ĩà¦ªà¦¨ à¦ľà¦¨
à¦·à¦ķ à¦¥
à¦ªà¦¦ à¦ª
à¦ªà¦¦ à¦Ĺ
à¦ªà¦¦ à¦¸à¦Ļ
à¦¤à¦® à¦°
à¦¤à¦® à¦®
Ġà¦īà¦¤ à¦·
Ġà¦Ĩà¦¶ à¦¯
à¦ĩà¦¨ à¦Ł
à¦ĩà¦¨ à¦Ĺ
à¦ļà¦² à¦Ń
à¦Ĺà¦² à¦ļà¦£
à¦¶à¦ķ à¦ķ
à¦¶à¦ķ à¦¦
Ġà¦ħà¦Ĺ à¦Ń
Ġà¦ªà¦¦ à¦®à¦°
à¦¬à¦ķ à¦ł
à¦°à¦¹à¦£ à¦ıà¦¸à¦¬à¦ĩ
Ġà¦¶à¦° à§İà¦ķ
Ġà¦ľà¦² à¦¸à¦®
Ġà¦ľà¦² à¦ļà¦°
à¦¯à¦¸ à¦¤
à¦¯à¦¸ à¦¹
à¦ĩà¦² à¦«à¦²à¦ķ
à¦§à¦ķ à¦¸
à¦°à¦ļ à¦ķ
à¦¨à¦¸ à¦²
à¦¨à¦¸ à¦ŀ
Ġà¦®à¦° à¦Ľ
Ġà¦¶à¦¤ à¦¸à¦¹à¦¸
à¦Łà¦ķ à¦¨
Ġà¦ıà¦ķà¦ĩ à¦¸
Ġà¦Ĺà¦£ à¦¬
à¦¸à¦ķ à¦¶
à¦°à¦®à¦£ à¦Ń
à¦Ĺà¦¬ à¦§
Ġà¦¬à¦ĩ à¦ķà¦²à¦®
Ġà¦ķà¦ĸà¦¨à¦ĵ à¦¬
à¦°à¦Ĺ à¦łà¦¨
Ġà¦Ī à¦Ļ
à¦ªà¦¥ à¦Ĺ
Ġà¦¦à¦² à¦ĩ
Ġà¦°à¦¸ à¦ª
Ġà¦°à¦¸ à¦Ń
Ġà¦ħà¦ľ à¦ª
à¦¨à§Łà¦¨ à¦®
Ġà¦ħà¦¶ à¦°
Ġà¦Ĩà¦¹ à¦¬
Ġà¦¬à¦ķ à¦¬à¦ķ
à¦®à¦¹ à¦ķ
Ġà¦¸à¦¦ à¦Ĺ
à¦®à¦¦ à¦®à¦¤
à¦ıà¦ķ à¦¯
à¦¶à¦² à¦°
à§¨ à§§
à§¨ à§«
Ġà¦ĸà¦¬à¦° à¦ĵ
Ġà¦ľà¦¨à¦¸ à¦Ń
à¦¬à¦ľà¦¨ à¦ķ
à¦¬à¦ľà¦¨ à¦¦
Ġà¦¬à¦¸à¦¨ à¦ĸ
à¦¸à¦°à¦£ à¦ķ
à§© à§«
à§© à§ª
Ġà§© à§®
Ġà§© à§¬
Ġà§© à§¯
Ġà¦ıà¦°à¦ªà¦° à¦ĵ
à¦ļà¦°à¦£ à¦ķ
à¦ļà¦°à¦£ à¦¶
à¦¨à¦Ĩ à¦¤
à¦¬à§İ à¦¸à¦²
à¦°à¦ķà¦Ł à¦Ń
Ġà§ª à§Ń
Ġà¦¬à¦ī à¦¬
Ġà¦Ńà¦Ĺ à¦¬à¦¨
Ġà¦ıà¦°à¦ķà¦® à¦ĩ
Ġà¦ħà¦¬à¦¨ à¦®à¦¨
à¦¨à¦ħ à¦ª
Ġà¦®à¦°à¦£ à¦¶
Ġà¦Ĩà¦« à¦Ĺ
Ġà¦°à¦¹ à¦®à¦¤
à§¯à§ ª
Ġà§¨à§¦à§¦ à§¯
à§§à§¯à§ «à§¨
à§ľà¦¬ à§ľ
à¦īà¦Ńà§Ł à¦ĩ
Ġà§§à§§à§§à§ ¨
à§ ±
à¦° à¦ĵà¦¯
à¦° à¦§à¦¨
à¦° à¦ħà¦°
à¦¨ à¦ĵà¦¯
à¦¨ à¦®à¦¸
à¦¨ à¦ľà¦°
à¦¨ à¦¹à¦¯
à¦¨ à¦Ĩà¦ľà¦ķ
à¦¤ à¦ı
à¦¤ à¦§à¦¨
à¦¤ à§°
à¦¤ à¦ıà¦ķ
à¦¤ à¦Ŀà¦°
à¦¯ à¦°à¦¤
à¦ķ à¦ªà¦¨
à¦ķ à¦°à¦¸
à¦ķ à¦¬à¦²
à¦ķ à§°
à¦ķ à¦°à¦ķà¦®
à¦ķ à¦®à¦²
à¦ķ à¦ªà¦¥
à¦ķ à¦¯à¦ľ
à¦¬ à¦ķà¦¤
à¦¬ à¦¬à¦²
à¦¬ à¦ħ
à¦¬ à¦īà¦¦
à¦¬ à¦Ĺà¦¤à¦Ń
à¦¬ à¦Ĩà¦¤
à¦² à¦Ĺà¦²
à¦² à¦Ĩà¦®
à¦² à¦ľà¦²
à¦² à¦Ĩà¦²
à¦® à§İ
à¦® à¦¬à¦¤
à¦® à¦ªà¦ķ
à¦® à¦ªà¦¥
à¦® à¦Ńà¦ķ
Ġà¦¸ à¦²à¦¤
Ġà¦¸ à¦ĩà¦¯
Ġà¦¬ à¦Ĺ
Ġà¦ª à¦¦à¦¨
Ġà¦ª à¦¸à¦°
Ġà¦ª à¦ªà¦ķà¦°
à¦¦ à¦ĸ
à¦¦ à¦«
à¦¦ à¦Ĺà¦¤
à¦¦ à¦¨à¦ĵ
à¦¸ à¦ĵà¦¯
à¦¸ à¦Ńà¦°
Ġà¦Ĩ à¦ľà¦¨
Ġà¦Ĩ à§°
Ġà¦Ĩ à¦ĩà¦ķ
à¦ĩ à¦§
à¦ĩ à¦ı
à¦ĩ à¦ıà¦ķà¦Ł
à¦ĩ à¦ıà¦Ł
à¦ĩ à¦īà¦°
à¦· à¦¡
à¦· à¦¸à¦®
à¦ª à¦Łà¦ķ
à¦ª à¦¹à¦¤
à¦ª à¦£à¦¨
Ġà¦® à§Ł
Ġà¦® à¦°à¦¸
Ġà¦® à¦ĵà¦ķ
Ġà¦¨ à¦°à¦°
Ġà¦¨ à§ľà¦¬à§ľ
à¦Ł à¦¡
à¦Ł à¦°à¦¸
Ġà¦ı à¦¤à¦¬à¦¡
à¦ľ à¦¸à¦¬
à¦ľ à¦®à¦°
à¦ľ à¦²à¦®
à¦ľ à¦¦à¦£
à¦¶ à¦®à¦¤
à¦¶ à¦¸à¦¬à¦ĩ
à¦¶ à¦¸à¦¹
Ġà¦¤ à¦°à¦¤
à¦Ĺ à¦ªà¦¤
à¦Ĺ à¦ıà¦¸à¦¬
Ġà¦¦ à¦¸à¦¤
Ġà¦¦ à¦ĩà§Ł
Ġà¦ħ à¦ªà¦¨
Ġà¦ħ à¦¢
à¦§ à¦ĸ
à¦§ à¦ľà¦¨
à¦§ à¦¶à¦ķ
à¦§ à¦¨à¦¤à¦¤
à¦Ľ à¦ĵ
à¦£ à¦®à¦¨
à¦£ à¦ªà¦ķ
à¦¹ à¦Ļ
à¦¹ à¦īà¦¦
Ġà¦¯ à¦®à¦²
Ġà¦¯ à¦®à¦¦
à¦ļ à¦ļ
à¦ļ à¦ªà¦¦
à¦¥ à¦ĸ
à¦¥ à¦¡
à¦ĸ à¦ľ
à¦ĸ à¦²à¦¤
à¦ĸ à¦ķà¦ķ
à¦ĸ à¦ľà¦¨à¦ķ
à¦ĸ à¦Ĩà¦¨à¦¨
Ġà¦¶ à¦°à¦ķ
à¦Ń à¦¹
à¦Ń à¦Ń
à¦Ń à¦Ĺà¦¬
à¦¡ à¦¡
à¦¡ à¦ĵà¦¯
à¦¡ à¦ĵà§Ł
à¦¡ à¦¬à¦ľà¦¨à¦¨
à§Ł à¦ıà¦ĩ
à¦ĵ à¦Ľ
à¦ĵ à¦ĸ
à¦ĵ à¦ĵ
à¦ĵ à§ľ
Ġà¦° à¦¸à¦ķ
à§Ĥ à¦ĥ
Ġà¦ļ à¦·
Ġà¦ī à¦¬
Ġà¦ī à¦Ń
Ġà¦ī à¦¤à¦°
Ġà¦ī à¦«
Ġà¦ĵ à¦ľ
Ġà¦ıà¦ķ à¦ıà¦ķ
à¦ł à¦ĺ
Ġà¦ħà¦¨ à¦®à¦¨
Ġà¦ħà¦¨ à¦Łà¦¨
Ġà¦Ľ à§Łà¦Ł
Ġà¦Ĩà¦° à¦¬à¦ĩ
à¦¬à¦¨ à¦°
à¦¬à¦¨ à¦¹
à¦¬à¦¨ à¦¶à¦ķ
à¦¬à¦¨ à¦®à¦°à¦£
Ġà¦¬à¦² à¦Ł
Ġà¦ıà¦ĩ à¦ĩ
Ġà¦§ à¦¡
à¦ªà¦° à¦¨
à¦ľà¦¨ à¦°
à¦ľà¦¨ à¦Ĺà¦°
à¦®à¦¨ à¦ª
à¦ĸà¦¨ à¦¶
Ġà¦« à¦ľà¦°
à¦¤à¦° à¦¯
à¦¤à¦° à¦²
à§İ à¦°
à§İ à¦ľ
čĊ čĊč
čĊ ĠĠč
à¦¤à¦¨ à¦ª
Ġà¦ĩ à¦«à¦¤
Ġà¦¹à¦² à¦®
Ġà¦¹à¦² à¦¶
à¦ı à¦·
à¦ı à¦¤à¦¦
à¦°à¦® à¦§à¦°
à¦°à¦¬ à¦¹
à¦°à¦¬ à¦ªà¦ķ
à¦¯à¦ķ à¦°à¦Ń
à¦·à¦£ à¦¦
à¦·à¦£ à¦¸à¦®
à¦ī à¦ªà¦ľ
Ġà¦¬à¦° à¦·
Ġà¦¬à¦° à¦¬à¦°
à¦¨à¦¤ à¦¦
Ġà¦īà¦¦ à¦¬
Ġà¦īà¦¦ à§Ł
Ġà¦®à¦¤ à¦ķ
Ġà¦®à¦¤ à¦Ł
à¦ķà¦² à¦Ļ
à¦²à¦¨ à¦Ĺà¦°
à¦²à¦¨ à¦ıà¦¸à¦¬
à¦ĺ à§ľ
Ġà¦¸à¦¹ à¦ľà¦¸
Ġà¦Ł à¦Ĺà¦¬
Ġà¦ħà¦¤ à¦Ł
à¦¨à¦¬ à¦¹
à¦¨à¦¬ à¦®à¦¹
à¦¦à¦° à¦ľ
à¦°à¦¥ à¦ª
à¦°à¦¹ à¦ĵ
Ġà¦¬à¦¸ à¦Ľ
Ġà¦¬à¦¸ à¦¤à¦¬
Ġà¦¹à¦¤ à¦¦à¦°
à¦§à¦¨ à¦ªà¦¦
à¦§à¦¨ à¦ªà¦¥
à¦°à¦¨ à¦¦
à¦Ĩ à¦¬à¦°
à¦Ĩ à¦īà¦Ł
à¦Ĩ à¦ľà¦ĵ
à¦°à¦¦ à¦£
à¦¤à¦¬ à¦¯
à¦¤à¦¬ à¦ľ
à¦¤à¦¬ à¦¹
à¦¤à¦¬ à§Łà¦¸
à¦°à¦¥à¦® à¦ľà¦¨
à¦®à¦£ à¦¶
à¦¶à¦¨ à¦Ł
à¦¶à¦¨ à¦ıà¦¸à¦¬
Ġà¦¬à¦²à¦² à¦¦
à¦¯à¦® à¦¶
à¦¯à¦® à¦§
à¦¯à¦® à§Łà¦¤
à¦²à¦¬ à¦¬
à¦²à¦¬ à¦¦
à¦°à¦ĩ à¦ľ
Ġà¦¬à¦¹ à¦¨à¦ķ
Ġà¦ıà¦¸ à¦ıà¦¸à¦¸
à¦¬à¦¦ à¦¤
à¦¦à¦¨ à¦ªà¦¦
Ġà¦¸à¦¨ à¦ķ
Ġà¦¸à¦¨ à¦¦
à¦ħ à¦·
à¦ħ à¦¥
à¦ħ à¦«à¦²
à¦°à¦Ń à¦°
à¦¸à¦¨ à¦ª
à¦¸à¦¨ à¦ļ
à¦¸à¦¨ à¦Ń
Ġà¦ķà¦¬ à¦ļà¦ķ
à¦·à¦ķ à¦ª
à¦·à¦ķ à¦Ĺà¦£
à¦¯à¦¬à¦¸ à¦¤
à¦ªà¦¦ à¦®
Ġà¦Ŀ à¦Łà¦ķ
Ġà¦Ĩà¦¶ à¦°à¦«
Ġà¦ħà¦ª à¦²
Ġà¦ħà¦ª à¦¹
à¦ıà¦ĩ à¦Ł
à¦ĩà¦¨ à¦·
à¦ĩà¦¨ à¦ħà¦«à¦²
à¦Ĺà¦² à¦Ĺ
à¦Ĺà¦² à¦ľà¦¨à¦ķ
Ġà¦Ĩà¦ķ à¦£
Ġà¦ªà¦¦ à¦Ł
Ġà¦ĩà¦¨ à¦¡
à¦¬à¦ķ à¦¨
à¦¬à¦ķ à¦ª
à¦ªà¦ķ à¦ª
à¦¤à¦¤ à¦¸
à¦¯à¦¦ à¦¶
à¦¨à¦¸ à¦ķ
à¦¨à¦¸ à¦¹à¦ķ
à¦®à¦¬ à¦§
à¦ĸà¦² à¦Ń
Ġà¦¶à¦¤ à¦Ĺ
à¦Łà¦ķ à¦ª
Ġà¦ķà¦¤ à¦¶à¦¤
à¦«à¦² à¦ĩ
à¦«à¦² à¦ĵ
à¦¹à¦¤ à¦Ń
Ġà¦ħà¦¦ à¦ķ
à¦·à¦® à¦Ń
Ġà¦Ĺà¦£ à¦§à¦°
Ġà¦Ĺà¦£ à¦ħà¦Ń
à¦°à¦®à¦£ à¦¯
à¦¹à¦°à¦£ à¦¤
à¦¹à¦°à¦£ à¦Ĺ
à¦łà¦ķ à¦¸à¦®
Ġà¦¦à¦° à¦Ĺ
à¦§à¦¬ à¦¸à¦®
Ġà¦ħà¦² à¦¸à¦¤
Ġà¦ıà¦ķà¦ľà¦¨ à¦ĩ
Ġà¦Ī à¦·
Ġà¦ĵà¦ĩ à¦ĸ
à¦·à¦¦ à¦ķ
Ġà¦īà§İà¦¸à¦¬ à¦ħà¦¨
Ġà¦°à¦¸ à¦¦
à¦¬à¦Ń à¦¬à¦¨
à¦¡à¦² à¦¸
Ġà¦§à¦¨ à¦²
Ġà¦ªà¦¶ à¦®
à¦ķà¦¨ à¦®
Ġà¦¹à¦° à¦«
Ġà¦°à¦ķà¦® à¦Ń
à¦¬à¦® à§Ł
à¦²à¦® à¦¹
Ġà¦¨à¦Ĺà¦° à¦Ĺ
Ġà¦Ĩà¦ĩà¦¨ à¦ª
Ġà¦Ĩà¦ļà¦°à¦£ à¦ķ
Ġà¦Ĩà¦ļà¦°à¦£ à¦Ĺ
Ġà¦Ĩà¦ļà¦°à¦£ à¦Ĺà¦¤
Ġà¦ļà¦ķ à¦®
Ġà¦ļà¦ķ à¦®à¦ķ
Ġà¦¦à¦¶ à¦°à¦¥
à¦ľà¦² à¦ľ
ĠĠĠĠĠĠĠĠĠĠĠĠĠĠĠĠ ĠĠĠ
à¦¦à¦¶ à¦Ł
à¦¦à¦¶ à¦¬à¦°
à¦¸à¦¹ à¦¬
à¦¨à¦® à¦¹à¦°
à¦¯à¦ľ à¦Ĺà¦¤
Ġà¦ķà¦ļ à¦ĵ
Ġà¦Ĩà¦Ń à¦°à¦£
Ġà¦ħà¦Ł à¦²à¦¤
Ġà¦· à¦£
à¦Ŀà¦² à¦®à¦²
à¦Ĺà¦ľ à¦Ĺ
à¦¬à§Ł à¦ĩ
Ġà¦ľà§Ł à¦²
à¦·à¦ª à¦ŀ
à¦°à¦« à¦°
Ġà¦®à¦¦ à¦¤
à¦¦à¦¸ à¦ĩ
Ġà§© à§¦à§¦
Ġà§© à§«à§¦
à¦¸à¦« à¦°
Ġà¦°à¦¥ à¦ļà¦ķ
Ġà¦ıà¦°à¦ªà¦° à¦ĩ
à¦Łà¦® à¦¡
Ġà¦¸à¦«à¦² à¦Ń
Ġà¦ļà¦Ł à¦ªà¦Ł
Ġà¦īà¦ªà¦ķ à¦£
à¦£à¦Ń à¦Ł
à¦Ĺà¦ł à¦¨à¦ķ
Ġà§« à§©
Ġà§« à§¬
Ġà§ª à§©
Ġà§ª à§®
à¦ľà¦¦ à¦°à¦¬
à¦¨à¦ħ à¦Ń
Ġà¦ħà¦¬à¦¸à¦° à¦ª
Ġà¦Ĩà¦ĩ à¦¨à¦¤
Ġà¦®à¦°à¦£ à¦ķ
Ġà§§à§¯à§ª à§«
Ġà§§à§¯à§ª à§¯
Ġà¦Ĩà¦« à¦¸
Ġà¦ľà¦¨à¦¸à¦® à¦ķ
à¦ķà¦¸à¦¬ à¦ľ
Ġà¦¸à¦®à¦Ŀ à¦¦
à¦ıà¦ķà¦ĩ à¦¸à¦Ļ
Ġà§§à§¯à§¨ à§¦
Ġà§¨à§¦à§§à§ ¦
Ġà§¨à§¦à§§à§ ª
Ġà§¨à§¦à§¦ à§¯à§§à§
Ġà§§à§¯à§¬ à§Ń
à§§à§¯à§ ª
Ġà§¯à§ ¯
à¦¡à¦Ń à¦£
à¦¦à¦ļ à§Łà¦¨
à¦Ńà§İà¦¸ à¦¤
Ġà¦¬à¦Ľ à¦°à¦ĩ
Ġà§§à§¯à§¯à§ ¨
Ġà¦¹à¦ľ à¦°à¦¤
à¦ıà¦® à¦ıà¦¸
ĠĠčĊĠĠĠ č
Ġà¦Ľà¦²à¦Ľ à¦²
Ġà¦ªà¦¦à¦¨ à¦ĸ
Ġà¦Łà¦Ĺà¦¬ à¦Ĺ
Ġà§¨à§¦à§¦à§¯à§§à§ ¦
Ġà¦ £
à¦° à¦ī
à¦° à¦²à¦¬
à¦° à¦ªà¦ķ
à¦¿ à§Ģ
à¦¨ à¦ĩà¦²
à¦¨ à¦Ĺà¦¨
à¦¤ à¦Ļ
à¦¤ à¦¬à¦¨
à¦¤ à¦¦à¦°
à¦¤ à¦ķà¦Ł
à¦¤ à¦²à¦ķ
à¦¤ à¦ªà¦¤
à¦¤ à¦ıà¦¸à¦¬à¦ĩ
à¦¯ à¦Ľ
à¦¯ à¦ļà¦¨
à¦¯ à¦ıà¦Ł
à¦¯ à¦ıà¦Ĺ
à¦¯ à¦ħà¦¸
à¦¯ à¦®à¦¨à¦¸
à¦ķ à¦ı
à¦ķ à¦¸à¦¨
à¦ķ à¦¥à¦¨
à¦ķ à¦Ĩà¦®à¦°
à¦ķ à¦Ĳà¦¤
à¦¬ à¦ľà¦¯
à¦² à¦ŀ
à¦² à¦ªà¦¡
à¦® à¦²à¦ķ
à¦® à¦ħ
à¦® à¦Ĺà¦¤à¦Ń
Ġà¦¸ à¦¶à¦ķ
Ġà¦¬ à¦ĩà¦²
Ġà¦¬ à¦ªà¦£
Ġà¦¬ à¦īà¦°
Ġà¦¬ à¦°à¦ķà¦¨
Ġà¦ª à¦¸
Ġà¦ª à¦ļà¦¨
à¦¦ à¦°à¦¤
à¦¦ à¦²à¦¤
à¦¦ à¦ķà¦°
à¦¦ à¦®à¦¸
à¦¸ à¦ł
à¦¸ à¦Ĺà¦¤
à¦¸ à¦ķà¦¤
à¦¸ à¦ĺà¦°
à¦¸ à¦ľà¦²
à§ĭ à¦¾
à¦ĩ à¦ķà¦¬
à¦ĩ à¦®à¦²
à¦ĩ à¦īà¦ľ
à¦· à¦¦à¦°
à¦· à¦¸à¦°
à¦ª à¦°à¦¤
à¦ª à¦ĺ
à¦ª à¦īà¦ªà¦¨
Ġà¦® à§°
Ġà¦® à¦¦à¦¬
Ġà¦¨ à¦Łà¦°
à¦Ł à¦Ŀ
à¦Ł à¦ķà¦¬
à¦Ł à¦Łà¦²
Ġà¦ı à¦Ļ
Ġà¦ı à¦¸à¦®à¦¯
à¦ľ à¦®à¦¤
à¦ľ à¦¤à¦¤
à¦¶ à¦ı
à¦¶ à¦®à¦£
à¦¶ à¦®à¦¶
Ġà¦¤ à¦²à¦¬
Ġà¦¤ à¦²à¦¸
Ġà¦¤ à¦ķà¦®
à¦Ĺ à¦°à¦¤
à¦Ĺ à¦¸à¦¬
à¦Ĺ à¦ķà¦²
à¦Ĺ à¦¸à¦¬à¦ĩ
Ġà¦¦ à¦ľ
Ġà¦¦ à§°
Ġà¦¦ à¦ĩà¦Ń
Ġà¦¦ à¦ĩà¦®
Ġà¦¦ à¦®à¦¦à¦®
Ġà¦ħ à¦Ŀ
Ġà¦ħ à¦Ĺà¦¤
Ġà¦ħ à¦®à¦¤
Ġà¦ħ à¦ľà¦°
Ġà¦ħ à¦¯à¦¯
à¦§ à¦§
à¦§ à¦¬à¦¨
à¦§ à¦Ĺà¦¤
à¦§ à¦¹à¦¸
à¦§ à¦ªà¦¥
à¦§ à¦¸à¦¤
Ġà¦¹ à¦ª
à¦£ à¦£
à¦£ à¦ı
à¦£ à¦²à¦¤
à¦£ à¦ľà¦¯
à¦¹ à§Ł
à¦¹ à¦¬à¦¨
à¦¹ à¦Ĺà¦¤
à¦¹ à¦²à¦ķ
à¦¹ à¦Ńà¦°
à¦¹ à¦ĺà¦°
à¦¹ à¦ľà¦¨à¦ķ
Ġà¦¯ à¦¤à¦¨
Ġà¦¯ à¦®à¦¸
Ġà¦ķà¦° à¦ª
à¦ļ à¦ŀ
à¦ļ à¦ªà¦¦à¦¸
à¦¥ à¦ľ
à¦¥ à¦Ĺà¦¤
à¦¥ à¦²à¦¨
à¦¥ à¦ķà¦°
à¦¥ à¦¬à¦¦
à¦ĸ à¦°à¦ķ
à¦ĸ à¦Ŀ
à¦ĸ à¦¬à¦ķ
à¦ĸ à¦¬à¦¸
Ġà¦¶ à¦®à¦¸
Ġà¦¶ à¦¬à¦°à¦¸
Ġà¦Ĺ à¦¸
Ġà¦Ĺ à¦¤à¦°
Ġà¦Ĺ à¦²à¦¤
Ġà¦Ĺ à¦®à¦Ĺ
Ġà¦ľ à¦²à¦¨
à¦¡ à¦§
à¦¡ à¦¹
à¦¡ à¦ļ
à¦¡ à¦¸à¦¤
à§Ł à¦ļ
à¦ĵ à¦ıà¦°
Ġà¦Ń à¦°à¦£
Ġà¦° à¦ĩ
Ġà¦° à¦ľà¦¸
Ġà¦° à¦£à¦¨
Ġà¦° à¦¸à¦®à¦¯
Ġà¦ļ à¦®à¦¤
Ġà¦ļ à¦°à¦¨
Ġà¦ī à¦¯
Ġà¦ī à¦Ľà¦²
Ġà¦¸à¦® à¦ªà¦¦
Ġà¦ıà¦ķ à¦§
Ġà¦ıà¦ķ à¦ĺà¦°
Ġà¦ªà¦° à¦ĸ
à¦°à¦¤ à¦¯
à¦°à¦¤ à¦ķà¦°
à¦ł à¦ĩ
Ġà¦ħà¦¨ à¦¬
Ġà¦Ľ à§Ł
Ġà¦Ĩà¦° à¦Ł
Ġà¦Ĩà¦° à¦¬à¦Ń
à¦¬à¦¨ à¦Ń
à¦¬à¦¨ à¦°à¦ķ
à¦¬à¦¨ à¦ªà¦°
à¦¬à¦¨ à¦¸à¦®
à¦¬à¦¨ à¦ķà¦¥
à¦°à¦£ à¦°
à¦°à¦£ à¦ľà¦¨
Ġà¦¬à¦² à¦¦à¦°
Ġà¦§ à¦ķ
Ġà¦§ à¦²
à¦ŀ à¦ĩ
à¦ŀ à¦¹
à¦ľà¦¨ à¦°à¦¸
à¦¬à¦° à¦ľ
à¦¬à¦° à¦Ĺ
à¦®à¦¨ à¦¤
à¦ĸà¦¨ à¦ªà¦¦
Ġà¦« à¦¯
Ġà¦« à¦¸à¦ķ
à¦¤à¦° à¦¨
Ġà¦ĸ à¦ª
Ġà¦ĸ à¦Łà¦ķ
à§İ à¦¤
à§İ à¦ļ
à§İ à¦ªà¦Ł
à§İ à¦ľà¦²
Ġà¦®à¦¨ à¦¯
Ġà¦ľà¦¨ à¦¸à¦Ļ
Ġà¦ľà¦¨ à¦¬à¦¹
à¦¤à¦¨ à¦°à¦Ļ
à¦¯à¦¬ à¦ļ
à¦¯à¦¬ à§İ
à¦¯à¦¬ à¦¶à¦¤
Ġà¦ĩ à¦«
Ġà¦ĩ à¦ķà¦¬
Ġà¦ĩ à¦®à¦ª
Ġà¦ĩ à¦ķà¦¨à¦®
à¦ªà¦¨ à¦Ĺ
Ġà¦¹à¦² à¦²
Ġà¦¹à¦² à¦ħà¦¨
à¦ı à¦¨
à¦ı à¦¨à¦ľ
Ġà¦ĺ à¦°à¦ķà¦¨
à¦°à¦® à¦Ł
à¦°à¦® à¦ªà¦°
Ġà¦ķà¦¥ à¦¨
à¦°à¦¬ à§İ
à¦¯à¦ķ à¦¬
Ġà¦¸à¦¬ à¦¬
Ġà¦¸à¦¬ à¦®
Ġà¦¸à¦¬ à¦¸
Ġà¦¸à¦¬ à¦¸à¦¬
à¦¸à¦¬ à¦¹
à§ľ à¦¶
à§ľ à¦Ń
à§ľ à¦ªà¦°
à¦·à¦£ à¦ľ
à¦·à¦£ à¦¹
à¦·à¦£ à¦ľà¦¨
à¦« à¦Ŀ
à¦« à¦«à¦°
à¦ī à¦£
à¦ī à¦ªà¦®
à¦°à¦¯ à¦ľ
Ġà¦¬à¦° à¦ªà¦ķ
Ġà¦Ĩà¦Ľ à§ľ
Ġà¦Ĩà¦² à¦¬
à¦ļà¦¨ à¦ľà¦Ļ
Ġà¦®à¦¹ à¦¦
Ġà¦ħà¦¸ à¦°
Ġà¦ħà¦¸ à¦°à¦ķ
Ġà¦ħà¦¸ à¦¬à¦°
Ġà¦Ĩà¦¸ à¦¨à¦Ł
Ġà¦ħà¦Ń à¦ķ
Ġà¦ħà¦Ń à¦¬
Ġà¦Ł à¦²à¦¸
à¦¨à¦¨ à¦Ĺà¦°
à¦¬à¦² à¦¸
Ġà¦¡ à¦ľà¦¨
Ġà¦ķà¦°à¦² à¦ķ
Ġà¦¬à¦¨ à¦°
Ġà¦¬à¦¨ à¦ªà¦¥
à¦§à¦¨ à¦§
à¦ķà¦° à¦ª
à¦Ĩ à¦Ń
à¦Ĩ à¦°à¦ĩà¦ľ
à¦¤à¦¬ à¦§à¦°
Ġà¦ªà¦¥ à¦Ĺ
à¦ķà¦Ł à¦ĩ
à¦ķà¦Ł à¦ĵ
à¦¯à¦® à¦ª
à¦¯à¦® à¦ĵ
Ġà¦¹à§Ł à¦°
Ġà¦¹à§Ł à¦¸
Ġà¦ıà¦®à¦¨ à¦¤à¦°
Ġà¦¯à¦ĸà¦¨ à¦¤à¦ĸà¦¨
Ġà¦Ĳ à¦Ń
à¦²à¦ķ à¦§
Ġà¦ĺà¦Ł à¦ľ
à¦°à¦ĩ à¦¬
à¦¬à¦¦ à¦®
à¦¦à¦¨ à¦¯
à¦¦à¦¨ à¦¦
à¦¦à¦¨ à¦ĩ
Ġà¦īà§İ à¦«
à¦°à¦Ń à¦¬à¦¨
Ġà¦ķà¦² à¦¶
à¦¸à¦¨ à¦¤à¦¨
à¦¸à¦¨ à¦ķà¦°
Ġà¦Ĩà¦§ à¦Ł
à¦·à¦ķ à¦¨
à¦·à¦ķ à¦¬
à¦·à¦ķ à¦¸
Ġà¦ĵà¦ł à¦¤
à¦ªà¦¦ à¦²
à¦¤à¦® à¦¶
à¦°à¦ĵ à§Ł
à¦ļà¦² à¦®
à¦Ĺà¦² à¦®à§Ł
Ġà¦Ĩà¦ķ à¦Ľ
à¦¨à¦ķ à¦ª
à¦¨à¦ķ à¦°à¦£
Ġà¦ħà¦Ĺ à¦£à¦¨
Ġà¦ªà¦¦ à¦¸à¦ŀ
Ġà¦ĩà¦¨ à¦ľ
à¦ªà¦ķ à¦¨
à¦°à¦¹à¦£ à¦®
à¦¤à¦ķ à¦®
Ġà¦ľà¦² à¦¹
à¦¬à¦¸ à¦ļ
à¦¹à¦¸ à¦ĩ
à¦¯à¦¸ à¦ŀ
à¦£à¦¤ à¦ĩ
à¦¯à¦¦ à¦¸
à¦§à¦ķ à¦ĩ
à¦¨à¦¸ à¦ĩ
Ġà¦Ĺà¦° à¦²
à¦ľà¦¸ à¦ļà¦²
à¦¬à¦¶ à¦Ļ
à¦°à¦ª à¦ŀ
Ġà¦¶à¦¤ à¦¦
à¦°à¦ľ à¦®
à¦¨à¦¯ à¦¥
à¦īà¦² à¦®
à¦¹à¦² à¦ª
Ġà¦¸à¦¹à¦ľ à¦¸à¦°
à¦ļà¦ķ à¦Ń
à¦¹à¦¨ à¦¦
Ġà¦¤à¦¤ à¦¸
à¦¢ à¦²
ĠĠĠĠĠĠĠĠ ĠĠĠ
à¦®à¦¸ à¦¹
à¦°à¦ķà¦® à¦ĩ
Ġà¦Ĺà¦£ à¦¯
Ġà¦Ĺà¦£ à¦®à¦¨
à¦¸à¦ķ à¦ķ
Ġà¦¬à¦Ľà¦° à¦ĸ
à¦°à¦®à¦£ à¦ªà¦¥
à¦¨à¦Ł à¦¨
à¦ĩà¦ķ à¦®
Ġà¦ªà§ľ à¦¨
à¦°à¦Ĺ à¦ŀ
Ġà¦Ńà¦° à¦Ľ
Ġà¦Ī à¦®
Ġà¦Ī à¦·à¦¦
Ġà¦ıà¦ķà¦¬ à¦Ľà¦°
à¦¯à¦Ń à¦Ļ
à¦²à¦¯ à¦ľ
à¦ķà¦¶ à¦¤
Ġà¦§à¦¨ à¦ŀ
Ġà¦ħà¦ľ à¦®
Ġà¦ıà¦¨ à¦Ĩà¦°à¦ĩà¦ľ
Ġà¦¬à¦²à¦¬ à§İ
à¦®à¦¦ à¦Ĺ
à¦£à¦¬ à¦§
à¦°à¦° à¦ļà¦¨
à¦¶à¦² à¦ĩ
à¦¶à¦² à¦Ĺà¦¤
à§¨ à§¨
à§¨ à§Ń
Ġà¦¸à§İ à¦ª
Ġà¦¸à§İ à¦ªà¦¥
Ġà¦ľà¦Ĺà¦¤ à¦ķ
ĠĠĠĠĠĠĠĠĠĠĠĠĠĠĠĠ ĠĠĠĠ
Ġà¦¹à¦ĩ à¦¹
à¦¦à¦¶ à¦®
Ġà¦ĺà¦¨ à¦ĺà¦¨
Ġà¦®à¦¨à¦¨ à¦¶à¦ķ
à¦®à¦ļ à¦°à¦£
Ġà¦Ńà¦°à¦¤ à¦Ĺ
Ġà¦ľà¦Ĺ à§İà¦¸
Ġà¦ľà§Ł à¦¬
Ġà¦ľà§Ł à¦§
Ġà¦ľà§Ł à¦ľà§Łà¦ķ
à¦¹à¦® à¦®à¦¤
Ġà¦ıà¦¡ à¦Ń
ĠĠčĊ ĠĠ
Ġà¦ķà¦ª à¦ļ
Ġà¦¸à¦®à¦¤ à¦²à¦¬
Ġà§§à§¯à§Ń à§¨
Ġà§§à§¯à§Ń à§©
à¦ķà¦ľà¦¨ à¦¨
à¦¨à¦Ĩ à¦¹
à¦¨à¦Ĩ à¦ļ
à§® à§«
à¦ıà¦ĸà¦¨ à¦ķ
Ġà¦®à¦Ĺ à¦§à¦¦
à¦ĩà¦« à¦¸
à¦§à¦¦ à¦ĩ
Ġà¦¶à¦¤à¦ªà¦¥ à¦¬
à¦īà¦¡ à¦¸
Ġà¦ļà¦°à¦£ à¦¦
à¦Łà¦Ľ à¦¡
Ġà§§à§¦ à§§à§¨
Ġà¦Ĩà¦ĩ à¦¸à¦ķ
Ġà§¬ à§§à§¦
Ġà§§à§® à§Ń
Ġà§§à§® à§«à§Ń
Ġà§§à§© à§¬
Ġà¦ķà¦ļà¦ķ à¦ļ
Ġà§§à§¨ à§«
Ġà¦īà§ľ à¦¨
Ġà¦īà§ľ à¦¤
Ġà§§à§¯à§® à§§
Ġà§§à§¯à§® à§«
Ġà§§à§¯à§® à§Ń
Ġà¦ĸà¦¸ à¦ĸà¦¸
Ġà§§à§¯à§¨ à§¨
Ġà§§à§¯à§¨ à§§
Ġà§§à§¯à§¨ à§Ń
Ġà§¨à§¦à§¦ à§ªà§¦
Ġà¦¯à¦¬à¦¨ à¦°
Ġà§§à§§à§ ¨
Ġà¦¤à§İ à¦¸à¦®
Ġà§¯à§ «
âĢ ¨
Ġà¦Łà¦² à¦Łà¦²
Ġà¦¸à§ľà¦ķ à¦ªà¦¥
Ġà¦¨à¦ĸ à¦¦à¦°
Ġà¦Ĩà¦ī à¦¶à¦Ń
Ġà¦Ŀà¦Ł à¦ªà¦Ł
Ġà¦ªà¦°à¦®à¦¤ à¦¸à¦¹
à¦¦à¦« à¦¤à¦°
à§§à§¯à§ª à§Ń
Ġà¦Ĺà¦®à¦Ĺ à¦®
Ġà§¨à§¦à§¦à§ªà§¦ à§«
¨ à§¦
à¦ Ķ
à¦¾ à¦¿
à¦° à¦ł
à¦° à§İ
à¦° à¦¨à¦¬
à¦° à¦«à¦²
à¦° à¦īà¦¨
à¦° à¦ıà¦ķà¦Ł
à¦° à¦ıà¦Ĺ
à¦¨ à¦¥
à¦¨ à¦°à¦Ń
à¦¨ à¦ªà¦ķ
à¦¨ à¦¹à¦°
à¦¨ à¦ļà¦ķ
à¦¨ à¦Ĺà¦¬
à¦¨ à¦ĩà¦¤
à¦¨ à¦ĺà¦°
à¦¨ à¦ľà¦²
à¦¤ à¦¸à¦¨
à¦¤ à¦Ĩà¦®
à¦¤ à¦ªà¦¥
à¦¤ à¦¯à¦ľ
à¦¯ à¦Ĩ
à¦¯ à¦ĸà¦£
à¦ķ à¦®à¦¨
à¦ķ à¦°à¦®
à¦ķ à¦ĵà¦¯
à¦ķ à¦ıà¦Ł
à¦¬ à¦·
à¦¬ à¦®à¦£
à¦¬ à¦¹à¦¸
à¦¬ à¦®à¦¸
à¦¬ à¦§à¦¬
à¦¬ à¦¸à¦¬à¦ķ
à¦¬ à¦ħà¦Ń
à¦¬ à¦ĭà¦£
à¦² à¦¤à¦¨
à¦² à¦²à¦¨
à¦² à¦¸à¦®
à¦² à¦®à¦°
à¦² à¦Łà¦¨
à¦² à¦ıà¦ķ
à¦² à¦ĺà¦°
à¦² à¦ıà¦ķà¦Ł
à¦² à¦īà¦¦
à¦² à¦Ĩà¦ľ
à¦® à¦ķà¦¤
à¦® à¦¬à¦¦
à¦® à§Łà¦¤
à¦® à¦®à¦¹
à¦® à¦¸à¦¬à¦ĩ
à¦® à¦ıà¦ķ
à¦® à¦¶à¦²
à¦® à¦ĺà¦°
à¦® à¦ıà¦¸à¦¬à¦ĩ
à¦® à¦ĸà¦£
à¦® à¦łà¦¤
à¦® à¦¸à¦¬à¦ĸ
à¦® à¦Ĩà¦¬
Ġà¦¸ à¦²à¦®à¦¨
Ġà¦ķ à¦ľ
Ġà¦ķ à¦¸à¦®
Ġà¦ķ à¦ĩà¦²
Ġà¦ķ à¦ĩà¦Ľ
Ġà¦¬ à¦ĸ
Ġà¦¬ à¦°à¦¯
Ġà¦¬ à¦ķà¦°
Ġà¦¬ à¦®à¦¬
Ġà¦¬ à¦¶à¦®
Ġà¦¬ à¦ļà¦¸
Ġà¦ª à§Łà¦¸
à¦¦ à¦ĺ
à¦¦ à¦®à¦¤
à¦¦ à¦¨à¦¨
à¦¦ à¦¦à¦°
à¦¦ à¦¸à¦¨
à¦¦ à¦Ĺà¦¨
à¦¦ à¦Ĺà¦£
à¦¦ à¦¸à¦¹
à¦¦ à¦īà§İà¦¸à¦¬
à¦¦ à¦īà¦ļ
à¦¦ à¦ħà¦ª
à¦¸ à¦ķà¦¬
à¦¸ à¦§à¦°
Ġà¦Ĩ à¦¹à¦¸
Ġà¦Ĩ à¦ĩà¦¯
Ġà¦Ĩ à¦Łà¦¬
à¦ĩ à¦¬à¦¨
à¦ĩ à¦ªà¦°
à¦ĩ à¦ķà¦²
à¦ĩ à¦ħ
à¦ĩ à¦ĵà§Ł
à¦ĩ à¦¸à¦²
à¦ĩ à¦ªà¦Ł
à¦ĩ à¦ħà¦¨
à¦ĩ à¦ıà¦ķ
à¦ĩ à¦®à¦Ł
à¦ĩ à¦ıà¦ķà¦ľà¦¨
à¦· à¦ł
à¦· à¦¬à¦°
à¦· à¦ªà¦¤
à¦· à¦°à¦®à¦£
à¦· à¦ıà¦°
à¦· à¦¸à¦¹
à¦· à¦°à¦¸à¦®
à¦ª à¦ł
à¦ª à¦¸à¦¨
à¦ª à¦¬à¦¸
à¦ª à¦ıà¦°
à¦ª à¦ıà¦¸à¦¬à¦ĩ
Ġà¦® à¦°à¦¦
Ġà¦® à¦²à¦¯
Ġà¦® à¦Ī
Ġà¦¨ à¦°à¦¦
Ġà¦¨ à¦ŀà¦°
à¦Ł à¦¸à¦¬
à¦Ł à¦°à¦¦
à¦Ł à¦¸à¦®
à¦Ł à¦¶à¦ķ
à¦Ł à¦Ĩà¦®
à¦Ł à¦¸à¦¬à¦ĩ
à¦ľ à¦¸à¦°
à¦ľ à¦ıà¦¸à¦¬
à¦ľ à¦ħà¦¨
à¦ľ à¦Ĺà¦£
à¦ľ à¦ıà¦¸à¦¬à¦ĩ
à¦ľ à¦¸à¦¬à¦ķ
à¦ľ à§Łà¦Ĺ
à¦¶ à¦°à¦¤
à¦¶ à¦ł
à¦¶ à¦¬à¦°
à¦¶ à¦¸à¦¬
à¦¶ à¦ķà¦Ł
à¦¶ à¦²à¦ķ
à¦¶ à¦°à¦ĩ
à¦¶ à¦¸à¦°
à¦¶ à¦²à¦®
à¦¶ à¦ıà¦¸à¦¬à¦ĩ
Ġà¦¤ à§ľ
Ġà¦¤ à¦¸à¦²
Ġà¦¤ à¦°à¦¤à¦°
à¦Ĺ à¦²à¦¨
à¦Ĺ à¦®à¦¤
à¦Ĺ à¦²à¦¤
à¦Ĺ à¦®à¦£
à¦Ĺ à¦ıà¦ĩ
à¦Ĺ à¦¢
à¦Ĺ à¦ªà¦¥
à¦Ĺ à¦£à¦ķ
à¦Ĺ à¦¦à¦ķ
à¦Ĺ à¦ħà¦¸
à¦Ĺ à¦²à¦¤à¦¤
Ġà¦¦ à¦¬
Ġà¦ħ à¦ľà¦¨
Ġà¦ħ à¦ľà¦¨à¦¦
à¦§ à¦¡
à¦§ à¦°à¦¤
à¦§ à¦¬à¦°
à¦§ à¦¬à¦¬
à¦§ à¦¤à¦®
à¦§ à¦®à¦¯
à¦§ à¦ıà¦Ĺ
Ġà¦¹ à¦®
à¦Ľ à§ľ
à¦Ľ à¦¤à¦²
à¦£ à¦°à¦ķ
à¦£ à¦°à¦¸
à¦£ à¦ĺ
à¦£ à¦¬à¦¬
à¦£ à¦®à§Ł
à¦£ à¦Ńà¦¯
à¦£ à¦¸à¦¹
à¦¹ à¦¸à¦¬
à¦¹ à¦¯à¦¨
à¦¹ à§Łà¦¤
Ġà¦¯ à¦·
Ġà¦¯ à¦ļ
Ġà¦ķà¦° à¦®
Ġà¦ķà¦° à¦¨à¦ĸ
à¦ļ à¦°à¦®
à¦ļ à¦ķà¦²
à¦ļ à¦°à¦¦
à¦¥ à¦¸à¦°
à¦¥ à¦§à¦°
à¦ĸ à¦¹
à¦ĸ à¦¬à¦¨
à¦ĸ à¦ķà¦²
à¦ĸ à¦²à¦ķ
Ġà¦¶ à¦ķà¦²
à¦Ń à¦ŀ
à¦Ń à¦²à¦ķ
à¦Ń à¦¬à¦¦
à¦Ń à¦¬à¦ª
Ġà¦Ĺ à¦ľà¦¸
Ġà¦Ĺ à¦¦à¦Ĺ
Ġà¦ľ à¦°à¦¦
Ġà¦ľ à§°
Ġà¦ľ à¦®à¦ķ
à¦¡ à¦ıà¦°
à§ĥ à¦¾
à§ĥ à¦ĥ
à¦ĵ à¦¸à¦¬
à¦ĵ à¦«
à¦ĵ à¦²à¦ľ
Ġà¦Ń à¦¨
Ġà¦Ń à¦ľà¦®
Ġà¦° à¦²
Ġà¦° à¦ľà¦¤
Ġà¦° à¦ľà¦Ĺ
Ġà¦ļ à¦ĵà¦¡
Ġà¦ĵ à¦¨
Ġà¦ĵ à¦¬
Ġà¦ĵ à¦°à¦ĩ
Ġà¦Ĩà¦® à¦ª
Ġà¦¸à¦® à¦§
Ġà¦¸à¦® à¦¦à¦°
Ġà¦¸à¦® à¦®à¦°
Ġà¦¸à¦® à¦¸à¦®à¦¯
Ġà¦ıà¦ķ à¦¹
Ġà¦ıà¦ķ à¦ļà¦¤
Ġà¦ıà¦ķ à¦ĸà¦£
Ġà¦ıà¦ķ à¦ıà¦ķà¦ľà¦¨
Ġà¦ªà¦° à¦ľ
Ġà¦ªà¦° à¦Ľ
Ġà¦ªà¦° à¦ľà¦¨
Ġà¦ªà¦° à¦ªà¦ķ
à¦ł à¦ķà¦¬
à¦ł à¦²à¦Ĺ
Ġà¦ħà¦¨ à¦®
Ġà¦¥ à¦ĩ
Ġà¦Ľ à¦ľà¦¨
Ġà¦² à¦¸à¦¸
Ġà¦² à¦ĩà§Ł
Ġà¦¬à¦² à¦¹
Ġà¦¬à¦² à¦¬à¦¬
Ġà¦ıà¦ĩ à¦¤
Ġà¦ıà¦ĩ à¦¦
Ġà¦ıà¦ĩ à¦°à¦ķ
Ġà¦§ à¦®
Ġà¦§ à¦°à¦®
Ġà¦§ à¦¨à¦ķ
Ġà¦§ à¦¬à¦§à¦¬
à¦°à¦ķ à¦¯
à¦ŀ à¦®
Ġà¦ıà¦¬ à¦Ľà¦°
à¦ªà¦° à¦¯
à¦¬à¦° à¦®
à¦¬à¦° à¦¹
à¦¬à¦° à¦ŀ
à¦¬à¦° à¦®à¦£
Ġà¦« à¦¸
Ġà¦« à¦Łà¦ķ
à¦¤à¦° à¦ªà¦¤
à¦¤à¦° à¦¦à¦ķ
à¦¤à¦° à¦ĸà¦°
Ġà¦ĸ à¦Łà¦ĸ
à§İ à¦¹
à§İ à¦¸à¦¨
Ġà¦®à¦¨ à¦ĩ
Ġà¦®à¦¨ à¦®à¦°
Ġà¦ľà¦¨ à¦¬à¦²
Ġà¦ľà¦¨ à¦ķà¦ľà¦¨à¦¨
à¦¤à¦¨ à¦¸à¦®
à¦¯à¦¬ à§°
Ġà¦ĩ à¦ª
Ġà¦ĩ à¦¥
Ġà¦ĩ à¦ķà¦²
Ġà¦ĩ à¦¸à¦®
Ġà¦ĩ à¦īà¦ľ
à¦ªà¦¨ à¦¸
à¦ªà¦¨ à¦ĩ
à¦ªà¦¨ à¦ĵ
ĠĠ ĠčĊč
Ġà¦¹à¦² à¦®à¦¹
à¦ı à¦ķà¦ķ
Ġà¦ĺ à¦°à¦®
à¦°à¦¬ à¦£à¦ķ
à¦°à¦¬ à¦ľà¦¨à¦ķ
à¦°à¦¬ à¦£à¦®
Ġà¦ķà¦°à¦¤ à¦²
Ġà¦ķà¦°à¦¤ à¦²à¦Ĺà¦¤
à¦¯à¦ķ à¦¶
à¦¯à¦ķ à¦Ń
à¦¯à¦ķ à¦°à¦£
Ġà¦ħà¦¬ à¦¬
à¦·à¦£ à¦¤à¦°
à¦·à¦£ à¦¸à¦¹
à¦ī à¦¥
à¦ī à§ľ
à¦Ŀ à¦®
à¦Ŀ à¦°à¦¨
à¦Ŀ à¦Ĺà¦¡
à¦°à¦¸ à¦°à¦¤
à¦¨à¦¤ à¦²
à¦¨à¦¤ à¦ĸà¦¨
à¦¨à¦¤ à¦¤à¦¸
Ġà¦®à¦¤ à¦²à¦¬
Ġà¦īà¦ª à¦Ĺà¦¤
Ġà¦īà¦ª à¦²à¦¦
à¦ķà¦² à¦ľ
Ġà¦Ĩà¦² à¦ĵà¦¯
Ġà¦Ĩà¦² à¦®à¦¦
Ġà¦Ĩà¦² à¦¬à§İ
Ġà¦®à¦¹ à¦¨
Ġà¦ħà¦¸ à¦¤à¦°
Ġà¦ħà¦Ń à§Ł
à¦²à¦¨ à¦¨
à¦²à¦¨ à¦ļ
à¦²à¦¨ à¦ıà¦ĩ
à¦²à¦¨ à¦¸à¦¬à¦ĩ
à¦ĺ à¦ªà¦¥
Ġà¦¸à¦¹ à¦ľà¦¨
Ġà¦Ł à¦Ĺà¦°
Ġà¦ħà¦¤ à¦ĸ
à¦¨à¦¬ à¦¦à¦°à¦¦
à¦¨à¦¨ à¦¹
à¦°à¦¹ à¦ĩ
à¦°à¦¹ à¦°à¦Ĺ
à¦¬à¦² à¦°
à¦¬à¦² à¦¯
à¦¬à¦² à¦¶
Ġà¦¹à¦¤ à¦¶
Ġà¦¨à¦¤ à¦ľ
Ġà¦¬à¦¨ à¦Ł
Ġà¦¬à¦¨ à¦¬à¦¨
Ġà¦¬à¦¨ à¦ªà¦°
Ġà¦¬à¦¨ à¦«
à¦§à¦¨ à¦°
à¦§à¦¨ à¦¯
à¦§à¦¨ à¦¸
à¦Ĩ à¦ł
à¦Ĩ à¦¸à¦¨
à¦Ĩ à¦ĩà¦ª
à¦¨à¦ĵ à¦ª
à¦¤à¦¬ à¦Ł
à¦¤à¦¬ à¦¶
à¦¤à¦¬ à§İ
Ġà¦Ĩà¦¤ à¦¤
à¦ķà¦Ł à¦¸à¦®
à¦®à¦£ à¦ĵ
à¦¶à¦¨ à¦¦
Ġà¦ł à¦ķà¦¬
Ġà¦Ĳ à¦Ł
à¦²à¦ķ à¦Ĺ
à¦²à¦¬ à¦¸
Ġà¦ĺà¦Ł à¦ķ
Ġà¦ĺà¦Ł à¦®
Ġà¦ķà¦°à¦¬ à¦¦
Ġà¦ıà¦¸ à¦ıà¦®à¦ıà¦¸
à¦¬à¦¦ à¦ķ
Ġà¦Ĩà¦¨ à¦¸
Ġà¦Ĩà¦¨ à¦ļ
à¦¦à¦¨ à¦¸
à¦¦à¦¨ à¦§
à¦¦à¦¨ à¦¸à¦¬à¦ķ
à¦¦à¦¨ à¦¸à¦¹
à¦ħ à¦£
à¦ħ à¦ŀ
à¦ħ à¦¨à¦¨
à¦ħ à¦¬à¦ķ
à¦Ńà¦¬ à¦¬
à¦¸à¦¨ à¦¦
à§° à¦Ĺ
à§° à¦¥
à§° à¦ķà¦²
Ġà¦ķà¦¬ à¦ľ
à¦·à¦ķ à¦ĵ
Ġà¦ĵà¦ł à¦¬
à¦¬à¦¬ à¦¹
à¦Ĺà¦° à¦Ļ
Ġà¦ħà¦ª à¦ļ
Ġà¦ħà¦ª à¦Ń
Ġà¦ħà¦ª à¦¶à¦ķ
Ġà¦ħà¦ª à¦¹à¦°à¦£
à¦ıà¦ĩ à¦ļ
à¦ĩà¦¨ à¦ķ
à¦ļà¦² à¦ļ
Ġà¦¶à¦¬ à¦¶à¦°
Ġà¦ªà¦¦ à¦¦à¦²
à¦¬à¦ķ à¦¸
à¦®à¦° à¦ľ
Ġà¦ľà¦² à¦Ľ
Ġà¦ľà¦² à¦¬à¦¨
Ġà¦ľà¦² à¦ļà¦ķ
Ġà¦ľà¦² à¦¦à¦¸
à¦¤à¦¤ à¦ªà¦ķ
à§Łà¦¨ à¦¶
à§Łà¦¨ à¦ıà¦¸à¦¬
Ġà¦Ńà¦¬ à¦Ń
Ġà¦Ńà¦¬ à¦Ĺà¦°
à¦¨à¦¸ à¦Ļ
Ġà¦Ĺà¦° à¦ľ
à¦°à¦² à¦¸à¦Ń
Ġà¦¸à¦ļ à¦ķ
à¦°à¦ª à¦Ł
à¦°à¦ª à¦¤à¦¨
Ġà¦¶à¦¤ à¦§
à¦°à¦ľ à¦¯
à¦°à¦ľ à¦°à¦®à¦£
à¦Łà¦ķ à¦¸à¦¬
à¦īà¦² à¦¸
à¦īà¦² à¦ªà¦¨
à¦īà¦² à¦«à¦ķ
Ġà¦¸à¦¹à¦ľ à¦¤à¦®
Ġà¦ħà¦ķ à¦®
à¦ªà¦¸ à¦¹
Ġà¦Ĺà¦Ń à¦°
à¦¯à¦ª à¦²
à¦¹à¦¨ à¦ª
à¦¹à¦¨ à¦¶
à¦¹à¦¨ à¦Ĺ
à¦ľà¦ķ à¦¦
à¦ľà¦ķ à¦¶
Ġà¦Ĩà¦¦ à¦¬
Ġà¦Ĩà¦¦ à¦¬à¦ķ
Ġà¦Ĩà¦¦ à¦°à¦¯à¦¤
Ġà¦Ĺà¦£ à¦ª
Ġà¦Ĺà¦¤ à¦¯
à¦°à¦®à¦£ à¦¬
à¦°à¦®à¦£ à¦¸
à¦¹à¦°à¦£ à¦Ł
à¦ķà¦°à¦£ à¦¬
à¦ķà¦°à¦£ à¦ĵ
Ġà¦¶à¦¹à¦° à¦ª
à¦łà¦ķ à¦¸
à¦łà¦ķ à¦ĵ
à¦łà¦ķ à¦¦à¦°
à§İà¦¸ à¦ĩ
Ġà¦īà§İà¦¸ à¦Ĺ
Ġà¦¬à¦ĩ à¦ĵ
Ġà¦¬à¦ĩ à¦ªà¦¡
Ġà¦¨à¦¬ à¦ļ
Ġà¦¨à¦¬ à¦ªà¦°
Ġà¦ħà¦² à¦®
à¦®à¦² à¦¸
à¦¯à¦¯ à¦ľ
à¦¨à¦¦ à¦¶
à¦°à¦Ĺ à¦Ļ
Ġà¦ªà¦°à¦® à¦¶
à§Łà¦¤ à¦ĩ
à¦Ĺà¦® à§Ł
à¦ķà¦¸ à¦¤
à¦¨à¦Ĺ à¦Ļ
Ġà¦īà§İà¦¸à¦¬ à¦®à¦£
à¦®à¦°à¦£ à¦¯
Ġà¦°à¦¸ à¦¤
Ġà¦°à¦¸ à¦¤à¦¤
à¦¡à¦² à¦Ĺ
à¦¨à§Łà¦¨ à¦¯
à¦¨à§Łà¦¨ à¦ĩ
Ġà¦Ĩà¦ª à§İà¦ķ
Ġà¦¨à¦Ĺà¦° à¦ª
Ġà¦¨à¦Ĺà¦° à¦ľ
à¦¦à§Ł à¦Ł
Ġà¦Ĩà¦ļà¦°à¦£ à¦Ł
Ġà¦Ĩà¦ļà¦°à¦£ à¦ĵ
à¦¨à¦Ń à¦¯
à¦²à¦¸ à¦¹
à¦²à¦¸ à¦ıà¦°
Ġà¦¦à¦¶ à¦¦
Ġà¦¦à¦¶ à¦ªà¦¨
à¦ıà¦ķ à¦¸à¦Ļ
à¦Łà¦¬ à¦ĩ
à¦°à¦° à¦Ļ
à¦ĸà¦ķ à¦ª
à¦ĸà¦ķ à¦¸à¦®
Ġà¦¸à§İ à¦¬
à¦²à¦Ĺ à¦ŀ
Ġà¦ħà¦¬à¦¦ à¦®
à¦®à¦¶ à¦ķà¦°
ĠĠĠĠĠĠĠĠĠĠĠĠĠĠĠĠ ĠĠĠĠĠĠ
ĠĠĠĠĠĠĠĠĠĠĠĠĠĠĠĠ ĠĠĠĠĠĠĠ
Ġà¦®à¦ľ à¦¹
à¦¬à¦ľà¦¨ à¦®
Ġà¦ĺà¦¨ à¦ĺà¦Ł
Ġà¦¬à§ľ à¦ĩ
Ġà¦®à¦¨à¦¨ à¦®
Ġà¦®à¦¨à¦¨ à¦ļà¦°
à¦¨à¦® à¦¥
à¦¨à¦® à¦ŀ
Ġà¦ķà¦ļ à¦¸
Ġà¦ħà¦Łà¦² à¦Ń
à¦°à¦¬à¦² à¦¤à¦°
Ġà¦Ķ à¦°
Ġà¦Ķ à§İà¦¸
à¦®à¦ļ à¦Ł
à§Ŀ à¦ª
à§Ŀ à¦Ń
à§« à§¨
à¦Ĺà¦ľ à¦ķà¦²à¦®
à¦Ĩà¦° à¦Ĩà¦ĩ
Ġà¦Ĭ à¦¹à¦Ĺ
Ġà¦¤à¦² à¦¦
à¦¸à¦Ń à¦¬à¦¨
à¦Ĺà¦°à¦£ à¦ķ
à¦°à¦« à§İ
à¦ĭ à¦Ĺà¦¬
à§© à§Ń
à¦¦à¦¸ à¦ŀ
ĠĠčĊ čĊ
à§ª à§§
à§ª à§ª
à¦¸à¦« à¦²à¦¤
à¦¬à¦²à¦¤ à¦®
à¦¨à¦ļ à¦ļ
à¦¨à¦¸à¦® à¦¸
à¦Ĺà¦®à¦¨ à¦ıà¦¸à¦¬
à¦£à¦ª à¦¶
Ġà¦Ĩà§Ł à¦¤à¦¨
Ġà¦ļà¦Ł à¦ľà¦²à¦¦
à¦¨à¦Ĩ à¦²
ĠĠĠ čĊĠĠč
Ġà¦¦à¦ĸà¦² à¦¦
à§® à§¦
à§® à§©
à¦ıà¦ĸà¦¨ à¦ĩ
Ġà§« à§Ń
Ġà§ª à§¦à§¦
Ġà¦ķà§Ł à¦Ł
Ġà¦¨à¦° à¦ļà¦¨
ĠĠĠĠĠĠĠĠĠĠĠĠĠĠĠĠĠĠĠĠĠĠĠĠĠĠĠĠĠĠĠĠ ĠĠĠĠĠĠĠĠĠĠĠĠĠĠĠĠĠĠĠĠĠĠĠĠ
à¦¨à¦ħ à¦®
à¦¨à¦ħ à¦¦
à¦¨à¦ħ à¦ªà¦®
à¦īà§İà¦¸à¦¬ à¦Ĩà¦ļ
Ġà¦¨à¦Ĺ à¦°à¦¸
à¦¯à¦ĸà¦¨ à¦ĩ
à§¦à§¦ à§¦
Ġà¦ľà§ľ à¦¬
Ġà¦¬à¦°à¦« à¦ª
à¦°à¦Ĩ à¦ļ
à¦¨à¦ĸ à¦ļ
à¦¸à¦ķà¦² à¦ĩ
Ġà§§à§¯à§ª à§®
Ġà§§à§© à§Ń
à¦®à¦ĺ à¦Ł
Ġà¦°à¦£ à¦ļà¦£
à§¯à§ ®
Ġà¦Ĩà§ľ à¦®
Ġà§¨à§¦à§§à§ ©
à¦£à¦ļ à¦ŀ
à¦¨à¦¡ à¦°
à§· à§·
à¦ļà¦¦à¦¶ à¦·
Ġà§§à§¯à§© à§¦
Ġà§§à§¯à§© à§§
Ġà§§à§¯à§© à§ª
Ġà¦ķà¦¤à¦¬ à¦¡
ĠĠĠĠĠĠĠĠĠĠĠĠĠĠĠĠĠĠĠĠĠĠĠĠ Ġ
Ġà¦¨à¦¬à¦° à¦¸
âĢ ĥ
à¦¯à¦Łà¦ķ à¦¦
Ġà¦Łà¦² à¦·
à¦¸à§İ à¦¤
Ġà¦¬à¦Ľ à¦°à¦ķ
Ġà¦¬à¦Ľ à¦°à¦ĵ
Ġà¦īà¦ĩà¦² à¦¸à¦¨
Ġà¦Ĩà¦īà¦² à¦ļ
Ġà¦Ĩà¦īà¦Ł à¦¡
à§°à¦¦ à§°
Ġà¦·à¦Ł à¦ļà¦ķ
à¦¨à¦¸à¦ª à¦Łà¦ķ
à¦ĩà¦ī à¦¤à¦°
Ġà¦ıà¦Ĩ à¦ĩà¦Ń
à¦ĩà¦¨à¦« à¦°à¦®
à¦®à¦¦à¦®à¦¤ à¦ªà¦¸
Ġà¦Ĩà¦ĩà¦ķ à¦¨
Ġà¦Ĩà¦°à¦¬à¦ĩ à¦ľà¦°
à¦¦à¦ħà¦ª à¦Ľà¦¨
Ġà¦®à¦Ī à¦¨
Ġà¦ĸà¦Łà¦ĸ à¦Ł
à¦° à¦ıà¦ķ
à¦° à¦Ĩà¦°
à¦° à¦Ĩà¦ķ
à¦° à¦īà¦Ńà¦¯
à¦¨ à¦¤à¦¨
à¦¨ à¦°à¦¬
à¦¨ à¦°à¦¸
à¦¨ à¦¨à¦¤
à¦¨ à¦¯à¦¤
à¦¨ à¦§à¦¨
à¦¨ à¦²à¦¬
à¦¨ à¦°à¦ľ
à¦¨ à¦¹à¦²
à¦¨ à¦Ľà¦¤
à¦¨ à¦ľà¦ª
à¦¨ à¦īà¦°
à¦¨ à¦ĸà¦¯
à¦¨ à¦Ĳà¦¶
à¦¤ à§ľ
à¦¤ à¦¤à¦¬
à¦¤ à¦¹à¦¸
à¦¤ à¦§à¦°
à¦¤ à¦¸à¦Ļ
à¦¤ à¦Ĺà¦¬
à¦¤ à¦¸à¦¤
à¦¤ à¦¶à¦¯
à¦¤ à¦ıà¦ķà¦Ł
à¦¤ à¦¹à¦¬
à¦¤ à¦Ĳà¦¤
à¦¤ à¦Ĩà¦Ĺ
à¦¤ à¦ĭà¦¤
à¦¯ à¦ĺ
à¦¯ à¦Ńà¦¬
à¦¯ à¦Ľà¦¨
à¦¯ à¦«à¦²
à¦¯ à¦ľà¦°
à¦¯ à¦ľà¦¯
à¦ķ à¦Ĩ
à¦ķ à¦Ĩà¦®
à¦ķ à¦ıà¦ķ
à¦ķ à¦ĺà¦°
à¦ķ à¦¬à¦¦à¦²
à¦¬ à¦ı
à¦¬ à¦ī
à¦¬ à¦£à¦ķ
à¦¬ à¦Ĺà¦łà¦¨
à¦¬ à¦īà¦¨
à¦¬ à¦ıà¦Ł
à¦¬ à¦ħà¦°
à¦¬ à¦ħà¦ª
à¦² à¦·
à¦² à¦£
à¦² à¦°à¦¸
à¦² à¦¦à¦°
à¦² à¦²à¦ķ
à¦² à¦ħ
à¦² à¦ļà¦ķ
à¦² à¦®à¦Ĺ
à¦² à¦ħà¦¨
à¦² à¦ĸà¦£
à¦² à¦ıà¦Ł
à¦² à¦ħà¦°
à¦® à¦²à¦¬
à¦® à§°
à¦® à¦Ĺà¦°
à¦® à¦ıà¦Ł
à¦® à¦Ĩà¦²
à¦® à¦īà¦²à¦®
Ġà¦¸ à¦ľà¦¨
Ġà¦¸ à¦Ĺà¦¨
Ġà¦¸ à§İà¦¸
Ġà¦¸ à¦²à¦Ļ
Ġà¦¸ à¦ĵà¦Ĺ
Ġà¦ķ à¦¨à¦ķ
Ġà¦ķ à¦ĩà¦°
Ġà¦ķ à¦¦à¦²
Ġà¦¬ à¦°à¦ķ
Ġà¦¬ à¦īà¦Ł
Ġà¦ª à¦®
Ġà¦ª à¦¢
Ġà¦ª à§Łà¦²
à¦¦ à¦¥
à¦¦ à¦ľà¦¨
à¦¦ à¦¨à¦¤
à¦¦ à¦ķà¦²
à¦¦ à¦¯à¦¨
à¦¦ à¦ĸà¦²
à¦¦ à¦¤à¦²
à¦¦ à§Łà¦¤
à¦¦ à¦ıà¦°
à¦¦ à¦īà¦¦
à¦¦ à¦Ĩà¦²
à¦¦ à¦ľà¦Ĺà§İ
à¦¦ à¦¨à¦¤à¦¤
à¦¸ à¦®à¦¤
à¦¸ à¦Ĩ
à¦¸ à¦¨à¦ĵ
à¦¸ à¦¸à¦®
à¦¸ à¦ĵà§Ł
à¦¸ à§İà¦ķ
à¦¸ à¦Ńà¦Ļ
à§Ģ à¦¾
Ġà¦Ĩ à¦ĩà¦ľ
à¦ĩ à¦¬à¦°
à¦ĩ à¦®à¦¤
à¦ĩ à¦ªà¦£
à¦ĩ à¦¸à¦®à¦¯
à¦ĩ à¦Ĩà¦°
à¦ĩ à¦¶à¦Ł
à¦ĩ à¦Ĩà¦®à¦°
à¦ĩ à¦Ĩà¦¤
à¦· à¦·
à¦· à¦ı
à¦· à¦¹à¦°
à¦· à¦¸à¦ķ
à¦· à¦°à¦Ł
à¦· à¦ªà¦£
à¦ª à¦¬à¦¨
à¦ª à¦®à¦¨
à¦ª à¦¤à¦°
à¦ª à¦ı
à¦ª à¦¯à¦¨
à¦ª à¦§à¦°
à¦ª à¦ļà¦ķ
à¦ª à¦¶à¦¬
à¦ª à¦¥à¦ķ
à¦ª à¦Ńà¦¯
à¦ª à¦¸à¦®à¦¯
à¦ª à§Łà¦¸
Ġà¦® à¦ĩ
Ġà¦® à¦Ŀ
Ġà¦® à¦Ĺà¦¨
Ġà¦® à¦¤à¦¨à¦ĩ
Ġà¦¨ à¦¨à¦¸
Ġà¦¨ à¦¬à¦¶
Ġà¦¨ à¦²à¦ĸ
à¦Ł à§Ł
à¦Ł à¦Ĩ
à¦Ł à¦®à¦¹
à¦Ł à¦¸à¦¹
à¦Ł à¦Ĩà¦¨à¦¨
à¦Ł à¦ªà¦¤à¦Ļ
Ġà¦ı à¦§
Ġà¦ı à¦ŀ
Ġà¦ı à¦ªà¦°
Ġà¦ı à¦¸à¦®
Ġà¦ı à¦²à¦ķ
Ġà¦ı à¦¨à¦ķ
Ġà¦ı à¦°à¦®à¦§
à¦ľ à¦°à¦ķ
à¦ľ à¦ŀ
à¦ľ à¦¬à¦°
à¦ľ à¦Ĩ
à¦ľ à¦®à¦£
à¦ľ à¦ļà¦ķ
à¦ľ à¦Ĺà¦łà¦¨
à¦ľ à¦ĺà¦¨
à¦ľ à¦ªà¦°à¦®
à¦¶ à¦ĸ
à¦¶ à¦ķà¦²
à¦¶ à¦¬à¦¸
Ġà¦¤ à¦Ł
Ġà¦¤ à¦ļ
à¦Ĺ à¦¤à¦°
à¦Ĺ à¦ªà¦¨
à¦Ĺ à¦¦à¦°
à¦Ĺ à¦¬à¦¦
à¦Ĺ à§°
à¦Ĺ à¦ļà¦°
à¦Ĺ à¦łà¦ķ
à¦Ĺ à¦ıà¦°
à¦Ĺ à¦īà¦ļ
Ġà¦¦ à¦ıà¦¬
Ġà¦¦ à¦®à¦¶
Ġà¦¦ à¦ĩà¦ª
Ġà¦ħ à¦°à¦ķ
Ġà¦ħ à¦¶à¦¨
Ġà¦ħ à¦¶à¦ķ
à¦§ à¦£
à¦§ à¦¨à¦¤
à¦§ à¦ªà¦¤
à¦§ à¦¬à¦ª
à¦§ à¦¬à¦ķ
à¦§ à¦¸à¦¹
à¦§ à¦ªà¦°à¦¬à¦°
Ġà¦¹ à¦°à¦¹
Ġà¦¹ à¦°à¦²
à¦Ľ à¦ľ
à¦Ľ à¦§à¦°
à¦Ľ à¦ķà¦ĩ
à¦£ à¦ĸ
à¦£ à¦ªà¦¤
à¦£ à¦¹à¦°
à¦£ à¦¸à¦¤
à¦£ à¦Ńà¦°
à¦¹ à¦ªà¦°
à¦¹ à¦°à¦¸
à¦¹ à¦°à¦ĵ
à¦¹ à¦®à¦¸
à¦¹ à¦ķà¦¦
à¦¹ à¦ķà¦ķ
Ġà¦¯ à¦¡
Ġà¦ķà¦° à¦ľ
Ġà¦ķà¦° à¦¬à¦¤
à¦ļ à¦ĵ
à¦ļ à¦¤à¦¨
à¦ļ à¦°à¦¨
à¦ļ à¦®à¦°
à¦ļ à¦¶à¦¬
à¦ļ à¦Ľà¦¯
à¦¥ à¦Ļ
à¦¥ à¦¸à¦¬
à¦¥ à¦¦à¦°
à¦¥ à¦¸à¦¨
à¦¥ à¦¨à¦ķ
à¦¥ à¦°à¦Ĺ
à¦¥ à¦²à¦Ń
à¦ĸ à¦®à¦¯
Ġà¦¶ à¦Ł
Ġà¦¶ à¦ľ
Ġà¦¶ à¦ĵ
Ġà¦¶ à¦¤à¦®
Ġà¦¶ à¦®à¦¦à¦®à¦¤à¦ªà¦¸
à¦Ń à¦°à¦ķ
à¦Ń à¦°à¦¸
à¦Ń à¦¶à¦ķ
Ġà¦Ĺ à¦°à¦¬
Ġà¦Ĺ à¦¤à¦¬
Ġà¦Ĺ à¦ľà¦¬
Ġà¦Ĺ à¦ľà¦²
Ġà¦ľ à¦®à¦¬
à¦¡ à¦¯
à¦¡ à¦ĸ
à¦¡ à¦²à¦¬
à¦¡ à¦¬à¦ľ
à¦¡ à¦¬à¦ªà¦ķ
à§Ł à¦²à¦¬
à§Ł à¦ħà¦¨
à§Ł à¦ķà¦¨
à§Ł à¦¶à¦ĩ
à¦ĵ à¦®
à¦ĵ à¦ľ
Ġà¦Ń à¦°à¦¬
Ġà¦Ń à¦¬à¦¦
Ġà¦Ń à¦ľà¦¤
Ġà¦° à¦ĵà¦¯
Ġà¦° à¦®à¦ľ
Ġà¦° à¦£à¦Ń
Ġà¦° à¦¦à¦¬à¦¦
Ġà¦ļ à§°
Ġà¦ī à¦¨à¦¬
Ġà¦ī à¦¶à¦¨
Ġà¦ĵ à§ľ
Ġà¦ĵ à¦ªà¦¥
Ġà¦Ĩà¦® à¦Ł
Ġà¦Ĩà¦® à¦°à¦£
Ġà¦¸à¦® à¦ª
Ġà¦ıà¦ķ à¦ķà¦°
à¦Ļ à¦Ĺ
Ġà¦ªà¦° à¦®à¦¤à¦¤
à¦°à¦¤ à¦ĩ
à¦°à¦¤ à¦ĸ
à¦ł à¦²
à¦ł à¦ļ
à¦ł à¦ĸ
à¦ł à¦ªà¦°
à¦ł à¦¨à¦ķ
à¦ł à¦Ĺà¦¡
Ġà¦ħà¦¨ à§ľ
à¦¬à¦¨ à¦²
à¦¬à¦¨ à¦°à¦¸
à¦¬à¦¨ à¦¸à¦¨
à¦¬à¦¨ à¦Ńà¦°
à¦°à¦£ à¦§
à¦°à¦£ à¦Ĺà¦¤
à¦°à¦£ à¦ıà¦ĩ
Ġà¦² à¦ĩ
Ġà¦² à¦¹
Ġà¦² à¦ĵ
Ġà¦² à¦¬à¦¨
Ġà¦² à¦¬à¦Ļ
Ġà¦¬à¦² à¦¨
Ġà¦¬à¦² à¦¬à¦¦
Ġà¦ıà¦ĩ à¦¸à¦Ļ
Ġà¦ıà¦ĩ à¦¸à¦®à¦¯
Ġà¦§ à¦¬à¦²
à¦°à¦ķ à¦¬
à¦ŀ à¦¤à¦¤
à¦ŀ à¦¦à¦ķ
à¦ªà¦° à¦Ń
à¦ľà¦¨ à¦¸à¦®
à¦ľà¦¨ à¦Ĺà¦¨
à¦¬à¦° à¦ªà¦²
à¦®à¦¨ à¦®
à¦®à¦¨ à¦¶
à¦®à¦¨ à¦ªà¦°
à¦ĸà¦¨ à¦ª
à¦ĸà¦¨ à¦ĵ
Ġà¦« à¦ľà¦²
à¦¤à¦° à¦°
à¦¤à¦° à¦ľ
à¦¤à¦° à¦§
Ġà¦ĸ à¦ļ
Ġà¦ĸ à¦Ļ
à§İ à¦«
Ġà¦®à¦¨ à¦¬
Ġà¦®à¦¨ à¦¶
Ġà¦®à¦¨ à¦®à¦¤
Ġà¦®à¦¨ à¦¨à¦Ń
Ġà¦ľà¦¨ à¦ķà¦²
à¦¤à¦¨ à¦¸
à¦¤à¦¨ à¦§
à¦¤à¦¨ à¦¤à¦°
à¦¤à¦¨ à¦ıà¦¸à¦¬à¦ĩ
à¦¤à¦¨ à¦¸à¦¹
à¦¤à¦¨ à¦ľà¦ĺà¦¨
Ġà¦ĩ à¦¬à¦¨
Ġà¦ĩ à¦ĵà§Ł
Ġà¦ĩ à¦Łà¦Ĺ
Ġà¦ĩ à¦ĵà¦°
Ġà¦ĩ à¦īà¦¸
Ġà¦ĩ à¦īà¦ª
à¦ªà¦¨ à¦¬
à¦ªà¦¨ à¦¦
à¦ªà¦¨ à¦ıà¦¸à¦¬
Ġà¦¹à¦² à¦ĩ
Ġà¦¹à¦² à¦Ń
Ġà¦¹à¦² à¦ı
Ġà¦¹à¦² à¦¸à¦®
Ġà¦¹à¦² à¦Ĩà¦®
Ġà¦¹à¦² à¦ıà¦ķ
Ġà¦¹à¦² à¦Ĩà¦®à¦°
à¦ı à¦¤à¦ķ
à¦ı à¦«à¦¸
Ġà¦ĺ à¦¨à¦¬à¦¸à¦¤
à¦°à¦® à¦²
à¦°à¦® à¦ŀ
à¦°à¦® à¦ķà¦°
à¦°à¦® à¦®à¦¹
à¦°à¦® à¦īà§İà¦ª
à¦°à¦¬ à¦¯
à¦°à¦¬ à¦®
à¦°à¦¬ à¦ĩ
à¦°à¦¬ à¦¶
à¦°à¦¬ à¦²à¦¤
à¦¯à¦ķ à¦¨
à¦¸à¦¬ à¦¸
à¦¸à¦¬ à¦§
à§ľ à¦Ĺ
à¦·à¦£ à¦°
à¦·à¦£ à¦¤à¦¤
à¦·à¦£ à¦§à¦°
à¦·à¦£ à¦Ńà¦Ļ
à¦·à¦£ à¦¸à¦¬à¦ķ
à¦« à¦ıà¦°
à¦ī à¦²à¦¨
à¦ī à¦ªà¦¦
à¦ī à¦Łà¦¨
à¦ī à¦¸à¦¬à¦ĩ
à¦ī à¦ªà¦¯
à¦ī à¦ªà¦¶
à¦Ŀ à¦²à¦ķ
à¦°à¦¸ à¦¦
à¦°à¦¸ à¦ľ
à¦Ĺà¦¤ à¦¤
à¦Ĺà¦¤ à¦¬
à¦Ĺà¦¤ à¦ĵ
Ġà¦¬à¦° à¦ĸ
à¦¬à¦¤ à¦ķ
à¦¬à¦¤ à¦ĵ
à¦¬à¦¤ à¦°à¦£
à¦¨à¦¤ à¦¤à¦¨
Ġà¦īà¦¦ à¦°à¦¸
à¦ķà¦¤ à¦¦
Ġà¦īà¦ª à¦®à¦¨
Ġà¦īà¦ª à¦¸à¦®
Ġà¦īà¦ª à¦°à¦¤à¦²
à¦ķà¦² à¦¤
à¦ķà¦² à¦¬
Ġà¦Ĩà¦² à¦«
à¦ļà¦¨ à¦ĵ
à¦ĺ à¦¯
à¦ĺ à¦Ĺ
à¦ĺ à¦Ń
à¦ĺ à¦°à¦Ł
à¦ĺ à¦°à¦Ĺ
Ġà¦¸à¦¹ à¦¤
Ġà¦Ł à¦Ļ
Ġà¦Ł à¦ªà¦¨
Ġà¦Ł à¦¨à¦ķ
Ġà¦Ł à¦ĩà¦Ł
Ġà¦Ł à¦¨à¦Łà¦¨
à¦®à¦¤ à¦ĩ
Ġà¦ħà¦¤ à¦¶à¦¤
à¦¨à¦¬ à¦¬à¦¨
à¦¨à¦¬ à¦ħà¦¨
à¦¨à¦¬ à¦¶à¦°
à¦¦à¦° à¦Ł
à¦°à¦¥ à¦Ń
à¦²à¦¤ à¦¬
Ġà¦¬à¦¸ à¦¨à¦Ń
à¦¯à¦¤ à¦ļ
à¦¬à¦² à¦ļ
Ġà¦¡ à¦«
Ġà¦ķà¦°à¦² à¦¬
Ġà¦¬à¦¨ à¦ķ
Ġà¦¬à¦¨ à¦Ĺ
à¦§à¦¨ à¦°à¦¤
à¦§à¦¨ à¦¯à¦ľ
à¦ķà¦° à¦²
à¦ķà¦° à¦Ł
à¦ķà¦° à¦ļ
à¦ķà¦° à¦ĵ
à¦°à¦¨ à¦Ĺà¦°
à¦Ĩ à¦Ļ
à¦Ĩ à¦ŀ
à¦Ĩ à¦ĸà¦¡
à¦°à¦¶ à¦¯
à¦¨à¦ĵ à¦Ĺà¦¤
à¦°à¦¦ à¦¸
à¦°à¦¦ à¦¶
Ġà¦ªà¦¥ à¦°
Ġà¦ªà¦¥ à¦¹
Ġà¦ªà¦¥ à¦ªà¦°
à¦°à¦¥à¦® à¦ª
à¦ķà¦Ł à¦ª
à¦¶à¦¨ à¦ıà¦°
à¦¶à¦¨ à¦¸à¦¬à¦ĩ
à¦¶à¦¨ à¦¸à¦¬à¦ķ
Ġà¦¬à¦²à¦² à¦ķ
à¦¯à¦® à¦¸
à¦¯à¦® à¦Ĺ
à¦¸à¦® à¦°
à¦¸à¦® à¦ŀ
Ġà¦Ĳ à¦ļ
à¦²à¦¬ à¦¶
à¦²à¦¬ à¦¦à¦²
Ġà¦¬à¦¹ à¦¤
Ġà¦¬à¦¹ à¦°à¦®à¦ª
à¦ªà¦¤ à¦®
Ġà¦«à¦² à¦Ń
à¦¬à¦ª à¦Ł
ĠĠĠĠ čĊč
Ġà¦Ĩà¦¨ à¦²à¦ķ
Ġà¦īà§İ à¦ķà¦²
Ġà§ ¦
à¦ħ à¦®à¦¨
à¦ħ à¦¬à¦¤
à¦ħ à¦ªà¦¤
à¦ħ à¦ªà¦®
à¦ħ à¦¸à¦¹
à¦ħ à¦¬à¦¹
à¦ħ à¦¥à¦°
à¦Ńà¦¬ à¦¯
à¦¸à¦¨ à¦¯
à¦¸à¦¨ à¦®
à¦¸à¦¨ à¦Ĺ
à§° à¦ľà¦¨
à§° à¦Ĺà¦¤
à§° à¦®à¦¶
Ġà¦Ĩà¦§ à¦ĸ
à¦·à¦ķ à¦ľ
à¦·à¦ķ à¦¸à¦®
à¦·à¦ķ à¦®à¦ľ
à¦Ĺà¦° à¦ļ
à¦¤à¦® à¦Ń
à¦¤à¦® à§Ł
Ġà¦Ŀ à¦°à¦²
à¦·à¦¤ à¦¤
à¦·à¦¤ à¦²
Ġà¦ħà¦ª à¦¶à¦¬
à¦ıà¦ĩ à¦ļà¦¡
à¦ĩà¦¨ à¦ľ
à¦Ĺà¦² à¦°
à¦Ĺà¦² à¦ĩ
à¦Ĺà¦² à¦Ń
à¦Ĺà¦² à¦®à¦¯
à¦¶à¦ķ à¦®
à¦¨à¦ķ à¦¬
Ġà¦ªà¦¦ à¦®
Ġà¦ªà¦¦ à¦ĵ
Ġà¦ĩà¦¨ à¦Ń
à¦ªà¦ķ à¦¬
à¦ªà¦ķ à¦ĩ
à¦°à¦¹à¦£ à¦ĵ
à¦°à¦¹à¦£ à¦§à¦°
à¦°à¦¹à¦£ à¦ıà¦¸à¦¬
à¦¤à¦ķ à¦¨
à¦¤à¦ķ à¦¬
à¦¤à¦ķ à¦ª
à¦¤à¦ķ à¦Ĺ
à¦¤à¦ķ à¦¡
Ġà¦¶à¦° à¦¬à¦°
Ġà¦ľà¦² à¦ĸ
Ġà¦ľà¦² à¦ľà¦¨
Ġà¦ľà¦² à¦Ľà¦¬
Ġà¦ľà¦² à¦¤à¦°à¦Ļ
à¦¬à¦¸ à¦ķà¦²
à¦¯à¦¸ à¦¦
à¦¯à¦¸ à¦¹à¦¯
à¦¯à¦¦ à¦ķ
à¦§à¦ķ à¦ľ
à¦§à¦ķ à¦ĵ
à¦°à¦ľà¦¨ à¦ķ
Ġà¦¨à§Ł à¦ª
à¦¨à¦¸ à¦ķà¦²
à¦¥à¦¨ à¦¦à¦£
Ġà¦¯à¦¤ à¦Ĺ
à¦°à¦² à§Ł
à¦°à¦ª à¦¯
à¦°à¦ª à¦¶
Ġà¦¶à¦¤ à¦¶à¦¤
à¦°à¦ľ à¦ª
Ġà¦ĺà¦° à¦Ľ
Ġà¦ĺà¦° à¦ĸ
à¦Łà¦ķ à¦¶
à¦Łà¦ķ à¦Ĺ
à¦Łà¦ķ à¦ĵ
à¦īà¦² à¦²
à¦īà¦² à¦ª
à¦¼à§ģ à¦ĥ
Ġà¦ķà¦¤ à¦°à¦ķà¦®
Ġà¦¸à¦¹à¦ľ à¦ķ
Ġà¦Ĩà¦ļ à¦®
Ġà¦Ĩà¦ļ à¦£
à¦ıà¦¸à¦¬ à¦ķ
à¦ªà¦¸ à¦ª
à¦ļà¦ķ à¦®
à¦ļà¦ķ à¦£
à¦¨à¦° à¦Ļ
Ġà¦¸à¦ķà¦² à¦ĩ
Ġà¦ħà¦¦ à¦²à¦¬à¦¦à¦²
Ġà¦Ĺà¦£ à¦¦
Ġà¦Ĺà¦£ à¦¶
Ġà¦Ĺà¦£ à¦Ĺ
Ġà¦Ĺà¦£ à¦¹à¦¤
à¦¸à¦ķ à¦¬à¦°
à¦Ĺà¦¨ à¦°à¦ķ
à¦°à¦®à¦£ à¦Ł
Ġà¦ľà¦° à§İà¦ķ
Ġà¦ľà¦° à¦¡à¦¨
Ġà¦Ĺà§ľ à¦Ĺà§ľ
à¦ķà¦°à¦£ à¦ª
à¦¥à¦ķ à¦¦
à¦łà¦ķ à¦ĩ
à¦łà¦ķ à¦Ĺ
Ġà¦¦à¦° à¦ĸ
Ġà¦īà§İà¦¸ à¦ĩ
à¦Ĺà¦¬ à¦Ļ
Ġà¦¨à¦¬ à¦¤à¦°
à¦¯à¦° à¦Ļ
Ġà¦ľà¦® à¦Ľ
Ġà¦ľà¦® à¦¦à¦Ĺ
Ġà¦ªà¦°à¦® à¦§à¦°
Ġà¦¬à¦Ł à¦®
Ġà¦¬à¦Ł à¦¤à¦²
Ġà¦°à¦®à¦£ à¦¸
à¦Ĺà¦® à¦ľ
Ġà¦°à¦Ļ à¦¤
à¦ªà¦¥ à¦Ł
Ġà¦¦à¦² à¦ĵ
Ġà¦ıà¦ķà¦¬ à¦ļà¦¨
Ġà¦īà§İà¦¸à¦¬ à¦ķ
Ġà¦īà§İà¦¸à¦¬ à¦¬
Ġà¦īà§İà¦¸à¦¬ à¦ıà¦¸à¦¬
Ġà¦īà§İà¦¸à¦¬ à¦¸à¦¬à¦ĩ
Ġà¦īà§İà¦¸à¦¬ à¦ªà¦¹
à¦®à¦°à¦£ à¦¬
à¦®à¦°à¦£ à¦¶à¦ķ
Ġà¦°à¦¸ à¦ĩ
Ġà¦ªà¦£ à¦ª
Ġà¦¸à¦®à§Ł à¦Ĺ
à¦¡à¦² à¦®à¦§
à¦¨à¦ª à¦¡
à¦ķà¦¦ à¦¦à¦¸
Ġà¦§à¦¨ à¦ªà¦¤
Ġà¦ªà¦¶ à¦²
Ġà¦°à¦ķà¦® à¦Ł
Ġà¦Ĩà¦ª à¦Ĺ
à¦®à¦ªà¦° à¦®
à¦¬à¦® à¦ª
à¦¶à¦Ĺ à¦¡
à¦¨à¦ĩ à¦ĸ
à¦®à¦¹ à§İ
à¦®à¦¹ à¦¨à¦¨
Ġà¦īà¦ľ à¦²
Ġà¦¸à¦¦ à¦®
Ġà¦¨à¦Ĺà¦° à¦°
à¦¦à§Ł à¦Ĺ
Ġà¦Ĩà¦ĩà¦¨ à¦®à¦¨
à¦¨à¦Ń à¦Ĺà¦¬
à¦²à¦¸ à¦ķà¦²
à¦¬à¦ļ à¦¤
Ġà¦¦à¦¶ à¦°
Ġà¦¦à¦¶ à¦¦à¦¶à¦Ł
à¦ıà¦ķ à¦ĩà¦Ń
à¦ıà¦ķ à¦¸à¦®à¦¯
à¦®à¦ľ à¦Ĺà¦¤
à¦¨à¦¶ à¦Ł
à¦¶à¦² à¦ĵ
à§¨ à§¯
à¦ĩà¦¡ à¦¬
à¦ĩà¦¡ à¦¶
à¦ĩà¦¡ à¦¸à¦¹
à¦ĸà¦ķ à¦ĩ
à¦Ĺà¦łà¦¨ à¦ª
à¦Ĺà¦łà¦¨ à¦¶à¦ķ
Ġà¦ķà¦· à¦²
Ġà¦ĸà¦¬à¦° à¦ĩ
Ġà§¨ à§¯
à¦¦à¦¬ à¦§
ĠĠĠĠĠĠĠĠĠĠĠĠĠĠĠĠ Ġ
ĠĠĠĠĠĠĠĠĠĠĠĠĠĠĠĠ ĠĠ
Ġà¦¹à¦ĩ à¦ļ
Ġà¦Ĺà¦łà¦¨ à¦¶
Ġà¦Ĺà¦łà¦¨ à¦Ĺà¦¤
à¦¬à¦ľà¦¨ à¦ªà¦°
à¦¬à¦ľ à¦Ĺ
à¦¬à¦ľ à§Ł
à¦¦à¦ķ à¦£
Ġà¦ĺà¦¨ à¦ľà¦Ļ
Ġà¦ļà¦°à¦® à¦Ń
Ġà¦®à¦¨à¦¨ à¦§
Ġà¦ķà¦ļ à¦¦
à¦ķà¦Ĺ à¦®à¦¨
à¦ĩà¦¸ à¦Ł
à¦¯à¦Ĺ à¦¦
à¦¯à¦Ĺ à¦ļ
Ġà¦Ķ à¦ļ
à¦Ŀà¦² à¦ıà¦ĩ
à§Ŀ à¦¸
à§« à§©
à§« à§ª
à§« à§®
à¦Ĺà¦ľ à¦ª
Ġà¦®à§İà¦¸ à¦ľ
à¦¨à¦¬à¦ľ à¦Ĺà¦¤
Ġà¦Ńà¦°à¦¤ à¦¸
Ġà¦Ńà¦°à¦¤ à¦Ń
Ġà¦ľà¦Ĺ à§İà¦ª
à¦¬à¦Ĺ à¦ŀ
Ġà¦ľà§Ł à¦ªà¦°
à¦Ĺà¦°à¦£ à¦ĩ
à¦Ĺà¦¦ à¦¤
à§© à§¨
à§© à§§
à¦¶à¦¤ à¦ªà¦¥
à§ª à§«
à¦¸à¦¦ à¦¦
à¦«à¦²à¦¨ à¦ĩ
à¦Ńà¦°à¦¤ à¦ķ
à§İà¦ª à¦°à¦¤
Ġà§§à§¯à§« à§«
Ġà§§à§¯à§« à§¬
Ġà¦¦à¦® à¦¬à¦¨
à¦¦à¦ª à¦¤à¦¨
à¦¨à¦Ĩ à¦¯
à¦¨à¦Ĩ à¦ķ
Ġà¦Ĩà¦Ł à¦¦
Ġà¦Ĩà¦Ł à¦ļà¦²
Ġà¦Ĩà¦Ł à¦¦à¦¶
ĠĠĠ č
à¦ľà¦Ĺà¦¤ à¦ķ
Ġà¦¬à¦§ à¦¬à¦¨
Ġà¦īà¦ªà¦ķà¦°à¦£ à¦ķ
Ġà¦īà¦ªà¦ķà¦°à¦£ à¦ĩ
Ġà§« à§¨
Ġà§« à§ª
Ġà§« à§¯
Ġà§ª à§¬
à¦ĩà¦« à¦¯
à¦ĩà¦« à§Ł
Ġà¦¨à¦°à¦® à¦ªà¦¨
à¦£à¦¸ à¦ĸ
Ġà¦¨à¦° à¦ĵà¦¯
à¦¤à¦ļ à¦°à¦¦
Ġà¦¬à¦¦ à¦Ń
ĠĠĠĠĠĠĠĠĠĠĠĠĠĠĠĠĠĠĠĠĠĠĠĠĠĠĠĠĠĠĠĠ Ġ
à¦ľà¦ĩ à¦īà¦¨
à¦ķà¦Ľ à¦Ł
à¦ªà¦ķà¦¥à¦¨ à¦ĩ
Ġà¦¨à¦Ĺ à¦°à¦¸à¦Ń
Ġà¦Ĩà¦ĩ à¦¨à¦¬
Ġà¦¦à¦®à¦¨ à¦¨
Ġà§¬ à§«
Ġà§¬ à§ª
Ġà§¬ à§¦à§¦
Ġà¦ıà¦® à¦Ĩà¦°à¦Ĩà¦ĩ
Ġà¦Ĩà¦¬à¦°à¦£ à¦Ł
à¦īà¦ª à¦²à¦¬
Ġà¦ķà¦¦ à¦®à¦Ĺ
Ġà¦Ĩà¦« à¦Ł
Ġà¦Ńà¦¬à¦¨ à¦¦
Ġà§§à§¨ à§¦à§¦
Ġà¦¦à¦ĩ à¦ļ
à¦Ľà¦¯ à¦¬à¦¨
Ġà¦ľà¦¨à¦¸à¦® à¦°
à¦ĩà¦ļ à¦£
Ġà§§à§¯à§® à§¦
Ġà§§à§¯à§® à§¬
à§¯à§ Ń
Ġà¦Ĺà¦ľ à¦Ĺà¦ľ
Ġà§§à§« à§¦à§¦
Ġà§§à§ª à§¬
Ġà§§à§¯à§§à§ ¯
Ġà¦Ŀà§ľ à¦Ŀ
à¦Łà¦ķà¦² à¦¸à¦®
Ġà§§à§¯à§¬ à§«
à¦¨à¦¬à¦¨ à¦¨
Ġà§§à§§à§ «
Ġà§§à§¯à§© à§¨
Ġà§¯à§ §à§
ĠĠĠĠĠĠĠĠĠĠĠĠĠĠĠĠĠĠĠĠĠĠĠĠ ĠĠĠĠĠ
Ġà¦ĩà¦¤à¦° à¦¬
à¦¦à¦¸à¦® à¦·
à¦Ĭ à¦¨à¦¬
à¦ķà¦ľà¦®à¦ķ à¦ª
Ġà¦®à¦Ĺà¦ľ à¦Ł
à¦¨à¦ıà¦ķ à¦®
ĠĠĠĠĠĠĠĠĠĠĠĠĠĠĠĠĠĠĠĠĠĠĠĠĠĠĠĠĠĠĠĠĠĠĠĠĠĠĠĠĠĠĠĠĠĠĠĠĠĠĠĠĠĠĠĠĠĠĠĠĠĠĠĠ ĠĠĠĠĠĠĠĠĠĠĠĠĠĠĠĠĠĠĠĠĠĠĠĠĠĠĠĠĠĠĠĠ
à¦¨à¦ıà¦®à¦¨ à¦Ł
à¦ªà¦ķà¦¤ à¦®
Ġà¦Ĺà¦Ĺà¦¨ à¦®à¦£
à¦¸à¦ªà¦° à¦Ł
Ġà¦¤à§İà¦ªà¦° à¦¬à¦°
čĊčĊ čĊč
à¦¨à¦ıà¦¬ à¦®
Ġà¦¦à¦¹ à¦°à¦®à¦®à¦¹
à§®à§ª à§¯
à¦ħà¦¬à¦¸ à¦°
Ġà¦ıà¦ĩà¦ļ à¦ıà¦¸à¦¸
Ġà¦ľà¦ªà¦¤ à¦ª
Ġà¦¸à¦¹à¦ľà¦¸à¦° à¦²à¦¤
Ġà¦Ĺà¦¦à¦Ĺ à¦¦
âĢĥ čĊč
Ġà¦Łà¦ĩà¦Ł à¦®
Ġà¦¦à¦¹à¦°à¦®à¦®à¦¹ à¦°à¦®
© à§§
Ġ à§ģ
Ġ à§Ł
Ġà¦ ŀ
à§ĩ à§į
à§ĩ à§ĭ
à¦° à¦¨à¦¨
à¦° à¦ıà¦Ł
à¦° à¦īà¦¦
à¦° à¦ĺà¦¨
à¦° à¦ıà¦ĸ
à¦¿ à§į
à¦¨ à¦°à¦ķ
à¦¨ à¦ŀ
à¦¨ à¦°à¦¦
à¦¨ à¦®à¦£
à¦¨ à¦®à¦ķ
à¦¨ à¦ļà¦²
à¦¨ à¦°à¦ª
à¦¨ à¦®à¦ľ
à¦¨ à¦®à¦¶
à¦¨ à¦ľà¦Ĺà¦¤
à¦¨ à¦īà§İà¦ª
à¦¨ à¦īà¦Ńà§Łà¦ĩ
à¦¤ à¦®à¦ķ
à¦¤ à¦¤à¦ķ
à¦¤ à¦¸à¦°
à¦¤ à¦«à¦²
à¦¤ à¦¥à¦ķ
à¦¤ à¦Ĺà¦®
à¦¤ à¦ĸà¦£
à¦¤ à¦Ĩà¦°
à¦¤ à¦Ĩà¦²
à¦¤ à¦°à¦¤à¦®
à¦¤ à¦ħà¦ª
à¦¤ à¦¸à¦°à¦²
à¦¤ à¦ħà¦¶
à¦¤ à¦Ĩà¦Ł
à¦¯ à¦¨à¦¨
à¦¯ à¦²à¦¬
à¦¯ à¦°à¦ľ
à¦¯ à¦ıà¦°
à¦¯ à¦¸à¦®à¦¯
à¦¯ à¦Ĩà¦²
à¦¯ à¦īà§İà¦¸à¦¬
à¦¯ à¦ĺà¦Ł
à¦¯ à¦Ĩà¦¦
à¦¯ à¦īà§İà¦¸
à¦ķ à§Ł
à¦ķ à§İ
à¦ķ à¦¬à¦¤
à¦ķ à¦¨à¦¬
à¦ķ à¦°à¦¹
à¦ķ à¦ªà¦¤
à¦ķ à¦¬à¦¯
à¦ķ à¦Ĺà¦²
à¦ķ à¦¨à¦ķ
à¦ķ à¦ķà¦¬
à¦ķ à¦ıà¦¸à¦¬
à¦ķ à¦ħà¦¨
à¦ķ à¦®à§Ł
à¦ķ à¦īà¦¦
à¦ķ à¦ıà¦®à¦¨
à¦ķ à¦Ĩà¦²
à¦ķ à¦ªà¦°à¦®
à¦ķ à¦Ĩà¦¤
à¦¬ à¦¬à¦¤
à¦¬ à¦Ĺà¦°
à¦¬ à¦ľà¦°
à¦¬ à¦Ĺà¦¨
à¦¬ à¦ıà¦°
à¦¬ à¦ıà¦¸à¦¬à¦ĩ
à¦¬ à¦Ĩà¦²
à¦¬ à¦ħà¦¸
à¦¬ à¦Ĩà¦¨
à¦¬ à¦£à¦¬à¦§
à¦² à¦°à¦ķ
à¦² à¦°à¦¬
à¦² à¦ķà¦¤
à¦² à¦ļà¦¨
à¦² à¦²à¦¤
à¦² à¦¬à¦²
à¦² à¦Ĩ
à¦² à¦ļà¦²
à¦² à¦ĵà§Ł
à¦² à¦¹à¦°
à¦² à¦ıà¦¸à¦¬
à¦² à¦¢
à¦² à¦ĩà¦¤
à¦² à¦Ĩà¦°
à¦² à¦ıà¦®à¦¨
à¦² à¦ıà¦ĸ
à¦² à¦ħà¦ª
à¦® à¦°à¦®
à¦® à¦ī
à¦® à¦¶à¦¬
à¦® à¦ıà¦ķà¦Ł
à¦® à¦Ĩà¦®à¦°
à¦® à¦ıà¦ķà¦ľà¦¨
à¦® à¦ıà¦ĸ
à¦® à¦ıà¦ķà¦¦
à¦® à¦Ĩà¦¨
à¦® à¦īà¦ļ
à¦® à¦°à¦¹à¦¸
à¦® à¦ħà¦¹
à¦¼ à§Īà¦ĥ
Ġà¦¸ à§Ł
Ġà¦¸ à¦ªà¦¨
Ġà¦¸ à¦°à¦¯
Ġà¦¸ à¦¦à¦²
Ġà¦¸ à¦ĵà¦¦
Ġà¦ķ à¦ĸ
Ġà¦ķ à¦ķà¦Ł
Ġà¦ķ à¦Łà¦ķ
Ġà¦ķ à¦¨à¦ķà¦¨
Ġà¦¬ à¦ķà¦²
Ġà¦¬ à¦ķà¦¶
Ġà¦¬ à¦¦à¦¤
Ġà¦¬ à¦°à¦¬à¦£
Ġà¦¬ à¦°à¦¬à¦§
Ġà¦¬ à§İà¦¸à¦²
Ġà¦ª à¦ĩ
Ġà¦ª à¦ł
Ġà¦ª à¦Łà¦ķ
à¦¦ à¦¡
à¦¦ à¦Ĩ
à¦¦ à¦¶à¦¨
à¦¦ à¦®à¦ķ
à¦¦ à¦§à¦°
à¦¦ à¦¶à¦¬
à¦¦ à¦Ĺà¦®
à¦¦ à¦ķà¦¦
à¦¦ à¦Ńà¦°
à¦¦ à¦Ńà¦Ļ
à¦¦ à¦ıà¦ĩà¦¸à¦¬
à¦¸ à¦§
à¦¸ à¦¬à¦°
à¦¸ à¦¦à¦°
à¦¸ à¦°à¦¦
à¦¸ à¦¸à¦°
à¦¸ à¦ļà¦°
à¦¸ à¦«à¦²
à¦¸ à¦Ĩà¦®
à¦¸ à¦ªà¦Ł
à¦¸ à¦Ĺà¦£
à¦¸ à¦¹à¦¯
à¦¸ à¦ľà¦¨à¦ķ
à¦¸ à¦¯à¦ľ
à¦¸ à¦īà¦¦
à¦¸ à¦ıà¦Ĺ
à¦¸ à¦Ĩà¦²
à¦¸ à¦Ĩà¦¦
à¦¸ à¦Ĩà¦¸
à¦¸ à¦¹à¦¨à¦¶
Ġà¦Ĩ à¦¤à¦°
Ġà¦Ĩ à¦«à¦²
Ġà¦Ĩ à¦ĸà¦°
Ġà¦Ĩ à¦ĩà§Ł
à¦ĩ à¦°à¦¬
à¦ĩ à¦¬à¦²
à¦ĩ à¦ķà¦°
à¦ĩ à¦Ĩ
à¦ĩ à¦ıà¦¸à¦¬
à¦ĩ à¦ľà¦°
à¦ĩ à¦¸à¦ķ
à¦ĩ à¦¸à¦¬à¦ĩ
à¦ĩ à¦Ńà¦¯
à¦ĩ à¦ľà¦²
à¦ĩ à¦¸à¦¬à¦ķ
à¦ĩ à¦ħà¦°
à¦ĩ à¦Ĩà¦Ĺ
à¦ĩ à¦Ĩà¦ªà¦¨
à¦ĩ à¦ıà¦²
à¦ĩ à¦ħà¦ª
à¦ĩ à¦Ĩà¦¸
à¦ĩ à¦ıà¦ķà¦¥
à¦· à¦ļà¦¨
à¦· à¦¸à¦¨
à¦· à¦®à¦¸
à¦· à¦¬à§İ
à¦ª à§Ł
à¦ª à¦Ļ
à¦ª à¦¬à¦²
à¦ª à¦Ĺà¦°
à¦ª à¦£à¦¤
à¦ª à¦Łà¦²
à¦ª à¦Ĺà¦¨
à¦ª à¦Ĩà¦®
à¦ª à¦ªà¦¥
à¦ª à¦ħà¦¨
à¦ª à¦®à§Ł
à¦ª à¦¬à¦§
à¦ª à¦ıà¦Ĺ
à¦ª à¦Ĩà¦ªà¦¨
à¦ª à¦Ĩà¦¡
à¦ª à§İà¦¤
Ġà¦® à¦ĸ
Ġà¦® à¦ĩà¦¨
Ġà¦® à¦¦à¦ķ
Ġà¦® à¦Łà¦°
Ġà¦® à¦²à§Ł
Ġà¦® à¦°à¦®à¦°
Ġà¦® à¦ĵà¦²
Ġà¦¨ à¦°à¦¶
Ġà¦¨ à¦¸à¦°
Ġà¦¨ à¦¨à¦¦
Ġà¦¨ à¦ĸà¦ķ
Ġà¦¨ à¦ĸà¦°
Ġà¦¨ à¦Ńà¦¸
Ġà¦¨ à¦°à¦¹à¦°
Ġà¦¨ à¦°à¦¬à¦ª
Ġà¦¨ à¦°à¦¹à¦¤
à¦Ł à¦§
à¦Ł à¦ł
à¦Ł à¦ŀ
à¦Ł à¦ı
à¦Ł à¦¬à¦¦
à¦Ł à¦ħ
à¦Ł à¦°à¦Ń
à¦Ł à¦¸à¦¨
à¦Ł à¦ıà¦ĩ
à¦Ł à¦ıà¦¸à¦¬
à¦Ł à¦°à¦Ĺ
à¦Ł à¦¸à¦¬à¦ķ
à¦Ł à¦ļà¦¤
Ġà¦ı à¦°à¦¶
Ġà¦ı à¦²à¦¬
Ġà¦ı à¦¨à¦¸
à¦ľ à§İ
à¦ľ à¦ı
à¦ľ à§ľ
à¦ľ à¦°à¦¸
à¦ľ à¦²à¦¤
à¦ľ à¦¤à¦¬
à¦ľ à¦¯à¦¨
à¦ľ à§Łà¦¨
à¦ľ à¦ķà¦¬
à¦ľ à¦°à¦®à¦£
à¦ľ à¦Ńà¦°
à¦ľ à¦ıà¦°
à¦ľ à¦ħà¦Ń
à¦ľ à¦¸à¦®à¦¸
à¦ľ à¦łà¦°
à¦ľ à¦ªà¦¦à¦¬
à¦ľ à¦īà¦Ńà¦¯
à¦ľ à¦īà¦Ńà§Ł
à¦¶ à¦·
à¦¶ à¦ŀ
à¦¶ à§İ
à¦¶ à¦ĺ
à¦¶ à¦¨à¦¨
à¦¶ à¦®à¦°
à¦¶ à¦¤à¦ķ
à¦¶ à¦ļà¦°
à¦¶ à¦ľà¦°
à¦¶ à¦°à¦£à¦Ĺ
à¦¶ à¦ľà¦¨à¦¨
à¦¶ à¦Ĩà¦ĩà¦¨
Ġà¦¤ à¦Ľà¦¨
Ġà¦¤ à¦¥à¦¨
Ġà¦¤ à¦Łà¦¸
Ġà¦¤ à¦ĵà¦«
à¦Ĺ à¦ķà¦¤
à¦Ĺ à¦°à¦¨
à¦Ĺ à¦ĩà¦¨
à¦Ĺ à¦¶à¦ķ
à¦Ĺ à¦ľà¦°
à¦Ĺ à¦¸à¦Ļ
à¦Ĺ à¦ľà¦¬
à¦Ĺ à¦īà¦¦
Ġà¦¦ à¦¶à¦ª
Ġà¦ħ à¦Ľ
Ġà¦ħ à¦²à¦¬
Ġà¦ħ à¦ļà¦ķ
Ġà¦ħ à¦łà¦¨
à¦§ à¦°à¦£
à¦§ à¦°à¦ķ
à¦§ à¦Ŀ
à¦§ à¦ķà¦²
à¦§ à¦¦à¦°
à¦§ à§°
à¦§ à¦ªà¦ķ
à¦§ à¦ļà¦°
à¦§ à¦Ĺà¦¨
à¦§ à¦®à¦¹
à¦§ à¦Ĺà¦£
à¦§ à¦Ĳà¦¤
à¦§ à¦īà¦ªà¦°
à¦§ à¦¸à¦¬à¦ĸ
Ġà¦¹ à¦¥
à¦Ľ à¦Ľ
à¦Ľ à¦ıà¦ĩ
à¦£ à¦ªà¦°
à¦£ à¦¸à¦¬
à¦£ à¦¤à¦¤
à¦£ à¦¬à¦¶
à¦£ à¦ļà¦ķ
à¦£ à¦¢
à¦£ à¦¬à¦Ń
à¦£ à¦ľà¦Ĺà¦¤
à¦¹ à¦ĸ
à¦¹ à¦¦à¦°
à¦¹ à¦¬à¦¦
à¦¹ à¦ķà¦¬
à¦¹ à¦§à¦°
à¦¹ à§İà¦ķ
à¦¹ à¦ħà¦¨
à¦¹ à¦®à§Ł
à¦¹ à¦¸à¦¬à¦ķ
à¦¹ à¦ıà¦Ĺ
à¦¹ à¦¬à¦¶à¦¤
Ġà¦¯ à¦ľà¦¨
Ġà¦¯ à¦®à¦°
Ġà¦¯ à¦¬à¦¨à¦¦
Ġà¦¯ à¦®à¦¸à¦Ń
Ġà¦ķà¦° à¦²à¦¤
Ġà¦ķà¦° à¦ķà¦°
Ġà¦ķà¦° à¦®à¦°
à¦ļ à¦·
à¦ļ à¦§
à¦ļ à¦Ļ
à¦ļ à§İ
à¦ļ à¦¸à¦¬
à¦ļ à§°
à¦ļ à¦®à¦ķ
à¦ļ à¦¤à¦²
à¦ļ à¦Ĩà¦ļ
à¦ļ à¦ĵà¦¡
à¦¥ à¦ŀ
à¦¥ à¦ľà¦¨
à¦¥ à¦¬à¦²
à¦¥ à¦¤à¦¤
à¦¥ à¦®à¦¯
à¦ĸ à¦®à¦¨
à¦ĸ à¦°à¦¬
à¦ĸ à¦¸à¦¬
à¦ĸ à§ľ
à¦ĸ à¦®à¦¤
à¦ĸ à¦ıà¦ĩ
à¦ĸ à¦ķà¦¶
Ġà¦¶ à¦£
Ġà¦¶ à¦ł
Ġà¦¶ à¦«
Ġà¦¶ à§Łà¦¤
Ġà¦¶ à¦ªà¦²
Ġà¦¶ à¦°à¦¸à¦¨
Ġà¦¶ à¦°à¦¶à¦¯
à¦Ń à¦®à¦£
à¦Ń à¦ıà¦ĩ
à¦Ń à¦¨à¦ķ
à¦Ń à¦ħà¦²
Ġà¦Ĺ à¦²à¦¬
Ġà¦Ĺ à§°
Ġà¦Ĺ à¦ľà¦®
Ġà¦ľ à¦¦
Ġà¦ľ à¦ĵà¦¯
Ġà¦ľ à¦°à¦¥
Ġà¦ľ à¦Łà¦²
Ġà¦ľ à¦®à¦²
Ġà¦ľ à¦²à¦ķà¦£
à¦¡ à¦¬à¦¶
à¦¡ à¦¸à¦¬à¦ķ
à¦¡ à¦¸à¦¹
à§ĥ à§į
à§Ł à¦¨à¦¤
à§Ł à¦ķà¦°
à§Ł à¦ķà¦°à¦£
à§Ł à¦®à¦Ĺ
à§Ł à¦ķà¦¦
à§Ł à¦Ĩà¦°
à§Ł à¦ıà¦Ł
à¦ĵ à¦ķà¦²
à¦ĵ à¦Ĩà¦®
à¦ĵ à§İà¦¸
Ġà¦Ń à¦®
Ġà¦Ń à¦°à¦ķ
Ġà¦Ń à¦ŀ
Ġà¦Ń à¦¬à¦¸
Ġà¦Ń à¦°à¦²
Ġà¦Ń à§Łà¦ķ
Ġà¦° à¦®à¦¤
Ġà¦° à¦Ĺà¦°
Ġà¦° à¦¥à¦¨
Ġà¦° à¦®à¦¯
Ġà¦° à¦ľà¦ķ
Ġà¦° à¦®à¦¸
Ġà¦° à¦ĩà¦¬
Ġà¦° à¦®à¦ª
Ġà¦° à¦¸à¦ķà¦·
Ġà¦° à¦«à¦¤
Ġà¦ļ à¦®à¦ļ
Ġà¦ī à¦°à¦¸
Ġà¦ĵ à¦¤à¦°
Ġà¦ĵ à¦Ŀ
Ġà¦ĵ à¦¸à¦®
Ġà¦ĵ à¦²à¦Ł
Ġà¦ĵ à¦®à¦°à¦ķ
Ġà¦ĵ à¦²à¦¡
Ġà¦Ĩà¦® à¦¤à¦²
Ġà¦¸à¦® à¦°à¦ķà¦¨
Ġà¦ıà¦ķ à¦¦à¦°
Ġà¦ıà¦ķ à¦°à¦¥
Ġà¦ıà¦ķ à¦ķà¦¬
Ġà¦ıà¦ķ à¦¸à¦ª
à¦Ļ à¦®
à¦Ļ à¦¡
à¦Ļ à¦ıà¦°
Ġà¦ªà¦° à¦Ń
Ġà¦ªà¦° à¦Ĺà¦£
à¦°à¦¤ à¦¦
à¦°à¦¤ à¦Ł
à¦°à¦¤ à¦®à¦£
à¦ł à¦ľ
à¦ł à¦§
à¦ł à¦°à¦¤
à¦ł à¦ł
à¦ł à¦«
à¦ł à¦Ĺà¦¤
à¦ł à¦ĸà¦¡
Ġà¦ħà¦¨ à¦¶à¦¨
Ġà¦ħà¦¨ à¦ªà¦¤
Ġà¦ħà¦¨ à¦¬à¦ļ
Ġà¦¥ à¦ª
Ġà¦Ľ à¦®à¦Ľ
à¦¬à¦¨ à¦®à¦¨
à¦¬à¦¨ à¦ªà¦¦
à¦¬à¦¨ à¦ıà¦¸à¦¬
à¦¬à¦¨ à¦¸à¦Ļ
à¦¬à¦¨ à¦¸à¦¬à¦ķ
à¦°à¦£ à¦ªà¦°
à¦°à¦£ à¦¸à¦¬
à¦°à¦£ à¦ıà¦¸à¦¬
Ġà¦² à¦°à¦¨
Ġà¦² à¦ĩà¦¤
Ġà¦² à§Łà¦¬à¦¦
Ġà¦¬à¦² à¦ľ
Ġà¦§ à¦ª
Ġà¦§ à¦¨à¦¸
à§Ī à¦Ĥ
à¦°à¦ķ à¦¸
à¦°à¦ķ à¦ł
à¦ŀ à¦¶
à¦ŀ à¦ĵ
à¦ŀ à¦ªà¦¤
à¦ŀ à¦Łà¦ľ
à¦ªà¦° à¦Ł
à¦ªà¦° à¦ļà¦¨
à¦ľà¦¨ à¦ªà¦¦
à¦ľà¦¨ à¦ıà¦ĩ
à¦ľà¦¨ à¦¸à¦¬à¦ĩ
à¦ľà¦¨ à¦Ĺà¦£
à¦¬à¦° à¦Ńà¦Ļ
à¦¬à¦° à¦¦à¦¸
à¦®à¦¨ à¦¯
à¦®à¦¨ à¦Ĺ
à¦®à¦¨ à¦ĵ
à¦ĸà¦¨ à¦ķ
Ġà¦« à§ľ
Ġà¦« à§Łà¦¸
à¦¤à¦° à¦¹
à¦¤à¦° à¦ŀ
à¦¤à¦° à¦ıà¦¸à¦¬
à¦¤à¦° à¦ľà¦Ĺà¦¤
Ġà¦ĸ à¦®
Ġà¦ĸ à¦Ł
Ġà¦ĸ à¦¸à¦¡
à§İ à¦²
à§İ à¦¦
à§İ à¦ĵ
à§İ à¦Ĺà¦£
Ġà¦®à¦¨ à¦Ĺ
Ġà¦®à¦¨ à¦ļ
Ġà¦®à¦¨ à¦®à¦¸
Ġà¦®à¦¨ à¦¨à¦ĩ
Ġà¦®à¦¨ à¦¶à¦°
Ġà¦ľà¦¨ à¦°
Ġà¦ľà¦¨ à¦²
Ġà¦ľà¦¨ à¦¹
Ġà¦ľà¦¨ à¦ļ
Ġà¦ľà¦¨ à¦¸à¦¨
à§Į à¦ĥ
à¦¤à¦¨ à¦°
à¦¤à¦¨ à¦¹
à¦¤à¦¨ à¦ľà¦¨
à¦¤à¦¨ à¦ıà¦ĩ
à¦¤à¦¨ à¦¸à¦¬à¦ĩ
à¦¯à¦¬ à¦ķ
à¦¯à¦¬ à¦¶
à¦¯à¦¬ à¦Ļ
à¦¯à¦¬ à¦ļà¦¨
à¦¯à¦¬ à¦ĩà¦¤
à¦¯à¦¬ à§Łà¦¸
Ġà¦ĩ à§Ł
Ġà¦ĩ à¦®à¦¤
Ġà¦ĩ à¦®à¦ªà¦°
Ġà¦ĩ à¦Łà¦ª
Ġà¦ĩ à¦Ńà¦¨
à¦ªà¦¨ à¦ª
ĠĠ âĢ¨
Ġà¦¹à¦² à¦°
Ġà¦¹à¦² à¦Ĺ
Ġà¦¹à¦² à¦Ńà¦¯
Ġà¦¹à¦² à¦ıà¦ķà¦Ł
à¦ı à¦ª
à¦ı à¦¡
à¦ı à¦®à¦¤
à¦ı à¦²à¦ķ
à¦ı à¦¤à¦Ł
à¦ı à¦ķà¦ķà¦¥
à¦ı à¦°à¦ªà¦°à¦ĩ
Ġà¦ĺ à¦·à¦¤
Ġà¦ĺ à¦¨à¦ķ
Ġà¦ĺ à¦°à¦ľ
Ġà¦ĺ à¦¨à¦¶
à¦°à¦® à¦Ĺ
Ġà¦ķà¦¥ à¦®
Ġà¦ķà¦¥ à¦¨à¦ķ
à¦°à¦¬ à¦¦à¦¨
à¦¸à¦¬ à¦¦
à¦¸à¦¬ à¦ķà¦Ł
à§ľ à¦Ł
à§ľ à¦ľ
à§ľ à¦ļ
à§ľ à¦«
à§ľ à¦¯à¦¨
à¦·à¦£ à¦ŀ
à¦·à¦£ à¦ı
à¦·à¦£ à¦¸à¦¬
à¦·à¦£ à¦ıà¦Ĺ
à¦« à¦¹
à¦« à¦¡
à¦« à¦ĵ
à¦ī à¦¶
à¦ī à¦Ń
à¦ī à¦ł
à¦ī à¦ŀ
à¦ī à¦ªà¦ķ
à¦ī à¦¨à¦¸
à¦ī à¦Łà¦°
à¦ī à¦ªà¦¬
à¦ī à¦ĩà§Ł
à¦ī à¦ªà¦ļ
à¦Ŀ à¦Ľ
à¦Ŀ à¦ļà¦²
à¦Ĺà¦¤ à¦¦
à¦°à¦¯ à¦¦
à¦°à¦¯ à¦ļ
Ġà¦¬à¦° à¦ĵ
Ġà¦Ĩà¦Ľ à¦¯
Ġà¦Ĩà¦Ľ à§Ł
à¦¨à¦¤ à¦ķ
à¦¨à¦¤ à¦¶
Ġà¦īà¦¦ à¦Ĺà¦¤
Ġà¦®à¦¤ à¦¸
Ġà¦īà¦ª à¦ªà¦¤
Ġà¦īà¦ª à¦²à¦Ń
Ġà¦ħà¦° à¦¡
à¦ķà¦² à¦¸
Ġà¦Ĩà¦² à¦ķ
à¦ļà¦¨ à¦¦
à¦ļà¦¨ à¦ª
à¦ļà¦¨ à¦Ł
à¦ļà¦¨ à¦ıà¦¸à¦¬
Ġà¦®à¦¹ à¦ķ
Ġà¦®à¦¹ à§İà¦¸
Ġà¦ħà¦¸ à¦®à¦ķ
Ġà¦ħà¦¸ à¦«à¦²
à¦²à¦¨ à¦Ń
à¦²à¦¨ à¦¸à¦¬
à¦²à¦¨ à¦ķà¦°
à¦²à¦¨ à¦ļà¦°
à¦²à¦¨ à¦ıà¦¸à¦¬à¦ĩ
à¦²à¦¨ à¦«à¦ķ
Ġà¦Ĩà¦¬ à¦ľ
à¦ĺ à¦¤
à¦ĺ à¦ĩ
à¦ĺ à¦·
à¦ĺ à¦ª
Ġà¦¸à¦¹ à¦°
Ġà¦¸à¦¹ à¦ħà¦¸
Ġà¦Ł à§Ł
Ġà¦Ł à¦«
Ġà¦Ł à¦¹à¦²
Ġà¦Ł à§Łà¦²
à¦®à¦¤ à¦ķ
à¦®à¦¤ à¦ĵ
à¦®à¦¤ à¦²à¦¬
à¦®à¦¤ à§İà¦ªà¦°à¦¤
Ġà¦ħà¦¤ à¦ĩ
à¦¨à¦¬ à¦Ń
à¦¨à¦¬ à¦¡
à¦¨à¦¬ à¦ªà¦°
à¦¨à¦¬ à§İ
à¦¨à¦¬ à¦¶à¦ķ
à¦¨à¦¬ à§İà¦¸
à¦¨à¦¬ à¦¦à¦²
à¦¨à¦¬ à¦ħà¦¸
à¦¨à¦¬ à¦Ĩà¦¤
à¦¨à¦¨ à¦ķ
à¦°à¦¹ à¦Ĺ
à¦°à¦¹ à¦ıà¦ĩ
à¦°à¦¹ à¦Ńà¦°
à¦²à¦¤ à¦ķ
à¦²à¦¤ à¦°à¦ķ
Ġà¦¬à¦¸ à¦¨à¦Ĺ
à¦¯à¦¤ à¦¦
à¦¬à¦² à¦¤à¦°
Ġà¦¨à¦¤ à¦¶
Ġà¦¡ à¦¨
Ġà¦¡ à¦¯
Ġà¦¡ à¦²à¦«
Ġà¦Ĩà¦ľ à¦¬à¦¸à¦®
Ġà¦ķà¦°à¦² à¦¦
Ġà¦īà¦ł à¦²à¦¬
Ġà¦¬à¦¨ à¦¦
Ġà¦¬à¦¨ à¦ª
Ġà¦ħà¦§ à¦¬
à¦§à¦¨ à¦ķà¦²
à¦§à¦¨ à¦²à¦¬
à¦§à¦¨ à¦ıà¦ĩ
à¦§à¦¨ à¦¶à¦ķ
à¦§à¦¨ à¦ıà¦¸à¦¬
à¦§à¦¨ à¦¦à¦¶
à¦ķà¦° à¦ľà¦¨
à¦ķà¦° à¦¦à¦°
à¦°à¦¨ à¦ķ
à¦Ĩ à¦°à¦®
à¦Ĩ à¦Ĺà¦¤
à¦Ĩ à¦¬à¦¦
à¦Ĩ à¦ĩà¦¤
à¦Ĩ à¦ĩà¦¸
à¦Ĩ à¦Łà¦Ł
à¦°à¦¶ à¦°
à¦°à¦¶ à¦Ļ
à¦¨à¦ĵ à¦ĸ
à¦¨à¦ĵ à¦¸à¦¬
à¦°à¦¦ à¦¯
à¦°à¦¦ à¦®
à¦¤à¦¬ à¦ļ
à¦¤à¦¬ à¦Ń
à¦¤à¦¬ à§ľ
à¦¤à¦¬ à¦¸à¦¨
Ġà¦Ĩà¦¤ à¦¸
Ġà¦Ĩà¦¤ à¦ª
Ġà¦Ĩà¦¤ à¦¶à¦¬
Ġà¦ªà¦¥ à¦¶
à¦ķà¦Ł à¦¸
à¦ķà¦Ł à¦¸à¦¹
à¦ķà¦Ł à¦ľà¦¨à¦ķ
Ġà¦¸à¦° à¦²à¦¸
à¦®à¦£ à¦ħà¦¤
à¦¶à¦¨ à¦¯
à¦¶à¦¨ à¦ľ
à¦¶à¦¨ à¦ļ
à¦¶à¦¨ à¦ıà¦¸à¦¬à¦ĩ
Ġà¦¬à¦²à¦² à¦¬
Ġà¦¬à¦²à¦² à¦¸
Ġà¦¬à¦²à¦² à¦ıà¦ĩ
Ġà¦¬à¦²à¦² à¦®à¦¹
Ġà¦¬à¦²à¦² à¦Ĩà¦ªà¦¨
à¦¯à¦® à¦¬
Ġà¦¹à§Ł à¦¯
Ġà¦¹à§Ł à¦ķ
Ġà¦ł à¦®à¦ķ
à¦²à¦ķ à¦®
à¦²à¦ķ à¦ĸà¦¨à¦ĵ
à¦²à¦¬ à¦ª
à¦²à¦¬ à¦Ĺ
Ġà¦°à¦ķ à¦«
Ġà¦ķà¦°à¦¬ à¦¯
Ġà¦ķà¦°à¦¬ à¦¬
Ġà¦ķà¦°à¦¬ à¦Ĩà¦®
à¦ªà¦¤ à¦¤
Ġà¦ıà¦¸ à¦¦
Ġà¦ıà¦¸ à¦¸
Ġà¦Ĩà¦Ĺ à¦¸
Ġà¦Ĩà¦Ĺ à¦ļ
à¦¬à¦¦ à¦®à¦¨à¦ķ
Ġà¦«à¦² à¦«
Ġà¦«à¦² à¦¬à¦¤
à¦¯à¦¨ à¦¦
Ġà¦Ĩà¦¨ à¦ķ
à¦¦à¦¨ à¦¬à¦¨
à¦¦à¦¨ à¦¸à¦¬
à¦¦à¦¨ à¦¸à¦®
Ġà¦īà§İ à¦¸à¦ķ
Ġà¦ĩà¦¤ à¦°à¦¤
Ġà¦¸à¦¨ à§İà¦ķ
Ġà¦¸à¦¨ à¦¦à¦ªà¦¤
Ġà§ °
à¦ħ à¦Ł
à¦ħ à¦¨à¦¸
à¦ħ à¦Łà¦²
à¦ħ à¦¸à¦¤
à¦ħ à¦¸à¦°à¦ķ
à¦ħ à¦¸à¦®à¦¯
à¦Ńà¦¬ à¦®
à¦°à¦Ń à¦°à¦¤à¦ª
Ġà¦ķà¦² à¦Ł
à¦¸à¦¨ à¦°
à§° à¦²
à§° à¦¸à¦¨
à§° à¦ļà¦²
à§° à¦²à¦®
à§° à¦¯à¦ľ
à§° à¦ªà¦ŀ
Ġà¦ķà¦¬ à¦¯
Ġà¦ķà¦¬ à¦Ľà¦°
Ġà¦Ĩà¦ªà¦¨ à¦ªà¦°
Ġà¦Ĩà¦ªà¦¨ à¦Ĩà¦ªà¦¨
Ġà¦Ĩà¦§ à¦ĺà¦£
à¦®à¦ķ à¦¸
à¦®à¦ķ à¦ĸà¦¨
à¦·à¦ķ à¦¬à¦¨
à¦·à¦ķ à¦¸à¦¬
à¦·à¦ķ à¦ıà¦ĩ
à¦·à¦ķ à¦Ĺà¦¬
à¦¯à¦¬à¦¸ à¦°
Ġà¦ĵà¦ł à¦²
à¦ªà¦¦ à¦¶
à¦ªà¦¦ à¦¸à¦®
à¦ªà¦¦ à¦®à¦¹
à¦ªà¦¦ à¦Ĩà¦ªà¦¦
à¦Ĺà¦° à¦ª
à¦Ĺà¦° à¦ĵ
à¦¤à¦® à¦¬
à¦¤à¦® à¦¦
à¦¤à¦® à¦¸
à¦¤à¦® à¦§
à¦¤à¦® à¦ªà¦¤
Ġà¦Ŀ à¦¤
Ġà¦Ŀ à¦²
Ġà¦Ŀ à¦°à¦£
Ġà¦Ŀ à¦Ĺà¦¬
Ġà¦Ĩà¦¶ à¦ķ
Ġà¦ķà¦® à¦¦
Ġà¦ķà¦® à¦¸
Ġà¦ķà¦® à¦ľ
Ġà¦ħà¦ª à¦¶
Ġà¦ħà¦ª à¦²à¦ķ
à¦ıà¦ĩ à¦Ĺ
à¦ĩà¦¨ à¦¦
à¦ĩà¦¨ à¦ıà¦°
à¦°à¦ĵ à¦·
à¦ļà¦² à¦¸à¦®
à¦Ĺà¦² à¦¶
à¦Ĺà¦² à¦ļ
à¦Ĺà¦² à¦ĵ
à¦Ĺà¦² à¦¬à¦¨
à¦Ĺà¦² à¦ı
à¦Ĺà¦² à¦ķà¦°
à¦Ĺà¦² à¦ĭà¦·
à¦Ĺà¦² à¦®à¦¹à¦²
Ġà¦²à¦ķ à¦¸
Ġà¦²à¦ķ à¦¡
à¦¶à¦ķ à¦ĵ
à¦¨à¦ķ à¦¦
à¦¨à¦ķ à¦ļ
Ġà¦ªà¦¦ à¦ªà¦¥
Ġà¦ĩà¦¨ à¦¶
à¦¬à¦ķ à¦®
à¦ªà¦ķ à¦®
à¦ªà¦ķ à¦Ĺ
à¦ªà¦ķ à¦ĵ
à¦ªà¦ķ à¦°à¦£
à¦°à¦¹à¦£ à¦¸à¦¬
à¦¤à¦ķ à¦ķ
à¦¤à¦ķ à¦¥
Ġà¦ľà¦² à¦ĩ
Ġà¦ľà¦² à¦ļ
Ġà¦ľà¦² à¦®à¦Ĺ
Ġà¦ľà¦² à¦Ńà¦°
à¦¬à¦¸ à¦ŀ
Ġà¦Ĺà¦² à¦Ĺà¦²
à¦¹à¦¸ à¦ķ
à¦¹à¦¸ à¦ĵ
à¦¸à¦° à¦¬à¦°
à¦¯à¦¸ à¦°à¦ķ
à¦ĩà¦² à¦¸
à¦ĩà¦² à¦ĩ
à¦ĩà¦² à¦ĵ
Ġà¦ħà¦® à¦¸
Ġà¦ħà¦® à¦°à¦ķ
à¦¯à¦¦ à¦²à¦Ĺ
à¦§à¦ķ à¦¥
à¦§à¦ķ à¦Ĺà¦£
à§Łà¦¨ à¦ĩ
Ġà¦ħà¦ªà¦° à¦Ł
Ġà¦¨à§Ł à¦¬à¦°
Ġà¦Ńà¦¬ à§İ
à¦¨à¦¸ à¦Ł
à¦¨à¦¸ à¦¤à¦¤
à¦¨à¦¸ à¦ķà¦¨
à¦¥à¦¨ à¦ĩ
à¦ķà¦¬ à¦ĩ
à¦®à¦¬ à¦¡
à¦ľà¦¸ à¦ķà¦²
à¦°à¦² à¦ľ
à¦°à¦² à¦Ļ
à¦°à¦² à¦ĺ
Ġà¦¸à¦ļ à¦²à¦¤
à¦¹à¦° à¦Ńà¦¬
à¦¬à¦¶ à¦¤à¦ĩ
Ġà¦ĭ à¦®à¦¨
Ġà¦ĭ à¦¤à¦¨
Ġà¦ĭ à¦·à¦¯
Ġà¦ĭ à¦ķà¦¬
à¦°à¦ľ à¦°
à¦°à¦ľ à¦ķ
à¦°à¦ľ à¦²
à¦°à¦ľ à¦¦
à¦°à¦ľ à¦Ĺ
à¦°à¦ľ à§Łà¦¨
à¦°à¦ľ à¦¬à¦°à¦¦à¦¸
à¦Łà¦ķ à¦¸
à¦Łà¦ķ à¦°à¦£
à¦Łà¦ķ à¦ļà¦²à¦ļ
à¦īà¦² à¦ªà¦¥
à¦¹à¦² à¦®
à¦¹à¦² à¦ĩ
à¦¹à¦² à¦ĵ
Ġà¦ķà¦¤ à¦²
Ġà¦ıà¦² à¦¸
Ġà¦ıà¦² à¦ĩà¦¡
Ġà¦¸à¦¹à¦ľ à¦¤
Ġà¦¸à¦¹à¦ľ à¦ª
à¦«à¦² à¦¸
à¦ªà¦¸ à¦Ń
à¦ªà¦¸ à¦Ļ
à¦ªà¦¸ à¦®à¦¨
à¦¸à¦² à¦Ń
Ġà¦īà¦² à¦Łà¦ª
à¦ľà¦ķ à¦¤à¦¨
à¦ªà¦· à¦ľ
à¦®à¦¸ à¦ľ
à¦Łà¦² à¦Ĺ
à¦°à¦ķà¦® à¦Ń
à¦·à¦® à¦®
Ġà¦Ĩà¦¦ à¦°à¦®
Ġà¦Ĺà¦£ à¦¸à¦ļ
à¦¸à¦ķ à¦®à¦£
à¦Ĺà¦¨ à¦¦
à¦Ĺà¦¨ à¦ĩ
à¦°à¦®à¦£ à¦¦
à¦°à¦®à¦£ à¦ľ
à¦°à¦®à¦£ à¦īà¦¦
Ġà¦Ĺà§ľ à¦Ľ
à¦¨à¦Ł à¦°
à¦¹à¦°à¦£ à¦ķ
à¦ķà¦°à¦£ à¦ĩ
à¦ķà¦°à¦£ à¦Ł
à¦ķà¦°à¦£ à¦ıà¦¸à¦¬
à¦ĩà¦ķ à¦¸
à¦ĩà¦ķ à¦ķà¦®
Ġà¦¶à¦¹à¦° à¦¬à¦¨
Ġà¦īà¦łà¦² à¦®à¦¨
Ġà¦īà¦ªà¦° à¦ĵ
à¦łà¦ķ à¦ĸ
à§İà¦¸ à¦¤
Ġà¦īà§İà¦¸ à¦¸
à¦Ĺà¦¬ à§İ
à¦§à¦¬ à¦¹
Ġà¦¬à¦ĩ à¦Ĩà¦²
Ġà¦¨à¦¬ à¦Ĺ
Ġà¦¨à¦¬ à¦°à¦¤
à¦¦à¦² à¦¯
à¦¦à¦² à¦ªà¦¦
à¦°à§Ł à¦¸
Ġà¦¸à¦Ń à¦¯
à¦Ĺà¦® à¦§
à¦Ĺà¦® à¦°à¦¤
à¦ķà¦¸ à¦ĩà¦¤
Ġà¦°à¦Ļ à¦§à¦¨
Ġà¦°à¦Ļ à¦¤à¦°à¦Ļ
Ġà¦ĵà¦ĩ à¦¦
Ġà¦¦à¦² à¦¸
Ġà¦¦à¦² à¦Ł
à¦ĩà¦¤ à¦¸
à¦·à¦¦ à¦¦
à¦·à¦¦ à¦¬à¦°
à¦°à¦ªà¦° à¦¨
à¦°à¦ªà¦° à¦®
à¦ľà¦¬ à¦¹
à¦ľà¦¬ à¦¸à¦¨
à¦¨à¦Ĺ à¦£
à¦¨à¦Ĺ à¦łà¦¨
Ġà¦īà§İà¦¸à¦¬ à¦ļ
Ġà¦īà§İà¦¸à¦¬ à¦¸à¦ķà¦²
Ġà¦īà§İà¦¸à¦¬ à¦Ĩà¦¯
Ġà¦īà§İà¦¸à¦¬ à¦Ĩà§Ł
à¦®à¦°à¦£ à¦ķ
Ġà¦°à¦¸ à¦Ł
Ġà¦°à¦¸ à¦ľ
Ġà¦§à¦°à¦¨ à¦§
Ġà¦¸à¦®à§Ł à¦ĵ
à¦ķà¦Ń à¦°
à¦¬à¦Ń à¦°
à¦¡à¦² à¦«
à¦¨à¦ª à¦²
Ġà¦§à¦¨ à¦®
Ġà¦ħà¦ľ à§Ł
à¦ªà¦£ à¦ĵ
à¦ķà¦¨ à¦ľà¦°
Ġà¦¨à¦ľà¦° à¦¬à¦¨
Ġà¦Ĩà¦ª à¦¶
Ġà¦Ĩà¦ª à¦§à¦°
à¦£à¦ķ à¦£
à¦®à¦ªà¦° à¦¬à¦°
à¦¬à¦® à¦¦
à¦¬à¦® à¦Ļ
à¦¨à¦ĩ à¦Ĩà¦®
à¦®à¦¹ à¦®
à¦®à¦¹ à¦¦
Ġà¦¦à¦°à¦ķ à¦·
Ġà¦¸à¦¦ à¦¬
Ġà¦¸à¦¦ à¦Ĺà¦¤
Ġà¦¬à¦²à¦¬ à¦ľ
à¦®à¦¦ à¦ª
à¦¯à§İ à¦ĵ
Ġà¦Ĩà¦ĩà¦¨ à¦Ĩà¦¦
Ġà¦Ĩà¦ļà¦°à¦£ à¦ª
à¦¤à¦¸ à¦ĩ
à¦¤à¦¸ à¦Ń
à¦²à¦¸ à¦«
à¦ĩà¦Ł à¦ľ
Ġà¦¦à¦¶ à§İ
Ġà¦¦à¦¶ à¦ľà¦¨à¦ķ
à¦ıà¦ķ à¦®
à¦®à¦ľ à¦®
à¦®à¦ª à¦ŀ
à¦¨à¦¶ à¦°
à¦¨à¦¶ à¦¤
à¦°à¦° à¦«
à¦²à¦Ń à¦¤
à¦ĸà¦ķ à¦Ĩà¦²
à¦Ĺà¦łà¦¨ à¦¦
à¦Ĺà¦łà¦¨ à¦¸à¦¬
à¦Ĺà¦£ à¦¤à¦¨
à¦·à§Ł à¦ĵ
Ġà¦ĸà¦¬à¦° à¦ªà¦¤
à¦®à¦¶ à¦¤à¦¬à¦°
Ġà§¨ à§§à§§à§
à¦īà¦¨ à¦ľ
Ġà¦¹à¦ĩ à¦ĵ
Ġà¦¸à¦°à¦² à¦°
Ġà¦¸à¦°à¦² à¦ļ
Ġà¦¸à¦°à¦² à¦®à¦¨
Ġà¦¸à¦°à¦² à¦®à¦¤
Ġà¦Ĺà¦łà¦¨ à¦Ł
à¦¬à¦ľà¦¨ à¦¸
à¦¬à¦ľà¦¨ à¦¸à¦®à¦ķ
à¦¦à¦¶ à¦°
Ġà¦ĺà¦¨ à¦ĺ
Ġà¦¬à§ľ à¦²
Ġà¦®à¦¨à¦¨ à¦§à¦°
à¦°à¦¥à¦®à¦¤ à¦®
à¦¸à¦¹ à¦ķà¦°
à¦¨à¦® à§İà¦¸
à¦¯à¦¶ à¦°
à¦¯à¦ľ à¦Ĺà§İ
à¦®à¦® à¦Ń
à¦®à¦® à¦ŀ
à¦¤à¦ĩ à¦¹
à¦¬à¦°à¦£ à¦¸
à¦¬à¦°à¦£ à¦ĵ
à¦¸à¦²à¦® à¦«
Ġà¦· à§ľà¦¯à¦¨
Ġà¦Ķ à¦°à¦Ļ
à¦®à¦ļ à¦ļ
Ġà¦ķà¦²à¦ķ à¦¬
à§« à§§
à¦Ĺà¦ľ à¦Ł
à¦ªà¦¬ à§Łà¦¸
à¦°à¦ļà¦² à¦®
Ġà¦Ńà¦°à¦¤ à¦ĩ
Ġà¦Ĭ à¦·à¦°
Ġà¦ªà¦°à¦¶ à¦®à¦£
à¦·à¦¸ à¦ĵ
à¦·à¦¸ à¦ķà¦²
à¦·à¦¸ à¦ĺà¦°
à¦¬à§Ł à¦ķ
Ġà¦ľà§Ł à¦Ł
à¦Ĺà¦°à¦£ à¦®
Ġà¦ĩà¦¹ à¦ľ
Ġà¦ĩà¦¹ à¦ľà¦¨
Ġà¦ĩà¦¹ à¦ľà¦Ĺà¦¤
à¦¯à¦Ł à¦ķà¦°
à¦¯à¦Ł à¦¨à¦ķ
à¦·à¦ª à¦²
à¦²à¦ª à¦ŀ
à¦ĭ à¦Ĺ
à§© à§©
à§© à§¬
à¦¸à¦¸ à¦ķà¦²
Ġà¦°à¦ľ à¦¬à¦¸
à¦²à¦ļ à¦¶à¦®
à¦£à¦Ĺ à¦ŀ
Ġà§© à§©
à¦Ĺà¦Ń à¦¬à¦¨
Ġà¦Ĩà¦ĸ à§ľ
à¦«à¦²à¦¨ à¦¶
à¦Łà¦® à¦ļà¦¨
à§Ń à§¦
à§Ń à§¦à§¦à§¦
à¦ªà¦² à¦¦
Ġà¦¦à¦¶à¦ķ à¦Ĺ
Ġà§§à§¯à§« à§®
à¦¦à¦ª à¦¹
à¦Ĺà¦¬à¦¤ à¦ı
Ġà¦Ĩà¦¬à¦¹ à¦®à¦£
à¦¨à¦ıà¦ĩ à¦Ł
à¦¨à¦ıà¦ĩ à¦¸à¦¬
Ġà¦ļà¦Ł à¦ļà¦Ł
à¦¨à¦Ĩ à¦¦
à¦¨à¦Ĩ à¦Ľ
à¦¨à¦Ĩ à¦ľà¦ĩ
Ġà¦ľà¦Ĺà§İ à¦ľ
à§°à¦¤ à¦¹
Ġà¦Ĩà¦Ł à¦·à¦Ł
Ġà¦¤à¦¨ à¦ĸ
à¦¬à§İ à¦ĩ
à§® à§§
à§® à§¯
à¦ıà¦ĸà¦¨ à¦ĵ
à¦¯à§Ł à¦ĵ
à¦ĩà¦¦ à¦¹
à¦Ĺà¦ł à¦¨à¦¬
à¦Ĺà¦ł à¦¨à¦¸
à§¬ à§Ń
Ġà§ª à§¨
Ġà§ª à§§
Ġà§ª à§¯
Ġà¦¬à¦ī à§Ł
Ġà§¨à§¦ à§¦à§¦
Ġà¦ĭà¦£ à¦¶
à¦Łà¦¸ à¦ĸ
Ġà¦¬à¦¦ à¦¹
Ġà¦ħà¦¬à¦¨ à¦®
ĠĠĠĠĠĠĠĠĠĠĠĠĠĠĠĠĠĠĠĠĠĠĠĠĠĠĠĠĠĠĠĠ ĠĠĠĠĠĠ
ĠĠĠĠĠĠĠĠĠĠĠĠĠĠĠĠĠĠĠĠĠĠĠĠĠĠĠĠĠĠĠĠ ĠĠĠĠĠĠĠ
ĠĠĠĠĠĠĠĠĠĠĠĠĠĠĠĠĠĠĠĠĠĠĠĠĠĠĠĠĠĠĠĠ ĠĠĠĠĠĠĠĠĠĠ
ĠĠĠĠĠĠĠĠĠĠĠĠĠĠĠĠĠĠĠĠĠĠĠĠĠĠĠĠĠĠĠĠ ĠĠĠĠĠĠĠĠĠ
Ġà¦ħà¦®à¦° à¦²
à¦īà¦¡ à¦Ń
Ġà¦ĵà§Ł à¦°
à¦§à¦¸ à¦ľ
Ġà¦ļà¦°à¦£ à¦ļ
Ġà¦ļà¦°à¦£ à¦¬à¦¨
Ġà¦¶à¦¶ à¦§à¦°
à¦¨à¦ı à¦¸
à¦¨à¦ı à¦ĵ
à¦¨à¦ı à¦ķà¦¬
à¦¨à¦ħ à¦¬
à¦¨à¦ħ à¦ľ
à¦¨à¦ħ à¦¶
à¦¨à¦ħ à¦Ĺ
à¦¨à¦ħ à¦¥à¦¬
Ġà§§à§¦ à§¦à§¦
Ġà¦¨à¦Ĺ à¦°à¦ĩ
Ġà¦¨à¦Ĺ à¦°à¦¸à¦®
Ġà¦ıà¦ķà¦ª à¦²à¦ķ
Ġà¦®à¦°à¦£ à¦ļ
Ġà¦®à¦°à¦£ à¦ĵ
Ġà¦¬à¦°à¦« à¦¶
à¦ĺà¦Łà¦¨ à¦ªà¦Ł
Ġà¦¨à¦°à¦ķ à¦ķ
Ġà¦¨à¦°à¦ķ à¦¯à¦¨
à¦Ĺà¦²à¦ķ à¦¬
Ġà§¬ à§¬
à¦īà¦ªà¦° à¦¨
Ġà¦Ĩà¦¬à¦°à¦£ à¦¹
Ġà§§à§® à§¦à§¦
Ġà§§à§® à§¯à§
Ġà§§à§® à§¬à§¦
Ġà§§à§® à§®à§ª
à¦¯à¦ľà¦¨ à¦¨
Ġà§Ń à§ª
Ġà§Ń à§¦à§¦
Ġà¦ķà¦¦ à§°
Ġà§§à§¯à§ª à§©
Ġà§§à§¯à§ª à§ª
Ġà§§à§¯à§ª à§®à§ªà§¯
à¦¨à¦ľà¦¨ à¦ĩ
Ġà¦Ĩà¦« à¦¤
à¦ıà¦¤ à¦¸à¦¬
Ġà§§à§© à§¦
Ġà§§à§© à§¨
Ġà§§à§© à§ª
Ġà§§à§© à§¦à§¦
à¦¨à¦¸à¦¬ à¦®
à¦²à¦¶ à¦¶
Ġà§§à§¨ à§§
Ġà¦Ĩà¦ªà¦¸ à¦¹
Ġà¦ķà¦²à¦¹ à¦ĩ
Ġà¦¶à¦¹à¦°à¦Ĺ à¦ŀ
Ġà¦¬à¦°à¦® à¦ļà¦¨
à¦ħà¦ª à¦ļà¦¯
Ġà§§à§¯à§® à§©
Ġà¦ķà¦¸ à¦°à¦¤
Ġà¦¦à¦°à¦¦ à¦¸
Ġà¦Ĺà¦ľ à¦¬à¦°
Ġà¦ªà¦łà¦¨ à¦¶
Ġà§§à§¯à§¨ à§«
Ġà§§à§¯à§¨ à§¯
Ġà§¨à§¦à§§à§ «
à¦£à¦¶ à¦¹à¦°
Ġà§§à§ª à§Ń
Ġà§§à§ª à§§à§§à§
à¦Ī à¦°
à¦Ī à¦¦
Ġà§¨à§¦à§¦ à§¨
Ġà§§à§¯à§§à§ §
Ġà§§à§¯à§§à§ ©
Ġà¦Ŀà§ľ à¦¬
Ġà¦Ŀà§ľ à¦Ŀà¦ŀ
à¦°à¦Ĩà¦ļà¦°à¦£ à¦ķ
Ġà§§à§¯à§¬ à§¨
Ġà§§à§¯à§¬ à§¬
à¦ĸà¦¬à¦° à¦Ł
à¦łà¦Ń à¦¬à¦¨
Ġà§§à§§à§ ¦
Ġà§§à§§à§ Ń
à§§à§¯à§ ¨à§¦
à¦°à¦ħ à¦¬à¦¸
Ġà¦ªà¦Łà¦² à¦ļ
Ġà¦ĩà¦¨à¦« à¦°à¦®
Ġà¦¶à¦¨ à¦¶à¦¨
Ġà¦ľà¦¹ à¦°à¦²
à¦ļà¦¦à¦¶ à¦Ł
Ġà¦ĭà¦ķ à¦®à¦¨
Ġà§§à§¯à§© à§¬
Ġà¦¬à§İà¦¸ à¦¦
Ġà§¯à§ ¯à§
Ġà§§à§¬ à§§
ĠĠĠĠĠĠĠĠĠĠĠĠĠĠĠĠĠĠĠĠĠĠĠĠ ĠĠ
ĠĠĠĠĠĠĠĠĠĠĠĠĠĠĠĠĠĠĠĠĠĠĠĠ ĠĠĠ
ĠĠĠĠĠĠĠĠĠĠĠĠĠĠĠĠĠĠĠĠĠĠĠĠ ĠĠĠĠĠĠ
Ġà¦ĩà¦¤à¦° à¦ľà¦¨
à§§à§¦ à§®
Ġà¦ĩà¦ī à¦Ń
Ġà¦ĩà¦ī à¦ı
à¦°à¦ľà¦¨à¦¨ à¦¶à¦ķ
Ġà§¨à§« à§©à§¦
Ġà¦¸à¦®à¦¤à¦² à¦Ń
Ġà§§à§¯à§¦ à§ª
Ġà¦ķà¦¦à¦® à¦«
Ġà¦Ĩà¦ī à¦Łà¦²
à¦¸à§İ à¦ļà¦°
Ġà¦ªà¦ª à¦Ĩà¦ª
à¦¬à¦°à¦² à¦¹à¦°
Ġà¦Ńà¦Ĺà¦¬à¦¦ à¦Ĺ
à¦®à¦Ŀ à¦®
Ġà¦Ĩà¦ªà¦¦ à¦§à¦°
Ġà¦Ĺà¦Ĺà¦¨ à¦ļ
Ġà¦Ĺà¦Ĺà¦¨ à¦Ń
à¦ªà¦°à¦¸ à¦Ĺà¦¨
à§ģà§ģ à§ģà§ģ
Ġà¦¹à¦ľ à¦¸à¦¨
Ġà¦¶à¦ķà¦Ł à¦Ńà¦ŀ
Ġà¦§à¦¨à¦¬ à¦£
à¦¨à¦ħà¦° à¦°à¦¶
Ġà¦ħà¦ĺà¦Łà¦¨ à¦ĺà¦Łà¦¨à¦ªà¦Ł
Ġà§©à§« à§«
à¦ĩà¦ī à§İà¦°
à¦·à¦¸à¦¬ à¦§
Ġà§¯à§¦ à§¦
Ġà¦°à¦£à¦¸ à¦ľ
Ġà¦īà¦ĩà¦ķ à¦ıà¦¨
à¦īà¦²à¦ĩ à¦¸à¦²
à¦¨à¦ıà¦ĸà¦¨ à¦ĵ
Ġà¦¬à¦¦à¦° à¦īà¦²à¦ĩà¦¸à¦²
à¦Ĺà¦°à¦¬ à§İ
à¦¬à¦¨à¦ļ à¦ŀ
Ġà¦ĩà¦Ĺ à¦Ńà¦°
Ġà§©à§Ń à§¨
à¦°à¦Ĺà¦² à¦Ń
Ġà¦¤à¦¦à¦¬ à¦§
à¦®à¦®à¦°à¦£ à¦¶
Ġà¦®à§Ł à¦®à¦¨à¦¸
à¦°à¦ī à¦ĩà¦¨
Ġà§§à§©à§¬ à§¯
à¦Ķ à¦¦
à¦ľà¦¸à¦° à¦ŀ
à¦¸à¦Ĩ à¦ªà¦¡
à¦¥à¦¸à¦¬ à¦²
Ġà¦¶à¦ĵ à¦ķà¦¤
Ġà¦°à¦¦à¦¬à¦¦ à¦²
Ġà§¯à§§à§ ¦
Ġà¦¸à¦¦à¦² à¦¬à¦²
Ġà¦¤à¦Ľà¦¨ à¦Ľ
Ġà¦°à¦Ĺà¦° à¦Ĺ
Ġà¦Ľà¦®à¦Ľ à¦®
Ġà¦ĩà¦®à¦ªà¦° à¦Ł
ĠĠâĢ¨ čĊč
à¦īà¦ĩà§Ł à¦°
Ġ à§ĭ
Ġà¦ Ĥ
à¦¾ à§į
à¦¾ à§ĭ
à¦° à¦°à¦¤
à¦° à¦²à¦¤
à¦° à¦ľà¦¸
à¦° à¦¢
à¦° à¦ħà¦¤
à¦° à¦ıà¦Ń
à¦° à¦Ĳà¦¤
à¦° à¦Ŀà¦°
à¦° à¦ħà¦Ń
à¦° à¦īà¦¤
à¦° à¦īà¦ª
à¦° à¦ħà¦ķ
à¦° à¦ħà¦®
à¦° à¦ħà¦¬
à¦° à¦īà§İà¦ª
à¦° à¦Ŀà¦¨
à§į à¦¾
à§į à§į
à¦¨ à¦ĸà¦¨
à¦¨ à¦Ŀ
à¦¨ à¦°à¦¹
à¦¨ à¦ķà¦Ł
à¦¨ à¦¯à¦®
à¦¨ à¦Ĺà¦²
à¦¨ à¦¯à¦¸
à¦¨ à¦«à¦²
à¦¨ à¦¹à¦¤
à¦¨ à¦¢
à¦¨ à¦°à¦®à¦£
à¦¨ à¦ªà¦Ł
à¦¨ à¦ľà¦¯
à¦¨ à¦²à¦®
à¦¨ à¦ľà¦®
à¦¨ à¦¸à¦®à¦¯
à¦¨ à¦īà¦Ł
à¦¨ à¦īà¦ĩ
à¦¨ à¦ıà¦Ń
à¦¨ à¦ĭà¦·
à¦¨ à¦īà§İà¦¸à¦¬
à¦¨ à¦ıà¦ķà¦ľà¦¨
à¦¨ à¦«à¦°
à¦¨ à¦ıà¦ķà¦ĩ
à¦¨ à¦ľà¦Ĺà§İ
à¦¨ à¦Ī
à¦¨ à¦«à¦¸
à¦¨ à¦Īà¦¶
à¦¨ à¦Ĭà¦°
à¦¨ à¦ķà¦¤à¦ķ
à¦¨ à¦²à¦¬à¦£
à¦¤ à¦ł
à¦¤ à¦ĵà¦¯
à¦¤ à¦ħ
à¦¤ à¦Ĺà¦°
à¦¤ à¦ļà¦²
à¦¤ à¦¶à¦¬
à¦¤ à¦¹à¦°à¦£
à¦¤ à§İà¦ķ
à¦¤ à¦ªà¦Ł
à¦¤ à¦ľà¦²
à¦¤ à¦ľà¦¨à¦ķ
à¦¤ à¦¶à¦°
à¦¤ à¦¥à¦¸
à¦¤ à¦īà§İà¦¸à¦¬
à¦¤ à¦Ĩà¦ķ
à¦¤ à¦¸à¦¬à¦ĸ
à¦¤ à¦ªà¦°à¦¬à¦°
à¦¤ à¦ľà¦¨à¦¦
à¦¤ à¦ħà¦®
à¦¤ à¦Ĩà¦¦
à¦¤ à¦ªà¦¦à¦¬
à¦¤ à¦īà¦·
à¦¤ à¦Ĩà¦Łà¦Ł
à¦¯ à¦°à¦¶
à¦¯ à¦Ĺà¦²
à¦¯ à¦¹à¦¸
à¦¯ à¦°à¦ļ
à¦¯ à¦Ĩà¦®
à¦¯ à¦ľà¦¤
à¦¯ à¦ıà¦ķ
à¦¯ à¦ľà¦²
à¦¯ à¦²à¦Ĺ
à¦¯ à¦īà¦¨
à¦¯ à¦Ĩà¦°
à¦¯ à¦ıà¦ķà¦Ł
à¦¯ à¦īà¦¦
à¦¯ à¦¨à¦¤à¦®
à¦¯ à¦Ĺà¦¤à¦Ń
à¦¯ à¦īà¦¤
à¦¯ à¦ĺà¦Łà¦¨
à¦¯ à¦¬à¦¨à¦®
à¦¯ à¦Ĩà¦ļ
à¦¯ à¦ªà¦°à¦¬à¦°
à¦¯ à¦ħà¦ª
à¦¯ à¦ĭà¦£
à¦¯ à¦īà¦ªà¦¨
à¦¯ à¦Ĩà¦¶
à¦¯ à¦īà§İà¦ª
à¦ķ à¦Ļ
à¦ķ à¦ŀ
à¦ķ à¦ĺ
à¦ķ à¦ķà¦Ł
à¦ķ à¦®à¦£
à¦ķ à¦·à¦ķ
à¦ķ à¦ĩà¦¨
à¦ķ à¦¹à¦¸
à¦ķ à¦¯à¦¦
à¦ķ à¦ĵà§Ł
à¦ķ à¦ľà¦¸
à¦ķ à¦¨à¦Ł
à¦ķ à¦ķà¦°à¦£
à¦ķ à¦ĩà¦ķ
à¦ķ à¦łà¦ķ
à¦ķ à¦¦à¦²
à¦ķ à¦ĩà¦¤
à¦ķ à¦ľà¦®
à¦ķ à¦ļà¦¤
à¦ķ à¦°à¦¸à¦®
à¦ķ à¦Ĩà¦ķ
à¦ķ à¦ıà¦¤
à¦ķ à¦¸à¦¬à¦ĸ
à¦ķ à¦ħà¦®
à¦ķ à¦Ĩà¦¦
à¦ķ à¦ħà¦²
à¦ķ à¦°à¦¤à¦²
à¦ķ à¦Ĩà¦ļà¦°à¦£
à¦¬ à¦«
à¦¬ à¦¹à¦°
à¦¬ à¦Ĩà¦®
à¦¬ à¦®à¦Ĺ
à¦¬ à¦®à¦°à¦£
à¦¬ à¦īà¦°
à¦¬ à§İà¦ª
à¦¬ à¦ıà¦Ĺ
à¦¬ à¦ıà¦®à¦¨
à¦¬ à¦īà¦¤
à¦¬ à¦ĺà¦Łà¦¨
à¦¬ à¦²à¦¨à¦ķ
à¦¬ à¦ħà¦¹
à¦² à¦ľà¦¨
à¦² à¦ªà¦¨
à¦² à¦¬à¦¤
à¦² à¦ªà¦¦
à¦² à¦ªà¦ķ
à¦² à¦īà¦²
à¦² à¦¹à¦¤
à¦² à¦®à¦¸
à¦² à¦¸à¦ķ
à¦² à¦Ĺà¦¨
à¦² à¦²à¦®
à¦² à¦Ĺà¦£
à¦² à¦ıà¦¸à¦¬à¦ĩ
à¦² à¦¦à¦ķ
à¦² à¦ħà¦¤
à¦² à¦Ĩà¦®à¦°
à¦² à¦°à¦Ļ
à¦² à¦§à¦¨à¦ķ
à¦² à¦ıà¦ĸà¦¨
à¦² à¦Ĩà¦ļ
à¦² à¦Ĩà¦¬
à¦² à¦ħà¦®
à¦² à¦§à¦²
à¦² à¦ħà¦¬
à¦² à¦Ĩà¦¦
à¦² à¦ıà¦ķà¦¬
à¦® à¦°à¦¬
à¦® à¦¸à¦²
à¦® à¦¦à¦²
à¦® à¦Ńà¦Ļ
à¦® à¦®à¦§
à¦® à¦®à¦ª
à¦® à¦®à§Ł
à¦® à¦¸à¦®à¦¯
à¦® à¦¥à¦¸
à¦® à¦ıà¦Ĺ
à¦® à¦ħà¦¸
à¦® à¦¤à¦°à¦Ļ
à¦® à¦ħà¦ķ
à¦® à¦ıà¦¤
à¦® à¦Ĩà¦¶
à¦® à¦ıà¦ķà¦¬
à¦® à¦Ĩà¦¯
à¦¼ à§Į
Ġà¦¸ à¦¥
Ġà¦¸ à¦¬à¦°
Ġà¦¸ à§ľ
Ġà¦¸ à¦°à¦¹
Ġà¦¸ à¦°à¦¦
Ġà¦¸ à¦¦à¦¨
Ġà¦¸ à¦ĩà¦²
Ġà¦¸ à¦§à¦¬
Ġà¦¸ à¦ªà¦¥
Ġà¦¸ à¦ĩà¦Ľ
Ġà¦¸ à¦īà¦¦
Ġà¦¸ à¦ĺà¦¨
Ġà¦¸ à¦¶à¦Ļ
Ġà¦¸ à§Łà¦²
Ġà¦¸ à¦ªà¦¸à¦ª
Ġà¦ķ à¦Ĺ
Ġà¦ķ à¦Ľ
Ġà¦ķ à¦¬à¦¨
Ġà¦ķ à¦¤à¦¨
Ġà¦ķ à¦Ĩ
Ġà¦ķ à¦¸à¦°
Ġà¦¬ à¦°à¦¤
Ġà¦¬ à¦¤à¦°
Ġà¦¬ à¦ĵà¦¯
Ġà¦¬ à¦ķà¦¤
Ġà¦¬ à¦¬à¦²
Ġà¦¬ à¦¢
Ġà¦¬ à¦·à¦Ł
Ġà¦¬ à¦¦à¦¸
Ġà¦¬ à¦¨à¦¤à¦²
Ġà¦ª à¦·
Ġà¦ª à¦¦à¦°
Ġà¦ª à¦ªà¦ķ
Ġà¦ª à¦ªà¦²
Ġà¦ª à¦ļà¦Ľ
à¦¦ à¦ªà¦°
à¦¦ à§İ
à¦¦ à¦²à¦¨
à¦¦ à¦²à¦¬
à¦¦ à¦¬à¦ª
à¦¦ à¦¬à¦¬
à¦¦ à¦Ĺà¦²
à¦¦ à¦¬à¦ķ
à¦¦ à¦¬à¦¸
à¦¦ à¦Ľà¦¨
à¦¦ à¦īà¦²
à¦¦ à¦ªà¦Ł
à¦¦ à¦Ĺà¦łà¦¨
à¦¦ à¦ħà¦¸
à¦¦ à¦Ĩà¦¤
à¦¦ à¦Ĩà¦¨
à¦¦ à¦Ĩà¦¬
à¦¦ à¦Ĩà¦¹
à¦¸ à¦¥
à¦¸ à¦¤à¦°
à¦¸ à¦ªà¦¨
à¦¸ à¦°à¦¬
à¦¸ à§ľ
à¦¸ à¦¨à¦¤
à¦¸ à¦°à¦¶
à¦¸ à¦¤à¦¬
à¦¸ à¦ķà¦Ł
à¦¸ à¦ªà¦¦
à¦¸ à¦ħà¦¨
à¦¸ à¦Łà¦¨
à¦¸ à¦ıà¦ķ
à¦¸ à¦Łà¦¬
à¦¸ à¦¦à¦®
à¦¸ à¦Ĩà¦ª
à¦¸ à¦°à¦¤à¦ķ
à¦¸ à¦¸à¦¬à¦ĸ
à¦¸ à¦ħà¦¬
à¦¸ à¦īà¦Ńà¦¯
à¦¸ à¦Ĩà¦¡
à¦¸ à¦°à¦¸à¦¤
à¦¸ à¦ªà¦¨à¦¸
Ġà¦Ĩ à¦ĸà¦¨
Ġà¦Ĩ à¦¦à¦¨
Ġà¦Ĩ à¦Łà¦²
Ġà¦Ĩ à¦ĩà¦¬
Ġà¦Ĩ à¦Łà¦¤
Ġà¦Ĩ à¦ªà¦¦à¦ķ
Ġà¦Ĩ à¦ªà¦¦à¦¬
Ġà¦Ĩ à¦¤à¦°à¦¦
à¦ĩ à¦Ļ
à¦ĩ à¦ł
à¦ĩ à¦ªà¦¨
à¦ĩ à¦°à¦¸
à¦ĩ à¦¨à¦¤
à¦ĩ à¦°à¦¨
à¦ĩ à¦²à¦ķ
à¦ĩ à¦¦à¦¨
à¦ĩ à¦¶à¦¬
à¦ĩ à¦¤à¦²
à¦ĩ à¦ªà¦¥
à¦ĩ à¦¸à¦¤
à¦ĩ à¦®à¦¹
à¦ĩ à¦Łà¦¨
à¦ĩ à¦ıà¦¸à¦¬à¦ĩ
à¦ĩ à¦¹à¦¯
à¦ĩ à¦ħà¦¤
à¦ĩ à¦¶à¦¤
à¦ĩ à¦Ĩà¦ľà¦ķ
à¦ĩ à¦ıà¦®à¦¨
à¦ĩ à¦Ĩà¦²
à¦ĩ à¦ħà¦¸
à¦ĩ à¦¸à¦®à§Ł
à¦ĩ à¦īà¦Ńà¦¯
à¦ĩ à¦Ĩà¦¡
à¦ĩ à¦Ĩà¦ĩ
à¦ĩ à¦ħà¦¦
à¦ĩ à¦Ŀà¦Ĺà¦¡
à¦· à¦¬à¦¨
à¦· à¦¤à¦°
à¦· à¦°à¦¶
à¦· à¦°à¦¦
à¦· à¦°à¦ĩ
à¦· à¦¶à¦ķ
à¦· à¦®à¦¬
à¦· à¦°à¦ª
à¦· à¦ıà¦¸à¦¬
à¦· à¦ļà¦ķ
à¦· à¦°à¦ªà¦°
à¦· à¦ħà¦¨
à¦· à¦¨à¦ĩ
à¦· à¦Ńà¦¯
à¦· à¦²à¦Ĺ
à¦· à¦¸à¦ª
à¦· à¦ľà¦®
à¦· à¦¬à¦£
à¦· à¦īà§İà¦¸à¦¬
à¦· à¦ľà¦¨à¦¦
à¦· à¦ľà¦¨à¦ĵ
à¦ª à¦ªà¦¨
à¦ª à¦®à¦¤
à¦ª à¦²à¦¤
à¦ª à¦Ĩ
à¦ª à¦ªà¦¦
à¦ª à¦Ĺà¦²
à¦ª à¦¶à¦ķ
à¦ª à¦®à¦°
à¦ª à¦Ľà¦¨
à¦ª à¦¥à¦¨
à¦ª à¦¹à¦²
à¦ª à¦Ńà¦Ļ
à¦ª à¦²à¦¸
à¦ª à¦ıà¦ķ
à¦ª à¦°à¦ķà¦²
à¦ª à¦Ĩà¦°
à¦ª à¦ľà¦Ĺ
à¦ª à¦ľà¦Ĺà¦¤
à¦ª à¦¸à¦®à§Ł
à¦ª à¦Ĺà¦¤à¦Ń
à¦ª à¦Ĩà¦¨à¦¨
Ġà¦® à¦®à¦¨
Ġà¦® à§ľ
Ġà¦® à¦Ĺà¦¤
Ġà¦® à¦°à¦¹
Ġà¦® à¦²à¦¤
Ġà¦® à¦°à¦¨
Ġà¦® à¦Ĺà¦°
Ġà¦® à¦¶à¦ķ
Ġà¦® à¦°à¦ļ
Ġà¦® à¦Łà¦¨
Ġà¦® à¦¦à¦®
Ġà¦® à¦Ĺà¦¡
Ġà¦® à¦²à¦¦
Ġà¦® à¦²à¦®à¦²
Ġà¦® à¦ĺà¦¬
Ġà¦® à¦ĩà¦§
Ġà¦® à¦¸à¦¨à¦¦
Ġà¦¨ à¦ľà¦¨
Ġà¦¨ à¦«
Ġà¦¨ à¦ĵà¦¯
Ġà¦¨ à¦¨à¦¬
Ġà¦¨ à¦§à¦°
Ġà¦¨ à¦°à¦ª
Ġà¦¨ à¦Łà¦¨
Ġà¦¨ à¦°à¦ĸ
Ġà¦¨ à¦°à¦¬à¦²
Ġà¦¨ à¦ĩà¦®
Ġà¦¨ à¦ĵà¦°
Ġà¦¨ à¦ĺà¦¸
Ġà¦¨ à¦ĸà¦ļ
Ġà¦¨ à¦Ńà¦Ĺ
Ġà¦¨ à¦ĵà¦¦
Ġà¦¨ à¦Ļà¦°
à¦Ł à¦¬à¦¨
à¦Ł à¦°à¦ķ
à¦Ł à¦®à¦¨
à¦Ł à¦°à¦¯
à¦Ł à¦®à¦£
à¦Ł à¦ªà¦¦
à¦Ł à¦¬à¦¯
à¦Ł à¦®à¦¬
à¦Ł à¦¸à¦¤
à¦Ł à¦ıà¦¸à¦¬à¦ĩ
à¦Ł à¦ľà¦¨à¦ķ
à¦Ł à¦ıà¦ķà¦Ł
à¦Ł à¦ıà¦Ł
à¦Ł à¦ķà¦²à¦¨
à¦Ł à¦®à¦Łà¦®
à¦Ł à¦Ĩà¦īà¦Ł
Ġà¦ı à¦ļ
Ġà¦ı à§Ł
Ġà¦ı à¦°à¦¤
Ġà¦ı à¦¬à¦¨
Ġà¦ı à¦²à¦¨
Ġà¦ı à¦²à¦¤
Ġà¦ı à¦ªà¦ķ
Ġà¦ı à¦ªà¦¸
Ġà¦ı à¦¨à¦Ł
Ġà¦ı à¦ªà¦¥
Ġà¦ı à¦ĺà¦°
Ġà¦ı à¦ľà¦®
Ġà¦ı à¦®à¦¡
Ġà¦ı à¦ĺà¦Łà¦¨
Ġà¦ı à¦¸à¦®à¦¸
à¦ľ à¦«
à¦ľ à¦¬à¦²
à¦ľ à¦°à¦¨
à¦ľ à¦°à¦ĩ
à¦ľ à¦¬à¦ķ
à¦ľ à¦Ĩà¦®
à¦ľ à¦²à¦¸
à¦ľ à¦²à¦Ń
à¦ľ à¦Ńà¦ķ
à¦ľ à¦Ĳà¦¤
à¦ľ à¦ıà¦ĩà¦¸à¦¬
à¦ľ à¦«à¦«à¦°
à¦¶ à¦£
à¦¶ à¦°à¦£
à¦¶ à¦¤à¦¨
à¦¶ à¦°à¦¬
à¦¶ à¦¨à¦¤
à¦¶ à¦°à¦¥
à¦¶ à¦ªà¦¤
à¦¶ à¦¬à¦¦
à¦¶ à¦¬à¦ª
à¦¶ à¦¬à¦¬
à¦¶ à¦°à¦ĵ
à¦¶ à¦¶à¦ķ
à¦¶ à¦Ĩà¦®
à¦¶ à¦°à¦Ĺ
à¦¶ à¦ıà¦ķ
à¦¶ à¦®à§Ł
à¦¶ à¦¦à¦ķ
à¦¶ à¦ħà¦°
à¦¶ à¦Ĩà¦²
à¦¶ à§Łà¦Ĺ
à¦¶ à¦ħà¦¬
Ġà¦¤ à¦ĩ
Ġà¦¤ à¦·
Ġà¦¤ à¦°à¦®
Ġà¦¤ à¦¸à¦¬
Ġà¦¤ à¦°à¦¸
Ġà¦¤ à¦Ĺà¦¤
Ġà¦¤ à¦ļà¦¨
Ġà¦¤ à¦¦à¦°
Ġà¦¤ à¦¨à¦¯
Ġà¦¤ à¦®à¦¸
Ġà¦¤ à¦®à¦Ĺ
Ġà¦¤ à¦¦à¦Ĺ
Ġà¦¤ à¦Łà¦°
Ġà¦¤ à¦°à¦¤à¦®
à¦Ĺ à¦¤à¦¨
à¦Ĺ à¦«
à¦Ĺ à¦ĺ
à¦Ĺ à¦¨à¦¬
à¦Ĺ à¦¬à¦¬
à¦Ĺ à¦ªà¦¦
à¦Ĺ à¦¨à¦ķ
à¦Ĺ à¦ªà¦ķ
à¦Ĺ à¦®à¦°
à¦Ĺ à¦¸à¦°
à¦Ĺ à¦£à¦¤
à¦Ĺ à¦Ĺà¦¨
à¦Ĺ à¦°à¦®à¦£
à¦Ĺ à¦Ĩà¦®
à¦Ĺ à¦®à¦²
à¦Ĺ à¦£à¦¨
à¦Ĺ à¦īà¦¨
à¦Ĺ à¦ļà¦®
à¦Ĺ à¦ıà¦Ĺ
à¦Ĺ à¦¬à¦¸à¦¤
Ġà¦¦ à¦Ļ
Ġà¦¦ à¦²à¦¨
Ġà¦¦ à¦¶à¦¨
Ġà¦¦ à¦®à¦¯
Ġà¦¦ à¦ĩà¦ķ
Ġà¦¦ à¦ĩà¦¬
Ġà¦¦ à¦ĩà¦¦
Ġà¦¦ à¦¦à¦¤
Ġà¦¦ à¦ªà¦¦à¦ª
Ġà¦ħ à¦Ĩ
Ġà¦ħ à¦Ĺà¦°
Ġà¦ħ à¦¶à¦¬
Ġà¦ħ à¦Ľà¦²
à¦§ à¦¤à¦¨
à¦§ à¦°à¦¬
à¦§ à¦¨à¦¨
à¦§ à¦°à¦¦
à¦§ à¦²à¦ķ
à¦§ à¦¬à¦¸
à¦§ à¦Ĩà¦®
à¦§ à§İà¦¸
à¦§ à¦ħà¦¨
à¦§ à¦ıà¦¸à¦¬à¦ĩ
à¦§ à¦¯à¦ľ
à¦§ à¦ħà¦¤
à¦§ à¦¶à¦°
à¦§ à¦īà¦ªà¦¨
à¦§ à¦ħà¦¬
à¦§ à¦ħà¦²
à¦§ à¦łà¦¯
Ġà¦¹ à¦¶
Ġà¦¹ à¦£
Ġà¦¹ à¦°à¦ķ
Ġà¦¹ à¦°à¦¨
Ġà¦¹ à¦¸à¦¨
Ġà¦¹ à¦¨à¦¸
Ġà¦¹ à¦¦à¦¯
Ġà¦¹ à¦°à¦Ĺ
Ġà¦¹ à¦īà¦¨
à¦Ľ à¦¶
à¦Ľ à¦§
à¦Ľ à¦¸à¦¬
à¦Ľ à¦«
à¦Ľ à¦°à¦ĩ
à¦Ľ à¦¦à¦¨
à¦Ľ à¦¸à¦¹
à¦Ľ à¦¸à¦¬à¦ľ
à¦Ľ à¦ªà¦¸à¦¹
à¦£ à¦¡
à¦£ à¦ľà¦¨
à¦£ à¦ī
à¦£ à¦Ŀ
à¦£ à¦¨à¦¬
à¦£ à¦¬à¦²
à¦£ à¦§à¦¨
à¦£ à¦Ĺà¦¨
à¦£ à¦ıà¦°
à¦£ à¦ļà¦¤
à¦£ à¦¸à¦Ń
à¦£ à¦Ĩà¦²
à¦£ à¦ªà¦¦à¦ķ
à¦¹ à¦¥
à¦¹ à¦¡
à¦¹ à¦ŀ
à¦¹ à¦ľà¦¨
à¦¹ à¦¬à¦°
à¦¹ à¦¤à¦°
à¦¹ à¦¨à¦¤
à¦¹ à¦ķà¦¤
à¦¹ à¦¨à¦¨
à¦¹ à¦¸à¦¨
à¦¹ à¦Ĺà¦°
à¦¹ à¦¤à¦®
à¦¹ à¦ıà¦ĩ
à¦¹ à¦¬à¦¸
à¦¹ à¦°à¦²
à¦¹ à¦¬à¦¶
à¦¹ à¦ıà¦¸à¦¬
à¦¹ à¦¨à¦°
à¦¹ à¦Ĺà¦¨
à¦¹ à¦£à¦ķ
à¦¹ à¦ıà¦¸à¦¬à¦ĩ
à¦¹ à¦ĺà¦¨
à¦¹ à¦®à¦¨à¦ķ
à¦¹ à¦ľà¦¨à¦ķà¦Ń
Ġà¦¯ à¦°
Ġà¦¯ à¦ĸ
Ġà¦¯ à¦¶à¦ķ
Ġà¦ķà¦° à¦Ĺ
Ġà¦ķà¦° à¦®à¦Ĺ
Ġà¦ķà¦° à¦®à¦ļ
à¦¼à§ĩ à¦¾
à¦¼à§ĩ à¦ĥ
à¦ļ à¦ĸ
à¦ļ à¦°à¦¤
à¦ļ à¦ªà¦°
à¦ļ à¦ķà¦¬
à¦ļ à¦®à¦¯
à¦ļ à¦®à§Ł
à¦ļ à¦¸à¦¬à¦ķ
à¦ļ à¦ªà¦²
à¦ļ à¦ľà¦¨à¦ĵ
à¦ļ à¦Ľà¦Ł
à¦ļ à¦°à¦®à¦¯
à¦ļ à¦Ĩà¦¯
à¦ļ à¦Ĩà¦Ł
à¦¥ à¦¬à¦°
à¦¥ à¦°à¦¬
à¦¥ à¦¨à¦ĵ
à¦¥ à¦²à¦ķ
à¦¥ à¦ªà¦¦
à¦¥ à¦®à¦°
à¦¥ à¦°à¦ª
à¦¥ à¦°à¦Ł
à¦¥ à¦°à¦ĸ
à¦¥ à¦²à¦Ĺ
à¦¥ à¦¦à¦¶
à¦¥ à¦ħà¦Ń
à¦ĸ à¦§
à¦ĸ à¦ªà¦°
à¦ĸ à¦«
à¦ĸ à¦¦à¦°
à¦ĸ à¦°à¦¦
à¦ĸ à¦¬à¦¦
à¦ĸ à¦¬à¦ª
à¦ĸ à¦¸à¦¨
à¦ĸ à¦¬à¦¯
à¦ĸ à¦°à¦ĵ
à¦ĸ à¦§à¦°
à¦ĸ à¦ıà¦¸à¦¬
à¦ĸ à¦ļà¦ķ
à¦ĸ à¦¸à¦Ļ
à¦ĸ à¦®à§Ł
à¦ĸ à¦ħà¦¸
à¦ĸ à¦ľà¦¨à¦ķà¦Ń
à¦ĸ à¦²à¦¬à¦¦
Ġà¦¶ à¦·
Ġà¦¶ à§Ł
Ġà¦¶ à¦¬à¦°
Ġà¦¶ à¦®à¦¨
Ġà¦¶ à¦ķà¦¤
Ġà¦¶ à¦ļà¦¨
Ġà¦¶ à¦°à¦¨
Ġà¦¶ à¦ªà¦ķ
Ġà¦¶ à¦®à¦¯
Ġà¦¶ à¦¤à¦°à¦Ļ
Ġà¦¶ à¦¬à¦¨à¦®
à¦Ń à¦¶
à¦Ń à¦¡
à¦Ń à¦¸à¦¬
à¦Ń à¦¨à¦¬
à¦Ń à¦°à¦¦
à¦Ń à¦²à¦¬
à¦Ń à¦ķà¦ķ
à¦Ń à¦¶à¦¯
à¦Ń à¦¸à¦¦
à¦Ń à¦ıà¦Ĺ
à¦Ń à¦Ĺà¦¬à¦¨
à¦Ń à¦ħà¦¹
Ġà¦Ĺ à¦Ł
Ġà¦Ĺ à¦¬à¦°
Ġà¦Ĺ à¦¨à¦¨
Ġà¦Ĺ à¦°à¦¦
Ġà¦Ĺ à¦ľà¦ķ
Ġà¦Ĺ à¦¢
Ġà¦Ĺ à¦ľà¦°
Ġà¦Ĺ à¦ľà¦Ĺ
Ġà¦ľ à¦ł
Ġà¦ľ à¦ªà¦¨
Ġà¦ľ à¦°à¦®
Ġà¦ľ à¦Ĺà¦²
Ġà¦ľ à¦ªà¦ķ
Ġà¦ľ à¦°à¦ľ
Ġà¦ľ à§Łà¦¤
Ġà¦ľ à¦ĸà¦®
Ġà¦ľ à¦ĵà¦¹
à¦¡ à¦Ĩ
à¦¡ à¦¬à¦ª
à¦¡ à¦ıà¦ĩ
à¦¡ à¦ĸà¦£
à¦¡ à¦ķà¦®
à¦¡ à¦ªà¦ª
à¦¡ à¦ħà¦¸
à¦¡ à¦Ĩà¦ª
à¦¡ à¦ıà¦«
à§Ł à¦¸à¦¬
à§Ł à¦ķà¦¤
à§Ł à¦¨à¦¬
à§Ł à¦¨à¦ĵ
à§Ł à¦¤à¦®
à§Ł à¦¯à¦¦
à§Ł à¦§à¦°
à§Ł à¦Ĩà¦®
à§Ł à¦ĩà¦¤
à§Ł à¦®à§Ł
à§Ł à¦ıà¦ķà¦Ł
à§Ł à¦Ĩà¦®à¦°
à§Ł à¦ıà¦ķà¦¯
à¦ĵ à¦¥
à¦ĵ à¦ı
à¦ĵ à¦°à¦¦
à¦ĵ à¦ıà¦ĩ
à¦ĵ à¦®à¦¯
à¦ĵ à¦¤à¦²
Ġà¦Ń à¦ķà¦¤
Ġà¦Ń à¦²à¦¤
Ġà¦Ń à¦¬à¦ķ
Ġà¦Ń à¦ľà¦¸
Ġà¦° à¦°
Ġà¦° à¦Ĺ
Ġà¦° à¦¡
Ġà¦° à¦Łà¦²
Ġà¦° à¦ľà¦°
Ġà¦° à¦®à¦®
Ġà¦° à¦£à¦®
Ġà¦° à¦Ńà¦¸
à§Ĥ à§į
Ġà¦ļ à¦¸
Ġà¦ļ à§Ł
Ġà¦ļ à¦°à¦¤
Ġà¦ļ à¦°à¦¸
Ġà¦ļ à¦ķà¦°
Ġà¦ļ à¦°à¦¦
Ġà¦ļ à¦¶à¦ķ
Ġà¦ī à¦Ľ
Ġà¦ī à¦ĸ
Ġà¦ī à¦ľà¦¬
Ġà¦ī à¦¬à¦Ł
Ġà¦ī à¦ĩà¦«
Ġà¦ī à§ľà¦Ľ
Ġà¦ī à¦¸à¦ĸ
Ġà¦ĵ à¦§
Ġà¦ĵ à¦°à¦ĵ
Ġà¦ĵ à¦ľà¦°
Ġà¦ĵ à¦ķà¦¥
Ġà¦ĵ à¦Łà¦¸
Ġà¦ĵ à§ľà¦¨
Ġà¦ĵ à¦ĵà¦ĵ
Ġà¦Ĩà¦® à¦¤
Ġà¦Ĩà¦® à¦®
Ġà¦Ĩà¦® à¦¡
Ġà¦Ĩà¦® à¦«
Ġà¦Ĩà¦® à¦Ŀ
Ġà¦Ĩà¦® à¦ªà¦¤
Ġà¦¸à¦® à¦¹
Ġà¦¸à¦® à¦°à¦¬
Ġà¦¸à¦® à¦°à¦¸
Ġà¦¸à¦® à§Łà¦¨
Ġà¦¸à¦® à¦§à¦°
Ġà¦ıà¦ķ à¦ĵ
Ġà¦ıà¦ķ à¦®à¦¨
Ġà¦ıà¦ķ à¦ªà¦¨
Ġà¦ıà¦ķ à¦¸à¦®
Ġà¦ıà¦ķ à¦ªà¦¤
Ġà¦ıà¦ķ à¦ļà¦ķ
Ġà¦ıà¦ķ à¦¶à¦¬
Ġà¦ıà¦ķ à¦ħà¦¨
Ġà¦ıà¦ķ à¦¶à¦Ł
Ġà¦ıà¦ķ à¦ıà¦ķà¦¬
à¦Ļ à¦ĩ
Ġà¦ªà¦° à¦Ĺ
Ġà¦ªà¦° à¦¹
Ġà¦ªà¦° à¦®à¦¯
Ġà¦ªà¦° à¦®à¦¬
Ġà¦ªà¦° à¦§à¦°
Ġà¦ªà¦° à¦¬à¦¶
Ġà¦ªà¦° à¦®à¦¸
Ġà¦ªà¦° à¦Ĺà¦¨
Ġà¦ªà¦° à¦®à¦¸à¦¤
à¦ģ à¦¿
à¦°à¦¤ à¦ľ
à¦°à¦¤ à¦§
à¦°à¦¤ à¦ļ
à¦°à¦¤ à¦¬à¦¨
à¦°à¦¤ à¦ªà¦°
à¦°à¦¤ à§°
à¦°à¦¤ à¦ªà¦ķ
à¦°à¦¤ à¦§à¦°
à¦°à¦¤ à¦¤à¦¸
à¦°à¦¤ à¦ıà¦ĵ
à¦°à¦¤ à¦īà¦ªà¦¬
à¦ł à¦°à¦¸
à¦ł à¦ķà¦¤
à¦ł à¦ıà¦ĩ
à¦ł à¦®à¦¯
à¦ł à¦ªà¦¥
à¦ł à¦²à¦®
Ġà¦ħà¦¨ à¦ª
Ġà¦ħà¦¨ à¦¶
Ġà¦ħà¦¨ à¦¹
Ġà¦ħà¦¨ à¦Ļ
Ġà¦ħà¦¨ à¦¬à¦¸
Ġà¦¥ à¦°
Ġà¦¥ à¦ķ
Ġà¦¥ à¦Łà¦²
Ġà¦¥ à¦ªà¦¥
Ġà¦Ľ à¦ª
Ġà¦Ľ à¦²à¦ķ
Ġà¦Ľ à¦°à¦ķà¦®
Ġà¦Ľ à§Łà¦ľà¦¨
Ġà¦Ĩà¦° à¦°
à¦¬à¦¨ à¦Ľ
à¦¬à¦¨ à¦¬à¦°
à¦¬à¦¨ à¦ı
à¦¬à¦¨ à¦¸à¦¬
à¦¬à¦¨ à¦Ĺà¦¤
à¦¬à¦¨ à¦®à¦£
à¦¬à¦¨ à¦Ĺà¦²
à¦¬à¦¨ à¦Ĺà¦¨
à¦¬à¦¨ à¦¸à¦¹
à¦¬à¦¨ à¦¤à¦°à¦Ļ
à¦°à¦£ à¦¦
à¦°à¦£ à¦·
à¦°à¦£ à¦ľ
à¦°à¦£ à¦ķà¦°
à¦°à¦£ à¦ļà¦ķ
à¦°à¦£ à¦Ĺà¦¨
à¦°à¦£ à¦¸à¦¬à¦ķ
à¦°à¦£ à¦īà¦ļ
Ġà¦² à¦§
Ġà¦² à¦ĸ
Ġà¦² à¦ĩà¦²
Ġà¦¬à¦² à¦ķ
Ġà¦¬à¦² à¦ĩ
Ġà¦¬à¦² à¦Ĺ
Ġà¦¬à¦² à§Ł
Ġà¦¬à¦² à¦ĵ
Ġà¦¬à¦² à¦¬à¦¨
Ġà¦¬à¦² à¦¬à¦°
Ġà¦¬à¦² à¦²à¦¨
Ġà¦¬à¦² à¦²à¦¤
Ġà¦¬à¦² à¦¬à¦¯
Ġà¦¬à¦² à¦¬à¦ķ
Ġà¦¬à¦² à¦¬à¦¸
Ġà¦¬à¦² à¦¬à¦¶
Ġà¦¬à¦² à¦¬à¦Ń
Ġà¦ıà¦ĩ à¦ķ
Ġà¦ıà¦ĩ à¦¸
Ġà¦ıà¦ĩ à¦ª
Ġà¦ıà¦ĩ à¦ľ
Ġà¦ıà¦ĩ à¦®à¦¤
Ġà¦ıà¦ĩ à¦¸à¦¬à¦ĩ
Ġà¦§ à¦¬à¦²à¦¤
à¦°à¦ķ à¦ĩ
à¦°à¦ķ à¦ª
à¦°à¦ķ à¦Ĺ
à¦°à¦ķ à¦ĵ
à¦°à¦ķ à¦¸à¦®
à¦°à¦ķ à¦Łà¦°
à¦°à¦ķ à¦Łà¦ª
à¦°à¦ķ à¦¦à¦®
à¦°à¦ķ à¦°à¦£à¦ķ
à¦°à¦ķ à¦ĸà¦ļ
à¦ŀ à¦ªà¦°
à¦ŀ à¦ľà¦¨
à¦ŀ à¦ħà¦¨
à¦ŀ à¦¸à¦¬à¦ķ
à¦ŀ à¦¬à¦¹
à¦ŀ à¦ªà¦¶
Ġà¦ıà¦¬ à¦®
à¦ªà¦° à¦²
à¦ªà¦° à¦¹
à¦ªà¦° à¦ªà¦°
à¦ªà¦° à¦¸à¦®
à¦ªà¦° à¦¬à¦¶
à¦ªà¦° à¦¬à¦¶à¦¤
à¦ľà¦¨ à¦ľ
à¦ľà¦¨ à¦§
à¦ľà¦¨ à¦¹
à¦ľà¦¨ à¦ļ
à¦ľà¦¨ à¦ı
à¦ľà¦¨ à¦Ĺà¦¤
à¦ľà¦¨ à¦ķà¦¬
à¦ľà¦¨ à¦ıà¦¸à¦¬à¦ĩ
à¦ľà¦¨ à¦¸à¦¬à¦ķ
à¦ľà¦¨ à¦¸à¦¹
à¦ľà¦¨ à¦ıà¦ķà¦Ł
à¦ľà¦¨ à¦ħà¦§
à¦ľà¦¨ à¦ªà¦¦à¦¬
à¦¬à¦° à¦Ł
à¦¬à¦° à¦Ļ
à¦¬à¦° à¦¹à¦¸
à¦¬à¦° à¦Ĺà¦£
à¦¬à¦° à¦Ńà¦ķ
à¦¬à¦° à¦®à¦ļà¦¨
à¦®à¦¨ à¦¬à¦¦
à¦®à¦¨ à¦ľà¦¯
à¦®à¦¨ à¦®à¦¹
à¦ĸà¦¨ à¦Ĺà¦¤
à¦ĸà¦¨ à¦ªà¦¡
Ġà¦« à¦¸à¦«
à¦¤à¦° à¦ļ
à¦¤à¦° à¦¥
à¦¤à¦° à¦ļà¦¨
à¦¤à¦° à¦¸à¦®
à¦¤à¦° à¦¸à¦¬à¦ĩ
à¦¤à¦° à¦ĸà¦£
à¦¤à¦° à¦Ĩà¦¶
à¦¤à¦° à¦®à¦¹à¦²
Ġà¦ĸ à¦ķ
Ġà¦ĸ à¦ĩ
Ġà¦ĸ à¦°à¦¸
Ġà¦ĸ à¦®à¦ķ
Ġà¦ĸ à¦²à¦¸
Ġà¦ĸ à¦°à¦¤à¦°
Ġà¦ĸ à¦¨à¦ķà¦ķ
à§İ à¦¨
à§İ à¦Ł
à§İ à¦Ń
à§İ à¦¸à¦®
à§İ à¦ļà¦°
à§İ à¦¸à¦Ļ
à§İ à¦¬à¦°à¦£
à§İ à¦ªà¦²
Ġà¦®à¦¨ à¦¦
Ġà¦®à¦¨ à¦ľ
Ġà¦®à¦¨ à¦ıà¦ĩ
Ġà¦®à¦¨ à¦¨à¦ª
Ġà¦®à¦¨ à¦®à¦ľ
Ġà¦®à¦¨ à¦Ĺà¦¡
Ġà¦®à¦¨ à¦Ĺà§ľ
Ġà¦®à¦¨ à¦¨à¦¯à¦ľ
Ġà¦ľà¦¨ à¦ªà¦°
Ġà¦ľà¦¨ à¦ķà¦ķ
Ġà¦ľà¦¨ à¦¬à¦¸à¦¤
à¦¤à¦¨ à¦¨
à¦¤à¦¨ à¦ļ
à¦¤à¦¨ à¦ªà¦¨
à¦¤à¦¨ à¦¸à¦¬
à¦¤à¦¨ à¦ľà¦°
à¦¤à¦¨ à¦īà¦¨
à¦¤à¦¨ à¦¯à¦ľ
à¦¯à¦¬ à¦£
Ġà¦ĩ à¦£
Ġà¦ĩ à¦ĵà¦¯
Ġà¦ĩ à¦®à¦°
Ġà¦ĩ à¦¸à¦°
Ġà¦ĩ à¦¸à¦ķ
Ġà¦ĩ à¦Ĺà¦¨
Ġà¦ĩ à¦ĩà¦¬
Ġà¦ĩ à¦ľà¦¤
Ġà¦ĩ à¦¦à¦®
Ġà¦ĩ à¦°à¦«
Ġà¦ĩ à¦¶à¦¤
Ġà¦ĩ à¦¦à¦ª
Ġà¦ĩ à¦Łà¦¸
à¦ªà¦¨ à¦¶
à¦ªà¦¨ à¦ļ
à¦ªà¦¨ à¦Ĺà¦°
à¦ªà¦¨ à¦¤à¦®
Ġà¦¹à¦² à¦Ł
Ġà¦¹à¦² à¦ľ
Ġà¦¹à¦² à¦ļ
Ġà¦¹à¦² à¦¨à¦¤
Ġà¦¹à¦² à¦ķà¦°
Ġà¦¹à¦² à¦²à¦ķ
Ġà¦¹à¦² à¦ıà¦¬
Ġà¦¹à¦² à¦Ĩà¦°
Ġà¦¹à¦² à¦ıà¦Ł
Ġà¦¹à¦² à¦ĵà¦°
Ġà¦¹à¦² à¦Ĩà¦ªà¦¨
Ġà¦¹à¦² à¦¸à¦®à¦¸
à¦ı à¦¹
à¦ı à¦¬à¦²
à¦ı à¦®à¦¬
à¦ı à¦¨à¦Ł
à¦ı à¦ķà¦¸
à¦ı à¦ķà¦Ń
à¦ı à¦¸à¦Ł
à¦ı à¦²à¦ĩ
à¦ı à¦¨à¦ı
Ġà¦ĺ à¦°à¦¨
Ġà¦ĺ à¦°à¦ĩ
Ġà¦ĺ à¦¨à¦¸
Ġà¦ĺ à¦·à¦²
à¦°à¦® à¦Ń
à¦°à¦® à¦ľà¦¨
à¦°à¦® à¦ķà¦²
à¦°à¦® à¦®à¦¯
à¦°à¦® à¦¹à¦¤
à¦°à¦® à¦Ĺà¦¨
à¦°à¦® à¦¸à¦Ļ
à¦°à¦® à¦ıà¦°
à¦°à¦® à¦¸à¦¬à¦ĩ
à¦°à¦® à¦¸à¦¬à¦ķ
à¦°à¦® à¦¸à¦ľ
Ġà¦ķà¦¥ à¦¯
Ġà¦ķà¦¥ à¦®à¦¸
à¦°à¦¬ à¦Ł
à¦°à¦¬ à¦ľ
à¦°à¦¬ à¦®à¦£
à¦°à¦¬ à¦²à¦¬
à¦°à¦¬ à¦Ĩà¦®
à¦°à¦¬ à¦®à¦¹
à¦°à¦¬ à¦ķà¦¥
à¦°à¦¬ à¦Ĩà¦®à¦°
à¦°à¦¬ à¦£à¦¯
à¦°à¦¬ à¦¹à¦£
à¦°à¦¬ à¦²à¦¤à¦®
Ġà¦ķà¦°à¦¤ à¦¸
à¦¯à¦ķ à¦ĩ
à¦¯à¦ķ à¦Ĺ
à¦¯à¦ķ à¦¥à¦¨
à¦¯à¦ķ à¦²à¦®
Ġà¦¸à¦¬ à¦Ń
Ġà¦¸à¦¬ à¦ĵ
Ġà¦¸à¦¬ à¦²à¦ķ
Ġà¦¸à¦¬ à¦¸à¦¬à¦ĩ
Ġà¦¸à¦¬ à¦§à¦°à¦¨
à§ľ à¦¦
à§ľ à¦ª
à§ľ à¦¹
à§ľ à¦¸à¦®
à§ľ à¦ªà¦¤
à§ľ à¦ķà¦°à¦£
à§ľ à¦¨à¦¦
à§ľ à¦¨à¦®
à§ľ à¦īà¦¤
à¦·à¦£ à¦ļ
à¦·à¦£ à¦¯à¦¨
à¦·à¦£ à¦®à¦¯
à¦·à¦£ à¦ıà¦ĩà¦¸à¦¬
à¦« à¦ª
à¦« à¦°à¦®
à¦« à¦«
à¦« à§°
à¦« à¦¸à¦²
Ġà¦§à¦° à¦¨à¦ķ
à¦ī à¦§
à¦ī à¦ĸ
à¦ī à¦Ļ
à¦ī à¦¬à¦¨
à¦ī à§İ
à¦ī à¦¸à¦¬
à¦ī à¦«
à¦ī à¦Ŀ
à¦ī à¦ĺ
à¦ī à¦¢
à¦ī à¦ĩà¦Ł
à¦ī à¦łà¦¤
à¦ī à§İà¦¸à¦°
à¦ī à¦¤à¦¥
à¦ī à¦ªà¦ķà¦¥
à¦ī à§ľà¦¨
à¦ī à¦ıà¦¬à¦²
à¦Ŀ à¦Ń
à¦Ŀ à¦¬à¦¯
à¦Ŀ à¦²à¦¸
à¦°à¦¸ à¦ĩ
à¦°à¦¸ à¦ĸ
à¦°à¦¸ à¦°à¦®
à¦°à¦¸ à¦«
à¦°à¦¸ à¦®à¦¯
à¦°à¦¸ à¦°à¦¬à¦°
à¦Ĺà¦¤ à¦ª
à¦Ĺà¦¤ à¦ľ
à¦Ĺà¦¤ à¦ªà¦¸
à¦Ĺà¦¤ à¦ľà¦¨à¦ķ
à¦°à¦¯ à¦¯
Ġà¦¬à¦° à¦¨
Ġà¦¬à¦° à¦ĩ
Ġà¦¬à¦° à¦¨à¦¬
à¦¬à¦¤ à¦²
à¦¬à¦¤ à¦ľ
à¦¬à¦¤ à¦ļ
à¦¬à¦¤ à¦¥
à¦¬à¦¤ à¦īà¦¦
Ġà¦Ĩà¦Ľ à¦¨
à¦¨à¦¤ à¦¯
à¦¨à¦¤ à¦ªà¦¤
à¦¨à¦¤ à¦ĸà¦¨à¦ĩ
Ġà¦īà¦¦ à¦¦
Ġà¦īà¦¦ à¦ķà¦¸
à¦ķà¦¤ à¦¤
à¦ķà¦¤ à¦¬
à¦ķà¦¤ à¦ĩ
à¦ķà¦¤ à¦ª
à¦ķà¦¤ à¦Ĺ
Ġà¦īà¦ª à¦ª
Ġà¦īà¦ª à¦§
Ġà¦īà¦ª à¦¬à¦¨
Ġà¦īà¦ª à¦¬à¦°
Ġà¦īà¦ª à§ľ
Ġà¦īà¦ª à¦ļà¦°
Ġà¦īà¦ª à¦¹à¦¤
Ġà¦īà¦ª à¦¢
Ġà¦īà¦ª à¦¦à¦²
à¦ķà¦² à¦ĩ
à¦ķà¦² à¦¹
à¦ķà¦² à¦Ń
à¦ķà¦² à¦¨à¦ĵ
à¦ķà¦² à¦¨à¦Ł
Ġà¦Ĩà¦² à¦¯
Ġà¦Ĩà¦² à¦ľ
Ġà¦Ĩà¦² à§Ł
Ġà¦Ĩà¦² à¦®à¦Ĺ
à¦ļà¦¨ à¦ĩ
à¦ļà¦¨ à¦¶
Ġà¦ħà¦¸ à¦®à¦¨
Ġà¦ħà¦¸ à¦¦à¦¬
Ġà¦ħà¦¸ à¦«à¦²à¦¤
Ġà¦Ĩà¦¸ à¦°à¦ĵ
Ġà¦ħà¦Ń à¦Ļ
Ġà¦¸à¦¤ à§İ
Ġà¦¸à¦¤ à¦¤à¦®
à¦²à¦¨ à¦¹
à¦²à¦¨ à¦¬à¦¨
à¦²à¦¨ à¦ķà¦¬
à¦²à¦¨ à¦§à¦°
à¦²à¦¨ à¦ıà¦°
à¦²à¦¨ à¦®à§Ł
à¦²à¦¨ à¦¸à¦¬à¦ķ
à¦²à¦¨ à¦¸à¦¹
à¦²à¦¨ à¦Ĩà¦²
à¦²à¦¨ à¦¸à¦¬à¦ĸ
Ġà¦Ĩà¦¬ à¦¹à¦¨
à¦ĺ à¦ļ
à¦ĺ à¦ĵ
à¦ĺ à¦°à¦£
à¦ĺ à¦°à¦ķ
à¦ĺ à¦¸à¦¬
à¦ĺ à¦¬à¦¤
à¦ĺ à¦¨à¦¨
à¦ĺ à¦²à¦ķ
à¦ĺ à¦¶à¦ķ
à¦ĺ à¦¬à¦ķ
à¦ĺ à¦łà¦¨
à¦ĺ à¦¨à¦¦
à¦ĺ à¦²à¦®
à¦ĺ à¦²à¦¸
à¦ĺ à¦®à¦¶
à¦ĺ à¦¦à¦¶
à¦ĺ à¦¸à¦®à§Ł
Ġà¦¸à¦¹ à¦¶
Ġà¦¸à¦¹ à¦ļ
Ġà¦¸à¦¹ à¦ħà¦¬à¦¸
Ġà¦¸à¦¹ à¦ļà¦°à¦®
Ġà¦Ł à¦¬
Ġà¦Ł à¦²à¦¤
Ġà¦Ł à¦°à¦¨
Ġà¦Ł à¦ķà¦Ł
Ġà¦Ł à¦ªà¦¸
Ġà¦Ł à¦ªà¦²
à¦®à¦¤ à¦¸
à¦®à¦¤ à¦¦à¦¨
à¦®à¦¤ à¦ªà¦¸
Ġà¦ħà¦¤ à¦Ĺ
à¦¨à¦¬ à¦ĩ
à¦¨à¦¬ à¦§
à¦¨à¦¬ à¦¸à¦¨
à¦¨à¦¬ à¦®à¦¸
à¦¨à¦¬ à¦¸à¦¹
à¦¨à¦¨ à¦¦
à¦¨à¦¨ à¦ĩ
à¦¨à¦¨ à¦°à¦ķ
à¦¨à¦¨ à¦®à¦¸
à¦¦à¦° à¦²
à¦°à¦¥ à¦¸
à¦°à¦¥ à¦ĵ
à¦°à¦¹ à¦¯
à¦°à¦¹ à¦®
à¦°à¦¹ à¦¦
à¦°à¦¹ à¦Ń
à¦°à¦¹ à¦¨à¦¯
à¦°à¦¹ à¦ıà¦¸à¦¬
à¦²à¦¤ à¦¸
à¦²à¦¤ à¦¤à¦¸
à¦²à¦¤ à¦ĸà¦¨à¦ĩ
Ġà¦¬à¦¸ à¦°
Ġà¦¬à¦¸ à¦Ĺ
à¦¯à¦¤ à¦¯
à¦¯à¦¤ à¦¬
à¦¯à¦¤ à¦²
à¦¯à¦¤ à¦ĩ
à¦¯à¦¤ à¦ª
à¦¯à¦¤ à¦ĸ
à¦¯à¦¤ à¦ĵ
à¦¬à¦² à¦ª
à¦¬à¦² à¦Ł
à¦¬à¦² à¦ĵ
Ġà¦¹à¦¤ à¦¤
Ġà¦¹à¦¤ à¦ķ
Ġà¦¹à¦¤ à¦ĩ
Ġà¦¨à¦¤ à¦®à¦¸
Ġà¦¡ à¦Ĺà¦°
Ġà¦¡ à¦Ĺà¦¡
Ġà¦¡ à¦ķà¦Łà¦°
Ġà¦¯à¦¦ à¦¬
Ġà¦¯à¦¦ à¦ª
Ġà¦¯à¦¦ à¦¨à¦¨
Ġà¦Ĩà¦ľ à¦¹à¦°
Ġà¦ķà¦°à¦² à¦°
Ġà¦ķà¦°à¦² à¦®à¦¨
Ġà¦ķà¦°à¦² à¦ıà¦¬
Ġà¦ķà¦°à¦² à¦Ĩà¦®
Ġà¦īà¦ł à¦²à¦ķ
Ġà¦¬à¦¨ à¦¶
Ġà¦¬à¦¨ à¦¹
Ġà¦¬à¦¨ à¦ľà¦²
Ġà¦ħà¦§ à¦ªà¦¤
à¦§à¦¨ à¦²
à¦§à¦¨ à¦Ń
à¦§à¦¨ à¦ªà¦°
à¦§à¦¨ à¦®à¦¨
à¦§à¦¨ à¦ı
à¦§à¦¨ à¦ıà¦¸à¦¬à¦ĩ
à¦ķà¦° à¦°
à¦ķà¦° à¦Ľ
à¦°à¦¨ à¦¯
à¦°à¦¨ à¦ĩ
à¦Ĩ à¦Ľ
à¦Ĩ à¦°à¦¸
à¦Ĩ à¦²à¦¤
à¦Ĩ à§Łà¦¨
à¦Ĩ à¦ĩà¦Ł
à¦Ĩ à¦ĩà¦¡
à¦Ĩ à¦¬à¦¹
Ġà¦ļà¦² à¦¹
à¦°à¦¶ à¦¹
à¦°à¦¶ à¦¬à¦¤
à¦°à¦¶ à¦¹à¦°
à¦°à¦¦ à¦Ĺ
à¦¤à¦¬ à¦¦
à¦¤à¦¬ à¦ĩ
à¦¤à¦¬ à§İà¦¸à¦²
Ġà¦Ĩà¦¤ à¦¶
Ġà¦ªà¦¥ à¦¦
Ġà¦ªà¦¥ à¦¸
Ġà¦ªà¦¥ à¦¸à¦¬
à¦°à¦¥à¦® à¦ĩ
à¦°à¦¥à¦® à¦ĸ
à¦°à¦¥à¦® à¦ªà¦°
à¦ķà¦Ł à¦¦
à¦ķà¦Ł à¦¸à¦Ļ
à¦ķà¦Ł à¦¸à¦¬à¦ĩ
à¦ķà¦Ł à¦ıà¦¸à¦¬à¦ĩ
Ġà¦¸à¦° à¦°
Ġà¦¸à¦° à¦Ľ
Ġà¦¸à¦° à¦²à¦Ĺ
Ġà¦¸à¦° à¦Ĺà¦°à¦®
à¦®à¦£ à¦¨
à¦®à¦£ à¦®
à¦®à¦£ à¦£
à¦®à¦£ à¦¤à¦¨
à¦¶à¦¨ à¦°
à¦¶à¦¨ à¦Ń
à¦¶à¦¨ à¦Ĺà¦°
à¦¶à¦¨ à¦®à¦¯
à¦¶à¦¨ à¦ļà¦°
à¦¶à¦¨ à¦¶à¦ª
à¦¶à¦¨ à¦®à¦ŀ
à¦¶à¦¨ à¦ıà¦Ĺ
Ġà¦¬à¦²à¦² à¦®
à¦¯à¦® à¦²
à¦¯à¦® à¦¦
à¦¯à¦® à¦Ł
à¦¯à¦® à¦Ļ
à¦¯à¦® à¦°à¦ķ
à¦¯à¦® à¦Ĺà¦¤
à¦¯à¦® à¦ıà¦ĩ
à¦¯à¦® à¦ıà¦¸à¦¬
à¦¯à¦® à¦¸à¦¬à¦ķ
à¦¯à¦® à¦¸à¦¬à¦ĸ
Ġà¦¹à§Ł à¦¬
Ġà¦¹à§Ł à¦ıà¦ĩ
Ġà¦¹à§Ł à¦Ĩà¦®
Ġà¦¹à§Ł à¦Ĩà¦®à¦°
Ġà¦¯à¦ĸà¦¨ à¦ķ
à¦¸à¦® à¦¬
à¦¸à¦® à¦ª
Ġà¦Ĳ à¦ķà¦¤
à¦²à¦ķ à¦ĩ
à¦²à¦ķ à¦ªà¦¤
à¦²à¦ķ à¦Ĺà¦£
à¦²à¦¬ à¦ĩ
à¦²à¦¬ à¦Ł
à¦²à¦¬ à¦¦à¦¨
à¦°à¦ĩ à¦¤
à¦°à¦ĩ à¦ıà¦ĩ
Ġà¦°à¦ķ à¦¬
Ġà¦ķà¦°à¦¬ à¦¸
Ġà¦ķà¦°à¦¬ à¦ĩ
Ġà¦ķà¦°à¦¬ à¦ª
Ġà¦ķà¦°à¦¬ à¦ķà¦°
Ġà¦¬à¦¹ à¦ķ
Ġà¦¬à¦¹ à¦¸
Ġà¦¬à¦¹ à¦°à¦Ł
Ġà¦īà¦¨ à¦ļà¦²
Ġà¦īà¦¨ à¦ªà¦ŀ
Ġà¦ıà¦¸ à¦ķ
Ġà¦ıà¦¸ à¦ıà¦¸
Ġà¦Ĩà¦Ĺ à¦®
Ġà¦Ĩà¦Ĺ à¦°à¦¬
Ġà¦Ĩà¦Ĺ à¦®à¦£
Ġà¦Ĩà¦Ĺ à¦°à¦ĵà§Ł
à¦¬à¦¦ à¦¬
à¦¬à¦¦ à¦¸
Ġà¦«à¦² à¦ĩ
Ġà¦«à¦² à¦ľ
Ġà¦«à¦² à¦Ĺ
Ġà¦«à¦² à¦¹
Ġà¦«à¦² à¦¸à¦¬à¦ľ
à¦¬à¦ª à¦£
à¦¬à¦ª à¦¦à¦¬
à¦¬à¦ª à¦¦à¦Ł
à¦¯à¦¨ à¦Ł
Ġà¦Ĩà¦¨ à¦¹
à¦¦à¦¨ à¦°
à¦¦à¦¨ à¦Ł
à¦¦à¦¨ à¦Ĺ
à¦¦à¦¨ à¦¹
à¦¦à¦¨ à¦¸à¦¬à¦ĩ
à¦ħ à¦¬à¦°
à¦ħ à¦°à¦¬
à¦ħ à¦¨à¦¤
à¦ħ à¦²à¦ķ
à¦ħ à¦¶à¦¬
à¦ħ à¦¯à¦¥
à¦ħ à¦¬à¦§
à¦ħ à¦§à¦®
à¦ħ à¦ķà¦®
à¦ħ à¦²à¦Ļ
à¦ħ à¦¬à¦¨à¦¤
à¦Ńà¦¬ à¦ŀ
à¦Ńà¦¬ à¦¶à¦ķ
à¦°à¦Ń à¦®
à¦°à¦Ń à¦ŀ
Ġà¦ıà¦° à¦ļ
Ġà¦ıà¦° à¦ľà¦¨
Ġà¦ķà¦² à¦¯
Ġà¦ķà¦² à¦®à¦ļ
à¦¸à¦¨ à¦²
à¦¸à¦¨ à¦¶
à¦¸à¦¨ à¦¸à¦®
à¦¸à¦¨ à¦ªà¦¤
à§° à¦ł
à§° à¦¤à¦¨
à§° à¦®à¦£
à§° à¦¸à¦®
à§° à¦ªà¦¤
à§° à¦Ńà¦¬
à§° à¦Ĺà¦°
à§° à¦¬à¦ķ
à§° à¦®à¦¬
à§° à¦¸à¦Ļ
à§° à¦¥à¦ķ
à§° à¦®à¦§
à§° à¦¬à¦ļ
à§° à¦Ĺà¦£
à§° à¦ľà¦®
à§° à¦®à¦®
à§° à¦¶à¦¸
Ġà¦ķà¦¬ à¦°à¦ķ
Ġà¦Ĩà¦ªà¦¨ à¦Ń
à¦®à¦ķ à¦ª
Ġà¦ıà¦¤ à¦ĵ
Ġà¦ıà¦¤ à§İ
Ġà¦ıà¦¤ à¦¶à¦¤
à¦·à¦ķ à¦¯
à¦·à¦ķ à¦®
à¦·à¦ķ à¦ĩ
à¦·à¦ķ à¦ªà¦°
à¦·à¦ķ à¦ªà¦£
à¦·à¦ķ à¦ħà¦Ń
Ġà¦ĵà¦ł à¦Ľ
à¦¬à¦¬ à¦¯
à¦¬à¦¬ à¦¶
à¦¬à¦¬ à¦ļ
à¦¬à¦¬ à¦¡
à¦¬à¦¬ à§İ
à¦¬à¦¬ à¦¶à¦¤
à¦ªà¦¦ à¦¦
à¦ªà¦¦ à¦ķà¦°
à¦ªà¦¦ à¦ªà¦¤
à¦ªà¦¦ à¦¦à¦®
à¦Ĺà¦° à¦ĸ
à¦¤à¦® à¦ª
à¦¤à¦® à¦Ĺ
à¦¤à¦® à¦¹
à¦¤à¦® à¦ħà¦§à¦®
Ġà¦Ŀ à¦®
Ġà¦Ŀ à¦ĩ
Ġà¦Ŀ à¦ª
Ġà¦Ŀ à¦°à¦¬
Ġà¦Ŀ à¦ķà¦®
Ġà¦Ŀ à¦Ĺà§ľ
Ġà¦Ĩà¦°à¦ĵ à¦ĩ
Ġà¦Ĩà¦¶ à¦ķà¦¥
Ġà¦ıà¦Ł à¦®
Ġà¦ķà¦® à¦²à¦ķà¦²
à¦¬à¦¯ à¦ľ
à¦·à¦¤ à¦ķ
Ġà¦ħà¦ª à¦ľ
Ġà¦ħà¦ª à¦§
Ġà¦ħà¦ª à¦Ļ
Ġà¦ħà¦ª à¦ļà¦¨
Ġà¦ħà¦ª à¦¶à¦¨
à¦ıà¦ĩ à¦¬
à¦ıà¦ĩ à¦ĸ
à¦ĩà¦¨ à¦Ĩà¦ª
à¦°à¦ĵ à¦°
à¦°à¦ĵ à¦¨
à¦°à¦ĵ à¦ķ
à¦°à¦ĵ à¦ĩ
à¦°à¦ĵ à¦ª
à¦°à¦ĵ à¦¡
à¦°à¦ĵ à¦°à¦ĩ
à¦°à¦ĵ à¦®à¦°
à¦ļà¦² à¦¸
à¦ļà¦² à¦ĩ
à¦ļà¦² à¦Ľ
à¦ļà¦² à¦ĵ
à¦ļà¦² à¦°à¦¤
à¦ļà¦² à¦ı
à¦ļà¦² à¦Ĺà¦¤
à¦Ĺà¦² à¦¯
à¦Ĺà¦² à¦¹
à¦Ĺà¦² à¦ªà¦¨
à¦Ĺà¦² à¦²à¦¨
à¦Ĺà¦² à¦¸à¦®
à¦Ĺà¦² à¦Ľà¦¨
à¦Ĺà¦² à¦ªà¦¥
à¦Ĺà¦² à¦Ľà¦ķ
à¦Ĺà¦² à¦¶à¦Ļ
Ġà¦¶à¦¬ à¦Ł
à¦¶à¦ķ à¦¬
à¦¶à¦ķ à¦¥
à¦¶à¦ķ à¦ıà¦¸à¦¬
à¦¨à¦ķ à¦·
à¦¨à¦ķ à¦ĸà¦¨
Ġà¦ħà¦Ĺ à¦¨
Ġà¦ħà¦Ĺ à¦£à¦¤
Ġà¦ªà¦¦ à¦²
Ġà¦ªà¦¦ à¦ĩ
Ġà¦ªà¦¦ à¦Ĺ
Ġà¦ªà¦¦ à¦ªà¦°
Ġà¦ĩà¦¨ à¦ª
à¦¬à¦ķ à¦ĩ
à¦¬à¦ķ à¦¶
à¦¬à¦ķ à¦¹
à¦¬à¦ķ à¦ļ
à¦¬à¦ķ à¦ľà¦¨
à¦¬à¦ķ à¦¸à¦¬
à¦¬à¦ķ à¦¸à¦®
à¦¬à¦ķ à¦¬à¦¯
à¦¬à¦ķ à¦¦à¦£
à¦¬à¦ķ à¦¸à¦ķà¦²
à¦ªà¦ķ à¦ķ
à¦ªà¦ķ à¦¸
à¦ªà¦ķ à¦£
à¦®à¦° à¦Ł
à¦®à¦° à¦Ļ
à¦®à¦° à¦¬à¦¨
à¦°à¦¹à¦£ à¦Ł
à¦°à¦¹à¦£ à¦¸à¦¬à¦ĩ
à¦°à¦¹à¦£ à¦¸à¦¬à¦ķ
à¦¤à¦ķ à¦ĩ
à¦¤à¦ķ à¦·
à¦¤à¦ķ à¦Ń
à¦¤à¦ķ à¦¬à¦ļ
Ġà¦¶à¦° à¦¬à¦¨
Ġà¦ľà¦² à¦®
Ġà¦ľà¦² à¦ĵ
Ġà¦ľà¦² à¦¬à¦°
Ġà¦ľà¦² à¦®à¦£
Ġà¦ľà¦² à¦¢
Ġà¦ľà¦² à¦¸à¦Ļ
Ġà¦ľà¦² à¦®à¦¹
Ġà¦ľà¦² à¦ľà¦²
Ġà¦ľà¦² à¦ľà¦®
Ġà¦ľà¦² à¦°à¦Ļ
à¦¬à¦¸ à¦¦
à¦¬à¦¸ à¦¹à¦ľ
§à§ ¨
Ġà¦Ĺà¦² à¦²
Ġà¦Ĺà¦² à¦Ĺ
Ġà¦Ĺà¦² à¦Ĺà¦£
à¦¤à¦¤ à¦¦
à¦¤à¦¤ à¦ĩ
à¦¹à¦¸ à¦¸
à¦¹à¦¸ à¦Ł
à¦¹à¦¸ à¦ľ
à¦¹à¦¸ à¦¹
à¦¹à¦¸ à¦Ń
à¦¹à¦¸ à¦®à¦¨
à¦¹à¦¸ à¦¹à¦¯
à¦¸à¦° à¦°
à¦¯à¦¸ à¦ĸ
à¦¯à¦¸ à¦¤à¦¤
à¦¯à¦¸ à¦Ĺà¦¨
à¦¯à¦¸ à¦¹à¦ļà¦°
à¦ĩà¦² à¦¦
à¦ĩà¦² à¦ª
à¦ĩà¦² à¦ľ
à¦ĩà¦² à¦Ĺ
à¦ĩà¦² à¦¡
Ġà¦ħà¦® à¦Ĺ
à¦¯à¦¦ à¦¯
à¦¯à¦¦ à¦¬
à§Łà¦¨ à¦®
à§Łà¦¨ à¦¹
à¦Ľà¦¨ à¦¦
à¦Ľà¦¨ à¦ª
à¦°à¦ľà¦¨ à¦¤
à¦°à¦ľà¦¨ à¦Ĺ
à¦°à¦ļ à¦¤
Ġà¦¨à§Ł à¦¸
Ġà¦¨à§Ł à¦¶
Ġà¦¨à§Ł à¦ļ
Ġà¦¨à§Ł à¦ı
Ġà¦¨à§Ł à¦ıà¦ķ
Ġà¦Ńà¦¬ à¦ĺ
Ġà¦Ńà¦¬ à¦Ńà¦¬à¦¨
à¦¨à¦¸ à¦¸
à¦¨à¦¸ à¦ľ
à¦¨à¦¸ à¦ļ
à¦¨à¦¸ à¦ĸ
à¦¨à¦¸ à§İ
à¦¨à¦¸ à¦ļà¦ķ
à¦¨à¦¸ à¦¹à¦ľ
à¦¥à¦¨ à¦ª
à¦¥à¦¨ à¦ľà¦°
Ġà¦ĵà¦ªà¦° à¦¬
à¦ķà¦¬ à¦¶
Ġà¦¯à¦¤ à¦²
à¦®à¦¬ à¦¹
à¦®à¦¬ à§İ
à¦®à¦¬ à§ľ
à¦®à¦¬ à§İà¦ª
Ġà¦Ĺà¦° à¦°
à¦ľà¦¸ à¦¹
à¦ľà¦¸ à¦ļ
à¦°à¦² à¦ª
à¦¹à¦° à¦ª
à¦¬à¦¶ à¦¤à¦ķ
à¦ĸà¦² à¦®
à¦°à¦ª à¦£
à¦°à¦ª à¦ļ
à¦°à¦ª à¦Łà¦ķ
Ġà¦ĭ à¦¯
Ġà¦ĭ à¦Ń
Ġà¦ĭ à¦£à¦®
Ġà¦¶à¦¤ à¦Ń
à¦°à¦ľ à¦ľ
à¦°à¦ľ à¦Ļ
à¦°à¦ľ à¦Ĺà¦¤
à¦Łà¦ķ à¦¯
à¦Łà¦ķ à¦ķ
à¦Łà¦ķ à¦ĩ
à¦Łà¦ķ à¦ļ
à¦Łà¦ķ à¦¥
à¦Łà¦ķ à¦ĸ
à¦Łà¦ķ à¦¸à¦®
à¦Łà¦ķ à¦ķà¦¬
à¦Łà¦ķ à¦®à¦ŀ
à¦¨à¦¯ à¦¯
à¦¼à§Ģ à¦Ĥ
à¦īà¦² à¦Ł
à¦īà¦² à¦ĸ
à¦īà¦² à¦§à¦°
à¦īà¦² à¦Ĩà¦ļà¦°à¦£
à¦¹à¦² à¦Ł
à¦¹à¦² à¦¹
à¦¹à¦² à¦¸à¦¬
à¦¹à¦² à¦ıà¦¸à¦¬
à¦¹à¦² à¦®à§Ł
à¦¦à¦¯ à¦¶
Ġà¦ķà¦¤ à¦ķà¦¤
Ġà¦ıà¦² à¦Ĺ
Ġà¦ıà¦² à¦®à¦¹
Ġà¦¸à¦¹à¦ľ à¦¤à¦¤
Ġà¦¸à¦¹à¦ľ à¦Ĺà¦®
à¦«à¦² à¦Ł
à¦«à¦² à¦Ĺ
Ġà¦ħà¦ķ à¦£
Ġà¦ħà¦ķ à¦¸à¦¬
à¦·à¦®à¦¤ à¦²
à¦·à¦®à¦¤ à¦®
Ġà¦Ĩà¦ļ à¦ķ
Ġà¦Ĩà¦ļ à¦°à¦®
à¦ıà¦¸à¦¬ à¦ĵ
à¦ªà¦¸ à¦²
à¦ªà¦¸ à¦ľ
à¦ªà¦¸ à¦°à¦£
à¦ªà¦¸ à¦¦à¦¨
à¦ļà¦ķ à¦ª
à¦¯à¦ª à¦£
à¦¯à¦ª à¦Łà¦ķ
à¦¹à¦¨ à¦Ł
à¦¹à¦¨ à¦ĺ
à¦¹à¦¨ à¦ıà¦ĩ
Ġà¦ªà¦ķ à¦¡
à¦ľà¦ķ à¦¸
à¦ľà¦ķ à¦Ĺ
à¦ľà¦ķ à¦¸à¦®
à¦¢ à¦Ļ
Ġà¦ħà¦¦ à¦¤
Ġà¦ħà¦¦ à¦®à¦¨
à¦®à¦¸ à¦®à¦¨
à¦®à¦¸ à¦¤à¦¤
à¦Łà¦² à¦ıà¦¸à¦¬
à¦°à¦ķà¦® à¦Ł
Ġà¦Ĺà¦£ à¦¶à¦ķ
Ġà¦Ĺà¦£ à¦ķà¦®
Ġà¦Ĺà¦£ à¦¸à¦®à¦°
à¦¸à¦ķ à¦¨
à¦¸à¦ķ à¦ĩ
à¦¸à¦ķ à¦Ń
à¦¸à¦ķ à¦¸à¦®
¯à§ ¨à§¦
à¦Ĺà¦¨ à¦ļ
à¦°à¦®à¦£ à¦¨
à¦°à¦®à¦£ à¦®
à¦°à¦®à¦£ à¦ĵ
à¦°à¦®à¦£ à¦°à¦¤
à¦°à¦®à¦£ à¦¸à¦Ļ
à¦°à¦®à¦£ à¦ıà¦¸à¦¬à¦ĩ
Ġà¦Ĺà§ľ à¦²
à¦¹à¦°à¦£ à¦ıà¦ĩ
à¦¹à¦°à¦£ à¦¸à¦¹
à¦ķà¦°à¦£ à¦¸
à¦ķà¦°à¦£ à¦¶
à¦ķà¦°à¦£ à¦Ĺ
à¦ķà¦°à¦£ à¦ıà¦¸à¦¬à¦ĩ
à¦¥à¦ķ à¦¶
à¦¥à¦ķ à¦ĵ
à¦¥à¦ķ à¦¤à¦°
Ġà¦Ĩà¦¦à¦° à¦ĵ
Ġà¦Ĩà¦¦à¦° à¦Ĩà¦ª
à¦Ĩà¦® à¦²à¦ķ
à¦ĩà¦ķ à¦ıà¦°
à¦ĩà¦ķ à¦¨à¦®
Ġà¦¶à¦¹à¦° à¦ľ
Ġà¦īà¦łà¦² à¦®
Ġà¦īà¦łà¦² à¦¦
Ġà¦īà¦łà¦² à¦ª
Ġà¦īà¦łà¦² à¦¹
Ġà¦īà¦ªà¦° à¦Ł
à¦¤à¦² à¦¦
à¦¤à¦² à¦¸
à¦¤à¦² à¦¶
à¦¤à¦² à¦Ĺ
à¦łà¦ķ à¦ª
à¦łà¦ķ à¦¶
à¦łà¦ķ à¦ļ
à¦łà¦ķ à¦¬à¦¨
à¦®à¦Ĺ à¦¬
à¦®à¦Ĺ à¦ľ
à¦®à¦Ĺ à¦Ļ
à§İà¦¸ à¦ķà¦°
Ġà¦īà§İà¦¸ à¦¯
Ġà¦īà§İà¦¸ à¦Ł
Ġà¦īà§İà¦¸ à¦Ń
Ġà¦īà§İà¦¸ à¦ĵ
à¦§à¦¬ à¦®
à¦§à¦¬ à¦§
à¦§à¦¬ à¦£
Ġà¦¬à¦ĩ à¦¹
Ġà¦¬à¦ĩ à¦Ń
Ġà¦¬à¦ĩ à¦ªà¦°
Ġà¦¬à¦ĩ à¦ĵà¦²
à¦°à¦Ł à¦¨
à¦°à¦Ł à¦¸
Ġà¦¨à¦¬ à¦Ń
Ġà¦¨à¦¬ à¦¹à¦Ł
Ġà¦ħà¦² à¦°
Ġà¦ħà¦² à¦Ń
Ġà¦ķà¦ĸà¦¨à¦ĵ à¦¨
Ġà¦¸à¦¤à¦¤ à¦ĩ
Ġà¦ķà¦¨ à¦ľ
Ġà¦ķà¦¨ à¦¡
à¦¦à¦² à¦®
à¦¦à¦² à¦ª
à¦°à§Ł à¦ķ
à¦®à¦² à¦ª
à¦®à¦² à¦Ń
à¦¯à¦¯ à¦¥
à¦ĸà¦¬ à¦£
à¦ĸà¦¬ à¦°à¦£
Ġà¦ıà¦ķà¦ľà¦¨ à¦¦
Ġà¦ıà¦ķà¦ľà¦¨ à¦ħà¦ªà¦°
à¦¨à¦¦ à¦¤
à¦¨à¦¦ à¦¦
à¦¨à¦¦ à¦¸
Ġà¦īà¦ªà¦¨ à¦¦
à¦°à¦Ĺ à¦®
à¦°à¦Ĺ à¦¦
à¦°à¦Ĺ à¦®à¦¨
à¦¶à¦ª à¦ŀ
Ġà¦ªà¦°à¦® à¦¦
Ġà¦ªà¦°à¦® à¦Īà¦¶
Ġà¦Ī à¦¦à¦ª
Ġà¦°à¦®à¦£ à¦ª
à¦Ĺà¦® à¦¹
à¦Ĺà¦® à¦¸à¦¨
à¦ķà¦¸ à¦ķà¦²
à¦ªà¦Ł à¦ĵ
Ġà¦°à¦Ļ à¦ª
Ġà¦°à¦Ļ à¦ĵ
Ġà¦°à¦Ļ à¦¸à¦¬à¦ĩ
Ġà¦°à¦Ļ à¦¸à¦¬à¦ķ
Ġà¦ĵà¦ĩ à¦¯
Ġà¦ĵà¦ĩ à¦Ń
Ġà¦Ĺà¦¨ à¦Ĺà¦¨
à¦ªà¦¥ à¦ĩ
à¦ªà¦¥ à¦ļ
Ġà¦¦à¦² à¦ľ
à¦ĩà¦¤ à¦¦
à¦·à¦¦ à¦ª
à¦·à¦¦ à¦Ł
à¦£à¦¨ à¦®
à¦ľà¦¬ à¦ªà¦¨
à¦ľà¦¬ à§°
Ġà¦īà§İà¦¸à¦¬ à¦ĵ
Ġà¦īà§İà¦¸à¦¬ à¦ªà¦°
Ġà¦īà§İà¦¸à¦¬ à¦ıà¦ĩ
Ġà¦īà§İà¦¸à¦¬ à¦§à¦°
Ġà¦īà§İà¦¸à¦¬ à¦īà¦¤
Ġà¦īà§İà¦¸à¦¬ à¦Ĩà¦¨à¦¨
à¦®à¦°à¦£ à¦®
à¦®à¦°à¦£ à¦ļ
Ġà¦°à¦¸ à¦¹
Ġà¦°à¦¸ à¦ķà¦²
Ġà¦°à¦¸ à¦¸à¦®
Ġà¦°à¦¸ à¦ļà¦°
Ġà¦°à¦¸ à¦¸à¦¤
Ġà¦°à¦¸ à¦Ńà¦Ļ
Ġà¦°à¦¸ à¦¸à¦ŀ
à¦²à¦¯ à¦ĸà¦¨
à¦ķà¦¶ à¦ĩ
Ġà¦¸à¦®à§Ł à¦¯
à¦¬à¦Ń à¦Ł
Ġà¦Ĳà¦ķ à¦ªà¦¦
à¦¡à¦² à¦¦
à¦¡à¦² à¦Ł
à¦¡à¦² à¦ĵ
à¦¡à¦² à¦ªà¦°
à¦¡à¦² à¦®à¦¶
à¦¨à¦ª à¦¶
à¦¨à¦ª à¦£
à¦¨à¦ª à¦ŀ
à¦¨à¦ª à¦¤à¦¨à¦ķ
Ġà¦§à¦¨ à¦§
Ġà¦ħà¦ľ à¦ªà¦¥
à¦ħà¦¨ à¦¡
à¦ªà¦£ à¦ķ
à¦ªà¦£ à¦ĩ
à¦ªà¦£ à¦¸à¦®
à¦ªà¦£ à¦ıà¦ĩ
à¦ªà¦£ à¦ıà¦¸à¦¬à¦ĩ
à¦¨à§Łà¦¨ à¦ıà¦ĩ
à¦¨à§Łà¦¨ à¦ıà¦¸à¦¬
Ġà¦°à¦ķà¦® à¦ª
Ġà¦°à¦ķà¦® à¦«
Ġà¦Ĩà¦ª à¦¸à¦®
Ġà¦ıà¦¨ à¦¶
Ġà¦ıà¦¨ à¦ıà¦ĩà¦ļ
à¦£à¦ķ à¦ł
à¦£à¦ķ à§°
à¦¬à¦® à¦¹à¦²
Ġà¦Ĩà¦¹ à¦ķ
Ġà¦Ĩà¦¹ à¦¬à¦¨
à¦²à¦® à¦¸à¦²
à¦ĩà¦¬ à¦®à¦¨
à¦¨à¦ĩ à¦¸à¦²
à¦®à¦¹ à¦ª
Ġà¦¨à¦Ĺà¦° à¦°à¦ķ
Ġà¦¨à¦Ĺà¦° à¦ªà¦°
à¦Łà¦¨ à¦®
à¦Łà¦¨ à¦¶
Ġà¦¬à¦²à¦¬ à¦ĵ
à¦¤à¦¦ à¦¸
à¦¤à¦¦ à¦ª
à¦²à¦² à¦ª
à¦²à¦² à¦ıà¦ĩ
à¦²à¦² à¦ıà¦ķ
à¦®à¦¦ à¦ĵ
à¦®à¦¦ à¦®à¦¨
à¦®à¦¦ à¦¨à¦¬
à¦¦à§Ł à¦¬
à¦¦à§Ł à¦ĩ
à¦¯à§İ à¦¯
à¦¯à§İ à¦¦
à¦¯à§İ à¦ª
à¦¯à§İ à¦Ł
Ġà¦Ĩà¦ĩà¦¨ à¦Ł
Ġà¦Ĩà¦ĩà¦¨ à¦¸à¦Ļ
Ġà¦Ĩà¦ĩà¦¨ à¦Ńà¦Ļ
Ġà¦Ĩà¦ļà¦°à¦£ à¦¨
Ġà¦Ĩà¦ļà¦°à¦£ à¦¸
Ġà¦Ĩà¦ļà¦°à¦£ à¦Ńà¦Ļ
à¦°à¦ĸ à¦°à¦¤
à¦¨à¦Ń à¦°à¦¦
à¦¤à¦¸ à¦ľ
à¦¤à¦¸ à¦ļ
à¦¤à¦¸ à¦ķà¦²
à¦¤à¦¸ à¦Īà¦°
à¦²à¦¸ à¦ĵ
à¦²à¦¸ à¦ł
à¦ĩà¦Ł à¦¬
Ġà¦¦à¦¶ à¦Ń
Ġà¦¦à¦¶ à¦¦à¦¶
Ġà¦¦à¦¶ à¦°à¦¥à¦°
à¦£à¦¬ à¦Ĺ
à¦£à¦¬ à¦Ļ
à¦£à¦¬ à§İ
à¦£à¦¬ à¦ªà¦¨
à¦£à¦¬ à¦ļà¦¨
à¦£à¦¬ à¦¸à¦®
à¦ıà¦ķ à¦ĸ
à¦ıà¦ķ à¦ªà¦°
à¦ıà¦ķ à¦®à¦¨
à¦ıà¦ķ à¦ķà¦Ń
à¦ıà¦ķ à¦ľà¦¨à¦ķ
à¦®à¦ľ à¦²
à¦®à¦ª à¦¥à¦ķ
à¦¨à¦¶ à¦¹à¦°
à¦¶à¦² à¦ª
à¦¶à¦² à¦Ł
à§¨ à§¦à§¦
à¦®à§Ł à¦ķ
à¦®à§Ł à¦ĩ
à¦²à¦Ń à¦Ł
Ġà¦ļà¦¨ à¦®à¦¨
Ġà¦ħà¦¸à¦® à¦ŀ
à¦ĸà¦ķ à¦¯
à¦ĸà¦ķ à¦ł
à¦ĸà¦ķ à¦ķà¦¬
Ġà¦¸à§İ à¦ªà¦°
Ġà¦¸à§İ à¦¸à¦Ļ
Ġà¦ľà¦¡ à¦¬
à¦Ĺà¦łà¦¨ à¦ĩ
à¦Ĺà¦£ à¦®
à¦Ĺà¦£ à¦ĵ
à¦¤à¦Ń à¦ķ
Ġà¦Ľà¦¬ à¦Ľà¦°
à¦¨à¦² à¦Ļ
à¦ľà¦² à¦§
à¦²à¦Ĺ à¦¡
Ġà¦ħà¦¬à¦¦ à¦®à¦¨
à¦·à§Ł à¦¬
à¦·à§Ł à¦¸
à¦·à§Ł à¦ĩ
à¦·à§Ł à¦ª
à¦·à§Ł à¦ªà¦°
à¦·à§Ł à¦Ĺà¦¤
Ġà¦ĸà¦¬à¦° à¦ª
Ġà¦ĸà¦¬à¦° à¦Ĺ
à¦®à¦¶ à¦°
à¦®à¦¶ à¦¤à¦¬
à¦¥à¦² à¦®à¦£
à¦¥à¦² à¦ªà¦¦
Ġà§¨ à§§à§©
à¦¸à¦ª à¦²
à¦¦à¦¬ à¦ŀ
Ġà¦¶à¦¹ à¦°à¦¸
Ġà¦¹à¦ĩ à¦¦
Ġà¦¹à¦ĩ à¦¸
Ġà¦¹à¦ĩ à¦Ľ
Ġà¦¹à¦ĩ à¦¹à¦Ł
Ġà¦¸à¦°à¦² à¦¹
Ġà¦Ĺà¦łà¦¨ à¦§à¦°
à¦¬à¦ľà¦¨ à¦°
à¦¬à¦ľà¦¨ à¦¹
à¦¬à¦ľà¦¨ à¦²à¦Ń
Ġà¦Ĩà¦ķà¦° à¦Ĺ
à¦ļà§Ł à¦ıà¦ķà¦Ł
à¦ľà¦® à¦ıà¦°
à¦¬à¦ľ à¦ªà¦¤
à¦ķà¦¥ à¦ŀ
à¦¬à¦ĩ à§Ł
à¦¬à¦ĩ à¦ªà§ľ
à¦¦à¦ķ à¦¶à¦ķ
Ġà¦°à¦ĩà¦² à¦Ĺ
Ġà¦¬à§ľ à¦¬à§ľ
à¦¸à¦¹ à¦ķ
à¦¸à¦¹ à¦ª
à¦¨à¦® à¦®
à¦®à¦® à¦«à¦¸
à¦¬à¦°à¦£ à¦ĩ
à¦¬à¦°à¦£ à¦Ĺ
à¦¬à¦¹ à¦®
à¦¬à¦¹ à¦£à¦ķ
à¦Ĺà¦¸ à¦¦
à¦Ĺà¦¸ à¦ľ
à¦Ĺà¦¸ à¦ļ
à¦Ĺà¦¸ à¦Ń
à¦Ĺà¦¸ à¦®à¦¤
à¦ĩà¦¸ à¦Ĺ
à¦¯à¦Ĺ à¦Ĺà¦¨
à¦¶à¦° à§İ
Ġà¦· à¦¨
Ġà¦· à¦Łà¦ª
Ġà¦Ķ à¦·
Ġà¦Ĩà¦Ļ à¦Ł
à§Ŀ à¦¨
à§Ŀ à¦ļ
à§« à§«
à§« à§©à§«
à¦¬à¦°à¦¤ à¦²
à¦Ĺà¦ľ à¦ĸ
à¦ĩà¦ľ à¦Ĺ
Ġà¦ªà¦Ł à¦ªà¦°
Ġà¦ıà¦ĩà¦°à¦ķà¦® à¦Ł
Ġà¦¨à¦¹ à¦·
Ġà¦¨à¦¹ à¦·à¦ķ
Ġà¦¨à¦¹ à¦·à¦ª
à¦¶à¦® à¦®à¦¤
à¦¬à¦Ł à¦¸
Ġà¦Ńà¦°à¦¤ à¦¨
Ġà¦Ńà¦°à¦¤ à¦ª
Ġà¦Ńà¦°à¦¤ à¦¶
Ġà¦Ńà¦°à¦¤ à¦®à¦¹
Ġà¦ľà¦Ĺ à¦Ŀà¦®
à¦¡à¦¬ à§İ
à¦¡à¦¬ à¦Ĺà¦£
à¦ķà¦¡ à¦ĩà¦¨
à¦²à§Ł à¦¶
à¦²à§Ł à¦Ĺ
à¦§à¦® à¦ħà¦¬
Ġà¦Ĭ à¦§
Ġà¦¤à¦² à¦ª
Ġà¦¤à¦² à¦ĵà¦¯
à¦ľà¦ª à§ľ
Ġà¦¬à¦¸à¦¨ à¦ļ
à¦¬à¦Ĺ à¦Ń
à¦¬à¦Ĺ à¦®à¦¨
à¦¬à§Ł à¦¬
à¦¬à§Ł à¦¸
Ġà¦¸à¦¬à¦ķ à¦ĩ
à¦¸à¦°à¦£ à¦ĩ
à¦ķà¦ª à¦²
à¦Ĺà¦°à¦£ à¦¯
à¦Ĺà¦°à¦£ à¦ĵ
Ġà¦®à¦¸ à¦¨à¦¬
Ġà¦¤à¦¦ à¦¸
Ġà¦¤à¦¦ à¦ª
Ġà¦¤à¦¦ à¦¨à¦¨
Ġà¦¤à¦¦ à¦¬à¦¸
Ġà¦ĩà¦¹ à¦ľà¦Ĺà§İ
à¦ľà¦Ł à¦®
Ġà¦¯à¦® à¦ĵ
à¦²à¦ª à§ľ
à¦Ĺà¦¦ à¦ĸà¦²
à¦°à¦« à¦¸à¦²
à¦īà¦¦ à¦ĺ
à¦ķà¦ļ à¦Ł
à¦¹à¦ķ à¦£
Ġà¦®à¦¦ à¦®à¦¤
Ġà¦ıà¦¡ à¦ĵà¦¯
à§© à§¯
à¦¯à¦¹ à¦®à¦°
à¦¦à¦¸ à¦ķà¦²
à¦¸à¦¸ à¦ŀ
à¦²à¦ľ à¦«
à¦²à¦ľ à¦Ĺà¦¤
à¦²à¦ľ à¦ĺ
à¦¶à¦¤ à¦¬à¦°
ĠĠčĊ čĊčĊč
à§ª à§©
à§ª à§¯
à§ª à§¦à§¦
Ġà§© à§ª
Ġà§© à§§à§¨
Ġà§© à§¬à§¦
Ġà§© à§¯à§§à§
Ġà§© à§¯à§¦
à¦¸à¦« à¦Ł
Ġà¦°à¦¥ à¦¸
Ġà¦°à¦¥ à¦Ł
Ġà¦°à¦¥ à¦ļ
à¦«à¦²à¦¨ à¦ķ
à¦«à¦²à¦¨ à¦¬
à¦«à¦²à¦¨ à¦ĵ
à¦«à¦²à¦¨ à¦ıà¦¸à¦¬
Ġà¦¸à¦« à¦¦à¦°
Ġà¦«à¦¸à¦² à¦°
Ġà¦«à¦¸à¦² à¦ļà¦ķ
à¦ªà¦ķà¦² à¦ķ
Ġà¦¬à§Ł à¦ķà¦Ł
Ġà§§à§¯à§Ń à§«
à§Ń à§¬
à¦¨à¦ļ à¦£
à¦®à¦¸à¦® à§°
Ġà¦ľà¦¨à¦Ĺ à¦¨à¦ķ
Ġà¦Ĺà¦¦ à¦ĸ
à¦²à¦ĩ à¦ľà¦®
à¦²à¦ĩ à¦īà¦ľ
Ġà¦Ńà§Ł à¦¸
Ġà¦Ńà§Ł à¦Ń
Ġà¦Ńà§Ł à¦īà¦¦
Ġà¦ĸà¦°à¦ļ à¦ĵ
à¦ªà¦Ĺ à¦ŀ
à§İà¦¸à¦¬ à¦®
à§İà¦¸à¦¬ à¦¸
à¦¨à¦¹ à¦ł
Ġà¦®à¦¨à¦ķ à¦·
Ġà§§à§¯à§« à§§
Ġà§§à§¯à§« à§Ń
Ġà¦¦à¦® à¦ķà¦²
Ġà¦¨à¦¬à¦¦ à¦®
à¦Ĺà¦®à¦¨ à¦ıà¦¸à¦¬à¦ĩ
à¦¨à¦ıà¦ĩ à¦°à¦ķà¦®
Ġà¦Ĩà§Ł à¦¬
à¦¨à¦Ĩ à¦¨
à¦¨à¦Ĩ à¦¬
à¦¨à¦Ĩ à¦¶
à¦¨à¦Ĩ à¦°à¦ĵ
à¦¨à¦Ĩ à¦¨à¦®
à§°à¦¹ à¦¨à¦ķ
Ġà¦ľà¦Ĺà§İ à¦ıà¦¸à¦¬
à¦Ĳ à¦¤à¦°
Ġà¦Ĩà¦Ł à¦ĩ
Ġà¦Ĩà¦Ł à¦Ĺ
Ġà¦Ĩà¦Ł à¦¶à¦¤
ĠĠĠ čĊ
à¦£à¦® à§Łà¦¤
à¦ªà¦ª à¦Ļ
à¦£à¦Ĺà¦¤ à¦Ń
à§® à§¨
à§® à§¬
à§® à§§à§¦à§®
à¦£à¦Ń à¦ľà¦¨
Ġà¦ħà¦¯ à¦¤à¦¨
Ġà¦ħà¦¯ à¦ľà¦®
Ġà¦īà¦ªà¦ķà¦°à¦£ à¦®
Ġà¦īà¦ªà¦ķà¦°à¦£ à¦¸
Ġà¦īà¦ªà¦ķà¦°à¦£ à¦Ĺ
Ġà¦īà¦ªà¦ķà¦°à¦£ à¦ĵ
Ġà§§à§¯à§«à§¨ à§«à§©
à¦Ĺà¦ł à¦¨à¦ĵ
à§¬ à§¨
à§¬ à§§
à§¬ à§«
à§¬ à§§à§§à§
Ġà§« à§§
Ġà§« à§®
Ġà§« à§§à§¦
Ġà§« à§§à§§
Ġà§« à§§à§§à§
Ġà§« à§¨à§¦
Ġà§« à§®à§«
à¦®à¦ĵ à¦ĩ
Ġà§ª à§¯à§«
Ġà§ª à§¯à§¦
à¦ĩà¦« à¦¨
Ġà¦¬à¦ī à¦ªà¦°
Ġà¦¬à¦ī à¦¬à¦²
à¦£à¦¸ à¦ŀ
à¦£à¦¸ à¦®à¦¨
Ġà§¨à§¦ à§¨à§§
Ġà¦ķà¦²à¦® à¦ĸ
Ġà¦ķà¦²à¦® à¦«
Ġà¦ĭà¦£ à¦°
Ġà¦¸à¦¦à¦¸ à§İ
à¦¨à¦Ľ à¦¯
Ġà¦¨à¦° à¦¡
Ġà¦¸à¦°à¦²à¦¤ à¦®
à¦£à¦° à¦ļà¦¨
à¦īà¦ľ à¦«
Ġà¦ıà¦°à¦ķà¦® à¦Ł
Ġà¦ıà¦°à¦ķà¦® à¦§
à¦§à¦¦ à§°
à¦§à¦¦ à¦ĩà¦¯
à¦¤à¦ļ à¦°à¦ķ
à¦¤à¦ļ à¦°à¦¬
à¦Łà¦¸ à¦ľ
Ġà¦¬à¦¦ à¦²à¦ķ
Ġà¦¬à¦¦ à¦ĩà¦Ł
ĠĠĠĠĠĠĠĠĠĠĠĠĠĠĠĠĠĠĠĠĠĠĠĠĠĠĠĠĠĠĠĠ ĠĠĠĠĠĠĠĠĠĠĠĠĠĠ
ĠĠĠĠĠĠĠĠĠĠĠĠĠĠĠĠĠĠĠĠĠĠĠĠĠĠĠĠĠĠĠĠ ĠĠĠĠĠĠĠĠĠĠĠĠ
ĠĠĠĠĠĠĠĠĠĠĠĠĠĠĠĠĠĠĠĠĠĠĠĠĠĠĠĠĠĠĠĠ ĠĠĠĠĠĠĠĠĠĠĠĠĠĠĠĠĠĠĠĠĠ
à¦¯à¦ļ à¦°à¦¤
à¦¯à¦ļ à¦°à¦ķ
à¦§à¦¸ à¦ķà¦²
à¦§à¦¸ à¦°à¦¸à¦¤
Ġà¦ļà¦°à¦£ à¦ķ
Ġà¦ļà¦°à¦£ à¦¬
Ġà¦ļà¦°à¦£ à¦¦à¦°
à¦¯à¦°à¦ķà¦® à¦®
à¦¡à¦ķ à¦°à¦ķ
à¦¨à¦ı à¦¨
à¦¨à¦ı à¦¦
à¦¨à¦ı à¦ĸ
à¦¨à¦ħ à¦¯
à¦¨à¦ħ à¦ķ
à¦¨à¦ħ à¦²
à¦¨à¦ħ à¦¹
à¦¨à¦ħ à¦°à¦£
à¦¨à¦ħ à¦ªà¦¤
Ġà§§à§¦ à§©
Ġà§§à§¦ à§Ń
Ġà§§à§¦ à§®à§«
Ġà§§à§¦ à§¯à§®
à¦īà§İà¦¸à¦¬ à¦¬
à¦īà§İà¦¸à¦¬ à¦®
à¦¸à¦®à§Ł à¦ĩ
Ġà¦Ķà¦°à¦¸ à¦ľà¦¨
Ġà¦¬à§İà¦¸à¦° à¦Ĺ
Ġà¦ĵà¦ª à¦°à¦¤à¦²
Ġà¦ľà¦²à¦ľ à¦Ļ
Ġà¦¨à¦Ĺ à¦°à¦¨
à¦ľà§Ł à¦ĩ
Ġà¦ħà¦¬à¦¸à¦° à¦Ĺ
à¦°à¦¸à¦¬ à¦®
Ġà¦²à¦Ļ à¦ĺà¦¨
Ġà¦Ĩà¦ĩ à¦¨à¦ĵ
Ġà¦Ĩà¦ĩ à¦¬à¦ķ
Ġà¦Ĩà¦ĩ à¦¡à¦²
Ġà¦Ĩà¦ĩ à¦Ĩà¦ĩà¦¸
à¦¦à¦¬à¦¦ à¦¨
à¦Ńà¦¸ à¦ŀ
à¦¦à¦Ń à¦¶à¦ķ
Ġà¦Ĩà¦¹à¦°à¦£ à¦ķ
Ġà¦Ĩà¦¹à¦°à¦£ à¦ĩ
Ġà¦®à¦°à¦£ à¦Ł
Ġà¦®à¦°à¦£ à¦¥
Ġà¦®à¦°à¦£ à¦§à¦°
Ġà¦¶à¦ªà¦¥ à¦¬
Ġà¦ĩà¦¸ à¦¥
à§¦à§¦ à§¦à§¦
Ġà¦ľà§ľ à¦ªà¦¦
Ġà¦ľà§ľ à¦ľà¦Ĺà§İ
à¦¤à¦°à¦ķ à¦£
à¦¤à¦°à¦ķ à¦°à¦£
Ġà¦¦à¦®à¦¨ à¦®
Ġà¦¦à¦®à¦¨ à¦¶
Ġà¦¬à¦°à¦« à¦ĩ
Ġà¦¬à¦°à¦« à¦¢
Ġà¦¬à¦°à¦« à¦Ŀà¦°
Ġà¦¬à¦°à¦« à¦Ĺà¦²à¦¨
à¦°à¦Ĩ à¦¸
à¦°à¦Ĩ à¦Ń
à¦°à¦Ĩ à¦¡
à¦°à¦Ĩ à¦ªà¦¨
à¦°à¦Ĩ à¦¦à¦°
à¦¹à¦£ à¦ĩ
à¦ļà¦¸ à¦ľ
Ġà¦ľà¦¨à¦ªà¦¦ à¦ª
Ġà¦¨à¦°à¦ķ à¦¬
Ġà¦¨à¦°à¦ķ à¦¸
Ġà¦¨à¦°à¦ķ à¦ª
Ġà§¬ à§§
Ġà§¬ à§Ń
Ġà§¬ à§¯
Ġà§¬ à§¨à§®
à¦¬à¦¸à¦® à¦ķ
à¦²à¦¸à¦¬ à¦ľ
Ġà¦¹à¦ĵ à¦ķ
Ġà¦¹à¦ĵ à¦®
à¦ıà¦ķà¦¦ à¦®
à¦īà¦¬ à¦ķà¦²
à¦Ĩà¦¤ à¦Ļ
Ġà¦ıà¦® à¦ıà¦²
Ġà¦Ĩà¦¬à¦°à¦£ à¦¬à¦¸
à¦¹à¦ł à¦¯
à¦īà¦ª à¦¬à¦¨
à¦īà¦ª à¦²à¦ķ
Ġà§§à§® à§ª
Ġà§§à§® à§§à§ª
Ġà§§à§® à§©à§¦
Ġà§§à§® à§¨à§¯
Ġà§§à§® à§«à§ª
à¦¯à¦ľà¦¨ à¦Ĺ
à¦®à¦Ľ à¦²à¦¨
à¦°à¦£à¦ķ à¦°à¦¸
à¦ĺà¦² à¦īà¦ªà¦¨
à¦°à¦®à¦¨ à¦¸
à¦¸à¦ķà¦² à¦ķ
Ġà§Ń à§¨
Ġà§Ń à§¬
Ġà§§à§¯à§ª à§¦
Ġà§§à§¯à§ª à§§
Ġà§§à§¯à§ª à§§à§ª
Ġà¦Ĩà¦« à¦°
Ġà¦Ĩà¦« à¦¶
Ġà§§à§© à§§à§§
Ġà§§à§© à§ªà§¦
Ġà§§à§© à§©à§«
Ġà§§à§© à§®à§©
Ġà§§à§© à§«à§®
Ġà§§à§© à§©à§§
Ġà§§à§© à§¯à§Ń
à¦¨à¦¸à¦¬ à¦ļ
à¦£à¦¤à¦° à¦¬
Ġà¦¤à¦« à¦¸
à¦®à¦ķà¦°à¦£ à¦ĵ
Ġà§§à§¨ à§¦
Ġà§§à§¨ à§¯
Ġà¦īà§ľ à¦²
à¦®à¦ĺ à¦£
Ġà¦ķà¦²à¦¹ à¦Ł
à¦®à¦²à¦¤ à¦®
Ġà¦ħà¦¸à§İ à¦Ń
à¦ħà¦ª à¦¹
à¦ħà¦ª à¦¹à¦°à¦£
à¦¬à¦ľà¦Ĺà¦¤ à¦ķ
Ġà¦°à¦¤à¦¨ à¦Ĺ
Ġà¦¬à¦ļà¦¨ à¦®à¦¬
Ġà§§à§¯à§® à§¨
Ġà§§à§¯à§® à§ª
Ġà¦Ĩà¦®à¦¦ à¦°à¦¬
Ġà¦ħà¦ļà¦² à¦ª
Ġà¦°à¦£ à¦¹
Ġà¦°à¦£ à¦ĸ
Ġà¦°à¦£ à¦ķà¦²
Ġà¦®à¦¨à¦® à¦¥à¦¨
Ġà¦ľà¦ª à¦®à¦¨
Ġà¦ľà¦ª à¦¯à¦ľ
à¦ľà¦Ĺà§İ à¦Ł
Ġà¦²à¦¬à¦£ à¦ĩ
à¦ıà¦¸ à¦ıà¦¸à¦¸
à¦¶à¦§ à¦°à¦ĩ
Ġà¦ľà¦¨à¦®à¦¤ à¦ķ
Ġà§§à§« à§¦
Ġà§§à§« à§¨à§¦
Ġà§§à§« à§¬à§§à§§à§
à¦®à¦®à¦¨ à¦¨
à¦¡à¦¬à¦ķ à¦¨
Ġà¦ħà¦²à¦¸ à¦Ĺà¦®à¦¨
Ġà§§à§ª à§¦
Ġà§§à§ª à§ª
Ġà§§à§ª à§§à§«
Ġà§§à§ª à§§à§¬
à¦Ī à¦²
à¦Ī à¦®
Ġà¦ķà¦¹ à¦¹à¦°
à¦Ĺà¦ļ à¦ŀ
Ġà¦¦à¦«à¦¤à¦° à¦Ĺ
Ġà¦¦à¦Ĺ à¦¦à¦Ĺ
Ġà¦ªà¦¥à¦ļ à¦²à¦¤
Ġà§® à§Ń
Ġà§® à§§à§¦
Ġà§® à§§à§«
Ġà§® à§§à§¬
à¦¸à¦¨à¦ķ à§°
à¦¨à¦ªà¦¤à¦¨ à¦ıà¦ĩ
Ġà§¨à§¦à§¦ à§§
Ġà§¨à§¦à§¦ à§Ń
à¦¤à¦¸à¦® à¦°
à¦¬à¦ķà¦² à¦¹
Ġà§§à§¯à§§à§ ¦
Ġà§§à§¯à§§à§ «
Ġà§§à§¯à§§à§ ¬
Ġà§§à§¯à§§à§ ¯à§¨à§¦
à¦·à¦ľà¦¨ à¦ķà¦Ń
à¦¶à¦§à¦° à¦°
à¦¨à¦¬à¦®à¦¨ à¦ķ
Ġà¦Ŀà§ľ à¦ĩ
à¦Łà¦ķà¦² à¦ķ
Ġà§§à§¯à§¬ à§¦
Ġà§§à§¯à§¬ à§¯
Ġà§§à§¯à§¬ à§¨à§¬
à¦ķà¦¸à¦® à¦·
Ġà¦łà¦ķ à¦łà¦ķ
Ġà§§à§§à§ ¬
Ġà§§à§§à§ ¯
à§§à§¯à§ ¨
à§§à§¯à§ §à§
à¦°à¦ħ à¦¸à¦¹
à¦¯à¦¸à¦¬ à¦®
Ġà¦ªà¦Łà¦² à¦¦
Ġà¦ªà¦Łà¦² à¦ª
à¦Ńà¦Ĺ à¦¬à¦¦
Ġà¦ıà¦ķà¦ĺ à¦£
à¦¨à¦¡ à¦°à¦«
Ġà¦ªà¦²à¦ķ à¦¹
Ġà¦Ĩà¦¹à¦¤ à¦¦
Ġà¦ķà¦²à¦¨ à¦ľà¦²
Ġà¦¨à¦¬à¦¬ à¦¸à¦¨
Ġà§§à§¯à§© à§«
Ġà§§à§¯à§© à§Ń
Ġà§§à§¯à§© à§®
Ġà§§à§¯à§© à§¯
Ġà¦¬à§İà¦¸ à¦°à¦¬
Ġà§¯à§ ¨
Ġà§¯à§ ©
Ġà§¯à§ ª
Ġà§¯à§ Ń
ĠĠĠĠĠĠĠĠĠĠĠĠĠĠĠĠĠĠĠĠĠĠĠĠ ĠĠĠĠĠĠĠ
Ġà¦¨à¦¬à¦° à¦Ļ
Ġà¦¸à¦¹à¦ļà¦° à¦Ĺà¦£
Ġà¦Ŀà¦²à¦ķ à¦¸à¦¬à¦ĩ
âĢ Ĭ
à§Ĺ à¦ģ
Ġà¦²à¦Ń à¦¤
Ġà§©à§¦ à§ª
Ġà§©à§¦ à§«à§¦
à¦ķà¦¶à¦ª à¦ĵ
Ġà§¨à§« à§¨
Ġà¦¨à¦ĸ à¦¦à¦¨
Ġà¦Łà¦ķ à¦Ŀ
Ġà§§à§¯à§¦ à§¦
Ġà§§à§¯à§¦ à§®
Ġà§§à§¯à§¦ à§¯
Ġà¦Ķà¦·à¦§ à¦ªà¦¥
Ġà¦Ĩà¦ī à¦Łà¦ķ
à¦¹à¦ľ à¦°à¦¤
à¦¨à¦ªà¦° à¦¶
à¦Ńà§İà¦¸ à¦¤à¦°
Ġà¦Ĺà¦²à¦¦ à¦ĺà¦°
Ġà§©à§¨ à§§
à¦¶à¦®à¦¨ à¦ķ
à¦¶à¦®à¦¨ à¦¦
Ġà§¨à§¨ à§©
Ġà§¨à§¨ à§¬
Ġà§¨à§ª à§Ń
Ġà§¨à§ª à§§à§¦
Ġà¦¬à¦Ľ à¦°à¦ľ
Ġà¦ĵà¦ľà¦¨ à¦¹
Ġà¦ħà¦¸à¦¦ à¦Ĺà¦¤
à¦Ĩà¦ĩà¦¨ à¦¸
Ġà§«à§¦ à§¬à§¦
à¦¨à¦ĩà¦¨ à¦¸
à¦¨à¦ıà¦ķ à¦¥
à¦Ĺà¦ľà¦¨ à¦ķà¦Ń
Ġà¦¯à¦¤à¦¬ à¦¡
ĠĠĠĠĠĠĠĠĠĠĠĠĠĠĠĠĠĠĠĠĠĠĠĠĠĠĠĠĠĠĠĠĠĠĠĠĠĠĠĠĠĠĠĠĠĠĠĠĠĠĠĠĠĠĠĠĠĠĠĠĠĠĠĠ ĠĠ
ĠĠĠĠĠĠĠĠĠĠĠĠĠĠĠĠĠĠĠĠĠĠĠĠĠĠĠĠĠĠĠĠĠĠĠĠĠĠĠĠĠĠĠĠĠĠĠĠĠĠĠĠĠĠĠĠĠĠĠĠĠĠĠĠ ĠĠĠĠĠĠĠĠĠĠĠĠ
ĠĠĠĠĠĠĠĠĠĠĠĠĠĠĠĠĠĠĠĠĠĠĠĠĠĠĠĠĠĠĠĠĠĠĠĠĠĠĠĠĠĠĠĠĠĠĠĠĠĠĠĠĠĠĠĠĠĠĠĠĠĠĠĠ ĠĠĠĠĠĠĠĠĠĠĠĠĠĠĠĠĠĠĠĠĠĠĠĠĠ
Ġà§§à§Ń à§«à§Ń
Ġà§§à§Ń à§ªà§ª
Ġà§§à§¯à§¯à§ ¯
Ġà¦Ĩà¦īà¦Ł à¦¸
Ġà¦ĸà¦¨à¦¨ à¦ķ
Ġà§§à§¦à§¦ à§®à§§à§¦à§®
à¦¤à¦ĺ à¦¡
à¦£à¦¬à¦¸ à¦ľ
à§§à§§à§ «
à§§à§§à§ ®
Ġà¦¬à¦¦à¦¨ à¦®à¦£
čĊčĊ Ġ
Ġà¦¤à¦ªà¦¨ à¦¸
Ġà¦Ĳà¦°à¦ķà¦® à¦ĩ
à¦¡à¦īà¦ĩ à¦¥
à¦°à¦®à¦¥ à¦Ĺà¦£
à¦¸à¦ı à¦Ļ
à¦¡à¦¬à¦¬ à¦§
Ġà§Ńà§¦ à§®à§¦
à¦¬à§İà¦¸ à¦Ń
à¦ĩà¦®à¦¸ à¦ı
à¦ķà¦¬à¦ļ à¦¬à¦¨
Ġà¦ĵà¦ĩà¦°à¦ķà¦® à¦ĩ
Ġà§¨à§¬ à§«
Ġà¦īà¦ĩ à¦²à¦ķ
Ġà¦īà¦ĩ à¦Łà¦¨
Ġà¦ľà¦²à¦ªà¦¥ à¦Ł
Ġà§ªà§ª à§Ń
Ġà§ªà§ª à§¨à§©
Ġà§§à§§à§§à§ ®
à¦²à¦®à¦¤ à¦ĩ
Ġà§©à§Ń à§«
à¦°à¦Ĺà¦² à¦Ńà¦¤
Ġà¦ıà¦Ĩ à¦ĩà¦ļ
à¦īà¦²à¦¬ à¦¯
Ġà¦Ĩà¦ĵ à¦°à¦Ļ
Ġà¦ĩà¦¬à¦ĩ à§Ł
à¦ĩà¦²à¦«à¦²à¦ķ à¦Ĺ
à§©à§ª à§Ń
à§± à¦¨
à¦¬à¦ħ à¦¸à¦¹
Ġà¦īà¦Ń à§Łà¦ķ
Ġà¦ıà¦ķà¦ıà¦ķ à¦ĸ
Ġà¦Ĩà¦°à¦¬à¦ĩ à¦¹
Ġà§©à§¦à§¦ à§ªà§¦à§¦
Ġà§ªà§® à§¨à§ª
Ġà§¨à§¦à§§à§ª à§§à§«
à¦®à¦ħ à¦¬à¦¤
Ġà¦ªà¦ļà¦¨ à¦¶
à¦ĸà¦¬à¦¸ à¦¤à¦¤
Ġà¦°à¦ĩ à¦²à¦¨
Ġà¦°à¦ĩ à¦²à¦¤
Ġà¦ıà¦ķà¦§ à¦°à¦£
à§İà¦ļ à¦®à¦ķ
Ġà¦¶à¦¤à¦¦ à¦²à¦¬
Ġà§§à§¦à§§à§¨ à§Ń
Ġà§§à§¦à§§à§¨ à§¯
Ġà§§à§©à§¬ à§©
à¦²à¦īà¦¦ à¦¦
à¦·à¦°à¦¸à¦® à¦·
Ġà¦¶à¦ķà¦² à¦¦
Ġà¦ıà¦ĩà¦°à¦ķ à¦®à¦ķ
à¦ªà¦¨à¦¸ à¦°à¦¶
ĠĠĠĠĠĠĠĠĠĠĠĠĠĠĠĠĠĠĠĠĠĠĠĠĠĠĠĠĠĠĠĠĠĠĠĠĠĠĠĠĠĠĠĠĠĠĠĠĠĠĠĠĠĠĠĠ ĠĠĠĠĠĠ
à¦·à¦ªà¦£ à¦ķ
Ġà¦®à¦Ŀ à¦Ŀ
à¦ľà¦Ĩ à¦ĸ
Ġà¦¤à¦Ł à¦¬à¦°
Ġà§§à§ªà§¬ à§¬
à¦¨à¦®à¦ķ à¦¬à¦°
à¦²à¦Ĩ à¦ľà¦Ĺ
à¦Łà¦ł à¦²à¦¨
Ġà¦¯à¦ľà¦¨ à¦ķà¦°
Ġà¦ļà¦®à¦ļ à¦®
Ġà¦²à¦°à¦¨ à¦¸
Ġà¦§à¦ª à¦§à¦ª
Ġà¦ħà¦¸à¦®à¦ķ à¦ķ
Ġà¦łà¦®à¦ķ à¦Ĺà¦®à¦ķ
Ġà¦¦à¦¶à§İ à¦ı
Ġà¦¬à¦¦à¦¹ à¦ľà¦®
Ġà§§à§®à§¯à§ ¯
Ġà§¯à§¯à§ ¯
Ġà¦¹à¦ľà¦¸à¦¨ à¦ľà¦¬à¦¸à¦¨
Ġà¦ķà¦Ĩ à¦°à¦¤
Ġà¦ķà¦¸à¦° à§İ
Ġà¦¤à¦ļà¦¨ à¦ļ
Ġà¦¤à¦¦à¦Ĺ à¦ļ
Ġà¦ľà¦ĵà¦¹ à¦°à¦²
Ġà¦¥à¦ªà¦¥ à¦ª
Ġà¦«à¦¸à¦« à¦¸
Ġà¦¡à¦Ĺà¦¡ à¦Ĺ
Ġà¦ıà¦¨à¦ıà¦ĩà¦ļ à¦ıà¦¸
Ġà§©à§¯à§¦ à§«
Ġà§§à§¯à§ªà§§à§ª à§¨
Ġà§§à§¯à§¬à§¨à§¬ à§©
