{"[PAD]":0,"[UNK]":1,"[CLS]":2,"[SEP]":3,"!":4,"\"":5,"#":6,"$":7,"%":8,"&":9,"'":10,"(":11,")":12,"*":13,"+":14,",":15,"-":16,".":17,"/":18,"0":19,"1":20,"2":21,"3":22,"4":23,"5":24,"6":25,"7":26,"8":27,"9":28,":":29,";":30,"<":31,"=":32,">":33,"?":34,"@":35,"A":36,"B":37,"C":38,"D":39,"E":40,"F":41,"G":42,"H":43,"I":44,"J":45,"K":46,"L":47,"M":48,"N":49,"O":50,"P":51,"Q":52,"R":53,"S":54,"T":55,"U":56,"V":57,"W":58,"X":59,"Y":60,"Z":61,"[":62,"\\":63,"]":64,"^":65,"_":66,"`":67,"a":68,"b":69,"c":70,"d":71,"e":72,"f":73,"g":74,"h":75,"i":76,"j":77,"k":78,"l":79,"m":80,"n":81,"o":82,"p":83,"q":84,"r":85,"s":86,"t":87,"u":88,"v":89,"w":90,"x":91,"y":92,"z":93,"{":94,"|":95,"}":96,"~":97,"¡":98,"¢":99,"£":100,"¤":101,"¥":102,"¦":103,"§":104,"¨":105,"©":106,"ª":107,"«":108,"¬":109,"®":110,"¯":111,"°":112,"±":113,"²":114,"³":115,"´":116,"µ":117,"¶":118,"·":119,"¸":120,"¹":121,"º":122,"»":123,"¼":124,"½":125,"¾":126,"¿":127,"À":128,"Á":129,"Â":130,"Ã":131,"Ä":132,"Å":133,"Æ":134,"Ç":135,"È":136,"É":137,"Ê":138,"Ë":139,"Ì":140,"Í":141,"Î":142,"Ï":143,"Ð":144,"Ñ":145,"Ò":146,"Ó":147,"Ô":148,"Õ":149,"Ö":150,"×":151,"Ø":152,"Ù":153,"Ú":154,"Û":155,"Ü":156,"Ý":157,"Þ":158,"ß":159,"à":160,"á":161,"â":162,"ã":163,"ä":164,"å":165,"æ":166,"ç":167,"è":168,"é":169,"ê":170,"ë":171,"ì":172,"í":173,"î":174,"ï":175,"ð":176,"ñ":177,"ò":178,"ó":179,"ô":180,"õ":181,"ö":182,"÷":183,"ø":184,"ù":185,"ú":186,"û":187,"ü":188,"ý":189,"þ":190,"ÿ":191,"Ā":192,"ā":193,"Ă":194,"ă":195,"Ą":196,"ą":197,"Ć":198,"ć":199,"Ĉ":200,"ĉ":201,"Ċ":202,"ċ":203,"Č":204,"č":205,"Ď":206,"ď":207,"Đ":208,"đ":209,"Ē":210,"ē":211,"Ĕ":212,"ĕ":213,"Ė":214,"ė":215,"Ę":216,"ę":217,"Ě":218,"ě":219,"Ĝ":220,"ĝ":221,"Ğ":222,"ğ":223,"Ġ":224,"ġ":225,"Ģ":226,"ģ":227,"Ĥ":228,"ĥ":229,"Ħ":230,"ħ":231,"Ĩ":232,"ĩ":233,"Ī":234,"ī":235,"Ĭ":236,"ĭ":237,"Į":238,"į":239,"İ":240,"ı":241,"Ĳ":242,"ĳ":243,"Ĵ":244,"ĵ":245,"Ķ":246,"ķ":247,"ĸ":248,"Ĺ":249,"ĺ":250,"Ļ":251,"ļ":252,"Ľ":253,"ľ":254,"Ŀ":255,"ŀ":256,"Ł":257,"ł":258,"Ń":259,"à¦":260,"à§":261,"Ġà¦":262,"à¦¾":263,"à§ĩ":264,"à¦°":265,"à§į":266,"à¦¿":267,"à¦¨":268,"à¦¤":269,"à¦¯":270,"à¦ķ":271,"à¦¬":272,"à¦²":273,"à¦®":274,"à§ģ":275,"à¦¼":276,"Ġà¦¸":277,"Ġà¦ķ":278,"Ġà¦¬":279,"Ġà¦ª":280,"à¦¦":281,"à¦¸":282,"à§ĭ":283,"à§Ģ":284,"Ġà¦Ĩ":285,"à¦ĩ":286,"à¦·":287,"à¦ª":288,"Ġà¦®":289,"Ġà¦¨":290,"à¦Ł":291,"Ġà¦ı":292,"à¦ľ":293,"à¦¶":294,"Ġà¦¤":295,"à¦Ĺ":296,"Ġà¦¦":297,"Ġà¦ħ":298,"à¦§":299,"Ġà¦¹":300,"à¦Ľ":301,"à¦£":302,"à¦¹":303,"Ġà¦¯":304,"Ġà¦ķà¦°":305,"à¦¼à§ĩ":306,"à¦ļ":307,"à¦¥":308,"à¦ĸ":309,"Ġà¦¶":310,"à¦Ĥ":311,"à¦Ń":312,"Ġà¦Ĺ":313,"Ġà¦ľ":314,"à¦¡":315,"à§ĥ":316,"à§Ł":317,"à¦ĵ":318,"Ġà¦Ń":319,"Ġà¦°":320,"à§Ĥ":321,"Ġà¦ļ":322,"Ġà¦ī":323,"Ġà¦ĵ":324,"Ġà¦Ĩà¦®":325,"Ġà¦¸à¦®":326,"Ġà¦ıà¦ķ":327,"à¦Ļ":328,"Ġà¦ªà¦°":329,"à¦ģ":330,"à¦°à¦¤":331,"à¦ł":332,"à¦¼à¦¾":333,"Ġà¦ħà¦¨":334,"Ġà¦¹à¦¯":335,"Ġà¦¥":336,"Ġà¦Ľ":337,"Ġà¦Ĩà¦°":338,"à¦¬à¦¨":339,"à¦°à¦£":340,"Ġà¦²":341,"Ġà¦¬à¦²":342,"Ġà¦ıà¦ĩ":343,"à¦¾à¦ģ":344,"Ġà¦§":345,"à§Ī":346,"à¦°à¦ķ":347,"à¦ŀ":348,"Ġà¦ıà¦¬":349,"à¦ªà¦°":350,"à¦ľà¦¨":351,"à¦¬à¦°":352,"à¦®à¦¨":353,"à¦ĸà¦¨":354,"Ġà¦«":355,"à¦¤à¦°":356,"Ġà¦ĸ":357,"à§İ":358,"Ġà¦®à¦¨":359,"čĊ":360,"Ġà¦¸à¦Ļ":361,"čĊč":362,"Ġà¦ľà¦¨":363,"à§Į":364,"Ġà¦ıà¦ķà¦Ł":365,"à¦¤à¦¨":366,"à¦¯à¦¬":367,"Ġà¦ĩ":368,"à¦ªà¦¨":369,"ĠĠ":370,"Ġà¦¹à¦²":371,"à¦¼à¦¿":372,"à¦ı":373,"Ġà¦ĺ":374,"Ġà¦¹à¦¬":375,"à¦°à¦®":376,"Ġà¦ķà¦¥":377,"à¦°à¦¬":378,"Ġà¦ķà¦°à¦¤":379,"à¦¯à¦ķ":380,"Ġà¦¸à¦¬":381,"Ġà¦ħà¦¬":382,"à¦¸à¦¬":383,"à§ľ":384,"Ġà¦Ĩà¦®à¦°":385,"à¦·à¦£":386,"à¦«":387,"Ġà¦®à¦§":388,"Ġà¦§à¦°":389,"à¦ī":390,"à¦¾à¦Ĥ":391,"à¦Ŀ":392,"à¦ĵà¦¯":393,"à¦°à¦¸":394,"à¦Ĺà¦¤":395,"à¦°à¦¯":396,"Ġà¦¬à¦°":397,"Ġà¦¨à¦¯":398,"à¦¬à¦¤":399,"Ġà¦Ĩà¦Ľ":400,"à¦¨à¦¤":401,"Ġà¦īà¦¦":402,"Ġà¦®à¦¤":403,"à¦ķà¦¤":404,"Ġà¦īà¦ª":405,"Ġà¦ħà¦°":406,"à¦ĥ":407,"à¦ķà¦²":408,"Ġà¦Ĩà¦²":409,"à¦ļà¦¨":410,"Ġà¦®à¦¹":411,"Ġà¦ħà¦¸":412,"Ġà¦Ĩà¦¸":413,"Ġà¦ħà¦Ń":414,"Ġà¦¸à¦¤":415,"à¦²à¦¨":416,"Ġà¦Ĩà¦¬":417,"à¦ĺ":418,"Ġà¦¸à¦¹":419,"Ġà¦Ł":420,"à¦®à¦¤":421,"Ġà¦ħà¦¤":422,"à¦¨à¦¬":423,"à¦¨à¦¨":424,"à¦¦à¦°":425,"à¦°à¦¥":426,"Ġà¦¤à¦¬":427,"à¦°à¦¹":428,"à¦²à¦¤":429,"Ġà¦¬à¦¸":430,"à¦¯à¦¤":431,"à¦¬à¦²":432,"Ġà¦¹à¦¤":433,"Ġà¦¨à¦¤":434,"Ġà¦¤à¦ĸà¦¨":435,"Ġà¦¡":436,"Ġà¦¯à¦¦":437,"Ġà¦Ĩà¦ľ":438,"Ġà¦ķà¦°à¦²":439,"Ġà¦īà¦ł":440,"Ġà¦¬à¦¨":441,"Ġà¦ħà¦§":442,"à¦§à¦¨":443,"Ġà¦ªà¦¡":444,"à¦¼à§ĭ":445,"à¦ķà¦°":446,"à¦°à¦¨":447,"à¦¿à¦Ĥ":448,"à¦Ĩ":449,"Ġà¦ļà¦²":450,"à¦°à¦¶":451,"à¦¨à¦ĵ":452,"à¦°à¦¦":453,"à¦¤à¦¬":454,"Ġà¦Ĩà¦¤":455,"Ġà¦ªà¦¥":456,"à¦°à¦¥à¦®":457,"à¦ķà¦Ł":458,"Ġà¦¸à¦°":459,"à¦®à¦£":460,"à¦¶à¦¨":461,"Ġà¦¬à¦²à¦²":462,"à¦¯à¦®":463,"Ġà¦¹à§Ł":464,"Ġà¦ıà¦®à¦¨":465,"Ġà¦¯à¦ĸà¦¨":466,"Ġà¦¶à¦ķ":467,"à¦¸à¦®":468,"Ġà¦ł":469,"Ġà¦Ĳ":470,"à¦²à¦ķ":471,"à¦²à¦¬":472,"Ġà¦¸à¦®à¦¯":473,"Ġà¦ĺà¦Ł":474,"à¦°à¦ĩ":475,"Ġà¦°à¦ķ":476,"Ġà¦ķà¦°à¦¬":477,"Ġà¦¬à¦¹":478,"Ġà¦īà¦¨":479,"à¦ªà¦¤":480,"Ġà¦ıà¦¸":481,"Ġà¦Ĩà¦Ĺ":482,"à¦¬à¦¦":483,"Ġà¦«à¦²":484,"à¦¬à¦ª":485,"ĠĠĠĠ":486,"à¦¯à¦¨":487,"Ġà¦Ĩà¦¨":488,"à¦¦à¦¨":489,"Ġà¦ħà¦¥":490,"Ġà¦īà§İ":491,"Ġà¦ĩà¦¤":492,"à¦¯à¦¬à¦¹":493,"Ġà¦¸à¦®à¦¸":494,"Ġà¦¸à¦¨":495,"Ġà§":496,"à¦ħ":497,"à¦Ńà¦¬":498,"à¦°à¦Ń":499,"Ġà¦ıà¦°":500,"Ġà¦ķà¦²":501,"à¦¸à¦¨":502,"à§°":503,"Ġà¦ķà¦¬":504,"Ġà¦Ĩà¦ªà¦¨":505,"Ġà¦Ĩà¦§":506,"Ġà¦¬à¦¡":507,"à¦®à¦ķ":508,"Ġà¦ķà¦°à¦Ľ":509,"à§ģà¦ģ":510,"à¦ĸà¦¤":511,"Ġà¦ıà¦¤":512,"à¦·à¦ķ":513,"Ġà¦ıà¦ĸà¦¨":514,"à¦¯à¦¬à¦¸":515,"Ġà¦ĵà¦ł":516,"à¦¬à¦¬":517,"à¦ªà¦¦":518,"à¦Ĺà¦°":519,"à¦¤à¦®":520,"Ġà¦Ŀ":521,"Ġà¦Ĩà¦°à¦ĵ":522,"Ġà¦īà¦¤":523,"Ġà¦Ĩà¦¶":524,"Ġà¦ıà¦Ł":525,"Ġà¦ķà¦®":526,"à¦¬à¦¯":527,"à¦·à¦¤":528,"Ġà¦īà¦ļ":529,"à¦·à¦¯":530,"Ġà¦ħà¦ª":531,"à¦ıà¦ĩ":532,"à¦ĩà¦¨":533,"à¦°à¦ĵ":534,"à¦ļà¦²":535,"à¦Ĺà¦²":536,"Ġà¦Ĩà¦ķ":537,"Ġà¦¶à¦¬":538,"Ġà¦²à¦ķ":539,"à¦¶à¦ķ":540,"à¦¨à¦ķ":541,"Ġà¦ħà¦Ĺ":542,"Ġà¦¹à¦ļ":543,"Ġà¦ķà¦ĸà¦¨":544,"Ġà¦ªà¦¦":545,"à¦ļà¦¯":546,"Ġà¦ĩà¦¨":547,"à¦¬à¦ķ":548,"à¦ªà¦ķ":549,"à¦®à¦°":550,"à¦°à¦¹à¦£":551,"Ġà¦Ĺà¦¡":552,"Ġà¦¢":553,"à¦¤à¦ķ":554,"Ġà¦¶à¦°":555,"Ġà¦ľà¦²":556,"à§ĭà¦ģ":557,"à¦¬à¦¸":558,"§à§":559,"Ġà¦Ĺà¦²":560,"à¦¤à¦¤":561,"à¦¹à¦¸":562,"à¦¸à¦°":563,"à¦¯à¦¸":564,"à¦£à¦¤":565,"à¦ĩà¦²":566,"Ġà¦Ĳà¦¤":567,"Ġà¦ħà¦®":568,"à¦¯à¦¦":569,"à¦§à¦ķ":570,"à§Łà¦¨":571,"à¦Ľà¦¨":572,"à¦°à¦ľà¦¨":573,"Ġà¦ħà¦ªà¦°":574,"à¦°à¦ļ":575,"à§ĩà¦ģ":576,"Ġà¦¨à§Ł":577,"Ġà¦ıà¦ĸ":578,"Ġà¦Ńà¦¬":579,"à¦¨à¦¸":580,"à¦¥à¦¨":581,"Ġà¦ĵà¦ªà¦°":582,"Ġà¦ħà¦¬à¦¸":583,"à¦ĵà§Ł":584,"à¦ķà¦¬":585,"à¦°à¦§":586,"à¦®à¦¯":587,"Ġà¦¤à¦¥":588,"Ġà¦¯à¦¤":589,"à¦®à¦¬":590,"Ġà¦®à¦°":591,"Ġà¦¬à¦²à¦¤":592,"Ġà¦Ĺà¦°":593,"Ġà¦ħà¦¥à¦¬":594,"Ġà¦¨à¦¦":595,"Ġà¦°à¦¬":596,"à¦ľà¦¸":597,"à¦°à¦²":598,"Ġà¦¸à¦ļ":599,"à¦§à¦°":600,"à¦¹à¦°":601,"à¦¬à¦¶":602,"à¦ĸà¦²":603,"à¦°à¦ª":604,"à¦§à¦¤":605,"à¦ļà¦°":606,"Ġà¦ĭ":607,"Ġà¦ıà¦Ĺ":608,"Ġà¦¶à¦¤":609,"à¦°à¦ľ":610,"Ġà¦ĺà¦°":611,"à¦Łà¦ķ":612,"à¦¨à¦¯":613,"à¦¼à§Ģ":614,"à¦īà¦²":615,"Ġà¦ªà¦°à¦¬à¦°":616,"Ġà§§à§":617,"à¦¹à¦²":618,"à¦¼à§ģ":619,"Ġà¦¹à¦ĵà¦¯":620,"Ġà¦¤à¦°":621,"à¦¦à¦¯":622,"Ġà¦ħà¦¬à¦¶":623,"Ġà¦ķà¦¤":624,"Ġà¦ıà¦²":625,"Ġà¦¸à¦¹à¦ľ":626,"à¦«à¦²":627,"Ġà¦ħà¦ķ":628,"Ġà¦ļà¦°":629,"à¦·à¦®à¦¤":630,"Ġà¦¯à¦¥":631,"Ġà¦Ĩà¦ļ":632,"à¦ıà¦¸à¦¬":633,"ĠĠčĊč":634,"Ġà¦Ĩà¦ľà¦ķ":635,"à¦ªà¦¸":636,"à¦ļà¦ķ":637,"Ġà¦Ĺà¦Ń":638,"à¦¨à¦°":639,"Ġà¦ıà¦ķà¦¦":640,"à¦¯à¦ĩ":641,"à¦¯à¦ª":642,"Ġà¦¸à¦ķ":643,"à¦¸à¦²":644,"Ġà¦Ĩà¦¨à¦¨":645,"à¦¹à¦¤":646,"à¦Ľà¦°":647,"Ġà¦¸à¦°à¦ķ":648,"Ġà¦¯à¦ľ":649,"Ġà¦ıà¦ķà¦ĩ":650,"à¦¹à¦¨":651,"Ġà¦ªà¦ķ":652,"Ġà¦¤à¦¤":653,"Ġà¦īà¦²":654,"Ġà¦¸à¦ķà¦²":655,"à¦ľà¦ķ":656,"à¦¢":657,"ĠĠĠĠĠĠĠĠ":658,"Ġà¦ħà¦¦":659,"à¦ªà¦·":660,"à§ģà¦ĥ":661,"à¦®à¦¸":662,"Ġà¦ķà¦ł":663,"Ġà¦Ĩà¦¸à¦²":664,"à¦ıà¦¬":665,"à¦Łà¦²":666,"Ġà¦°à¦¯":667,"à¦°à¦ķà¦®":668,"à¦·à¦®":669,"Ġà¦Ĩà¦¦":670,"à¦ľà¦°":671,"Ġà¦ıà¦¦":672,"Ġà¦Ĺà¦£":673,"Ġà¦ħà¦Ļ":674,"à¦¸à¦ķ":675,"¯à§":676,"Ġà¦¬à¦Ľà¦°":677,"Ġà¦Ĺà¦¤":678,"à¦łà¦¨":679,"à¦Ĺà¦¨":680,"à¦°à¦®à¦£":681,"à¦¶à¦¬":682,"Ġà¦ľà¦°":683,"Ġà¦Ĺà§ľ":684,"à¦¸à¦Ļ":685,"Ġà¦¸à¦®à¦¨":686,"à¦¨à¦Ł":687,"Ġà¦ĺà¦Łà¦¨":688,"Ġà¦°à¦ļà¦¨":689,"Ġà¦¬à¦¯":690,"à¦¹à¦°à¦£":691,"à¦ķà¦°à¦£":692,"à¦¥à¦ķ":693,"à§Įà¦ģ":694,"à¦ŀà¦¤":695,"Ġà¦Ĩà¦¦à¦°":696,"à¦Ĩà¦®":697,"à¦ĩà¦ķ":698,"Ġà¦¶à¦¹à¦°":699,"Ġà¦īà¦łà¦²":700,"Ġà¦īà¦ªà¦°":701,"à¦¤à¦²":702,"à¦łà¦ķ":703,"Ġà¦¦à¦°":704,"à¦®à¦Ĺ":705,"à§İà¦¸":706,"à¦°à¦¬à¦¨":707,"Ġà¦īà§İà¦¸":708,"à¦Ĺà¦¬":709,"à¦§à¦¬":710,"à¦ĩà¦°":711,"Ġà¦īà¦ªà¦¸":712,"Ġà¦¬à¦ĩ":713,"à¦°à¦Ł":714,"Ġà¦¨à¦¬":715,"Ġà¦Ńà¦¯":716,"à§İà¦ķ":717,"à¦¿à¦ĥ":718,"Ġà¦ħà¦²":719,"Ġà¦ħà¦¥à¦ļ":720,"Ġà¦ķà¦ĸà¦¨à¦ĵ":721,"Ġà¦¸à¦¤à¦¤":722,"à¦¯à¦°":723,"Ġà¦ķà¦¨":724,"à¦¦à¦²":725,"à¦°à§Ł":726,"à¦®à¦²":727,"à¦¯à¦¯":728,"à¦ĸà¦¬":729,"à¦Ŀà¦¤":730,"Ġà¦ıà¦ķà¦ľà¦¨":731,"Ġà¦¦à¦ķ":732,"à¦¨à¦¦":733,"Ġà¦īà¦ªà¦¨":734,"Ġà¦ªà§ľ":735,"à¦°à¦Ĺ":736,"à¦¶à¦ª":737,"Ġà¦ľà¦®":738,"à¦¤à¦¨à¦¤":739,"Ġà¦Ńà¦°":740,"Ġà¦ªà¦°à¦®":741,"Ġà¦īà¦°":742,"Ġà¦¬à¦Ł":743,"Ġà¦Ľà¦¡":744,"à¦°à¦Ĺà¦¤":745,"Ġà¦ħà¦¨à¦¨":746,"Ġà§§à§¯à§":747,"Ġà¦¬à¦²à¦Ľ":748,"Ġà¦Ī":749,"Ġà¦°à¦®à¦£":750,"Ġà¦¸à¦Ń":751,"à§Łà¦¤":752,"à¦Ĺà¦®":753,"à¦ķà¦¸":754,"à¦ªà¦Ł":755,"Ġà¦°à¦Ļ":756,"Ġà¦ĵà¦ĩ":757,"Ġà¦ħà¦¤à¦ıà¦¬":758,"Ġà¦Ĺà¦¨":759,"à¦ªà¦¥":760,"Ġà¦¸à¦¬à¦ļ":761,"Ġà¦¦à¦²":762,"à¦ľà¦¯":763,"à¦ĩà¦¤":764,"à¦·à¦¦":765,"à¦°à¦ªà¦°":766,"Ġà¦ıà¦ķà¦¬":767,"à¦£à¦¨":768,"à¦ľà¦¬":769,"à¦¨à¦Ĺ":770,"à¦¼à¦Ĥ":771,"Ġà¦ıà¦¸à¦¬":772,"Ġà¦īà§İà¦¸à¦¬":773,"à¦®à¦°à¦£":774,"Ġà¦ªà¦¤":775,"ĠčĊč":776,"Ġà¦°à¦¸":777,"à¦¯à¦Ń":778,"à¦²à¦¯":779,"à¦ķà¦¶":780,"à¦ĩà¦¯":781,"Ġà¦ªà¦£":782,"Ġà¦ĩà¦ļ":783,"Ġà¦§à¦°à¦¨":784,"à¦¸à¦¤":785,"Ġà¦ķà¦¯":786,"Ġà¦¸à¦®à§Ł":787,"à¦ķà¦Ń":788,"à¦¬à¦Ń":789,"Ġà¦Ĳà¦ķ":790,"à¦¡à¦²":791,"à¦¨à¦ª":792,"Ġà¦Ĩà¦°à¦®":793,"à¦ķà¦¦":794,"Ġà¦§à¦¨":795,"Ġà¦ĭà¦·":796,"à¦Ńà¦°":797,"Ġà¦¹à¦¸":798,"Ġà¦ħà¦ľ":799,"à¦ħà¦¨":800,"Ġà¦ªà¦¶":801,"à¦ªà¦£":802,"à¦ķà¦¨":803,"Ġà¦¹à¦ł":804,"à§¦":805,"Ġà¦ľà¦¯":806,"Ġà¦Ĩà¦¯":807,"Ġà¦ķà¦£":808,"Ġà¦¨à¦ľà¦°":809,"Ġà¦¹à¦°":810,"à¦¨à§Łà¦¨":811,"à¦Łà¦«":812,"Ġà¦°à¦ķà¦®":813,"Ġà¦Ĩà¦ª":814,"Ġà¦ħà¦¶":815,"Ġà¦ħà¦¨à¦²":816,"Ġà¦ıà¦¨":817,"Ġà¦Ĺà¦¬":818,"Ġà¦¬à¦¦à¦²":819,"Ġà¦īà§İà¦ª":820,"à¦£à¦ķ":821,"à¦®à¦ªà¦°":822,"à¦¬à¦®":823,"Ġà¦Ĩà¦¹":824,"Ġà¦¤à¦ĸà¦¨à¦ĩ":825,"à¦Ńà¦Ļ":826,"Ġà¦¸à¦ŀ":827,"à¦¶à¦Ĺ":828,"à¦²à¦®":829,"à¦ĩà¦¬":830,"Ġà¦ªà¦²":831,"Ġà¦¬à¦ķ":832,"à¦ķà¦ķ":833,"à¦·à¦°":834,"à¦¨à¦ĩ":835,"à¦®à¦¹":836,"Ġà¦¦à¦°à¦ķ":837,"Ġà¦īà¦ľ":838,"à¦®à¦¨à¦ĩ":839,"Ġà¦¨à¦¨":840,"Ġà¦¸à¦¦":841,"à¦Łà¦¤":842,"Ġà¦¨à¦Ĺà¦°":843,"à¦Łà¦¨":844,"Ġà¦īà¦ªà¦²à¦¬":845,"à¦°à¦Ľ":846,"à¦ıà¦°":847,"Ġà¦ıà¦®à¦¨à¦ķ":848,"Ġà¦¸à¦ł":849,"à¦°à¦¸à¦Ļ":850,"à¦¤à¦¬à¦¤":851,"Ġà¦¬à¦²à¦¬":852,"à¦¤à¦¦":853,"à¦²à¦²":854,"à¦¯à¦¤à¦®":855,"à¦®à¦¦":856,"à¦¦à§Ł":857,"à¦¯à§İ":858,"à¦®à¦§":859,"Ġà¦ħà¦ŀ":860,"Ġà¦ľà¦Ł":861,"Ġà¦Ĩà¦ĩà¦¨":862,"Ġà¦ıà¦ĸà¦¨à¦ĵ":863,"Ġà¦Ĩà¦ļà¦°à¦£":864,"à¦¶à¦¯":865,"à¦°à¦ĸ":866,"à¦¸à¦¬à¦ĩ":867,"Ġà¦Ńà¦ķ":868,"Ġà¦Ĩà¦¡":869,"Ġà¦ıà¦Ń":870,"à¦ľà¦¨à¦¶":871,"Ġà¦Ĩà¦ľà¦ĵ":872,"Ġà¦ħà¦¹":873,"à¦¨à¦Ń":874,"à¦¤à¦¸":875,"à¦ľà¦¤":876,"Ġà¦ļà¦ķ":877,"Ġà¦ıà¦ķà¦®":878,"à¦²à¦¸":879,"à¦ĩà¦Ł":880,"à¦¬à¦ļ":881,"Ġà¦¦à¦¶":882,"à¦°à¦¦à¦°":883,"à¦£à¦¬":884,"Ġà¦ıà¦ķà¦¤":885,"à¦ıà¦ķ":886,"à¦¯à¦¬à¦¤":887,"à¦®à¦ľ":888,"à¦ªà¦¡":889,"à¦®à¦ª":890,"à¦¨à¦¶":891,"à¦Łà¦¬":892,"à¦°à¦°":893,"à¦¶à¦²":894,"à¦¬à¦¨à¦¯":895,"ĠĠč":896,"à¦¥à¦®":897,"à§¨":898,"à¦®à§Ł":899,"à¦ĺà¦°":900,"Ġà¦¬à¦ľ":901,"Ġà¦¯à¦¨":902,"à¦¤à¦ª":903,"Ġà¦ħà¦«":904,"Ġà¦¸à¦¹à¦®à¦°":905,"Ġà¦ªà¦ŀ":906,"Ġà¦¸à¦¬à¦ĩ":907,"à¦²à¦Ń":908,"Ġà¦Īà¦¶":909,"à¦ĩà¦¡":910,"Ġà¦ļà¦¨":911,"Ġà¦ħà¦¸à¦®":912,"à¦ĸà¦ķ":913,"Ġà¦¸à§İ":914,"à¦¯à¦ķà¦°":915,"Ġà¦ľà¦¡":916,"à¦Ĺà¦łà¦¨":917,"Ġà¦¸à¦®à¦Ĺ":918,"Ġà¦ªà¦¦à¦ķ":919,"à¦Ĺà¦£":920,"à¦ĸà¦Ľ":921,"à¦¤à¦Ń":922,"Ġà¦ĵà¦°":923,"Ġà¦Ľà¦¬":924,"à¦Ńà¦¯":925,"Ġà¦Ľà¦¨":926,"à¦¨à¦²":927,"à¦ľà¦²":928,"à¦¨à¦¬à¦¤":929,"Ġà¦ķà¦·":930,"à¦²à¦Ĺ":931,"Ġà¦ħà¦¬à¦¦":932,"à§§":933,"à¦¾à¦ĥ":934,"à¦·à§Ł":935,"Ġà¦ĸà¦¬à¦°":936,"à¦¯à¦¥":937,"à¦®à¦¶":938,"à¦¥à¦²":939,"Ġà§¨":940,"Ġà¦¬à¦Ļ":941,"Ġà¦ıà¦ķà¦¥":942,"à¦¸à¦ª":943,"à¦°à¦ķà¦²":944,"à¦īà¦¨":945,"à¦ıà¦¸à¦¬à¦ĩ":946,"à¦¦à¦¬":947,"Ġà¦ľà¦¨à¦¸":948,"Ġà¦ĩà¦²":949,"à¦¹à¦¯":950,"Ġà¦¶à¦¹":951,"Ġà¦ľà¦Ĺà¦¤":952,"ĠĠĠĠĠĠĠĠĠĠĠĠĠĠĠĠ":953,"Ġà¦®à¦ľ":954,"Ġà¦¹à¦ĩ":955,"Ġà¦ħà¦ļ":956,"Ġà¦¸à¦°à¦²":957,"Ġà¦Ĺà¦łà¦¨":958,"à¦¬à¦ľà¦¨":959,"Ġà¦Ĩà¦ķà¦°":960,"à¦Ńà¦ķ":961,"Ġà¦¯à¦¤à¦ĩ":962,"à¦¸à¦¬à¦ķ":963,"Ġà¦¹à¦¨":964,"à¦ļà§Ł":965,"à¦ľà¦®":966,"à¦¥à¦¤":967,"Ġà¦¤à¦ªà¦¸":968,"à¦¬à¦ľ":969,"Ġà¦®à¦ŀ":970,"Ġà¦¸à¦®à¦°":971,"Ġà¦²à¦ľ":972,"Ġà¦īà¦ªà¦¯":973,"Ġà¦ļà¦²à¦Ľ":974,"à¦ķà¦¥":975,"à¦¬à¦ĩ":976,"Ġà¦¨à¦·":977,"Ġà¦¸à¦¹à¦¯":978,"à¦¦à¦ķ":979,"à¦ĩà¦Ń":980,"Ġà¦Ĩà¦¸à¦¬":981,"Ġà¦°à¦¹à¦¸":982,"à¦¦à¦¶":983,"Ġà¦°à¦ĩà¦²":984,"Ġà¦ļà¦²à¦¤":985,"Ġà¦ĺà¦¨":986,"Ġà¦Ĩà¦¬à¦¦":987,"à¦°à¦¬à¦°":988,"Ġà¦ļà¦°à¦®":989,"à¦¦à¦Ł":990,"à¦ªà¦®":991,"Ġà¦¬à§ľ":992,"Ġà¦¯à¦¯":993,"Ġà¦®à¦¨à¦¨":994,"à¦°à¦¥à¦®à¦¤":995,"à¦¸à¦¹":996,"à§İà¦ªà¦°":997,"Ġà¦Ĩà¦¸à¦Ľ":998,"à¦¨à¦®":999,"à¦ľà¦¨à¦ķ":1000,"à¦¯à¦¶":1001,"Ġà¦īà¦łà¦¤":1002,"à¦¯à¦ľ":1003,"Ġà¦ļà¦¤":1004,"Ġà¦ķà¦ļ":1005,"Ġà¦®à¦£":1006,"Ġà¦ħà¦Łà¦²":1007,"à¦®à¦®":1008,"Ġà¦Ĩà¦Ń":1009,"à¦¦à¦Ĺ":1010,"Ġà¦ħà¦Ł":1011,"Ġà¦Ĺà¦Ļ":1012,"à¦Łà¦°":1013,"à¦¤à¦ĩ":1014,"à¦ķà¦Ĺ":1015,"à¦¬à¦°à¦£":1016,"à¦¬à¦¹":1017,"à¦ĩà¦Ľ":1018,"à¦Łà¦«à¦°":1019,"à¦ħà¦¤":1020,"à¦Ĺà¦¸":1021,"à¦¬à¦§":1022,"Ġà¦Ĩà¦¸à¦¤":1023,"à¦¿à¦ģ":1024,"à¦ĩà¦¸":1025,"à¦Ńà¦¬à¦¤":1026,"Ġà¦ľà¦²à¦¬":1027,"Ġà¦ªà¦°à¦¸":1028,"à¦¯à¦Ĺ":1029,"à¦²à¦Ľ":1030,"à¦¶à¦°":1031,"Ġà¦«à¦°":1032,"à¦°à¦¬à¦²":1033,"à¦ĺà¦®":1034,"à¦¸à¦²à¦®":1035,"Ġà¦¶à¦¤à¦ķ":1036,"Ġà¦ľà¦¨à¦¨":1037,"Ġà¦·":1038,"Ġà¦Ķ":1039,"Ġà¦°à¦ļ":1040,"Ġà¦Ľà§ľ":1041,"à¦ļà¦¤":1042,"Ġà¦īà¦łà¦¬":1043,"à¦Ŀà¦²":1044,"à¦®à¦ļ":1045,"à¦ĸà¦°":1046,"à¦¯à¦ĵ":1047,"Ġà¦Ĩà¦Ļ":1048,"Ġà¦Ĩà¦®à¦²":1049,"à§Ŀ":1050,"Ġà¦¸à¦ª":1051,"Ġà¦ķà¦²à¦ķ":1052,"Ġà¦īà¦Ńà¦¯":1053,"à¦¤à¦Ĺ":1054,"à¦Ľà¦¬":1055,"à¦ĸà¦£":1056,"Ġà¦ķà¦¤à¦Ł":1057,"à§«":1058,"à¦Ľà¦¤":1059,"Ġà¦ıà¦ķà¦¸à¦Ļ":1060,"à¦·à¦Ł":1061,"à¦°à¦®à¦¶":1062,"à¦¬à¦°à¦¤":1063,"Ġà¦ĵà¦¦":1064,"Ġà¦ıà¦ĩà¦¸à¦¬":1065,"à¦¸à¦°à¦ķ":1066,"à¦Łà¦ª":1067,"à§§à§":1068,"à¦Ĺà¦ľ":1069,"à¦ĩà¦ľ":1070,"Ġà¦¹à¦ĵà§Ł":1071,"à¦¸à¦®à¦¯":1072,"Ġà¦ªà¦Ł":1073,"Ġà¦®à¦Ļ":1074,"Ġà¦¬à¦¹à¦¨":1075,"à¦¬à¦¨à¦ķ":1076,"à¦¹à§İ":1077,"Ġà¦Ńà¦Ĺà¦¬":1078,"à¦ªà¦¬":1079,"Ġà¦ĭà¦Ĺ":1080,"à¦°à¦ļà¦²":1081,"Ġà¦Ĩà¦Łà¦ķ":1082,"Ġà¦®à§İà¦¸":1083,"Ġà¦ıà¦ĩà¦°à¦ķà¦®":1084,"à¦¨à¦¬à¦ľ":1085,"à¦Ĩà¦°":1086,"Ġà¦¨à¦¹":1087,"à¦¶à¦®":1088,"à¦¬à¦Ł":1089,"Ġà¦Ńà¦°à¦¤":1090,"à¦ıà¦ķà¦Ł":1091,"Ġà¦ľà¦Ĺ":1092,"à¦¡à¦¬":1093,"à¦ķà¦¡":1094,"à¦²à§Ł":1095,"Ġà¦¦à¦°à¦ľ":1096,"Ġà¦ıà¦¤à¦Ł":1097,"Ġà¦¸à¦ľ":1098,"à¦§à¦®":1099,"Ġà¦²à¦¡":1100,"Ġà¦Ĭ":1101,"à¦¬à¦¤à¦¨":1102,"Ġà¦¤à¦²":1103,"Ġà¦ĸà¦£":1104,"Ġà¦®à¦¨à¦¸":1105,"Ġà¦Ĩà¦¨à¦¤":1106,"à¦°à¦¬à¦£à¦¤":1107,"Ġà¦¬à¦ŀ":1108,"Ġà¦īà¦¡":1109,"Ġà¦¬à¦¶":1110,"Ġà¦ªà¦°à¦¶":1111,"à¦¸à¦Ń":1112,"à¦·à¦¸":1113,"à¦ľà¦Ĺ":1114,"à¦ľà¦ª":1115,"à¦ıà¦Ł":1116,"à¦ªà¦¯":1117,"à¦¡à¦¬à¦¦":1118,"à¦¥à¦¬":1119,"à¦²à¦Ł":1120,"à¦°à¦¤à¦¬à¦°":1121,"Ġà¦Ĩà¦¬à¦¶":1122,"Ġà¦ıà¦ĩà¦Ń":1123,"Ġà¦¬à¦¸à¦¨":1124,"à¦¬à¦Ĺ":1125,"à¦¬à§Ł":1126,"Ġà¦ľà§Ł":1127,"Ġà¦ĩà¦¸à¦²":1128,"Ġà¦ħà¦¬à¦ķ":1129,"Ġà¦¸à¦¬à¦ķ":1130,"Ġà¦¤à¦ĸà¦¨à¦ĵ":1131,"Ġà¦ħà¦¥à¦°":1132,"à¦¸à¦°à¦£":1133,"Ġà¦¨à¦®":1134,"à¦ķà¦ª":1135,"Ġà¦ıà¦®à¦¨à¦ĩ":1136,"à¦°à¦¸à¦°":1137,"à¦¸à¦Ł":1138,"à¦Ĺà¦°à¦£":1139,"à¦ķà¦¸à¦ĩ":1140,"à¦īà¦°":1141,"Ġà¦ĩà¦Ļ":1142,"Ġà¦ħà¦¬à¦¹":1143,"à¦¹à¦°à¦£à¦¸":1144,"à¦®à¦ŀ":1145,"Ġà¦®à¦¸":1146,"Ġà¦¤à¦¦":1147,"à¦ķà¦ĩ":1148,"à¦¶à¦Ł":1149,"Ġà¦ĩà¦¹":1150,"à¦¦à¦®":1151,"à¦¯à¦Ł":1152,"à¦·à¦ª":1153,"à§Łà¦®":1154,"à¦°à¦·":1155,"à¦īà¦Ł":1156,"à¦¨à¦Ĩà¦®":1157,"à¦ķà¦®":1158,"à¦ľà¦Ł":1159,"Ġà¦¯à¦®":1160,"à¦²à¦ª":1161,"à¦®à¦Ł":1162,"à¦Ĺà¦ķ":1163,"à¦īà¦ķ":1164,"à¦¤à¦¶":1165,"Ġà¦Ŀà¦°":1166,"Ġà¦ªà¦Ľà¦¨":1167,"à¦£à¦¦":1168,"Ġà¦Ĺà¦£à¦¤à¦¨":1169,"à¦Ľà¦²":1170,"à¦Ļà¦²":1171,"à¦Ĺà¦¦":1172,"à¦°à¦«":1173,"à¦¹à¦®":1174,"à¦īà¦¦":1175,"Ġà¦ıà¦ķà¦ķ":1176,"à¦ĸà¦¯":1177,"Ġà¦ħà¦¸à¦¹":1178,"Ġà¦Ńà¦¦":1179,"Ġà¦īà¦·":1180,"à¦ķà¦ļ":1181,"à¦²à¦ķà¦²":1182,"à¦¹à¦ķ":1183,"Ġà¦®à¦¦":1184,"Ġà¦ıà¦¡":1185,"Ġà¦®à¦¹à¦°":1186,"à¦¶à¦ĩ":1187,"Ġà¦īà¦łà¦Ľ":1188,"à¦ĭ":1189,"à§©":1190,"à¦¯à¦¹":1191,"à¦®à¦ĩ":1192,"à¦°à¦£à¦¯":1193,"à¦¦à¦¸":1194,"à¦¸à¦¸":1195,"à¦·à¦Ń":1196,"Ġà¦°à¦ľ":1197,"à¦²à¦ľ":1198,"à¦²à¦ļ":1199,"Ġà¦¨à¦ĩà¦²":1200,"à¦¶à¦¤":1201,"à¦§à¦¹à¦¯":1202,"ĠĠčĊ":1203,"Ġà¦§à¦°à¦¤":1204,"à¦¯à¦¬à¦¦":1205,"Ġà¦Ĩà¦¸à¦¨":1206,"Ġà¦ķà¦ª":1207,"Ġà¦¸à¦®à¦¤":1208,"à¦®à¦Ń":1209,"Ġà¦ĵà¦¯":1210,"à¦ĺà¦¨":1211,"à§ª":1212,"à¦£à¦Ĺ":1213,"Ġà¦¸à¦®à¦¬":1214,"Ġà¦«à¦ķ":1215,"Ġà§©":1216,"à¦²à¦«":1217,"à¦¸à¦«":1218,"à¦Ĺà¦Ń":1219,"Ġà¦°à¦¥":1220,"Ġà¦°à§Ł":1221,"Ġà¦ħà¦¬à¦§":1222,"à¦Ĩà¦ľà¦ķ":1223,"Ġà¦ļà¦²à¦¬":1224,"à¦¬à¦²à¦¤":1225,"à¦¶à¦Ĺà¦¤":1226,"à¦¥à¦°":1227,"à¦¸à¦¦":1228,"Ġà¦Ĩà¦ĸ":1229,"à§Łà¦ķ":1230,"Ġà¦ħà¦¬à¦¤":1231,"à¦«à¦²à¦¨":1232,"Ġà¦ıà¦¤à¦ķ":1233,"Ġà¦¸à¦«":1234,"Ġà¦¤à§İà¦ķ":1235,"à¦Ĩà¦®à¦°":1236,"à¦ħà¦¬à¦¶":1237,"Ġà¦ıà¦°à¦ªà¦°":1238,"à¦¬à¦Ľ":1239,"à¦ļà¦Ł":1240,"Ġà¦«à¦¸à¦²":1241,"Ġà¦¸à¦¤à¦°":1242,"Ġà¦ªà¦¹":1243,"à¦ªà¦ķà¦²":1244,"Ġà¦¬à§Ł":1245,"à¦Łà¦®":1246,"à¦ļà¦°à¦£":1247,"Ġà¦Ĺà¦°à¦®":1248,"à¦īà¦ªà¦¸":1249,"Ġà§§à§¯à§Ń":1250,"à§Ń":1251,"à¦¨à¦ļ":1252,"à¦®à¦¸à¦®":1253,"Ġà¦¸à¦ĸ":1254,"Ġà¦¸à¦¹à¦¸":1255,"à¦·à¦ĩ":1256,"Ġà¦®à¦®à¦¤":1257,"Ġà¦ľà¦¨à¦Ĺ":1258,"à¦¶à¦¦":1259,"Ġà¦Ĺà¦¦":1260,"à¦²à¦ĩ":1261,"Ġà¦Ńà§Ł":1262,"Ġà¦īà¦ªà¦Ń":1263,"à¦ħà¦°":1264,"à¦¤à¦Ł":1265,"à¦¤à¦ľ":1266,"Ġà¦Ĩà¦¬à¦°":1267,"Ġà¦Ĩà¦ĺ":1268,"Ġà¦Ĳà¦¶":1269,"Ġà¦ıà¦°à¦ĩ":1270,"à¦Ĺà¦¡":1271,"Ġà¦¬à¦¸à¦¤":1272,"Ġà¦¸à¦°à¦¸":1273,"Ġà¦ĸà¦°à¦ļ":1274,"Ġà¦ħà¦¦à¦®":1275,"à¦¨à¦¸à¦®":1276,"à¦¦à¦¦":1277,"à¦ªà¦Ĺ":1278,"Ġà¦°à¦¤":1279,"à§İà¦¸à¦¬":1280,"à¦ªà¦²":1281,"Ġà¦īà¦ªà¦¦":1282,"à¦¤à¦°à¦£":1283,"à¦¯à¦®à¦¯":1284,"à¦ķà¦ľà¦¨":1285,"Ġà¦ħà¦·":1286,"Ġà¦ħà¦¬à¦²à¦®":1287,"à¦¨à¦¹":1288,"Ġà¦ħà¦°à¦£":1289,"à§ĩà¦¾":1290,"Ġà¦¯à¦¤à¦Ł":1291,"à¦¯à¦Ļ":1292,"Ġà¦Ńà¦Ļ":1293,"Ġà¦®à¦¨à¦ķ":1294,"Ġà¦ľà¦¨à¦®":1295,"Ġà¦§à¦°à¦²":1296,"à¦ħà¦¤à¦ıà¦¬":1297,"Ġà¦¦à¦¶à¦ķ":1298,"à¦Ńà¦°à¦¤":1299,"Ġà¦ļà¦¡":1300,"à§İà¦ª":1301,"à¦ĩà§Ł":1302,"Ġà§§à§¯à§«":1303,"Ġà¦Ĭà¦°":1304,"à¦°à¦Ļ":1305,"Ġà¦¦à¦®":1306,"Ġà¦ķà¦Ł":1307,"Ġà¦¬à¦£":1308,"à¦¦à¦ª":1309,"à¦ļà¦¶":1310,"Ġà¦¨à¦¬à¦¦":1311,"à¦Ŀà¦ĸ":1312,"à¦²à¦¬à¦¨":1313,"Ġà¦¸à¦«à¦²":1314,"à¦Ĺà¦®à¦¨":1315,"à¦¥à¦¸":1316,"à§Łà¦¬à¦¦":1317,"à¦°à¦¤à¦°":1318,"Ġà¦Ĩà¦°à¦¬":1319,"à¦£à¦ª":1320,"Ġà¦Ĺà¦®":1321,"à¦Ĺà¦¬à¦¤":1322,"Ġà¦ľà¦¬":1323,"Ġà¦Ĩà¦¬à¦¹":1324,"Ġà¦ħà¦ªà¦®":1325,"à¦ľà¦§":1326,"Ġà¦ªà¦¨":1327,"Ġà¦¶à¦Ļ":1328,"à¦¨à¦ıà¦ĩ":1329,"Ġà¦Ĩà§Ł":1330,"à¦£à¦¬à¦¨":1331,"Ġà¦ļà¦Ł":1332,"Ġà¦¬à¦¸à¦²":1333,"Ġà¦¨à¦¬à¦ľ":1334,"Ġà§§à§¯à§Ńà§§":1335,"à¦¨à¦Ĩ":1336,"à¦¹à¦¦":1337,"Ġà¦ĩà¦¯":1338,"à§°à¦¹":1339,"Ġà¦ľà¦Ĺà§İ":1340,"à§ģà¦Ĥ":1341,"à¦ļà¦®":1342,"Ġà¦ıà¦ĩà¦ĸ":1343,"à¦¬à¦ĵ":1344,"à¦¶à¦¸":1345,"à§°à¦¤":1346,"à¦Ĳ":1347,"Ġà¦Ĩà¦Ł":1348,"ĠĠĠ":1349,"à¦®à¦ļà¦¨":1350,"à¦°à¦¬à¦¤":1351,"Ġà¦ļà¦²à¦²":1352,"Ġà¦¬à¦ĩà¦¯":1353,"à¦ľà¦Ĺà¦¤":1354,"à¦£à¦®":1355,"à¦°à¦¸à¦¨":1356,"à¦ªà¦ª":1357,"Ġà¦®à¦¥":1358,"à¦§à¦¨à¦ķ":1359,"Ġà¦ıà¦¤à¦¦":1360,"à¦²à¦¦":1361,"Ġà¦¤à¦¨":1362,"à¦Ĺà¦¯":1363,"Ġà¦īà¦Ĺ":1364,"Ġà¦ıà¦Ľ":1365,"Ġà¦īà¦ªà¦ķ":1366,"Ġà¦īà¦ªà¦¹":1367,"à¦łà¦ķà¦ķ":1368,"à¦¯à¦ŀ":1369,"Ġà¦ĭà¦¤":1370,"Ġà¦¬à¦¸à¦¬":1371,"à¦ĩà¦®":1372,"à¦Ńà¦¨":1373,"Ġà¦²à¦¤":1374,"à¦ıà¦Ĺ":1375,"Ġà¦¦à¦¯":1376,"à¦°à¦ħà¦¨":1377,"à§Ģà¦Ĥ":1378,"à¦£à¦Ĺà¦¤":1379,"à¦ıà¦®à¦¨":1380,"à¦¬à¦£":1381,"à¦¬à§İ":1382,"Ġà¦¬à¦§":1383,"Ġà¦¦à¦ĸà¦²":1384,"à§®":1385,"à¦¯à¦²":1386,"à¦£à¦Ń":1387,"à¦łà¦¤":1388,"à¦°à¦ķà¦Ł":1389,"à¦ıà¦ĸà¦¨":1390,"à¦Ĩà¦²":1391,"à¦®à¦£à¦¦":1392,"à¦¯à§Ł":1393,"Ġà¦ħà¦¯":1394,"Ġà¦ļà¦®à¦ķ":1395,"Ġà¦ĺà¦£":1396,"Ġà¦¬à¦°à¦ŀ":1397,"Ġà¦īà¦¦à¦¯":1398,"à¦·à¦ªà¦°":1399,"Ġà¦īà¦ªà¦ķà¦°à¦£":1400,"Ġà§§à§¯à§«à§¨":1401,"à¦ĩà¦¦":1402,"Ġà¦®à¦¯":1403,"Ġà¦¦à¦¤":1404,"à¦ķà¦ĵ":1405,"à¦Łà¦ĸ":1406,"Ġà¦ªà¦¥à¦ļà¦²":1407,"Ġà¦ªà¦¯":1408,"à¦Ĺà¦ł":1409,"à¦īà¦ĩ":1410,"Ġà¦Īà¦¦":1411,"à¦ªà¦ĩ":1412,"à¦ľà¦ĵ":1413,"à¦ļà¦¬":1414,"à¦¬à¦²à¦®":1415,"à¦¬à¦¹à¦¨":1416,"Ġà¦°à¦®":1417,"à¦¬à¦¨à¦§":1418,"Ġà¦¬à¦ĩà§Ł":1419,"à§¬":1420,"Ġà¦¨à¦ķà¦¶":1421,"Ġà¦®à¦¤à¦¬":1422,"Ġà§«":1423,"à¦®à¦ĵ":1424,"Ġà¦¬à¦°à¦£":1425,"à¦£à¦¯":1426,"Ġà§ª":1427,"à¦ħà¦¸":1428,"Ġà¦Ĩà¦¶à¦Ļ":1429,"à¦¯à¦¬à¦°":1430,"à¦Ĺà¦ª":1431,"à¦¥à¦ª":1432,"à§Łà¦Ĺ":1433,"à¦łà¦¸":1434,"à¦°à¦¶à¦¸":1435,"Ġà¦®à¦¶":1436,"Ġà¦®à¦Ĺ":1437,"à¦°à¦¸à¦®":1438,"Ġà¦¹à§Łà¦¤":1439,"à¦·à¦ķà¦¦":1440,"à¦¨à¦¤à¦°":1441,"à¦¬à¦¬à¦°":1442,"à¦ĩà¦ĩ":1443,"à¦ĩà¦«":1444,"Ġà¦¤à¦ķ":1445,"à¦ıà¦Ń":1446,"Ġà¦ĺà¦Łà¦²":1447,"Ġà¦ıà¦¤à¦ĩ":1448,"Ġà¦¬à¦ī":1449,"à¦¦à¦¤":1450,"Ġà¦¨à¦°à¦®":1451,"à¦£à¦¸":1452,"Ġà¦īà¦ķ":1453,"à¦Ĩà¦§":1454,"Ġà¦¶à¦°à§İ":1455,"à¦¤à¦ªà¦ķ":1456,"à¦¸à¦¯":1457,"à¦ªà¦ļ":1458,"à¦¦à¦£":1459,"Ġà¦Ĩà¦ªà¦¤":1460,"à¦·à¦Ļ":1461,"Ġà¦ĸà¦°":1462,"à§İà¦¸à¦°":1463,"Ġà§¨à§¦":1464,"à¦¨à¦¬à¦°":1465,"à¦²à¦°":1466,"Ġà¦ªà¦¬":1467,"à¦Ĺà¦ĩ":1468,"à¦¨à¦¤à¦®":1469,"Ġà¦ļà¦²à¦®":1470,"à¦®à¦£à¦¸":1471,"Ġà¦ķà¦²à¦®":1472,"à¦ķà¦ľ":1473,"Ġà¦¶à¦¸":1474,"à¦¤à¦°à¦Ļ":1475,"Ġà¦īà¦ªà¦®":1476,"Ġà¦Ĩà¦ķà¦¸":1477,"Ġà¦ĭà¦£":1478,"Ġà¦Ĺà¦£à¦®":1479,"Ġà¦Ńà¦Ĺ":1480,"Ġà¦¸à¦®à¦ķ":1481,"Ġà¦ıà¦ķà¦¶":1482,"à¦°à¦¤à¦®":1483,"à¦ĭà¦·":1484,"Ġà¦®à¦¡":1485,"à§Łà¦¬":1486,"Ġà¦Ĩà¦®à¦¨":1487,"à¦®à¦¡":1488,"Ġà¦ķà§Ł":1489,"Ġà¦Ĺà¦£à¦¤":1490,"à¦¨à¦ķà¦¥":1491,"Ġà¦ıà¦ĩà¦Ł":1492,"Ġà¦ľà¦¨à¦ª":1493,"Ġà¦ĩà¦®":1494,"Ġà¦¸à¦¦à¦¸":1495,"Ġà¦ªà¦Łà¦Ń":1496,"à¦¨à¦Ľ":1497,"Ġà¦¨à¦°":1498,"à¦¹à¦¬":1499,"à¦¬à¦¨à¦¬":1500,"à¦Ŀà¦¬":1501,"Ġà¦¸à¦°à¦²à¦¤":1502,"à¦ªà¦¶":1503,"Ġà¦¸à¦®à¦·":1504,"à¦°à¦¥à¦®à¦¬":1505,"Ġà¦ħà¦®à¦²":1506,"Ġà¦Ĩà¦ŀ":1507,"à¦Łà¦Ĺ":1508,"à¦£à¦°":1509,"à¦ĵà¦¨":1510,"Ġà¦ªà¦°à¦ķ":1511,"Ġà¦ľà¦¨à¦Ĺà¦£":1512,"à¦īà¦ľ":1513,"à¦¦à¦¨à¦¶":1514,"Ġà¦ıà¦°à¦ķà¦®":1515,"à¦§à¦¦":1516,"Ġà¦Ĩà¦°à¦£":1517,"Ġà¦ªà¦¥à¦ª":1518,"à¦·à¦¬":1519,"à¦Ĺà¦Ĺ":1520,"Ġà¦ļà¦®":1521,"à¦¯à¦ķà¦²":1522,"à¦¤à¦ļ":1523,"à¦ªà¦ľ":1524,"Ġà¦ħà¦ľà¦¸":1525,"Ġà¦ķà¦°à¦£":1526,"à¦Ńà¦°à¦¶":1527,"à¦Łà¦¸":1528,"Ġà¦Ķà¦ªà¦¨":1529,"à¦ĩà¦ª":1530,"à¦Ĺà¦Ł":1531,"à§°à¦ķ":1532,"Ġà¦ħà¦²à¦Ļ":1533,"à¦Ĳà¦¤":1534,"Ġà¦¬à¦¦":1535,"Ġà¦ħà¦¬à¦¨":1536,"Ġà¦§à¦¨à¦¤":1537,"à¦®à¦¨à¦Ł":1538,"Ġà¦ľà¦Ļ":1539,"à¦¨à¦ľ":1540,"à¦·à¦ľ":1541,"à¦·à¦ķà¦°":1542,"à¦ĸà¦¦":1543,"Ġà¦Ĩà¦ľà¦ĩ":1544,"ĠĠĠĠĠĠĠĠĠĠĠĠĠĠĠĠĠĠĠĠĠĠĠĠĠĠĠĠĠĠĠĠ":1545,"à¦¨à¦Ĺà¦°":1546,"à¦ľà¦¦":1547,"Ġà¦¶à¦¯":1548,"Ġà¦Ńà¦°à¦¸":1549,"Ġà¦Ľà¦¯":1550,"Ġà¦®à¦¨à¦¨à¦¶":1551,"Ġà¦īà¦ªà¦ľ":1552,"Ġà¦¶à¦¤à¦ªà¦¥":1553,"Ġà¦¤à¦°à¦Ļ":1554,"à¦¯à¦ļ":1555,"à¦Ńà§Ł":1556,"Ġà¦¶à¦°à§İà¦ļà¦¨":1557,"à¦¤à¦¯":1558,"à¦¤à¦ĵ":1559,"Ġà¦ħà¦®à¦°":1560,"à¦ĸà¦¸":1561,"Ġà¦¨à¦ĩ":1562,"Ġà¦Ĺà¦ł":1563,"à¦īà¦¡":1564,"à§¯":1565,"à¦¯à¦¸à¦®":1566,"Ġà¦¨à¦ķ":1567,"à¦ľà¦ĩ":1568,"Ġà¦ĵà§Ł":1569,"Ġà¦²à¦®":1570,"à¦§à¦¸":1571,"à¦°à¦®à¦¬à¦°":1572,"à¦Ĩà¦Ĺ":1573,"à¦ķà¦Ľ":1574,"à¦®à¦ļà¦°":1575,"à¦ĵà¦°":1576,"Ġà¦ıà¦ĸà¦¨à¦ĩ":1577,"à¦ľà¦¸à¦Ń":1578,"Ġà¦Ńà¦°à¦¦":1579,"à§Īà¦ĥ":1580,"Ġà¦ľà¦¨à¦ľ":1581,"Ġà¦®à¦¹à¦¤":1582,"à¦¯à¦®à§Ł":1583,"Ġà¦®à¦®":1584,"à¦¡à¦¨":1585,"Ġà¦ļà¦°à¦£":1586,"Ġà¦Ĳà¦¨":1587,"Ġà¦Ŀà¦Ĺà¦¡":1588,"à¦¯à¦°à¦ķà¦®":1589,"Ġà¦¦à¦°à¦¬":1590,"à¦¡à¦ķ":1591,"Ġà¦ıà¦ķà¦¸":1592,"Ġà¦ħà¦¨à¦¬à¦¦":1593,"Ġà¦ĩà¦īà¦°":1594,"Ġà¦ªà§ľà¦²":1595,"à¦²à¦®à¦¨":1596,"à¦ªà§ľ":1597,"Ġà¦¶à¦¶":1598,"Ġà¦ĩà¦īà¦¨":1599,"à¦°à¦¬à¦£":1600,"Ġà¦ħà¦ªà¦¬":1601,"à¦°à¦¹à¦£à¦¯":1602,"Ġà¦ķà¦¤à¦Ĺ":1603,"à¦¸à¦ķà¦·":1604,"Ġà¦¸à¦«à¦²à¦¤":1605,"à¦¨à¦ı":1606,"à¦¨à¦ħ":1607,"à¦¤à¦¥":1608,"à¦¯à¦ļà¦°":1609,"à¦¼à¦ĥ":1610,"à¦¦à¦ĩ":1611,"Ġà¦¦à¦£":1612,"à¦ªà¦ķà¦¥à¦¨":1613,"Ġà¦¯à¦¤à¦¦":1614,"à¦¤à¦¬à¦°":1615,"à¦ķà¦£":1616,"à¦¸à¦ĩ":1617,"à¦Łà¦Ľ":1618,"Ġà¦¤à¦¸":1619,"à¦°à¦£à¦¤":1620,"à¦®à¦¬à¦Ļ":1621,"Ġà§§à§¦":1622,"à¦ķà¦¯":1623,"à¦Łà¦Ń":1624,"Ġà¦ĵà¦Ł":1625,"à¦²à¦®à¦²":1626,"Ġà¦ıà¦¯":1627,"à¦ļà¦¡":1628,"à¦¥à¦ķà¦¤":1629,"à¦¤à¦¨à¦¶":1630,"à¦īà§İà¦¸à¦¬":1631,"à¦¸à¦®à§Ł":1632,"Ġà¦ĩà¦¨à¦¸":1633,"Ġà¦¤à¦¤à¦Ł":1634,"Ġà¦Ķà¦°à¦¸":1635,"à¦¤à¦¹":1636,"Ġà¦¬à§İà¦¸à¦°":1637,"Ġà¦¤à¦ª":1638,"Ġà¦ļà¦£":1639,"Ġà¦ĵà¦ª":1640,"Ġà¦ĩà¦°":1641,"à¦Ŀà¦°":1642,"Ġà¦ľà¦²à¦ľ":1643,"à¦¨à¦§":1644,"Ġà¦®à¦ľà¦¬":1645,"Ġà¦¨à¦Ĺ":1646,"à¦Łà¦¦":1647,"à¦ľà§Ł":1648,"à¦¡à¦¬à¦°":1649,"à¦Ĩà¦ľ":1650,"à¦®à¦£à¦ķ":1651,"Ġà¦¯à¦ĸà¦¨à¦ĩ":1652,"à¦·à¦ķà¦¶":1653,"Ġà¦¤à¦¤à¦ĩ":1654,"à¦ķà¦ĸ":1655,"Ġà¦ķà¦¡":1656,"Ġà¦¬à¦ªà¦¨":1657,"Ġà¦ıà¦ĵ":1658,"à¦¶à¦ĵ":1659,"à¦Ĺà¦Ľ":1660,"à¦¤à¦°à¦ĩ":1661,"Ġà¦ħà¦¬à¦¸à¦°":1662,"Ġà¦®à¦¹à§İ":1663,"Ġà¦Ŀà¦¡":1664,"Ġà¦Ĩà¦ĸà¦¡":1665,"à¦¦à¦ĵ":1666,"Ġà¦ħà¦§à¦°":1667,"Ġà¦ĺà¦Łà¦¬":1668,"à¦°à¦¸à¦¬":1669,"Ġà¦²à¦Ļ":1670,"Ġà¦§à¦°à¦£":1671,"à¦ķà¦¬à¦°":1672,"Ġà¦Ĩà¦ĩ":1673,"à¦Ĺà¦ĵ":1674,"à¦§à¦ķà¦¤":1675,"Ġà¦¯à¦¶":1676,"Ġà¦ĵà¦·":1677,"Ġà¦ıà¦ķà¦°à¦ķà¦®":1678,"Ġà¦ľà¦¨à¦¤":1679,"Ġà¦¤à¦ĸà¦¨à¦ķ":1680,"Ġà¦ıà¦ĸà¦¨à¦ķ":1681,"à¦ıà¦ķà¦ľà¦¨":1682,"à¦¸à¦ĵ":1683,"à¦Łà¦Ĺà¦²":1684,"à¦Ĺà¦¤à¦Ń":1685,"à¦²à¦¨à¦®":1686,"à¦ĺà¦ķ":1687,"Ġà¦ıà¦®à¦¨à¦Ń":1688,"à¦¬à¦ķà¦¦":1689,"Ġà¦ļà¦®à§İà¦ķ":1690,"à¦¦à¦¬à¦¦":1691,"Ġà¦®à¦²":1692,"à¦§à¦ĩ":1693,"à¦Ńà¦¸":1694,"Ġà¦ıà¦ķà¦¯":1695,"Ġà¦ĺà¦Łà¦Ľ":1696,"à§°à¦¬":1697,"à¦¦à¦Ń":1698,"Ġà¦Ĩà¦ĵà¦¯":1699,"Ġà¦ıà¦ķà¦ª":1700,"à¦ıà¦ĸ":1701,"à¦°à¦®à¦¬":1702,"Ġà¦¸à¦¬à¦¸à¦®à¦¯":1703,"Ġà¦¸à¦¹à¦ķà¦°":1704,"à¦¥à¦ªà¦°à¦¤":1705,"à¦§à¦Ł":1706,"Ġà¦Ńà¦Ł":1707,"à§ľà¦Ľ":1708,"Ġà¦¸à¦¹à¦¨à¦¶":1709,"à¦¨à¦ĵà¦Ń":1710,"Ġà¦īà§İà¦ªà¦¤":1711,"à¦¯à¦§":1712,"Ġà¦Ĩà¦¹à¦°à¦£":1713,"à¦¡à¦ª":1714,"Ġà¦ıà¦ķà¦ĸ":1715,"Ġà¦§à¦°à¦¬":1716,"Ġà¦Ĩà¦¸à¦°":1717,"à¦°à¦¹à¦°":1718,"Ġà¦¬à¦¨à¦Ń":1719,"¯à§¦":1720,"Ġà¦¨à¦¬à¦¬à¦°":1721,"Ġà¦ħà¦¬à¦¨à¦¤":1722,"à¦¯à¦°à¦¸":1723,"Ġà¦¸à¦¸":1724,"Ġà¦®à¦°à¦£":1725,"à¦Ľà¦ķ":1726,"à¦Ľà¦ª":1727,"Ġà¦ħà¦¨à¦¸":1728,"à¦ªà¦°à¦®":1729,"Ġà¦ĺà¦Łà¦¤":1730,"Ġà¦Ĩà¦Ĺà¦®à¦¨":1731,"à¦ħà¦Ń":1732,"Ġà¦¤à¦¤à¦¦":1733,"Ġà¦īà¦²à¦Ł":1734,"à¦¯à¦ĸà¦¨":1735,"Ġà¦¶à¦ļ":1736,"Ġà¦Ľà¦²":1737,"à¦īà¦¸":1738,"à¦¨à¦¬à¦¸à¦®":1739,"à¦Ĩà¦ķ":1740,"Ġà¦Ŀà¦²à¦®à¦²":1741,"à¦ķà¦¤à¦°":1742,"à¦ľà¦¤à¦¨":1743,"Ġà¦¶à¦ªà¦¥":1744,"Ġà¦²à§ľ":1745,"à¦°à¦ķà¦¨":1746,"Ġà¦ĩà¦¸":1747,"à¦¨à¦¬à¦¦":1748,"Ġà¦«à¦²à¦¶":1749,"Ġà¦§à¦¨à¦¤à¦¨":1750,"à§¦à§¦":1751,"à¦¤à¦ĸà¦¨":1752,"à¦Łà¦ĩ":1753,"Ġà¦¹à¦ĩà¦¯":1754,"à¦ļà¦¤à¦°":1755,"Ġà¦ľà§ľ":1756,"Ġà¦ĵà¦ķ":1757,"à¦ĺà¦¦":1758,"Ġà¦ķà¦²à¦Ļ":1759,"à¦Łà¦¤à¦ĩ":1760,"à¦¤à¦°à¦ķ":1761,"à¦ķà¦¸à¦Ļ":1762,"à¦ĩà¦ľà¦¨":1763,"à¦ļà¦¬à¦°":1764,"Ġà¦ħà¦¤à¦²":1765,"à¦ªà¦ķà¦¥":1766,"Ġà¦¨à¦¡":1767,"Ġà¦¦à¦®à¦¨":1768,"à¦Ńà¦ľ":1769,"Ġà¦Ĺà¦¯":1770,"à§İà¦ªà¦¤":1771,"à¦°à¦¬à¦ķ":1772,"à¦īà¦¤":1773,"Ġà¦¬à¦°à¦«":1774,"Ġà¦īà¦¤à¦Ļ":1775,"Ġà¦ıà¦ķà¦ĩà¦Ń":1776,"à¦ķà¦ł":1777,"à¦·à¦¨":1778,"Ġà¦ħà¦®à¦¨":1779,"Ġà¦¹à¦ĩà¦²":1780,"à¦¯à¦¬à¦§":1781,"à¦ĺà¦Łà¦¨":1782,"Ġà§§":1783,"à¦°à¦Ĩ":1784,"à¦¯à¦§à¦°":1785,"à¦·à¦ĵ":1786,"à¦¹à¦£":1787,"à¦ļà¦¸":1788,"à¦¥à¦¹":1789,"à¦¸à¦¬à¦¶":1790,"à¦Ĩà¦ª":1791,"à¦¬à¦¡":1792,"Ġà¦¸à¦¦à¦°":1793,"Ġà¦ķà¦«":1794,"Ġà¦Ĩà¦¨à¦¬":1795,"Ġà¦¦à¦«":1796,"Ġà¦¹à¦¨à¦¨":1797,"Ġà¦ªà§°":1798,"à¦ªà¦Ń":1799,"à¦ªà¦ĵ":1800,"à¦¥à¦Ĺ":1801,"à¦¬à¦¨à¦¦à¦°":1802,"Ġà¦ľà¦¨à¦ªà¦¦":1803,"à¦°à¦¬à¦§":1804,"à¦Ĩà¦ªà¦¨":1805,"Ġà¦ķà¦²à¦°à¦¬":1806,"Ġà¦ıà¦ķà¦¦à¦²":1807,"Ġà¦¦à¦¶à¦®":1808,"à¦¯à¦Ĺà¦¤":1809,"à¦®à¦ķà¦°":1810,"à¦®à¦¹à¦¤":1811,"Ġà¦¨à¦°à¦ķ":1812,"à¦ľà¦ķà¦°":1813,"à¦Ĺà¦²à¦ķ":1814,"à¦§à¦Ĺ":1815,"à¦¥à¦Ł":1816,"Ġà¦ĩà¦¬":1817,"à¦īà¦¯":1818,"à¦²à¦¨à¦ķ":1819,"Ġà§¬":1820,"Ġà¦ľà¦²à¦¦":1821,"à¦°à¦ļà¦£":1822,"Ġà¦¸à¦ķà¦²à¦ķ":1823,"Ġà¦Īà¦°":1824,"Ġà¦Ĩà¦ªà¦¡":1825,"à¦¨à¦·":1826,"à¦¬à¦°à¦ķ":1827,"à¦¬à¦¸à¦®":1828,"à¦²à¦¸à¦¬":1829,"Ġà¦¹à¦ĵ":1830,"Ġà¦¹à¦ĩà¦¤":1831,"à¦£à¦ĩ":1832,"Ġà¦ıà¦ķà¦¸à¦®à¦¯":1833,"à¦ıà¦ķà¦¦":1834,"à¦īà¦¬":1835,"à¦īà¦ªà¦°":1836,"à¦ķà¦²à¦¨":1837,"à¦Ĩà¦¤":1838,"à¦¸à¦¤à¦¤":1839,"à¦·à¦°à¦¤":1840,"Ġà¦ıà¦®":1841,"Ġà¦ıà¦ľà¦¨":1842,"à¦°à¦¬à¦¦":1843,"à¦·à¦£à¦¶":1844,"Ġà¦Ĩà¦¬à¦°à¦£":1845,"à¦°à¦«à¦¤":1846,"à¦¨à¦Ĩà¦ªà¦¨":1847,"à¦²à¦§à¦¨":1848,"Ġà¦Ĩà¦ł":1849,"à¦ĩà¦ĸ":1850,"à¦·à¦¶":1851,"à¦Łà¦ĵà¦¯":1852,"Ġà¦¹à¦ķ":1853,"à¦¹à¦ł":1854,"à¦¤à¦°à¦ĵ":1855,"à§İà¦ĩ":1856,"à¦ıà¦²":1857,"à¦īà¦ª":1858,"Ġà¦®à¦¤à¦ĩ":1859,"Ġà¦ħà¦Ĺà¦£":1860,"Ġà§§à§®":1861,"à¦¬à¦®à¦ŀ":1862,"Ġà¦ªà¦Łà¦ļ":1863,"à¦¨à¦ĸ":1864,"à¦¯à¦ľà¦¨":1865,"à¦ķà§ľ":1866,"à¦ķà¦¶à¦¨":1867,"à¦®à¦Ľ":1868,"à¦·à¦Ĺ":1869,"à¦ªà¦ķà¦°":1870,"à¦§à¦ĵ":1871,"à¦°à¦£à¦ķ":1872,"à¦¬à¦°à¦¬":1873,"à¦ĺà¦²":1874,"Ġà¦¸à¦¹à¦ª":1875,"Ġà¦īà§İà¦¸à¦°":1876,"à¦ħà¦ķ":1877,"à§°à¦¸":1878,"Ġà¦Ńà¦°à¦¤à¦¬":1879,"à¦°à¦®à¦¨":1880,"à¦¨à¦®à¦¨":1881,"à¦®à¦īà¦¦":1882,"à¦¸à¦ķà¦²":1883,"à¦ĩà¦¸à¦¬":1884,"Ġà¦ıà¦ª":1885,"à¦ľà¦ľ":1886,"Ġà¦¤à¦¤à¦ķ":1887,"Ġà¦ľà¦¸":1888,"Ġà¦ļà¦ŀ":1889,"à¦ĺà¦¤à¦®":1890,"à¦®à¦£à¦°":1891,"Ġà§Ń":1892,"Ġà¦¢à¦²":1893,"Ġà¦ħà¦ªà¦°à¦¦":1894,"Ġà¦ķà¦¦":1895,"Ġà¦¨à¦ķà¦²":1896,"Ġà¦ħà¦¬à¦°":1897,"Ġà¦°à¦ļà¦¯":1898,"Ġà¦Ľà¦Ł":1899,"à¦¬à¦¨à¦Ł":1900,"à¦·à¦£à¦ķ":1901,"à¦¬à¦¤à¦ĩ":1902,"à¦ķà¦²à¦®":1903,"Ġà§§à§¯à§ª":1904,"à¦¬à¦Ĺà¦¤":1905,"Ġà¦ıà¦¶":1906,"à¦ĵà¦¤":1907,"à¦¨à¦ľà¦¨":1908,"Ġà¦ķà¦¤à¦ķ":1909,"Ġà¦Ĩà¦«":1910,"Ġà¦¹à¦°à¦£":1911,"à¦łà¦¶":1912,"à¦¬à¦¨à¦®":1913,"à¦ıà¦¤":1914,"à¦¬à¦²à¦ĩ":1915,"à¦¨à¦ĵà¦¦":1916,"à¦²à¦ĵ":1917,"à¦ĩà¦°à¦ķà¦®":1918,"à¦Łà¦Ł":1919,"Ġà¦ħà¦¯à¦¤":1920,"à¦ļà¦Ń":1921,"Ġà¦ļà¦¬":1922,"Ġà¦ļà¦¶à¦®":1923,"à¦°à¦¤à¦¨":1924,"Ġà§§à§©":1925,"à¦¨à¦¸à¦¬":1926,"à¦¤à¦Ĺà¦¤":1927,"à¦¸à¦Ľ":1928,"à¦§à¦ª":1929,"Ġà¦²à¦ĺ":1930,"Ġà¦«à¦²à¦¤":1931,"à¦ĺà¦¸":1932,"à¦¨à¦¬à¦¸":1933,"à¦Ĩà¦¨":1934,"Ġà¦¸à¦°à¦¬à¦°":1935,"Ġà¦īà§İà¦ķà¦°":1936,"Ġà¦ħà¦ªà¦ļà¦¯":1937,"Ġà¦¯à¦¤à¦ĸ":1938,"Ġà¦Ĺà¦£à¦ªà¦°":1939,"Ġà§§à§¯à§¯à§¦":1940,"Ġà¦·à¦¡":1941,"à¦²à¦¶":1942,"Ġà¦ªà¦Ļ":1943,"à¦¶à¦Ń":1944,"Ġà¦ħà¦ĸà¦£":1945,"à¦£à¦¤à¦°":1946,"à¦¤à¦°à¦ª":1947,"Ġà¦¹à§Łà¦¨":1948,"Ġà¦¬à§Łà¦¸":1949,"à¦®à¦®à¦°":1950,"Ġà¦ķà¦ļà¦ķ":1951,"Ġà¦ªà¦¤à¦¨":1952,"à¦ľà¦Ľ":1953,"Ġà¦¤à¦«":1954,"à¦ĸà¦ķà¦¦":1955,"à§Łà¦¸":1956,"Ġà¦Ńà¦¬à¦¨":1957,"Ġà¦īà¦Ńà§Ł":1958,"à§İà¦¸à¦ķ":1959,"à¦īà¦ļ":1960,"à¦®à¦¤à¦¤":1961,"à¦Ĩà¦ļ":1962,"à¦®à¦ķà¦°à¦£":1963,"Ġà§§à§¨":1964,"Ġà¦·à¦·":1965,"à¦¤à¦Ľ":1966,"à¦ľà¦¶":1967,"Ġà¦¦à¦ĩ":1968,"à¦§à¦¶":1969,"Ġà¦¹à¦Ł":1970,"à¦¡à¦Ĺ":1971,"Ġà¦īà§ľ":1972,"à¦°à¦£à¦Ĺ":1973,"Ġà¦ĸà¦¨":1974,"à¦īà§Ł":1975,"à¦°à¦¶à¦ķ":1976,"Ġà¦«à¦²à¦¸":1977,"Ġà¦ħà¦®à¦Ļ":1978,"à¦°à¦ŀ":1979,"à¦¸à¦Ĺ":1980,"Ġà¦Ĩà¦ĵà§Ł":1981,"Ġà¦Ĩà¦ªà¦¸":1982,"Ġà¦¨à¦®à¦¸":1983,"à¦Ĺà¦¬à¦¨":1984,"à¦Ľà¦¯":1985,"à¦¹à¦ª":1986,"Ġà¦¯à¦ķ":1987,"Ġà¦Ńà¦£":1988,"Ġà¦°à¦ª":1989,"Ġà¦ĵà¦ĸ":1990,"à¦°à¦¤à¦ķ":1991,"à¦łà¦ª":1992,"Ġà¦Ľà¦²à¦¨":1993,"Ġà¦®à¦¨à¦Ł":1994,"Ġà¦ľà¦¨à¦ķ":1995,"Ġà¦ľà¦¨à¦¸à¦®":1996,"Ġà¦ĩà¦ŀ":1997,"Ġà¦ĩà¦ľà¦°":1998,"à¦ıà¦¦":1999,"à¦¸à¦¬à¦ĸ":2000,"à§°à¦¨":2001,"à¦¨à¦¦à¦£":2002,"à¦Łà¦¬à¦¡":2003,"à¦®à¦ĺ":2004,"Ġà¦¸à¦¯à¦¤":2005,"à¦ľà¦Ń":2006,"à¦Ľà¦Ĺ":2007,"Ġà¦¯à¦¤à¦ķ":2008,"Ġà¦¶à¦®":2009,"Ġà¦°à¦¹":2010,"Ġà¦°à¦ĵà¦¨":2011,"Ġà¦ıà¦ķà¦Ĺ":2012,"Ġà¦Ľà¦¤":2013,"Ġà¦«à¦Ł":2014,"à¦°à¦®à¦°":2015,"Ġà¦¸à¦¬à¦Ł":2016,"à¦¦à¦°à¦¬à¦¨":2017,"à¦¬à¦²à¦ľ":2018,"à¦ķà¦Łà¦ķ":2019,"Ġà¦«à¦²à¦ª":2020,"ĠĠĠĠĠ":2021,"Ġà¦ķà¦²à¦¹":2022,"Ġà¦¶à¦¹à¦°à¦Ĺ":2023,"Ġà¦Ĺà¦łà¦¨à¦®":2024,"à¦ķà¦§à¦°":2025,"à¦¬à¦¶à¦ķ":2026,"à¦®à¦²à¦¤":2027,"Ġà¦¬à¦°à¦®":2028,"à¦ªà¦ªà¦¤":2029,"à¦£à¦ĵ":2030,"à§Łà¦¦":2031,"Ġà¦ªà¦°à¦ĵ":2032,"à¦ªà¦°à¦¬à¦°":2033,"à¦ľà¦¨à¦ĩ":2034,"Ġà¦ĩà¦ķ":2035,"à¦°à¦¬à¦ļ":2036,"à¦«à¦®":2037,"Ġà¦ħà¦¸à§İ":2038,"Ġà¦Ĩà¦¸à¦ķ":2039,"Ġà¦ıà¦®à¦¨à¦Ł":2040,"ĠĠĠĠĠĠ":2041,"à¦ħà¦ª":2042,"Ġà¦ķà¦®à¦²":2043,"Ġà¦ħà¦ªà¦°à¦ķ":2044,"Ġà¦ªà¦¦à¦ķà¦°":2045,"Ġà¦ľà¦²à¦°":2046,"à¦°à¦®à¦£à¦ķ":2047,"Ġà¦Ĺà§ľà¦¤":2048,"à¦¬à¦ľà¦Ĺà¦¤":2049,"à¦¬à¦Ļ":2050,"à¦¬à¦ªà¦°":2051,"Ġà¦¨à¦¬à¦ķ":2052,"Ġà¦¤à¦®":2053,"à¦§à¦Ń":2054,"à¦£à¦Ł":2055,"Ġà¦¶à¦°à¦£":2056,"à¦¡à¦Ł":2057,"Ġà¦°à¦¤à¦¨":2058,"à¦ľà¦¨à¦¨":2059,"Ġà¦ĩà¦Ł":2060,"à¦«à¦°":2061,"à¦°à¦¸à¦Ń":2062,"Ġà¦Ĩà¦¨à¦Ľ":2063,"Ġà¦ķà¦¤à¦ĸ":2064,"Ġà¦°à¦¸à¦Ĺ":2065,"Ġà§¨à§§":2066,"à¦¬à¦®à¦¯":2067,"à¦®à¦°à¦ķ":2068,"Ġà¦¬à¦ļà¦¨":2069,"à¦¸à¦ļ":2070,"à¦ĩà¦ļ":2071,"à¦§à¦¯":2072,"Ġà¦Ńà¦°à¦ª":2073,"à¦¬à¦°à¦ª":2074,"Ġà¦ĩà¦¡":2075,"à¦°à¦¬à¦¸":2076,"à¦¸à¦®à¦¸":2077,"à¦Ĺà¦²à¦Ł":2078,"à¦°à¦ľà¦¬":2079,"Ġà§§à§¯à§®":2080,"à¦¨à¦ļà¦°":2081,"à¦¯à¦ªà¦°":2082,"à¦ķà¦¸à¦¬":2083,"à¦¬à¦²à¦¨":2084,"à¦®à¦®à¦¤":2085,"à¦¸à¦¡":2086,"Ġà¦¹à¦«à¦®":2087,"à¦ļà¦Ĺ":2088,"à¦ĵà¦²":2089,"Ġà¦¸à¦®à¦Ŀ":2090,"Ġà¦ıà¦ķà¦²à¦¬":2091,"à¦¼à¦¾à¦Ĥ":2092,"Ġà¦Ľà¦¦":2093,"à¦¬à¦¨à¦¦":2094,"à§İà¦¸à¦²":2095,"à¦°à¦¬à¦®à¦¯":2096,"à§°à¦®":2097,"à¦ªà¦¦à¦ķ":2098,"Ġà¦ªà¦¦à¦ļ":2099,"à¦®à¦Ĺà¦ŀ":2100,"à¦ıà¦ķà¦ĩ":2101,"à¦¨à¦§à¦°":2102,"à¦®à¦·":2103,"Ġà¦¸à¦ªà¦ķ":2104,"à¦¹à¦Ł":2105,"à¦°à¦£à¦ĵ":2106,"à¦°à¦ķà¦°":2107,"à¦ľà¦¨à¦¦":2108,"à¦¤à¦¨à¦Ń":2109,"Ġà¦ļà¦²à¦ļ":2110,"à¦®à¦£à¦Ĺ":2111,"Ġà¦Ŀà¦°à¦¨":2112,"Ġà¦¸à¦¹à¦ľà¦²à¦Ń":2113,"Ġà¦Ĺà¦£à¦¨":2114,"à¦¬à§°":2115,"Ġà¦ķà¦ķ":2116,"Ġà¦¬à¦¨à¦¬":2117,"Ġà¦¨à¦Ł":2118,"à¦¥à¦¬à¦¹":2119,"Ġà¦Ĺà¦¹":2120,"Ġà¦Ĩà¦®à¦¦":2121,"Ġà¦ªà¦°à¦ĩ":2122,"à¦łà¦¦":2123,"Ġà¦¥à¦®à¦ķ":2124,"Ġà¦²à¦²":2125,"Ġà¦ħà¦¸à¦¤":2126,"à¦¤à¦¬à¦¬":2127,"à¦ıà¦ĩà¦¸à¦¬":2128,"Ġà¦ıà¦¨à¦ľ":2129,"à¦°à¦ĸà¦°":2130,"à¦·à§Łà¦ķ":2131,"à¦®à¦¶à¦¹à¦°":2132,"à¦ľà¦Ļ":2133,"Ġà¦ħà¦ļà¦²":2134,"à¦§à¦°à¦¨":2135,"Ġà¦°à¦£":2136,"Ġà¦ıà¦ķà¦°":2137,"Ġà¦®à¦¨à¦®":2138,"Ġà¦ĩà¦¦":2139,"à§ľà¦ķ":2140,"à¦īà¦¶à¦¨":2141,"à¦Ĩà¦¬":2142,"Ġà¦ķà¦®à¦¬":2143,"Ġà¦ķà¦¨à¦«":2144,"Ġà¦®à¦Ĺà¦§":2145,"à¦°à¦ļà¦¨":2146,"à¦²à¦ĸ":2147,"Ġà¦¨à¦¦à¦¨":2148,"à¦¹à¦ĩ":2149,"à¦¹à¦Ń":2150,"Ġà¦ľà¦ª":2151,"à¦Ļà¦¤":2152,"Ġà¦ħà¦¨à¦¬à¦°à¦¤":2153,"à¦®à¦¨à¦¸":2154,"à¦Ĩà¦¨à¦¨":2155,"Ġà¦Ĩà¦¨à¦²":2156,"à¦ľà¦Ĺà§İ":2157,"Ġà¦¸à¦°à¦¸à¦¤":2158,"à¦¤à¦®à¦¨":2159,"Ġà¦ķà¦¸":2160,"Ġà¦¨à¦ľ":2161,"à¦ľà¦¡":2162,"à¦¶à¦ľ":2163,"Ġà¦¦à¦¸":2164,"à¦£à¦¶à¦ķ":2165,"Ġà¦ľà¦Ĺà¦¨":2166,"à§Łà¦£":2167,"à¦°à¦£à§Łà¦¨":2168,"Ġà¦²à¦¬à¦£":2169,"à¦ıà¦¸":2170,"Ġà¦īà¦ªà¦¬":2171,"à¦ĺà¦Ł":2172,"à¦¬à¦¦à¦¨":2173,"à¦ħà¦§":2174,"Ġà¦ľà¦²à¦ª":2175,"à¦¸à¦°à¦²":2176,"Ġà¦ĭà¦Ĺà¦¬":2177,"Ġà¦ıà¦ķà¦¦à¦®":2178,"à§¯à§":2179,"à¦¤à¦ľà¦¨":2180,"à¦¬à¦ļà¦¨":2181,"à¦²à¦Ļ":2182,"Ġà¦Ĩà§ľ":2183,"à¦ĩà¦ħà¦ķ":2184,"à¦·à¦§":2185,"à¦¶à¦¶":2186,"Ġà¦¦à§Ł":2187,"Ġà¦¦à¦°à¦¦":2188,"Ġà¦Ńà¦¸":2189,"à¦¬à¦¨à¦ĩ":2190,"Ġà¦ħà¦¬à¦ļ":2191,"à¦ħà¦®":2192,"à¦¨à§Ł":2193,"à¦¯à¦¨à¦¤":2194,"à¦¬à¦Ľà¦°":2195,"à¦®à¦¹à¦°":2196,"Ġà¦ķà¦ĩ":2197,"Ġà¦ķà¦¶":2198,"à¦Łà¦ĵà§Ł":2199,"à¦¶à¦§":2200,"Ġà¦ħà¦¡":2201,"à¦§à¦²":2202,"à¦§à¦Ĺà¦®":2203,"à¦¹à¦ļà¦°":2204,"à¦¥à¦Ń":2205,"à¦Ńà¦®":2206,"Ġà¦Ĺà¦ľ":2207,"Ġà¦ªà¦°à¦¨":2208,"à¦°à¦£à¦Ń":2209,"Ġà¦ıà¦ĩà¦ľà¦¨":2210,"Ġà¦ĸà¦¸":2211,"Ġà¦ľà¦¨à¦®à¦¤":2212,"Ġà¦ħà¦¬à¦ľ":2213,"Ġà¦Ĳà¦¤à¦°":2214,"à¦¬à¦ķà¦¯":2215,"Ġà§§à§«":2216,"Ġà¦ªà§ľà¦Ľ":2217,"Ġà¦ħà¦¹à¦Ļ":2218,"Ġà¦Ĩà¦Łà¦Ł":2219,"à¦¨à¦®à¦¹":2220,"à¦¤à¦¡":2221,"à¦®à¦®à¦¨":2222,"Ġà¦ķà¦²à¦¤":2223,"Ġà¦ªà¦łà¦¨":2224,"à¦¸à¦ľ":2225,"à¦ªà¦Ľ":2226,"Ġà¦®à¦¦à¦¨":2227,"Ġà¦®à¦¶à¦²":2228,"à¦§à¦¹":2229,"à¦¥à¦ĩ":2230,"à¦¡à¦¬à¦ķ":2231,"Ġà¦ªà¦°à¦²":2232,"à¦ıà¦Ľ":2233,"à¦·à¦£à¦ĩ":2234,"à¦¤à¦¬à¦ķ":2235,"Ġà¦¯à¦ľà¦®":2236,"Ġà¦¨à¦¬à¦®":2237,"Ġà¦ħà¦²à¦¸":2238,"Ġà§§à§¯à§¨":2239,"Ġà¦¦à¦¶à¦Ł":2240,"à¦ĭà¦£":2241,"Ġà§¨à§¦à§§à§":2242,"à¦°à¦ªà¦¤":2243,"à¦¨à¦ıà¦¸à¦¬":2244,"à¦®à¦Ļ":2245,"Ġà¦ķà¦¨à¦¸":2246,"à¦ĩà¦¶":2247,"Ġà¦®à¦°à¦®":2248,"à¦¶à§Ł":2249,"Ġà¦ħà¦£":2250,"à¦£à¦¶":2251,"Ġà¦Ńà¦ľà¦¨":2252,"à¦ľà¦¨à¦¤":2253,"à¦¤à¦¨à¦ķ":2254,"à¦°à¦®à¦ľ":2255,"à¦«à¦Ł":2256,"à¦īà¦®":2257,"à¦īà¦ªà¦¨":2258,"Ġà¦īà¦ªà¦¤":2259,"à¦Ĩà¦¶":2260,"à¦¶à¦¨à¦ķ":2261,"à¦²à¦ķà¦£":2262,"à¦īà¦²à¦¦":2263,"Ġà§§à§ª":2264,"Ġà¦ľà¦¨à¦¸à¦ļ":2265,"à§Ŀà¦¤":2266,"à¦Ī":2267,"à¦²à¦¡":2268,"Ġà¦ķà¦¹":2269,"Ġà¦Ĩà¦ĩà¦¡":2270,"à¦Ĺà¦ļ":2271,"à¦ĸà¦ķà¦°":2272,"à¦¡à¦ķà¦°":2273,"à¦ľà¦¨à¦ĵ":2274,"à¦·à¦£à¦®":2275,"à¦¨à¦ĵà¦Ł":2276,"Ġà¦īà§İà¦ķ":2277,"Ġà¦īà§İà¦ªà¦¨":2278,"à¦ħà¦¬":2279,"à¦¯à¦ªà¦Ł":2280,"à¦®à¦¸à¦®à¦°":2281,"à¦¼à§į":2282,"à¦¼à§Ĥ":2283,"à¦¸à¦ŀ":2284,"à¦¸à¦¨à¦¬":2285,"Ġà¦ıà¦ľ":2286,"à¦ĵà¦¡":2287,"Ġà¦ĵà¦¸à¦¬":2288,"Ġà¦ıà¦ĩà¦¬":2289,"à§ľà¦¤":2290,"à¦Ĩà¦¦":2291,"Ġà¦ķà¦ĸà¦¨à¦ĩ":2292,"Ġà¦¶à¦¤à¦ķà¦°":2293,"Ġà¦ªà§ľà¦¤":2294,"à¦Ĺà¦®à¦ŀ":2295,"Ġà¦¦à¦«à¦¤à¦°":2296,"à¦¯à¦¬à¦¨":2297,"à¦¯à¦Ŀ":2298,"à¦ķà¦®à¦¤":2299,"à¦¬à¦§à¦°":2300,"Ġà¦ķà¦¦à¦°":2301,"à¦¦à¦®à¦¨":2302,"à¦·à§İ":2303,"à¦Ĺà¦¯à¦ľ":2304,"Ġà¦¦à¦Ĺ":2305,"à¦£à¦ľ":2306,"Ġà¦°à¦ĺ":2307,"Ġà¦¸à¦®à¦Ń":2308,"Ġà¦ıà¦ķà¦Ń":2309,"à¦°à¦®à¦ķ":2310,"Ġà¦ħà¦¬à¦²":2311,"Ġà¦ªà¦¥à¦ļ":2312,"Ġà¦ıà¦®à¦¨à¦ĵ":2313,"Ġà§®":2314,"à¦¸à¦¨à¦ķ":2315,"Ġà¦Ŀà¦ķ":2316,"à¦ıà¦ĩà¦Ń":2317,"à¦¨à¦ªà¦¤à¦¨":2318,"Ġà¦ļà¦ķà¦ļà¦ķ":2319,"Ġà§¨à§¦à§¦":2320,"Ġà¦¨à¦¦à¦¨à¦¦":2321,"à¦¤à¦¸à¦®":2322,"à¦¯à¦¸à¦¨":2323,"à¦¬à¦ķà¦²":2324,"à¦¦à¦¬à¦°":2325,"à¦ªà¦ĸ":2326,"Ġà¦ħà¦¯à¦¥":2327,"Ġà¦Ĺà¦ļ":2328,"à§Łà¦ĩ":2329,"Ġà¦īà¦§":2330,"Ġà¦ıà¦ķà¦ľ":2331,"Ġà¦ªà¦°à¦ªà¦°":2332,"à¦łà¦°":2333,"Ġà¦¬à¦²à¦°":2334,"Ġà¦īà¦ªà¦²à¦ķ":2335,"Ġà¦ħà¦¸à¦¨":2336,"à¦ĺà¦¬à¦¦":2337,"Ġà¦ħà¦§à¦¸":2338,"à¦Ĩà¦¦à¦°":2339,"à¦¤à¦ķà¦°à¦£":2340,"à¦ľà¦ķà¦¨":2341,"Ġà§§à§¯à§§à§":2342,"à¦·à§Łà¦Ĺ":2343,"Ġà¦¸à¦«à¦°":2344,"à¦°à¦ıà¦ĩ":2345,"à¦°à¦ıà¦¸à¦¬":2346,"à¦¨à¦ľà¦Ł":2347,"à¦¤à¦§":2348,"Ġà¦Ĩà¦ĵà¦¤":2349,"à¦·à¦ľà¦¨":2350,"Ġà¦¨à¦®à¦¨":2351,"à¦¶à¦§à¦°":2352,"Ġà¦¦à¦¡":2353,"à¦§à¦ķà¦°":2354,"à¦£à¦¬à¦°":2355,"à¦ļà¦ª":2356,"à¦¥à¦ªà¦°":2357,"à§Łà¦°":2358,"à¦¬à¦¨à¦¬à¦¤":2359,"Ġà¦²à¦¯":2360,"à¦¤à¦°à¦¸":2361,"à§ľà¦¨":2362,"à¦·à¦£à¦ĵ":2363,"Ġà¦§à¦°à¦Ľ":2364,"à¦°à¦¸à¦¹":2365,"à¦¨à¦¬à¦®à¦¨":2366,"à¦§à¦¨à¦¸à¦Ļ":2367,"Ġà¦Ĩà¦¤à¦Ļ":2368,"à¦°à¦¥à¦®à¦Ł":2369,"Ġà¦Ŀà§ľ":2370,"à¦°à¦Ĩà¦ļà¦°à¦£":2371,"à¦°à¦¡":2372,"Ġà¦¸à¦¯":2373,"Ġà¦¸à¦ĩà¦¤":2374,"à§ĭà¦Ĥ":2375,"Ġà¦¨à¦°à¦¨":2376,"à¦Łà¦ķà¦²":2377,"Ġà¦ħà¦ķà¦²":2378,"à¦Ńà¦°à¦¯":2379,"Ġà¦°à¦¶":2380,"Ġà¦¸à¦®à¦¬à¦¯":2381,"Ġà¦ıà¦ķà¦ļ":2382,"à¦ŀà¦§à¦°":2383,"à¦¤à¦°à¦Ń":2384,"à¦Ŀà¦ªà¦¥":2385,"à¦¨à¦¤à¦¤":2386,"Ġà¦¸à¦¹à¦ķ":2387,"à¦¨à¦¬à¦ķ":2388,"à¦¨à¦¬à¦ķà¦²":2389,"Ġà¦ªà¦¥à¦Ł":2390,"à¦ªà¦¦à¦¬":2391,"Ġà¦Ĩà¦¶à¦ª":2392,"Ġà§§à§¯à§¬":2393,"Ġà¦īà§İà¦¸à¦¬à¦®":2394,"Ġà¦ľà¦Ĺà¦¦":2395,"à§ĩà¦ĥ":2396,"à¦¨à¦¬à¦¨":2397,"à¦ķà¦ĸà¦¨":2398,"à¦ķà¦«":2399,"à¦ķà¦¸à¦®":2400,"à¦®à¦ĸ":2401,"à¦®à¦°à¦¸":2402,"Ġà¦¨à¦¥":2403,"à¦Łà¦¯":2404,"à¦ľà¦ļ":2405,"à¦¶à¦°à¦ķ":2406,"à¦Ĺà§İ":2407,"Ġà¦ħà¦²à¦ķ":2408,"à¦§à¦§à¦°":2409,"Ġà¦¯à¦¬à¦¨":2410,"à¦ĸà¦¬à¦°":2411,"à¦Ńà¦Ł":2412,"Ġà¦Ńà¦¬à¦¤":2413,"Ġà¦°à¦¨":2414,"à¦°à¦£à¦ĩ":2415,"à¦°à¦®à¦¤":2416,"Ġà¦¸à¦¬à¦¸à¦®à§Ł":2417,"à¦«à¦¨":2418,"à¦Ŀà¦ķ":2419,"à¦²à¦¨à¦ª":2420,"à¦¨à¦¬à¦¸à¦Ń":2421,"Ġà¦¹à¦¤à¦¬":2422,"Ġà¦ķà¦®à¦Ľ":2423,"à¦¬à¦ķà¦¥":2424,"à¦ªà¦ķà¦Ń":2425,"Ġà¦¸à§İà¦¤":2426,"Ġà¦ıà¦ĩà¦°à¦ķà¦®à¦ĩ":2427,"à¦¨à¦Ĺà¦¤":2428,"à¦¤à¦²à¦¤":2429,"à¦¯à¦¤à¦°":2430,"à¦¬à¦ķà¦°":2431,"à¦²à¦ĺ":2432,"à¦²à¦ªà¦¤":2433,"à¦®à¦ªà¦¨":2434,"à¦®à¦®à¦¯":2435,"à¦®à¦ļà¦ķ":2436,"Ġà¦Ĩà§Łà¦¤":2437,"à¦ªà¦¹":2438,"à¦Łà¦Ĩà¦ª":2439,"à¦Ĺà¦¹":2440,"Ġà¦¦à¦²à¦¬":2441,"à¦Ľà¦Ł":2442,"à¦Ľà¦¡":2443,"à¦£à¦ļ":2444,"à¦ļà§Łà¦¤":2445,"à¦ĸà¦ļ":2446,"à¦ĸà¦ĵ":2447,"Ġà¦ªà¦°à¦¤":2448,"à¦łà¦Ń":2449,"à¦ŀà¦ķ":2450,"à¦ŀà¦¬à¦²":2451,"Ġà¦ĩà¦·":2452,"Ġà¦ĩà¦īà¦Ł":2453,"à¦°à¦¬à¦ª":2454,"Ġà¦¸à¦¬à¦ĸ":2455,"Ġà¦īà¦¦à¦ĺ":2456,"Ġà¦ħà¦¸à¦Ń":2457,"Ġà¦ħà¦¸à¦Ļ":2458,"Ġà¦ħà¦§à¦®":2459,"Ġà¦łà¦ķ":2460,"à¦¦à¦¨à¦ķ":2461,"à¦°à¦§à¦°":2462,"Ġà§§à§§à§":2463,"Ġà¦ķà¦¤à¦ķà¦Ł":2464,"Ġà¦¸à¦¹à¦ľà¦¸à¦°à¦²":2465,"Ġà¦Ĩà¦¦à¦²":2466,"Ġà¦īà¦ªà¦°à¦¨":2467,"Ġà¦ªà§ľà¦¬":2468,"à§§à§¯à§":2469,"à¦°à¦ħ":2470,"à¦¯à¦¸à¦¬":2471,"à¦¬à¦ŀ":2472,"à¦¬à¦¦à¦°":2473,"à¦²à¦¹":2474,"à¦®à¦ıà¦ĩ":2475,"Ġà¦¸à¦Ĺ":2476,"Ġà¦ķà¦¬à¦°":2477,"Ġà¦ķà¦ªà¦Ł":2478,"Ġà¦ªà¦Łà¦²":2479,"à¦¦à¦ªà¦¤":2480,"à¦ªà¦ŀ":2481,"Ġà¦®à¦ķ":2482,"à¦ļà¦ľà¦¨":2483,"à¦Ńà¦²":2484,"à¦Ńà¦Ĺ":2485,"Ġà¦ıà¦ķà¦ĺ":2486,"Ġà¦ħà¦¨à¦°":2487,"à¦¬à¦¨à¦¸":2488,"Ġà¦²à¦¨":2489,"à¦¬à¦°à¦ĩ":2490,"à¦īà¦Ńà¦¯":2491,"à¦ĺà¦¬":2492,"à¦Ĩà¦¡":2493,"à¦²à¦¬à¦§":2494,"Ġà¦ĩà¦¨à¦«":2495,"à§Łà¦¨à¦¯":2496,"Ġà¦ıà¦ķà¦ĩà¦¸à¦Ļ":2497,"Ġà¦Ĩà¦¦à¦¤":2498,"Ġà¦¬à¦ĩà¦¤":2499,"Ġà¦¦à¦²à¦Ĺà¦¤":2500,"à¦Ĺà¦łà¦¨à¦Ĺ":2501,"Ġà¦ķà¦¤à¦ķà¦Ĺ":2502,"à¦¨à¦¡":2503,"à¦¯à¦Ĺà¦¨":2504,"à¦®à¦¶à¦ķ":2505,"Ġà¦¸à¦¡":2506,"Ġà¦ªà¦²à¦ķ":2507,"Ġà¦Ĩà§Łà¦¨":2508,"Ġà¦Ĩà¦¹à¦¤":2509,"à¦ĩà¦Ĺ":2510,"à¦ªà¦°à¦ķ":2511,"à¦Łà¦°à¦¶":2512,"à¦Łà¦§à¦°":2513,"à¦¶à¦¸à¦®":2514,"à¦¶à¦Ńà¦ķ":2515,"Ġà¦¤à§İ":2516,"Ġà¦¹à¦ĩà¦¬":2517,"à¦Ľà¦¦":2518,"à¦ļà¦Ľ":2519,"Ġà¦¶à¦¨":2520,"Ġà¦ľà¦¹":2521,"Ġà¦īà¦®":2522,"Ġà¦ªà¦°à¦¬":2523,"à¦°à¦£à¦ª":2524,"à¦ıà¦ķà¦¬":2525,"à§ľà¦¬":2526,"à¦«à¦¸":2527,"Ġà¦Ĩà¦²à¦ªà¦¨":2528,"à¦Ĩà¦¸":2529,"Ġà¦ķà¦²à¦¸":2530,"à¦¬à¦¸à¦Ļ":2531,"à¦°à¦ļà¦²à¦¨":2532,"Ġà¦¸à¦ļà¦°":2533,"Ġà¦ķà¦¤à¦¦":2534,"Ġà¦ķà¦ĸà¦¨à¦ĵà¦ĩ":2535,"à¦·à¦¸à¦¦":2536,"Ġà¦®à¦¸à¦ľ":2537,"à§·":2538,"à¦¨à¦ıà¦Ł":2539,"Ġà¦ķà¦²à¦¨":2540,"Ġà¦¨à¦¬à¦¬":2541,"à¦ľà¦ķà¦¤":2542,"à¦ļà¦¦à¦¶":2543,"à¦¥à¦¶":2544,"à§Łà¦ªà¦°":2545,"Ġà¦°à¦¸à¦¬":2546,"Ġà¦Ľà¦ķ":2547,"à¦°à¦£à¦Ł":2548,"Ġà¦ĸà¦²":2549,"Ġà¦ħà¦¬à¦®":2550,"à¦°à¦¯à¦¨":2551,"Ġà¦®à¦¹à¦²":2552,"à¦§à¦¨à¦ĩ":2553,"Ġà¦ķà¦²à¦ķà¦²":2554,"à¦·à¦ķà¦ķ":2555,"Ġà¦ªà¦¦à¦¬":2556,"Ġà¦ľà¦²à¦§":2557,"à¦°à¦ļà¦°":2558,"Ġà¦ĭà¦ķ":2559,"Ġà¦¬à¦Łà¦Ĺ":2560,"Ġà§§à§¯à§©":2561,"Ġà¦Īà¦·à§İ":2562,"à¦ķà¦¸à¦ľ":2563,"Ġà¦ıà¦¸à¦¬à¦ĩ":2564,"à¦¯à¦¶à¦¸":2565,"à¦¿à¦¾":2566,"Ġà¦ķà¦¤à¦¬":2567,"Ġà¦¬à§İà¦¸":2568,"à¦ĩà¦¹":2569,"à¦Łà¦ķà¦°":2570,"Ġà¦ıà¦«":2571,"à¦¶à¦¹à¦°":2572,"Ġà¦¤à§İà¦¸":2573,"à¦Ĺà¦¶":2574,"à¦ĸà¦ĩ":2575,"Ġà¦ľà¦¤":2576,"à§Łà¦Ń":2577,"Ġà¦Ńà¦Ĺà¦¬à¦¤":2578,"Ġà¦ļà¦ª":2579,"Ġà¦ıà¦ķà¦®à¦¤":2580,"Ġà¦ªà¦°à¦¦":2581,"Ġà¦ªà¦°à¦ª":2582,"Ġà¦ħà¦¨à¦¡":2583,"à¦¬à¦¨à¦¶":2584,"à¦¬à¦°à¦¸à¦Ń":2585,"Ġà¦īà¦¦à¦Ĺ":2586,"Ġà¦Ĩà¦²à¦®":2587,"à¦°à¦¥à¦®à¦¦":2588,"Ġà§¯à§":2589,"à¦ħà¦²":2590,"à¦ªà¦¦à¦¸":2591,"à¦¯à¦¸à¦Ļ":2592,"Ġà§§à§¬":2593,"à¦°à¦Ĺà¦£":2594,"Ġà¦§à¦¨à¦¸à¦®":2595,"ĠĠĠĠĠĠĠĠĠĠĠĠĠĠĠĠĠĠĠĠĠĠĠĠ":2596,"à¦®à¦¦à¦°":2597,"Ġà¦ķà¦¬à¦²":2598,"à¦¦à¦¹":2599,"à¦¦à¦°à¦¬":2600,"à¦·à¦¹":2601,"Ġà¦¨à¦¬à¦°":2602,"à¦Łà¦¬à¦²":2603,"à¦ľà¦¸à¦®":2604,"à¦£à¦ķà¦°":2605,"à¦£à¦¸à¦®":2606,"à¦¥à¦¯":2607,"Ġà¦¶à¦ª":2608,"Ġà¦Ĺà¦¤à¦ķ":2609,"à¦¡à¦¸":2610,"à¦¡à¦Ń":2611,"Ġà¦ļà§ľ":2612,"à¦°à¦¤à¦¤":2613,"à¦łà¦¬":2614,"à¦ŀà¦¦":2615,"Ġà¦ĩà¦¤à¦°":2616,"Ġà¦ĺà¦¡":2617,"Ġà¦¸à¦¹à¦ļà¦°":2618,"à¦¨à¦¬à¦ª":2619,"à¦°à¦¦à¦¤":2620,"Ġà¦¬à¦¹à¦®":2621,"à¦®à¦ķà¦¥":2622,"Ġà¦ıà¦¤à¦ĸ":2623,"Ġà¦Ŀà¦²à¦ķ":2624,"à¦¨à¦¸à¦ªà¦Ł":2625,"Ġà¦ħà¦ķà¦ªà¦Ł":2626,"à¦ªà¦Łà¦ª":2627,"Ġà¦°à¦ķà¦®à¦ĩ":2628,"Ġà¦Ĩà¦ĩà¦¨à¦¶":2629,"à§§à§¦":2630,"Ġà¦Ķà¦°à¦¸à¦ľ":2631,"à¦¤à¦ĸà¦¨à¦ĩ":2632,"Ġà¦Ŀà¦ķà¦Ŀà¦ķ":2633,"âĢ":2634,"à§Ĺ":2635,"à¦¤à¦¤à¦¨":2636,"à¦¤à¦Ńà¦°":2637,"à¦²à¦§":2638,"à¦²à¦Ĺà¦¤":2639,"à¦²à¦ļà¦°":2640,"à¦®à¦¬à¦°":2641,"à¦®à¦¹à¦²":2642,"à¦®à¦ħà¦¨":2643,"Ġà¦¸à¦²":2644,"Ġà¦ķà¦®à¦¤":2645,"à¦·à¦²":2646,"Ġà¦¨à¦¸":2647,"Ġà¦¨à¦¬à¦¯":2648,"Ġà¦ıà§ľ":2649,"à¦ľà¦§à¦°":2650,"à¦Ľà¦Ń":2651,"à¦ļà§ľ":2652,"à¦¥à¦¸à¦®":2653,"à¦ĸà¦®":2654,"à¦ĸà¦Ń":2655,"à¦Ńà¦¦":2656,"Ġà¦°à¦¹à¦®":2657,"Ġà¦ĵà¦¹":2658,"Ġà¦ĵà¦®à¦°":2659,"à¦°à¦¤à¦ª":2660,"Ġà¦ħà¦¨à¦Ń":2661,"Ġà¦²à¦Ń":2662,"Ġà¦«à¦²à¦¨":2663,"Ġà¦ĩà¦ī":2664,"Ġà¦¸à¦¹à¦¬":2665,"Ġà¦Łà¦¯":2666,"Ġà¦¬à¦¨à¦¸":2667,"Ġà¦ħà¦ªà¦¸":2668,"à¦°à¦ľà¦¨à¦¨":2669,"à¦¬à¦¶à¦°":2670,"à¦¬à¦¶à¦¤":2671,"Ġà¦ªà¦°à¦®à¦¹":2672,"à¦ķà¦ķà¦¥":2673,"Ġà¦Ĩà¦ĩà¦¨à¦ķ":2674,"à¦Łà¦¬à§ľ":2675,"Ġà§©à§¦":2676,"à¦¯à¦ĸ":2677,"à¦¯à¦ªà¦¨":2678,"à¦¯à¦Łà¦ķ":2679,"à¦ķà¦¶à¦ª":2680,"Ġà¦¸à¦Ĺà¦°":2681,"Ġà¦ķà¦¨à¦Ł":2682,"à¦¶à¦ļ":2683,"à¦¶à¦Ļ":2684,"Ġà¦¤à¦ªà¦¤":2685,"à¦Ĺà¦ħà¦¨":2686,"Ġà¦¹à¦¦":2687,"à¦Ľà¦¸":2688,"à¦£à¦ļà¦¨":2689,"à¦£à¦¬à¦¦":2690,"à¦¹à¦ĵ":2691,"à¦ĸà¦Ł":2692,"Ġà¦¶à¦ĸ":2693,"Ġà¦Ĺà¦®à¦¨":2694,"à¦¡à¦°":2695,"Ġà¦¸à¦®à¦ľà¦¦":2696,"Ġà¦ıà¦ķà¦¨":2697,"Ġà¦ıà¦ķà¦ıà¦ķà¦Ł":2698,"à¦Ļà¦¨":2699,"Ġà¦²à¦¬":2700,"Ġà¦²à¦Ĺ":2701,"à¦°à¦®à¦¯":2702,"à¦·à¦£à¦¸":2703,"à¦«à¦ķ":2704,"Ġà¦īà¦ªà¦®à¦¹":2705,"Ġà¦Ĩà¦²à¦¸":2706,"Ġà¦Łà¦²":2707,"à¦¬à¦¦à¦²":2708,"à¦¸à¦¨à¦¯à¦¨":2709,"à¦§à¦ķà¦ķ":2710,"Ġà¦¬à¦ĩà¦®":2711,"Ġà¦¬à¦ĩà¦Ł":2712,"Ġà¦ıà¦ķà¦ľà¦¨à¦ķ":2713,"Ġà§¨à§«":2714,"à¦¬à¦ľà¦Ĺà§İ":2715,"Ġà¦Ķà¦¦":2716,"Ġà§§à§¯à§ªà§Ń":2717,"Ġà¦ªà¦łà¦¨à¦ª":2718,"à¦¾à§ĩ":2719,"à¦¨à¦Ĩà¦°":2720,"à¦ķà¦·":2721,"à¦®à¦ªà¦¤":2722,"Ġà¦¸à§ľà¦ķ":2723,"à¦¦à¦ļ":2724,"à¦¦à¦¨à¦¬":2725,"Ġà¦®à¦ª":2726,"Ġà¦¨à¦ª":2727,"Ġà¦¨à¦ĸ":2728,"à¦¶à¦ªà¦°à¦®":2729,"Ġà¦¤à¦°à¦²":2730,"à¦Ĺà¦Ńà¦Ļ":2731,"à¦£à¦¹":2732,"à¦¹à¦®à¦¯":2733,"à¦¥à¦ļ":2734,"à¦ĸà¦ĸ":2735,"Ġà¦ľà¦²à¦ķ":2736,"à¦¡à¦®":2737,"Ġà¦¸à¦®à¦®":2738,"Ġà¦¸à¦®à¦¤à¦²":2739,"à¦°à¦¤à¦²":2740,"à¦łà¦ķà¦²":2741,"Ġà¦ĸà¦¡":2742,"à¦¤à¦¨à¦ĩ":2743,"Ġà¦ĩà¦ķà¦®":2744,"Ġà¦¹à¦²à¦¦":2745,"Ġà¦ķà¦¥à¦ķà¦¤":2746,"Ġà¦ķà¦¥à¦ķà¦ł":2747,"Ġà¦¸à¦¬à¦²":2748,"Ġà¦ħà¦¬à¦Ĺ":2749,"Ġà¦¬à¦°à¦¦":2750,"Ġà¦īà¦ªà¦ļ":2751,"Ġà¦Ĩà¦²à¦¤":2752,"Ġà¦Łà¦ķ":2753,"à¦ħà¦ľ":2754,"à¦ħà¦ªà¦°":2755,"Ġà¦ľà¦²à¦¸":2756,"Ġà¦¶à¦¤à¦¶":2757,"à¦¸à¦ķà¦¦":2758,"Ġà§§à§¯à§¦":2759,"Ġà¦°à¦¸à¦¸":2760,"Ġà¦Ĩà¦¹à¦®":2761,"Ġà¦Ķà¦·à¦§":2762,"Ġà¦Ŀà¦°à¦Ŀà¦°":2763,"à¦°à¦ĺ":2764,"à¦°à¦¸à¦¬à¦ĩ":2765,"à¦¤à¦ķà¦°":2766,"à¦¯à¦ªà¦¦":2767,"à¦ķà¦¹":2768,"à¦¬à¦ªà¦¤":2769,"à¦®à¦°à¦¨":2770,"Ġà¦¸à¦ļà¦²":2771,"Ġà¦ķà¦¦à¦®":2772,"Ġà¦¬à¦¤":2773,"à¦¦à¦ľ":2774,"à¦¦à¦¸à¦®":2775,"à¦¸à¦ĺ":2776,"Ġà¦Ĩà¦ī":2777,"Ġà¦Ĩà¦ĩà¦¸":2778,"à¦·à¦ķà¦¤":2779,"à¦ľà¦ªà¦°":2780,"Ġà¦¦à¦¨":2781,"à¦£à¦®à¦¯":2782,"à¦¹à¦ľ":2783,"à¦ļà¦£":2784,"à¦ĵà¦¬":2785,"à¦ĵà¦Ł":2786,"Ġà¦ĵà¦²":2787,"à¦ªà¦°à¦¬":2788,"Ġà¦«à¦°à¦®":2789,"Ġà¦ĺà¦·":2790,"Ġà¦ĺà¦°à¦¬":2791,"à¦°à¦¬à¦Ĺ":2792,"Ġà¦ħà¦¬à¦¯":2793,"Ġà¦ħà¦¸à¦¹à¦¯":2794,"à¦²à¦ķà¦¦":2795,"Ġà¦ĩà¦¤à¦¸":2796,"Ġà¦Ŀà¦¨":2797,"à¦§à¦ķà¦¦":2798,"à¦¥à¦¨à¦¯":2799,"à¦ļà§Łà¦ĩ":2800,"Ġà¦ľà¦¨à¦Ĺà¦£à¦ķ":2801,"Ġà¦ľà¦¨à¦ªà¦¦à¦¬":2802,"Ġà§ĩ":2803,"à¦Ĭ":2804,"à¦°à¦ªà¦¦":2805,"à¦¨à¦ªà¦°":2806,"à¦¨à¦ķà¦²":2807,"à¦¨à¦ķà¦°":2808,"à¦¨à¦¶à¦¨":2809,"à¦¨à¦ªà¦¤":2810,"à¦¯à¦ıà¦ĩ":2811,"Ġà¦¸à¦¶à¦¸":2812,"Ġà¦¬à¦®":2813,"à¦¸à¦ªà¦¤":2814,"Ġà¦Ĩà¦ĩà¦Ł":2815,"à¦ĩà¦ĵ":2816,"à¦ªà¦¬à¦°":2817,"à¦ªà¦¸à¦¬":2818,"Ġà¦®à¦°à¦¤":2819,"à¦Ĺà¦ŀ":2820,"à¦Ľà¦²à¦¤":2821,"à¦¹à¦¤à¦¤":2822,"Ġà¦¯à¦¸":2823,"à¦¥à¦¦":2824,"à¦¥à¦ĵ":2825,"à¦Ńà§İà¦¸":2826,"à¦¡à¦¬à¦Ń":2827,"à§Łà¦£à¦¤":2828,"à¦ĵà¦ĩ":2829,"à¦°à¦¤à¦¬":2830,"à¦°à¦ķà¦°à¦£":2831,"à¦¤à¦°à¦Ł":2832,"à¦¼à¦¿à¦Ĥ":2833,"à¦°à¦®à¦¸":2834,"Ġà¦¸à¦¬à¦ľ":2835,"à¦«à¦¤":2836,"à¦īà¦Ńà§Ł":2837,"Ġà¦¸à¦¹à¦¦":2838,"à¦°à¦¹à¦¨":2839,"à¦¯à¦¤à¦¤":2840,"à¦Ĩà¦¹":2841,"à¦Ĩà¦¸à¦²":2842,"à¦°à¦¶à¦¬":2843,"Ġà¦¬à¦¹à¦°":2844,"à¦¬à¦ªà¦ķ":2845,"ĠĠĠĠĠĠĠ":2846,"Ġà¦Ĺà¦²à¦¦":2847,"à¦¨à¦¸à¦¤":2848,"Ġà¦¸à¦¹à¦ľà¦Ń":2849,"Ġà¦Īà¦ª":2850,"à¦·à¦¦à¦Ĺ":2851,"Ġà¦Ĩà¦ļà¦°à¦£à¦¬":2852,"à¦¥à¦²à¦ľ":2853,"Ġà¦¬à§ľà¦¦":2854,"Ġà§©à§¨":2855,"Ġà¦¦à¦²à¦¬à¦¦":2856,"à¦°à¦ı":2857,"à¦¤à¦¤à¦°":2858,"à¦¯à¦¦à¦°":2859,"à¦¯à¦ıà¦¸à¦¬":2860,"à¦¯à¦¸à¦¬à¦ĩ":2861,"à¦ķà¦¤à¦¨":2862,"à¦²à¦ķà¦°":2863,"à¦®à§ľ":2864,"à¦¼à§Ī":2865,"Ġà¦ķà¦ľà¦¨":2866,"à¦¦à¦¸à¦¬":2867,"à¦¸à§İ":2868,"à¦Łà¦¹":2869,"à¦¶à¦¹":2870,"Ġà¦ħà¦ĸ":2871,"à¦£à¦ļà¦°":2872,"à¦ļà¦ĩ":2873,"à¦ĸà¦¶":2874,"à¦Ńà¦§":2875,"Ġà¦Ĺà¦¹à¦¨":2876,"Ġà¦ĵà¦¡":2877,"Ġà¦²à§Ł":2878,"Ġà¦²à¦¹à¦°":2879,"à¦ŀà¦Ĺ":2880,"à¦ľà¦¨à¦¯":2881,"Ġà¦«à¦¤":2882,"Ġà¦®à¦¨à¦¨à¦ķ":2883,"Ġà¦ĩà¦¶":2884,"Ġà¦¹à¦²à¦¤":2885,"Ġà¦ķà¦¥à¦ŀ":2886,"à¦Ŀà¦¡":2887,"à¦¨à¦¤à¦¤à¦°":2888,"Ġà¦¸à¦¹à¦¨":2889,"Ġà¦¹à¦¤à¦Ńà¦®":2890,"Ġà¦¬à¦¨à¦²à¦¤":2891,"à¦Ĩà¦ĩ":2892,"Ġà¦ªà¦¥à¦ĩ":2893,"à¦ķà¦Łà¦¬à¦°":2894,"à¦®à¦£à¦¤":2895,"à§°à¦¯":2896,"à¦°à¦²à¦¯":2897,"à¦°à¦²à¦¸":2898,"à¦®à¦²à¦Ĺ":2899,"à¦ľà¦¬à¦§":2900,"Ġà¦®à¦Ĺà¦§à¦°":2901,"à¦ķà¦ľà¦®à¦ķ":2902,"Ġà¦ĵà¦·à¦§":2903,"à¦¨à¦¸à¦°":2904,"à¦¨à¦ıà¦ķà¦Ł":2905,"à¦¤à¦ļà¦°":2906,"à¦ķà¦°à¦¬":2907,"Ġà¦¬à¦Ń":2908,"Ġà¦ªà¦ª":2909,"à¦¸à¦ĸ":2910,"à¦ªà¦¤à¦¨":2911,"à¦ªà¦¸à¦®":2912,"à¦ªà¦ıà¦¸à¦¬":2913,"Ġà¦®à¦Ĺà¦ľ":2914,"à¦Łà¦ĵ":2915,"à¦Łà¦ľà¦¨":2916,"à¦ľà¦ķà¦²":2917,"à¦ľà¦ªà¦¥":2918,"à¦¶à¦®à¦¨":2919,"à¦Ĺà§ľ":2920,"à¦£à¦§":2921,"à¦£à¦Ńà¦ķ":2922,"à¦ĸà¦ª":2923,"à¦Ńà¦ª":2924,"à¦Ńà¦¬à¦¨":2925,"à¦ĵà¦¦":2926,"Ġà¦Ńà¦ľ":2927,"Ġà¦Ńà¦°à¦£à¦ª":2928,"à¦¬à¦¨à¦ľ":2929,"à¦¬à¦°à¦²":2930,"à¦°à¦¬à¦®à§Ł":2931,"Ġà¦Ĩà¦²à¦Ļ":2932,"Ġà¦ħà¦Ńà¦¯":2933,"à¦ĺà¦¶":2934,"Ġà¦¬à¦¨à¦ľ":2935,"à¦°à¦¶à¦®à¦¨":2936,"Ġà¦Ŀà¦²à¦¸":2937,"Ġà¦ķà¦®à¦ª":2938,"Ġà¦ħà¦ªà¦ķ":2939,"Ġà¦ħà¦Ĺà¦¸":2940,"à¦¬à¦¸à¦¤":2941,"Ġà¦¶à¦¤à¦ª":2942,"à¦īà¦²à¦°":2943,"Ġà§§à§§":2944,"à¦łà¦ķà¦¦":2945,"Ġà¦īà§İà¦¸à¦¬à¦Ĺ":2946,"Ġà¦¦à¦¶à¦ľà¦¨":2947,"Ġà§¨à§¨":2948,"Ġà§¨à§ª":2949,"à§§à§©":2950,"Ġà¦Ĭà¦·":2951,"Ġà¦Ĭà¦¨à¦¬":2952,"à§°à¦¹à¦£":2953,"Ġà¦Ńà¦Ĺà¦¬à¦¦":2954,"à§ĩà§Ĺ":2955,"à¦°à¦ıà¦¸à¦¬à¦ĩ":2956,"à¦¨à¦®à§Ł":2957,"à¦¨à¦¸à¦¬à¦ķ":2958,"à¦¤à¦ĸ":2959,"à¦¯à¦Łà¦¨":2960,"à¦®à¦¬à¦¨":2961,"à¦®à¦«":2962,"Ġà¦¸à¦¸à¦®":2963,"Ġà¦¬à¦Ľ":2964,"Ġà¦ªà¦¬à¦¨":2965,"à¦¸à¦ıà¦ĩ":2966,"Ġà¦®à¦¤à¦¨":2967,"à¦¶à¦Ŀ":2968,"à¦¶à¦²à¦¤":2969,"à¦Ĺà¦«à¦²":2970,"à¦£à¦²":2971,"à¦ĸà¦Ĺ":2972,"à¦Ńà¦ľà¦¨":2973,"à¦¡à¦¶":2974,"Ġà¦ĵà¦ľà¦¨":2975,"à¦¼à¦¾à¦ĥ":2976,"à¦ŀà¦ª":2977,"à¦¤à¦°à¦¬":2978,"à¦¤à¦°à¦ªà¦¶":2979,"Ġà¦¹à¦²à¦¬":2980,"Ġà¦¸à¦¬à¦Ĺ":2981,"à¦·à¦£à¦ª":2982,"à¦Ĺà¦¤à¦ķ":2983,"Ġà¦ħà¦¸à¦¦":2984,"Ġà¦ħà¦¸à¦¤à¦¤":2985,"à¦ĺà¦£":2986,"Ġà¦Łà¦®":2987,"à¦®à¦¤à¦®":2988,"à¦°à¦¹à¦¸":2989,"à¦¯à¦¤à¦ķ":2990,"à¦Ĩà¦ĩà¦¨":2991,"à¦¬à¦¦à¦°à¦¬":2992,"à¦ħà¦«":2993,"Ġà¦ıà¦¤à¦Ĺ":2994,"Ġà¦ħà¦ªà¦ķà¦°":2995,"Ġà¦ħà¦ªà¦ļà§Ł":2996,"à¦¤à¦¤à¦¤":2997,"Ġà¦¤à¦¤à¦ĸ":2998,"Ġà¦ľà¦°à¦®à¦¨":2999,"Ġà¦īà¦ªà¦¨à¦¯":3000,"à¦°à¦ªà¦°à¦ĩ":3001,"à¦®à¦¦à¦®":3002,"à¦ĸà¦ķà¦·":3003,"Ġà¦¸à§İà¦Ń":3004,"à§«à§¦":3005,"à¦ĭà¦¤":3006,"Ġà§«à§¦":3007,"à¦°à¦ªà¦¨":3008,"à¦¨à¦®à¦¤":3009,"à¦¨à¦ĩà¦¨":3010,"à¦¨à¦ıà¦ķ":3011,"à¦¤à¦ıà¦¸à¦¬":3012,"à¦¯à¦®à¦¨":3013,"à¦¯à¦®à¦£":3014,"à¦¬à¦ļà¦°":3015,"à¦²à¦Ĺà¦®":3016,"à¦®à¦¬à¦²":3017,"Ġà¦¸à¦°à¦¬":3018,"à¦ªà¦¶à¦¨":3019,"à¦ªà¦¬à¦¯":3020,"à¦ľà¦¶à¦ķ":3021,"Ġà¦¤à¦°à¦ķ":3022,"Ġà¦¤à§İà¦ª":3023,"à¦Ĺà¦ľà¦¨":3024,"à¦§à¦ľà¦¯":3025,"à¦¹à¦Ĺ":3026,"Ġà¦¯à¦¤à¦¬":3027,"Ġà¦¯à¦¶à¦¸":3028,"à¦ĸà¦¡":3029,"Ġà¦¶à¦°à¦¦":3030,"à¦Ńà¦ĩ":3031,"à¦¡à¦¤":3032,"à§Łà¦²":3033,"à§Łà¦¶":3034,"Ġà¦°à¦ŀ":3035,"Ġà¦°à¦£à¦ķ":3036,"Ġà¦ĵà¦¸":3037,"Ġà¦ĵà¦¤à¦ª":3038,"à¦°à¦¤à¦ķà¦¥":3039,"Ġà¦¥à¦®":3040,"à¦¬à¦¨à¦ª":3041,"à¦¬à¦¨à¦ļà¦°":3042,"Ġà¦ıà¦ĩà¦¯":3043,"Ġà¦ıà¦ĩà¦®":3044,"à¦ŀà¦¸":3045,"à¦¤à¦°à¦¦":3046,"à§İà¦¬":3047,"Ġà¦ĩà¦ľ":3048,"à¦°à¦®à¦¹":3049,"à¦°à¦¬à¦¬":3050,"à¦īà§İà¦ª":3051,"Ġà¦Ĩà¦Ľà¦¡":3052,"à¦²à¦¨à¦¬":3053,"à¦²à¦¨à¦ĩ":3054,"à¦²à¦¨à¦Ĺ":3055,"à¦°à¦¹à¦¸à¦¨":3056,"Ġà¦¡à¦²":3057,"à¦²à¦ķà¦Ń":3058,"Ġà¦ľà¦²à¦Ń":3059,"Ġà¦ĸà¦¬à¦°à¦Ł":3060,"à¦¬à¦ľà¦¨à¦ª":3061,"Ġà¦®à¦¨à¦¨à¦ļ":3062,"à¦°à¦®à¦¶à¦ĩ":3063,"à§§à§¨":3064,"Ġà¦ļà¦®à¦ķà¦ª":3065,"ĠĠĠĠĠĠĠĠĠĠĠĠĠĠĠĠĠĠĠĠĠĠĠĠĠĠĠĠĠĠĠĠĠĠĠĠĠĠĠĠĠĠĠĠĠĠĠĠĠĠĠĠĠĠĠĠĠĠĠĠĠĠĠĠ":3066,"à¦¨à¦¸à¦¨":3067,"à¦¨à¦¯à¦¦":3068,"à¦¨à¦ıà¦¸à¦¬à¦ĩ":3069,"à¦ķà¦ļà¦ķ":3070,"à¦¬à¦®à¦¨":3071,"à¦²à¦¤à¦°":3072,"à¦®à¦Ŀ":3073,"à¦®à¦Ĺà¦¤":3074,"à¦®à¦¹à¦¸":3075,"à¦®à¦ıà¦¸à¦¬":3076,"Ġà¦¸à§İà¦ķ":3077,"Ġà¦¬à¦ļ":3078,"Ġà¦¬à¦°à¦¬":3079,"à¦¦à¦°à¦®":3080,"à¦¦à¦®à¦¯":3081,"Ġà¦Ĩà¦ªà¦¦":3082,"à¦·à¦°à¦Ĺ":3083,"Ġà¦¨à¦²":3084,"Ġà¦ıà¦§à¦°à¦¨":3085,"à¦ľà¦®à¦¹":3086,"à¦¶à¦ķà¦°":3087,"Ġà¦¤à¦¹à¦¬":3088,"à¦Ĺà¦²à¦¬":3089,"Ġà¦ħà¦«à¦²":3090,"à¦§à¦¶à¦¤":3091,"à¦£à¦¬à¦¤":3092,"à¦ļà¦²à¦¤":3093,"à¦¥à¦ªà¦¤":3094,"à¦Ńà¦ªà¦¤":3095,"à¦Ńà¦ľà¦¨à¦ķ":3096,"à§Łà¦Ł":3097,"Ġà¦°à¦Ł":3098,"Ġà¦ļà¦°à¦ķ":3099,"Ġà¦ļà¦ķà¦²":3100,"Ġà¦īà¦ĩà¦²":3101,"Ġà¦īà¦¸à¦ķ":3102,"Ġà¦ªà¦°à¦°":3103,"Ġà¦ħà¦¨à¦Ĺ":3104,"Ġà¦§à§°":3105,"à¦ľà¦¨à¦¬":3106,"à¦¯à¦¬à¦ĩà§Ł":3107,"à¦°à¦¬à¦ŀ":3108,"Ġà¦ħà¦¬à¦¸à¦¨":3109,"à¦·à¦£à¦Ń":3110,"à¦Ŀà¦¨":3111,"Ġà¦ħà¦¸à¦¹à¦¨":3112,"à¦¨à¦¬à¦¸à¦¤":3113,"Ġà¦¬à¦¨à¦ľà¦Ļ":3114,"à¦°à¦¶à¦®":3115,"Ġà¦¸à¦°à¦ŀ":3116,"à¦®à¦£à¦¸à¦®":3117,"Ġà¦Ĳà¦¹":3118,"Ġà¦īà§İà¦ķà¦£":3119,"Ġà§¯":3120,"à¦ħà¦¹":3121,"Ġà¦īà¦¤à¦²":3122,"à¦Ĺà¦²à¦¦":3123,"Ġà¦¢à¦Ļ":3124,"à¦ĩà¦²à¦Ł":3125,"Ġà¦¶à¦¤à¦¬à¦°":3126,"Ġà§§à§Ń":3127,"Ġà¦¬à¦ĩà¦ĸ":3128,"Ġà¦ľà¦®à¦ľà¦®":3129,"Ġà§§à§¯à§¯à§":3130,"Ġà¦ħà¦¹à¦®":3131,"Ġà¦ħà¦¹à¦°à¦¹":3132,"à¦®à§Łà¦ķà¦°":3133,"à§§à§«":3134,"Ġà§ªà§¦":3135,"à¦Ĺà¦ªà§İ":3136,"Ġà¦¹à¦ķà¦ļà¦ķ":3137,"Ġà¦¾":3138,"à§ĩà¦¾à¦ģ":3139,"à¦¨à¦®à¦¯":3140,"à¦¨à¦ħà¦¨":3141,"à¦¨à¦ıà¦®à¦¨":3142,"à¦¤à¦ķà¦¤":3143,"à¦¯à¦ªà¦¤":3144,"à¦¯à§İà¦ķ":3145,"à¦ķà¦¬à¦¨":3146,"à¦¬à¦ĸ":3147,"à¦¬à¦ħà¦¨":3148,"Ġà¦ķà¦®à¦¨":3149,"à¦¦à¦®à§Ł":3150,"à¦¸à¦¸à¦¬":3151,"Ġà¦Ĩà¦°à¦¤":3152,"Ġà¦Ĩà¦Ĺà¦¤":3153,"Ġà¦Ĩà¦īà¦²":3154,"Ġà¦Ĩà¦īà¦Ł":3155,"à¦ªà¦ķà¦¤":3156,"à¦ªà¦Ĩà¦²":3157,"Ġà¦®à¦ľà¦²":3158,"Ġà¦ıà¦¹":3159,"à¦¶à¦¬à¦¨":3160,"à¦¶à¦ļà¦¨":3161,"à¦¶à¦®à¦¯":3162,"Ġà¦¹à¦ĩà¦¨":3163,"à¦£à¦ĩà¦¤":3164,"Ġà¦Ĺà¦ŀ":3165,"Ġà¦Ĺà¦Ĺà¦¨":3166,"Ġà¦ļà¦²à¦¨":3167,"Ġà¦īà¦ĩà¦¨":3168,"Ġà¦ıà¦ķà¦¸à¦®à§Ł":3169,"Ġà¦Ĩà¦°à¦ķ":3170,"à¦°à¦ķà¦¦":3171,"à¦ŀà¦°":3172,"à¦ªà¦°à¦¸":3173,"à¦®à¦¨à¦ķ":3174,"à¦®à¦¨à¦Ĺà¦°":3175,"Ġà¦ĸà¦¤":3176,"Ġà¦ĸà¦¨à¦¨":3177,"à¦¯à¦¬à¦ĩ":3178,"Ġà¦ĩà¦¹à¦²":3179,"Ġà¦¹à¦²à¦ķ":3180,"Ġà¦¹à¦²à¦¸":3181,"à¦°à¦®à¦§":3182,"Ġà¦ķà¦¥à¦ķ":3183,"à¦·à¦£à¦¤":3184,"à¦°à¦¸à¦¤":3185,"à¦Ĺà¦¤à¦®":3186,"Ġà¦īà¦¦à¦°":3187,"à¦ļà¦¨à¦ķ":3188,"Ġà¦¹à¦¤à¦Ń":3189,"à¦§à¦¨à¦Ĺ":3190,"à¦Ĩà¦°à¦ĵ":3191,"à¦°à¦¦à¦ķ":3192,"Ġà¦ªà¦¥à¦ĵ":3193,"à¦ħà¦¶":3194,"à§°à¦ľ":3195,"à¦¬à¦¬à¦Ļ":3196,"à¦¤à¦®à¦¯":3197,"Ġà¦ķà¦®à¦ĩ":3198,"à¦ıà¦ĩà¦°à¦ķà¦®":3199,"à¦¬à¦ķà¦£":3200,"Ġà¦ĭà¦ľ":3201,"Ġà¦ķà¦¤à¦ľà¦¨":3202,"à¦¯à¦°à¦ļà¦¨":3203,"Ġà¦§à¦¨à¦°à¦¤":3204,"Ġà¦Ĩà¦ªà¦²":3205,"à¦®à¦¦à¦ķ":3206,"à¦ıà¦ķà¦¥":3207,"à¦·à§Łà¦Ł":3208,"Ġà¦¶à¦¹à¦°à¦¬":3209,"à§§à§§":3210,"à¦Ĺà¦¬à¦¤à¦ª":3211,"Ġà§§à§¦à§¦":3212,"Ġà§§à§¯à§®à§¯":3213,"à¦¦à¦°à¦®à¦¹à¦²":3214,"à¦¨à¦¸à¦¬à¦ĩ":3215,"à¦¨à¦Ĩà¦®à¦°":3216,"à¦¤à¦ĺ":3217,"à¦¤à¦¶à¦ķ":3218,"à¦¤à¦ªà¦¸":3219,"à¦¤à¦¸à¦¬à¦ĩ":3220,"à¦ķà¦Ĩà¦ª":3221,"à¦¬à¦¤à¦°":3222,"à¦¬à¦ªà¦¨":3223,"à¦¬à¦¸à¦¨":3224,"à¦²à¦¥":3225,"à¦²à¦Ŀ":3226,"à¦²à¦ķà¦Ł":3227,"à¦®à¦ªà¦¦":3228,"à§ģà§ģ":3229,"Ġà¦¸à¦²à¦ľ":3230,"Ġà¦ķà¦Ń":3231,"à¦¦à¦Ľ":3232,"à¦¦à¦ķà¦¤":3233,"à¦¸à¦ıà¦¸à¦¬":3234,"à§ĭà¦ĥ":3235,"à¦ĩà¦¨à¦¬":3236,"à¦ªà¦ļà¦°":3237,"à¦ªà¦¯à¦ľ":3238,"Ġà¦¨à¦Ń":3239,"à¦ľà¦²à¦ķ":3240,"à¦¶à¦Ľ":3241,"Ġà¦¤à¦¯":3242,"Ġà¦¤à¦ľ":3243,"à¦Ĺà¦°à¦¸":3244,"à¦Ĺà¦§à¦°":3245,"Ġà¦¦à¦¹à¦¨":3246,"Ġà¦¹à¦ľ":3247,"à¦£à¦¬à¦¸":3248,"à¦¹à¦¹":3249,"à¦ļà¦ķà¦°":3250,"Ġà¦ľà¦ĺà¦¨":3251,"Ġà¦ľà¦łà¦°":3252,"à§Ĥà¦ģ":3253,"Ġà¦īà¦¥":3254,"Ġà¦ĵà¦¤":3255,"Ġà¦ıà¦ķà¦²":3256,"Ġà¦¥à¦²":3257,"à¦¬à¦¨à¦¡":3258,"à¦°à¦£à¦¬":3259,"Ġà¦²à¦Ł":3260,"Ġà¦²à¦ŀ":3261,"Ġà¦²à¦¹à¦®":3262,"à¦ŀà¦¬":3263,"à¦¤à¦°à¦®":3264,"à¦¤à¦°à¦Ĺ":3265,"à¦ıà¦®":3266,"à¦ıà¦°à¦ªà¦°":3267,"à¦°à¦¬à¦²à¦Ń":3268,"à¦·à¦£à¦Ł":3269,"à¦·à¦£à¦ıà¦¸à¦¬":3270,"à¦īà¦²à¦ķ":3271,"à¦²à¦¨à¦¸":3272,"à¦¬à¦²à¦ķ":3273,"à¦¬à¦²à¦¦":3274,"à¦¬à¦²à¦Ľ":3275,"Ġà¦Ĳà¦°":3276,"Ġà¦Ĩà¦Ĺà¦²":3277,"à§°à¦¦":3278,"à§°à¦§":3279,"à§°à¦ļ":3280,"à§°à¦¬à¦¨":3281,"à¦Ĺà¦²à¦ª":3282,"à¦§à¦ķà¦¬":3283,"Ġà¦ıà¦ķà¦ĩà¦°à¦ķà¦®":3284,"Ġà¦īà¦²à¦Ļ":3285,"à¦®à¦¸à¦ļ":3286,"Ġà¦Ĩà¦¦à¦°à¦£":3287,"Ġà¦¬à¦Łà¦¬":3288,"à¦¬à¦Ńà¦ķ":3289,"à¦Łà¦«à¦Ł":3290,"à¦¦à§Łà¦ķ":3291,"Ġà¦Ĩà¦ĩà¦¨à¦ľ":3292,"à¦¬à¦°à¦£à¦ķ":3293,"à§§à§§à§":3294,"Ġà¦¬à¦¶à¦¬à¦°":3295,"ĠĠčĊĠ":3296,"Ġà§ªà§«":3297,"à¦ľà¦Ńà¦¬à¦¨":3298,"Ġà¦¨à¦ľà¦°à¦¦":3299,"à¦¨à¦ł":3300,"à¦¨à¦ªà¦¨":3301,"à¦¤à¦«":3302,"à¦¤à¦ļà¦¨":3303,"à¦¤à¦¤à¦®":3304,"à¦¯à¦·":3305,"à¦¯à¦²à¦ķ":3306,"à¦ķà¦°à¦¤":3307,"à¦ķà¦ķà¦²":3308,"Ġà¦¸à§°":3309,"Ġà¦¬à¦¦à¦¨":3310,"Ġà¦ªà¦ľ":3311,"à¦¸à¦¶":3312,"à¦¸à¦ªà¦°":3313,"à¦¸à¦ķà¦°":3314,"à¦ªà¦²à¦¬":3315,"Ġà¦®à¦¸à¦²":3316,"Ġà¦®à§Łà¦¦":3317,"Ġà¦¨à¦¬à¦¨":3318,"Ġà¦¨à¦Ĺà¦£":3319,"Ġà¦¤à§İà¦ªà¦°":3320,"Ġà¦¦à¦¦":3321,"Ġà¦ħà¦¤à¦°":3322,"Ġà¦ħà¦ĺ":3323,"Ġà¦ħà¦ķà¦°":3324,"à¦§à¦ļà¦¨":3325,"à¦§à¦¸à¦®":3326,"à¦§à¦ıà¦ĩ":3327,"à¦¹à¦¶":3328,"Ġà¦¶à¦°à¦¤":3329,"Ġà¦Ĺà¦²à¦¨":3330,"Ġà¦ľà¦®à¦¤":3331,"Ġà¦ľà§Łà¦¨":3332,"à¦ĵà¦ª":3333,"à¦ĵà¦Ń":3334,"Ġà¦ļà¦Łà¦ķ":3335,"Ġà¦ĵà¦Ĺ":3336,"Ġà¦Ľà¦Łà¦«à¦Ł":3337,"Ġà¦²à¦°":3338,"à¦ľà¦¨à¦®":3339,"čĊčĊ":3340,"Ġà¦ĺà¦°à¦ķ":3341,"Ġà¦¸à¦¬à¦¶":3342,"Ġà¦¸à¦¬à¦¥":3343,"Ġà¦¸à¦¬à¦°à¦ķà¦®":3344,"à§ľà¦²":3345,"Ġà¦¬à¦°à¦²":3346,"à¦¬à¦¤à¦®":3347,"Ġà¦®à¦¤à¦ª":3348,"à¦¨à¦¬à¦®":3349,"à¦°à¦¹à¦ķ":3350,"à¦°à¦¹à¦¶":3351,"à¦¬à¦²à¦¬":3352,"à¦§à¦¨à¦®":3353,"à¦Ĩà¦ļà¦°à¦£":3354,"à¦¤à¦¬à¦°à¦£":3355,"Ġà¦ªà¦¥à¦ĺ":3356,"Ġà¦¸à¦°à¦²à¦Ń":3357,"à¦¸à¦®à¦Ĺ":3358,"à¦ħà¦ļ":3359,"à¦Ńà¦¬à§İ":3360,"à¦¯à¦¦à¦²":3361,"Ġà¦ĵà¦ªà¦°à¦ĩ":3362,"Ġà¦ķà¦¤à¦ĩ":3363,"à¦¯à¦ªà¦¥":3364,"à¦°à¦®à¦£à¦ª":3365,"Ġà¦¹à¦łà¦¯":3366,"Ġà¦¸à§İà¦ļà¦°":3367,"à¦Ĺà¦ľà¦ªà¦¤":3368,"Ġà¦°à¦¥à¦¯":3369,"Ġà¦¸à¦«à¦Łà¦ĵà¦¯":3370,"Ġà¦¸à¦«à¦Łà¦ĵà§Ł":3371,"Ġà¦Ńà§Łà¦Ļ":3372,"à§İà¦ªà§°":3373,"à¦ıà¦®à¦¨à¦ķ":3374,"à¦ķà¦ĵà¦¦":3375,"Ġà¦ķà§Łà¦²":3376,"à¦§à¦¹à§Ł":3377,"Ġà¦ļà¦ªà¦²à¦¤":3378,"à¦°à¦Ĺà¦¨":3379,"à¦¨à¦°à¦¤":3380,"à¦¨à¦Ńà¦Ļ":3381,"à¦¨à¦ıà¦°":3382,"à¦¤à¦¸à¦¬":3383,"à¦¯à¦ªà¦ķ":3384,"à¦¯à¦Ĺà¦£":3385,"à¦¯à¦ľà¦¨à¦ķ":3386,"à¦ķà¦ªà¦°":3387,"à¦²à¦¬à¦°":3388,"à¦²à¦ľà¦¯":3389,"à¦®à¦°à¦¤":3390,"Ġà¦¸à¦ªà¦¤":3391,"Ġà¦¬à¦īà¦¦":3392,"à¦¦à¦§":3393,"à¦¸à¦ľà¦¨":3394,"à§Ģà¦ĥ":3395,"à¦ĩà¦ĵà¦¯":3396,"à¦ĩà¦ıà¦°":3397,"à¦ªà¦ªà¦°":3398,"Ġà¦ıà¦·":3399,"à¦ľà¦¹":3400,"à¦¶à¦«":3401,"Ġà¦¤à¦ªà¦¨":3402,"à¦§à¦ľ":3403,"à¦§à¦¬à¦¤":3404,"à¦§à¦ıà¦¸à¦¬":3405,"Ġà¦¯à¦¬":3406,"Ġà¦ķà¦°à¦¨":3407,"à¦ļà¦¤à¦®":3408,"Ġà¦¶à¦ķà¦Ł":3409,"Ġà¦°à¦¸à¦¨":3410,"Ġà¦īà¦¹":3411,"Ġà¦Ĩà¦®à¦Ĺ":3412,"Ġà¦ıà¦ķà¦ķà¦¥":3413,"à¦¬à¦¨à¦ĵ":3414,"Ġà¦²à¦£":3415,"Ġà¦ıà¦ĩà¦Ĺ":3416,"Ġà¦§à¦®à¦ķ":3417,"à¦ªà¦°à¦®à¦£":3418,"à¦¬à¦°à¦¨":3419,"à¦¬à¦°à¦¸":3420,"à¦¬à¦°à¦ļà¦¨":3421,"à¦®à¦¨à¦Ń":3422,"Ġà¦«à¦²à¦¬":3423,"à¦¤à¦°à¦«":3424,"Ġà¦ľà¦¨à¦¶à¦ķ":3425,"Ġà¦¹à¦²à¦ª":3426,"à¦ıà¦¸à¦¸":3427,"Ġà¦¸à¦¬à¦ķà¦Ł":3428,"à¦·à¦£à¦¬":3429,"à¦°à¦¸à¦Ĺ":3430,"Ġà¦Ĩà¦²à¦Ĺ":3431,"Ġà¦Ĩà¦¬à¦Ľ":3432,"à¦²à¦¤à¦¤":3433,"à¦¬à¦²à¦²":3434,"à¦§à¦¨à¦ĵ":3435,"à¦¨à¦ĵà¦°à¦ķà¦®":3436,"à¦¤à¦¬à¦®":3437,"à¦®à¦£à¦ª":3438,"à¦¶à¦¨à¦¶":3439,"Ġà¦¬à¦²à¦²à¦Ĩà¦®":3440,"Ġà¦Ĳà¦°à¦ķà¦®":3441,"Ġà¦«à¦²à¦®":3442,"à¦ħà¦¥à¦¬":3443,"à¦ħà¦¥à¦ļ":3444,"à¦¸à¦¨à¦¸":3445,"à¦ĩà¦¨à¦¸":3446,"Ġà¦Ĩà¦ķà¦¬à¦°":3447,"à¦¬à¦ķà¦¬":3448,"à¦°à¦ľà¦¨à¦ªà¦¦à¦¬":3449,"Ġà¦¨à§Łà¦ıà¦Ł":3450,"à¦¨à¦¸à¦¹":3451,"à¦ľà¦¸à¦ľ":3452,"Ġà¦ĺà¦°à¦Ł":3453,"Ġà¦Ĩà¦ļà¦®à¦ķ":3454,"ĠĠĠĠĠĠĠĠĠĠ":3455,"à¦°à¦®à¦£à¦ĩ":3456,"Ġà¦Ĺà§ľà¦¬":3457,"à¦¶à¦ªà¦¥":3458,"Ġà¦°à¦Ļà¦¬":3459,"à¦°à¦ªà¦°à¦ĵ":3460,"à¦®à¦¦à¦¤":3461,"Ġà¦¸à§İà¦ļ":3462,"à¦¯à¦¥à¦Ń":3463,"Ġà¦¹à¦ĩà¦ļà¦ĩ":3464,"à¦¬à¦¹à¦£":3465,"à§§à§ª":3466,"Ġà¦ľà§Łà¦¯":3467,"ĠĠčĊĠĠč":3468,"Ġà¦ľà¦Ĺà§İà¦Ł":3469,"Ġà¦®à¦¶à¦ķà¦°":3470,"à¦°à¦¬à¦£à¦¶à¦ķ":3471,"à¦Īà¦¶":3472,"âĢī":3473,"à¦°à¦Ĩà¦®":3474,"à¦¨à¦ľà¦¨à¦ķ":3475,"à¦¨à¦ħà¦¸":3476,"à¦¤à¦ļà¦ķ":3477,"à¦¯à¦ļà¦ķ":3478,"à¦¯à¦ħà¦¨":3479,"à¦¯à¦¸à¦¬à¦ķ":3480,"à¦ķà¦®à¦¯":3481,"à¦¬à¦Ĺà¦£":3482,"à¦²à¦ªà¦°":3483,"à¦²à¦¹à¦²":3484,"à¦®à¦¥":3485,"à¦®à¦¸à¦¬":3486,"à¦®à¦§à¦¨":3487,"à¦®à¦¸à¦¨":3488,"Ġà¦¸à¦ĩ":3489,"Ġà¦¸à¦¶":3490,"Ġà¦ķà§ľ":3491,"Ġà¦ķà§°":3492,"Ġà¦¬à§°":3493,"à¦¦à¦īà¦ªà¦¨":3494,"à¦·à¦ļ":3495,"à¦ªà¦¬à¦¤":3496,"à¦ªà§°":3497,"Ġà¦®à¦Ł":3498,"Ġà¦¨à¦°à¦¸":3499,"à¦Łà¦¤à¦°":3500,"à¦ľà¦²à¦¬":3501,"à¦¶à¦¬à¦ķ":3502,"à¦Ĺà¦Ļ":3503,"à¦Ĺà¦¸à¦¨":3504,"Ġà¦¦à¦ª":3505,"Ġà¦ħà§°":3506,"à¦§à¦ªà¦°":3507,"à¦§à¦¸à¦¬à¦ķ":3508,"à¦Ľà¦®":3509,"à¦£à¦ªà¦¨":3510,"Ġà¦¯à§İà¦¸":3511,"Ġà¦¯à¦®à¦ľ":3512,"Ġà¦¶à¦®à¦¦à¦®":3513,"à¦Ńà¦¤":3514,"à¦Ńà¦ĵ":3515,"à¦Ńà¦°à¦£":3516,"Ġà¦ľà¦Ń":3517,"à¦¡à¦īà¦ĩ":3518,"à§Łà¦®à¦¨":3519,"Ġà¦°à¦«":3520,"Ġà¦īà¦Ł":3521,"Ġà¦īà¦¶":3522,"Ġà¦ĵà¦®":3523,"Ġà¦ĵà¦Ń":3524,"Ġà¦¸à¦®à¦¦":3525,"à¦Ļà¦¬":3526,"à¦°à¦£à¦¶":3527,"Ġà¦§à¦ķà¦²":3528,"Ġà¦§à¦¨à¦¬":3529,"à¦ŀà¦Ń":3530,"à¦¬à¦°à¦¬à¦°":3531,"à¦®à¦¨à¦¨":3532,"Ġà¦ĸà¦¤à¦®":3533,"à¦¤à¦¨à¦ĵ":3534,"à¦ıà¦ĵ":3535,"à¦°à¦®à¦¥":3536,"Ġà¦¸à¦¬à¦¦":3537,"Ġà¦ħà¦¬à§Łà¦¬":3538,"à¦¸à¦¬à¦ļ":3539,"à§ľà¦Ŀ":3540,"à¦«à¦²à¦ķ":3541,"à¦īà¦¨à¦²":3542,"à¦Ŀà¦ŀ":3543,"à¦°à¦¯à¦¤":3544,"Ġà¦®à¦¤à¦Ń":3545,"à¦ĺà¦¤à¦°":3546,"à¦¨à¦¬à¦ļ":3547,"à¦°à¦¹à¦°à¦£":3548,"Ġà¦¡à¦°":3549,"à¦ķà¦°à¦¶":3550,"à¦Ĩà¦¯":3551,"à¦¨à¦ĵà¦®à¦¤":3552,"à¦¤à¦¬à¦¸à¦®":3553,"Ġà¦ªà¦¥à¦¨":3554,"à¦®à¦£à¦ĭà¦·":3555,"à¦¯à¦®à¦ķ":3556,"Ġà¦ıà¦°à¦ĵ":3557,"à§°à¦ĩ":3558,"à¦®à¦ķà¦Ń":3559,"à¦ªà¦¦à¦ĵ":3560,"à¦¨à¦ķà¦ķ":3561,"Ġà¦Ĺà¦²à¦Ľ":3562,"à¦°à¦²à¦®":3563,"Ġà§§à§¯":3564,"à¦ļà¦ķà¦¦":3565,"Ġà¦¶à¦¹à¦°à¦Ł":3566,"Ġà¦¬à¦ĩà¦¬":3567,"Ġà¦¬à¦ĩà¦Ľ":3568,"Ġà¦¦à¦²à¦Ĺ":3569,"Ġà¦ªà¦¤à¦ŀ":3570,"à¦¦à¦¬à¦¹":3571,"Ġà¦¹à¦ĩà§Ł":3572,"Ġà¦¹à¦ĩà¦¹à¦ĩ":3573,"Ġà¦ľà¦Ĺà§İà¦ķ":3574,"à¦ľà¦Ĺà§İà¦ķ":3575,"à§©à§¦":3576,"à¦²à¦ļà¦²à¦¨":3577,"à¦£à¦Ĺà¦¤à¦®":3578,"à¦¨à¦ħà¦§":3579,"Ġà§§à§¯à§¦à§«":3580,"à¦Ĺà¦ľà¦¨à¦ľ":3581,"à¦¨à¦¶à¦ķ":3582,"à¦¨à¦ıà¦¬":3583,"à¦¨à¦®à¦Ĺ":3584,"à¦¨à¦ħà¦°":3585,"à¦¤à¦®à¦¤":3586,"à¦¤à¦ıà¦ĩ":3587,"à¦¤à¦ĩà¦²":3588,"à¦¯à¦ħà¦°":3589,"à¦ķà¦¦à¦°":3590,"à¦ķà¦Ĺà¦£":3591,"à¦¬à¦ıà¦ĩ":3592,"à¦²à¦ĵà¦¯":3593,"à¦²à¦¸à¦¨":3594,"à¦²à¦ıà¦ĩ":3595,"à¦²à¦ªà¦¥":3596,"à¦®à¦ķà¦²":3597,"Ġà¦¸à¦ĩà¦¬":3598,"Ġà¦ķà¦®à¦£":3599,"Ġà¦ªà§Ł":3600,"à¦¦à¦ļà¦¯":3601,"à¦¸à¦°à¦¤":3602,"à¦¸à¦ı":3603,"à¦¸à¦¹à¦¸":3604,"à¦ĩà¦¸à¦Ļ":3605,"à¦ªà¦ıà¦ĩ":3606,"à¦ªà¦¸à¦¬à¦ķ":3607,"Ġà¦¨à¦ļ":3608,"Ġà¦¨à¦ĵ":3609,"Ġà¦¨à¦¬à¦ª":3610,"à¦Łà¦¶":3611,"à¦ľà¦¬à¦¨":3612,"à¦ľà¦ªà¦¦":3613,"à¦¶à¦ªà¦°":3614,"Ġà¦¤à¦¦à¦¨":3615,"à¦Ĺà¦§":3616,"à¦Ĺà¦ªà¦°":3617,"Ġà¦¦à¦¹":3618,"Ġà¦ħà¦ªà¦¦":3619,"Ġà¦ħà¦ľà¦¯":3620,"à¦§à¦Ľ":3621,"à¦§à¦¤à¦°":3622,"à¦¹à¦¬à¦§":3623,"Ġà¦¶à¦²":3624,"Ġà¦¶à¦¶à¦¬":3625,"à§ĥà¦Ĥ":3626,"à¦ĵà¦ķ":3627,"Ġà¦°à¦Łà¦¨":3628,"Ġà¦Ĩà¦®à¦¬":3629,"Ġà¦ıà¦ķà¦Ŀ":3630,"à¦Ļà¦°":3631,"Ġà¦ªà¦°à¦®à¦°":3632,"à¦°à¦¤à¦¸":3633,"à¦łà¦Ł":3634,"à¦łà¦Ĺ":3635,"à¦łà¦¤à¦®":3636,"Ġà¦Ľà¦®":3637,"à¦°à¦£à¦¨":3638,"à¦°à¦£à¦®":3639,"Ġà¦²à¦ĩà¦¯":3640,"Ġà¦¬à¦²à¦¦":3641,"Ġà¦ıà¦ĩà¦°":3642,"Ġà¦§à¦¸":3643,"à¦ľà¦¨à¦Ł":3644,"à¦ľà¦¨à¦¬à¦°":3645,"à¦ľà¦¨à¦§à¦°":3646,"Ġà¦ĸà¦¦":3647,"Ġà¦ĸà¦°à¦Ĺ":3648,"à¦¤à¦¨à¦¬":3649,"à¦°à¦®à¦®":3650,"à¦°à¦®à¦ĩ":3651,"à¦¯à¦ķà¦¥":3652,"à¦¸à¦¬à¦®":3653,"à¦Ŀà§ľ":3654,"à¦¨à¦¤à¦¬":3655,"à¦ķà¦²à¦ķ":3656,"Ġà¦ħà¦¸à¦ļ":3657,"Ġà¦ħà¦¸à¦®à¦¤":3658,"Ġà¦Ĩà¦¸à¦®":3659,"Ġà¦Łà¦¨":3660,"à¦¨à¦¬à¦Ĺ":3661,"à¦°à¦¹à¦¨à¦ķ":3662,"Ġà¦¡à¦ķ":3663,"à¦§à¦¨à¦Ńà¦ľà¦¨":3664,"à¦°à¦¦à¦²":3665,"Ġà¦¸à¦°à¦·":3666,"à¦¯à¦®à¦ĩ":3667,"Ġà¦ķà¦°à¦¬à¦ķ":3668,"à¦ħà¦¦":3669,"à¦ħà¦Ĺ":3670,"à§°à¦Ń":3671,"à§°à¦¥à¦®":3672,"Ġà¦Ŀà¦Ł":3673,"à¦ĩà¦¨à¦°":3674,"à¦ļà¦²à¦Ĺ":3675,"Ġà¦ħà¦Ĺà¦®":3676,"à¦¤à¦ķà¦¦":3677,"à¦ľà¦¸à¦¤":3678,"Ġà¦¤à¦°à¦«":3679,"Ġà¦¸à¦¹à¦ľà¦¬":3680,"Ġà¦ħà¦ķà¦¸":3681,"à¦®à¦¸à¦Ļ":3682,"à¦¸à¦ķà¦Ĺ":3683,"Ġà¦īà¦ªà¦°à¦ĩ":3684,"Ġà¦¬à¦ĩà¦ª":3685,"Ġà¦¬à¦ĩà¦ªà§ľ":3686,"à¦ķà¦¸à¦Ń":3687,"à¦¨à§Łà¦¨à¦¶":3688,"Ġà¦Ĩà¦ĩà¦¨à¦Ĺà¦¤":3689,"à§¨à§¦":3690,"à¦¤à¦ªà¦²":3691,"Ġà§¨à§®":3692,"Ġà¦¶à¦¹à¦°à¦¤à¦²":3693,"Ġà¦·à¦Ł":3694,"Ġà¦Ķà¦ľ":3695,"ĠĠčĊĠĠĠĠ":3696,"ĠĠčĊĠĠĠ":3697,"à¦¶à¦¦à¦Ń":3698,"à¦¨à¦Ĩà¦ľ":3699,"Ġà¦°à¦®à¦°à¦®":3700,"à§¬à§¦":3701,"à¦Łà¦¸à¦ħ":3702,"Ġà¦¨à¦Ĺà¦°à¦ķ":3703,"Ġà¦Ĩà¦ĩà¦ĵà¦Ł":3704,"à¦¨à§Łà¦¨à¦ķ":3705,"Ġà¦®à¦¦à¦¨à¦®":3706,"Ġà¦ªà¦°à¦ªà¦°à¦ĩ":3707,"à¦ķà¦ĸà¦¨à¦ĵ":3708,"ĠĠčĊĠč":3709,"Ńà§§":3710,"Ġà¦¿":3711,"à¦°à¦ĭà¦£":3712,"à¦¨à¦«":3713,"à¦¨à¦ªà¦¦":3714,"à¦¨à¦®à¦°":3715,"à¦¨à¦Ńà¦°":3716,"à¦¨à¦īà¦¤":3717,"à¦¤à¦£":3718,"à¦¤à¦ªà¦°":3719,"à¦¤à¦¸à¦¬à¦ķ":3720,"à¦¯à§Łà¦¨":3721,"à¦¯à¦Ĺà¦łà¦¨":3722,"à¦ķà¦§":3723,"à¦¬à§ľ":3724,"à¦²à¦ªà¦®":3725,"à¦®à¦Ĩà¦®":3726,"Ġà¦¸à¦¦à¦¯":3727,"Ġà¦¬à¦¦à¦®":3728,"Ġà¦¬à¦īà¦ķ":3729,"Ġà¦ªà¦ļ":3730,"à¦¦à¦Ļ":3731,"à¦¦à¦ªà¦¦":3732,"à¦¦à¦ıà¦¸à¦¬":3733,"à¦¸à¦¸à¦¬à¦ķ":3734,"Ġà¦Ĩà¦·":3735,"à¦·à¦¬à¦°à¦£":3736,"à¦ªà¦ľà¦¨":3737,"à¦ªà¦«":3738,"Ġà¦®à¦«à¦¸":3739,"Ġà¦¨à¦Ĺà¦¦":3740,"à¦Łà¦ļ":3741,"à¦Łà¦ķà¦Ł":3742,"Ġà¦ıà¦®à¦¤":3743,"à¦ľà¦®à¦¨":3744,"à¦¶à¦ıà¦ĩ":3745,"à¦¶à¦¸à¦¬à¦ķ":3746,"Ġà¦¤à¦ªà¦¶":3747,"à¦Ĺà¦®à¦¯":3748,"Ġà¦¦à¦²à¦ķ":3749,"Ġà¦ħà¦¹à¦°":3750,"Ġà¦ħà¦ĺà¦Łà¦¨":3751,"à¦§à¦¸à¦¬":3752,"Ġà¦¹à¦°à¦®":3753,"à¦£à¦®à¦£":3754,"à¦£à¦ªà¦£":3755,"à¦£à¦¯à¦ľ":3756,"à¦¹à¦ķà¦°":3757,"à¦ĸà¦¸à¦®":3758,"Ġà¦¶à¦¬à¦¦":3759,"à¦Ńà¦°à¦¨":3760,"Ġà¦ľà¦¬à¦°":3761,"à¦¡à¦«":3762,"à¦¡à¦²à¦ķ":3763,"à¦¡à¦¬à¦¬":3764,"à§Łà¦ª":3765,"Ġà¦°à¦ľà¦¨":3766,"à¦Ļà¦Ľ":3767,"à¦Ļà¦ļ":3768,"à¦łà¦®":3769,"à¦łà¦ĵ":3770,"Ġà¦ħà¦¨à¦¤":3771,"à¦¬à¦¨à¦ļà¦ķ":3772,"à¦ŀà¦¬à¦¨":3773,"à¦ªà¦°à¦¦":3774,"à¦ľà¦¨à¦¸":3775,"à¦ľà¦¨à¦ª":3776,"à§İà¦¶":3777,"à¦¯à¦¬à¦¯":3778,"Ġà¦ĩà¦¨à¦ķ":3779,"à¦ıà¦°à¦ĩ":3780,"à¦°à¦®à¦¶à¦ķ":3781,"Ġà¦ħà¦¬à¦Ĺà¦¤":3782,"à¦·à¦£à¦ªà¦¦":3783,"à¦°à¦¸à¦ķà¦²":3784,"Ġà¦īà¦ªà¦¸à¦°":3785,"Ġà¦ħà¦¸à¦®à¦¯":3786,"à¦ĺà¦¡":3787,"à¦ĺà¦Łà¦ķ":3788,"à¦®à¦¤à¦Ń":3789,"Ġà¦ħà¦¤à¦²à¦¸":3790,"à¦¨à¦¬à¦¶":3791,"à¦°à¦¥à¦°":3792,"Ġà¦¡à¦Ĺ":3793,"à¦§à¦¨à¦¦":3794,"à¦§à¦¨à¦Ł":3795,"à¦¨à¦ĵà¦¨":3796,"Ġà¦ªà¦¥à¦ķ":3797,"à¦°à¦¥à¦®à¦ľ":3798,"à¦ķà¦Łà¦°":3799,"à¦®à¦£à¦¬":3800,"à¦®à¦£à¦ķà¦¨":3801,"à¦¶à¦¨à¦ĩ":3802,"à¦²à¦ķà¦ķ":3803,"à¦¬à¦ªà¦¦":3804,"Ġà¦ıà¦¤à¦¸à¦¬":3805,"Ġà¦ĩà¦¨à¦Ł":3806,"à¦ªà¦ķà¦¤à¦°":3807,"à¦¯à¦¸à¦Ń":3808,"Ġà¦ħà¦®à¦°à¦¤":3809,"Ġà¦ħà¦ªà¦°à¦ªà¦ķ":3810,"à¦¨à¦¸à¦ª":3811,"Ġà¦ĭà¦¦":3812,"Ġà¦ĺà¦°à¦Ĺ":3813,"à¦®à¦¸à¦¤":3814,"Ġà¦¬à¦Ľà¦°à¦Ĺ":3815,"à¦¥à¦ķà¦Ń":3816,"Ġà¦¸à¦®à§Łà¦ĩ":3817,"Ġà¦¸à¦®à§Łà¦Ł":3818,"Ġà¦¸à§İà¦ķà¦°":3819,"Ġà§¨à§Ń":3820,"à¦¬à¦ľà¦¨à¦¨":3821,"à§§à§¬":3822,"à¦ĩà¦ľà¦¡":3823,"à¦²à§Łà¦ķà¦²":3824,"à§ªà§¦":3825,"Ġà§©à§«":3826,"Ġà¦ħà¦¬à¦¤à¦°à¦£":3827,"à¦Ĳà¦ķ":3828,"à§®à§ª":3829,"Ġà¦¬à¦īà¦¯":3830,"Ġà§Ńà§¦":3831,"Ġà¦ªà¦Ļà¦ķ":3832,"à§¯à§§à§":3833,"Ġà¦ķà¦ªà¦Łà¦¤":3834,"Ġà¦¥à¦®à¦¥à¦®":3835,"ĠĠčĊĠĠĠĠĠĠč":3836,"Ġà§į":3837,"à¦°à¦°à¦¥":3838,"à¦¨à¦ĺ":3839,"à¦¨à¦¦à¦°":3840,"à¦¨à¦¦à¦¯":3841,"à¦¨à¦®à¦§":3842,"à¦¤à¦ªà¦¦":3843,"à¦¤à¦ıà¦°":3844,"à¦¯à¦¯à¦¨":3845,"à¦¯à¦Ĺà¦°":3846,"à¦¯à¦īà¦ª":3847,"à¦ķà¦¶à¦ķ":3848,"à¦ķà¦¢":3849,"à¦ķà¦¸à¦¬à¦ĩ":3850,"à¦ķà¦ħà¦°":3851,"à¦¬à§İà¦¸":3852,"à¦²à¦ı":3853,"à¦²à¦§à¦°":3854,"à¦²à¦Ńà¦°":3855,"à¦®à¦ľà¦¨":3856,"à¦®à¦§à¦°":3857,"Ġà¦ķà¦Ļ":3858,"à¦¦à§°":3859,"à¦¦à¦¸à¦¬à¦ĩ":3860,"Ġà¦Ĩà¦£":3861,"à¦ĩà¦ī":3862,"à¦ĩà¦ıà¦ĩ":3863,"à¦ĩà¦®à¦¸":3864,"à¦·à¦°à¦£":3865,"à¦·à¦°à¦ķ":3866,"à¦·à¦¸à¦¬":3867,"à¦·à¦¤à¦®":3868,"à¦·à¦§à¦°":3869,"à¦ªà¦§":3870,"à¦ªà¦Ĺà¦¤":3871,"à¦ªà¦¸à¦¬à¦ĩ":3872,"à¦Łà¦ľ":3873,"à¦Łà¦ıà¦°":3874,"à¦ľà¦¬à¦¦":3875,"à¦ľà¦¸à¦¨":3876,"à¦¶à¦¨à¦¬":3877,"Ġà¦¤à¦°à¦¬":3878,"Ġà¦¤à¦¤à¦¬":3879,"à¦Ĺà¦¬à¦°":3880,"Ġà¦¦à¦§":3881,"Ġà¦¦à¦®à¦ķ":3882,"Ġà¦ħà¦¹à¦²":3883,"Ġà¦ħà¦®à¦¨à¦ĩ":3884,"à¦§à¦ļ":3885,"Ġà¦¹à¦ľà¦®":3886,"à¦Ľà¦ĩ":3887,"à¦Ľà¦ļ":3888,"à¦£à§Ł":3889,"à¦£à¦ł":3890,"à¦£à¦«":3891,"à¦£à¦®à¦¹":3892,"à¦¹à¦¸à¦®":3893,"à¦¹à¦ªà¦¤":3894,"à¦¹à¦¨à¦ķ":3895,"Ġà¦ľà¦ŀ":3896,"à¦¡à¦ĩ":3897,"à§Łà¦¯":3898,"à§Łà¦®à¦ķ":3899,"à¦ĵà¦Ĺ":3900,"Ġà¦ļà¦¯":3901,"Ġà¦ļà¦ªà¦²":3902,"Ġà¦ıà¦ķà¦¤à¦°à¦«":3903,"à¦Ļà¦ķ":3904,"Ġà¦ħà¦¨à¦§":3905,"Ġà¦Ĩà¦°à¦¬à¦°":3906,"à¦¬à¦¨à¦¨":3907,"à¦¬à¦¨à¦Ĺà¦°":3908,"à¦°à¦£à¦ķà¦¬":3909,"à¦°à¦ķà¦ķ":3910,"à¦°à¦ķà¦£":3911,"à¦ŀà¦¸à¦®":3912,"à¦¬à¦°à¦¦":3913,"à¦ĸà¦¨à¦ĩ":3914,"à¦¤à¦°à¦¶":3915,"Ġà¦ľà¦¨à¦®à¦¨":3916,"à¦¤à¦¨à¦¯":3917,"à¦¯à¦¬à¦²":3918,"à¦°à¦®à¦¦":3919,"à¦°à¦®à¦ª":3920,"à§ľà¦®":3921,"à¦·à¦£à¦¨":3922,"à¦·à¦£à¦Ĺ":3923,"à¦īà¦ĩà¦¯":3924,"Ġà¦®à¦¹à¦®":3925,"à¦ĺà¦ľ":3926,"à¦ĺà¦Ľ":3927,"à¦ĺà¦¦à¦°":3928,"Ġà¦¸à¦¹à¦§à¦°":3929,"à¦²à¦¤à¦®":3930,"Ġà¦¬à¦¨à¦®":3931,"à¦§à¦¨à¦¶":3932,"à¦°à¦¶à¦¤":3933,"à¦¨à¦ĵà¦ķ":3934,"Ġà¦ªà¦¥à¦Ń":3935,"à¦ķà¦Łà¦¤à¦®":3936,"à¦®à¦£à¦¯":3937,"à¦®à¦£à¦ĩ":3938,"à¦®à¦£à¦Ł":3939,"à¦¯à¦®à¦¹":3940,"Ġà¦Ĳà¦¸à¦¬":3941,"à¦²à¦¬à¦ķ":3942,"à¦¬à¦¦à¦®à¦¨":3943,"Ġà¦«à¦²à¦ĵ":3944,"à¦¦à¦¨à¦®":3945,"Ġà§¯à§¦":3946,"à¦ħà¦¬à¦¸":3947,"à¦Ńà¦¬à¦ªà¦°":3948,"à¦¬à¦¬à¦¸":3949,"à¦ªà¦¦à¦Ł":3950,"à¦¤à¦®à¦ľ":3951,"Ġà¦ħà¦ªà¦Ľà¦¨":3952,"Ġà¦ªà¦¦à¦¯":3953,"à¦¬à¦ķà¦ķ":3954,"à¦ªà¦ķà¦¦":3955,"à¦°à¦ľà¦¨à¦¨à¦ķ":3956,"Ġà¦¨à§Łà¦¤":3957,"à¦ķà¦¬à¦ļ":3958,"à¦®à¦¯à¦ľ":3959,"Ġà¦¶à¦¤à¦¦à¦²":3960,"à¦īà¦²à¦Ĺ":3961,"Ġà¦Ĺà¦£à¦Ĩà¦¨":3962,"à¦¹à¦°à¦£à¦ĩ":3963,"à¦ķà¦°à¦£à¦Ĺà¦¤":3964,"Ġà¦¬à¦ĩà¦ĩ":3965,"Ġà¦¬à¦ĩà¦Ĺ":3966,"à¦¨à¦¦à¦ķ":3967,"Ġà¦ĵà¦ĩà¦Ł":3968,"Ġà¦ĵà¦ĩà¦°à¦ķà¦®":3969,"Ġà¦°à¦¸à¦¶":3970,"à¦£à¦ķà¦¥":3971,"Ġà¦Ĩà¦¹à¦®à¦¦":3972,"à¦¤à¦¦à¦¶":3973,"à¦²à¦¸à¦¹à¦¦":3974,"à¦ľà¦²à¦¦":3975,"à¦·à§Łà¦¬à¦¸":3976,"Ġà§¨à§©":3977,"Ġà§¨à§¬":3978,"à¦ľà¦®à¦¹à¦²":3979,"Ġà¦Ĭà¦¹":3980,"à¦®à¦Łà¦®":3981,"Ġà§«à§«":3982,"Ġà§«à§¦à§¦":3983,"à¦¶à¦¶à¦¤à¦ķ":3984,"Ġà§¨à§¦à§§à§§":3985,"Ġà§§à§¯à§¬à§®":3986,"à§§à§¯à§Ńà§§":3987,"Ġà¦¤à§İà¦ªà¦°à¦¤":3988,"à¦¡à¦īà¦ĩà¦ļ":3989,"à¦°à¦ıà¦°":3990,"à¦°à¦¸à¦¬à¦ķ":3991,"à¦°à¦¡à¦¬":3992,"à¦¨à¦ªà¦¥":3993,"à¦¨à¦ħà¦¤":3994,"à¦¨à¦ıà¦Ĺ":3995,"à¦¨à¦īà¦ª":3996,"à¦¤à¦°à¦¤":3997,"à¦¤à§İ":3998,"à¦¤à¦ķà¦²":3999,"à¦¯à¦£":4000,"à¦¯à¦°à¦ķ":4001,"à¦¯à¦ı":4002,"à¦¯à¦ħ":4003,"à¦ķà¦°à¦ķ":4004,"à¦ķà¦ıà¦°":4005,"à¦¬à¦ıà¦¸à¦¬":4006,"à¦²à¦¸à¦¬à¦ĩ":4007,"à¦®à¦ł":4008,"à¦®à§İà¦¸":4009,"à¦®à¦·à¦ª":4010,"à§ģà§į":4011,"Ġà¦¸à¦°à¦¤":4012,"Ġà¦ķà¦ŀ":4013,"Ġà¦ķà¦·à¦¤":4014,"Ġà¦¬à¦¬":4015,"Ġà¦¬à¦ª":4016,"Ġà¦ªà¦¬à¦®":4017,"à¦¦à¦¬à¦¨":4018,"à¦¦à¦ıà¦ĩ":4019,"à¦¦à¦ıà¦¸à¦¬à¦ĩ":4020,"à¦¦à¦¸à¦¬à¦ķ":4021,"à¦¦à¦ĺà¦¨":4022,"à¦¦à¦ľà¦Ĺà¦¤":4023,"à¦¸à¦®à¦¨":4024,"à¦¸à¦¤à¦¨":4025,"à¦¸à¦ıà¦¸à¦¬à¦ĩ":4026,"à¦¸à¦¸à¦¹":4027,"à¦ĩà¦Ĩà¦®":4028,"à¦ĩà¦¡à¦²":4029,"à¦·à¦²à¦¤":4030,"à¦·à¦¤à¦¬":4031,"à¦ªà¦Ŀ":4032,"à¦ªà¦®à¦£":4033,"à¦ªà¦¬à¦¦":4034,"à¦ªà¦®à¦¯":4035,"Ġà¦®à¦ł":4036,"Ġà¦®à¦°à¦¶":4037,"Ġà¦¨à§ľ":4038,"à¦Łà¦¦à¦²":4039,"à¦ľà§Łà¦ķ":4040,"à¦ľà¦ĸà¦¬à¦°":4041,"à¦Ĺà¦°à¦¦":4042,"à¦Ĺà¦¸à¦®":4043,"à¦Ĺà¦ľà¦¨à¦ķ":4044,"Ġà¦¦à¦¦à¦°":4045,"Ġà¦¦à¦¶à¦¬":4046,"Ġà¦ħà¦ªà¦¤":4047,"à¦£à¦¤à¦®":4048,"à¦¹à¦®à¦¨":4049,"Ġà¦¯à§İ":4050,"Ġà¦¯à¦ľà¦¨à¦¯":4051,"Ġà¦ķà¦°à¦£à¦ķ":4052,"à¦ļà¦Ĺà¦¤":4053,"à¦ļà¦ķà¦¤":4054,"à¦ĸà¦ķà¦¸":4055,"Ġà¦¶à¦¤à¦°":4056,"à¦Ńà¦ķà¦°":4057,"à¦¡à¦ľ":4058,"Ġà¦Ńà¦²":4059,"Ġà¦°à¦£à¦¸":4060,"Ġà¦ļà¦ļ":4061,"Ġà¦īà¦ĩ":4062,"Ġà¦īà¦ĩà¦ķ":4063,"Ġà¦¸à¦®à¦®à¦¨":4064,"Ġà¦ıà¦ķà¦ķà¦Ń":4065,"à¦°à¦¤à¦Ń":4066,"à¦°à¦¤à¦ĵ":4067,"à¦łà¦¤à¦°":4068,"Ġà¦¥à¦°à¦¥à¦°":4069,"Ġà¦Ĩà¦°à¦¶":4070,"à¦¬à¦¨à¦Ĺ":4071,"à¦°à¦£à¦¸à¦®":4072,"Ġà¦¬à¦²à¦ĸ":4073,"Ġà¦ıà¦ĩà¦ļ":4074,"Ġà¦§à¦¨à¦¦":4075,"Ġà¦«à¦¨":4076,"à¦¤à¦°à¦¬à¦Ļ":4077,"Ġà¦ĸà¦¯":4078,"Ġà¦®à¦¨à¦ª":4079,"Ġà¦ľà¦¨à¦¶":4080,"à¦¤à¦¨à¦Ĺ":4081,"à¦¤à¦¨à¦ıà¦¸à¦¬":4082,"à¦¯à¦¬à¦ĩà¦¯":4083,"Ġà¦¹à¦²à¦ıà¦ĩ":4084,"Ġà¦¹à¦²à¦«à¦¨":4085,"à¦ıà¦ķà¦¤":4086,"à¦°à¦¬à¦Ń":4087,"à¦«à¦²à¦¤":4088,"à¦īà¦Ĺ":4089,"à¦īà§İà¦¸":4090,"à¦Ĺà¦¤à¦¸":4091,"à¦Ĺà¦¤à¦ĩ":4092,"Ġà¦īà¦ªà¦¶":4093,"Ġà¦īà¦ªà¦Ĺ":4094,"à¦²à¦¨à¦¶":4095,"Ġà¦Ĩà¦¬à¦¹à¦®":4096,"Ġà¦Łà¦ª":4097,"Ġà¦Łà¦ªà¦ķ":4098,"à¦°à¦¹à¦¤":4099,"Ġà¦ªà¦¡à¦ķ":4100,"à¦¼à§ĭà¦ĥ":4101,"à¦ķà¦°à¦¦":4102,"à¦¤à¦¬à¦¸":4103,"à¦¤à¦¬à¦¡":4104,"à¦¶à¦¨à¦®":4105,"à¦¶à¦¨à¦Ĺ":4106,"à¦¯à¦®à¦ŀ":4107,"à¦²à¦ķà¦¨":4108,"Ġà¦«à¦²à¦²":4109,"Ġà¦«à¦²à¦¦":4110,"Ġà¦Ĩà¦¨à¦¯":4111,"à¦Ńà¦¬à¦ķ":4112,"Ġà¦īà¦¤à¦¥":4113,"Ġà¦ħà¦ªà¦ª":4114,"Ġà¦ªà¦¦à¦¸":4115,"Ġà¦ªà¦¦à¦§":4116,"à¦°à¦¹à¦£à¦ķ":4117,"à¦¤à¦ķà¦£":4118,"à¦¤à¦ķà¦°à¦¬":4119,"Ġà¦ľà¦²à¦ªà¦¥":4120,"à¦°à¦ªà¦¥":4121,"à¦°à¦ľà¦Ń":4122,"à¦īà¦²à¦ĩ":4123,"à¦īà¦²à¦ĵ":4124,"à¦īà¦²à¦«":4125,"à¦¹à¦²à¦ľà¦¨à¦ķ":4126,"ĠĠĠĠĠĠĠĠĠĠĠĠĠĠ":4127,"Ġà¦Ĺà¦£à¦¸":4128,"Ġà¦Ĺà¦£à¦ľ":4129,"à¦ķà¦°à¦£à¦¯":4130,"à§İà¦¸à¦¹":4131,"Ġà¦¬à¦ĩà¦ªà¦¤":4132,"Ġà¦¨à¦¬à¦ľà¦¨":4133,"Ġà¦ĵà¦ĩà¦¸à¦¬":4134,"Ġà¦īà§İà¦¸à¦¬à¦ª":4135,"Ġà¦īà§İà¦¸à¦¬à¦Ĩà¦ļ":4136,"Ġà¦Ĳà¦ķà¦®à¦¤":4137,"à§¨à§®":4138,"Ġà¦ĸà¦¬à¦°à¦¦":4139,"Ġà¦¶à¦¹à¦°à¦ķ":4140,"à¦ļà§Łà¦ķ":4141,"à§§à§®":4142,"Ġà¦Ńà¦°à¦¤à¦®":4143,"Ġà¦Ĭà¦¨":4144,"à¦¤à¦¶à¦¤":4145,"à¦¬à§İà¦¸à¦®":4146,"Ġà§ªà§ª":4147,"Ġà¦¬à¦īà¦®":4148,"à¦Ĩà¦§à¦Ł":4149,"à¦®à¦£à¦¸à¦ľ":4150,"à¦¨à¦ıà¦¤":4151,"Ġà¦Ĩà¦ĩà¦¨à¦¨":4152,"à§İà¦¸à¦ķà¦¦":4153,"Ġà¦¨à¦Łà¦¬à¦°":4154,"Ġà§§à§¯à§§à§Ń":4155,"Ġà§§à§§à§§à§":4156,"Ġà¦¤à§İà¦¸à¦¤":4157,"Ġà¦Ĩà¦īà¦²à¦¬":4158,"à¦Ĭà¦°":4159,"Ġà¦¬à¦°à¦¬à§°":4160,"Ġà§§à§¯à§¯à§«":4161,"à§ĩà¦Ĥ":4162,"à¦°à¦°à¦ķ":4163,"à¦°à¦²à¦ķ":4164,"à¦°à¦Ĺà¦°":4165,"à¦°à¦¡à¦ķ":4166,"à¦¨à¦²à¦ķ":4167,"à¦¨à¦Ĺà¦®":4168,"à¦¨à¦īà¦¦":4169,"à¦¨à¦ıà¦ĸà¦¨":4170,"à¦¨à¦ªà¦°à¦®":4171,"à¦¯à¦®à¦¤":4172,"à¦¯à§°":4173,"à¦¯à¦¹à¦¤":4174,"à¦¯à¦ıà¦¸à¦¬à¦ĩ":4175,"à¦ķà¦ķà¦°":4176,"à¦ķà¦ıà¦ĩ":4177,"à¦ķà¦Ĩà¦°":4178,"à¦¬à¦¸à¦¬":4179,"à¦¬à¦Ĺà¦®":4180,"à¦²à¦®à¦¤":4181,"à¦²à¦¶à¦ķ":4182,"à¦²à¦ıà¦°":4183,"Ġà¦¸à¦°à¦£":4184,"Ġà¦¬à¦¦à¦°":4185,"Ġà¦¬à¦ĩà¦ķ":4186,"à¦¦à¦°à¦¸":4187,"à¦¦à¦¶à¦ķ":4188,"à¦¸à¦¸à¦¬à¦ĩ":4189,"à¦¸à§ľà¦ķ":4190,"Ġà¦Ĩà¦Łà¦ª":4191,"à¦ĩà¦·":4192,"à¦·à¦°à¦ľ":4193,"à¦·à¦ªà¦¥":4194,"à¦·à¦ľà¦¨à¦ķ":4195,"Ġà¦®à¦°à¦¬":4196,"Ġà¦¨à¦¶":4197,"Ġà¦¨à§Łà¦¨":4198,"à¦Łà¦¤à¦®":4199,"à¦Łà¦¬à¦¸":4200,"Ġà¦ıà¦¥":4201,"Ġà¦ıà¦®à¦ª":4202,"à¦ľà¦¦à¦°":4203,"à¦ľà¦ªà¦¤":4204,"à¦ľà¦ıà¦ĩ":4205,"à¦¶à¦¤à¦®":4206,"à¦¶à¦ıà¦¸à¦¬":4207,"à¦¶à¦ıà¦°":4208,"à¦Ĺà¦°à¦¬":4209,"à¦Ĺà¦¸à¦¬à¦ķ":4210,"Ġà¦ħà¦¤à¦¨":4211,"Ġà¦ħà¦°à¦¬":4212,"à¦§à¦®à¦¤":4213,"à¦§à¦¸à¦¬à¦ĩ":4214,"à¦£à¦ķà¦²":4215,"à¦¹à¦°à¦ķ":4216,"à¦ļà¦¤à¦¤":4217,"à¦ĸà¦²à¦¨":4218,"à¦ĸà¦°à¦ļ":4219,"Ġà¦ľà¦ªà¦¤":4220,"à§Łà¦ľ":4221,"à§Łà¦¸à¦Ļ":4222,"Ġà¦īà§°":4223,"Ġà¦īà¦Ńà¦ķ":4224,"Ġà¦ĵà¦°à¦ķà¦®":4225,"Ġà¦¸à¦®à¦ľ":4226,"Ġà¦¸à¦®à¦ªà¦°":4227,"Ġà¦¸à¦®à¦ķà¦ķ":4228,"Ġà¦ıà¦ķà¦§à¦°à¦¨":4229,"à¦ģà¦¾":4230,"à¦°à¦¤à¦ļà¦¨":4231,"Ġà¦Ľà¦²à¦ļ":4232,"Ġà¦Ĩà¦°à¦¬à¦¦":4233,"à¦¬à¦¨à¦ļ":4234,"Ġà¦²à¦¸":4235,"Ġà¦¬à¦²à¦¶":4236,"à¦ªà¦°à¦¶":4237,"à¦ľà¦¨à¦Ĺ":4238,"à¦ľà¦¨à¦¸à¦¬":4239,"à¦ľà¦¨à¦ķà¦Ń":4240,"à¦¬à¦°à¦ļ":4241,"à¦¬à¦°à¦Ń":4242,"Ġà¦«à¦²à¦ķ":4243,"Ġà¦ĸà¦¨à¦ķ":4244,"Ġà¦®à¦¨à¦ĵ":4245,"Ġà¦ĩà¦Ĺ":4246,"Ġà¦ĩà¦Ń":4247,"à¦ªà¦¨à¦ķ":4248,"Ġà¦¹à¦²à¦¯":4249,"Ġà¦¹à¦²à¦«":4250,"à¦ıà¦«":4251,"à¦ıà¦°à¦ķà¦®":4252,"Ġà¦ĺà¦°à¦¸":4253,"Ġà¦ĺà¦¨à¦¤":4254,"Ġà¦ĺà¦°à¦¦":4255,"à¦°à¦®à¦ªà¦¦":4256,"à¦°à¦®à¦¥à¦¨":4257,"à¦°à¦¬à¦ļà¦¨":4258,"à¦¯à¦ķà¦¤":4259,"à¦īà¦¨à¦Ł":4260,"à¦¬à¦¤à¦¸":4261,"à¦¨à¦¤à¦¸":4262,"Ġà¦īà¦ªà¦¶à¦®":4263,"Ġà¦ħà¦¸à¦®à¦°":4264,"Ġà¦ħà¦Ńà¦¦":4265,"à¦²à¦¨à¦ĵ":4266,"Ġà¦Łà¦°":4267,"Ġà¦Łà¦²à¦®à¦²":4268,"Ġà¦Łà¦®à¦Łà¦®":4269,"à¦¨à¦¬à¦²":4270,"à¦¨à¦¬à¦§à¦°":4271,"à¦¦à¦°à¦¦":4272,"à¦°à¦¹à¦¬":4273,"à¦²à¦¤à¦²":4274,"Ġà¦Ĩà¦ľà¦¬":4275,"à¦§à¦¨à¦¹":4276,"à¦§à¦¨à¦ķà¦°":4277,"à¦°à¦¨à¦ľà¦°":4278,"à¦°à¦¶à¦¨":4279,"à¦¨à¦ĵà¦°":4280,"à¦¨à¦ĵà¦ĩ":4281,"à¦ķà¦Łà¦®à¦¯":4282,"à¦¶à¦¨à¦ª":4283,"à¦¸à¦®à¦ķ":4284,"Ġà¦Ĳà¦²":4285,"à¦²à¦ķà¦¬":4286,"à¦²à¦ķà¦®à¦²":4287,"Ġà¦Ĩà¦Ĺà¦¨":4288,"à¦¬à¦ªà¦¶":4289,"Ġà¦Ĩà¦¨à¦®à¦¨":4290,"Ġà¦īà§İà¦ķà¦Ł":4291,"à¦ħà¦¸à¦®":4292,"à¦Ńà¦¬à¦¸":4293,"à§°à¦¶":4294,"Ġà¦ķà¦¬à¦ļ":4295,"à¦·à¦ķà¦Ľ":4296,"à¦ĩà¦¨à¦®":4297,"à¦ļà¦²à¦Ł":4298,"à¦Ĺà¦²à¦¸":4299,"Ġà¦ªà¦¦à¦ª":4300,"à¦§à¦ķà¦°à¦£":4301,"à¦¨à¦¸à¦¦":4302,"Ġà¦ĵà¦ªà¦°à¦ĵ":4303,"Ġà¦¸à¦¹à¦ľà¦¤à¦°":4304,"Ġà¦ħà¦ķà¦¥":4305,"Ġà¦ıà¦ķà¦¦à¦®à¦ĩ":4306,"ĠĠĠĠĠĠĠĠĠĠĠĠ":4307,"ĠĠĠĠĠĠĠĠĠĠĠĠĠ":4308,"à¦®à¦¸à¦Ń":4309,"à¦¸à¦ķà¦¦à¦²":4310,"à¦¹à¦°à¦£à¦ĵ":4311,"à¦ķà¦¸à¦¹":4312,"Ġà¦¦à¦²à¦¬à¦²":4313,"à¦£à¦¨à¦Ĺà¦°":4314,"à¦¯à¦Ńà¦°":4315,"Ġà¦ħà¦ľà¦Ĺà¦°":4316,"à¦ħà¦¨à¦²":4317,"à¦¬à¦®à¦¹":4318,"à¦²à¦®à¦¶à¦²":4319,"à¦¦à§Łà¦¸":4320,"Ġà¦Ĩà¦ļà¦°à¦£à¦ĩ":4321,"à¦¨à¦Ńà¦¦":4322,"à§¨à§ª":4323,"à§¨à§¬":4324,"à¦·à§Łà¦Ń":4325,"Ġà¦ħà¦ļà¦ŀ":4326,"à¦¬à¦ľà¦¨à¦Ĺ":4327,"à§«à§Ń":4328,"à§§à§¯":4329,"à§§à§Ń":4330,"Ġà¦ĩà¦¹à¦ķ":4331,"Ġà¦®à¦¦à¦¨à¦¬":4332,"à¦²à¦ľà§Ł":4333,"Ġà§©à§Ń":4334,"Ġà§§à§¯à§Ńà§¦":4335,"à¦¶à¦¸à¦ļ":4336,"Ġà¦¬à¦īà¦Ŀ":4337,"Ġà¦¨à¦Ĺà¦°à¦¬":4338,"Ġà¦Ĩà¦ĩà¦·à¦®":4339,"à¦¨à¦®à¦¨à¦¸":4340,"Ġà§Ńà§«":4341,"à¦ĩà¦°à¦ķà¦®à¦ĩ":4342,"Ġà¦īà¦Ńà§Łà¦ĩ":4343,"Ġà§®à§¦":4344,"Ġà¦¸à¦¬à¦¸à¦®à§Łà¦ĩ":4345,"à§ĩà§Ĺà¦ģ":4346,"Ġà¦ļà¦Łà¦ķà¦¦":4347,"Ġà¦ľà¦¬à¦°à¦¦à¦¸":4348,"«à§¨":4349,"Ġà¦Ļ":4350,"à§ĩà§ĩ":4351,"à§ĩà§Ģ":4352,"à¦°à¦Ĺà¦²":4353,"à¦¨à¦ī":4354,"à¦¨à¦ļà¦¨":4355,"à¦¨à¦Ńà¦¬":4356,"à¦¤à¦ªà¦¨":4357,"à¦¤à¦¦à¦¨":4358,"à¦¤à¦Ĺà¦£":4359,"à¦¯à¦§à¦¨":4360,"à¦¯à¦¶à¦ķ":4361,"à¦ķà¦Ĺà¦¤":4362,"à¦¬à¦¥":4363,"à¦¬à¦®à¦¤":4364,"à¦¬à¦ķà¦Ł":4365,"à¦¬à¦ļà¦ķ":4366,"à¦¬à¦ĩà¦¯":4367,"à¦²à¦®à¦£":4368,"à¦²à¦Ĺà¦°":4369,"à¦²à¦°à¦ķà¦®":4370,"à¦®à¦¤à¦¨":4371,"à¦®à¦ĵà¦¯":4372,"à¦®à¦«à¦²":4373,"à¦®à¦ıà¦°":4374,"à¦®à¦Ĩà¦ļ":4375,"Ġà¦¸à¦¬à¦¨":4376,"Ġà¦¸à¦ªà¦°":4377,"Ġà¦¸à¦ĵà¦¯":4378,"Ġà¦¸à¦ķà¦°":4379,"Ġà¦¸à¦ľà¦²":4380,"Ġà¦ķà¦ĵ":4381,"Ġà¦ķà¦ĵà¦¯":4382,"Ġà¦ķà¦ĩà¦¬":4383,"à¦¦à¦°à¦ķ":4384,"à¦¦à¦¤à¦¤":4385,"à¦¸à¦¬à¦¨":4386,"à¦¸à¦¯à¦¨":4387,"à¦¸à¦Ĳà¦¤":4388,"à§ĭà§ĩ":4389,"à¦·à¦Ľ":4390,"à¦·à¦®à¦¯":4391,"à¦ªà¦¦à¦°":4392,"Ġà¦®à¦ļ":4393,"Ġà¦®à¦²à¦®":4394,"Ġà¦®à§Łà¦²":4395,"Ġà¦¨à¦°à¦¬":4396,"Ġà¦¨à¦²à¦ķ":4397,"Ġà¦¨à¦¬à¦¨à¦¬":4398,"Ġà¦ıà¦Ĩ":4399,"à¦ľà¦Ńà¦¯":4400,"à¦¶à¦ľà¦¨":4401,"à¦¶à¦¦à¦°":4402,"à¦¶à¦¨à¦ĵ":4403,"à¦¶à¦Ńà¦Ļ":4404,"à¦¶à¦°à¦¸à¦Ĺ":4405,"Ġà¦¤à¦¦à¦¬":4406,"à¦Ĺà¦Ĺà¦¤":4407,"à¦Ĺà¦¬à¦²":4408,"à¦Ĺà¦®à¦ķ":4409,"à¦Ĺà¦®à¦¸":4410,"à¦Ĺà¦ıà¦¸à¦¬à¦ĩ":4411,"à¦Ĺà¦¸à¦¹":4412,"Ġà¦¦à¦ĸ":4413,"Ġà¦¦à¦°à¦¶à¦¨":4414,"Ġà¦ħà¦ªà¦¦à¦¸":4415,"à¦§à¦¬à¦¦":4416,"Ġà¦¹à¦°à¦ª":4417,"Ġà¦¹à¦łà¦ķ":4418,"Ġà¦¹à¦īà¦ķ":4419,"à¦£à¦ıà¦ĩ":4420,"à¦¹à¦ļ":4421,"à¦¹à¦ĵà¦¯":4422,"à¦¹à¦¨à¦¬":4423,"Ġà¦ķà¦°à¦¦":4424,"Ġà¦ķà¦°à¦¹":4425,"à¦ļà¦®à¦¤":4426,"à¦ĸà¦°à¦¤":4427,"à¦ĸà¦¢":4428,"Ġà¦¶à¦¤à¦¬":4429,"Ġà¦¶à¦®à¦¶":4430,"Ġà¦¶à¦°à¦¬à¦¤":4431,"à¦Ńà¦ļ":4432,"Ġà¦Ĺà¦ª":4433,"à¦¡à¦ĵ":4434,"à§Łà¦ĵ":4435,"à¦ĵà¦ł":4436,"Ġà¦°à¦¥à¦¬":4437,"Ġà¦īà¦Ĺà¦°":4438,"Ġà¦īà¦Łà¦ķ":4439,"Ġà¦Ĩà¦®à¦ľà¦¨à¦¤":4440,"Ġà¦ıà¦ķà¦«":4441,"Ġà¦ıà¦ķà¦ªà¦ķ":4442,"Ġà¦ªà¦°à¦®à¦¤":4443,"à¦łà¦¯":4444,"à¦łà¦ķà¦°":4445,"à¦°à¦£à¦¹":4446,"à¦°à¦£à§Ł":4447,"à¦°à¦£à¦ªà¦¤":4448,"Ġà¦¬à¦²à¦ª":4449,"à¦°à¦ķà¦¥":4450,"à¦ŀà¦Ł":4451,"à¦ŀà¦ķà¦°":4452,"à¦ľà¦¨à¦®à¦¤":4453,"à¦¬à¦°à¦ĵ":4454,"à¦®à¦¨à¦°":4455,"à¦®à¦¨à¦¦":4456,"Ġà¦«à¦£":4457,"à§İà¦ªà¦¨":4458,"à§İà¦ķà¦°":4459,"Ġà¦®à¦¨à¦ĸ":4460,"Ġà¦ľà¦¨à¦¯":4461,"à¦¤à¦¨à¦®":4462,"à¦¤à¦¨à¦Ł":4463,"à¦ıà¦®à¦¨à¦ĩ":4464,"à¦°à¦®à¦ĵ":4465,"à¦°à¦¬à¦ĵ":4466,"à¦¸à¦¬à¦ľ":4467,"à¦·à¦£à¦ıà¦¸à¦¬à¦ĩ":4468,"à¦īà¦²à¦¬":4469,"à¦¬à¦¤à¦¤":4470,"à¦¬à¦¤à¦¬":4471,"Ġà¦īà¦¦à¦Ń":4472,"à¦ķà¦¤à¦®":4473,"Ġà¦īà¦ªà¦¡":4474,"à¦ļà¦¨à¦Ńà¦Ļ":4475,"Ġà¦¸à¦¹à¦®à¦¤":4476,"Ġà¦¸à¦¹à¦®à¦°à¦£":4477,"Ġà¦Łà¦ķà¦Łà¦ķ":4478,"à¦¨à¦¬à¦¯":4479,"à¦°à¦¥à¦ķ":4480,"Ġà¦¤à¦¬à¦²":4481,"à¦°à¦¹à¦Ł":4482,"à¦¬à¦²à¦Ń":4483,"Ġà¦¹à¦¤à¦ļà¦ķ":4484,"Ġà¦¡à¦¬à¦²":4485,"Ġà¦¬à¦¨à¦ļ":4486,"à¦§à¦¨à¦ª":4487,"à¦ķà¦Łà¦²":4488,"à¦ķà¦Łà¦®":4489,"à¦ķà¦Łà¦Ĺ":4490,"à¦®à¦£à¦Ń":4491,"à¦®à¦£à¦ªà¦£":4492,"à¦¶à¦¨à¦¸":4493,"à¦¯à¦®à¦°":4494,"à¦¸à¦®à¦·":4495,"Ġà¦Ĳà¦ĸ":4496,"à¦²à¦ķà¦ª":4497,"à¦²à¦ķà¦ļ":4498,"Ġà¦«à¦²à¦Ł":4499,"à¦¦à¦¨à¦ª":4500,"Ġà¦īà§İà¦ĸ":4501,"à¦ħà¦¯":4502,"à¦ħà¦§à¦°":4503,"à¦°à¦Ńà¦ķ":4504,"à§°à¦£":4505,"à¦ªà¦¦à¦ĩ":4506,"Ġà¦Ŀà¦Ļ":4507,"Ġà¦Ŀà¦ŀ":4508,"Ġà¦Ŀà¦°à¦Ľ":4509,"Ġà¦ķà¦®à¦ªà¦ķ":4510,"Ġà¦ħà¦ªà¦Ł":4511,"à¦ĩà¦¨à¦«":4512,"à¦Ĺà¦²à¦®":4513,"à¦¨à¦ķà¦¨":4514,"à¦°à¦¹à¦£à¦ĩ":4515,"Ġà¦¢à¦ķ":4516,"à¦¬à¦¸à¦Ń":4517,"à¦¯à¦¸à¦ļ":4518,"à¦¨à¦¸à¦Ń":4519,"Ġà¦®à¦°à¦²":4520,"à¦¨à¦¯à¦ľ":4521,"à¦ªà¦¸à¦¤":4522,"ĠĠĠĠĠĠĠĠĠ":4523,"ĠĠĠĠĠĠĠĠĠĠĠĠĠĠĠ":4524,"à¦®à¦¸à¦ķà¦²":4525,"Ġà¦Ĩà¦¦à¦®":4526,"Ġà¦Ĩà¦¦à¦ª":4527,"Ġà¦Ĺà¦£à¦²":4528,"à¦ķà¦°à¦£à¦ķ":4529,"à¦Ĩà¦®à¦²":4530,"à¦ĩà¦ķà¦¶":4531,"Ġà¦īà§İà¦¸à¦ľ":4532,"Ġà¦ķà¦¨à¦Ń":4533,"Ġà¦ªà¦°à¦®à¦ª":4534,"Ġà¦Īà¦¦à¦°":4535,"Ġà¦īà§İà¦¸à¦¬à¦ĩ":4536,"Ġà¦ªà¦¤à¦Ļ":4537,"Ġà¦¸à¦®à§Łà¦ķ":4538,"Ġà¦¸à¦®à§Łà¦¸":4539,"Ġà¦¸à¦®à§Łà¦®à¦¤":4540,"à¦¬à¦Ńà¦Ļ":4541,"à¦£à¦ķà¦®à¦²":4542,"à¦²à¦®à¦§":4543,"Ġà¦Ĩà¦ĩà¦¨à¦¸":4544,"à¦¤à¦¸à¦¹":4545,"à¦¤à¦¸à¦ŀ":4546,"à¦£à¦¬à¦§à¦°":4547,"à§¨à§©":4548,"à¦¤à¦ªà¦ŀ":4549,"Ġà¦ĵà¦°à¦«":4550,"Ġà¦ľà¦Ĺà¦¤à¦Ł":4551,"ĠĠĠĠĠĠĠĠĠĠĠĠĠĠĠĠĠĠĠĠĠ":4552,"à¦¬à¦ľà¦¨à¦¬":4553,"à¦ĩà¦Ńà¦¸":4554,"Ġà¦ļà¦°à¦®à¦ªà¦¨":4555,"à¦¸à¦¹à¦ľ":4556,"Ġà¦Ńà¦°à¦¤à¦ķ":4557,"Ġà¦ľà§Łà¦Ĺ":4558,"Ġà§©à§§":4559,"à¦Ńà¦°à¦¤à¦¬":4560,"Ġà§§à§¯à§«à§¦":4561,"à¦Ĳà¦¶":4562,"à¦ıà¦®à¦¨à¦Ł":4563,"à¦¬à§İà¦¸à¦°":4564,"Ġà¦Īà¦¦à¦īà¦²à¦«":4565,"Ġà¦Ĺà¦łà¦¨à¦ķ":4566,"Ġà¦¨à¦Ĺà¦°à¦Ń":4567,"à¦°à¦Ĩà¦¨":4568,"Ġà§¬à§¦":4569,"Ġà¦ıà¦®à¦ı":4570,"à§¯à§«":4571,"à¦¶à¦§à¦°à¦¦":4572,"Ġà¦ĸà¦¸à§ľ":4573,"Ġà§§à§¯à§¨à§©":4574,"Ġà§¨à§¦à§§à§¨":4575,"Ġà§§à§¯à§§à§®":4576,"Ġà¦¨à¦¬à¦¬à¦§":4577,"Ġà¦°à¦¸à¦¬à¦¤":4578,"à¦ħà¦ªà¦°à¦¦":4579,"Ġà¦ĵà¦²à¦Łà¦ª":4580,"Ġà¦Ŀà¦¨à¦Ŀà¦¨":4581,"à§¯à§¦":4582,"à¦¾à¦¾":4583,"à¦°à¦Ŀ":4584,"à¦°à¦°à¦¸":4585,"à¦°à¦Ńà¦¬":4586,"à¦°à¦ĺà¦°":4587,"à¦°à¦Ĩà¦²":4588,"à¦¿à§ĩ":4589,"à¦¨à¦°à¦ķà¦®":4590,"à¦¨à¦ĩà¦¬":4591,"à¦¤à¦ŀ":4592,"à¦¤à¦®à¦£":4593,"à¦¤à¦ħà¦¨":4594,"à¦¯à¦¤à¦¨":4595,"à¦¯à¦°à¦®à¦£":4596,"à¦¯à¦¹à¦®":4597,"à¦ķà¦ªà¦ķ":4598,"à¦ķà¦ļà¦°":4599,"à¦ķà¦¸à¦¬à¦ķ":4600,"à¦ķà¦ľà¦¨à¦ķ":4601,"à¦¬à¦¬à¦¨":4602,"à¦¬à¦ĺ":4603,"à¦¬à¦§à¦¨":4604,"à¦¬à¦¹à¦¤":4605,"à¦¬à§İà¦ķ":4606,"à¦¬à¦¸à¦¬à¦ĩ":4607,"à¦¬à¦ĩà¦Ł":4608,"à¦²à¦«à¦²":4609,"à¦²à¦¸à¦¬à¦ķ":4610,"à¦®à¦¤à¦°":4611,"à¦®à¦®à¦£":4612,"à¦®à¦¬à¦¸":4613,"à¦®à¦¸à¦°":4614,"à¦®à¦ĵà§Ł":4615,"à¦®à¦Ĺà¦¨":4616,"à¦®à¦®à¦°à¦£":4617,"à¦®à¦īà¦¨":4618,"à¦®à¦¸à¦¬à¦ķ":4619,"à¦®à¦ħà¦°":4620,"Ġà¦¸à¦Ł":4621,"Ġà¦¸à¦¶à¦¬":4622,"Ġà¦¸à¦¶à¦°":4623,"Ġà¦ķà¦ĩà¦¤":4624,"Ġà¦¬à¦¨à¦¨":4625,"Ġà¦¬à¦Ĺà¦²":4626,"à¦¸à¦°à¦¸":4627,"à¦¸à¦ıà¦°":4628,"à¦¸à¦¦à¦¸":4629,"Ġà¦Ĩà¦ĵ":4630,"Ġà¦Ĩà¦ĩà¦²":4631,"Ġà¦Ĩà¦ļà¦°":4632,"Ġà¦Ĩà¦£à¦¬":4633,"Ġà¦Ĩà¦ĵà¦¡":4634,"à¦ĩà¦®à¦¨":4635,"à¦·à¦ıà¦ĩ":4636,"à¦ªà¦²à¦ķ":4637,"Ġà¦¨à¦¬à¦¸":4638,"Ġà¦¨à¦°à¦²":4639,"Ġà¦¨à¦¬à¦²à¦¬":4640,"Ġà¦ıà¦®à¦¬":4641,"Ġà¦ıà¦Ĩà¦ĩ":4642,"à¦ľà¦ĸ":4643,"à¦ľà¦Ĺà¦¨":4644,"à¦¶à¦¤à¦²":4645,"Ġà¦¤à¦¡":4646,"Ġà¦¤à¦°à¦£":4647,"Ġà¦¤à¦ŀ":4648,"à¦Ĺà¦°à¦ķ":4649,"à¦Ĺà¦ı":4650,"à¦Ĺà¦°à¦®":4651,"à¦Ĺà¦ķà¦°":4652,"à¦Ĺà¦¨à¦¸":4653,"à¦Ĺà¦ĺà¦¨":4654,"Ġà¦¦à§ľ":4655,"à¦§à¦®à¦¨":4656,"à¦§à¦¨à¦¬":4657,"à¦£à¦®à¦¤":4658,"à¦£à¦§à¦°":4659,"à¦¹à¦§":4660,"à¦¹à¦«":4661,"Ġà¦ķà¦°à¦¸":4662,"à¦ļà¦¦":4663,"à¦ļà¦²à¦ķ":4664,"à¦ļà¦²à¦¬":4665,"à¦¥à¦°à¦ķ":4666,"à¦¥à¦°à¦ļ":4667,"à¦ĸà¦®à¦£":4668,"Ġà¦¶à¦°à¦®":4669,"Ġà¦¶à¦łà¦¤":4670,"Ġà¦Ĺà¦«":4671,"Ġà¦ľà¦ľ":4672,"Ġà¦ľà¦Ĺà¦ľ":4673,"à¦¡à¦¦":4674,"à§Łà¦¹":4675,"à§Łà¦ľà¦¨":4676,"à¦ĵà¦¸":4677,"à¦ĵà¦¹":4678,"Ġà¦°à¦¦":4679,"Ġà¦°à¦®à¦¨":4680,"Ġà¦°à¦¸à¦®":4681,"Ġà¦°à¦¸à¦°":4682,"Ġà¦°à¦ľà¦¬":4683,"Ġà¦īà¦¸":4684,"Ġà¦īà¦¥à¦²":4685,"Ġà¦ĵà¦ľà¦¸":4686,"Ġà¦¸à¦®à¦ħà¦§":4687,"Ġà¦ıà¦ķà¦¤à¦®":4688,"Ġà¦ıà¦ķà¦¶à¦¤":4689,"à¦Ļà¦Ł":4690,"à¦łà¦ļà¦°":4691,"à¦łà¦ļà¦ķ":4692,"Ġà¦¥à¦¤à¦®à¦¤":4693,"Ġà¦Ľà¦²à¦Ľ":4694,"à¦¬à¦¨à¦¤":4695,"à¦¬à¦¨à¦ªà¦¥":4696,"à¦°à¦£à¦¸":4697,"Ġà¦²à¦²à¦¨":4698,"Ġà¦¬à¦²à¦¯":4699,"Ġà¦¬à¦²à¦¬à¦¤":4700,"Ġà¦§à¦®à¦¨":4701,"à¦°à¦ķà¦¤":4702,"à¦ŀà¦¨":4703,"à¦ľà¦¨à¦ıà¦¸à¦¬":4704,"à¦¬à¦°à¦°":4705,"à¦®à¦¨à¦¬":4706,"Ġà¦«à¦¡":4707,"Ġà¦ĸà§ľ":4708,"à§İà¦ªà¦¦":4709,"Ġà¦®à¦¨à¦Ń":4710,"Ġà¦ľà¦¨à¦¬":4711,"à¦¤à¦¨à¦¦":4712,"Ġà¦ĩà¦¹à¦¸":4713,"Ġà¦ĩà¦¬à¦ĩ":4714,"Ġà¦ĩà¦¨à¦¬à¦ķ":4715,"à¦ªà¦¨à¦¤":4716,"Ġà¦¹à¦²à¦¨":4717,"Ġà¦ĺà§ľ":4718,"à¦°à¦®à§Ł":4719,"à¦°à¦¬à¦¹à¦®":4720,"à¦¸à¦¬à¦Ł":4721,"à¦·à¦£à¦¯":4722,"à¦·à¦£à¦ıà¦ĩ":4723,"Ġà¦§à¦°à¦¨à¦Ł":4724,"à¦īà¦·":4725,"à¦īà¦ªà¦¤":4726,"Ġà¦¬à¦°à¦ª":4727,"à¦¬à¦¤à¦ª":4728,"à¦¬à¦¤à¦¶":4729,"à¦ķà¦¤à¦ķ":4730,"Ġà¦īà¦ªà¦ķà¦¥":4731,"Ġà¦Ĩà¦²à¦Ł":4732,"Ġà¦Ĩà¦¸à¦Ļ":4733,"à¦²à¦¨à¦¯":4734,"à¦²à¦¨à¦¦":4735,"Ġà¦¸à¦¹à¦®":4736,"Ġà¦¸à¦¹à¦Ĺ":4737,"à¦®à¦¤à¦²":4738,"à¦¨à¦¬à¦¬":4739,"à¦¦à¦°à¦Ń":4740,"Ġà¦Ĩà¦ľà¦®":4741,"Ġà¦¬à¦¨à¦Ĺà¦®à¦¨":4742,"à¦ķà¦°à¦Ń":4743,"à¦Ĩà¦Ł":4744,"à¦Ĩà§Ł":4745,"à¦Ĩà¦°à¦¬":4746,"à¦Ĩà¦ªà¦¦":4747,"Ġà¦ªà¦¥à¦¯":4748,"à¦°à¦¥à¦®à¦Ń":4749,"à¦ķà¦Łà¦®à§Ł":4750,"à¦¶à¦¨à¦²":4751,"à¦²à¦ķà¦¥":4752,"à¦²à¦¬à¦£":4753,"à¦²à¦¬à¦¶à¦¤":4754,"à¦ªà¦¤à¦Ļ":4755,"Ġà¦īà§İà¦¸à¦®":4756,"à¦ħà¦Ļ":4757,"à¦Ńà¦¬à¦ĩ":4758,"à¦Ńà¦¬à¦ĵ":4759,"à¦°à¦Ńà¦¦":4760,"à¦¸à¦¨à¦ĩ":4761,"à§°à¦·":4762,"à§°à¦ª":4763,"à§°à¦¬à¦²":4764,"Ġà¦Ĩà¦ªà¦¨à¦ľà¦¨":4765,"à¦·à¦ķà¦¥":4766,"à¦ªà¦¦à¦ª":4767,"à¦ªà¦¦à¦Ĺ":4768,"à¦ªà¦¦à¦¸à¦Ļ":4769,"à¦¤à¦®à¦°":4770,"à¦¤à¦®à¦®":4771,"Ġà¦īà¦¤à¦·":4772,"Ġà¦Ĩà¦¶à¦¯":4773,"à¦ĩà¦¨à¦Ł":4774,"à¦ĩà¦¨à¦Ĺ":4775,"à¦ļà¦²à¦Ń":4776,"à¦Ĺà¦²à¦ļà¦£":4777,"à¦¶à¦ķà¦ķ":4778,"à¦¶à¦ķà¦¦":4779,"Ġà¦ħà¦Ĺà¦Ń":4780,"Ġà¦ªà¦¦à¦®à¦°":4781,"à¦¬à¦ķà¦ł":4782,"à¦°à¦¹à¦£à¦ıà¦¸à¦¬à¦ĩ":4783,"Ġà¦¶à¦°à§İà¦ķ":4784,"Ġà¦ľà¦²à¦¸à¦®":4785,"Ġà¦ľà¦²à¦ļà¦°":4786,"à¦¯à¦¸à¦¤":4787,"à¦¯à¦¸à¦¹":4788,"à¦ĩà¦²à¦«à¦²à¦ķ":4789,"à¦§à¦ķà¦¸":4790,"à¦°à¦ļà¦ķ":4791,"à¦¨à¦¸à¦²":4792,"à¦¨à¦¸à¦ŀ":4793,"Ġà¦®à¦°à¦Ľ":4794,"Ġà¦¶à¦¤à¦¸à¦¹à¦¸":4795,"à¦Łà¦ķà¦¨":4796,"Ġà¦ıà¦ķà¦ĩà¦¸":4797,"Ġà¦Ĺà¦£à¦¬":4798,"à¦¸à¦ķà¦¶":4799,"à¦°à¦®à¦£à¦Ń":4800,"à¦Ĺà¦¬à¦§":4801,"Ġà¦¬à¦ĩà¦ķà¦²à¦®":4802,"Ġà¦ķà¦ĸà¦¨à¦ĵà¦¬":4803,"à¦°à¦Ĺà¦łà¦¨":4804,"Ġà¦Īà¦Ļ":4805,"à¦ªà¦¥à¦Ĺ":4806,"Ġà¦¦à¦²à¦ĩ":4807,"Ġà¦°à¦¸à¦ª":4808,"Ġà¦°à¦¸à¦Ń":4809,"Ġà¦ħà¦ľà¦ª":4810,"à¦¨à§Łà¦¨à¦®":4811,"Ġà¦ħà¦¶à¦°":4812,"Ġà¦Ĩà¦¹à¦¬":4813,"Ġà¦¬à¦ķà¦¬à¦ķ":4814,"à¦®à¦¹à¦ķ":4815,"Ġà¦¸à¦¦à¦Ĺ":4816,"à¦®à¦¦à¦®à¦¤":4817,"à¦ıà¦ķà¦¯":4818,"à¦¶à¦²à¦°":4819,"à§¨à§§":4820,"à§¨à§«":4821,"Ġà¦ĸà¦¬à¦°à¦ĵ":4822,"Ġà¦ľà¦¨à¦¸à¦Ń":4823,"à¦¬à¦ľà¦¨à¦ķ":4824,"à¦¬à¦ľà¦¨à¦¦":4825,"Ġà¦¬à¦¸à¦¨à¦ĸ":4826,"à¦¸à¦°à¦£à¦ķ":4827,"à§©à§«":4828,"à§©à§ª":4829,"Ġà§©à§®":4830,"Ġà§©à§¬":4831,"Ġà§©à§¯":4832,"Ġà¦ıà¦°à¦ªà¦°à¦ĵ":4833,"à¦ļà¦°à¦£à¦ķ":4834,"à¦ļà¦°à¦£à¦¶":4835,"à¦¨à¦Ĩà¦¤":4836,"à¦¬à§İà¦¸à¦²":4837,"à¦°à¦ķà¦Łà¦Ń":4838,"Ġà§ªà§Ń":4839,"Ġà¦¬à¦īà¦¬":4840,"Ġà¦Ńà¦Ĺà¦¬à¦¨":4841,"Ġà¦ıà¦°à¦ķà¦®à¦ĩ":4842,"Ġà¦ħà¦¬à¦¨à¦®à¦¨":4843,"à¦¨à¦ħà¦ª":4844,"Ġà¦®à¦°à¦£à¦¶":4845,"Ġà¦Ĩà¦«à¦Ĺ":4846,"Ġà¦°à¦¹à¦®à¦¤":4847,"à§¯à§ª":4848,"Ġà§¨à§¦à§¦à§¯":4849,"à§§à§¯à§«à§¨":4850,"à§ľà¦¬à§ľ":4851,"à¦īà¦Ńà§Łà¦ĩ":4852,"Ġà§§à§§à§§à§¨":4853,"à§±":4854,"à¦°à¦ĵà¦¯":4855,"à¦°à¦§à¦¨":4856,"à¦°à¦ħà¦°":4857,"à¦¨à¦ĵà¦¯":4858,"à¦¨à¦®à¦¸":4859,"à¦¨à¦ľà¦°":4860,"à¦¨à¦¹à¦¯":4861,"à¦¨à¦Ĩà¦ľà¦ķ":4862,"à¦¤à¦ı":4863,"à¦¤à¦§à¦¨":4864,"à¦¤à§°":4865,"à¦¤à¦ıà¦ķ":4866,"à¦¤à¦Ŀà¦°":4867,"à¦¯à¦°à¦¤":4868,"à¦ķà¦ªà¦¨":4869,"à¦ķà¦°à¦¸":4870,"à¦ķà¦¬à¦²":4871,"à¦ķà§°":4872,"à¦ķà¦°à¦ķà¦®":4873,"à¦ķà¦®à¦²":4874,"à¦ķà¦ªà¦¥":4875,"à¦ķà¦¯à¦ľ":4876,"à¦¬à¦ķà¦¤":4877,"à¦¬à¦¬à¦²":4878,"à¦¬à¦ħ":4879,"à¦¬à¦īà¦¦":4880,"à¦¬à¦Ĺà¦¤à¦Ń":4881,"à¦¬à¦Ĩà¦¤":4882,"à¦²à¦Ĺà¦²":4883,"à¦²à¦Ĩà¦®":4884,"à¦²à¦ľà¦²":4885,"à¦²à¦Ĩà¦²":4886,"à¦®à§İ":4887,"à¦®à¦¬à¦¤":4888,"à¦®à¦ªà¦ķ":4889,"à¦®à¦ªà¦¥":4890,"à¦®à¦Ńà¦ķ":4891,"Ġà¦¸à¦²à¦¤":4892,"Ġà¦¸à¦ĩà¦¯":4893,"Ġà¦¬à¦Ĺ":4894,"Ġà¦ªà¦¦à¦¨":4895,"Ġà¦ªà¦¸à¦°":4896,"Ġà¦ªà¦ªà¦ķà¦°":4897,"à¦¦à¦ĸ":4898,"à¦¦à¦«":4899,"à¦¦à¦Ĺà¦¤":4900,"à¦¦à¦¨à¦ĵ":4901,"à¦¸à¦ĵà¦¯":4902,"à¦¸à¦Ńà¦°":4903,"Ġà¦Ĩà¦ľà¦¨":4904,"Ġà¦Ĩà§°":4905,"Ġà¦Ĩà¦ĩà¦ķ":4906,"à¦ĩà¦§":4907,"à¦ĩà¦ı":4908,"à¦ĩà¦ıà¦ķà¦Ł":4909,"à¦ĩà¦ıà¦Ł":4910,"à¦ĩà¦īà¦°":4911,"à¦·à¦¡":4912,"à¦·à¦¸à¦®":4913,"à¦ªà¦Łà¦ķ":4914,"à¦ªà¦¹à¦¤":4915,"à¦ªà¦£à¦¨":4916,"Ġà¦®à§Ł":4917,"Ġà¦®à¦°à¦¸":4918,"Ġà¦®à¦ĵà¦ķ":4919,"Ġà¦¨à¦°à¦°":4920,"Ġà¦¨à§ľà¦¬à§ľ":4921,"à¦Łà¦¡":4922,"à¦Łà¦°à¦¸":4923,"Ġà¦ıà¦¤à¦¬à¦¡":4924,"à¦ľà¦¸à¦¬":4925,"à¦ľà¦®à¦°":4926,"à¦ľà¦²à¦®":4927,"à¦ľà¦¦à¦£":4928,"à¦¶à¦®à¦¤":4929,"à¦¶à¦¸à¦¬à¦ĩ":4930,"à¦¶à¦¸à¦¹":4931,"Ġà¦¤à¦°à¦¤":4932,"à¦Ĺà¦ªà¦¤":4933,"à¦Ĺà¦ıà¦¸à¦¬":4934,"Ġà¦¦à¦¸à¦¤":4935,"Ġà¦¦à¦ĩà§Ł":4936,"Ġà¦ħà¦ªà¦¨":4937,"Ġà¦ħà¦¢":4938,"à¦§à¦ĸ":4939,"à¦§à¦ľà¦¨":4940,"à¦§à¦¶à¦ķ":4941,"à¦§à¦¨à¦¤à¦¤":4942,"à¦Ľà¦ĵ":4943,"à¦£à¦®à¦¨":4944,"à¦£à¦ªà¦ķ":4945,"à¦¹à¦Ļ":4946,"à¦¹à¦īà¦¦":4947,"Ġà¦¯à¦®à¦²":4948,"Ġà¦¯à¦®à¦¦":4949,"à¦ļà¦ļ":4950,"à¦ļà¦ªà¦¦":4951,"à¦¥à¦ĸ":4952,"à¦¥à¦¡":4953,"à¦ĸà¦ľ":4954,"à¦ĸà¦²à¦¤":4955,"à¦ĸà¦ķà¦ķ":4956,"à¦ĸà¦ľà¦¨à¦ķ":4957,"à¦ĸà¦Ĩà¦¨à¦¨":4958,"Ġà¦¶à¦°à¦ķ":4959,"à¦Ńà¦¹":4960,"à¦Ńà¦Ń":4961,"à¦Ńà¦Ĺà¦¬":4962,"à¦¡à¦¡":4963,"à¦¡à¦ĵà¦¯":4964,"à¦¡à¦ĵà§Ł":4965,"à¦¡à¦¬à¦ľà¦¨à¦¨":4966,"à§Łà¦ıà¦ĩ":4967,"à¦ĵà¦Ľ":4968,"à¦ĵà¦ĸ":4969,"à¦ĵà¦ĵ":4970,"à¦ĵà§ľ":4971,"Ġà¦°à¦¸à¦ķ":4972,"à§Ĥà¦ĥ":4973,"Ġà¦ļà¦·":4974,"Ġà¦īà¦¬":4975,"Ġà¦īà¦Ń":4976,"Ġà¦īà¦¤à¦°":4977,"Ġà¦īà¦«":4978,"Ġà¦ĵà¦ľ":4979,"Ġà¦ıà¦ķà¦ıà¦ķ":4980,"à¦łà¦ĺ":4981,"Ġà¦ħà¦¨à¦®à¦¨":4982,"Ġà¦ħà¦¨à¦Łà¦¨":4983,"Ġà¦Ľà§Łà¦Ł":4984,"Ġà¦Ĩà¦°à¦¬à¦ĩ":4985,"à¦¬à¦¨à¦°":4986,"à¦¬à¦¨à¦¹":4987,"à¦¬à¦¨à¦¶à¦ķ":4988,"à¦¬à¦¨à¦®à¦°à¦£":4989,"Ġà¦¬à¦²à¦Ł":4990,"Ġà¦ıà¦ĩà¦ĩ":4991,"Ġà¦§à¦¡":4992,"à¦ªà¦°à¦¨":4993,"à¦ľà¦¨à¦°":4994,"à¦ľà¦¨à¦Ĺà¦°":4995,"à¦®à¦¨à¦ª":4996,"à¦ĸà¦¨à¦¶":4997,"Ġà¦«à¦ľà¦°":4998,"à¦¤à¦°à¦¯":4999,"à¦¤à¦°à¦²":5000,"à§İà¦°":5001,"à§İà¦ľ":5002,"čĊčĊč":5003,"čĊĠĠč":5004,"à¦¤à¦¨à¦ª":5005,"Ġà¦ĩà¦«à¦¤":5006,"Ġà¦¹à¦²à¦®":5007,"Ġà¦¹à¦²à¦¶":5008,"à¦ıà¦·":5009,"à¦ıà¦¤à¦¦":5010,"à¦°à¦®à¦§à¦°":5011,"à¦°à¦¬à¦¹":5012,"à¦°à¦¬à¦ªà¦ķ":5013,"à¦¯à¦ķà¦°à¦Ń":5014,"à¦·à¦£à¦¦":5015,"à¦·à¦£à¦¸à¦®":5016,"à¦īà¦ªà¦ľ":5017,"Ġà¦¬à¦°à¦·":5018,"Ġà¦¬à¦°à¦¬à¦°":5019,"à¦¨à¦¤à¦¦":5020,"Ġà¦īà¦¦à¦¬":5021,"Ġà¦īà¦¦à§Ł":5022,"Ġà¦®à¦¤à¦ķ":5023,"Ġà¦®à¦¤à¦Ł":5024,"à¦ķà¦²à¦Ļ":5025,"à¦²à¦¨à¦Ĺà¦°":5026,"à¦²à¦¨à¦ıà¦¸à¦¬":5027,"à¦ĺà§ľ":5028,"Ġà¦¸à¦¹à¦ľà¦¸":5029,"Ġà¦Łà¦Ĺà¦¬":5030,"Ġà¦ħà¦¤à¦Ł":5031,"à¦¨à¦¬à¦¹":5032,"à¦¨à¦¬à¦®à¦¹":5033,"à¦¦à¦°à¦ľ":5034,"à¦°à¦¥à¦ª":5035,"à¦°à¦¹à¦ĵ":5036,"Ġà¦¬à¦¸à¦Ľ":5037,"Ġà¦¬à¦¸à¦¤à¦¬":5038,"Ġà¦¹à¦¤à¦¦à¦°":5039,"à¦§à¦¨à¦ªà¦¦":5040,"à¦§à¦¨à¦ªà¦¥":5041,"à¦°à¦¨à¦¦":5042,"à¦Ĩà¦¬à¦°":5043,"à¦Ĩà¦īà¦Ł":5044,"à¦Ĩà¦ľà¦ĵ":5045,"à¦°à¦¦à¦£":5046,"à¦¤à¦¬à¦¯":5047,"à¦¤à¦¬à¦ľ":5048,"à¦¤à¦¬à¦¹":5049,"à¦¤à¦¬à§Łà¦¸":5050,"à¦°à¦¥à¦®à¦ľà¦¨":5051,"à¦®à¦£à¦¶":5052,"à¦¶à¦¨à¦Ł":5053,"à¦¶à¦¨à¦ıà¦¸à¦¬":5054,"Ġà¦¬à¦²à¦²à¦¦":5055,"à¦¯à¦®à¦¶":5056,"à¦¯à¦®à¦§":5057,"à¦¯à¦®à§Łà¦¤":5058,"à¦²à¦¬à¦¬":5059,"à¦²à¦¬à¦¦":5060,"à¦°à¦ĩà¦ľ":5061,"Ġà¦¬à¦¹à¦¨à¦ķ":5062,"Ġà¦ıà¦¸à¦ıà¦¸à¦¸":5063,"à¦¬à¦¦à¦¤":5064,"à¦¦à¦¨à¦ªà¦¦":5065,"Ġà¦¸à¦¨à¦ķ":5066,"Ġà¦¸à¦¨à¦¦":5067,"à¦ħà¦·":5068,"à¦ħà¦¥":5069,"à¦ħà¦«à¦²":5070,"à¦°à¦Ńà¦°":5071,"à¦¸à¦¨à¦ª":5072,"à¦¸à¦¨à¦ļ":5073,"à¦¸à¦¨à¦Ń":5074,"Ġà¦ķà¦¬à¦ļà¦ķ":5075,"à¦·à¦ķà¦ª":5076,"à¦·à¦ķà¦Ĺà¦£":5077,"à¦¯à¦¬à¦¸à¦¤":5078,"à¦ªà¦¦à¦®":5079,"Ġà¦Ŀà¦Łà¦ķ":5080,"Ġà¦Ĩà¦¶à¦°à¦«":5081,"Ġà¦ħà¦ªà¦²":5082,"Ġà¦ħà¦ªà¦¹":5083,"à¦ıà¦ĩà¦Ł":5084,"à¦ĩà¦¨à¦·":5085,"à¦ĩà¦¨à¦ħà¦«à¦²":5086,"à¦Ĺà¦²à¦Ĺ":5087,"à¦Ĺà¦²à¦ľà¦¨à¦ķ":5088,"Ġà¦Ĩà¦ķà¦£":5089,"Ġà¦ªà¦¦à¦Ł":5090,"Ġà¦ĩà¦¨à¦¡":5091,"à¦¬à¦ķà¦¨":5092,"à¦¬à¦ķà¦ª":5093,"à¦ªà¦ķà¦ª":5094,"à¦¤à¦¤à¦¸":5095,"à¦¯à¦¦à¦¶":5096,"à¦¨à¦¸à¦ķ":5097,"à¦¨à¦¸à¦¹à¦ķ":5098,"à¦®à¦¬à¦§":5099,"à¦ĸà¦²à¦Ń":5100,"Ġà¦¶à¦¤à¦Ĺ":5101,"à¦Łà¦ķà¦ª":5102,"Ġà¦ķà¦¤à¦¶à¦¤":5103,"à¦«à¦²à¦ĩ":5104,"à¦«à¦²à¦ĵ":5105,"à¦¹à¦¤à¦Ń":5106,"Ġà¦ħà¦¦à¦ķ":5107,"à¦·à¦®à¦Ń":5108,"Ġà¦Ĺà¦£à¦§à¦°":5109,"Ġà¦Ĺà¦£à¦ħà¦Ń":5110,"à¦°à¦®à¦£à¦¯":5111,"à¦¹à¦°à¦£à¦¤":5112,"à¦¹à¦°à¦£à¦Ĺ":5113,"à¦łà¦ķà¦¸à¦®":5114,"Ġà¦¦à¦°à¦Ĺ":5115,"à¦§à¦¬à¦¸à¦®":5116,"Ġà¦ħà¦²à¦¸à¦¤":5117,"Ġà¦ıà¦ķà¦ľà¦¨à¦ĩ":5118,"Ġà¦Īà¦·":5119,"Ġà¦ĵà¦ĩà¦ĸ":5120,"à¦·à¦¦à¦ķ":5121,"Ġà¦īà§İà¦¸à¦¬à¦ħà¦¨":5122,"Ġà¦°à¦¸à¦¦":5123,"à¦¬à¦Ńà¦¬à¦¨":5124,"à¦¡à¦²à¦¸":5125,"Ġà¦§à¦¨à¦²":5126,"Ġà¦ªà¦¶à¦®":5127,"à¦ķà¦¨à¦®":5128,"Ġà¦¹à¦°à¦«":5129,"Ġà¦°à¦ķà¦®à¦Ń":5130,"à¦¬à¦®à§Ł":5131,"à¦²à¦®à¦¹":5132,"Ġà¦¨à¦Ĺà¦°à¦Ĺ":5133,"Ġà¦Ĩà¦ĩà¦¨à¦ª":5134,"Ġà¦Ĩà¦ļà¦°à¦£à¦ķ":5135,"Ġà¦Ĩà¦ļà¦°à¦£à¦Ĺ":5136,"Ġà¦Ĩà¦ļà¦°à¦£à¦Ĺà¦¤":5137,"Ġà¦ļà¦ķà¦®":5138,"Ġà¦ļà¦ķà¦®à¦ķ":5139,"Ġà¦¦à¦¶à¦°à¦¥":5140,"à¦ľà¦²à¦ľ":5141,"ĠĠĠĠĠĠĠĠĠĠĠĠĠĠĠĠĠĠĠ":5142,"à¦¦à¦¶à¦Ł":5143,"à¦¦à¦¶à¦¬à¦°":5144,"à¦¸à¦¹à¦¬":5145,"à¦¨à¦®à¦¹à¦°":5146,"à¦¯à¦ľà¦Ĺà¦¤":5147,"Ġà¦ķà¦ļà¦ĵ":5148,"Ġà¦Ĩà¦Ńà¦°à¦£":5149,"Ġà¦ħà¦Łà¦²à¦¤":5150,"Ġà¦·à¦£":5151,"à¦Ŀà¦²à¦®à¦²":5152,"à¦Ĺà¦ľà¦Ĺ":5153,"à¦¬à§Łà¦ĩ":5154,"Ġà¦ľà§Łà¦²":5155,"à¦·à¦ªà¦ŀ":5156,"à¦°à¦«à¦°":5157,"Ġà¦®à¦¦à¦¤":5158,"à¦¦à¦¸à¦ĩ":5159,"Ġà§©à§¦à§¦":5160,"Ġà§©à§«à§¦":5161,"à¦¸à¦«à¦°":5162,"Ġà¦°à¦¥à¦ļà¦ķ":5163,"Ġà¦ıà¦°à¦ªà¦°à¦ĩ":5164,"à¦Łà¦®à¦¡":5165,"Ġà¦¸à¦«à¦²à¦Ń":5166,"Ġà¦ļà¦Łà¦ªà¦Ł":5167,"Ġà¦īà¦ªà¦ķà¦£":5168,"à¦£à¦Ńà¦Ł":5169,"à¦Ĺà¦łà¦¨à¦ķ":5170,"Ġà§«à§©":5171,"Ġà§«à§¬":5172,"Ġà§ªà§©":5173,"Ġà§ªà§®":5174,"à¦ľà¦¦à¦°à¦¬":5175,"à¦¨à¦ħà¦Ń":5176,"Ġà¦ħà¦¬à¦¸à¦°à¦ª":5177,"Ġà¦Ĩà¦ĩà¦¨à¦¤":5178,"Ġà¦®à¦°à¦£à¦ķ":5179,"Ġà§§à§¯à§ªà§«":5180,"Ġà§§à§¯à§ªà§¯":5181,"Ġà¦Ĩà¦«à¦¸":5182,"Ġà¦ľà¦¨à¦¸à¦®à¦ķ":5183,"à¦ķà¦¸à¦¬à¦ľ":5184,"Ġà¦¸à¦®à¦Ŀà¦¦":5185,"à¦ıà¦ķà¦ĩà¦¸à¦Ļ":5186,"Ġà§§à§¯à§¨à§¦":5187,"Ġà§¨à§¦à§§à§¦":5188,"Ġà§¨à§¦à§§à§ª":5189,"Ġà§¨à§¦à§¦à§¯à§§à§":5190,"Ġà§§à§¯à§¬à§Ń":5191,"à§§à§¯à§ª":5192,"Ġà§¯à§¯":5193,"à¦¡à¦Ńà¦£":5194,"à¦¦à¦ļà§Łà¦¨":5195,"à¦Ńà§İà¦¸à¦¤":5196,"Ġà¦¬à¦Ľà¦°à¦ĩ":5197,"Ġà§§à§¯à§¯à§¨":5198,"Ġà¦¹à¦ľà¦°à¦¤":5199,"à¦ıà¦®à¦ıà¦¸":5200,"ĠĠčĊĠĠĠč":5201,"Ġà¦Ľà¦²à¦Ľà¦²":5202,"Ġà¦ªà¦¦à¦¨à¦ĸ":5203,"Ġà¦Łà¦Ĺà¦¬à¦Ĺ":5204,"Ġà§¨à§¦à§¦à§¯à§§à§¦":5205,"Ġà¦£":5206,"à¦°à¦ī":5207,"à¦°à¦²à¦¬":5208,"à¦°à¦ªà¦ķ":5209,"à¦¿à§Ģ":5210,"à¦¨à¦ĩà¦²":5211,"à¦¨à¦Ĺà¦¨":5212,"à¦¤à¦Ļ":5213,"à¦¤à¦¬à¦¨":5214,"à¦¤à¦¦à¦°":5215,"à¦¤à¦ķà¦Ł":5216,"à¦¤à¦²à¦ķ":5217,"à¦¤à¦ªà¦¤":5218,"à¦¤à¦ıà¦¸à¦¬à¦ĩ":5219,"à¦¯à¦Ľ":5220,"à¦¯à¦ļà¦¨":5221,"à¦¯à¦ıà¦Ł":5222,"à¦¯à¦ıà¦Ĺ":5223,"à¦¯à¦ħà¦¸":5224,"à¦¯à¦®à¦¨à¦¸":5225,"à¦ķà¦ı":5226,"à¦ķà¦¸à¦¨":5227,"à¦ķà¦¥à¦¨":5228,"à¦ķà¦Ĩà¦®à¦°":5229,"à¦ķà¦Ĳà¦¤":5230,"à¦¬à¦ľà¦¯":5231,"à¦²à¦ŀ":5232,"à¦²à¦ªà¦¡":5233,"à¦®à¦²à¦ķ":5234,"à¦®à¦ħ":5235,"à¦®à¦Ĺà¦¤à¦Ń":5236,"Ġà¦¸à¦¶à¦ķ":5237,"Ġà¦¬à¦ĩà¦²":5238,"Ġà¦¬à¦ªà¦£":5239,"Ġà¦¬à¦īà¦°":5240,"Ġà¦¬à¦°à¦ķà¦¨":5241,"Ġà¦ªà¦¸":5242,"Ġà¦ªà¦ļà¦¨":5243,"à¦¦à¦°à¦¤":5244,"à¦¦à¦²à¦¤":5245,"à¦¦à¦ķà¦°":5246,"à¦¦à¦®à¦¸":5247,"à¦¸à¦ł":5248,"à¦¸à¦Ĺà¦¤":5249,"à¦¸à¦ķà¦¤":5250,"à¦¸à¦ĺà¦°":5251,"à¦¸à¦ľà¦²":5252,"à§ĭà¦¾":5253,"à¦ĩà¦ķà¦¬":5254,"à¦ĩà¦®à¦²":5255,"à¦ĩà¦īà¦ľ":5256,"à¦·à¦¦à¦°":5257,"à¦·à¦¸à¦°":5258,"à¦ªà¦°à¦¤":5259,"à¦ªà¦ĺ":5260,"à¦ªà¦īà¦ªà¦¨":5261,"Ġà¦®à§°":5262,"Ġà¦®à¦¦à¦¬":5263,"Ġà¦¨à¦Łà¦°":5264,"à¦Łà¦Ŀ":5265,"à¦Łà¦ķà¦¬":5266,"à¦Łà¦Łà¦²":5267,"Ġà¦ıà¦Ļ":5268,"Ġà¦ıà¦¸à¦®à¦¯":5269,"à¦ľà¦®à¦¤":5270,"à¦ľà¦¤à¦¤":5271,"à¦¶à¦ı":5272,"à¦¶à¦®à¦£":5273,"à¦¶à¦®à¦¶":5274,"Ġà¦¤à¦²à¦¬":5275,"Ġà¦¤à¦²à¦¸":5276,"Ġà¦¤à¦ķà¦®":5277,"à¦Ĺà¦°à¦¤":5278,"à¦Ĺà¦¸à¦¬":5279,"à¦Ĺà¦ķà¦²":5280,"à¦Ĺà¦¸à¦¬à¦ĩ":5281,"Ġà¦¦à¦ľ":5282,"Ġà¦¦à§°":5283,"Ġà¦¦à¦ĩà¦Ń":5284,"Ġà¦¦à¦ĩà¦®":5285,"Ġà¦¦à¦®à¦¦à¦®":5286,"Ġà¦ħà¦Ŀ":5287,"Ġà¦ħà¦Ĺà¦¤":5288,"Ġà¦ħà¦®à¦¤":5289,"Ġà¦ħà¦ľà¦°":5290,"Ġà¦ħà¦¯à¦¯":5291,"à¦§à¦§":5292,"à¦§à¦¬à¦¨":5293,"à¦§à¦Ĺà¦¤":5294,"à¦§à¦¹à¦¸":5295,"à¦§à¦ªà¦¥":5296,"à¦§à¦¸à¦¤":5297,"Ġà¦¹à¦ª":5298,"à¦£à¦£":5299,"à¦£à¦ı":5300,"à¦£à¦²à¦¤":5301,"à¦£à¦ľà¦¯":5302,"à¦¹à§Ł":5303,"à¦¹à¦¬à¦¨":5304,"à¦¹à¦Ĺà¦¤":5305,"à¦¹à¦²à¦ķ":5306,"à¦¹à¦Ńà¦°":5307,"à¦¹à¦ĺà¦°":5308,"à¦¹à¦ľà¦¨à¦ķ":5309,"Ġà¦¯à¦¤à¦¨":5310,"Ġà¦¯à¦®à¦¸":5311,"Ġà¦ķà¦°à¦ª":5312,"à¦ļà¦ŀ":5313,"à¦ļà¦ªà¦¦à¦¸":5314,"à¦¥à¦ľ":5315,"à¦¥à¦Ĺà¦¤":5316,"à¦¥à¦²à¦¨":5317,"à¦¥à¦ķà¦°":5318,"à¦¥à¦¬à¦¦":5319,"à¦ĸà¦°à¦ķ":5320,"à¦ĸà¦Ŀ":5321,"à¦ĸà¦¬à¦ķ":5322,"à¦ĸà¦¬à¦¸":5323,"Ġà¦¶à¦®à¦¸":5324,"Ġà¦¶à¦¬à¦°à¦¸":5325,"Ġà¦Ĺà¦¸":5326,"Ġà¦Ĺà¦¤à¦°":5327,"Ġà¦Ĺà¦²à¦¤":5328,"Ġà¦Ĺà¦®à¦Ĺ":5329,"Ġà¦ľà¦²à¦¨":5330,"à¦¡à¦§":5331,"à¦¡à¦¹":5332,"à¦¡à¦ļ":5333,"à¦¡à¦¸à¦¤":5334,"à§Łà¦ļ":5335,"à¦ĵà¦ıà¦°":5336,"Ġà¦Ńà¦°à¦£":5337,"Ġà¦°à¦ĩ":5338,"Ġà¦°à¦ľà¦¸":5339,"Ġà¦°à¦£à¦¨":5340,"Ġà¦°à¦¸à¦®à¦¯":5341,"Ġà¦ļà¦®à¦¤":5342,"Ġà¦ļà¦°à¦¨":5343,"Ġà¦īà¦¯":5344,"Ġà¦īà¦Ľà¦²":5345,"Ġà¦¸à¦®à¦ªà¦¦":5346,"Ġà¦ıà¦ķà¦§":5347,"Ġà¦ıà¦ķà¦ĺà¦°":5348,"Ġà¦ªà¦°à¦ĸ":5349,"à¦°à¦¤à¦¯":5350,"à¦°à¦¤à¦ķà¦°":5351,"à¦łà¦ĩ":5352,"Ġà¦ħà¦¨à¦¬":5353,"Ġà¦Ľà§Ł":5354,"Ġà¦Ĩà¦°à¦Ł":5355,"Ġà¦Ĩà¦°à¦¬à¦Ń":5356,"à¦¬à¦¨à¦Ń":5357,"à¦¬à¦¨à¦°à¦ķ":5358,"à¦¬à¦¨à¦ªà¦°":5359,"à¦¬à¦¨à¦¸à¦®":5360,"à¦¬à¦¨à¦ķà¦¥":5361,"à¦°à¦£à¦°":5362,"à¦°à¦£à¦ľà¦¨":5363,"Ġà¦¬à¦²à¦¦à¦°":5364,"Ġà¦§à¦ķ":5365,"Ġà¦§à¦²":5366,"à¦ŀà¦ĩ":5367,"à¦ŀà¦¹":5368,"à¦ľà¦¨à¦°à¦¸":5369,"à¦¬à¦°à¦ľ":5370,"à¦¬à¦°à¦Ĺ":5371,"à¦®à¦¨à¦¤":5372,"à¦ĸà¦¨à¦ªà¦¦":5373,"Ġà¦«à¦¯":5374,"Ġà¦«à¦¸à¦ķ":5375,"à¦¤à¦°à¦¨":5376,"Ġà¦ĸà¦ª":5377,"Ġà¦ĸà¦Łà¦ķ":5378,"à§İà¦¤":5379,"à§İà¦ļ":5380,"à§İà¦ªà¦Ł":5381,"à§İà¦ľà¦²":5382,"Ġà¦®à¦¨à¦¯":5383,"Ġà¦ľà¦¨à¦¸à¦Ļ":5384,"Ġà¦ľà¦¨à¦¬à¦¹":5385,"à¦¤à¦¨à¦°à¦Ļ":5386,"à¦¯à¦¬à¦ļ":5387,"à¦¯à¦¬à§İ":5388,"à¦¯à¦¬à¦¶à¦¤":5389,"Ġà¦ĩà¦«":5390,"Ġà¦ĩà¦ķà¦¬":5391,"Ġà¦ĩà¦®à¦ª":5392,"Ġà¦ĩà¦ķà¦¨à¦®":5393,"à¦ªà¦¨à¦Ĺ":5394,"Ġà¦¹à¦²à¦²":5395,"Ġà¦¹à¦²à¦ħà¦¨":5396,"à¦ıà¦¨":5397,"à¦ıà¦¨à¦ľ":5398,"Ġà¦ĺà¦°à¦ķà¦¨":5399,"à¦°à¦®à¦Ł":5400,"à¦°à¦®à¦ªà¦°":5401,"Ġà¦ķà¦¥à¦¨":5402,"à¦°à¦¬à§İ":5403,"à¦¯à¦ķà¦¬":5404,"Ġà¦¸à¦¬à¦¬":5405,"Ġà¦¸à¦¬à¦®":5406,"Ġà¦¸à¦¬à¦¸":5407,"Ġà¦¸à¦¬à¦¸à¦¬":5408,"à¦¸à¦¬à¦¹":5409,"à§ľà¦¶":5410,"à§ľà¦Ń":5411,"à§ľà¦ªà¦°":5412,"à¦·à¦£à¦ľ":5413,"à¦·à¦£à¦¹":5414,"à¦·à¦£à¦ľà¦¨":5415,"à¦«à¦Ŀ":5416,"à¦«à¦«à¦°":5417,"à¦īà¦£":5418,"à¦īà¦ªà¦®":5419,"à¦°à¦¯à¦ľ":5420,"Ġà¦¬à¦°à¦ªà¦ķ":5421,"Ġà¦Ĩà¦Ľà§ľ":5422,"Ġà¦Ĩà¦²à¦¬":5423,"à¦ļà¦¨à¦ľà¦Ļ":5424,"Ġà¦®à¦¹à¦¦":5425,"Ġà¦ħà¦¸à¦°":5426,"Ġà¦ħà¦¸à¦°à¦ķ":5427,"Ġà¦ħà¦¸à¦¬à¦°":5428,"Ġà¦Ĩà¦¸à¦¨à¦Ł":5429,"Ġà¦ħà¦Ńà¦ķ":5430,"Ġà¦ħà¦Ńà¦¬":5431,"Ġà¦Łà¦²à¦¸":5432,"à¦¨à¦¨à¦Ĺà¦°":5433,"à¦¬à¦²à¦¸":5434,"Ġà¦¡à¦ľà¦¨":5435,"Ġà¦ķà¦°à¦²à¦ķ":5436,"Ġà¦¬à¦¨à¦°":5437,"Ġà¦¬à¦¨à¦ªà¦¥":5438,"à¦§à¦¨à¦§":5439,"à¦ķà¦°à¦ª":5440,"à¦Ĩà¦Ń":5441,"à¦Ĩà¦°à¦ĩà¦ľ":5442,"à¦¤à¦¬à¦§à¦°":5443,"Ġà¦ªà¦¥à¦Ĺ":5444,"à¦ķà¦Łà¦ĩ":5445,"à¦ķà¦Łà¦ĵ":5446,"à¦¯à¦®à¦ª":5447,"à¦¯à¦®à¦ĵ":5448,"Ġà¦¹à§Łà¦°":5449,"Ġà¦¹à§Łà¦¸":5450,"Ġà¦ıà¦®à¦¨à¦¤à¦°":5451,"Ġà¦¯à¦ĸà¦¨à¦¤à¦ĸà¦¨":5452,"Ġà¦Ĳà¦Ń":5453,"à¦²à¦ķà¦§":5454,"Ġà¦ĺà¦Łà¦ľ":5455,"à¦°à¦ĩà¦¬":5456,"à¦¬à¦¦à¦®":5457,"à¦¦à¦¨à¦¯":5458,"à¦¦à¦¨à¦¦":5459,"à¦¦à¦¨à¦ĩ":5460,"Ġà¦īà§İà¦«":5461,"à¦°à¦Ńà¦¬à¦¨":5462,"Ġà¦ķà¦²à¦¶":5463,"à¦¸à¦¨à¦¤à¦¨":5464,"à¦¸à¦¨à¦ķà¦°":5465,"Ġà¦Ĩà¦§à¦Ł":5466,"à¦·à¦ķà¦¨":5467,"à¦·à¦ķà¦¬":5468,"à¦·à¦ķà¦¸":5469,"Ġà¦ĵà¦łà¦¤":5470,"à¦ªà¦¦à¦²":5471,"à¦¤à¦®à¦¶":5472,"à¦°à¦ĵà§Ł":5473,"à¦ļà¦²à¦®":5474,"à¦Ĺà¦²à¦®à§Ł":5475,"Ġà¦Ĩà¦ķà¦Ľ":5476,"à¦¨à¦ķà¦ª":5477,"à¦¨à¦ķà¦°à¦£":5478,"Ġà¦ħà¦Ĺà¦£à¦¨":5479,"Ġà¦ªà¦¦à¦¸à¦ŀ":5480,"Ġà¦ĩà¦¨à¦ľ":5481,"à¦ªà¦ķà¦¨":5482,"à¦°à¦¹à¦£à¦®":5483,"à¦¤à¦ķà¦®":5484,"Ġà¦ľà¦²à¦¹":5485,"à¦¬à¦¸à¦ļ":5486,"à¦¹à¦¸à¦ĩ":5487,"à¦¯à¦¸à¦ŀ":5488,"à¦£à¦¤à¦ĩ":5489,"à¦¯à¦¦à¦¸":5490,"à¦§à¦ķà¦ĩ":5491,"à¦¨à¦¸à¦ĩ":5492,"Ġà¦Ĺà¦°à¦²":5493,"à¦ľà¦¸à¦ļà¦²":5494,"à¦¬à¦¶à¦Ļ":5495,"à¦°à¦ªà¦ŀ":5496,"Ġà¦¶à¦¤à¦¦":5497,"à¦°à¦ľà¦®":5498,"à¦¨à¦¯à¦¥":5499,"à¦īà¦²à¦®":5500,"à¦¹à¦²à¦ª":5501,"Ġà¦¸à¦¹à¦ľà¦¸à¦°":5502,"à¦ļà¦ķà¦Ń":5503,"à¦¹à¦¨à¦¦":5504,"Ġà¦¤à¦¤à¦¸":5505,"à¦¢à¦²":5506,"ĠĠĠĠĠĠĠĠĠĠĠ":5507,"à¦®à¦¸à¦¹":5508,"à¦°à¦ķà¦®à¦ĩ":5509,"Ġà¦Ĺà¦£à¦¯":5510,"Ġà¦Ĺà¦£à¦®à¦¨":5511,"à¦¸à¦ķà¦ķ":5512,"Ġà¦¬à¦Ľà¦°à¦ĸ":5513,"à¦°à¦®à¦£à¦ªà¦¥":5514,"à¦¨à¦Łà¦¨":5515,"à¦ĩà¦ķà¦®":5516,"Ġà¦ªà§ľà¦¨":5517,"à¦°à¦Ĺà¦ŀ":5518,"Ġà¦Ńà¦°à¦Ľ":5519,"Ġà¦Īà¦®":5520,"Ġà¦Īà¦·à¦¦":5521,"Ġà¦ıà¦ķà¦¬à¦Ľà¦°":5522,"à¦¯à¦Ńà¦Ļ":5523,"à¦²à¦¯à¦ľ":5524,"à¦ķà¦¶à¦¤":5525,"Ġà¦§à¦¨à¦ŀ":5526,"Ġà¦ħà¦ľà¦®":5527,"Ġà¦ıà¦¨à¦Ĩà¦°à¦ĩà¦ľ":5528,"Ġà¦¬à¦²à¦¬à§İ":5529,"à¦®à¦¦à¦Ĺ":5530,"à¦£à¦¬à¦§":5531,"à¦°à¦°à¦ļà¦¨":5532,"à¦¶à¦²à¦ĩ":5533,"à¦¶à¦²à¦Ĺà¦¤":5534,"à§¨à§¨":5535,"à§¨à§Ń":5536,"Ġà¦¸à§İà¦ª":5537,"Ġà¦¸à§İà¦ªà¦¥":5538,"Ġà¦ľà¦Ĺà¦¤à¦ķ":5539,"ĠĠĠĠĠĠĠĠĠĠĠĠĠĠĠĠĠĠĠĠ":5540,"Ġà¦¹à¦ĩà¦¹":5541,"à¦¦à¦¶à¦®":5542,"Ġà¦ĺà¦¨à¦ĺà¦¨":5543,"Ġà¦®à¦¨à¦¨à¦¶à¦ķ":5544,"à¦®à¦ļà¦°à¦£":5545,"Ġà¦Ńà¦°à¦¤à¦Ĺ":5546,"Ġà¦ľà¦Ĺà§İà¦¸":5547,"Ġà¦ľà§Łà¦¬":5548,"Ġà¦ľà§Łà¦§":5549,"Ġà¦ľà§Łà¦ľà§Łà¦ķ":5550,"à¦¹à¦®à¦®à¦¤":5551,"Ġà¦ıà¦¡à¦Ń":5552,"ĠĠčĊĠĠ":5553,"Ġà¦ķà¦ªà¦ļ":5554,"Ġà¦¸à¦®à¦¤à¦²à¦¬":5555,"Ġà§§à§¯à§Ńà§¨":5556,"Ġà§§à§¯à§Ńà§©":5557,"à¦ķà¦ľà¦¨à¦¨":5558,"à¦¨à¦Ĩà¦¹":5559,"à¦¨à¦Ĩà¦ļ":5560,"à§®à§«":5561,"à¦ıà¦ĸà¦¨à¦ķ":5562,"Ġà¦®à¦Ĺà¦§à¦¦":5563,"à¦ĩà¦«à¦¸":5564,"à¦§à¦¦à¦ĩ":5565,"Ġà¦¶à¦¤à¦ªà¦¥à¦¬":5566,"à¦īà¦¡à¦¸":5567,"Ġà¦ļà¦°à¦£à¦¦":5568,"à¦Łà¦Ľà¦¡":5569,"Ġà§§à§¦à§§à§¨":5570,"Ġà¦Ĩà¦ĩà¦¸à¦ķ":5571,"Ġà§¬à§§à§¦":5572,"Ġà§§à§®à§Ń":5573,"Ġà§§à§®à§«à§Ń":5574,"Ġà§§à§©à§¬":5575,"Ġà¦ķà¦ļà¦ķà¦ļ":5576,"Ġà§§à§¨à§«":5577,"Ġà¦īà§ľà¦¨":5578,"Ġà¦īà§ľà¦¤":5579,"Ġà§§à§¯à§®à§§":5580,"Ġà§§à§¯à§®à§«":5581,"Ġà§§à§¯à§®à§Ń":5582,"Ġà¦ĸà¦¸à¦ĸà¦¸":5583,"Ġà§§à§¯à§¨à§¨":5584,"Ġà§§à§¯à§¨à§§":5585,"Ġà§§à§¯à§¨à§Ń":5586,"Ġà§¨à§¦à§¦à§ªà§¦":5587,"Ġà¦¯à¦¬à¦¨à¦°":5588,"Ġà§§à§§à§¨":5589,"Ġà¦¤à§İà¦¸à¦®":5590,"Ġà§¯à§«":5591,"âĢ¨":5592,"Ġà¦Łà¦²à¦Łà¦²":5593,"Ġà¦¸à§ľà¦ķà¦ªà¦¥":5594,"Ġà¦¨à¦ĸà¦¦à¦°":5595,"Ġà¦Ĩà¦īà¦¶à¦Ń":5596,"Ġà¦Ŀà¦Łà¦ªà¦Ł":5597,"Ġà¦ªà¦°à¦®à¦¤à¦¸à¦¹":5598,"à¦¦à¦«à¦¤à¦°":5599,"à§§à§¯à§ªà§Ń":5600,"Ġà¦Ĺà¦®à¦Ĺà¦®":5601,"Ġà§¨à§¦à§¦à§ªà§¦à§«":5602,"¨à§¦":5603,"à¦Ķ":5604,"à¦¾à¦¿":5605,"à¦°à¦ł":5606,"à¦°à§İ":5607,"à¦°à¦¨à¦¬":5608,"à¦°à¦«à¦²":5609,"à¦°à¦īà¦¨":5610,"à¦°à¦ıà¦ķà¦Ł":5611,"à¦°à¦ıà¦Ĺ":5612,"à¦¨à¦¥":5613,"à¦¨à¦°à¦Ń":5614,"à¦¨à¦ªà¦ķ":5615,"à¦¨à¦¹à¦°":5616,"à¦¨à¦ļà¦ķ":5617,"à¦¨à¦Ĺà¦¬":5618,"à¦¨à¦ĩà¦¤":5619,"à¦¨à¦ĺà¦°":5620,"à¦¨à¦ľà¦²":5621,"à¦¤à¦¸à¦¨":5622,"à¦¤à¦Ĩà¦®":5623,"à¦¤à¦ªà¦¥":5624,"à¦¤à¦¯à¦ľ":5625,"à¦¯à¦Ĩ":5626,"à¦¯à¦ĸà¦£":5627,"à¦ķà¦®à¦¨":5628,"à¦ķà¦°à¦®":5629,"à¦ķà¦ĵà¦¯":5630,"à¦ķà¦ıà¦Ł":5631,"à¦¬à¦·":5632,"à¦¬à¦®à¦£":5633,"à¦¬à¦¹à¦¸":5634,"à¦¬à¦®à¦¸":5635,"à¦¬à¦§à¦¬":5636,"à¦¬à¦¸à¦¬à¦ķ":5637,"à¦¬à¦ħà¦Ń":5638,"à¦¬à¦ĭà¦£":5639,"à¦²à¦¤à¦¨":5640,"à¦²à¦²à¦¨":5641,"à¦²à¦¸à¦®":5642,"à¦²à¦®à¦°":5643,"à¦²à¦Łà¦¨":5644,"à¦²à¦ıà¦ķ":5645,"à¦²à¦ĺà¦°":5646,"à¦²à¦ıà¦ķà¦Ł":5647,"à¦²à¦īà¦¦":5648,"à¦²à¦Ĩà¦ľ":5649,"à¦®à¦ķà¦¤":5650,"à¦®à¦¬à¦¦":5651,"à¦®à§Łà¦¤":5652,"à¦®à¦®à¦¹":5653,"à¦®à¦¸à¦¬à¦ĩ":5654,"à¦®à¦ıà¦ķ":5655,"à¦®à¦¶à¦²":5656,"à¦®à¦ĺà¦°":5657,"à¦®à¦ıà¦¸à¦¬à¦ĩ":5658,"à¦®à¦ĸà¦£":5659,"à¦®à¦łà¦¤":5660,"à¦®à¦¸à¦¬à¦ĸ":5661,"à¦®à¦Ĩà¦¬":5662,"Ġà¦¸à¦²à¦®à¦¨":5663,"Ġà¦ķà¦ľ":5664,"Ġà¦ķà¦¸à¦®":5665,"Ġà¦ķà¦ĩà¦²":5666,"Ġà¦ķà¦ĩà¦Ľ":5667,"Ġà¦¬à¦ĸ":5668,"Ġà¦¬à¦°à¦¯":5669,"Ġà¦¬à¦ķà¦°":5670,"Ġà¦¬à¦®à¦¬":5671,"Ġà¦¬à¦¶à¦®":5672,"Ġà¦¬à¦ļà¦¸":5673,"Ġà¦ªà§Łà¦¸":5674,"à¦¦à¦ĺ":5675,"à¦¦à¦®à¦¤":5676,"à¦¦à¦¨à¦¨":5677,"à¦¦à¦¦à¦°":5678,"à¦¦à¦¸à¦¨":5679,"à¦¦à¦Ĺà¦¨":5680,"à¦¦à¦Ĺà¦£":5681,"à¦¦à¦¸à¦¹":5682,"à¦¦à¦īà§İà¦¸à¦¬":5683,"à¦¦à¦īà¦ļ":5684,"à¦¦à¦ħà¦ª":5685,"à¦¸à¦ķà¦¬":5686,"à¦¸à¦§à¦°":5687,"Ġà¦Ĩà¦¹à¦¸":5688,"Ġà¦Ĩà¦ĩà¦¯":5689,"Ġà¦Ĩà¦Łà¦¬":5690,"à¦ĩà¦¬à¦¨":5691,"à¦ĩà¦ªà¦°":5692,"à¦ĩà¦ķà¦²":5693,"à¦ĩà¦ħ":5694,"à¦ĩà¦ĵà§Ł":5695,"à¦ĩà¦¸à¦²":5696,"à¦ĩà¦ªà¦Ł":5697,"à¦ĩà¦ħà¦¨":5698,"à¦ĩà¦ıà¦ķ":5699,"à¦ĩà¦®à¦Ł":5700,"à¦ĩà¦ıà¦ķà¦ľà¦¨":5701,"à¦·à¦ł":5702,"à¦·à¦¬à¦°":5703,"à¦·à¦ªà¦¤":5704,"à¦·à¦°à¦®à¦£":5705,"à¦·à¦ıà¦°":5706,"à¦·à¦¸à¦¹":5707,"à¦·à¦°à¦¸à¦®":5708,"à¦ªà¦ł":5709,"à¦ªà¦¸à¦¨":5710,"à¦ªà¦¬à¦¸":5711,"à¦ªà¦ıà¦°":5712,"à¦ªà¦ıà¦¸à¦¬à¦ĩ":5713,"Ġà¦®à¦°à¦¦":5714,"Ġà¦®à¦²à¦¯":5715,"Ġà¦®à¦Ī":5716,"Ġà¦¨à¦°à¦¦":5717,"Ġà¦¨à¦ŀà¦°":5718,"à¦Łà¦¸à¦¬":5719,"à¦Łà¦°à¦¦":5720,"à¦Łà¦¸à¦®":5721,"à¦Łà¦¶à¦ķ":5722,"à¦Łà¦Ĩà¦®":5723,"à¦Łà¦¸à¦¬à¦ĩ":5724,"à¦ľà¦¸à¦°":5725,"à¦ľà¦ıà¦¸à¦¬":5726,"à¦ľà¦ħà¦¨":5727,"à¦ľà¦Ĺà¦£":5728,"à¦ľà¦ıà¦¸à¦¬à¦ĩ":5729,"à¦ľà¦¸à¦¬à¦ķ":5730,"à¦ľà§Łà¦Ĺ":5731,"à¦¶à¦°à¦¤":5732,"à¦¶à¦ł":5733,"à¦¶à¦¬à¦°":5734,"à¦¶à¦¸à¦¬":5735,"à¦¶à¦ķà¦Ł":5736,"à¦¶à¦²à¦ķ":5737,"à¦¶à¦°à¦ĩ":5738,"à¦¶à¦¸à¦°":5739,"à¦¶à¦²à¦®":5740,"à¦¶à¦ıà¦¸à¦¬à¦ĩ":5741,"Ġà¦¤à§ľ":5742,"Ġà¦¤à¦¸à¦²":5743,"Ġà¦¤à¦°à¦¤à¦°":5744,"à¦Ĺà¦²à¦¨":5745,"à¦Ĺà¦®à¦¤":5746,"à¦Ĺà¦²à¦¤":5747,"à¦Ĺà¦®à¦£":5748,"à¦Ĺà¦ıà¦ĩ":5749,"à¦Ĺà¦¢":5750,"à¦Ĺà¦ªà¦¥":5751,"à¦Ĺà¦£à¦ķ":5752,"à¦Ĺà¦¦à¦ķ":5753,"à¦Ĺà¦ħà¦¸":5754,"à¦Ĺà¦²à¦¤à¦¤":5755,"Ġà¦¦à¦¬":5756,"Ġà¦ħà¦ľà¦¨":5757,"Ġà¦ħà¦ľà¦¨à¦¦":5758,"à¦§à¦¡":5759,"à¦§à¦°à¦¤":5760,"à¦§à¦¬à¦°":5761,"à¦§à¦¬à¦¬":5762,"à¦§à¦¤à¦®":5763,"à¦§à¦®à¦¯":5764,"à¦§à¦ıà¦Ĺ":5765,"Ġà¦¹à¦®":5766,"à¦Ľà§ľ":5767,"à¦Ľà¦¤à¦²":5768,"à¦£à¦°à¦ķ":5769,"à¦£à¦°à¦¸":5770,"à¦£à¦ĺ":5771,"à¦£à¦¬à¦¬":5772,"à¦£à¦®à§Ł":5773,"à¦£à¦Ńà¦¯":5774,"à¦£à¦¸à¦¹":5775,"à¦¹à¦¸à¦¬":5776,"à¦¹à¦¯à¦¨":5777,"à¦¹à§Łà¦¤":5778,"Ġà¦¯à¦·":5779,"Ġà¦¯à¦ļ":5780,"Ġà¦ķà¦°à¦®":5781,"Ġà¦ķà¦°à¦¨à¦ĸ":5782,"à¦ļà¦°à¦®":5783,"à¦ļà¦ķà¦²":5784,"à¦ļà¦°à¦¦":5785,"à¦¥à¦¸à¦°":5786,"à¦¥à¦§à¦°":5787,"à¦ĸà¦¹":5788,"à¦ĸà¦¬à¦¨":5789,"à¦ĸà¦ķà¦²":5790,"à¦ĸà¦²à¦ķ":5791,"Ġà¦¶à¦ķà¦²":5792,"à¦Ńà¦ŀ":5793,"à¦Ńà¦²à¦ķ":5794,"à¦Ńà¦¬à¦¦":5795,"à¦Ńà¦¬à¦ª":5796,"Ġà¦Ĺà¦ľà¦¸":5797,"Ġà¦Ĺà¦¦à¦Ĺ":5798,"Ġà¦ľà¦°à¦¦":5799,"Ġà¦ľà§°":5800,"Ġà¦ľà¦®à¦ķ":5801,"à¦¡à¦ıà¦°":5802,"à§ĥà¦¾":5803,"à§ĥà¦ĥ":5804,"à¦ĵà¦¸à¦¬":5805,"à¦ĵà¦«":5806,"à¦ĵà¦²à¦ľ":5807,"Ġà¦Ńà¦¨":5808,"Ġà¦Ńà¦ľà¦®":5809,"Ġà¦°à¦²":5810,"Ġà¦°à¦ľà¦¤":5811,"Ġà¦°à¦ľà¦Ĺ":5812,"Ġà¦ļà¦ĵà¦¡":5813,"Ġà¦ĵà¦¨":5814,"Ġà¦ĵà¦¬":5815,"Ġà¦ĵà¦°à¦ĩ":5816,"Ġà¦Ĩà¦®à¦ª":5817,"Ġà¦¸à¦®à¦§":5818,"Ġà¦¸à¦®à¦¦à¦°":5819,"Ġà¦¸à¦®à¦®à¦°":5820,"Ġà¦¸à¦®à¦¸à¦®à¦¯":5821,"Ġà¦ıà¦ķà¦¹":5822,"Ġà¦ıà¦ķà¦ļà¦¤":5823,"Ġà¦ıà¦ķà¦ĸà¦£":5824,"Ġà¦ıà¦ķà¦ıà¦ķà¦ľà¦¨":5825,"Ġà¦ªà¦°à¦ľ":5826,"Ġà¦ªà¦°à¦Ľ":5827,"Ġà¦ªà¦°à¦ľà¦¨":5828,"Ġà¦ªà¦°à¦ªà¦ķ":5829,"à¦łà¦ķà¦¬":5830,"à¦łà¦²à¦Ĺ":5831,"Ġà¦ħà¦¨à¦®":5832,"Ġà¦¥à¦ĩ":5833,"Ġà¦Ľà¦ľà¦¨":5834,"Ġà¦²à¦¸à¦¸":5835,"Ġà¦²à¦ĩà§Ł":5836,"Ġà¦¬à¦²à¦¹":5837,"Ġà¦¬à¦²à¦¬à¦¬":5838,"Ġà¦ıà¦ĩà¦¤":5839,"Ġà¦ıà¦ĩà¦¦":5840,"Ġà¦ıà¦ĩà¦°à¦ķ":5841,"Ġà¦§à¦®":5842,"Ġà¦§à¦°à¦®":5843,"Ġà¦§à¦¨à¦ķ":5844,"Ġà¦§à¦¬à¦§à¦¬":5845,"à¦°à¦ķà¦¯":5846,"à¦ŀà¦®":5847,"Ġà¦ıà¦¬à¦Ľà¦°":5848,"à¦ªà¦°à¦¯":5849,"à¦¬à¦°à¦®":5850,"à¦¬à¦°à¦¹":5851,"à¦¬à¦°à¦ŀ":5852,"à¦¬à¦°à¦®à¦£":5853,"Ġà¦«à¦¸":5854,"Ġà¦«à¦Łà¦ķ":5855,"à¦¤à¦°à¦ªà¦¤":5856,"à¦¤à¦°à¦¦à¦ķ":5857,"à¦¤à¦°à¦ĸà¦°":5858,"Ġà¦ĸà¦Łà¦ĸ":5859,"à§İà¦¹":5860,"à§İà¦¸à¦¨":5861,"Ġà¦®à¦¨à¦ĩ":5862,"Ġà¦®à¦¨à¦®à¦°":5863,"Ġà¦ľà¦¨à¦¬à¦²":5864,"Ġà¦ľà¦¨à¦ķà¦ľà¦¨à¦¨":5865,"à¦¤à¦¨à¦¸à¦®":5866,"à¦¯à¦¬à§°":5867,"Ġà¦ĩà¦ª":5868,"Ġà¦ĩà¦¥":5869,"Ġà¦ĩà¦ķà¦²":5870,"Ġà¦ĩà¦¸à¦®":5871,"Ġà¦ĩà¦īà¦ľ":5872,"à¦ªà¦¨à¦¸":5873,"à¦ªà¦¨à¦ĩ":5874,"à¦ªà¦¨à¦ĵ":5875,"ĠĠĠčĊč":5876,"Ġà¦¹à¦²à¦®à¦¹":5877,"à¦ıà¦ķà¦ķ":5878,"Ġà¦ĺà¦°à¦®":5879,"à¦°à¦¬à¦£à¦ķ":5880,"à¦°à¦¬à¦ľà¦¨à¦ķ":5881,"à¦°à¦¬à¦£à¦®":5882,"Ġà¦ķà¦°à¦¤à¦²":5883,"Ġà¦ķà¦°à¦¤à¦²à¦Ĺà¦¤":5884,"à¦¯à¦ķà¦¶":5885,"à¦¯à¦ķà¦Ń":5886,"à¦¯à¦ķà¦°à¦£":5887,"Ġà¦ħà¦¬à¦¬":5888,"à¦·à¦£à¦¤à¦°":5889,"à¦·à¦£à¦¸à¦¹":5890,"à¦īà¦¥":5891,"à¦īà§ľ":5892,"à¦Ŀà¦®":5893,"à¦Ŀà¦°à¦¨":5894,"à¦Ŀà¦Ĺà¦¡":5895,"à¦°à¦¸à¦°à¦¤":5896,"à¦¨à¦¤à¦²":5897,"à¦¨à¦¤à¦ĸà¦¨":5898,"à¦¨à¦¤à¦¤à¦¸":5899,"Ġà¦®à¦¤à¦²à¦¬":5900,"Ġà¦īà¦ªà¦Ĺà¦¤":5901,"Ġà¦īà¦ªà¦²à¦¦":5902,"à¦ķà¦²à¦ľ":5903,"Ġà¦Ĩà¦²à¦ĵà¦¯":5904,"Ġà¦Ĩà¦²à¦®à¦¦":5905,"Ġà¦Ĩà¦²à¦¬à§İ":5906,"Ġà¦®à¦¹à¦¨":5907,"Ġà¦ħà¦¸à¦¤à¦°":5908,"Ġà¦ħà¦Ńà§Ł":5909,"à¦²à¦¨à¦¨":5910,"à¦²à¦¨à¦ļ":5911,"à¦²à¦¨à¦ıà¦ĩ":5912,"à¦²à¦¨à¦¸à¦¬à¦ĩ":5913,"à¦ĺà¦ªà¦¥":5914,"Ġà¦¸à¦¹à¦ľà¦¨":5915,"Ġà¦Łà¦Ĺà¦°":5916,"Ġà¦ħà¦¤à¦ĸ":5917,"à¦¨à¦¬à¦¦à¦°à¦¦":5918,"à¦¨à¦¨à¦¹":5919,"à¦°à¦¹à¦ĩ":5920,"à¦°à¦¹à¦°à¦Ĺ":5921,"à¦¬à¦²à¦°":5922,"à¦¬à¦²à¦¯":5923,"à¦¬à¦²à¦¶":5924,"Ġà¦¹à¦¤à¦¶":5925,"Ġà¦¨à¦¤à¦ľ":5926,"Ġà¦¬à¦¨à¦Ł":5927,"Ġà¦¬à¦¨à¦¬à¦¨":5928,"Ġà¦¬à¦¨à¦ªà¦°":5929,"Ġà¦¬à¦¨à¦«":5930,"à¦§à¦¨à¦°":5931,"à¦§à¦¨à¦¯":5932,"à¦§à¦¨à¦¸":5933,"à¦Ĩà¦ł":5934,"à¦Ĩà¦¸à¦¨":5935,"à¦Ĩà¦ĩà¦ª":5936,"à¦¨à¦ĵà¦ª":5937,"à¦¤à¦¬à¦Ł":5938,"à¦¤à¦¬à¦¶":5939,"à¦¤à¦¬à§İ":5940,"Ġà¦Ĩà¦¤à¦¤":5941,"à¦ķà¦Łà¦¸à¦®":5942,"à¦®à¦£à¦ĵ":5943,"à¦¶à¦¨à¦¦":5944,"Ġà¦łà¦ķà¦¬":5945,"Ġà¦Ĳà¦Ł":5946,"à¦²à¦ķà¦Ĺ":5947,"à¦²à¦¬à¦¸":5948,"Ġà¦ĺà¦Łà¦ķ":5949,"Ġà¦ĺà¦Łà¦®":5950,"Ġà¦ķà¦°à¦¬à¦¦":5951,"Ġà¦ıà¦¸à¦ıà¦®à¦ıà¦¸":5952,"à¦¬à¦¦à¦ķ":5953,"Ġà¦Ĩà¦¨à¦¸":5954,"Ġà¦Ĩà¦¨à¦ļ":5955,"à¦¦à¦¨à¦¸":5956,"à¦¦à¦¨à¦§":5957,"à¦¦à¦¨à¦¸à¦¬à¦ķ":5958,"à¦¦à¦¨à¦¸à¦¹":5959,"à¦ħà¦£":5960,"à¦ħà¦ŀ":5961,"à¦ħà¦¨à¦¨":5962,"à¦ħà¦¬à¦ķ":5963,"à¦Ńà¦¬à¦¬":5964,"à¦¸à¦¨à¦¦":5965,"à§°à¦Ĺ":5966,"à§°à¦¥":5967,"à§°à¦ķà¦²":5968,"Ġà¦ķà¦¬à¦ľ":5969,"à¦·à¦ķà¦ĵ":5970,"Ġà¦ĵà¦łà¦¬":5971,"à¦¬à¦¬à¦¹":5972,"à¦Ĺà¦°à¦Ļ":5973,"Ġà¦ħà¦ªà¦ļ":5974,"Ġà¦ħà¦ªà¦Ń":5975,"Ġà¦ħà¦ªà¦¶à¦ķ":5976,"Ġà¦ħà¦ªà¦¹à¦°à¦£":5977,"à¦ıà¦ĩà¦ļ":5978,"à¦ĩà¦¨à¦ķ":5979,"à¦ļà¦²à¦ļ":5980,"Ġà¦¶à¦¬à¦¶à¦°":5981,"Ġà¦ªà¦¦à¦¦à¦²":5982,"à¦¬à¦ķà¦¸":5983,"à¦®à¦°à¦ľ":5984,"Ġà¦ľà¦²à¦Ľ":5985,"Ġà¦ľà¦²à¦¬à¦¨":5986,"Ġà¦ľà¦²à¦ļà¦ķ":5987,"Ġà¦ľà¦²à¦¦à¦¸":5988,"à¦¤à¦¤à¦ªà¦ķ":5989,"à§Łà¦¨à¦¶":5990,"à§Łà¦¨à¦ıà¦¸à¦¬":5991,"Ġà¦Ńà¦¬à¦Ń":5992,"Ġà¦Ńà¦¬à¦Ĺà¦°":5993,"à¦¨à¦¸à¦Ļ":5994,"Ġà¦Ĺà¦°à¦ľ":5995,"à¦°à¦²à¦¸à¦Ń":5996,"Ġà¦¸à¦ļà¦ķ":5997,"à¦°à¦ªà¦Ł":5998,"à¦°à¦ªà¦¤à¦¨":5999,"Ġà¦¶à¦¤à¦§":6000,"à¦°à¦ľà¦¯":6001,"à¦°à¦ľà¦°à¦®à¦£":6002,"à¦Łà¦ķà¦¸à¦¬":6003,"à¦īà¦²à¦¸":6004,"à¦īà¦²à¦ªà¦¨":6005,"à¦īà¦²à¦«à¦ķ":6006,"Ġà¦¸à¦¹à¦ľà¦¤à¦®":6007,"Ġà¦ħà¦ķà¦®":6008,"à¦ªà¦¸à¦¹":6009,"Ġà¦Ĺà¦Ńà¦°":6010,"à¦¯à¦ªà¦²":6011,"à¦¹à¦¨à¦ª":6012,"à¦¹à¦¨à¦¶":6013,"à¦¹à¦¨à¦Ĺ":6014,"à¦ľà¦ķà¦¦":6015,"à¦ľà¦ķà¦¶":6016,"Ġà¦Ĩà¦¦à¦¬":6017,"Ġà¦Ĩà¦¦à¦¬à¦ķ":6018,"Ġà¦Ĩà¦¦à¦°à¦¯à¦¤":6019,"Ġà¦Ĺà¦£à¦ª":6020,"Ġà¦Ĺà¦¤à¦¯":6021,"à¦°à¦®à¦£à¦¬":6022,"à¦°à¦®à¦£à¦¸":6023,"à¦¹à¦°à¦£à¦Ł":6024,"à¦ķà¦°à¦£à¦¬":6025,"à¦ķà¦°à¦£à¦ĵ":6026,"Ġà¦¶à¦¹à¦°à¦ª":6027,"à¦łà¦ķà¦¸":6028,"à¦łà¦ķà¦ĵ":6029,"à¦łà¦ķà¦¦à¦°":6030,"à§İà¦¸à¦ĩ":6031,"Ġà¦īà§İà¦¸à¦Ĺ":6032,"Ġà¦¬à¦ĩà¦ĵ":6033,"Ġà¦¬à¦ĩà¦ªà¦¡":6034,"Ġà¦¨à¦¬à¦ļ":6035,"Ġà¦¨à¦¬à¦ªà¦°":6036,"Ġà¦ħà¦²à¦®":6037,"à¦®à¦²à¦¸":6038,"à¦¯à¦¯à¦ľ":6039,"à¦¨à¦¦à¦¶":6040,"à¦°à¦Ĺà¦Ļ":6041,"Ġà¦ªà¦°à¦®à¦¶":6042,"à§Łà¦¤à¦ĩ":6043,"à¦Ĺà¦®à§Ł":6044,"à¦ķà¦¸à¦¤":6045,"à¦¨à¦Ĺà¦Ļ":6046,"Ġà¦īà§İà¦¸à¦¬à¦®à¦£":6047,"à¦®à¦°à¦£à¦¯":6048,"Ġà¦°à¦¸à¦¤":6049,"Ġà¦°à¦¸à¦¤à¦¤":6050,"à¦¡à¦²à¦Ĺ":6051,"à¦¨à§Łà¦¨à¦¯":6052,"à¦¨à§Łà¦¨à¦ĩ":6053,"Ġà¦Ĩà¦ªà§İà¦ķ":6054,"Ġà¦¨à¦Ĺà¦°à¦ª":6055,"Ġà¦¨à¦Ĺà¦°à¦ľ":6056,"à¦¦à§Łà¦Ł":6057,"Ġà¦Ĩà¦ļà¦°à¦£à¦Ł":6058,"Ġà¦Ĩà¦ļà¦°à¦£à¦ĵ":6059,"à¦¨à¦Ńà¦¯":6060,"à¦²à¦¸à¦¹":6061,"à¦²à¦¸à¦ıà¦°":6062,"Ġà¦¦à¦¶à¦¦":6063,"Ġà¦¦à¦¶à¦ªà¦¨":6064,"à¦ıà¦ķà¦¸à¦Ļ":6065,"à¦Łà¦¬à¦ĩ":6066,"à¦°à¦°à¦Ļ":6067,"à¦ĸà¦ķà¦ª":6068,"à¦ĸà¦ķà¦¸à¦®":6069,"Ġà¦¸à§İà¦¬":6070,"à¦²à¦Ĺà¦ŀ":6071,"Ġà¦ħà¦¬à¦¦à¦®":6072,"à¦®à¦¶à¦ķà¦°":6073,"ĠĠĠĠĠĠĠĠĠĠĠĠĠĠĠĠĠĠĠĠĠĠ":6074,"ĠĠĠĠĠĠĠĠĠĠĠĠĠĠĠĠĠĠĠĠĠĠĠ":6075,"Ġà¦®à¦ľà¦¹":6076,"à¦¬à¦ľà¦¨à¦®":6077,"Ġà¦ĺà¦¨à¦ĺà¦Ł":6078,"Ġà¦¬à§ľà¦ĩ":6079,"Ġà¦®à¦¨à¦¨à¦®":6080,"Ġà¦®à¦¨à¦¨à¦ļà¦°":6081,"à¦¨à¦®à¦¥":6082,"à¦¨à¦®à¦ŀ":6083,"Ġà¦ķà¦ļà¦¸":6084,"Ġà¦ħà¦Łà¦²à¦Ń":6085,"à¦°à¦¬à¦²à¦¤à¦°":6086,"Ġà¦Ķà¦°":6087,"Ġà¦Ķà§İà¦¸":6088,"à¦®à¦ļà¦Ł":6089,"à§Ŀà¦ª":6090,"à§Ŀà¦Ń":6091,"à§«à§¨":6092,"à¦Ĺà¦ľà¦ķà¦²à¦®":6093,"à¦Ĩà¦°à¦Ĩà¦ĩ":6094,"Ġà¦Ĭà¦¹à¦Ĺ":6095,"Ġà¦¤à¦²à¦¦":6096,"à¦¸à¦Ńà¦¬à¦¨":6097,"à¦Ĺà¦°à¦£à¦ķ":6098,"à¦°à¦«à§İ":6099,"à¦ĭà¦Ĺà¦¬":6100,"à§©à§Ń":6101,"à¦¦à¦¸à¦ŀ":6102,"ĠĠčĊčĊ":6103,"à§ªà§§":6104,"à§ªà§ª":6105,"à¦¸à¦«à¦²à¦¤":6106,"à¦¬à¦²à¦¤à¦®":6107,"à¦¨à¦ļà¦ļ":6108,"à¦¨à¦¸à¦®à¦¸":6109,"à¦Ĺà¦®à¦¨à¦ıà¦¸à¦¬":6110,"à¦£à¦ªà¦¶":6111,"Ġà¦Ĩà§Łà¦¤à¦¨":6112,"Ġà¦ļà¦Łà¦ľà¦²à¦¦":6113,"à¦¨à¦Ĩà¦²":6114,"ĠĠĠčĊĠĠč":6115,"Ġà¦¦à¦ĸà¦²à¦¦":6116,"à§®à§¦":6117,"à§®à§©":6118,"à¦ıà¦ĸà¦¨à¦ĩ":6119,"Ġà§«à§Ń":6120,"Ġà§ªà§¦à§¦":6121,"Ġà¦ķà§Łà¦Ł":6122,"Ġà¦¨à¦°à¦ļà¦¨":6123,"ĠĠĠĠĠĠĠĠĠĠĠĠĠĠĠĠĠĠĠĠĠĠĠĠĠĠĠĠĠĠĠĠĠĠĠĠĠĠĠĠĠĠĠĠĠĠĠĠĠĠĠĠĠĠĠĠ":6124,"à¦¨à¦ħà¦®":6125,"à¦¨à¦ħà¦¦":6126,"à¦¨à¦ħà¦ªà¦®":6127,"à¦īà§İà¦¸à¦¬à¦Ĩà¦ļ":6128,"Ġà¦¨à¦Ĺà¦°à¦¸":6129,"à¦¯à¦ĸà¦¨à¦ĩ":6130,"à§¦à§¦à§¦":6131,"Ġà¦ľà§ľà¦¬":6132,"Ġà¦¬à¦°à¦«à¦ª":6133,"à¦°à¦Ĩà¦ļ":6134,"à¦¨à¦ĸà¦ļ":6135,"à¦¸à¦ķà¦²à¦ĩ":6136,"Ġà§§à§¯à§ªà§®":6137,"Ġà§§à§©à§Ń":6138,"à¦®à¦ĺà¦Ł":6139,"Ġà¦°à¦£à¦ļà¦£":6140,"à§¯à§®":6141,"Ġà¦Ĩà§ľà¦®":6142,"Ġà§¨à§¦à§§à§©":6143,"à¦£à¦ļà¦ŀ":6144,"à¦¨à¦¡à¦°":6145,"à§·à§·":6146,"à¦ļà¦¦à¦¶à¦·":6147,"Ġà§§à§¯à§©à§¦":6148,"Ġà§§à§¯à§©à§§":6149,"Ġà§§à§¯à§©à§ª":6150,"Ġà¦ķà¦¤à¦¬à¦¡":6151,"ĠĠĠĠĠĠĠĠĠĠĠĠĠĠĠĠĠĠĠĠĠĠĠĠĠ":6152,"Ġà¦¨à¦¬à¦°à¦¸":6153,"âĢĥ":6154,"à¦¯à¦Łà¦ķà¦¦":6155,"Ġà¦Łà¦²à¦·":6156,"à¦¸à§İà¦¤":6157,"Ġà¦¬à¦Ľà¦°à¦ķ":6158,"Ġà¦¬à¦Ľà¦°à¦ĵ":6159,"Ġà¦īà¦ĩà¦²à¦¸à¦¨":6160,"Ġà¦Ĩà¦īà¦²à¦ļ":6161,"Ġà¦Ĩà¦īà¦Łà¦¡":6162,"à§°à¦¦à§°":6163,"Ġà¦·à¦Łà¦ļà¦ķ":6164,"à¦¨à¦¸à¦ªà¦Łà¦ķ":6165,"à¦ĩà¦īà¦¤à¦°":6166,"Ġà¦ıà¦Ĩà¦ĩà¦Ń":6167,"à¦ĩà¦¨à¦«à¦°à¦®":6168,"à¦®à¦¦à¦®à¦¤à¦ªà¦¸":6169,"Ġà¦Ĩà¦ĩà¦ķà¦¨":6170,"Ġà¦Ĩà¦°à¦¬à¦ĩà¦ľà¦°":6171,"à¦¦à¦ħà¦ªà¦Ľà¦¨":6172,"Ġà¦®à¦Īà¦¨":6173,"Ġà¦ĸà¦Łà¦ĸà¦Ł":6174,"à¦°à¦ıà¦ķ":6175,"à¦°à¦Ĩà¦°":6176,"à¦°à¦Ĩà¦ķ":6177,"à¦°à¦īà¦Ńà¦¯":6178,"à¦¨à¦¤à¦¨":6179,"à¦¨à¦°à¦¬":6180,"à¦¨à¦°à¦¸":6181,"à¦¨à¦¨à¦¤":6182,"à¦¨à¦¯à¦¤":6183,"à¦¨à¦§à¦¨":6184,"à¦¨à¦²à¦¬":6185,"à¦¨à¦°à¦ľ":6186,"à¦¨à¦¹à¦²":6187,"à¦¨à¦Ľà¦¤":6188,"à¦¨à¦ľà¦ª":6189,"à¦¨à¦īà¦°":6190,"à¦¨à¦ĸà¦¯":6191,"à¦¨à¦Ĳà¦¶":6192,"à¦¤à§ľ":6193,"à¦¤à¦¤à¦¬":6194,"à¦¤à¦¹à¦¸":6195,"à¦¤à¦§à¦°":6196,"à¦¤à¦¸à¦Ļ":6197,"à¦¤à¦Ĺà¦¬":6198,"à¦¤à¦¸à¦¤":6199,"à¦¤à¦¶à¦¯":6200,"à¦¤à¦ıà¦ķà¦Ł":6201,"à¦¤à¦¹à¦¬":6202,"à¦¤à¦Ĳà¦¤":6203,"à¦¤à¦Ĩà¦Ĺ":6204,"à¦¤à¦ĭà¦¤":6205,"à¦¯à¦ĺ":6206,"à¦¯à¦Ńà¦¬":6207,"à¦¯à¦Ľà¦¨":6208,"à¦¯à¦«à¦²":6209,"à¦¯à¦ľà¦°":6210,"à¦¯à¦ľà¦¯":6211,"à¦ķà¦Ĩ":6212,"à¦ķà¦Ĩà¦®":6213,"à¦ķà¦ıà¦ķ":6214,"à¦ķà¦ĺà¦°":6215,"à¦ķà¦¬à¦¦à¦²":6216,"à¦¬à¦ı":6217,"à¦¬à¦ī":6218,"à¦¬à¦£à¦ķ":6219,"à¦¬à¦Ĺà¦łà¦¨":6220,"à¦¬à¦īà¦¨":6221,"à¦¬à¦ıà¦Ł":6222,"à¦¬à¦ħà¦°":6223,"à¦¬à¦ħà¦ª":6224,"à¦²à¦·":6225,"à¦²à¦£":6226,"à¦²à¦°à¦¸":6227,"à¦²à¦¦à¦°":6228,"à¦²à¦²à¦ķ":6229,"à¦²à¦ħ":6230,"à¦²à¦ļà¦ķ":6231,"à¦²à¦®à¦Ĺ":6232,"à¦²à¦ħà¦¨":6233,"à¦²à¦ĸà¦£":6234,"à¦²à¦ıà¦Ł":6235,"à¦²à¦ħà¦°":6236,"à¦®à¦²à¦¬":6237,"à¦®à§°":6238,"à¦®à¦Ĺà¦°":6239,"à¦®à¦ıà¦Ł":6240,"à¦®à¦Ĩà¦²":6241,"à¦®à¦īà¦²à¦®":6242,"Ġà¦¸à¦ľà¦¨":6243,"Ġà¦¸à¦Ĺà¦¨":6244,"Ġà¦¸à§İà¦¸":6245,"Ġà¦¸à¦²à¦Ļ":6246,"Ġà¦¸à¦ĵà¦Ĺ":6247,"Ġà¦ķà¦¨à¦ķ":6248,"Ġà¦ķà¦ĩà¦°":6249,"Ġà¦ķà¦¦à¦²":6250,"Ġà¦¬à¦°à¦ķ":6251,"Ġà¦¬à¦īà¦Ł":6252,"Ġà¦ªà¦®":6253,"Ġà¦ªà¦¢":6254,"Ġà¦ªà§Łà¦²":6255,"à¦¦à¦¥":6256,"à¦¦à¦ľà¦¨":6257,"à¦¦à¦¨à¦¤":6258,"à¦¦à¦ķà¦²":6259,"à¦¦à¦¯à¦¨":6260,"à¦¦à¦ĸà¦²":6261,"à¦¦à¦¤à¦²":6262,"à¦¦à§Łà¦¤":6263,"à¦¦à¦ıà¦°":6264,"à¦¦à¦īà¦¦":6265,"à¦¦à¦Ĩà¦²":6266,"à¦¦à¦ľà¦Ĺà§İ":6267,"à¦¦à¦¨à¦¤à¦¤":6268,"à¦¸à¦®à¦¤":6269,"à¦¸à¦Ĩ":6270,"à¦¸à¦¨à¦ĵ":6271,"à¦¸à¦¸à¦®":6272,"à¦¸à¦ĵà§Ł":6273,"à¦¸à§İà¦ķ":6274,"à¦¸à¦Ńà¦Ļ":6275,"à§Ģà¦¾":6276,"Ġà¦Ĩà¦ĩà¦ľ":6277,"à¦ĩà¦¬à¦°":6278,"à¦ĩà¦®à¦¤":6279,"à¦ĩà¦ªà¦£":6280,"à¦ĩà¦¸à¦®à¦¯":6281,"à¦ĩà¦Ĩà¦°":6282,"à¦ĩà¦¶à¦Ł":6283,"à¦ĩà¦Ĩà¦®à¦°":6284,"à¦ĩà¦Ĩà¦¤":6285,"à¦·à¦·":6286,"à¦·à¦ı":6287,"à¦·à¦¹à¦°":6288,"à¦·à¦¸à¦ķ":6289,"à¦·à¦°à¦Ł":6290,"à¦·à¦ªà¦£":6291,"à¦ªà¦¬à¦¨":6292,"à¦ªà¦®à¦¨":6293,"à¦ªà¦¤à¦°":6294,"à¦ªà¦ı":6295,"à¦ªà¦¯à¦¨":6296,"à¦ªà¦§à¦°":6297,"à¦ªà¦ļà¦ķ":6298,"à¦ªà¦¶à¦¬":6299,"à¦ªà¦¥à¦ķ":6300,"à¦ªà¦Ńà¦¯":6301,"à¦ªà¦¸à¦®à¦¯":6302,"à¦ªà§Łà¦¸":6303,"Ġà¦®à¦ĩ":6304,"Ġà¦®à¦Ŀ":6305,"Ġà¦®à¦Ĺà¦¨":6306,"Ġà¦®à¦¤à¦¨à¦ĩ":6307,"Ġà¦¨à¦¨à¦¸":6308,"Ġà¦¨à¦¬à¦¶":6309,"Ġà¦¨à¦²à¦ĸ":6310,"à¦Łà§Ł":6311,"à¦Łà¦Ĩ":6312,"à¦Łà¦®à¦¹":6313,"à¦Łà¦¸à¦¹":6314,"à¦Łà¦Ĩà¦¨à¦¨":6315,"à¦Łà¦ªà¦¤à¦Ļ":6316,"Ġà¦ıà¦§":6317,"Ġà¦ıà¦ŀ":6318,"Ġà¦ıà¦ªà¦°":6319,"Ġà¦ıà¦¸à¦®":6320,"Ġà¦ıà¦²à¦ķ":6321,"Ġà¦ıà¦¨à¦ķ":6322,"Ġà¦ıà¦°à¦®à¦§":6323,"à¦ľà¦°à¦ķ":6324,"à¦ľà¦ŀ":6325,"à¦ľà¦¬à¦°":6326,"à¦ľà¦Ĩ":6327,"à¦ľà¦®à¦£":6328,"à¦ľà¦ļà¦ķ":6329,"à¦ľà¦Ĺà¦łà¦¨":6330,"à¦ľà¦ĺà¦¨":6331,"à¦ľà¦ªà¦°à¦®":6332,"à¦¶à¦ĸ":6333,"à¦¶à¦ķà¦²":6334,"à¦¶à¦¬à¦¸":6335,"Ġà¦¤à¦Ł":6336,"Ġà¦¤à¦ļ":6337,"à¦Ĺà¦¤à¦°":6338,"à¦Ĺà¦ªà¦¨":6339,"à¦Ĺà¦¦à¦°":6340,"à¦Ĺà¦¬à¦¦":6341,"à¦Ĺà§°":6342,"à¦Ĺà¦ļà¦°":6343,"à¦Ĺà¦łà¦ķ":6344,"à¦Ĺà¦ıà¦°":6345,"à¦Ĺà¦īà¦ļ":6346,"Ġà¦¦à¦ıà¦¬":6347,"Ġà¦¦à¦®à¦¶":6348,"Ġà¦¦à¦ĩà¦ª":6349,"Ġà¦ħà¦°à¦ķ":6350,"Ġà¦ħà¦¶à¦¨":6351,"Ġà¦ħà¦¶à¦ķ":6352,"à¦§à¦£":6353,"à¦§à¦¨à¦¤":6354,"à¦§à¦ªà¦¤":6355,"à¦§à¦¬à¦ª":6356,"à¦§à¦¬à¦ķ":6357,"à¦§à¦¸à¦¹":6358,"à¦§à¦ªà¦°à¦¬à¦°":6359,"Ġà¦¹à¦°à¦¹":6360,"Ġà¦¹à¦°à¦²":6361,"à¦Ľà¦ľ":6362,"à¦Ľà¦§à¦°":6363,"à¦Ľà¦ķà¦ĩ":6364,"à¦£à¦ĸ":6365,"à¦£à¦ªà¦¤":6366,"à¦£à¦¹à¦°":6367,"à¦£à¦¸à¦¤":6368,"à¦£à¦Ńà¦°":6369,"à¦¹à¦ªà¦°":6370,"à¦¹à¦°à¦¸":6371,"à¦¹à¦°à¦ĵ":6372,"à¦¹à¦®à¦¸":6373,"à¦¹à¦ķà¦¦":6374,"à¦¹à¦ķà¦ķ":6375,"Ġà¦¯à¦¡":6376,"Ġà¦ķà¦°à¦ľ":6377,"Ġà¦ķà¦°à¦¬à¦¤":6378,"à¦ļà¦ĵ":6379,"à¦ļà¦¤à¦¨":6380,"à¦ļà¦°à¦¨":6381,"à¦ļà¦®à¦°":6382,"à¦ļà¦¶à¦¬":6383,"à¦ļà¦Ľà¦¯":6384,"à¦¥à¦Ļ":6385,"à¦¥à¦¸à¦¬":6386,"à¦¥à¦¦à¦°":6387,"à¦¥à¦¸à¦¨":6388,"à¦¥à¦¨à¦ķ":6389,"à¦¥à¦°à¦Ĺ":6390,"à¦¥à¦²à¦Ń":6391,"à¦ĸà¦®à¦¯":6392,"Ġà¦¶à¦Ł":6393,"Ġà¦¶à¦ľ":6394,"Ġà¦¶à¦ĵ":6395,"Ġà¦¶à¦¤à¦®":6396,"Ġà¦¶à¦®à¦¦à¦®à¦¤à¦ªà¦¸":6397,"à¦Ńà¦°à¦ķ":6398,"à¦Ńà¦°à¦¸":6399,"à¦Ńà¦¶à¦ķ":6400,"Ġà¦Ĺà¦°à¦¬":6401,"Ġà¦Ĺà¦¤à¦¬":6402,"Ġà¦Ĺà¦ľà¦¬":6403,"Ġà¦Ĺà¦ľà¦²":6404,"Ġà¦ľà¦®à¦¬":6405,"à¦¡à¦¯":6406,"à¦¡à¦ĸ":6407,"à¦¡à¦²à¦¬":6408,"à¦¡à¦¬à¦ľ":6409,"à¦¡à¦¬à¦ªà¦ķ":6410,"à§Łà¦²à¦¬":6411,"à§Łà¦ħà¦¨":6412,"à§Łà¦ķà¦¨":6413,"à§Łà¦¶à¦ĩ":6414,"à¦ĵà¦®":6415,"à¦ĵà¦ľ":6416,"Ġà¦Ńà¦°à¦¬":6417,"Ġà¦Ńà¦¬à¦¦":6418,"Ġà¦Ńà¦ľà¦¤":6419,"Ġà¦°à¦ĵà¦¯":6420,"Ġà¦°à¦®à¦ľ":6421,"Ġà¦°à¦£à¦Ń":6422,"Ġà¦°à¦¦à¦¬à¦¦":6423,"Ġà¦ļà§°":6424,"Ġà¦īà¦¨à¦¬":6425,"Ġà¦īà¦¶à¦¨":6426,"Ġà¦ĵà§ľ":6427,"Ġà¦ĵà¦ªà¦¥":6428,"Ġà¦Ĩà¦®à¦Ł":6429,"Ġà¦Ĩà¦®à¦°à¦£":6430,"Ġà¦¸à¦®à¦ª":6431,"Ġà¦ıà¦ķà¦ķà¦°":6432,"à¦Ļà¦Ĺ":6433,"Ġà¦ªà¦°à¦®à¦¤à¦¤":6434,"à¦°à¦¤à¦ĩ":6435,"à¦°à¦¤à¦ĸ":6436,"à¦łà¦²":6437,"à¦łà¦ļ":6438,"à¦łà¦ĸ":6439,"à¦łà¦ªà¦°":6440,"à¦łà¦¨à¦ķ":6441,"à¦łà¦Ĺà¦¡":6442,"Ġà¦ħà¦¨à§ľ":6443,"à¦¬à¦¨à¦²":6444,"à¦¬à¦¨à¦°à¦¸":6445,"à¦¬à¦¨à¦¸à¦¨":6446,"à¦¬à¦¨à¦Ńà¦°":6447,"à¦°à¦£à¦§":6448,"à¦°à¦£à¦Ĺà¦¤":6449,"à¦°à¦£à¦ıà¦ĩ":6450,"Ġà¦²à¦ĩ":6451,"Ġà¦²à¦¹":6452,"Ġà¦²à¦ĵ":6453,"Ġà¦²à¦¬à¦¨":6454,"Ġà¦²à¦¬à¦Ļ":6455,"Ġà¦¬à¦²à¦¨":6456,"Ġà¦¬à¦²à¦¬à¦¦":6457,"Ġà¦ıà¦ĩà¦¸à¦Ļ":6458,"Ġà¦ıà¦ĩà¦¸à¦®à¦¯":6459,"Ġà¦§à¦¬à¦²":6460,"à¦°à¦ķà¦¬":6461,"à¦ŀà¦¤à¦¤":6462,"à¦ŀà¦¦à¦ķ":6463,"à¦ªà¦°à¦Ń":6464,"à¦ľà¦¨à¦¸à¦®":6465,"à¦ľà¦¨à¦Ĺà¦¨":6466,"à¦¬à¦°à¦ªà¦²":6467,"à¦®à¦¨à¦®":6468,"à¦®à¦¨à¦¶":6469,"à¦®à¦¨à¦ªà¦°":6470,"à¦ĸà¦¨à¦ª":6471,"à¦ĸà¦¨à¦ĵ":6472,"Ġà¦«à¦ľà¦²":6473,"à¦¤à¦°à¦°":6474,"à¦¤à¦°à¦ľ":6475,"à¦¤à¦°à¦§":6476,"Ġà¦ĸà¦ļ":6477,"Ġà¦ĸà¦Ļ":6478,"à§İà¦«":6479,"Ġà¦®à¦¨à¦¬":6480,"Ġà¦®à¦¨à¦¶":6481,"Ġà¦®à¦¨à¦®à¦¤":6482,"Ġà¦®à¦¨à¦¨à¦Ń":6483,"Ġà¦ľà¦¨à¦ķà¦²":6484,"à¦¤à¦¨à¦¸":6485,"à¦¤à¦¨à¦§":6486,"à¦¤à¦¨à¦¤à¦°":6487,"à¦¤à¦¨à¦ıà¦¸à¦¬à¦ĩ":6488,"à¦¤à¦¨à¦¸à¦¹":6489,"à¦¤à¦¨à¦ľà¦ĺà¦¨":6490,"Ġà¦ĩà¦¬à¦¨":6491,"Ġà¦ĩà¦ĵà§Ł":6492,"Ġà¦ĩà¦Łà¦Ĺ":6493,"Ġà¦ĩà¦ĵà¦°":6494,"Ġà¦ĩà¦īà¦¸":6495,"Ġà¦ĩà¦īà¦ª":6496,"à¦ªà¦¨à¦¬":6497,"à¦ªà¦¨à¦¦":6498,"à¦ªà¦¨à¦ıà¦¸à¦¬":6499,"Ġà¦¹à¦²à¦ĩ":6500,"Ġà¦¹à¦²à¦Ń":6501,"Ġà¦¹à¦²à¦ı":6502,"Ġà¦¹à¦²à¦¸à¦®":6503,"Ġà¦¹à¦²à¦Ĩà¦®":6504,"Ġà¦¹à¦²à¦ıà¦ķ":6505,"Ġà¦¹à¦²à¦Ĩà¦®à¦°":6506,"à¦ıà¦¤à¦ķ":6507,"à¦ıà¦«à¦¸":6508,"Ġà¦ĺà¦¨à¦¬à¦¸à¦¤":6509,"à¦°à¦®à¦²":6510,"à¦°à¦®à¦ŀ":6511,"à¦°à¦®à¦ķà¦°":6512,"à¦°à¦®à¦®à¦¹":6513,"à¦°à¦®à¦īà§İà¦ª":6514,"à¦°à¦¬à¦¯":6515,"à¦°à¦¬à¦®":6516,"à¦°à¦¬à¦ĩ":6517,"à¦°à¦¬à¦¶":6518,"à¦°à¦¬à¦²à¦¤":6519,"à¦¯à¦ķà¦¨":6520,"à¦¸à¦¬à¦¸":6521,"à¦¸à¦¬à¦§":6522,"à§ľà¦Ĺ":6523,"à¦·à¦£à¦°":6524,"à¦·à¦£à¦¤à¦¤":6525,"à¦·à¦£à¦§à¦°":6526,"à¦·à¦£à¦Ńà¦Ļ":6527,"à¦·à¦£à¦¸à¦¬à¦ķ":6528,"à¦«à¦ıà¦°":6529,"à¦īà¦²à¦¨":6530,"à¦īà¦ªà¦¦":6531,"à¦īà¦Łà¦¨":6532,"à¦īà¦¸à¦¬à¦ĩ":6533,"à¦īà¦ªà¦¯":6534,"à¦īà¦ªà¦¶":6535,"à¦Ŀà¦²à¦ķ":6536,"à¦°à¦¸à¦¦":6537,"à¦°à¦¸à¦ľ":6538,"à¦Ĺà¦¤à¦¤":6539,"à¦Ĺà¦¤à¦¬":6540,"à¦Ĺà¦¤à¦ĵ":6541,"Ġà¦¬à¦°à¦ĸ":6542,"à¦¬à¦¤à¦ķ":6543,"à¦¬à¦¤à¦ĵ":6544,"à¦¬à¦¤à¦°à¦£":6545,"à¦¨à¦¤à¦¤à¦¨":6546,"Ġà¦īà¦¦à¦°à¦¸":6547,"à¦ķà¦¤à¦¦":6548,"Ġà¦īà¦ªà¦®à¦¨":6549,"Ġà¦īà¦ªà¦¸à¦®":6550,"Ġà¦īà¦ªà¦°à¦¤à¦²":6551,"à¦ķà¦²à¦¤":6552,"à¦ķà¦²à¦¬":6553,"Ġà¦Ĩà¦²à¦«":6554,"à¦ļà¦¨à¦ĵ":6555,"à¦ĺà¦¯":6556,"à¦ĺà¦Ĺ":6557,"à¦ĺà¦Ń":6558,"à¦ĺà¦°à¦Ł":6559,"à¦ĺà¦°à¦Ĺ":6560,"Ġà¦¸à¦¹à¦¤":6561,"Ġà¦Łà¦Ļ":6562,"Ġà¦Łà¦ªà¦¨":6563,"Ġà¦Łà¦¨à¦ķ":6564,"Ġà¦Łà¦ĩà¦Ł":6565,"Ġà¦Łà¦¨à¦Łà¦¨":6566,"à¦®à¦¤à¦ĩ":6567,"Ġà¦ħà¦¤à¦¶à¦¤":6568,"à¦¨à¦¬à¦¬à¦¨":6569,"à¦¨à¦¬à¦ħà¦¨":6570,"à¦¨à¦¬à¦¶à¦°":6571,"à¦¦à¦°à¦Ł":6572,"à¦°à¦¥à¦Ń":6573,"à¦²à¦¤à¦¬":6574,"Ġà¦¬à¦¸à¦¨à¦Ń":6575,"à¦¯à¦¤à¦ļ":6576,"à¦¬à¦²à¦ļ":6577,"Ġà¦¡à¦«":6578,"Ġà¦ķà¦°à¦²à¦¬":6579,"Ġà¦¬à¦¨à¦ķ":6580,"Ġà¦¬à¦¨à¦Ĺ":6581,"à¦§à¦¨à¦°à¦¤":6582,"à¦§à¦¨à¦¯à¦ľ":6583,"à¦ķà¦°à¦²":6584,"à¦ķà¦°à¦Ł":6585,"à¦ķà¦°à¦ļ":6586,"à¦ķà¦°à¦ĵ":6587,"à¦°à¦¨à¦Ĺà¦°":6588,"à¦Ĩà¦Ļ":6589,"à¦Ĩà¦ŀ":6590,"à¦Ĩà¦ĸà¦¡":6591,"à¦°à¦¶à¦¯":6592,"à¦¨à¦ĵà¦Ĺà¦¤":6593,"à¦°à¦¦à¦¸":6594,"à¦°à¦¦à¦¶":6595,"Ġà¦ªà¦¥à¦°":6596,"Ġà¦ªà¦¥à¦¹":6597,"Ġà¦ªà¦¥à¦ªà¦°":6598,"à¦°à¦¥à¦®à¦ª":6599,"à¦ķà¦Łà¦ª":6600,"à¦¶à¦¨à¦ıà¦°":6601,"à¦¶à¦¨à¦¸à¦¬à¦ĩ":6602,"à¦¶à¦¨à¦¸à¦¬à¦ķ":6603,"Ġà¦¬à¦²à¦²à¦ķ":6604,"à¦¯à¦®à¦¸":6605,"à¦¯à¦®à¦Ĺ":6606,"à¦¸à¦®à¦°":6607,"à¦¸à¦®à¦ŀ":6608,"Ġà¦Ĳà¦ļ":6609,"à¦²à¦¬à¦¶":6610,"à¦²à¦¬à¦¦à¦²":6611,"Ġà¦¬à¦¹à¦¤":6612,"Ġà¦¬à¦¹à¦°à¦®à¦ª":6613,"à¦ªà¦¤à¦®":6614,"Ġà¦«à¦²à¦Ń":6615,"à¦¬à¦ªà¦Ł":6616,"ĠĠĠĠčĊč":6617,"Ġà¦Ĩà¦¨à¦²à¦ķ":6618,"Ġà¦īà§İà¦ķà¦²":6619,"Ġà§¦":6620,"à¦ħà¦®à¦¨":6621,"à¦ħà¦¬à¦¤":6622,"à¦ħà¦ªà¦¤":6623,"à¦ħà¦ªà¦®":6624,"à¦ħà¦¸à¦¹":6625,"à¦ħà¦¬à¦¹":6626,"à¦ħà¦¥à¦°":6627,"à¦Ńà¦¬à¦¯":6628,"à¦¸à¦¨à¦¯":6629,"à¦¸à¦¨à¦®":6630,"à¦¸à¦¨à¦Ĺ":6631,"à§°à¦ľà¦¨":6632,"à§°à¦Ĺà¦¤":6633,"à§°à¦®à¦¶":6634,"Ġà¦Ĩà¦§à¦ĸ":6635,"à¦·à¦ķà¦ľ":6636,"à¦·à¦ķà¦¸à¦®":6637,"à¦·à¦ķà¦®à¦ľ":6638,"à¦Ĺà¦°à¦ļ":6639,"à¦¤à¦®à¦Ń":6640,"à¦¤à¦®à§Ł":6641,"Ġà¦Ŀà¦°à¦²":6642,"à¦·à¦¤à¦¤":6643,"à¦·à¦¤à¦²":6644,"Ġà¦ħà¦ªà¦¶à¦¬":6645,"à¦ıà¦ĩà¦ļà¦¡":6646,"à¦ĩà¦¨à¦ľ":6647,"à¦Ĺà¦²à¦°":6648,"à¦Ĺà¦²à¦ĩ":6649,"à¦Ĺà¦²à¦Ń":6650,"à¦Ĺà¦²à¦®à¦¯":6651,"à¦¶à¦ķà¦®":6652,"à¦¨à¦ķà¦¬":6653,"Ġà¦ªà¦¦à¦®":6654,"Ġà¦ªà¦¦à¦ĵ":6655,"Ġà¦ĩà¦¨à¦Ń":6656,"à¦ªà¦ķà¦¬":6657,"à¦ªà¦ķà¦ĩ":6658,"à¦°à¦¹à¦£à¦ĵ":6659,"à¦°à¦¹à¦£à¦§à¦°":6660,"à¦°à¦¹à¦£à¦ıà¦¸à¦¬":6661,"à¦¤à¦ķà¦¨":6662,"à¦¤à¦ķà¦¬":6663,"à¦¤à¦ķà¦ª":6664,"à¦¤à¦ķà¦Ĺ":6665,"à¦¤à¦ķà¦¡":6666,"Ġà¦¶à¦°à¦¬à¦°":6667,"Ġà¦ľà¦²à¦ĸ":6668,"Ġà¦ľà¦²à¦ľà¦¨":6669,"Ġà¦ľà¦²à¦Ľà¦¬":6670,"Ġà¦ľà¦²à¦¤à¦°à¦Ļ":6671,"à¦¬à¦¸à¦ķà¦²":6672,"à¦¯à¦¸à¦¦":6673,"à¦¯à¦¸à¦¹à¦¯":6674,"à¦¯à¦¦à¦ķ":6675,"à¦§à¦ķà¦ľ":6676,"à¦§à¦ķà¦ĵ":6677,"à¦°à¦ľà¦¨à¦ķ":6678,"Ġà¦¨à§Łà¦ª":6679,"à¦¨à¦¸à¦ķà¦²":6680,"à¦¥à¦¨à¦¦à¦£":6681,"Ġà¦¯à¦¤à¦Ĺ":6682,"à¦°à¦²à§Ł":6683,"à¦°à¦ªà¦¯":6684,"à¦°à¦ªà¦¶":6685,"Ġà¦¶à¦¤à¦¶à¦¤":6686,"à¦°à¦ľà¦ª":6687,"Ġà¦ĺà¦°à¦Ľ":6688,"Ġà¦ĺà¦°à¦ĸ":6689,"à¦Łà¦ķà¦¶":6690,"à¦Łà¦ķà¦Ĺ":6691,"à¦Łà¦ķà¦ĵ":6692,"à¦īà¦²à¦²":6693,"à¦īà¦²à¦ª":6694,"à¦¼à§ģà¦ĥ":6695,"Ġà¦ķà¦¤à¦°à¦ķà¦®":6696,"Ġà¦¸à¦¹à¦ľà¦ķ":6697,"Ġà¦Ĩà¦ļà¦®":6698,"Ġà¦Ĩà¦ļà¦£":6699,"à¦ıà¦¸à¦¬à¦ķ":6700,"à¦ªà¦¸à¦ª":6701,"à¦ļà¦ķà¦®":6702,"à¦ļà¦ķà¦£":6703,"à¦¨à¦°à¦Ļ":6704,"Ġà¦¸à¦ķà¦²à¦ĩ":6705,"Ġà¦ħà¦¦à¦²à¦¬à¦¦à¦²":6706,"Ġà¦Ĺà¦£à¦¦":6707,"Ġà¦Ĺà¦£à¦¶":6708,"Ġà¦Ĺà¦£à¦Ĺ":6709,"Ġà¦Ĺà¦£à¦¹à¦¤":6710,"à¦¸à¦ķà¦¬à¦°":6711,"à¦Ĺà¦¨à¦°à¦ķ":6712,"à¦°à¦®à¦£à¦Ł":6713,"Ġà¦ľà¦°à§İà¦ķ":6714,"Ġà¦ľà¦°à¦¡à¦¨":6715,"Ġà¦Ĺà§ľà¦Ĺà§ľ":6716,"à¦ķà¦°à¦£à¦ª":6717,"à¦¥à¦ķà¦¦":6718,"à¦łà¦ķà¦ĩ":6719,"à¦łà¦ķà¦Ĺ":6720,"Ġà¦¦à¦°à¦ĸ":6721,"Ġà¦īà§İà¦¸à¦ĩ":6722,"à¦Ĺà¦¬à¦Ļ":6723,"Ġà¦¨à¦¬à¦¤à¦°":6724,"à¦¯à¦°à¦Ļ":6725,"Ġà¦ľà¦®à¦Ľ":6726,"Ġà¦ľà¦®à¦¦à¦Ĺ":6727,"Ġà¦ªà¦°à¦®à¦§à¦°":6728,"Ġà¦¬à¦Łà¦®":6729,"Ġà¦¬à¦Łà¦¤à¦²":6730,"Ġà¦°à¦®à¦£à¦¸":6731,"à¦Ĺà¦®à¦ľ":6732,"Ġà¦°à¦Ļà¦¤":6733,"à¦ªà¦¥à¦Ł":6734,"Ġà¦¦à¦²à¦ĵ":6735,"Ġà¦ıà¦ķà¦¬à¦ļà¦¨":6736,"Ġà¦īà§İà¦¸à¦¬à¦ķ":6737,"Ġà¦īà§İà¦¸à¦¬à¦¬":6738,"Ġà¦īà§İà¦¸à¦¬à¦ıà¦¸à¦¬":6739,"Ġà¦īà§İà¦¸à¦¬à¦¸à¦¬à¦ĩ":6740,"Ġà¦īà§İà¦¸à¦¬à¦ªà¦¹":6741,"à¦®à¦°à¦£à¦¬":6742,"à¦®à¦°à¦£à¦¶à¦ķ":6743,"Ġà¦°à¦¸à¦ĩ":6744,"Ġà¦ªà¦£à¦ª":6745,"Ġà¦¸à¦®à§Łà¦Ĺ":6746,"à¦¡à¦²à¦®à¦§":6747,"à¦¨à¦ªà¦¡":6748,"à¦ķà¦¦à¦¦à¦¸":6749,"Ġà¦§à¦¨à¦ªà¦¤":6750,"Ġà¦ªà¦¶à¦²":6751,"Ġà¦°à¦ķà¦®à¦Ł":6752,"Ġà¦Ĩà¦ªà¦Ĺ":6753,"à¦®à¦ªà¦°à¦®":6754,"à¦¬à¦®à¦ª":6755,"à¦¶à¦Ĺà¦¡":6756,"à¦¨à¦ĩà¦ĸ":6757,"à¦®à¦¹à§İ":6758,"à¦®à¦¹à¦¨à¦¨":6759,"Ġà¦īà¦ľà¦²":6760,"Ġà¦¸à¦¦à¦®":6761,"Ġà¦¨à¦Ĺà¦°à¦°":6762,"à¦¦à§Łà¦Ĺ":6763,"Ġà¦Ĩà¦ĩà¦¨à¦®à¦¨":6764,"à¦¨à¦Ńà¦Ĺà¦¬":6765,"à¦²à¦¸à¦ķà¦²":6766,"à¦¬à¦ļà¦¤":6767,"Ġà¦¦à¦¶à¦°":6768,"Ġà¦¦à¦¶à¦¦à¦¶à¦Ł":6769,"à¦ıà¦ķà¦ĩà¦Ń":6770,"à¦ıà¦ķà¦¸à¦®à¦¯":6771,"à¦®à¦ľà¦Ĺà¦¤":6772,"à¦¨à¦¶à¦Ł":6773,"à¦¶à¦²à¦ĵ":6774,"à§¨à§¯":6775,"à¦ĩà¦¡à¦¬":6776,"à¦ĩà¦¡à¦¶":6777,"à¦ĩà¦¡à¦¸à¦¹":6778,"à¦ĸà¦ķà¦ĩ":6779,"à¦Ĺà¦łà¦¨à¦ª":6780,"à¦Ĺà¦łà¦¨à¦¶à¦ķ":6781,"Ġà¦ķà¦·à¦²":6782,"Ġà¦ĸà¦¬à¦°à¦ĩ":6783,"Ġà§¨à§¯":6784,"à¦¦à¦¬à¦§":6785,"ĠĠĠĠĠĠĠĠĠĠĠĠĠĠĠĠĠ":6786,"ĠĠĠĠĠĠĠĠĠĠĠĠĠĠĠĠĠĠ":6787,"Ġà¦¹à¦ĩà¦ļ":6788,"Ġà¦Ĺà¦łà¦¨à¦¶":6789,"Ġà¦Ĺà¦łà¦¨à¦Ĺà¦¤":6790,"à¦¬à¦ľà¦¨à¦ªà¦°":6791,"à¦¬à¦ľà¦Ĺ":6792,"à¦¬à¦ľà§Ł":6793,"à¦¦à¦ķà¦£":6794,"Ġà¦ĺà¦¨à¦ľà¦Ļ":6795,"Ġà¦ļà¦°à¦®à¦Ń":6796,"Ġà¦®à¦¨à¦¨à¦§":6797,"Ġà¦ķà¦ļà¦¦":6798,"à¦ķà¦Ĺà¦®à¦¨":6799,"à¦ĩà¦¸à¦Ł":6800,"à¦¯à¦Ĺà¦¦":6801,"à¦¯à¦Ĺà¦ļ":6802,"Ġà¦Ķà¦ļ":6803,"à¦Ŀà¦²à¦ıà¦ĩ":6804,"à§Ŀà¦¸":6805,"à§«à§©":6806,"à§«à§ª":6807,"à§«à§®":6808,"à¦Ĺà¦ľà¦ª":6809,"Ġà¦®à§İà¦¸à¦ľ":6810,"à¦¨à¦¬à¦ľà¦Ĺà¦¤":6811,"Ġà¦Ńà¦°à¦¤à¦¸":6812,"Ġà¦Ńà¦°à¦¤à¦Ń":6813,"Ġà¦ľà¦Ĺà§İà¦ª":6814,"à¦¬à¦Ĺà¦ŀ":6815,"Ġà¦ľà§Łà¦ªà¦°":6816,"à¦Ĺà¦°à¦£à¦ĩ":6817,"à¦Ĺà¦¦à¦¤":6818,"à§©à§¨":6819,"à§©à§§":6820,"à¦¶à¦¤à¦ªà¦¥":6821,"à§ªà§«":6822,"à¦¸à¦¦à¦¦":6823,"à¦«à¦²à¦¨à¦ĩ":6824,"à¦Ńà¦°à¦¤à¦ķ":6825,"à§İà¦ªà¦°à¦¤":6826,"Ġà§§à§¯à§«à§«":6827,"Ġà§§à§¯à§«à§¬":6828,"Ġà¦¦à¦®à¦¬à¦¨":6829,"à¦¦à¦ªà¦¤à¦¨":6830,"à¦¨à¦Ĩà¦¯":6831,"à¦¨à¦Ĩà¦ķ":6832,"Ġà¦Ĩà¦Łà¦¦":6833,"Ġà¦Ĩà¦Łà¦ļà¦²":6834,"Ġà¦Ĩà¦Łà¦¦à¦¶":6835,"ĠĠĠč":6836,"à¦ľà¦Ĺà¦¤à¦ķ":6837,"Ġà¦¬à¦§à¦¬à¦¨":6838,"Ġà¦īà¦ªà¦ķà¦°à¦£à¦ķ":6839,"Ġà¦īà¦ªà¦ķà¦°à¦£à¦ĩ":6840,"Ġà§«à§¨":6841,"Ġà§«à§ª":6842,"Ġà§«à§¯":6843,"Ġà§ªà§¬":6844,"à¦ĩà¦«à¦¯":6845,"à¦ĩà¦«à§Ł":6846,"Ġà¦¨à¦°à¦®à¦ªà¦¨":6847,"à¦£à¦¸à¦ĸ":6848,"Ġà¦¨à¦°à¦ĵà¦¯":6849,"à¦¤à¦ļà¦°à¦¦":6850,"Ġà¦¬à¦¦à¦Ń":6851,"ĠĠĠĠĠĠĠĠĠĠĠĠĠĠĠĠĠĠĠĠĠĠĠĠĠĠĠĠĠĠĠĠĠ":6852,"à¦ľà¦ĩà¦īà¦¨":6853,"à¦ķà¦Ľà¦Ł":6854,"à¦ªà¦ķà¦¥à¦¨à¦ĩ":6855,"Ġà¦¨à¦Ĺà¦°à¦¸à¦Ń":6856,"Ġà¦Ĩà¦ĩà¦¨à¦¬":6857,"Ġà¦¦à¦®à¦¨à¦¨":6858,"Ġà§¬à§«":6859,"Ġà§¬à§ª":6860,"Ġà§¬à§¦à§¦":6861,"Ġà¦ıà¦®à¦Ĩà¦°à¦Ĩà¦ĩ":6862,"Ġà¦Ĩà¦¬à¦°à¦£à¦Ł":6863,"à¦īà¦ªà¦²à¦¬":6864,"Ġà¦ķà¦¦à¦®à¦Ĺ":6865,"Ġà¦Ĩà¦«à¦Ł":6866,"Ġà¦Ńà¦¬à¦¨à¦¦":6867,"Ġà§§à§¨à§¦à§¦":6868,"Ġà¦¦à¦ĩà¦ļ":6869,"à¦Ľà¦¯à¦¬à¦¨":6870,"Ġà¦ľà¦¨à¦¸à¦®à¦°":6871,"à¦ĩà¦ļà¦£":6872,"Ġà§§à§¯à§®à§¦":6873,"Ġà§§à§¯à§®à§¬":6874,"à§¯à§Ń":6875,"Ġà¦Ĺà¦ľà¦Ĺà¦ľ":6876,"Ġà§§à§«à§¦à§¦":6877,"Ġà§§à§ªà§¬":6878,"Ġà§§à§¯à§§à§¯":6879,"Ġà¦Ŀà§ľà¦Ŀ":6880,"à¦Łà¦ķà¦²à¦¸à¦®":6881,"Ġà§§à§¯à§¬à§«":6882,"à¦¨à¦¬à¦¨à¦¨":6883,"Ġà§§à§§à§«":6884,"Ġà§§à§¯à§©à§¨":6885,"Ġà§¯à§§à§":6886,"ĠĠĠĠĠĠĠĠĠĠĠĠĠĠĠĠĠĠĠĠĠĠĠĠĠĠĠĠĠ":6887,"Ġà¦ĩà¦¤à¦°à¦¬":6888,"à¦¦à¦¸à¦®à¦·":6889,"à¦Ĭà¦¨à¦¬":6890,"à¦ķà¦ľà¦®à¦ķà¦ª":6891,"Ġà¦®à¦Ĺà¦ľà¦Ł":6892,"à¦¨à¦ıà¦ķà¦®":6893,"ĠĠĠĠĠĠĠĠĠĠĠĠĠĠĠĠĠĠĠĠĠĠĠĠĠĠĠĠĠĠĠĠĠĠĠĠĠĠĠĠĠĠĠĠĠĠĠĠĠĠĠĠĠĠĠĠĠĠĠĠĠĠĠĠĠĠĠĠĠĠĠĠĠĠĠĠĠĠĠĠĠĠĠĠĠĠĠĠĠĠĠĠĠĠĠĠ":6894,"à¦¨à¦ıà¦®à¦¨à¦Ł":6895,"à¦ªà¦ķà¦¤à¦®":6896,"Ġà¦Ĺà¦Ĺà¦¨à¦®à¦£":6897,"à¦¸à¦ªà¦°à¦Ł":6898,"Ġà¦¤à§İà¦ªà¦°à¦¬à¦°":6899,"čĊčĊčĊč":6900,"à¦¨à¦ıà¦¬à¦®":6901,"Ġà¦¦à¦¹à¦°à¦®à¦®à¦¹":6902,"à§®à§ªà§¯":6903,"à¦ħà¦¬à¦¸à¦°":6904,"Ġà¦ıà¦ĩà¦ļà¦ıà¦¸à¦¸":6905,"Ġà¦ľà¦ªà¦¤à¦ª":6906,"Ġà¦¸à¦¹à¦ľà¦¸à¦°à¦²à¦¤":6907,"Ġà¦Ĺà¦¦à¦Ĺà¦¦":6908,"âĢĥčĊč":6909,"Ġà¦Łà¦ĩà¦Łà¦®":6910,"Ġà¦¦à¦¹à¦°à¦®à¦®à¦¹à¦°à¦®":6911,"©à§§":6912,"Ġà§ģ":6913,"Ġà§Ł":6914,"Ġà¦ŀ":6915,"à§ĩà§į":6916,"à§ĩà§ĭ":6917,"à¦°à¦¨à¦¨":6918,"à¦°à¦ıà¦Ł":6919,"à¦°à¦īà¦¦":6920,"à¦°à¦ĺà¦¨":6921,"à¦°à¦ıà¦ĸ":6922,"à¦¿à§į":6923,"à¦¨à¦°à¦ķ":6924,"à¦¨à¦ŀ":6925,"à¦¨à¦°à¦¦":6926,"à¦¨à¦®à¦£":6927,"à¦¨à¦®à¦ķ":6928,"à¦¨à¦ļà¦²":6929,"à¦¨à¦°à¦ª":6930,"à¦¨à¦®à¦ľ":6931,"à¦¨à¦®à¦¶":6932,"à¦¨à¦ľà¦Ĺà¦¤":6933,"à¦¨à¦īà§İà¦ª":6934,"à¦¨à¦īà¦Ńà§Łà¦ĩ":6935,"à¦¤à¦®à¦ķ":6936,"à¦¤à¦¤à¦ķ":6937,"à¦¤à¦¸à¦°":6938,"à¦¤à¦«à¦²":6939,"à¦¤à¦¥à¦ķ":6940,"à¦¤à¦Ĺà¦®":6941,"à¦¤à¦ĸà¦£":6942,"à¦¤à¦Ĩà¦°":6943,"à¦¤à¦Ĩà¦²":6944,"à¦¤à¦°à¦¤à¦®":6945,"à¦¤à¦ħà¦ª":6946,"à¦¤à¦¸à¦°à¦²":6947,"à¦¤à¦ħà¦¶":6948,"à¦¤à¦Ĩà¦Ł":6949,"à¦¯à¦¨à¦¨":6950,"à¦¯à¦²à¦¬":6951,"à¦¯à¦°à¦ľ":6952,"à¦¯à¦ıà¦°":6953,"à¦¯à¦¸à¦®à¦¯":6954,"à¦¯à¦Ĩà¦²":6955,"à¦¯à¦īà§İà¦¸à¦¬":6956,"à¦¯à¦ĺà¦Ł":6957,"à¦¯à¦Ĩà¦¦":6958,"à¦¯à¦īà§İà¦¸":6959,"à¦ķà§Ł":6960,"à¦ķà§İ":6961,"à¦ķà¦¬à¦¤":6962,"à¦ķà¦¨à¦¬":6963,"à¦ķà¦°à¦¹":6964,"à¦ķà¦ªà¦¤":6965,"à¦ķà¦¬à¦¯":6966,"à¦ķà¦Ĺà¦²":6967,"à¦ķà¦¨à¦ķ":6968,"à¦ķà¦ķà¦¬":6969,"à¦ķà¦ıà¦¸à¦¬":6970,"à¦ķà¦ħà¦¨":6971,"à¦ķà¦®à§Ł":6972,"à¦ķà¦īà¦¦":6973,"à¦ķà¦ıà¦®à¦¨":6974,"à¦ķà¦Ĩà¦²":6975,"à¦ķà¦ªà¦°à¦®":6976,"à¦ķà¦Ĩà¦¤":6977,"à¦¬à¦¬à¦¤":6978,"à¦¬à¦Ĺà¦°":6979,"à¦¬à¦ľà¦°":6980,"à¦¬à¦Ĺà¦¨":6981,"à¦¬à¦ıà¦°":6982,"à¦¬à¦ıà¦¸à¦¬à¦ĩ":6983,"à¦¬à¦Ĩà¦²":6984,"à¦¬à¦ħà¦¸":6985,"à¦¬à¦Ĩà¦¨":6986,"à¦¬à¦£à¦¬à¦§":6987,"à¦²à¦°à¦ķ":6988,"à¦²à¦°à¦¬":6989,"à¦²à¦ķà¦¤":6990,"à¦²à¦ļà¦¨":6991,"à¦²à¦²à¦¤":6992,"à¦²à¦¬à¦²":6993,"à¦²à¦Ĩ":6994,"à¦²à¦ļà¦²":6995,"à¦²à¦ĵà§Ł":6996,"à¦²à¦¹à¦°":6997,"à¦²à¦ıà¦¸à¦¬":6998,"à¦²à¦¢":6999,"à¦²à¦ĩà¦¤":7000,"à¦²à¦Ĩà¦°":7001,"à¦²à¦ıà¦®à¦¨":7002,"à¦²à¦ıà¦ĸ":7003,"à¦²à¦ħà¦ª":7004,"à¦®à¦°à¦®":7005,"à¦®à¦ī":7006,"à¦®à¦¶à¦¬":7007,"à¦®à¦ıà¦ķà¦Ł":7008,"à¦®à¦Ĩà¦®à¦°":7009,"à¦®à¦ıà¦ķà¦ľà¦¨":7010,"à¦®à¦ıà¦ĸ":7011,"à¦®à¦ıà¦ķà¦¦":7012,"à¦®à¦Ĩà¦¨":7013,"à¦®à¦īà¦ļ":7014,"à¦®à¦°à¦¹à¦¸":7015,"à¦®à¦ħà¦¹":7016,"à¦¼à§Īà¦ĥ":7017,"Ġà¦¸à§Ł":7018,"Ġà¦¸à¦ªà¦¨":7019,"Ġà¦¸à¦°à¦¯":7020,"Ġà¦¸à¦¦à¦²":7021,"Ġà¦¸à¦ĵà¦¦":7022,"Ġà¦ķà¦ĸ":7023,"Ġà¦ķà¦ķà¦Ł":7024,"Ġà¦ķà¦Łà¦ķ":7025,"Ġà¦ķà¦¨à¦ķà¦¨":7026,"Ġà¦¬à¦ķà¦²":7027,"Ġà¦¬à¦ķà¦¶":7028,"Ġà¦¬à¦¦à¦¤":7029,"Ġà¦¬à¦°à¦¬à¦£":7030,"Ġà¦¬à¦°à¦¬à¦§":7031,"Ġà¦¬à§İà¦¸à¦²":7032,"Ġà¦ªà¦ĩ":7033,"Ġà¦ªà¦ł":7034,"Ġà¦ªà¦Łà¦ķ":7035,"à¦¦à¦¡":7036,"à¦¦à¦Ĩ":7037,"à¦¦à¦¶à¦¨":7038,"à¦¦à¦®à¦ķ":7039,"à¦¦à¦§à¦°":7040,"à¦¦à¦¶à¦¬":7041,"à¦¦à¦Ĺà¦®":7042,"à¦¦à¦ķà¦¦":7043,"à¦¦à¦Ńà¦°":7044,"à¦¦à¦Ńà¦Ļ":7045,"à¦¦à¦ıà¦ĩà¦¸à¦¬":7046,"à¦¸à¦§":7047,"à¦¸à¦¬à¦°":7048,"à¦¸à¦¦à¦°":7049,"à¦¸à¦°à¦¦":7050,"à¦¸à¦¸à¦°":7051,"à¦¸à¦ļà¦°":7052,"à¦¸à¦«à¦²":7053,"à¦¸à¦Ĩà¦®":7054,"à¦¸à¦ªà¦Ł":7055,"à¦¸à¦Ĺà¦£":7056,"à¦¸à¦¹à¦¯":7057,"à¦¸à¦ľà¦¨à¦ķ":7058,"à¦¸à¦¯à¦ľ":7059,"à¦¸à¦īà¦¦":7060,"à¦¸à¦ıà¦Ĺ":7061,"à¦¸à¦Ĩà¦²":7062,"à¦¸à¦Ĩà¦¦":7063,"à¦¸à¦Ĩà¦¸":7064,"à¦¸à¦¹à¦¨à¦¶":7065,"Ġà¦Ĩà¦¤à¦°":7066,"Ġà¦Ĩà¦«à¦²":7067,"Ġà¦Ĩà¦ĸà¦°":7068,"Ġà¦Ĩà¦ĩà§Ł":7069,"à¦ĩà¦°à¦¬":7070,"à¦ĩà¦¬à¦²":7071,"à¦ĩà¦ķà¦°":7072,"à¦ĩà¦Ĩ":7073,"à¦ĩà¦ıà¦¸à¦¬":7074,"à¦ĩà¦ľà¦°":7075,"à¦ĩà¦¸à¦ķ":7076,"à¦ĩà¦¸à¦¬à¦ĩ":7077,"à¦ĩà¦Ńà¦¯":7078,"à¦ĩà¦ľà¦²":7079,"à¦ĩà¦¸à¦¬à¦ķ":7080,"à¦ĩà¦ħà¦°":7081,"à¦ĩà¦Ĩà¦Ĺ":7082,"à¦ĩà¦Ĩà¦ªà¦¨":7083,"à¦ĩà¦ıà¦²":7084,"à¦ĩà¦ħà¦ª":7085,"à¦ĩà¦Ĩà¦¸":7086,"à¦ĩà¦ıà¦ķà¦¥":7087,"à¦·à¦ļà¦¨":7088,"à¦·à¦¸à¦¨":7089,"à¦·à¦®à¦¸":7090,"à¦·à¦¬à§İ":7091,"à¦ªà§Ł":7092,"à¦ªà¦Ļ":7093,"à¦ªà¦¬à¦²":7094,"à¦ªà¦Ĺà¦°":7095,"à¦ªà¦£à¦¤":7096,"à¦ªà¦Łà¦²":7097,"à¦ªà¦Ĺà¦¨":7098,"à¦ªà¦Ĩà¦®":7099,"à¦ªà¦ªà¦¥":7100,"à¦ªà¦ħà¦¨":7101,"à¦ªà¦®à§Ł":7102,"à¦ªà¦¬à¦§":7103,"à¦ªà¦ıà¦Ĺ":7104,"à¦ªà¦Ĩà¦ªà¦¨":7105,"à¦ªà¦Ĩà¦¡":7106,"à¦ªà§İà¦¤":7107,"Ġà¦®à¦ĸ":7108,"Ġà¦®à¦ĩà¦¨":7109,"Ġà¦®à¦¦à¦ķ":7110,"Ġà¦®à¦Łà¦°":7111,"Ġà¦®à¦²à§Ł":7112,"Ġà¦®à¦°à¦®à¦°":7113,"Ġà¦®à¦ĵà¦²":7114,"Ġà¦¨à¦°à¦¶":7115,"Ġà¦¨à¦¸à¦°":7116,"Ġà¦¨à¦¨à¦¦":7117,"Ġà¦¨à¦ĸà¦ķ":7118,"Ġà¦¨à¦ĸà¦°":7119,"Ġà¦¨à¦Ńà¦¸":7120,"Ġà¦¨à¦°à¦¹à¦°":7121,"Ġà¦¨à¦°à¦¬à¦ª":7122,"Ġà¦¨à¦°à¦¹à¦¤":7123,"à¦Łà¦§":7124,"à¦Łà¦ł":7125,"à¦Łà¦ŀ":7126,"à¦Łà¦ı":7127,"à¦Łà¦¬à¦¦":7128,"à¦Łà¦ħ":7129,"à¦Łà¦°à¦Ń":7130,"à¦Łà¦¸à¦¨":7131,"à¦Łà¦ıà¦ĩ":7132,"à¦Łà¦ıà¦¸à¦¬":7133,"à¦Łà¦°à¦Ĺ":7134,"à¦Łà¦¸à¦¬à¦ķ":7135,"à¦Łà¦ļà¦¤":7136,"Ġà¦ıà¦°à¦¶":7137,"Ġà¦ıà¦²à¦¬":7138,"Ġà¦ıà¦¨à¦¸":7139,"à¦ľà§İ":7140,"à¦ľà¦ı":7141,"à¦ľà§ľ":7142,"à¦ľà¦°à¦¸":7143,"à¦ľà¦²à¦¤":7144,"à¦ľà¦¤à¦¬":7145,"à¦ľà¦¯à¦¨":7146,"à¦ľà§Łà¦¨":7147,"à¦ľà¦ķà¦¬":7148,"à¦ľà¦°à¦®à¦£":7149,"à¦ľà¦Ńà¦°":7150,"à¦ľà¦ıà¦°":7151,"à¦ľà¦ħà¦Ń":7152,"à¦ľà¦¸à¦®à¦¸":7153,"à¦ľà¦łà¦°":7154,"à¦ľà¦ªà¦¦à¦¬":7155,"à¦ľà¦īà¦Ńà¦¯":7156,"à¦ľà¦īà¦Ńà§Ł":7157,"à¦¶à¦·":7158,"à¦¶à¦ŀ":7159,"à¦¶à§İ":7160,"à¦¶à¦ĺ":7161,"à¦¶à¦¨à¦¨":7162,"à¦¶à¦®à¦°":7163,"à¦¶à¦¤à¦ķ":7164,"à¦¶à¦ļà¦°":7165,"à¦¶à¦ľà¦°":7166,"à¦¶à¦°à¦£à¦Ĺ":7167,"à¦¶à¦ľà¦¨à¦¨":7168,"à¦¶à¦Ĩà¦ĩà¦¨":7169,"Ġà¦¤à¦Ľà¦¨":7170,"Ġà¦¤à¦¥à¦¨":7171,"Ġà¦¤à¦Łà¦¸":7172,"Ġà¦¤à¦ĵà¦«":7173,"à¦Ĺà¦ķà¦¤":7174,"à¦Ĺà¦°à¦¨":7175,"à¦Ĺà¦ĩà¦¨":7176,"à¦Ĺà¦¶à¦ķ":7177,"à¦Ĺà¦ľà¦°":7178,"à¦Ĺà¦¸à¦Ļ":7179,"à¦Ĺà¦ľà¦¬":7180,"à¦Ĺà¦īà¦¦":7181,"Ġà¦¦à¦¶à¦ª":7182,"Ġà¦ħà¦Ľ":7183,"Ġà¦ħà¦²à¦¬":7184,"Ġà¦ħà¦ļà¦ķ":7185,"Ġà¦ħà¦łà¦¨":7186,"à¦§à¦°à¦£":7187,"à¦§à¦°à¦ķ":7188,"à¦§à¦Ŀ":7189,"à¦§à¦ķà¦²":7190,"à¦§à¦¦à¦°":7191,"à¦§à§°":7192,"à¦§à¦ªà¦ķ":7193,"à¦§à¦ļà¦°":7194,"à¦§à¦Ĺà¦¨":7195,"à¦§à¦®à¦¹":7196,"à¦§à¦Ĺà¦£":7197,"à¦§à¦Ĳà¦¤":7198,"à¦§à¦īà¦ªà¦°":7199,"à¦§à¦¸à¦¬à¦ĸ":7200,"Ġà¦¹à¦¥":7201,"à¦Ľà¦Ľ":7202,"à¦Ľà¦ıà¦ĩ":7203,"à¦£à¦ªà¦°":7204,"à¦£à¦¸à¦¬":7205,"à¦£à¦¤à¦¤":7206,"à¦£à¦¬à¦¶":7207,"à¦£à¦ļà¦ķ":7208,"à¦£à¦¢":7209,"à¦£à¦¬à¦Ń":7210,"à¦£à¦ľà¦Ĺà¦¤":7211,"à¦¹à¦ĸ":7212,"à¦¹à¦¦à¦°":7213,"à¦¹à¦¬à¦¦":7214,"à¦¹à¦ķà¦¬":7215,"à¦¹à¦§à¦°":7216,"à¦¹à§İà¦ķ":7217,"à¦¹à¦ħà¦¨":7218,"à¦¹à¦®à§Ł":7219,"à¦¹à¦¸à¦¬à¦ķ":7220,"à¦¹à¦ıà¦Ĺ":7221,"à¦¹à¦¬à¦¶à¦¤":7222,"Ġà¦¯à¦ľà¦¨":7223,"Ġà¦¯à¦®à¦°":7224,"Ġà¦¯à¦¬à¦¨à¦¦":7225,"Ġà¦¯à¦®à¦¸à¦Ń":7226,"Ġà¦ķà¦°à¦²à¦¤":7227,"Ġà¦ķà¦°à¦ķà¦°":7228,"Ġà¦ķà¦°à¦®à¦°":7229,"à¦ļà¦·":7230,"à¦ļà¦§":7231,"à¦ļà¦Ļ":7232,"à¦ļà§İ":7233,"à¦ļà¦¸à¦¬":7234,"à¦ļà§°":7235,"à¦ļà¦®à¦ķ":7236,"à¦ļà¦¤à¦²":7237,"à¦ļà¦Ĩà¦ļ":7238,"à¦ļà¦ĵà¦¡":7239,"à¦¥à¦ŀ":7240,"à¦¥à¦ľà¦¨":7241,"à¦¥à¦¬à¦²":7242,"à¦¥à¦¤à¦¤":7243,"à¦¥à¦®à¦¯":7244,"à¦ĸà¦®à¦¨":7245,"à¦ĸà¦°à¦¬":7246,"à¦ĸà¦¸à¦¬":7247,"à¦ĸà§ľ":7248,"à¦ĸà¦®à¦¤":7249,"à¦ĸà¦ıà¦ĩ":7250,"à¦ĸà¦ķà¦¶":7251,"Ġà¦¶à¦£":7252,"Ġà¦¶à¦ł":7253,"Ġà¦¶à¦«":7254,"Ġà¦¶à§Łà¦¤":7255,"Ġà¦¶à¦ªà¦²":7256,"Ġà¦¶à¦°à¦¸à¦¨":7257,"Ġà¦¶à¦°à¦¶à¦¯":7258,"à¦Ńà¦®à¦£":7259,"à¦Ńà¦ıà¦ĩ":7260,"à¦Ńà¦¨à¦ķ":7261,"à¦Ńà¦ħà¦²":7262,"Ġà¦Ĺà¦²à¦¬":7263,"Ġà¦Ĺà§°":7264,"Ġà¦Ĺà¦ľà¦®":7265,"Ġà¦ľà¦¦":7266,"Ġà¦ľà¦ĵà¦¯":7267,"Ġà¦ľà¦°à¦¥":7268,"Ġà¦ľà¦Łà¦²":7269,"Ġà¦ľà¦®à¦²":7270,"Ġà¦ľà¦²à¦ķà¦£":7271,"à¦¡à¦¬à¦¶":7272,"à¦¡à¦¸à¦¬à¦ķ":7273,"à¦¡à¦¸à¦¹":7274,"à§ĥà§į":7275,"à§Łà¦¨à¦¤":7276,"à§Łà¦ķà¦°":7277,"à§Łà¦ķà¦°à¦£":7278,"à§Łà¦®à¦Ĺ":7279,"à§Łà¦ķà¦¦":7280,"à§Łà¦Ĩà¦°":7281,"à§Łà¦ıà¦Ł":7282,"à¦ĵà¦ķà¦²":7283,"à¦ĵà¦Ĩà¦®":7284,"à¦ĵà§İà¦¸":7285,"Ġà¦Ńà¦®":7286,"Ġà¦Ńà¦°à¦ķ":7287,"Ġà¦Ńà¦ŀ":7288,"Ġà¦Ńà¦¬à¦¸":7289,"Ġà¦Ńà¦°à¦²":7290,"Ġà¦Ńà§Łà¦ķ":7291,"Ġà¦°à¦®à¦¤":7292,"Ġà¦°à¦Ĺà¦°":7293,"Ġà¦°à¦¥à¦¨":7294,"Ġà¦°à¦®à¦¯":7295,"Ġà¦°à¦ľà¦ķ":7296,"Ġà¦°à¦®à¦¸":7297,"Ġà¦°à¦ĩà¦¬":7298,"Ġà¦°à¦®à¦ª":7299,"Ġà¦°à¦¸à¦ķà¦·":7300,"Ġà¦°à¦«à¦¤":7301,"Ġà¦ļà¦®à¦ļ":7302,"Ġà¦īà¦°à¦¸":7303,"Ġà¦ĵà¦¤à¦°":7304,"Ġà¦ĵà¦Ŀ":7305,"Ġà¦ĵà¦¸à¦®":7306,"Ġà¦ĵà¦²à¦Ł":7307,"Ġà¦ĵà¦®à¦°à¦ķ":7308,"Ġà¦ĵà¦²à¦¡":7309,"Ġà¦Ĩà¦®à¦¤à¦²":7310,"Ġà¦¸à¦®à¦°à¦ķà¦¨":7311,"Ġà¦ıà¦ķà¦¦à¦°":7312,"Ġà¦ıà¦ķà¦°à¦¥":7313,"Ġà¦ıà¦ķà¦ķà¦¬":7314,"Ġà¦ıà¦ķà¦¸à¦ª":7315,"à¦Ļà¦®":7316,"à¦Ļà¦¡":7317,"à¦Ļà¦ıà¦°":7318,"Ġà¦ªà¦°à¦Ń":7319,"Ġà¦ªà¦°à¦Ĺà¦£":7320,"à¦°à¦¤à¦¦":7321,"à¦°à¦¤à¦Ł":7322,"à¦°à¦¤à¦®à¦£":7323,"à¦łà¦ľ":7324,"à¦łà¦§":7325,"à¦łà¦°à¦¤":7326,"à¦łà¦ł":7327,"à¦łà¦«":7328,"à¦łà¦Ĺà¦¤":7329,"à¦łà¦ĸà¦¡":7330,"Ġà¦ħà¦¨à¦¶à¦¨":7331,"Ġà¦ħà¦¨à¦ªà¦¤":7332,"Ġà¦ħà¦¨à¦¬à¦ļ":7333,"Ġà¦¥à¦ª":7334,"Ġà¦Ľà¦®à¦Ľ":7335,"à¦¬à¦¨à¦®à¦¨":7336,"à¦¬à¦¨à¦ªà¦¦":7337,"à¦¬à¦¨à¦ıà¦¸à¦¬":7338,"à¦¬à¦¨à¦¸à¦Ļ":7339,"à¦¬à¦¨à¦¸à¦¬à¦ķ":7340,"à¦°à¦£à¦ªà¦°":7341,"à¦°à¦£à¦¸à¦¬":7342,"à¦°à¦£à¦ıà¦¸à¦¬":7343,"Ġà¦²à¦°à¦¨":7344,"Ġà¦²à¦ĩà¦¤":7345,"Ġà¦²à§Łà¦¬à¦¦":7346,"Ġà¦¬à¦²à¦ľ":7347,"Ġà¦§à¦ª":7348,"Ġà¦§à¦¨à¦¸":7349,"à§Īà¦Ĥ":7350,"à¦°à¦ķà¦¸":7351,"à¦°à¦ķà¦ł":7352,"à¦ŀà¦¶":7353,"à¦ŀà¦ĵ":7354,"à¦ŀà¦ªà¦¤":7355,"à¦ŀà¦Łà¦ľ":7356,"à¦ªà¦°à¦Ł":7357,"à¦ªà¦°à¦ļà¦¨":7358,"à¦ľà¦¨à¦ªà¦¦":7359,"à¦ľà¦¨à¦ıà¦ĩ":7360,"à¦ľà¦¨à¦¸à¦¬à¦ĩ":7361,"à¦ľà¦¨à¦Ĺà¦£":7362,"à¦¬à¦°à¦Ńà¦Ļ":7363,"à¦¬à¦°à¦¦à¦¸":7364,"à¦®à¦¨à¦¯":7365,"à¦®à¦¨à¦Ĺ":7366,"à¦®à¦¨à¦ĵ":7367,"à¦ĸà¦¨à¦ķ":7368,"Ġà¦«à§ľ":7369,"Ġà¦«à§Łà¦¸":7370,"à¦¤à¦°à¦¹":7371,"à¦¤à¦°à¦ŀ":7372,"à¦¤à¦°à¦ıà¦¸à¦¬":7373,"à¦¤à¦°à¦ľà¦Ĺà¦¤":7374,"Ġà¦ĸà¦®":7375,"Ġà¦ĸà¦Ł":7376,"Ġà¦ĸà¦¸à¦¡":7377,"à§İà¦²":7378,"à§İà¦¦":7379,"à§İà¦ĵ":7380,"à§İà¦Ĺà¦£":7381,"Ġà¦®à¦¨à¦Ĺ":7382,"Ġà¦®à¦¨à¦ļ":7383,"Ġà¦®à¦¨à¦®à¦¸":7384,"Ġà¦®à¦¨à¦¨à¦ĩ":7385,"Ġà¦®à¦¨à¦¶à¦°":7386,"Ġà¦ľà¦¨à¦°":7387,"Ġà¦ľà¦¨à¦²":7388,"Ġà¦ľà¦¨à¦¹":7389,"Ġà¦ľà¦¨à¦ļ":7390,"Ġà¦ľà¦¨à¦¸à¦¨":7391,"à§Įà¦ĥ":7392,"à¦¤à¦¨à¦°":7393,"à¦¤à¦¨à¦¹":7394,"à¦¤à¦¨à¦ľà¦¨":7395,"à¦¤à¦¨à¦ıà¦ĩ":7396,"à¦¤à¦¨à¦¸à¦¬à¦ĩ":7397,"à¦¯à¦¬à¦ķ":7398,"à¦¯à¦¬à¦¶":7399,"à¦¯à¦¬à¦Ļ":7400,"à¦¯à¦¬à¦ļà¦¨":7401,"à¦¯à¦¬à¦ĩà¦¤":7402,"à¦¯à¦¬à§Łà¦¸":7403,"Ġà¦ĩà§Ł":7404,"Ġà¦ĩà¦®à¦¤":7405,"Ġà¦ĩà¦®à¦ªà¦°":7406,"Ġà¦ĩà¦Łà¦ª":7407,"Ġà¦ĩà¦Ńà¦¨":7408,"à¦ªà¦¨à¦ª":7409,"ĠĠâĢ¨":7410,"Ġà¦¹à¦²à¦°":7411,"Ġà¦¹à¦²à¦Ĺ":7412,"Ġà¦¹à¦²à¦Ńà¦¯":7413,"Ġà¦¹à¦²à¦ıà¦ķà¦Ł":7414,"à¦ıà¦ª":7415,"à¦ıà¦¡":7416,"à¦ıà¦®à¦¤":7417,"à¦ıà¦²à¦ķ":7418,"à¦ıà¦¤à¦Ł":7419,"à¦ıà¦ķà¦ķà¦¥":7420,"à¦ıà¦°à¦ªà¦°à¦ĩ":7421,"Ġà¦ĺà¦·à¦¤":7422,"Ġà¦ĺà¦¨à¦ķ":7423,"Ġà¦ĺà¦°à¦ľ":7424,"Ġà¦ĺà¦¨à¦¶":7425,"à¦°à¦®à¦Ĺ":7426,"Ġà¦ķà¦¥à¦®":7427,"Ġà¦ķà¦¥à¦¨à¦ķ":7428,"à¦°à¦¬à¦¦à¦¨":7429,"à¦¸à¦¬à¦¦":7430,"à¦¸à¦¬à¦ķà¦Ł":7431,"à§ľà¦Ł":7432,"à§ľà¦ľ":7433,"à§ľà¦ļ":7434,"à§ľà¦«":7435,"à§ľà¦¯à¦¨":7436,"à¦·à¦£à¦ŀ":7437,"à¦·à¦£à¦ı":7438,"à¦·à¦£à¦¸à¦¬":7439,"à¦·à¦£à¦ıà¦Ĺ":7440,"à¦«à¦¹":7441,"à¦«à¦¡":7442,"à¦«à¦ĵ":7443,"à¦īà¦¶":7444,"à¦īà¦Ń":7445,"à¦īà¦ł":7446,"à¦īà¦ŀ":7447,"à¦īà¦ªà¦ķ":7448,"à¦īà¦¨à¦¸":7449,"à¦īà¦Łà¦°":7450,"à¦īà¦ªà¦¬":7451,"à¦īà¦ĩà§Ł":7452,"à¦īà¦ªà¦ļ":7453,"à¦Ŀà¦Ľ":7454,"à¦Ŀà¦ļà¦²":7455,"à¦Ĺà¦¤à¦¦":7456,"à¦°à¦¯à¦¦":7457,"à¦°à¦¯à¦ļ":7458,"Ġà¦¬à¦°à¦ĵ":7459,"Ġà¦Ĩà¦Ľà¦¯":7460,"Ġà¦Ĩà¦Ľà§Ł":7461,"à¦¨à¦¤à¦ķ":7462,"à¦¨à¦¤à¦¶":7463,"Ġà¦īà¦¦à¦Ĺà¦¤":7464,"Ġà¦®à¦¤à¦¸":7465,"Ġà¦īà¦ªà¦ªà¦¤":7466,"Ġà¦īà¦ªà¦²à¦Ń":7467,"Ġà¦ħà¦°à¦¡":7468,"à¦ķà¦²à¦¸":7469,"Ġà¦Ĩà¦²à¦ķ":7470,"à¦ļà¦¨à¦¦":7471,"à¦ļà¦¨à¦ª":7472,"à¦ļà¦¨à¦Ł":7473,"à¦ļà¦¨à¦ıà¦¸à¦¬":7474,"Ġà¦®à¦¹à¦ķ":7475,"Ġà¦®à¦¹à§İà¦¸":7476,"Ġà¦ħà¦¸à¦®à¦ķ":7477,"Ġà¦ħà¦¸à¦«à¦²":7478,"à¦²à¦¨à¦Ń":7479,"à¦²à¦¨à¦¸à¦¬":7480,"à¦²à¦¨à¦ķà¦°":7481,"à¦²à¦¨à¦ļà¦°":7482,"à¦²à¦¨à¦ıà¦¸à¦¬à¦ĩ":7483,"à¦²à¦¨à¦«à¦ķ":7484,"Ġà¦Ĩà¦¬à¦ľ":7485,"à¦ĺà¦¤":7486,"à¦ĺà¦ĩ":7487,"à¦ĺà¦·":7488,"à¦ĺà¦ª":7489,"Ġà¦¸à¦¹à¦°":7490,"Ġà¦¸à¦¹à¦ħà¦¸":7491,"Ġà¦Łà§Ł":7492,"Ġà¦Łà¦«":7493,"Ġà¦Łà¦¹à¦²":7494,"Ġà¦Łà§Łà¦²":7495,"à¦®à¦¤à¦ķ":7496,"à¦®à¦¤à¦ĵ":7497,"à¦®à¦¤à¦²à¦¬":7498,"à¦®à¦¤à§İà¦ªà¦°à¦¤":7499,"Ġà¦ħà¦¤à¦ĩ":7500,"à¦¨à¦¬à¦Ń":7501,"à¦¨à¦¬à¦¡":7502,"à¦¨à¦¬à¦ªà¦°":7503,"à¦¨à¦¬à§İ":7504,"à¦¨à¦¬à¦¶à¦ķ":7505,"à¦¨à¦¬à§İà¦¸":7506,"à¦¨à¦¬à¦¦à¦²":7507,"à¦¨à¦¬à¦ħà¦¸":7508,"à¦¨à¦¬à¦Ĩà¦¤":7509,"à¦¨à¦¨à¦ķ":7510,"à¦°à¦¹à¦Ĺ":7511,"à¦°à¦¹à¦ıà¦ĩ":7512,"à¦°à¦¹à¦Ńà¦°":7513,"à¦²à¦¤à¦ķ":7514,"à¦²à¦¤à¦°à¦ķ":7515,"Ġà¦¬à¦¸à¦¨à¦Ĺ":7516,"à¦¯à¦¤à¦¦":7517,"à¦¬à¦²à¦¤à¦°":7518,"Ġà¦¨à¦¤à¦¶":7519,"Ġà¦¡à¦¨":7520,"Ġà¦¡à¦¯":7521,"Ġà¦¡à¦²à¦«":7522,"Ġà¦Ĩà¦ľà¦¬à¦¸à¦®":7523,"Ġà¦ķà¦°à¦²à¦¦":7524,"Ġà¦īà¦łà¦²à¦¬":7525,"Ġà¦¬à¦¨à¦¦":7526,"Ġà¦¬à¦¨à¦ª":7527,"Ġà¦ħà¦§à¦¬":7528,"à¦§à¦¨à¦ķà¦²":7529,"à¦§à¦¨à¦²à¦¬":7530,"à¦§à¦¨à¦ıà¦ĩ":7531,"à¦§à¦¨à¦¶à¦ķ":7532,"à¦§à¦¨à¦ıà¦¸à¦¬":7533,"à¦§à¦¨à¦¦à¦¶":7534,"à¦ķà¦°à¦ľà¦¨":7535,"à¦ķà¦°à¦¦à¦°":7536,"à¦°à¦¨à¦ķ":7537,"à¦Ĩà¦°à¦®":7538,"à¦Ĩà¦Ĺà¦¤":7539,"à¦Ĩà¦¬à¦¦":7540,"à¦Ĩà¦ĩà¦¤":7541,"à¦Ĩà¦ĩà¦¸":7542,"à¦Ĩà¦Łà¦Ł":7543,"à¦°à¦¶à¦°":7544,"à¦°à¦¶à¦Ļ":7545,"à¦¨à¦ĵà¦ĸ":7546,"à¦¨à¦ĵà¦¸à¦¬":7547,"à¦°à¦¦à¦¯":7548,"à¦°à¦¦à¦®":7549,"à¦¤à¦¬à¦ļ":7550,"à¦¤à¦¬à¦Ń":7551,"à¦¤à¦¬à§ľ":7552,"à¦¤à¦¬à¦¸à¦¨":7553,"Ġà¦Ĩà¦¤à¦¸":7554,"Ġà¦Ĩà¦¤à¦ª":7555,"Ġà¦Ĩà¦¤à¦¶à¦¬":7556,"Ġà¦ªà¦¥à¦¶":7557,"à¦ķà¦Łà¦¸":7558,"à¦ķà¦Łà¦¸à¦¹":7559,"à¦ķà¦Łà¦ľà¦¨à¦ķ":7560,"Ġà¦¸à¦°à¦²à¦¸":7561,"à¦®à¦£à¦ħà¦¤":7562,"à¦¶à¦¨à¦¯":7563,"à¦¶à¦¨à¦ľ":7564,"à¦¶à¦¨à¦ļ":7565,"à¦¶à¦¨à¦ıà¦¸à¦¬à¦ĩ":7566,"Ġà¦¬à¦²à¦²à¦¬":7567,"Ġà¦¬à¦²à¦²à¦¸":7568,"Ġà¦¬à¦²à¦²à¦ıà¦ĩ":7569,"Ġà¦¬à¦²à¦²à¦®à¦¹":7570,"Ġà¦¬à¦²à¦²à¦Ĩà¦ªà¦¨":7571,"à¦¯à¦®à¦¬":7572,"Ġà¦¹à§Łà¦¯":7573,"Ġà¦¹à§Łà¦ķ":7574,"Ġà¦łà¦®à¦ķ":7575,"à¦²à¦ķà¦®":7576,"à¦²à¦ķà¦ĸà¦¨à¦ĵ":7577,"à¦²à¦¬à¦ª":7578,"à¦²à¦¬à¦Ĺ":7579,"Ġà¦°à¦ķà¦«":7580,"Ġà¦ķà¦°à¦¬à¦¯":7581,"Ġà¦ķà¦°à¦¬à¦¬":7582,"Ġà¦ķà¦°à¦¬à¦Ĩà¦®":7583,"à¦ªà¦¤à¦¤":7584,"Ġà¦ıà¦¸à¦¦":7585,"Ġà¦ıà¦¸à¦¸":7586,"Ġà¦Ĩà¦Ĺà¦¸":7587,"Ġà¦Ĩà¦Ĺà¦ļ":7588,"à¦¬à¦¦à¦®à¦¨à¦ķ":7589,"Ġà¦«à¦²à¦«":7590,"Ġà¦«à¦²à¦¬à¦¤":7591,"à¦¯à¦¨à¦¦":7592,"Ġà¦Ĩà¦¨à¦ķ":7593,"à¦¦à¦¨à¦¬à¦¨":7594,"à¦¦à¦¨à¦¸à¦¬":7595,"à¦¦à¦¨à¦¸à¦®":7596,"Ġà¦īà§İà¦¸à¦ķ":7597,"Ġà¦ĩà¦¤à¦°à¦¤":7598,"Ġà¦¸à¦¨à§İà¦ķ":7599,"Ġà¦¸à¦¨à¦¦à¦ªà¦¤":7600,"Ġà§°":7601,"à¦ħà¦Ł":7602,"à¦ħà¦¨à¦¸":7603,"à¦ħà¦Łà¦²":7604,"à¦ħà¦¸à¦¤":7605,"à¦ħà¦¸à¦°à¦ķ":7606,"à¦ħà¦¸à¦®à¦¯":7607,"à¦Ńà¦¬à¦®":7608,"à¦°à¦Ńà¦°à¦¤à¦ª":7609,"Ġà¦ķà¦²à¦Ł":7610,"à¦¸à¦¨à¦°":7611,"à§°à¦²":7612,"à§°à¦¸à¦¨":7613,"à§°à¦ļà¦²":7614,"à§°à¦²à¦®":7615,"à§°à¦¯à¦ľ":7616,"à§°à¦ªà¦ŀ":7617,"Ġà¦ķà¦¬à¦¯":7618,"Ġà¦ķà¦¬à¦Ľà¦°":7619,"Ġà¦Ĩà¦ªà¦¨à¦ªà¦°":7620,"Ġà¦Ĩà¦ªà¦¨à¦Ĩà¦ªà¦¨":7621,"Ġà¦Ĩà¦§à¦ĺà¦£":7622,"à¦®à¦ķà¦¸":7623,"à¦®à¦ķà¦ĸà¦¨":7624,"à¦·à¦ķà¦¬à¦¨":7625,"à¦·à¦ķà¦¸à¦¬":7626,"à¦·à¦ķà¦ıà¦ĩ":7627,"à¦·à¦ķà¦Ĺà¦¬":7628,"à¦¯à¦¬à¦¸à¦°":7629,"Ġà¦ĵà¦łà¦²":7630,"à¦ªà¦¦à¦¶":7631,"à¦ªà¦¦à¦¸à¦®":7632,"à¦ªà¦¦à¦®à¦¹":7633,"à¦ªà¦¦à¦Ĩà¦ªà¦¦":7634,"à¦Ĺà¦°à¦ª":7635,"à¦Ĺà¦°à¦ĵ":7636,"à¦¤à¦®à¦¬":7637,"à¦¤à¦®à¦¦":7638,"à¦¤à¦®à¦¸":7639,"à¦¤à¦®à¦§":7640,"à¦¤à¦®à¦ªà¦¤":7641,"Ġà¦Ŀà¦¤":7642,"Ġà¦Ŀà¦²":7643,"Ġà¦Ŀà¦°à¦£":7644,"Ġà¦Ŀà¦Ĺà¦¬":7645,"Ġà¦Ĩà¦¶à¦ķ":7646,"Ġà¦ķà¦®à¦¦":7647,"Ġà¦ķà¦®à¦¸":7648,"Ġà¦ķà¦®à¦ľ":7649,"Ġà¦ħà¦ªà¦¶":7650,"Ġà¦ħà¦ªà¦²à¦ķ":7651,"à¦ıà¦ĩà¦Ĺ":7652,"à¦ĩà¦¨à¦¦":7653,"à¦ĩà¦¨à¦ıà¦°":7654,"à¦°à¦ĵà¦·":7655,"à¦ļà¦²à¦¸à¦®":7656,"à¦Ĺà¦²à¦¶":7657,"à¦Ĺà¦²à¦ļ":7658,"à¦Ĺà¦²à¦ĵ":7659,"à¦Ĺà¦²à¦¬à¦¨":7660,"à¦Ĺà¦²à¦ı":7661,"à¦Ĺà¦²à¦ķà¦°":7662,"à¦Ĺà¦²à¦ĭà¦·":7663,"à¦Ĺà¦²à¦®à¦¹à¦²":7664,"Ġà¦²à¦ķà¦¸":7665,"Ġà¦²à¦ķà¦¡":7666,"à¦¶à¦ķà¦ĵ":7667,"à¦¨à¦ķà¦¦":7668,"à¦¨à¦ķà¦ļ":7669,"Ġà¦ªà¦¦à¦ªà¦¥":7670,"Ġà¦ĩà¦¨à¦¶":7671,"à¦¬à¦ķà¦®":7672,"à¦ªà¦ķà¦®":7673,"à¦ªà¦ķà¦Ĺ":7674,"à¦ªà¦ķà¦ĵ":7675,"à¦ªà¦ķà¦°à¦£":7676,"à¦°à¦¹à¦£à¦¸à¦¬":7677,"à¦¤à¦ķà¦ķ":7678,"à¦¤à¦ķà¦¥":7679,"Ġà¦ľà¦²à¦ĩ":7680,"Ġà¦ľà¦²à¦ļ":7681,"Ġà¦ľà¦²à¦®à¦Ĺ":7682,"Ġà¦ľà¦²à¦Ńà¦°":7683,"à¦¬à¦¸à¦ŀ":7684,"Ġà¦Ĺà¦²à¦Ĺà¦²":7685,"à¦¹à¦¸à¦ķ":7686,"à¦¹à¦¸à¦ĵ":7687,"à¦¸à¦°à¦¬à¦°":7688,"à¦¯à¦¸à¦°à¦ķ":7689,"à¦ĩà¦²à¦¸":7690,"à¦ĩà¦²à¦ĩ":7691,"à¦ĩà¦²à¦ĵ":7692,"Ġà¦ħà¦®à¦¸":7693,"Ġà¦ħà¦®à¦°à¦ķ":7694,"à¦¯à¦¦à¦²à¦Ĺ":7695,"à¦§à¦ķà¦¥":7696,"à¦§à¦ķà¦Ĺà¦£":7697,"à§Łà¦¨à¦ĩ":7698,"Ġà¦ħà¦ªà¦°à¦Ł":7699,"Ġà¦¨à§Łà¦¬à¦°":7700,"Ġà¦Ńà¦¬à§İ":7701,"à¦¨à¦¸à¦Ł":7702,"à¦¨à¦¸à¦¤à¦¤":7703,"à¦¨à¦¸à¦ķà¦¨":7704,"à¦¥à¦¨à¦ĩ":7705,"à¦ķà¦¬à¦ĩ":7706,"à¦®à¦¬à¦¡":7707,"à¦ľà¦¸à¦ķà¦²":7708,"à¦°à¦²à¦ľ":7709,"à¦°à¦²à¦Ļ":7710,"à¦°à¦²à¦ĺ":7711,"Ġà¦¸à¦ļà¦²à¦¤":7712,"à¦¹à¦°à¦Ńà¦¬":7713,"à¦¬à¦¶à¦¤à¦ĩ":7714,"Ġà¦ĭà¦®à¦¨":7715,"Ġà¦ĭà¦¤à¦¨":7716,"Ġà¦ĭà¦·à¦¯":7717,"Ġà¦ĭà¦ķà¦¬":7718,"à¦°à¦ľà¦°":7719,"à¦°à¦ľà¦ķ":7720,"à¦°à¦ľà¦²":7721,"à¦°à¦ľà¦¦":7722,"à¦°à¦ľà¦Ĺ":7723,"à¦°à¦ľà§Łà¦¨":7724,"à¦°à¦ľà¦¬à¦°à¦¦à¦¸":7725,"à¦Łà¦ķà¦¸":7726,"à¦Łà¦ķà¦°à¦£":7727,"à¦Łà¦ķà¦ļà¦²à¦ļ":7728,"à¦īà¦²à¦ªà¦¥":7729,"à¦¹à¦²à¦®":7730,"à¦¹à¦²à¦ĩ":7731,"à¦¹à¦²à¦ĵ":7732,"Ġà¦ķà¦¤à¦²":7733,"Ġà¦ıà¦²à¦¸":7734,"Ġà¦ıà¦²à¦ĩà¦¡":7735,"Ġà¦¸à¦¹à¦ľà¦¤":7736,"Ġà¦¸à¦¹à¦ľà¦ª":7737,"à¦«à¦²à¦¸":7738,"à¦ªà¦¸à¦Ń":7739,"à¦ªà¦¸à¦Ļ":7740,"à¦ªà¦¸à¦®à¦¨":7741,"à¦¸à¦²à¦Ń":7742,"Ġà¦īà¦²à¦Łà¦ª":7743,"à¦ľà¦ķà¦¤à¦¨":7744,"à¦ªà¦·à¦ľ":7745,"à¦®à¦¸à¦ľ":7746,"à¦Łà¦²à¦Ĺ":7747,"à¦°à¦ķà¦®à¦Ń":7748,"à¦·à¦®à¦®":7749,"Ġà¦Ĩà¦¦à¦°à¦®":7750,"Ġà¦Ĺà¦£à¦¸à¦ļ":7751,"à¦¸à¦ķà¦®à¦£":7752,"à¦Ĺà¦¨à¦¦":7753,"à¦Ĺà¦¨à¦ĩ":7754,"à¦°à¦®à¦£à¦¦":7755,"à¦°à¦®à¦£à¦ľ":7756,"à¦°à¦®à¦£à¦īà¦¦":7757,"Ġà¦Ĺà§ľà¦Ľ":7758,"à¦¨à¦Łà¦°":7759,"à¦¹à¦°à¦£à¦ķ":7760,"à¦ķà¦°à¦£à¦ĩ":7761,"à¦ķà¦°à¦£à¦Ł":7762,"à¦ķà¦°à¦£à¦ıà¦¸à¦¬":7763,"à¦ĩà¦ķà¦¸":7764,"à¦ĩà¦ķà¦ķà¦®":7765,"Ġà¦¶à¦¹à¦°à¦¬à¦¨":7766,"Ġà¦īà¦łà¦²à¦®à¦¨":7767,"Ġà¦īà¦ªà¦°à¦ĵ":7768,"à¦łà¦ķà¦ĸ":7769,"à§İà¦¸à¦¤":7770,"Ġà¦īà§İà¦¸à¦¸":7771,"à¦Ĺà¦¬à§İ":7772,"à¦§à¦¬à¦¹":7773,"Ġà¦¬à¦ĩà¦Ĩà¦²":7774,"Ġà¦¨à¦¬à¦Ĺ":7775,"Ġà¦¨à¦¬à¦°à¦¤":7776,"à¦¦à¦²à¦¯":7777,"à¦¦à¦²à¦ªà¦¦":7778,"à¦°à§Łà¦¸":7779,"Ġà¦¸à¦Ńà¦¯":7780,"à¦Ĺà¦®à¦§":7781,"à¦Ĺà¦®à¦°à¦¤":7782,"à¦ķà¦¸à¦ĩà¦¤":7783,"Ġà¦°à¦Ļà¦§à¦¨":7784,"Ġà¦°à¦Ļà¦¤à¦°à¦Ļ":7785,"Ġà¦ĵà¦ĩà¦¦":7786,"Ġà¦¦à¦²à¦¸":7787,"Ġà¦¦à¦²à¦Ł":7788,"à¦ĩà¦¤à¦¸":7789,"à¦·à¦¦à¦¦":7790,"à¦·à¦¦à¦¬à¦°":7791,"à¦°à¦ªà¦°à¦¨":7792,"à¦°à¦ªà¦°à¦®":7793,"à¦ľà¦¬à¦¹":7794,"à¦ľà¦¬à¦¸à¦¨":7795,"à¦¨à¦Ĺà¦£":7796,"à¦¨à¦Ĺà¦łà¦¨":7797,"Ġà¦īà§İà¦¸à¦¬à¦ļ":7798,"Ġà¦īà§İà¦¸à¦¬à¦¸à¦ķà¦²":7799,"Ġà¦īà§İà¦¸à¦¬à¦Ĩà¦¯":7800,"Ġà¦īà§İà¦¸à¦¬à¦Ĩà§Ł":7801,"à¦®à¦°à¦£à¦ķ":7802,"Ġà¦°à¦¸à¦Ł":7803,"Ġà¦°à¦¸à¦ľ":7804,"Ġà¦§à¦°à¦¨à¦§":7805,"Ġà¦¸à¦®à§Łà¦ĵ":7806,"à¦ķà¦Ńà¦°":7807,"à¦¬à¦Ńà¦°":7808,"à¦¡à¦²à¦«":7809,"à¦¨à¦ªà¦²":7810,"Ġà¦§à¦¨à¦®":7811,"Ġà¦ħà¦ľà§Ł":7812,"à¦ªà¦£à¦ĵ":7813,"à¦ķà¦¨à¦ľà¦°":7814,"Ġà¦¨à¦ľà¦°à¦¬à¦¨":7815,"Ġà¦Ĩà¦ªà¦¶":7816,"Ġà¦Ĩà¦ªà¦§à¦°":7817,"à¦£à¦ķà¦£":7818,"à¦®à¦ªà¦°à¦¬à¦°":7819,"à¦¬à¦®à¦¦":7820,"à¦¬à¦®à¦Ļ":7821,"à¦¨à¦ĩà¦Ĩà¦®":7822,"à¦®à¦¹à¦®":7823,"à¦®à¦¹à¦¦":7824,"Ġà¦¦à¦°à¦ķà¦·":7825,"Ġà¦¸à¦¦à¦¬":7826,"Ġà¦¸à¦¦à¦Ĺà¦¤":7827,"Ġà¦¬à¦²à¦¬à¦ľ":7828,"à¦®à¦¦à¦ª":7829,"à¦¯à§İà¦ĵ":7830,"Ġà¦Ĩà¦ĩà¦¨à¦Ĩà¦¦":7831,"Ġà¦Ĩà¦ļà¦°à¦£à¦ª":7832,"à¦¤à¦¸à¦ĩ":7833,"à¦¤à¦¸à¦Ń":7834,"à¦²à¦¸à¦«":7835,"à¦ĩà¦Łà¦ľ":7836,"Ġà¦¦à¦¶à§İ":7837,"Ġà¦¦à¦¶à¦ľà¦¨à¦ķ":7838,"à¦ıà¦ķà¦®":7839,"à¦®à¦ľà¦®":7840,"à¦®à¦ªà¦ŀ":7841,"à¦¨à¦¶à¦°":7842,"à¦¨à¦¶à¦¤":7843,"à¦°à¦°à¦«":7844,"à¦²à¦Ńà¦¤":7845,"à¦ĸà¦ķà¦Ĩà¦²":7846,"à¦Ĺà¦łà¦¨à¦¦":7847,"à¦Ĺà¦łà¦¨à¦¸à¦¬":7848,"à¦Ĺà¦£à¦¤à¦¨":7849,"à¦·à§Łà¦ĵ":7850,"Ġà¦ĸà¦¬à¦°à¦ªà¦¤":7851,"à¦®à¦¶à¦¤à¦¬à¦°":7852,"Ġà§¨à§§à§§à§":7853,"à¦īà¦¨à¦ľ":7854,"Ġà¦¹à¦ĩà¦ĵ":7855,"Ġà¦¸à¦°à¦²à¦°":7856,"Ġà¦¸à¦°à¦²à¦ļ":7857,"Ġà¦¸à¦°à¦²à¦®à¦¨":7858,"Ġà¦¸à¦°à¦²à¦®à¦¤":7859,"Ġà¦Ĺà¦łà¦¨à¦Ł":7860,"à¦¬à¦ľà¦¨à¦¸":7861,"à¦¬à¦ľà¦¨à¦¸à¦®à¦ķ":7862,"à¦¦à¦¶à¦°":7863,"Ġà¦ĺà¦¨à¦ĺ":7864,"Ġà¦¬à§ľà¦²":7865,"Ġà¦®à¦¨à¦¨à¦§à¦°":7866,"à¦°à¦¥à¦®à¦¤à¦®":7867,"à¦¸à¦¹à¦ķà¦°":7868,"à¦¨à¦®à§İà¦¸":7869,"à¦¯à¦¶à¦°":7870,"à¦¯à¦ľà¦Ĺà§İ":7871,"à¦®à¦®à¦Ń":7872,"à¦®à¦®à¦ŀ":7873,"à¦¤à¦ĩà¦¹":7874,"à¦¬à¦°à¦£à¦¸":7875,"à¦¬à¦°à¦£à¦ĵ":7876,"à¦¸à¦²à¦®à¦«":7877,"Ġà¦·à§ľà¦¯à¦¨":7878,"Ġà¦Ķà¦°à¦Ļ":7879,"à¦®à¦ļà¦ļ":7880,"Ġà¦ķà¦²à¦ķà¦¬":7881,"à§«à§§":7882,"à¦Ĺà¦ľà¦Ł":7883,"à¦ªà¦¬à§Łà¦¸":7884,"à¦°à¦ļà¦²à¦®":7885,"Ġà¦Ńà¦°à¦¤à¦ĩ":7886,"Ġà¦Ĭà¦·à¦°":7887,"Ġà¦ªà¦°à¦¶à¦®à¦£":7888,"à¦·à¦¸à¦ĵ":7889,"à¦·à¦¸à¦ķà¦²":7890,"à¦·à¦¸à¦ĺà¦°":7891,"à¦¬à§Łà¦ķ":7892,"Ġà¦ľà§Łà¦Ł":7893,"à¦Ĺà¦°à¦£à¦®":7894,"Ġà¦ĩà¦¹à¦ľ":7895,"Ġà¦ĩà¦¹à¦ľà¦¨":7896,"Ġà¦ĩà¦¹à¦ľà¦Ĺà¦¤":7897,"à¦¯à¦Łà¦ķà¦°":7898,"à¦¯à¦Łà¦¨à¦ķ":7899,"à¦·à¦ªà¦²":7900,"à¦²à¦ªà¦ŀ":7901,"à¦ĭà¦Ĺ":7902,"à§©à§©":7903,"à§©à§¬":7904,"à¦¸à¦¸à¦ķà¦²":7905,"Ġà¦°à¦ľà¦¬à¦¸":7906,"à¦²à¦ļà¦¶à¦®":7907,"à¦£à¦Ĺà¦ŀ":7908,"Ġà§©à§©":7909,"à¦Ĺà¦Ńà¦¬à¦¨":7910,"Ġà¦Ĩà¦ĸà§ľ":7911,"à¦«à¦²à¦¨à¦¶":7912,"à¦Łà¦®à¦ļà¦¨":7913,"à§Ńà§¦":7914,"à§Ńà§¦à§¦à§¦":7915,"à¦ªà¦²à¦¦":7916,"Ġà¦¦à¦¶à¦ķà¦Ĺ":7917,"Ġà§§à§¯à§«à§®":7918,"à¦¦à¦ªà¦¹":7919,"à¦Ĺà¦¬à¦¤à¦ı":7920,"Ġà¦Ĩà¦¬à¦¹à¦®à¦£":7921,"à¦¨à¦ıà¦ĩà¦Ł":7922,"à¦¨à¦ıà¦ĩà¦¸à¦¬":7923,"Ġà¦ļà¦Łà¦ļà¦Ł":7924,"à¦¨à¦Ĩà¦¦":7925,"à¦¨à¦Ĩà¦Ľ":7926,"à¦¨à¦Ĩà¦ľà¦ĩ":7927,"Ġà¦ľà¦Ĺà§İà¦ľ":7928,"à§°à¦¤à¦¹":7929,"Ġà¦Ĩà¦Łà¦·à¦Ł":7930,"Ġà¦¤à¦¨à¦ĸ":7931,"à¦¬à§İà¦ĩ":7932,"à§®à§§":7933,"à§®à§¯":7934,"à¦ıà¦ĸà¦¨à¦ĵ":7935,"à¦¯à§Łà¦ĵ":7936,"à¦ĩà¦¦à¦¹":7937,"à¦Ĺà¦łà¦¨à¦¬":7938,"à¦Ĺà¦łà¦¨à¦¸":7939,"à§¬à§Ń":7940,"Ġà§ªà§¨":7941,"Ġà§ªà§§":7942,"Ġà§ªà§¯":7943,"Ġà¦¬à¦īà§Ł":7944,"Ġà§¨à§¦à§¦à§¦":7945,"Ġà¦ĭà¦£à¦¶":7946,"à¦Łà¦¸à¦ĸ":7947,"Ġà¦¬à¦¦à¦¹":7948,"Ġà¦ħà¦¬à¦¨à¦®":7949,"ĠĠĠĠĠĠĠĠĠĠĠĠĠĠĠĠĠĠĠĠĠĠĠĠĠĠĠĠĠĠĠĠĠĠĠĠĠĠ":7950,"ĠĠĠĠĠĠĠĠĠĠĠĠĠĠĠĠĠĠĠĠĠĠĠĠĠĠĠĠĠĠĠĠĠĠĠĠĠĠĠ":7951,"ĠĠĠĠĠĠĠĠĠĠĠĠĠĠĠĠĠĠĠĠĠĠĠĠĠĠĠĠĠĠĠĠĠĠĠĠĠĠĠĠĠĠ":7952,"ĠĠĠĠĠĠĠĠĠĠĠĠĠĠĠĠĠĠĠĠĠĠĠĠĠĠĠĠĠĠĠĠĠĠĠĠĠĠĠĠĠ":7953,"Ġà¦ħà¦®à¦°à¦²":7954,"à¦īà¦¡à¦Ń":7955,"Ġà¦ĵà§Łà¦°":7956,"à¦§à¦¸à¦ľ":7957,"Ġà¦ļà¦°à¦£à¦ļ":7958,"Ġà¦ļà¦°à¦£à¦¬à¦¨":7959,"Ġà¦¶à¦¶à¦§à¦°":7960,"à¦¨à¦ıà¦¸":7961,"à¦¨à¦ıà¦ĵ":7962,"à¦¨à¦ıà¦ķà¦¬":7963,"à¦¨à¦ħà¦¬":7964,"à¦¨à¦ħà¦ľ":7965,"à¦¨à¦ħà¦¶":7966,"à¦¨à¦ħà¦Ĺ":7967,"à¦¨à¦ħà¦¥à¦¬":7968,"Ġà§§à§¦à§¦à§¦":7969,"Ġà¦¨à¦Ĺà¦°à¦ĩ":7970,"Ġà¦¨à¦Ĺà¦°à¦¸à¦®":7971,"Ġà¦ıà¦ķà¦ªà¦²à¦ķ":7972,"Ġà¦®à¦°à¦£à¦ļ":7973,"Ġà¦®à¦°à¦£à¦ĵ":7974,"Ġà¦¬à¦°à¦«à¦¶":7975,"à¦ĺà¦Łà¦¨à¦ªà¦Ł":7976,"Ġà¦¨à¦°à¦ķà¦ķ":7977,"Ġà¦¨à¦°à¦ķà¦¯à¦¨":7978,"à¦Ĺà¦²à¦ķà¦¬":7979,"Ġà§¬à§¬":7980,"à¦īà¦ªà¦°à¦¨":7981,"Ġà¦Ĩà¦¬à¦°à¦£à¦¹":7982,"Ġà§§à§®à§¦à§¦":7983,"Ġà§§à§®à§¯à§":7984,"Ġà§§à§®à§¬à§¦":7985,"Ġà§§à§®à§®à§ª":7986,"à¦¯à¦ľà¦¨à¦¨":7987,"Ġà§Ńà§ª":7988,"Ġà§Ńà§¦à§¦":7989,"Ġà¦ķà¦¦à§°":7990,"Ġà§§à§¯à§ªà§©":7991,"Ġà§§à§¯à§ªà§ª":7992,"Ġà§§à§¯à§ªà§®à§ªà§¯":7993,"à¦¨à¦ľà¦¨à¦ĩ":7994,"Ġà¦Ĩà¦«à¦¤":7995,"à¦ıà¦¤à¦¸à¦¬":7996,"Ġà§§à§©à§¦":7997,"Ġà§§à§©à§¨":7998,"Ġà§§à§©à§ª":7999,"Ġà§§à§©à§¦à§¦":8000,"à¦¨à¦¸à¦¬à¦®":8001,"à¦²à¦¶à¦¶":8002,"Ġà§§à§¨à§§":8003,"Ġà¦Ĩà¦ªà¦¸à¦¹":8004,"Ġà¦ķà¦²à¦¹à¦ĩ":8005,"Ġà¦¶à¦¹à¦°à¦Ĺà¦ŀ":8006,"Ġà¦¬à¦°à¦®à¦ļà¦¨":8007,"à¦ħà¦ªà¦ļà¦¯":8008,"Ġà§§à§¯à§®à§©":8009,"Ġà¦ķà¦¸à¦°à¦¤":8010,"Ġà¦¦à¦°à¦¦à¦¸":8011,"Ġà¦Ĺà¦ľà¦¬à¦°":8012,"Ġà¦ªà¦łà¦¨à¦¶":8013,"Ġà§§à§¯à§¨à§«":8014,"Ġà§§à§¯à§¨à§¯":8015,"Ġà§¨à§¦à§§à§«":8016,"à¦£à¦¶à¦¹à¦°":8017,"Ġà§§à§ªà§Ń":8018,"Ġà§§à§ªà§§à§§à§":8019,"à¦Īà¦°":8020,"à¦Īà¦¦":8021,"Ġà§¨à§¦à§¦à§¨":8022,"Ġà§§à§¯à§§à§§":8023,"Ġà§§à§¯à§§à§©":8024,"Ġà¦Ŀà§ľà¦¬":8025,"Ġà¦Ŀà§ľà¦Ŀà¦ŀ":8026,"à¦°à¦Ĩà¦ļà¦°à¦£à¦ķ":8027,"Ġà§§à§¯à§¬à§¨":8028,"Ġà§§à§¯à§¬à§¬":8029,"à¦ĸà¦¬à¦°à¦Ł":8030,"à¦łà¦Ńà¦¬à¦¨":8031,"Ġà§§à§§à§¦":8032,"Ġà§§à§§à§Ń":8033,"à§§à§¯à§¨à§¦":8034,"à¦°à¦ħà¦¬à¦¸":8035,"Ġà¦ªà¦Łà¦²à¦ļ":8036,"Ġà¦ĩà¦¨à¦«à¦°à¦®":8037,"Ġà¦¶à¦¨à¦¶à¦¨":8038,"Ġà¦ľà¦¹à¦°à¦²":8039,"à¦ļà¦¦à¦¶à¦Ł":8040,"Ġà¦ĭà¦ķà¦®à¦¨":8041,"Ġà§§à§¯à§©à§¬":8042,"Ġà¦¬à§İà¦¸à¦¦":8043,"Ġà§¯à§¯à§":8044,"Ġà§§à§¬à§§":8045,"ĠĠĠĠĠĠĠĠĠĠĠĠĠĠĠĠĠĠĠĠĠĠĠĠĠĠ":8046,"ĠĠĠĠĠĠĠĠĠĠĠĠĠĠĠĠĠĠĠĠĠĠĠĠĠĠĠ":8047,"ĠĠĠĠĠĠĠĠĠĠĠĠĠĠĠĠĠĠĠĠĠĠĠĠĠĠĠĠĠĠ":8048,"Ġà¦ĩà¦¤à¦°à¦ľà¦¨":8049,"à§§à§¦à§®":8050,"Ġà¦ĩà¦īà¦Ń":8051,"Ġà¦ĩà¦īà¦ı":8052,"à¦°à¦ľà¦¨à¦¨à¦¶à¦ķ":8053,"Ġà§¨à§«à§©à§¦":8054,"Ġà¦¸à¦®à¦¤à¦²à¦Ń":8055,"Ġà§§à§¯à§¦à§ª":8056,"Ġà¦ķà¦¦à¦®à¦«":8057,"Ġà¦Ĩà¦īà¦Łà¦²":8058,"à¦¸à§İà¦ļà¦°":8059,"Ġà¦ªà¦ªà¦Ĩà¦ª":8060,"à¦¬à¦°à¦²à¦¹à¦°":8061,"Ġà¦Ńà¦Ĺà¦¬à¦¦à¦Ĺ":8062,"à¦®à¦Ŀà¦®":8063,"Ġà¦Ĩà¦ªà¦¦à¦§à¦°":8064,"Ġà¦Ĺà¦Ĺà¦¨à¦ļ":8065,"Ġà¦Ĺà¦Ĺà¦¨à¦Ń":8066,"à¦ªà¦°à¦¸à¦Ĺà¦¨":8067,"à§ģà§ģà§ģà§ģ":8068,"Ġà¦¹à¦ľà¦¸à¦¨":8069,"Ġà¦¶à¦ķà¦Łà¦Ńà¦ŀ":8070,"Ġà¦§à¦¨à¦¬à¦£":8071,"à¦¨à¦ħà¦°à¦°à¦¶":8072,"Ġà¦ħà¦ĺà¦Łà¦¨à¦ĺà¦Łà¦¨à¦ªà¦Ł":8073,"Ġà§©à§«à§«":8074,"à¦ĩà¦īà§İà¦°":8075,"à¦·à¦¸à¦¬à¦§":8076,"Ġà§¯à§¦à§¦":8077,"Ġà¦°à¦£à¦¸à¦ľ":8078,"Ġà¦īà¦ĩà¦ķà¦ıà¦¨":8079,"à¦īà¦²à¦ĩà¦¸à¦²":8080,"à¦¨à¦ıà¦ĸà¦¨à¦ĵ":8081,"Ġà¦¬à¦¦à¦°à¦īà¦²à¦ĩà¦¸à¦²":8082,"à¦Ĺà¦°à¦¬à§İ":8083,"à¦¬à¦¨à¦ļà¦ŀ":8084,"Ġà¦ĩà¦Ĺà¦Ńà¦°":8085,"Ġà§©à§Ńà§¨":8086,"à¦°à¦Ĺà¦²à¦Ń":8087,"Ġà¦¤à¦¦à¦¬à¦§":8088,"à¦®à¦®à¦°à¦£à¦¶":8089,"Ġà¦®à§Łà¦®à¦¨à¦¸":8090,"à¦°à¦īà¦ĩà¦¨":8091,"Ġà§§à§©à§¬à§¯":8092,"à¦Ķà¦¦":8093,"à¦ľà¦¸à¦°à¦ŀ":8094,"à¦¸à¦Ĩà¦ªà¦¡":8095,"à¦¥à¦¸à¦¬à¦²":8096,"Ġà¦¶à¦ĵà¦ķà¦¤":8097,"Ġà¦°à¦¦à¦¬à¦¦à¦²":8098,"Ġà§¯à§§à§¦":8099,"Ġà¦¸à¦¦à¦²à¦¬à¦²":8100,"Ġà¦¤à¦Ľà¦¨à¦Ľ":8101,"Ġà¦°à¦Ĺà¦°à¦Ĺ":8102,"Ġà¦Ľà¦®à¦Ľà¦®":8103,"Ġà¦ĩà¦®à¦ªà¦°à¦Ł":8104,"ĠĠâĢ¨čĊč":8105,"à¦īà¦ĩà§Łà¦°":8106,"Ġà§ĭ":8107,"Ġà¦Ĥ":8108,"à¦¾à§į":8109,"à¦¾à§ĭ":8110,"à¦°à¦°à¦¤":8111,"à¦°à¦²à¦¤":8112,"à¦°à¦ľà¦¸":8113,"à¦°à¦¢":8114,"à¦°à¦ħà¦¤":8115,"à¦°à¦ıà¦Ń":8116,"à¦°à¦Ĳà¦¤":8117,"à¦°à¦Ŀà¦°":8118,"à¦°à¦ħà¦Ń":8119,"à¦°à¦īà¦¤":8120,"à¦°à¦īà¦ª":8121,"à¦°à¦ħà¦ķ":8122,"à¦°à¦ħà¦®":8123,"à¦°à¦ħà¦¬":8124,"à¦°à¦īà§İà¦ª":8125,"à¦°à¦Ŀà¦¨":8126,"à§įà¦¾":8127,"à§įà§į":8128,"à¦¨à¦ĸà¦¨":8129,"à¦¨à¦Ŀ":8130,"à¦¨à¦°à¦¹":8131,"à¦¨à¦ķà¦Ł":8132,"à¦¨à¦¯à¦®":8133,"à¦¨à¦Ĺà¦²":8134,"à¦¨à¦¯à¦¸":8135,"à¦¨à¦«à¦²":8136,"à¦¨à¦¹à¦¤":8137,"à¦¨à¦¢":8138,"à¦¨à¦°à¦®à¦£":8139,"à¦¨à¦ªà¦Ł":8140,"à¦¨à¦ľà¦¯":8141,"à¦¨à¦²à¦®":8142,"à¦¨à¦ľà¦®":8143,"à¦¨à¦¸à¦®à¦¯":8144,"à¦¨à¦īà¦Ł":8145,"à¦¨à¦īà¦ĩ":8146,"à¦¨à¦ıà¦Ń":8147,"à¦¨à¦ĭà¦·":8148,"à¦¨à¦īà§İà¦¸à¦¬":8149,"à¦¨à¦ıà¦ķà¦ľà¦¨":8150,"à¦¨à¦«à¦°":8151,"à¦¨à¦ıà¦ķà¦ĩ":8152,"à¦¨à¦ľà¦Ĺà§İ":8153,"à¦¨à¦Ī":8154,"à¦¨à¦«à¦¸":8155,"à¦¨à¦Īà¦¶":8156,"à¦¨à¦Ĭà¦°":8157,"à¦¨à¦ķà¦¤à¦ķ":8158,"à¦¨à¦²à¦¬à¦£":8159,"à¦¤à¦ł":8160,"à¦¤à¦ĵà¦¯":8161,"à¦¤à¦ħ":8162,"à¦¤à¦Ĺà¦°":8163,"à¦¤à¦ļà¦²":8164,"à¦¤à¦¶à¦¬":8165,"à¦¤à¦¹à¦°à¦£":8166,"à¦¤à§İà¦ķ":8167,"à¦¤à¦ªà¦Ł":8168,"à¦¤à¦ľà¦²":8169,"à¦¤à¦ľà¦¨à¦ķ":8170,"à¦¤à¦¶à¦°":8171,"à¦¤à¦¥à¦¸":8172,"à¦¤à¦īà§İà¦¸à¦¬":8173,"à¦¤à¦Ĩà¦ķ":8174,"à¦¤à¦¸à¦¬à¦ĸ":8175,"à¦¤à¦ªà¦°à¦¬à¦°":8176,"à¦¤à¦ľà¦¨à¦¦":8177,"à¦¤à¦ħà¦®":8178,"à¦¤à¦Ĩà¦¦":8179,"à¦¤à¦ªà¦¦à¦¬":8180,"à¦¤à¦īà¦·":8181,"à¦¤à¦Ĩà¦Łà¦Ł":8182,"à¦¯à¦°à¦¶":8183,"à¦¯à¦Ĺà¦²":8184,"à¦¯à¦¹à¦¸":8185,"à¦¯à¦°à¦ļ":8186,"à¦¯à¦Ĩà¦®":8187,"à¦¯à¦ľà¦¤":8188,"à¦¯à¦ıà¦ķ":8189,"à¦¯à¦ľà¦²":8190,"à¦¯à¦²à¦Ĺ":8191,"à¦¯à¦īà¦¨":8192,"à¦¯à¦Ĩà¦°":8193,"à¦¯à¦ıà¦ķà¦Ł":8194,"à¦¯à¦īà¦¦":8195,"à¦¯à¦¨à¦¤à¦®":8196,"à¦¯à¦Ĺà¦¤à¦Ń":8197,"à¦¯à¦īà¦¤":8198,"à¦¯à¦ĺà¦Łà¦¨":8199,"à¦¯à¦¬à¦¨à¦®":8200,"à¦¯à¦Ĩà¦ļ":8201,"à¦¯à¦ªà¦°à¦¬à¦°":8202,"à¦¯à¦ħà¦ª":8203,"à¦¯à¦ĭà¦£":8204,"à¦¯à¦īà¦ªà¦¨":8205,"à¦¯à¦Ĩà¦¶":8206,"à¦¯à¦īà§İà¦ª":8207,"à¦ķà¦Ļ":8208,"à¦ķà¦ŀ":8209,"à¦ķà¦ĺ":8210,"à¦ķà¦ķà¦Ł":8211,"à¦ķà¦®à¦£":8212,"à¦ķà¦·à¦ķ":8213,"à¦ķà¦ĩà¦¨":8214,"à¦ķà¦¹à¦¸":8215,"à¦ķà¦¯à¦¦":8216,"à¦ķà¦ĵà§Ł":8217,"à¦ķà¦ľà¦¸":8218,"à¦ķà¦¨à¦Ł":8219,"à¦ķà¦ķà¦°à¦£":8220,"à¦ķà¦ĩà¦ķ":8221,"à¦ķà¦łà¦ķ":8222,"à¦ķà¦¦à¦²":8223,"à¦ķà¦ĩà¦¤":8224,"à¦ķà¦ľà¦®":8225,"à¦ķà¦ļà¦¤":8226,"à¦ķà¦°à¦¸à¦®":8227,"à¦ķà¦Ĩà¦ķ":8228,"à¦ķà¦ıà¦¤":8229,"à¦ķà¦¸à¦¬à¦ĸ":8230,"à¦ķà¦ħà¦®":8231,"à¦ķà¦Ĩà¦¦":8232,"à¦ķà¦ħà¦²":8233,"à¦ķà¦°à¦¤à¦²":8234,"à¦ķà¦Ĩà¦ļà¦°à¦£":8235,"à¦¬à¦«":8236,"à¦¬à¦¹à¦°":8237,"à¦¬à¦Ĩà¦®":8238,"à¦¬à¦®à¦Ĺ":8239,"à¦¬à¦®à¦°à¦£":8240,"à¦¬à¦īà¦°":8241,"à¦¬à§İà¦ª":8242,"à¦¬à¦ıà¦Ĺ":8243,"à¦¬à¦ıà¦®à¦¨":8244,"à¦¬à¦īà¦¤":8245,"à¦¬à¦ĺà¦Łà¦¨":8246,"à¦¬à¦²à¦¨à¦ķ":8247,"à¦¬à¦ħà¦¹":8248,"à¦²à¦ľà¦¨":8249,"à¦²à¦ªà¦¨":8250,"à¦²à¦¬à¦¤":8251,"à¦²à¦ªà¦¦":8252,"à¦²à¦ªà¦ķ":8253,"à¦²à¦īà¦²":8254,"à¦²à¦¹à¦¤":8255,"à¦²à¦®à¦¸":8256,"à¦²à¦¸à¦ķ":8257,"à¦²à¦Ĺà¦¨":8258,"à¦²à¦²à¦®":8259,"à¦²à¦Ĺà¦£":8260,"à¦²à¦ıà¦¸à¦¬à¦ĩ":8261,"à¦²à¦¦à¦ķ":8262,"à¦²à¦ħà¦¤":8263,"à¦²à¦Ĩà¦®à¦°":8264,"à¦²à¦°à¦Ļ":8265,"à¦²à¦§à¦¨à¦ķ":8266,"à¦²à¦ıà¦ĸà¦¨":8267,"à¦²à¦Ĩà¦ļ":8268,"à¦²à¦Ĩà¦¬":8269,"à¦²à¦ħà¦®":8270,"à¦²à¦§à¦²":8271,"à¦²à¦ħà¦¬":8272,"à¦²à¦Ĩà¦¦":8273,"à¦²à¦ıà¦ķà¦¬":8274,"à¦®à¦°à¦¬":8275,"à¦®à¦¸à¦²":8276,"à¦®à¦¦à¦²":8277,"à¦®à¦Ńà¦Ļ":8278,"à¦®à¦®à¦§":8279,"à¦®à¦®à¦ª":8280,"à¦®à¦®à§Ł":8281,"à¦®à¦¸à¦®à¦¯":8282,"à¦®à¦¥à¦¸":8283,"à¦®à¦ıà¦Ĺ":8284,"à¦®à¦ħà¦¸":8285,"à¦®à¦¤à¦°à¦Ļ":8286,"à¦®à¦ħà¦ķ":8287,"à¦®à¦ıà¦¤":8288,"à¦®à¦Ĩà¦¶":8289,"à¦®à¦ıà¦ķà¦¬":8290,"à¦®à¦Ĩà¦¯":8291,"à¦¼à§Į":8292,"Ġà¦¸à¦¥":8293,"Ġà¦¸à¦¬à¦°":8294,"Ġà¦¸à§ľ":8295,"Ġà¦¸à¦°à¦¹":8296,"Ġà¦¸à¦°à¦¦":8297,"Ġà¦¸à¦¦à¦¨":8298,"Ġà¦¸à¦ĩà¦²":8299,"Ġà¦¸à¦§à¦¬":8300,"Ġà¦¸à¦ªà¦¥":8301,"Ġà¦¸à¦ĩà¦Ľ":8302,"Ġà¦¸à¦īà¦¦":8303,"Ġà¦¸à¦ĺà¦¨":8304,"Ġà¦¸à¦¶à¦Ļ":8305,"Ġà¦¸à§Łà¦²":8306,"Ġà¦¸à¦ªà¦¸à¦ª":8307,"Ġà¦ķà¦Ĺ":8308,"Ġà¦ķà¦Ľ":8309,"Ġà¦ķà¦¬à¦¨":8310,"Ġà¦ķà¦¤à¦¨":8311,"Ġà¦ķà¦Ĩ":8312,"Ġà¦ķà¦¸à¦°":8313,"Ġà¦¬à¦°à¦¤":8314,"Ġà¦¬à¦¤à¦°":8315,"Ġà¦¬à¦ĵà¦¯":8316,"Ġà¦¬à¦ķà¦¤":8317,"Ġà¦¬à¦¬à¦²":8318,"Ġà¦¬à¦¢":8319,"Ġà¦¬à¦·à¦Ł":8320,"Ġà¦¬à¦¦à¦¸":8321,"Ġà¦¬à¦¨à¦¤à¦²":8322,"Ġà¦ªà¦·":8323,"Ġà¦ªà¦¦à¦°":8324,"Ġà¦ªà¦ªà¦ķ":8325,"Ġà¦ªà¦ªà¦²":8326,"Ġà¦ªà¦ļà¦Ľ":8327,"à¦¦à¦ªà¦°":8328,"à¦¦à§İ":8329,"à¦¦à¦²à¦¨":8330,"à¦¦à¦²à¦¬":8331,"à¦¦à¦¬à¦ª":8332,"à¦¦à¦¬à¦¬":8333,"à¦¦à¦Ĺà¦²":8334,"à¦¦à¦¬à¦ķ":8335,"à¦¦à¦¬à¦¸":8336,"à¦¦à¦Ľà¦¨":8337,"à¦¦à¦īà¦²":8338,"à¦¦à¦ªà¦Ł":8339,"à¦¦à¦Ĺà¦łà¦¨":8340,"à¦¦à¦ħà¦¸":8341,"à¦¦à¦Ĩà¦¤":8342,"à¦¦à¦Ĩà¦¨":8343,"à¦¦à¦Ĩà¦¬":8344,"à¦¦à¦Ĩà¦¹":8345,"à¦¸à¦¥":8346,"à¦¸à¦¤à¦°":8347,"à¦¸à¦ªà¦¨":8348,"à¦¸à¦°à¦¬":8349,"à¦¸à§ľ":8350,"à¦¸à¦¨à¦¤":8351,"à¦¸à¦°à¦¶":8352,"à¦¸à¦¤à¦¬":8353,"à¦¸à¦ķà¦Ł":8354,"à¦¸à¦ªà¦¦":8355,"à¦¸à¦ħà¦¨":8356,"à¦¸à¦Łà¦¨":8357,"à¦¸à¦ıà¦ķ":8358,"à¦¸à¦Łà¦¬":8359,"à¦¸à¦¦à¦®":8360,"à¦¸à¦Ĩà¦ª":8361,"à¦¸à¦°à¦¤à¦ķ":8362,"à¦¸à¦¸à¦¬à¦ĸ":8363,"à¦¸à¦ħà¦¬":8364,"à¦¸à¦īà¦Ńà¦¯":8365,"à¦¸à¦Ĩà¦¡":8366,"à¦¸à¦°à¦¸à¦¤":8367,"à¦¸à¦ªà¦¨à¦¸":8368,"Ġà¦Ĩà¦ĸà¦¨":8369,"Ġà¦Ĩà¦¦à¦¨":8370,"Ġà¦Ĩà¦Łà¦²":8371,"Ġà¦Ĩà¦ĩà¦¬":8372,"Ġà¦Ĩà¦Łà¦¤":8373,"Ġà¦Ĩà¦ªà¦¦à¦ķ":8374,"Ġà¦Ĩà¦ªà¦¦à¦¬":8375,"Ġà¦Ĩà¦¤à¦°à¦¦":8376,"à¦ĩà¦Ļ":8377,"à¦ĩà¦ł":8378,"à¦ĩà¦ªà¦¨":8379,"à¦ĩà¦°à¦¸":8380,"à¦ĩà¦¨à¦¤":8381,"à¦ĩà¦°à¦¨":8382,"à¦ĩà¦²à¦ķ":8383,"à¦ĩà¦¦à¦¨":8384,"à¦ĩà¦¶à¦¬":8385,"à¦ĩà¦¤à¦²":8386,"à¦ĩà¦ªà¦¥":8387,"à¦ĩà¦¸à¦¤":8388,"à¦ĩà¦®à¦¹":8389,"à¦ĩà¦Łà¦¨":8390,"à¦ĩà¦ıà¦¸à¦¬à¦ĩ":8391,"à¦ĩà¦¹à¦¯":8392,"à¦ĩà¦ħà¦¤":8393,"à¦ĩà¦¶à¦¤":8394,"à¦ĩà¦Ĩà¦ľà¦ķ":8395,"à¦ĩà¦ıà¦®à¦¨":8396,"à¦ĩà¦Ĩà¦²":8397,"à¦ĩà¦ħà¦¸":8398,"à¦ĩà¦¸à¦®à§Ł":8399,"à¦ĩà¦īà¦Ńà¦¯":8400,"à¦ĩà¦Ĩà¦¡":8401,"à¦ĩà¦Ĩà¦ĩ":8402,"à¦ĩà¦ħà¦¦":8403,"à¦ĩà¦Ŀà¦Ĺà¦¡":8404,"à¦·à¦¬à¦¨":8405,"à¦·à¦¤à¦°":8406,"à¦·à¦°à¦¶":8407,"à¦·à¦°à¦¦":8408,"à¦·à¦°à¦ĩ":8409,"à¦·à¦¶à¦ķ":8410,"à¦·à¦®à¦¬":8411,"à¦·à¦°à¦ª":8412,"à¦·à¦ıà¦¸à¦¬":8413,"à¦·à¦ļà¦ķ":8414,"à¦·à¦°à¦ªà¦°":8415,"à¦·à¦ħà¦¨":8416,"à¦·à¦¨à¦ĩ":8417,"à¦·à¦Ńà¦¯":8418,"à¦·à¦²à¦Ĺ":8419,"à¦·à¦¸à¦ª":8420,"à¦·à¦ľà¦®":8421,"à¦·à¦¬à¦£":8422,"à¦·à¦īà§İà¦¸à¦¬":8423,"à¦·à¦ľà¦¨à¦¦":8424,"à¦·à¦ľà¦¨à¦ĵ":8425,"à¦ªà¦ªà¦¨":8426,"à¦ªà¦®à¦¤":8427,"à¦ªà¦²à¦¤":8428,"à¦ªà¦Ĩ":8429,"à¦ªà¦ªà¦¦":8430,"à¦ªà¦Ĺà¦²":8431,"à¦ªà¦¶à¦ķ":8432,"à¦ªà¦®à¦°":8433,"à¦ªà¦Ľà¦¨":8434,"à¦ªà¦¥à¦¨":8435,"à¦ªà¦¹à¦²":8436,"à¦ªà¦Ńà¦Ļ":8437,"à¦ªà¦²à¦¸":8438,"à¦ªà¦ıà¦ķ":8439,"à¦ªà¦°à¦ķà¦²":8440,"à¦ªà¦Ĩà¦°":8441,"à¦ªà¦ľà¦Ĺ":8442,"à¦ªà¦ľà¦Ĺà¦¤":8443,"à¦ªà¦¸à¦®à§Ł":8444,"à¦ªà¦Ĺà¦¤à¦Ń":8445,"à¦ªà¦Ĩà¦¨à¦¨":8446,"Ġà¦®à¦®à¦¨":8447,"Ġà¦®à§ľ":8448,"Ġà¦®à¦Ĺà¦¤":8449,"Ġà¦®à¦°à¦¹":8450,"Ġà¦®à¦²à¦¤":8451,"Ġà¦®à¦°à¦¨":8452,"Ġà¦®à¦Ĺà¦°":8453,"Ġà¦®à¦¶à¦ķ":8454,"Ġà¦®à¦°à¦ļ":8455,"Ġà¦®à¦Łà¦¨":8456,"Ġà¦®à¦¦à¦®":8457,"Ġà¦®à¦Ĺà¦¡":8458,"Ġà¦®à¦²à¦¦":8459,"Ġà¦®à¦²à¦®à¦²":8460,"Ġà¦®à¦ĺà¦¬":8461,"Ġà¦®à¦ĩà¦§":8462,"Ġà¦®à¦¸à¦¨à¦¦":8463,"Ġà¦¨à¦ľà¦¨":8464,"Ġà¦¨à¦«":8465,"Ġà¦¨à¦ĵà¦¯":8466,"Ġà¦¨à¦¨à¦¬":8467,"Ġà¦¨à¦§à¦°":8468,"Ġà¦¨à¦°à¦ª":8469,"Ġà¦¨à¦Łà¦¨":8470,"Ġà¦¨à¦°à¦ĸ":8471,"Ġà¦¨à¦°à¦¬à¦²":8472,"Ġà¦¨à¦ĩà¦®":8473,"Ġà¦¨à¦ĵà¦°":8474,"Ġà¦¨à¦ĺà¦¸":8475,"Ġà¦¨à¦ĸà¦ļ":8476,"Ġà¦¨à¦Ńà¦Ĺ":8477,"Ġà¦¨à¦ĵà¦¦":8478,"Ġà¦¨à¦Ļà¦°":8479,"à¦Łà¦¬à¦¨":8480,"à¦Łà¦°à¦ķ":8481,"à¦Łà¦®à¦¨":8482,"à¦Łà¦°à¦¯":8483,"à¦Łà¦®à¦£":8484,"à¦Łà¦ªà¦¦":8485,"à¦Łà¦¬à¦¯":8486,"à¦Łà¦®à¦¬":8487,"à¦Łà¦¸à¦¤":8488,"à¦Łà¦ıà¦¸à¦¬à¦ĩ":8489,"à¦Łà¦ľà¦¨à¦ķ":8490,"à¦Łà¦ıà¦ķà¦Ł":8491,"à¦Łà¦ıà¦Ł":8492,"à¦Łà¦ķà¦²à¦¨":8493,"à¦Łà¦®à¦Łà¦®":8494,"à¦Łà¦Ĩà¦īà¦Ł":8495,"Ġà¦ıà¦ļ":8496,"Ġà¦ıà§Ł":8497,"Ġà¦ıà¦°à¦¤":8498,"Ġà¦ıà¦¬à¦¨":8499,"Ġà¦ıà¦²à¦¨":8500,"Ġà¦ıà¦²à¦¤":8501,"Ġà¦ıà¦ªà¦ķ":8502,"Ġà¦ıà¦ªà¦¸":8503,"Ġà¦ıà¦¨à¦Ł":8504,"Ġà¦ıà¦ªà¦¥":8505,"Ġà¦ıà¦ĺà¦°":8506,"Ġà¦ıà¦ľà¦®":8507,"Ġà¦ıà¦®à¦¡":8508,"Ġà¦ıà¦ĺà¦Łà¦¨":8509,"Ġà¦ıà¦¸à¦®à¦¸":8510,"à¦ľà¦«":8511,"à¦ľà¦¬à¦²":8512,"à¦ľà¦°à¦¨":8513,"à¦ľà¦°à¦ĩ":8514,"à¦ľà¦¬à¦ķ":8515,"à¦ľà¦Ĩà¦®":8516,"à¦ľà¦²à¦¸":8517,"à¦ľà¦²à¦Ń":8518,"à¦ľà¦Ńà¦ķ":8519,"à¦ľà¦Ĳà¦¤":8520,"à¦ľà¦ıà¦ĩà¦¸à¦¬":8521,"à¦ľà¦«à¦«à¦°":8522,"à¦¶à¦£":8523,"à¦¶à¦°à¦£":8524,"à¦¶à¦¤à¦¨":8525,"à¦¶à¦°à¦¬":8526,"à¦¶à¦¨à¦¤":8527,"à¦¶à¦°à¦¥":8528,"à¦¶à¦ªà¦¤":8529,"à¦¶à¦¬à¦¦":8530,"à¦¶à¦¬à¦ª":8531,"à¦¶à¦¬à¦¬":8532,"à¦¶à¦°à¦ĵ":8533,"à¦¶à¦¶à¦ķ":8534,"à¦¶à¦Ĩà¦®":8535,"à¦¶à¦°à¦Ĺ":8536,"à¦¶à¦ıà¦ķ":8537,"à¦¶à¦®à§Ł":8538,"à¦¶à¦¦à¦ķ":8539,"à¦¶à¦ħà¦°":8540,"à¦¶à¦Ĩà¦²":8541,"à¦¶à§Łà¦Ĺ":8542,"à¦¶à¦ħà¦¬":8543,"Ġà¦¤à¦ĩ":8544,"Ġà¦¤à¦·":8545,"Ġà¦¤à¦°à¦®":8546,"Ġà¦¤à¦¸à¦¬":8547,"Ġà¦¤à¦°à¦¸":8548,"Ġà¦¤à¦Ĺà¦¤":8549,"Ġà¦¤à¦ļà¦¨":8550,"Ġà¦¤à¦¦à¦°":8551,"Ġà¦¤à¦¨à¦¯":8552,"Ġà¦¤à¦®à¦¸":8553,"Ġà¦¤à¦®à¦Ĺ":8554,"Ġà¦¤à¦¦à¦Ĺ":8555,"Ġà¦¤à¦Łà¦°":8556,"Ġà¦¤à¦°à¦¤à¦®":8557,"à¦Ĺà¦¤à¦¨":8558,"à¦Ĺà¦«":8559,"à¦Ĺà¦ĺ":8560,"à¦Ĺà¦¨à¦¬":8561,"à¦Ĺà¦¬à¦¬":8562,"à¦Ĺà¦ªà¦¦":8563,"à¦Ĺà¦¨à¦ķ":8564,"à¦Ĺà¦ªà¦ķ":8565,"à¦Ĺà¦®à¦°":8566,"à¦Ĺà¦¸à¦°":8567,"à¦Ĺà¦£à¦¤":8568,"à¦Ĺà¦Ĺà¦¨":8569,"à¦Ĺà¦°à¦®à¦£":8570,"à¦Ĺà¦Ĩà¦®":8571,"à¦Ĺà¦®à¦²":8572,"à¦Ĺà¦£à¦¨":8573,"à¦Ĺà¦īà¦¨":8574,"à¦Ĺà¦ļà¦®":8575,"à¦Ĺà¦ıà¦Ĺ":8576,"à¦Ĺà¦¬à¦¸à¦¤":8577,"Ġà¦¦à¦Ļ":8578,"Ġà¦¦à¦²à¦¨":8579,"Ġà¦¦à¦¶à¦¨":8580,"Ġà¦¦à¦®à¦¯":8581,"Ġà¦¦à¦ĩà¦ķ":8582,"Ġà¦¦à¦ĩà¦¬":8583,"Ġà¦¦à¦ĩà¦¦":8584,"Ġà¦¦à¦¦à¦¤":8585,"Ġà¦¦à¦ªà¦¦à¦ª":8586,"Ġà¦ħà¦Ĩ":8587,"Ġà¦ħà¦Ĺà¦°":8588,"Ġà¦ħà¦¶à¦¬":8589,"Ġà¦ħà¦Ľà¦²":8590,"à¦§à¦¤à¦¨":8591,"à¦§à¦°à¦¬":8592,"à¦§à¦¨à¦¨":8593,"à¦§à¦°à¦¦":8594,"à¦§à¦²à¦ķ":8595,"à¦§à¦¬à¦¸":8596,"à¦§à¦Ĩà¦®":8597,"à¦§à§İà¦¸":8598,"à¦§à¦ħà¦¨":8599,"à¦§à¦ıà¦¸à¦¬à¦ĩ":8600,"à¦§à¦¯à¦ľ":8601,"à¦§à¦ħà¦¤":8602,"à¦§à¦¶à¦°":8603,"à¦§à¦īà¦ªà¦¨":8604,"à¦§à¦ħà¦¬":8605,"à¦§à¦ħà¦²":8606,"à¦§à¦łà¦¯":8607,"Ġà¦¹à¦¶":8608,"Ġà¦¹à¦£":8609,"Ġà¦¹à¦°à¦ķ":8610,"Ġà¦¹à¦°à¦¨":8611,"Ġà¦¹à¦¸à¦¨":8612,"Ġà¦¹à¦¨à¦¸":8613,"Ġà¦¹à¦¦à¦¯":8614,"Ġà¦¹à¦°à¦Ĺ":8615,"Ġà¦¹à¦īà¦¨":8616,"à¦Ľà¦¶":8617,"à¦Ľà¦§":8618,"à¦Ľà¦¸à¦¬":8619,"à¦Ľà¦«":8620,"à¦Ľà¦°à¦ĩ":8621,"à¦Ľà¦¦à¦¨":8622,"à¦Ľà¦¸à¦¹":8623,"à¦Ľà¦¸à¦¬à¦ľ":8624,"à¦Ľà¦ªà¦¸à¦¹":8625,"à¦£à¦¡":8626,"à¦£à¦ľà¦¨":8627,"à¦£à¦ī":8628,"à¦£à¦Ŀ":8629,"à¦£à¦¨à¦¬":8630,"à¦£à¦¬à¦²":8631,"à¦£à¦§à¦¨":8632,"à¦£à¦Ĺà¦¨":8633,"à¦£à¦ıà¦°":8634,"à¦£à¦ļà¦¤":8635,"à¦£à¦¸à¦Ń":8636,"à¦£à¦Ĩà¦²":8637,"à¦£à¦ªà¦¦à¦ķ":8638,"à¦¹à¦¥":8639,"à¦¹à¦¡":8640,"à¦¹à¦ŀ":8641,"à¦¹à¦ľà¦¨":8642,"à¦¹à¦¬à¦°":8643,"à¦¹à¦¤à¦°":8644,"à¦¹à¦¨à¦¤":8645,"à¦¹à¦ķà¦¤":8646,"à¦¹à¦¨à¦¨":8647,"à¦¹à¦¸à¦¨":8648,"à¦¹à¦Ĺà¦°":8649,"à¦¹à¦¤à¦®":8650,"à¦¹à¦ıà¦ĩ":8651,"à¦¹à¦¬à¦¸":8652,"à¦¹à¦°à¦²":8653,"à¦¹à¦¬à¦¶":8654,"à¦¹à¦ıà¦¸à¦¬":8655,"à¦¹à¦¨à¦°":8656,"à¦¹à¦Ĺà¦¨":8657,"à¦¹à¦£à¦ķ":8658,"à¦¹à¦ıà¦¸à¦¬à¦ĩ":8659,"à¦¹à¦ĺà¦¨":8660,"à¦¹à¦®à¦¨à¦ķ":8661,"à¦¹à¦ľà¦¨à¦ķà¦Ń":8662,"Ġà¦¯à¦°":8663,"Ġà¦¯à¦ĸ":8664,"Ġà¦¯à¦¶à¦ķ":8665,"Ġà¦ķà¦°à¦Ĺ":8666,"Ġà¦ķà¦°à¦®à¦Ĺ":8667,"Ġà¦ķà¦°à¦®à¦ļ":8668,"à¦¼à§ĩà¦¾":8669,"à¦¼à§ĩà¦ĥ":8670,"à¦ļà¦ĸ":8671,"à¦ļà¦°à¦¤":8672,"à¦ļà¦ªà¦°":8673,"à¦ļà¦ķà¦¬":8674,"à¦ļà¦®à¦¯":8675,"à¦ļà¦®à§Ł":8676,"à¦ļà¦¸à¦¬à¦ķ":8677,"à¦ļà¦ªà¦²":8678,"à¦ļà¦ľà¦¨à¦ĵ":8679,"à¦ļà¦Ľà¦Ł":8680,"à¦ļà¦°à¦®à¦¯":8681,"à¦ļà¦Ĩà¦¯":8682,"à¦ļà¦Ĩà¦Ł":8683,"à¦¥à¦¬à¦°":8684,"à¦¥à¦°à¦¬":8685,"à¦¥à¦¨à¦ĵ":8686,"à¦¥à¦²à¦ķ":8687,"à¦¥à¦ªà¦¦":8688,"à¦¥à¦®à¦°":8689,"à¦¥à¦°à¦ª":8690,"à¦¥à¦°à¦Ł":8691,"à¦¥à¦°à¦ĸ":8692,"à¦¥à¦²à¦Ĺ":8693,"à¦¥à¦¦à¦¶":8694,"à¦¥à¦ħà¦Ń":8695,"à¦ĸà¦§":8696,"à¦ĸà¦ªà¦°":8697,"à¦ĸà¦«":8698,"à¦ĸà¦¦à¦°":8699,"à¦ĸà¦°à¦¦":8700,"à¦ĸà¦¬à¦¦":8701,"à¦ĸà¦¬à¦ª":8702,"à¦ĸà¦¸à¦¨":8703,"à¦ĸà¦¬à¦¯":8704,"à¦ĸà¦°à¦ĵ":8705,"à¦ĸà¦§à¦°":8706,"à¦ĸà¦ıà¦¸à¦¬":8707,"à¦ĸà¦ļà¦ķ":8708,"à¦ĸà¦¸à¦Ļ":8709,"à¦ĸà¦®à§Ł":8710,"à¦ĸà¦ħà¦¸":8711,"à¦ĸà¦ľà¦¨à¦ķà¦Ń":8712,"à¦ĸà¦²à¦¬à¦¦":8713,"Ġà¦¶à¦·":8714,"Ġà¦¶à§Ł":8715,"Ġà¦¶à¦¬à¦°":8716,"Ġà¦¶à¦®à¦¨":8717,"Ġà¦¶à¦ķà¦¤":8718,"Ġà¦¶à¦ļà¦¨":8719,"Ġà¦¶à¦°à¦¨":8720,"Ġà¦¶à¦ªà¦ķ":8721,"Ġà¦¶à¦®à¦¯":8722,"Ġà¦¶à¦¤à¦°à¦Ļ":8723,"Ġà¦¶à¦¬à¦¨à¦®":8724,"à¦Ńà¦¶":8725,"à¦Ńà¦¡":8726,"à¦Ńà¦¸à¦¬":8727,"à¦Ńà¦¨à¦¬":8728,"à¦Ńà¦°à¦¦":8729,"à¦Ńà¦²à¦¬":8730,"à¦Ńà¦ķà¦ķ":8731,"à¦Ńà¦¶à¦¯":8732,"à¦Ńà¦¸à¦¦":8733,"à¦Ńà¦ıà¦Ĺ":8734,"à¦Ńà¦Ĺà¦¬à¦¨":8735,"à¦Ńà¦ħà¦¹":8736,"Ġà¦Ĺà¦Ł":8737,"Ġà¦Ĺà¦¬à¦°":8738,"Ġà¦Ĺà¦¨à¦¨":8739,"Ġà¦Ĺà¦°à¦¦":8740,"Ġà¦Ĺà¦ľà¦ķ":8741,"Ġà¦Ĺà¦¢":8742,"Ġà¦Ĺà¦ľà¦°":8743,"Ġà¦Ĺà¦ľà¦Ĺ":8744,"Ġà¦ľà¦ł":8745,"Ġà¦ľà¦ªà¦¨":8746,"Ġà¦ľà¦°à¦®":8747,"Ġà¦ľà¦Ĺà¦²":8748,"Ġà¦ľà¦ªà¦ķ":8749,"Ġà¦ľà¦°à¦ľ":8750,"Ġà¦ľà§Łà¦¤":8751,"Ġà¦ľà¦ĸà¦®":8752,"Ġà¦ľà¦ĵà¦¹":8753,"à¦¡à¦Ĩ":8754,"à¦¡à¦¬à¦ª":8755,"à¦¡à¦ıà¦ĩ":8756,"à¦¡à¦ĸà¦£":8757,"à¦¡à¦ķà¦®":8758,"à¦¡à¦ªà¦ª":8759,"à¦¡à¦ħà¦¸":8760,"à¦¡à¦Ĩà¦ª":8761,"à¦¡à¦ıà¦«":8762,"à§Łà¦¸à¦¬":8763,"à§Łà¦ķà¦¤":8764,"à§Łà¦¨à¦¬":8765,"à§Łà¦¨à¦ĵ":8766,"à§Łà¦¤à¦®":8767,"à§Łà¦¯à¦¦":8768,"à§Łà¦§à¦°":8769,"à§Łà¦Ĩà¦®":8770,"à§Łà¦ĩà¦¤":8771,"à§Łà¦®à§Ł":8772,"à§Łà¦ıà¦ķà¦Ł":8773,"à§Łà¦Ĩà¦®à¦°":8774,"à§Łà¦ıà¦ķà¦¯":8775,"à¦ĵà¦¥":8776,"à¦ĵà¦ı":8777,"à¦ĵà¦°à¦¦":8778,"à¦ĵà¦ıà¦ĩ":8779,"à¦ĵà¦®à¦¯":8780,"à¦ĵà¦¤à¦²":8781,"Ġà¦Ńà¦ķà¦¤":8782,"Ġà¦Ńà¦²à¦¤":8783,"Ġà¦Ńà¦¬à¦ķ":8784,"Ġà¦Ńà¦ľà¦¸":8785,"Ġà¦°à¦°":8786,"Ġà¦°à¦Ĺ":8787,"Ġà¦°à¦¡":8788,"Ġà¦°à¦Łà¦²":8789,"Ġà¦°à¦ľà¦°":8790,"Ġà¦°à¦®à¦®":8791,"Ġà¦°à¦£à¦®":8792,"Ġà¦°à¦Ńà¦¸":8793,"à§Ĥà§į":8794,"Ġà¦ļà¦¸":8795,"Ġà¦ļà§Ł":8796,"Ġà¦ļà¦°à¦¤":8797,"Ġà¦ļà¦°à¦¸":8798,"Ġà¦ļà¦ķà¦°":8799,"Ġà¦ļà¦°à¦¦":8800,"Ġà¦ļà¦¶à¦ķ":8801,"Ġà¦īà¦Ľ":8802,"Ġà¦īà¦ĸ":8803,"Ġà¦īà¦ľà¦¬":8804,"Ġà¦īà¦¬à¦Ł":8805,"Ġà¦īà¦ĩà¦«":8806,"Ġà¦īà§ľà¦Ľ":8807,"Ġà¦īà¦¸à¦ĸ":8808,"Ġà¦ĵà¦§":8809,"Ġà¦ĵà¦°à¦ĵ":8810,"Ġà¦ĵà¦ľà¦°":8811,"Ġà¦ĵà¦ķà¦¥":8812,"Ġà¦ĵà¦Łà¦¸":8813,"Ġà¦ĵà§ľà¦¨":8814,"Ġà¦ĵà¦ĵà¦ĵ":8815,"Ġà¦Ĩà¦®à¦¤":8816,"Ġà¦Ĩà¦®à¦®":8817,"Ġà¦Ĩà¦®à¦¡":8818,"Ġà¦Ĩà¦®à¦«":8819,"Ġà¦Ĩà¦®à¦Ŀ":8820,"Ġà¦Ĩà¦®à¦ªà¦¤":8821,"Ġà¦¸à¦®à¦¹":8822,"Ġà¦¸à¦®à¦°à¦¬":8823,"Ġà¦¸à¦®à¦°à¦¸":8824,"Ġà¦¸à¦®à§Łà¦¨":8825,"Ġà¦¸à¦®à¦§à¦°":8826,"Ġà¦ıà¦ķà¦ĵ":8827,"Ġà¦ıà¦ķà¦®à¦¨":8828,"Ġà¦ıà¦ķà¦ªà¦¨":8829,"Ġà¦ıà¦ķà¦¸à¦®":8830,"Ġà¦ıà¦ķà¦ªà¦¤":8831,"Ġà¦ıà¦ķà¦ļà¦ķ":8832,"Ġà¦ıà¦ķà¦¶à¦¬":8833,"Ġà¦ıà¦ķà¦ħà¦¨":8834,"Ġà¦ıà¦ķà¦¶à¦Ł":8835,"Ġà¦ıà¦ķà¦ıà¦ķà¦¬":8836,"à¦Ļà¦ĩ":8837,"Ġà¦ªà¦°à¦Ĺ":8838,"Ġà¦ªà¦°à¦¹":8839,"Ġà¦ªà¦°à¦®à¦¯":8840,"Ġà¦ªà¦°à¦®à¦¬":8841,"Ġà¦ªà¦°à¦§à¦°":8842,"Ġà¦ªà¦°à¦¬à¦¶":8843,"Ġà¦ªà¦°à¦®à¦¸":8844,"Ġà¦ªà¦°à¦Ĺà¦¨":8845,"Ġà¦ªà¦°à¦®à¦¸à¦¤":8846,"à¦ģà¦¿":8847,"à¦°à¦¤à¦ľ":8848,"à¦°à¦¤à¦§":8849,"à¦°à¦¤à¦ļ":8850,"à¦°à¦¤à¦¬à¦¨":8851,"à¦°à¦¤à¦ªà¦°":8852,"à¦°à¦¤à§°":8853,"à¦°à¦¤à¦ªà¦ķ":8854,"à¦°à¦¤à¦§à¦°":8855,"à¦°à¦¤à¦¤à¦¸":8856,"à¦°à¦¤à¦ıà¦ĵ":8857,"à¦°à¦¤à¦īà¦ªà¦¬":8858,"à¦łà¦°à¦¸":8859,"à¦łà¦ķà¦¤":8860,"à¦łà¦ıà¦ĩ":8861,"à¦łà¦®à¦¯":8862,"à¦łà¦ªà¦¥":8863,"à¦łà¦²à¦®":8864,"Ġà¦ħà¦¨à¦ª":8865,"Ġà¦ħà¦¨à¦¶":8866,"Ġà¦ħà¦¨à¦¹":8867,"Ġà¦ħà¦¨à¦Ļ":8868,"Ġà¦ħà¦¨à¦¬à¦¸":8869,"Ġà¦¥à¦°":8870,"Ġà¦¥à¦ķ":8871,"Ġà¦¥à¦Łà¦²":8872,"Ġà¦¥à¦ªà¦¥":8873,"Ġà¦Ľà¦ª":8874,"Ġà¦Ľà¦²à¦ķ":8875,"Ġà¦Ľà¦°à¦ķà¦®":8876,"Ġà¦Ľà§Łà¦ľà¦¨":8877,"Ġà¦Ĩà¦°à¦°":8878,"à¦¬à¦¨à¦Ľ":8879,"à¦¬à¦¨à¦¬à¦°":8880,"à¦¬à¦¨à¦ı":8881,"à¦¬à¦¨à¦¸à¦¬":8882,"à¦¬à¦¨à¦Ĺà¦¤":8883,"à¦¬à¦¨à¦®à¦£":8884,"à¦¬à¦¨à¦Ĺà¦²":8885,"à¦¬à¦¨à¦Ĺà¦¨":8886,"à¦¬à¦¨à¦¸à¦¹":8887,"à¦¬à¦¨à¦¤à¦°à¦Ļ":8888,"à¦°à¦£à¦¦":8889,"à¦°à¦£à¦·":8890,"à¦°à¦£à¦ľ":8891,"à¦°à¦£à¦ķà¦°":8892,"à¦°à¦£à¦ļà¦ķ":8893,"à¦°à¦£à¦Ĺà¦¨":8894,"à¦°à¦£à¦¸à¦¬à¦ķ":8895,"à¦°à¦£à¦īà¦ļ":8896,"Ġà¦²à¦§":8897,"Ġà¦²à¦ĸ":8898,"Ġà¦²à¦ĩà¦²":8899,"Ġà¦¬à¦²à¦ķ":8900,"Ġà¦¬à¦²à¦ĩ":8901,"Ġà¦¬à¦²à¦Ĺ":8902,"Ġà¦¬à¦²à§Ł":8903,"Ġà¦¬à¦²à¦ĵ":8904,"Ġà¦¬à¦²à¦¬à¦¨":8905,"Ġà¦¬à¦²à¦¬à¦°":8906,"Ġà¦¬à¦²à¦²à¦¨":8907,"Ġà¦¬à¦²à¦²à¦¤":8908,"Ġà¦¬à¦²à¦¬à¦¯":8909,"Ġà¦¬à¦²à¦¬à¦ķ":8910,"Ġà¦¬à¦²à¦¬à¦¸":8911,"Ġà¦¬à¦²à¦¬à¦¶":8912,"Ġà¦¬à¦²à¦¬à¦Ń":8913,"Ġà¦ıà¦ĩà¦ķ":8914,"Ġà¦ıà¦ĩà¦¸":8915,"Ġà¦ıà¦ĩà¦ª":8916,"Ġà¦ıà¦ĩà¦ľ":8917,"Ġà¦ıà¦ĩà¦®à¦¤":8918,"Ġà¦ıà¦ĩà¦¸à¦¬à¦ĩ":8919,"Ġà¦§à¦¬à¦²à¦¤":8920,"à¦°à¦ķà¦ĩ":8921,"à¦°à¦ķà¦ª":8922,"à¦°à¦ķà¦Ĺ":8923,"à¦°à¦ķà¦ĵ":8924,"à¦°à¦ķà¦¸à¦®":8925,"à¦°à¦ķà¦Łà¦°":8926,"à¦°à¦ķà¦Łà¦ª":8927,"à¦°à¦ķà¦¦à¦®":8928,"à¦°à¦ķà¦°à¦£à¦ķ":8929,"à¦°à¦ķà¦ĸà¦ļ":8930,"à¦ŀà¦ªà¦°":8931,"à¦ŀà¦ľà¦¨":8932,"à¦ŀà¦ħà¦¨":8933,"à¦ŀà¦¸à¦¬à¦ķ":8934,"à¦ŀà¦¬à¦¹":8935,"à¦ŀà¦ªà¦¶":8936,"Ġà¦ıà¦¬à¦®":8937,"à¦ªà¦°à¦²":8938,"à¦ªà¦°à¦¹":8939,"à¦ªà¦°à¦ªà¦°":8940,"à¦ªà¦°à¦¸à¦®":8941,"à¦ªà¦°à¦¬à¦¶":8942,"à¦ªà¦°à¦¬à¦¶à¦¤":8943,"à¦ľà¦¨à¦ľ":8944,"à¦ľà¦¨à¦§":8945,"à¦ľà¦¨à¦¹":8946,"à¦ľà¦¨à¦ļ":8947,"à¦ľà¦¨à¦ı":8948,"à¦ľà¦¨à¦Ĺà¦¤":8949,"à¦ľà¦¨à¦ķà¦¬":8950,"à¦ľà¦¨à¦ıà¦¸à¦¬à¦ĩ":8951,"à¦ľà¦¨à¦¸à¦¬à¦ķ":8952,"à¦ľà¦¨à¦¸à¦¹":8953,"à¦ľà¦¨à¦ıà¦ķà¦Ł":8954,"à¦ľà¦¨à¦ħà¦§":8955,"à¦ľà¦¨à¦ªà¦¦à¦¬":8956,"à¦¬à¦°à¦Ł":8957,"à¦¬à¦°à¦Ļ":8958,"à¦¬à¦°à¦¹à¦¸":8959,"à¦¬à¦°à¦Ĺà¦£":8960,"à¦¬à¦°à¦Ńà¦ķ":8961,"à¦¬à¦°à¦®à¦ļà¦¨":8962,"à¦®à¦¨à¦¬à¦¦":8963,"à¦®à¦¨à¦ľà¦¯":8964,"à¦®à¦¨à¦®à¦¹":8965,"à¦ĸà¦¨à¦Ĺà¦¤":8966,"à¦ĸà¦¨à¦ªà¦¡":8967,"Ġà¦«à¦¸à¦«":8968,"à¦¤à¦°à¦ļ":8969,"à¦¤à¦°à¦¥":8970,"à¦¤à¦°à¦ļà¦¨":8971,"à¦¤à¦°à¦¸à¦®":8972,"à¦¤à¦°à¦¸à¦¬à¦ĩ":8973,"à¦¤à¦°à¦ĸà¦£":8974,"à¦¤à¦°à¦Ĩà¦¶":8975,"à¦¤à¦°à¦®à¦¹à¦²":8976,"Ġà¦ĸà¦ķ":8977,"Ġà¦ĸà¦ĩ":8978,"Ġà¦ĸà¦°à¦¸":8979,"Ġà¦ĸà¦®à¦ķ":8980,"Ġà¦ĸà¦²à¦¸":8981,"Ġà¦ĸà¦°à¦¤à¦°":8982,"Ġà¦ĸà¦¨à¦ķà¦ķ":8983,"à§İà¦¨":8984,"à§İà¦Ł":8985,"à§İà¦Ń":8986,"à§İà¦¸à¦®":8987,"à§İà¦ļà¦°":8988,"à§İà¦¸à¦Ļ":8989,"à§İà¦¬à¦°à¦£":8990,"à§İà¦ªà¦²":8991,"Ġà¦®à¦¨à¦¦":8992,"Ġà¦®à¦¨à¦ľ":8993,"Ġà¦®à¦¨à¦ıà¦ĩ":8994,"Ġà¦®à¦¨à¦¨à¦ª":8995,"Ġà¦®à¦¨à¦®à¦ľ":8996,"Ġà¦®à¦¨à¦Ĺà¦¡":8997,"Ġà¦®à¦¨à¦Ĺà§ľ":8998,"Ġà¦®à¦¨à¦¨à¦¯à¦ľ":8999,"Ġà¦ľà¦¨à¦ªà¦°":9000,"Ġà¦ľà¦¨à¦ķà¦ķ":9001,"Ġà¦ľà¦¨à¦¬à¦¸à¦¤":9002,"à¦¤à¦¨à¦¨":9003,"à¦¤à¦¨à¦ļ":9004,"à¦¤à¦¨à¦ªà¦¨":9005,"à¦¤à¦¨à¦¸à¦¬":9006,"à¦¤à¦¨à¦ľà¦°":9007,"à¦¤à¦¨à¦īà¦¨":9008,"à¦¤à¦¨à¦¯à¦ľ":9009,"à¦¯à¦¬à¦£":9010,"Ġà¦ĩà¦£":9011,"Ġà¦ĩà¦ĵà¦¯":9012,"Ġà¦ĩà¦®à¦°":9013,"Ġà¦ĩà¦¸à¦°":9014,"Ġà¦ĩà¦¸à¦ķ":9015,"Ġà¦ĩà¦Ĺà¦¨":9016,"Ġà¦ĩà¦ĩà¦¬":9017,"Ġà¦ĩà¦ľà¦¤":9018,"Ġà¦ĩà¦¦à¦®":9019,"Ġà¦ĩà¦°à¦«":9020,"Ġà¦ĩà¦¶à¦¤":9021,"Ġà¦ĩà¦¦à¦ª":9022,"Ġà¦ĩà¦Łà¦¸":9023,"à¦ªà¦¨à¦¶":9024,"à¦ªà¦¨à¦ļ":9025,"à¦ªà¦¨à¦Ĺà¦°":9026,"à¦ªà¦¨à¦¤à¦®":9027,"Ġà¦¹à¦²à¦Ł":9028,"Ġà¦¹à¦²à¦ľ":9029,"Ġà¦¹à¦²à¦ļ":9030,"Ġà¦¹à¦²à¦¨à¦¤":9031,"Ġà¦¹à¦²à¦ķà¦°":9032,"Ġà¦¹à¦²à¦²à¦ķ":9033,"Ġà¦¹à¦²à¦ıà¦¬":9034,"Ġà¦¹à¦²à¦Ĩà¦°":9035,"Ġà¦¹à¦²à¦ıà¦Ł":9036,"Ġà¦¹à¦²à¦ĵà¦°":9037,"Ġà¦¹à¦²à¦Ĩà¦ªà¦¨":9038,"Ġà¦¹à¦²à¦¸à¦®à¦¸":9039,"à¦ıà¦¹":9040,"à¦ıà¦¬à¦²":9041,"à¦ıà¦®à¦¬":9042,"à¦ıà¦¨à¦Ł":9043,"à¦ıà¦ķà¦¸":9044,"à¦ıà¦ķà¦Ń":9045,"à¦ıà¦¸à¦Ł":9046,"à¦ıà¦²à¦ĩ":9047,"à¦ıà¦¨à¦ı":9048,"Ġà¦ĺà¦°à¦¨":9049,"Ġà¦ĺà¦°à¦ĩ":9050,"Ġà¦ĺà¦¨à¦¸":9051,"Ġà¦ĺà¦·à¦²":9052,"à¦°à¦®à¦Ń":9053,"à¦°à¦®à¦ľà¦¨":9054,"à¦°à¦®à¦ķà¦²":9055,"à¦°à¦®à¦®à¦¯":9056,"à¦°à¦®à¦¹à¦¤":9057,"à¦°à¦®à¦Ĺà¦¨":9058,"à¦°à¦®à¦¸à¦Ļ":9059,"à¦°à¦®à¦ıà¦°":9060,"à¦°à¦®à¦¸à¦¬à¦ĩ":9061,"à¦°à¦®à¦¸à¦¬à¦ķ":9062,"à¦°à¦®à¦¸à¦ľ":9063,"Ġà¦ķà¦¥à¦¯":9064,"Ġà¦ķà¦¥à¦®à¦¸":9065,"à¦°à¦¬à¦Ł":9066,"à¦°à¦¬à¦ľ":9067,"à¦°à¦¬à¦®à¦£":9068,"à¦°à¦¬à¦²à¦¬":9069,"à¦°à¦¬à¦Ĩà¦®":9070,"à¦°à¦¬à¦®à¦¹":9071,"à¦°à¦¬à¦ķà¦¥":9072,"à¦°à¦¬à¦Ĩà¦®à¦°":9073,"à¦°à¦¬à¦£à¦¯":9074,"à¦°à¦¬à¦¹à¦£":9075,"à¦°à¦¬à¦²à¦¤à¦®":9076,"Ġà¦ķà¦°à¦¤à¦¸":9077,"à¦¯à¦ķà¦ĩ":9078,"à¦¯à¦ķà¦Ĺ":9079,"à¦¯à¦ķà¦¥à¦¨":9080,"à¦¯à¦ķà¦²à¦®":9081,"Ġà¦¸à¦¬à¦Ń":9082,"Ġà¦¸à¦¬à¦ĵ":9083,"Ġà¦¸à¦¬à¦²à¦ķ":9084,"Ġà¦¸à¦¬à¦¸à¦¬à¦ĩ":9085,"Ġà¦¸à¦¬à¦§à¦°à¦¨":9086,"à§ľà¦¦":9087,"à§ľà¦ª":9088,"à§ľà¦¹":9089,"à§ľà¦¸à¦®":9090,"à§ľà¦ªà¦¤":9091,"à§ľà¦ķà¦°à¦£":9092,"à§ľà¦¨à¦¦":9093,"à§ľà¦¨à¦®":9094,"à§ľà¦īà¦¤":9095,"à¦·à¦£à¦ļ":9096,"à¦·à¦£à¦¯à¦¨":9097,"à¦·à¦£à¦®à¦¯":9098,"à¦·à¦£à¦ıà¦ĩà¦¸à¦¬":9099,"à¦«à¦ª":9100,"à¦«à¦°à¦®":9101,"à¦«à¦«":9102,"à¦«à§°":9103,"à¦«à¦¸à¦²":9104,"Ġà¦§à¦°à¦¨à¦ķ":9105,"à¦īà¦§":9106,"à¦īà¦ĸ":9107,"à¦īà¦Ļ":9108,"à¦īà¦¬à¦¨":9109,"à¦īà§İ":9110,"à¦īà¦¸à¦¬":9111,"à¦īà¦«":9112,"à¦īà¦Ŀ":9113,"à¦īà¦ĺ":9114,"à¦īà¦¢":9115,"à¦īà¦ĩà¦Ł":9116,"à¦īà¦łà¦¤":9117,"à¦īà§İà¦¸à¦°":9118,"à¦īà¦¤à¦¥":9119,"à¦īà¦ªà¦ķà¦¥":9120,"à¦īà§ľà¦¨":9121,"à¦īà¦ıà¦¬à¦²":9122,"à¦Ŀà¦Ń":9123,"à¦Ŀà¦¬à¦¯":9124,"à¦Ŀà¦²à¦¸":9125,"à¦°à¦¸à¦ĩ":9126,"à¦°à¦¸à¦ĸ":9127,"à¦°à¦¸à¦°à¦®":9128,"à¦°à¦¸à¦«":9129,"à¦°à¦¸à¦®à¦¯":9130,"à¦°à¦¸à¦°à¦¬à¦°":9131,"à¦Ĺà¦¤à¦ª":9132,"à¦Ĺà¦¤à¦ľ":9133,"à¦Ĺà¦¤à¦ªà¦¸":9134,"à¦Ĺà¦¤à¦ľà¦¨à¦ķ":9135,"à¦°à¦¯à¦¯":9136,"Ġà¦¬à¦°à¦¨":9137,"Ġà¦¬à¦°à¦ĩ":9138,"Ġà¦¬à¦°à¦¨à¦¬":9139,"à¦¬à¦¤à¦²":9140,"à¦¬à¦¤à¦ľ":9141,"à¦¬à¦¤à¦ļ":9142,"à¦¬à¦¤à¦¥":9143,"à¦¬à¦¤à¦īà¦¦":9144,"Ġà¦Ĩà¦Ľà¦¨":9145,"à¦¨à¦¤à¦¯":9146,"à¦¨à¦¤à¦ªà¦¤":9147,"à¦¨à¦¤à¦ĸà¦¨à¦ĩ":9148,"Ġà¦īà¦¦à¦¦":9149,"Ġà¦īà¦¦à¦ķà¦¸":9150,"à¦ķà¦¤à¦¤":9151,"à¦ķà¦¤à¦¬":9152,"à¦ķà¦¤à¦ĩ":9153,"à¦ķà¦¤à¦ª":9154,"à¦ķà¦¤à¦Ĺ":9155,"Ġà¦īà¦ªà¦ª":9156,"Ġà¦īà¦ªà¦§":9157,"Ġà¦īà¦ªà¦¬à¦¨":9158,"Ġà¦īà¦ªà¦¬à¦°":9159,"Ġà¦īà¦ªà§ľ":9160,"Ġà¦īà¦ªà¦ļà¦°":9161,"Ġà¦īà¦ªà¦¹à¦¤":9162,"Ġà¦īà¦ªà¦¢":9163,"Ġà¦īà¦ªà¦¦à¦²":9164,"à¦ķà¦²à¦ĩ":9165,"à¦ķà¦²à¦¹":9166,"à¦ķà¦²à¦Ń":9167,"à¦ķà¦²à¦¨à¦ĵ":9168,"à¦ķà¦²à¦¨à¦Ł":9169,"Ġà¦Ĩà¦²à¦¯":9170,"Ġà¦Ĩà¦²à¦ľ":9171,"Ġà¦Ĩà¦²à§Ł":9172,"Ġà¦Ĩà¦²à¦®à¦Ĺ":9173,"à¦ļà¦¨à¦ĩ":9174,"à¦ļà¦¨à¦¶":9175,"Ġà¦ħà¦¸à¦®à¦¨":9176,"Ġà¦ħà¦¸à¦¦à¦¬":9177,"Ġà¦ħà¦¸à¦«à¦²à¦¤":9178,"Ġà¦Ĩà¦¸à¦°à¦ĵ":9179,"Ġà¦ħà¦Ńà¦Ļ":9180,"Ġà¦¸à¦¤à§İ":9181,"Ġà¦¸à¦¤à¦¤à¦®":9182,"à¦²à¦¨à¦¹":9183,"à¦²à¦¨à¦¬à¦¨":9184,"à¦²à¦¨à¦ķà¦¬":9185,"à¦²à¦¨à¦§à¦°":9186,"à¦²à¦¨à¦ıà¦°":9187,"à¦²à¦¨à¦®à§Ł":9188,"à¦²à¦¨à¦¸à¦¬à¦ķ":9189,"à¦²à¦¨à¦¸à¦¹":9190,"à¦²à¦¨à¦Ĩà¦²":9191,"à¦²à¦¨à¦¸à¦¬à¦ĸ":9192,"Ġà¦Ĩà¦¬à¦¹à¦¨":9193,"à¦ĺà¦ļ":9194,"à¦ĺà¦ĵ":9195,"à¦ĺà¦°à¦£":9196,"à¦ĺà¦°à¦ķ":9197,"à¦ĺà¦¸à¦¬":9198,"à¦ĺà¦¬à¦¤":9199,"à¦ĺà¦¨à¦¨":9200,"à¦ĺà¦²à¦ķ":9201,"à¦ĺà¦¶à¦ķ":9202,"à¦ĺà¦¬à¦ķ":9203,"à¦ĺà¦łà¦¨":9204,"à¦ĺà¦¨à¦¦":9205,"à¦ĺà¦²à¦®":9206,"à¦ĺà¦²à¦¸":9207,"à¦ĺà¦®à¦¶":9208,"à¦ĺà¦¦à¦¶":9209,"à¦ĺà¦¸à¦®à§Ł":9210,"Ġà¦¸à¦¹à¦¶":9211,"Ġà¦¸à¦¹à¦ļ":9212,"Ġà¦¸à¦¹à¦ħà¦¬à¦¸":9213,"Ġà¦¸à¦¹à¦ļà¦°à¦®":9214,"Ġà¦Łà¦¬":9215,"Ġà¦Łà¦²à¦¤":9216,"Ġà¦Łà¦°à¦¨":9217,"Ġà¦Łà¦ķà¦Ł":9218,"Ġà¦Łà¦ªà¦¸":9219,"Ġà¦Łà¦ªà¦²":9220,"à¦®à¦¤à¦¸":9221,"à¦®à¦¤à¦¦à¦¨":9222,"à¦®à¦¤à¦ªà¦¸":9223,"Ġà¦ħà¦¤à¦Ĺ":9224,"à¦¨à¦¬à¦ĩ":9225,"à¦¨à¦¬à¦§":9226,"à¦¨à¦¬à¦¸à¦¨":9227,"à¦¨à¦¬à¦®à¦¸":9228,"à¦¨à¦¬à¦¸à¦¹":9229,"à¦¨à¦¨à¦¦":9230,"à¦¨à¦¨à¦ĩ":9231,"à¦¨à¦¨à¦°à¦ķ":9232,"à¦¨à¦¨à¦®à¦¸":9233,"à¦¦à¦°à¦²":9234,"à¦°à¦¥à¦¸":9235,"à¦°à¦¥à¦ĵ":9236,"à¦°à¦¹à¦¯":9237,"à¦°à¦¹à¦®":9238,"à¦°à¦¹à¦¦":9239,"à¦°à¦¹à¦Ń":9240,"à¦°à¦¹à¦¨à¦¯":9241,"à¦°à¦¹à¦ıà¦¸à¦¬":9242,"à¦²à¦¤à¦¸":9243,"à¦²à¦¤à¦¤à¦¸":9244,"à¦²à¦¤à¦ĸà¦¨à¦ĩ":9245,"Ġà¦¬à¦¸à¦°":9246,"Ġà¦¬à¦¸à¦Ĺ":9247,"à¦¯à¦¤à¦¯":9248,"à¦¯à¦¤à¦¬":9249,"à¦¯à¦¤à¦²":9250,"à¦¯à¦¤à¦ĩ":9251,"à¦¯à¦¤à¦ª":9252,"à¦¯à¦¤à¦ĸ":9253,"à¦¯à¦¤à¦ĵ":9254,"à¦¬à¦²à¦ª":9255,"à¦¬à¦²à¦Ł":9256,"à¦¬à¦²à¦ĵ":9257,"Ġà¦¹à¦¤à¦¤":9258,"Ġà¦¹à¦¤à¦ķ":9259,"Ġà¦¹à¦¤à¦ĩ":9260,"Ġà¦¨à¦¤à¦®à¦¸":9261,"Ġà¦¡à¦Ĺà¦°":9262,"Ġà¦¡à¦Ĺà¦¡":9263,"Ġà¦¡à¦ķà¦Łà¦°":9264,"Ġà¦¯à¦¦à¦¬":9265,"Ġà¦¯à¦¦à¦ª":9266,"Ġà¦¯à¦¦à¦¨à¦¨":9267,"Ġà¦Ĩà¦ľà¦¹à¦°":9268,"Ġà¦ķà¦°à¦²à¦°":9269,"Ġà¦ķà¦°à¦²à¦®à¦¨":9270,"Ġà¦ķà¦°à¦²à¦ıà¦¬":9271,"Ġà¦ķà¦°à¦²à¦Ĩà¦®":9272,"Ġà¦īà¦łà¦²à¦ķ":9273,"Ġà¦¬à¦¨à¦¶":9274,"Ġà¦¬à¦¨à¦¹":9275,"Ġà¦¬à¦¨à¦ľà¦²":9276,"Ġà¦ħà¦§à¦ªà¦¤":9277,"à¦§à¦¨à¦²":9278,"à¦§à¦¨à¦Ń":9279,"à¦§à¦¨à¦ªà¦°":9280,"à¦§à¦¨à¦®à¦¨":9281,"à¦§à¦¨à¦ı":9282,"à¦§à¦¨à¦ıà¦¸à¦¬à¦ĩ":9283,"à¦ķà¦°à¦°":9284,"à¦ķà¦°à¦Ľ":9285,"à¦°à¦¨à¦¯":9286,"à¦°à¦¨à¦ĩ":9287,"à¦Ĩà¦Ľ":9288,"à¦Ĩà¦°à¦¸":9289,"à¦Ĩà¦²à¦¤":9290,"à¦Ĩà§Łà¦¨":9291,"à¦Ĩà¦ĩà¦Ł":9292,"à¦Ĩà¦ĩà¦¡":9293,"à¦Ĩà¦¬à¦¹":9294,"Ġà¦ļà¦²à¦¹":9295,"à¦°à¦¶à¦¹":9296,"à¦°à¦¶à¦¬à¦¤":9297,"à¦°à¦¶à¦¹à¦°":9298,"à¦°à¦¦à¦Ĺ":9299,"à¦¤à¦¬à¦¦":9300,"à¦¤à¦¬à¦ĩ":9301,"à¦¤à¦¬à§İà¦¸à¦²":9302,"Ġà¦Ĩà¦¤à¦¶":9303,"Ġà¦ªà¦¥à¦¦":9304,"Ġà¦ªà¦¥à¦¸":9305,"Ġà¦ªà¦¥à¦¸à¦¬":9306,"à¦°à¦¥à¦®à¦ĩ":9307,"à¦°à¦¥à¦®à¦ĸ":9308,"à¦°à¦¥à¦®à¦ªà¦°":9309,"à¦ķà¦Łà¦¦":9310,"à¦ķà¦Łà¦¸à¦Ļ":9311,"à¦ķà¦Łà¦¸à¦¬à¦ĩ":9312,"à¦ķà¦Łà¦ıà¦¸à¦¬à¦ĩ":9313,"Ġà¦¸à¦°à¦°":9314,"Ġà¦¸à¦°à¦Ľ":9315,"Ġà¦¸à¦°à¦²à¦Ĺ":9316,"Ġà¦¸à¦°à¦Ĺà¦°à¦®":9317,"à¦®à¦£à¦¨":9318,"à¦®à¦£à¦®":9319,"à¦®à¦£à¦£":9320,"à¦®à¦£à¦¤à¦¨":9321,"à¦¶à¦¨à¦°":9322,"à¦¶à¦¨à¦Ń":9323,"à¦¶à¦¨à¦Ĺà¦°":9324,"à¦¶à¦¨à¦®à¦¯":9325,"à¦¶à¦¨à¦ļà¦°":9326,"à¦¶à¦¨à¦¶à¦ª":9327,"à¦¶à¦¨à¦®à¦ŀ":9328,"à¦¶à¦¨à¦ıà¦Ĺ":9329,"Ġà¦¬à¦²à¦²à¦®":9330,"à¦¯à¦®à¦²":9331,"à¦¯à¦®à¦¦":9332,"à¦¯à¦®à¦Ł":9333,"à¦¯à¦®à¦Ļ":9334,"à¦¯à¦®à¦°à¦ķ":9335,"à¦¯à¦®à¦Ĺà¦¤":9336,"à¦¯à¦®à¦ıà¦ĩ":9337,"à¦¯à¦®à¦ıà¦¸à¦¬":9338,"à¦¯à¦®à¦¸à¦¬à¦ķ":9339,"à¦¯à¦®à¦¸à¦¬à¦ĸ":9340,"Ġà¦¹à§Łà¦¬":9341,"Ġà¦¹à§Łà¦ıà¦ĩ":9342,"Ġà¦¹à§Łà¦Ĩà¦®":9343,"Ġà¦¹à§Łà¦Ĩà¦®à¦°":9344,"Ġà¦¯à¦ĸà¦¨à¦ķ":9345,"à¦¸à¦®à¦¬":9346,"à¦¸à¦®à¦ª":9347,"Ġà¦Ĳà¦ķà¦¤":9348,"à¦²à¦ķà¦ĩ":9349,"à¦²à¦ķà¦ªà¦¤":9350,"à¦²à¦ķà¦Ĺà¦£":9351,"à¦²à¦¬à¦ĩ":9352,"à¦²à¦¬à¦Ł":9353,"à¦²à¦¬à¦¦à¦¨":9354,"à¦°à¦ĩà¦¤":9355,"à¦°à¦ĩà¦ıà¦ĩ":9356,"Ġà¦°à¦ķà¦¬":9357,"Ġà¦ķà¦°à¦¬à¦¸":9358,"Ġà¦ķà¦°à¦¬à¦ĩ":9359,"Ġà¦ķà¦°à¦¬à¦ª":9360,"Ġà¦ķà¦°à¦¬à¦ķà¦°":9361,"Ġà¦¬à¦¹à¦ķ":9362,"Ġà¦¬à¦¹à¦¸":9363,"Ġà¦¬à¦¹à¦°à¦Ł":9364,"Ġà¦īà¦¨à¦ļà¦²":9365,"Ġà¦īà¦¨à¦ªà¦ŀ":9366,"Ġà¦ıà¦¸à¦ķ":9367,"Ġà¦ıà¦¸à¦ıà¦¸":9368,"Ġà¦Ĩà¦Ĺà¦®":9369,"Ġà¦Ĩà¦Ĺà¦°à¦¬":9370,"Ġà¦Ĩà¦Ĺà¦®à¦£":9371,"Ġà¦Ĩà¦Ĺà¦°à¦ĵà§Ł":9372,"à¦¬à¦¦à¦¬":9373,"à¦¬à¦¦à¦¸":9374,"Ġà¦«à¦²à¦ĩ":9375,"Ġà¦«à¦²à¦ľ":9376,"Ġà¦«à¦²à¦Ĺ":9377,"Ġà¦«à¦²à¦¹":9378,"Ġà¦«à¦²à¦¸à¦¬à¦ľ":9379,"à¦¬à¦ªà¦£":9380,"à¦¬à¦ªà¦¦à¦¬":9381,"à¦¬à¦ªà¦¦à¦Ł":9382,"à¦¯à¦¨à¦Ł":9383,"Ġà¦Ĩà¦¨à¦¹":9384,"à¦¦à¦¨à¦°":9385,"à¦¦à¦¨à¦Ł":9386,"à¦¦à¦¨à¦Ĺ":9387,"à¦¦à¦¨à¦¹":9388,"à¦¦à¦¨à¦¸à¦¬à¦ĩ":9389,"à¦ħà¦¬à¦°":9390,"à¦ħà¦°à¦¬":9391,"à¦ħà¦¨à¦¤":9392,"à¦ħà¦²à¦ķ":9393,"à¦ħà¦¶à¦¬":9394,"à¦ħà¦¯à¦¥":9395,"à¦ħà¦¬à¦§":9396,"à¦ħà¦§à¦®":9397,"à¦ħà¦ķà¦®":9398,"à¦ħà¦²à¦Ļ":9399,"à¦ħà¦¬à¦¨à¦¤":9400,"à¦Ńà¦¬à¦ŀ":9401,"à¦Ńà¦¬à¦¶à¦ķ":9402,"à¦°à¦Ńà¦®":9403,"à¦°à¦Ńà¦ŀ":9404,"Ġà¦ıà¦°à¦ļ":9405,"Ġà¦ıà¦°à¦ľà¦¨":9406,"Ġà¦ķà¦²à¦¯":9407,"Ġà¦ķà¦²à¦®à¦ļ":9408,"à¦¸à¦¨à¦²":9409,"à¦¸à¦¨à¦¶":9410,"à¦¸à¦¨à¦¸à¦®":9411,"à¦¸à¦¨à¦ªà¦¤":9412,"à§°à¦ł":9413,"à§°à¦¤à¦¨":9414,"à§°à¦®à¦£":9415,"à§°à¦¸à¦®":9416,"à§°à¦ªà¦¤":9417,"à§°à¦Ńà¦¬":9418,"à§°à¦Ĺà¦°":9419,"à§°à¦¬à¦ķ":9420,"à§°à¦®à¦¬":9421,"à§°à¦¸à¦Ļ":9422,"à§°à¦¥à¦ķ":9423,"à§°à¦®à¦§":9424,"à§°à¦¬à¦ļ":9425,"à§°à¦Ĺà¦£":9426,"à§°à¦ľà¦®":9427,"à§°à¦®à¦®":9428,"à§°à¦¶à¦¸":9429,"Ġà¦ķà¦¬à¦°à¦ķ":9430,"Ġà¦Ĩà¦ªà¦¨à¦Ń":9431,"à¦®à¦ķà¦ª":9432,"Ġà¦ıà¦¤à¦ĵ":9433,"Ġà¦ıà¦¤à§İ":9434,"Ġà¦ıà¦¤à¦¶à¦¤":9435,"à¦·à¦ķà¦¯":9436,"à¦·à¦ķà¦®":9437,"à¦·à¦ķà¦ĩ":9438,"à¦·à¦ķà¦ªà¦°":9439,"à¦·à¦ķà¦ªà¦£":9440,"à¦·à¦ķà¦ħà¦Ń":9441,"Ġà¦ĵà¦łà¦Ľ":9442,"à¦¬à¦¬à¦¯":9443,"à¦¬à¦¬à¦¶":9444,"à¦¬à¦¬à¦ļ":9445,"à¦¬à¦¬à¦¡":9446,"à¦¬à¦¬à§İ":9447,"à¦¬à¦¬à¦¶à¦¤":9448,"à¦ªà¦¦à¦¦":9449,"à¦ªà¦¦à¦ķà¦°":9450,"à¦ªà¦¦à¦ªà¦¤":9451,"à¦ªà¦¦à¦¦à¦®":9452,"à¦Ĺà¦°à¦ĸ":9453,"à¦¤à¦®à¦ª":9454,"à¦¤à¦®à¦Ĺ":9455,"à¦¤à¦®à¦¹":9456,"à¦¤à¦®à¦ħà¦§à¦®":9457,"Ġà¦Ŀà¦®":9458,"Ġà¦Ŀà¦ĩ":9459,"Ġà¦Ŀà¦ª":9460,"Ġà¦Ŀà¦°à¦¬":9461,"Ġà¦Ŀà¦ķà¦®":9462,"Ġà¦Ŀà¦Ĺà§ľ":9463,"Ġà¦Ĩà¦°à¦ĵà¦ĩ":9464,"Ġà¦Ĩà¦¶à¦ķà¦¥":9465,"Ġà¦ıà¦Łà¦®":9466,"Ġà¦ķà¦®à¦²à¦ķà¦²":9467,"à¦¬à¦¯à¦ľ":9468,"à¦·à¦¤à¦ķ":9469,"Ġà¦ħà¦ªà¦ľ":9470,"Ġà¦ħà¦ªà¦§":9471,"Ġà¦ħà¦ªà¦Ļ":9472,"Ġà¦ħà¦ªà¦ļà¦¨":9473,"Ġà¦ħà¦ªà¦¶à¦¨":9474,"à¦ıà¦ĩà¦¬":9475,"à¦ıà¦ĩà¦ĸ":9476,"à¦ĩà¦¨à¦Ĩà¦ª":9477,"à¦°à¦ĵà¦°":9478,"à¦°à¦ĵà¦¨":9479,"à¦°à¦ĵà¦ķ":9480,"à¦°à¦ĵà¦ĩ":9481,"à¦°à¦ĵà¦ª":9482,"à¦°à¦ĵà¦¡":9483,"à¦°à¦ĵà¦°à¦ĩ":9484,"à¦°à¦ĵà¦®à¦°":9485,"à¦ļà¦²à¦¸":9486,"à¦ļà¦²à¦ĩ":9487,"à¦ļà¦²à¦Ľ":9488,"à¦ļà¦²à¦ĵ":9489,"à¦ļà¦²à¦°à¦¤":9490,"à¦ļà¦²à¦ı":9491,"à¦ļà¦²à¦Ĺà¦¤":9492,"à¦Ĺà¦²à¦¯":9493,"à¦Ĺà¦²à¦¹":9494,"à¦Ĺà¦²à¦ªà¦¨":9495,"à¦Ĺà¦²à¦²à¦¨":9496,"à¦Ĺà¦²à¦¸à¦®":9497,"à¦Ĺà¦²à¦Ľà¦¨":9498,"à¦Ĺà¦²à¦ªà¦¥":9499,"à¦Ĺà¦²à¦Ľà¦ķ":9500,"à¦Ĺà¦²à¦¶à¦Ļ":9501,"Ġà¦¶à¦¬à¦Ł":9502,"à¦¶à¦ķà¦¬":9503,"à¦¶à¦ķà¦¥":9504,"à¦¶à¦ķà¦ıà¦¸à¦¬":9505,"à¦¨à¦ķà¦·":9506,"à¦¨à¦ķà¦ĸà¦¨":9507,"Ġà¦ħà¦Ĺà¦¨":9508,"Ġà¦ħà¦Ĺà¦£à¦¤":9509,"Ġà¦ªà¦¦à¦²":9510,"Ġà¦ªà¦¦à¦ĩ":9511,"Ġà¦ªà¦¦à¦Ĺ":9512,"Ġà¦ªà¦¦à¦ªà¦°":9513,"Ġà¦ĩà¦¨à¦ª":9514,"à¦¬à¦ķà¦ĩ":9515,"à¦¬à¦ķà¦¶":9516,"à¦¬à¦ķà¦¹":9517,"à¦¬à¦ķà¦ļ":9518,"à¦¬à¦ķà¦ľà¦¨":9519,"à¦¬à¦ķà¦¸à¦¬":9520,"à¦¬à¦ķà¦¸à¦®":9521,"à¦¬à¦ķà¦¬à¦¯":9522,"à¦¬à¦ķà¦¦à¦£":9523,"à¦¬à¦ķà¦¸à¦ķà¦²":9524,"à¦ªà¦ķà¦ķ":9525,"à¦ªà¦ķà¦¸":9526,"à¦ªà¦ķà¦£":9527,"à¦®à¦°à¦Ł":9528,"à¦®à¦°à¦Ļ":9529,"à¦®à¦°à¦¬à¦¨":9530,"à¦°à¦¹à¦£à¦Ł":9531,"à¦°à¦¹à¦£à¦¸à¦¬à¦ĩ":9532,"à¦°à¦¹à¦£à¦¸à¦¬à¦ķ":9533,"à¦¤à¦ķà¦ĩ":9534,"à¦¤à¦ķà¦·":9535,"à¦¤à¦ķà¦Ń":9536,"à¦¤à¦ķà¦¬à¦ļ":9537,"Ġà¦¶à¦°à¦¬à¦¨":9538,"Ġà¦ľà¦²à¦®":9539,"Ġà¦ľà¦²à¦ĵ":9540,"Ġà¦ľà¦²à¦¬à¦°":9541,"Ġà¦ľà¦²à¦®à¦£":9542,"Ġà¦ľà¦²à¦¢":9543,"Ġà¦ľà¦²à¦¸à¦Ļ":9544,"Ġà¦ľà¦²à¦®à¦¹":9545,"Ġà¦ľà¦²à¦ľà¦²":9546,"Ġà¦ľà¦²à¦ľà¦®":9547,"Ġà¦ľà¦²à¦°à¦Ļ":9548,"à¦¬à¦¸à¦¦":9549,"à¦¬à¦¸à¦¹à¦ľ":9550,"§à§¨":9551,"Ġà¦Ĺà¦²à¦²":9552,"Ġà¦Ĺà¦²à¦Ĺ":9553,"Ġà¦Ĺà¦²à¦Ĺà¦£":9554,"à¦¤à¦¤à¦¦":9555,"à¦¤à¦¤à¦ĩ":9556,"à¦¹à¦¸à¦¸":9557,"à¦¹à¦¸à¦Ł":9558,"à¦¹à¦¸à¦ľ":9559,"à¦¹à¦¸à¦¹":9560,"à¦¹à¦¸à¦Ń":9561,"à¦¹à¦¸à¦®à¦¨":9562,"à¦¹à¦¸à¦¹à¦¯":9563,"à¦¸à¦°à¦°":9564,"à¦¯à¦¸à¦ĸ":9565,"à¦¯à¦¸à¦¤à¦¤":9566,"à¦¯à¦¸à¦Ĺà¦¨":9567,"à¦¯à¦¸à¦¹à¦ļà¦°":9568,"à¦ĩà¦²à¦¦":9569,"à¦ĩà¦²à¦ª":9570,"à¦ĩà¦²à¦ľ":9571,"à¦ĩà¦²à¦Ĺ":9572,"à¦ĩà¦²à¦¡":9573,"Ġà¦ħà¦®à¦Ĺ":9574,"à¦¯à¦¦à¦¯":9575,"à¦¯à¦¦à¦¬":9576,"à§Łà¦¨à¦®":9577,"à§Łà¦¨à¦¹":9578,"à¦Ľà¦¨à¦¦":9579,"à¦Ľà¦¨à¦ª":9580,"à¦°à¦ľà¦¨à¦¤":9581,"à¦°à¦ľà¦¨à¦Ĺ":9582,"à¦°à¦ļà¦¤":9583,"Ġà¦¨à§Łà¦¸":9584,"Ġà¦¨à§Łà¦¶":9585,"Ġà¦¨à§Łà¦ļ":9586,"Ġà¦¨à§Łà¦ı":9587,"Ġà¦¨à§Łà¦ıà¦ķ":9588,"Ġà¦Ńà¦¬à¦ĺ":9589,"Ġà¦Ńà¦¬à¦Ńà¦¬à¦¨":9590,"à¦¨à¦¸à¦¸":9591,"à¦¨à¦¸à¦ľ":9592,"à¦¨à¦¸à¦ļ":9593,"à¦¨à¦¸à¦ĸ":9594,"à¦¨à¦¸à§İ":9595,"à¦¨à¦¸à¦ļà¦ķ":9596,"à¦¨à¦¸à¦¹à¦ľ":9597,"à¦¥à¦¨à¦ª":9598,"à¦¥à¦¨à¦ľà¦°":9599,"Ġà¦ĵà¦ªà¦°à¦¬":9600,"à¦ķà¦¬à¦¶":9601,"Ġà¦¯à¦¤à¦²":9602,"à¦®à¦¬à¦¹":9603,"à¦®à¦¬à§İ":9604,"à¦®à¦¬à§ľ":9605,"à¦®à¦¬à§İà¦ª":9606,"Ġà¦Ĺà¦°à¦°":9607,"à¦ľà¦¸à¦¹":9608,"à¦ľà¦¸à¦ļ":9609,"à¦°à¦²à¦ª":9610,"à¦¹à¦°à¦ª":9611,"à¦¬à¦¶à¦¤à¦ķ":9612,"à¦ĸà¦²à¦®":9613,"à¦°à¦ªà¦£":9614,"à¦°à¦ªà¦ļ":9615,"à¦°à¦ªà¦Łà¦ķ":9616,"Ġà¦ĭà¦¯":9617,"Ġà¦ĭà¦Ń":9618,"Ġà¦ĭà¦£à¦®":9619,"Ġà¦¶à¦¤à¦Ń":9620,"à¦°à¦ľà¦ľ":9621,"à¦°à¦ľà¦Ļ":9622,"à¦°à¦ľà¦Ĺà¦¤":9623,"à¦Łà¦ķà¦¯":9624,"à¦Łà¦ķà¦ķ":9625,"à¦Łà¦ķà¦ĩ":9626,"à¦Łà¦ķà¦ļ":9627,"à¦Łà¦ķà¦¥":9628,"à¦Łà¦ķà¦ĸ":9629,"à¦Łà¦ķà¦¸à¦®":9630,"à¦Łà¦ķà¦ķà¦¬":9631,"à¦Łà¦ķà¦®à¦ŀ":9632,"à¦¨à¦¯à¦¯":9633,"à¦¼à§Ģà¦Ĥ":9634,"à¦īà¦²à¦Ł":9635,"à¦īà¦²à¦ĸ":9636,"à¦īà¦²à¦§à¦°":9637,"à¦īà¦²à¦Ĩà¦ļà¦°à¦£":9638,"à¦¹à¦²à¦Ł":9639,"à¦¹à¦²à¦¹":9640,"à¦¹à¦²à¦¸à¦¬":9641,"à¦¹à¦²à¦ıà¦¸à¦¬":9642,"à¦¹à¦²à¦®à§Ł":9643,"à¦¦à¦¯à¦¶":9644,"Ġà¦ķà¦¤à¦ķà¦¤":9645,"Ġà¦ıà¦²à¦Ĺ":9646,"Ġà¦ıà¦²à¦®à¦¹":9647,"Ġà¦¸à¦¹à¦ľà¦¤à¦¤":9648,"Ġà¦¸à¦¹à¦ľà¦Ĺà¦®":9649,"à¦«à¦²à¦Ł":9650,"à¦«à¦²à¦Ĺ":9651,"Ġà¦ħà¦ķà¦£":9652,"Ġà¦ħà¦ķà¦¸à¦¬":9653,"à¦·à¦®à¦¤à¦²":9654,"à¦·à¦®à¦¤à¦®":9655,"Ġà¦Ĩà¦ļà¦ķ":9656,"Ġà¦Ĩà¦ļà¦°à¦®":9657,"à¦ıà¦¸à¦¬à¦ĵ":9658,"à¦ªà¦¸à¦²":9659,"à¦ªà¦¸à¦ľ":9660,"à¦ªà¦¸à¦°à¦£":9661,"à¦ªà¦¸à¦¦à¦¨":9662,"à¦ļà¦ķà¦ª":9663,"à¦¯à¦ªà¦£":9664,"à¦¯à¦ªà¦Łà¦ķ":9665,"à¦¹à¦¨à¦Ł":9666,"à¦¹à¦¨à¦ĺ":9667,"à¦¹à¦¨à¦ıà¦ĩ":9668,"Ġà¦ªà¦ķà¦¡":9669,"à¦ľà¦ķà¦¸":9670,"à¦ľà¦ķà¦Ĺ":9671,"à¦ľà¦ķà¦¸à¦®":9672,"à¦¢à¦Ļ":9673,"Ġà¦ħà¦¦à¦¤":9674,"Ġà¦ħà¦¦à¦®à¦¨":9675,"à¦®à¦¸à¦®à¦¨":9676,"à¦®à¦¸à¦¤à¦¤":9677,"à¦Łà¦²à¦ıà¦¸à¦¬":9678,"à¦°à¦ķà¦®à¦Ł":9679,"Ġà¦Ĺà¦£à¦¶à¦ķ":9680,"Ġà¦Ĺà¦£à¦ķà¦®":9681,"Ġà¦Ĺà¦£à¦¸à¦®à¦°":9682,"à¦¸à¦ķà¦¨":9683,"à¦¸à¦ķà¦ĩ":9684,"à¦¸à¦ķà¦Ń":9685,"à¦¸à¦ķà¦¸à¦®":9686,"¯à§¨à§¦":9687,"à¦Ĺà¦¨à¦ļ":9688,"à¦°à¦®à¦£à¦¨":9689,"à¦°à¦®à¦£à¦®":9690,"à¦°à¦®à¦£à¦ĵ":9691,"à¦°à¦®à¦£à¦°à¦¤":9692,"à¦°à¦®à¦£à¦¸à¦Ļ":9693,"à¦°à¦®à¦£à¦ıà¦¸à¦¬à¦ĩ":9694,"Ġà¦Ĺà§ľà¦²":9695,"à¦¹à¦°à¦£à¦ıà¦ĩ":9696,"à¦¹à¦°à¦£à¦¸à¦¹":9697,"à¦ķà¦°à¦£à¦¸":9698,"à¦ķà¦°à¦£à¦¶":9699,"à¦ķà¦°à¦£à¦Ĺ":9700,"à¦ķà¦°à¦£à¦ıà¦¸à¦¬à¦ĩ":9701,"à¦¥à¦ķà¦¶":9702,"à¦¥à¦ķà¦ĵ":9703,"à¦¥à¦ķà¦¤à¦°":9704,"Ġà¦Ĩà¦¦à¦°à¦ĵ":9705,"Ġà¦Ĩà¦¦à¦°à¦Ĩà¦ª":9706,"à¦Ĩà¦®à¦²à¦ķ":9707,"à¦ĩà¦ķà¦ıà¦°":9708,"à¦ĩà¦ķà¦¨à¦®":9709,"Ġà¦¶à¦¹à¦°à¦ľ":9710,"Ġà¦īà¦łà¦²à¦®":9711,"Ġà¦īà¦łà¦²à¦¦":9712,"Ġà¦īà¦łà¦²à¦ª":9713,"Ġà¦īà¦łà¦²à¦¹":9714,"Ġà¦īà¦ªà¦°à¦Ł":9715,"à¦¤à¦²à¦¦":9716,"à¦¤à¦²à¦¸":9717,"à¦¤à¦²à¦¶":9718,"à¦¤à¦²à¦Ĺ":9719,"à¦łà¦ķà¦ª":9720,"à¦łà¦ķà¦¶":9721,"à¦łà¦ķà¦ļ":9722,"à¦łà¦ķà¦¬à¦¨":9723,"à¦®à¦Ĺà¦¬":9724,"à¦®à¦Ĺà¦ľ":9725,"à¦®à¦Ĺà¦Ļ":9726,"à§İà¦¸à¦ķà¦°":9727,"Ġà¦īà§İà¦¸à¦¯":9728,"Ġà¦īà§İà¦¸à¦Ł":9729,"Ġà¦īà§İà¦¸à¦Ń":9730,"Ġà¦īà§İà¦¸à¦ĵ":9731,"à¦§à¦¬à¦®":9732,"à¦§à¦¬à¦§":9733,"à¦§à¦¬à¦£":9734,"Ġà¦¬à¦ĩà¦¹":9735,"Ġà¦¬à¦ĩà¦Ń":9736,"Ġà¦¬à¦ĩà¦ªà¦°":9737,"Ġà¦¬à¦ĩà¦ĵà¦²":9738,"à¦°à¦Łà¦¨":9739,"à¦°à¦Łà¦¸":9740,"Ġà¦¨à¦¬à¦Ń":9741,"Ġà¦¨à¦¬à¦¹à¦Ł":9742,"Ġà¦ħà¦²à¦°":9743,"Ġà¦ħà¦²à¦Ń":9744,"Ġà¦ķà¦ĸà¦¨à¦ĵà¦¨":9745,"Ġà¦¸à¦¤à¦¤à¦ĩ":9746,"Ġà¦ķà¦¨à¦ľ":9747,"Ġà¦ķà¦¨à¦¡":9748,"à¦¦à¦²à¦®":9749,"à¦¦à¦²à¦ª":9750,"à¦°à§Łà¦ķ":9751,"à¦®à¦²à¦ª":9752,"à¦®à¦²à¦Ń":9753,"à¦¯à¦¯à¦¥":9754,"à¦ĸà¦¬à¦£":9755,"à¦ĸà¦¬à¦°à¦£":9756,"Ġà¦ıà¦ķà¦ľà¦¨à¦¦":9757,"Ġà¦ıà¦ķà¦ľà¦¨à¦ħà¦ªà¦°":9758,"à¦¨à¦¦à¦¤":9759,"à¦¨à¦¦à¦¦":9760,"à¦¨à¦¦à¦¸":9761,"Ġà¦īà¦ªà¦¨à¦¦":9762,"à¦°à¦Ĺà¦®":9763,"à¦°à¦Ĺà¦¦":9764,"à¦°à¦Ĺà¦®à¦¨":9765,"à¦¶à¦ªà¦ŀ":9766,"Ġà¦ªà¦°à¦®à¦¦":9767,"Ġà¦ªà¦°à¦®à¦Īà¦¶":9768,"Ġà¦Īà¦¦à¦ª":9769,"Ġà¦°à¦®à¦£à¦ª":9770,"à¦Ĺà¦®à¦¹":9771,"à¦Ĺà¦®à¦¸à¦¨":9772,"à¦ķà¦¸à¦ķà¦²":9773,"à¦ªà¦Łà¦ĵ":9774,"Ġà¦°à¦Ļà¦ª":9775,"Ġà¦°à¦Ļà¦ĵ":9776,"Ġà¦°à¦Ļà¦¸à¦¬à¦ĩ":9777,"Ġà¦°à¦Ļà¦¸à¦¬à¦ķ":9778,"Ġà¦ĵà¦ĩà¦¯":9779,"Ġà¦ĵà¦ĩà¦Ń":9780,"Ġà¦Ĺà¦¨à¦Ĺà¦¨":9781,"à¦ªà¦¥à¦ĩ":9782,"à¦ªà¦¥à¦ļ":9783,"Ġà¦¦à¦²à¦ľ":9784,"à¦ĩà¦¤à¦¦":9785,"à¦·à¦¦à¦ª":9786,"à¦·à¦¦à¦Ł":9787,"à¦£à¦¨à¦®":9788,"à¦ľà¦¬à¦ªà¦¨":9789,"à¦ľà¦¬à§°":9790,"Ġà¦īà§İà¦¸à¦¬à¦ĵ":9791,"Ġà¦īà§İà¦¸à¦¬à¦ªà¦°":9792,"Ġà¦īà§İà¦¸à¦¬à¦ıà¦ĩ":9793,"Ġà¦īà§İà¦¸à¦¬à¦§à¦°":9794,"Ġà¦īà§İà¦¸à¦¬à¦īà¦¤":9795,"Ġà¦īà§İà¦¸à¦¬à¦Ĩà¦¨à¦¨":9796,"à¦®à¦°à¦£à¦®":9797,"à¦®à¦°à¦£à¦ļ":9798,"Ġà¦°à¦¸à¦¹":9799,"Ġà¦°à¦¸à¦ķà¦²":9800,"Ġà¦°à¦¸à¦¸à¦®":9801,"Ġà¦°à¦¸à¦ļà¦°":9802,"Ġà¦°à¦¸à¦¸à¦¤":9803,"Ġà¦°à¦¸à¦Ńà¦Ļ":9804,"Ġà¦°à¦¸à¦¸à¦ŀ":9805,"à¦²à¦¯à¦ĸà¦¨":9806,"à¦ķà¦¶à¦ĩ":9807,"Ġà¦¸à¦®à§Łà¦¯":9808,"à¦¬à¦Ńà¦Ł":9809,"Ġà¦Ĳà¦ķà¦ªà¦¦":9810,"à¦¡à¦²à¦¦":9811,"à¦¡à¦²à¦Ł":9812,"à¦¡à¦²à¦ĵ":9813,"à¦¡à¦²à¦ªà¦°":9814,"à¦¡à¦²à¦®à¦¶":9815,"à¦¨à¦ªà¦¶":9816,"à¦¨à¦ªà¦£":9817,"à¦¨à¦ªà¦ŀ":9818,"à¦¨à¦ªà¦¤à¦¨à¦ķ":9819,"Ġà¦§à¦¨à¦§":9820,"Ġà¦ħà¦ľà¦ªà¦¥":9821,"à¦ħà¦¨à¦¡":9822,"à¦ªà¦£à¦ķ":9823,"à¦ªà¦£à¦ĩ":9824,"à¦ªà¦£à¦¸à¦®":9825,"à¦ªà¦£à¦ıà¦ĩ":9826,"à¦ªà¦£à¦ıà¦¸à¦¬à¦ĩ":9827,"à¦¨à§Łà¦¨à¦ıà¦ĩ":9828,"à¦¨à§Łà¦¨à¦ıà¦¸à¦¬":9829,"Ġà¦°à¦ķà¦®à¦ª":9830,"Ġà¦°à¦ķà¦®à¦«":9831,"Ġà¦Ĩà¦ªà¦¸à¦®":9832,"Ġà¦ıà¦¨à¦¶":9833,"Ġà¦ıà¦¨à¦ıà¦ĩà¦ļ":9834,"à¦£à¦ķà¦ł":9835,"à¦£à¦ķà§°":9836,"à¦¬à¦®à¦¹à¦²":9837,"Ġà¦Ĩà¦¹à¦ķ":9838,"Ġà¦Ĩà¦¹à¦¬à¦¨":9839,"à¦²à¦®à¦¸à¦²":9840,"à¦ĩà¦¬à¦®à¦¨":9841,"à¦¨à¦ĩà¦¸à¦²":9842,"à¦®à¦¹à¦ª":9843,"Ġà¦¨à¦Ĺà¦°à¦°à¦ķ":9844,"Ġà¦¨à¦Ĺà¦°à¦ªà¦°":9845,"à¦Łà¦¨à¦®":9846,"à¦Łà¦¨à¦¶":9847,"Ġà¦¬à¦²à¦¬à¦ĵ":9848,"à¦¤à¦¦à¦¸":9849,"à¦¤à¦¦à¦ª":9850,"à¦²à¦²à¦ª":9851,"à¦²à¦²à¦ıà¦ĩ":9852,"à¦²à¦²à¦ıà¦ķ":9853,"à¦®à¦¦à¦ĵ":9854,"à¦®à¦¦à¦®à¦¨":9855,"à¦®à¦¦à¦¨à¦¬":9856,"à¦¦à§Łà¦¬":9857,"à¦¦à§Łà¦ĩ":9858,"à¦¯à§İà¦¯":9859,"à¦¯à§İà¦¦":9860,"à¦¯à§İà¦ª":9861,"à¦¯à§İà¦Ł":9862,"Ġà¦Ĩà¦ĩà¦¨à¦Ł":9863,"Ġà¦Ĩà¦ĩà¦¨à¦¸à¦Ļ":9864,"Ġà¦Ĩà¦ĩà¦¨à¦Ńà¦Ļ":9865,"Ġà¦Ĩà¦ļà¦°à¦£à¦¨":9866,"Ġà¦Ĩà¦ļà¦°à¦£à¦¸":9867,"Ġà¦Ĩà¦ļà¦°à¦£à¦Ńà¦Ļ":9868,"à¦°à¦ĸà¦°à¦¤":9869,"à¦¨à¦Ńà¦°à¦¦":9870,"à¦¤à¦¸à¦ľ":9871,"à¦¤à¦¸à¦ļ":9872,"à¦¤à¦¸à¦ķà¦²":9873,"à¦¤à¦¸à¦Īà¦°":9874,"à¦²à¦¸à¦ĵ":9875,"à¦²à¦¸à¦ł":9876,"à¦ĩà¦Łà¦¬":9877,"Ġà¦¦à¦¶à¦Ń":9878,"Ġà¦¦à¦¶à¦¦à¦¶":9879,"Ġà¦¦à¦¶à¦°à¦¥à¦°":9880,"à¦£à¦¬à¦Ĺ":9881,"à¦£à¦¬à¦Ļ":9882,"à¦£à¦¬à§İ":9883,"à¦£à¦¬à¦ªà¦¨":9884,"à¦£à¦¬à¦ļà¦¨":9885,"à¦£à¦¬à¦¸à¦®":9886,"à¦ıà¦ķà¦ĸ":9887,"à¦ıà¦ķà¦ªà¦°":9888,"à¦ıà¦ķà¦®à¦¨":9889,"à¦ıà¦ķà¦ķà¦Ń":9890,"à¦ıà¦ķà¦ľà¦¨à¦ķ":9891,"à¦®à¦ľà¦²":9892,"à¦®à¦ªà¦¥à¦ķ":9893,"à¦¨à¦¶à¦¹à¦°":9894,"à¦¶à¦²à¦ª":9895,"à¦¶à¦²à¦Ł":9896,"à§¨à§¦à§¦":9897,"à¦®à§Łà¦ķ":9898,"à¦®à§Łà¦ĩ":9899,"à¦²à¦Ńà¦Ł":9900,"Ġà¦ļà¦¨à¦®à¦¨":9901,"Ġà¦ħà¦¸à¦®à¦ŀ":9902,"à¦ĸà¦ķà¦¯":9903,"à¦ĸà¦ķà¦ł":9904,"à¦ĸà¦ķà¦ķà¦¬":9905,"Ġà¦¸à§İà¦ªà¦°":9906,"Ġà¦¸à§İà¦¸à¦Ļ":9907,"Ġà¦ľà¦¡à¦¬":9908,"à¦Ĺà¦łà¦¨à¦ĩ":9909,"à¦Ĺà¦£à¦®":9910,"à¦Ĺà¦£à¦ĵ":9911,"à¦¤à¦Ńà¦ķ":9912,"Ġà¦Ľà¦¬à¦Ľà¦°":9913,"à¦¨à¦²à¦Ļ":9914,"à¦ľà¦²à¦§":9915,"à¦²à¦Ĺà¦¡":9916,"Ġà¦ħà¦¬à¦¦à¦®à¦¨":9917,"à¦·à§Łà¦¬":9918,"à¦·à§Łà¦¸":9919,"à¦·à§Łà¦ĩ":9920,"à¦·à§Łà¦ª":9921,"à¦·à§Łà¦ªà¦°":9922,"à¦·à§Łà¦Ĺà¦¤":9923,"Ġà¦ĸà¦¬à¦°à¦ª":9924,"Ġà¦ĸà¦¬à¦°à¦Ĺ":9925,"à¦®à¦¶à¦°":9926,"à¦®à¦¶à¦¤à¦¬":9927,"à¦¥à¦²à¦®à¦£":9928,"à¦¥à¦²à¦ªà¦¦":9929,"Ġà§¨à§§à§©":9930,"à¦¸à¦ªà¦²":9931,"à¦¦à¦¬à¦ŀ":9932,"Ġà¦¶à¦¹à¦°à¦¸":9933,"Ġà¦¹à¦ĩà¦¦":9934,"Ġà¦¹à¦ĩà¦¸":9935,"Ġà¦¹à¦ĩà¦Ľ":9936,"Ġà¦¹à¦ĩà¦¹à¦Ł":9937,"Ġà¦¸à¦°à¦²à¦¹":9938,"Ġà¦Ĺà¦łà¦¨à¦§à¦°":9939,"à¦¬à¦ľà¦¨à¦°":9940,"à¦¬à¦ľà¦¨à¦¹":9941,"à¦¬à¦ľà¦¨à¦²à¦Ń":9942,"Ġà¦Ĩà¦ķà¦°à¦Ĺ":9943,"à¦ļà§Łà¦ıà¦ķà¦Ł":9944,"à¦ľà¦®à¦ıà¦°":9945,"à¦¬à¦ľà¦ªà¦¤":9946,"à¦ķà¦¥à¦ŀ":9947,"à¦¬à¦ĩà§Ł":9948,"à¦¬à¦ĩà¦ªà§ľ":9949,"à¦¦à¦ķà¦¶à¦ķ":9950,"Ġà¦°à¦ĩà¦²à¦Ĺ":9951,"Ġà¦¬à§ľà¦¬à§ľ":9952,"à¦¸à¦¹à¦ķ":9953,"à¦¸à¦¹à¦ª":9954,"à¦¨à¦®à¦®":9955,"à¦®à¦®à¦«à¦¸":9956,"à¦¬à¦°à¦£à¦ĩ":9957,"à¦¬à¦°à¦£à¦Ĺ":9958,"à¦¬à¦¹à¦®":9959,"à¦¬à¦¹à¦£à¦ķ":9960,"à¦Ĺà¦¸à¦¦":9961,"à¦Ĺà¦¸à¦ľ":9962,"à¦Ĺà¦¸à¦ļ":9963,"à¦Ĺà¦¸à¦Ń":9964,"à¦Ĺà¦¸à¦®à¦¤":9965,"à¦ĩà¦¸à¦Ĺ":9966,"à¦¯à¦Ĺà¦Ĺà¦¨":9967,"à¦¶à¦°à§İ":9968,"Ġà¦·à¦¨":9969,"Ġà¦·à¦Łà¦ª":9970,"Ġà¦Ķà¦·":9971,"Ġà¦Ĩà¦Ļà¦Ł":9972,"à§Ŀà¦¨":9973,"à§Ŀà¦ļ":9974,"à§«à§«":9975,"à§«à§©à§«":9976,"à¦¬à¦°à¦¤à¦²":9977,"à¦Ĺà¦ľà¦ĸ":9978,"à¦ĩà¦ľà¦Ĺ":9979,"Ġà¦ªà¦Łà¦ªà¦°":9980,"Ġà¦ıà¦ĩà¦°à¦ķà¦®à¦Ł":9981,"Ġà¦¨à¦¹à¦·":9982,"Ġà¦¨à¦¹à¦·à¦ķ":9983,"Ġà¦¨à¦¹à¦·à¦ª":9984,"à¦¶à¦®à¦®à¦¤":9985,"à¦¬à¦Łà¦¸":9986,"Ġà¦Ńà¦°à¦¤à¦¨":9987,"Ġà¦Ńà¦°à¦¤à¦ª":9988,"Ġà¦Ńà¦°à¦¤à¦¶":9989,"Ġà¦Ńà¦°à¦¤à¦®à¦¹":9990,"Ġà¦ľà¦Ĺà¦Ŀà¦®":9991,"à¦¡à¦¬à§İ":9992,"à¦¡à¦¬à¦Ĺà¦£":9993,"à¦ķà¦¡à¦ĩà¦¨":9994,"à¦²à§Łà¦¶":9995,"à¦²à§Łà¦Ĺ":9996,"à¦§à¦®à¦ħà¦¬":9997,"Ġà¦Ĭà¦§":9998,"Ġà¦¤à¦²à¦ª":9999,"Ġà¦¤à¦²à¦ĵà¦¯":10000,"à¦ľà¦ªà§ľ":10001,"Ġà¦¬à¦¸à¦¨à¦ļ":10002,"à¦¬à¦Ĺà¦Ń":10003,"à¦¬à¦Ĺà¦®à¦¨":10004,"à¦¬à§Łà¦¬":10005,"à¦¬à§Łà¦¸":10006,"Ġà¦¸à¦¬à¦ķà¦ĩ":10007,"à¦¸à¦°à¦£à¦ĩ":10008,"à¦ķà¦ªà¦²":10009,"à¦Ĺà¦°à¦£à¦¯":10010,"à¦Ĺà¦°à¦£à¦ĵ":10011,"Ġà¦®à¦¸à¦¨à¦¬":10012,"Ġà¦¤à¦¦à¦¸":10013,"Ġà¦¤à¦¦à¦ª":10014,"Ġà¦¤à¦¦à¦¨à¦¨":10015,"Ġà¦¤à¦¦à¦¬à¦¸":10016,"Ġà¦ĩà¦¹à¦ľà¦Ĺà§İ":10017,"à¦ľà¦Łà¦®":10018,"Ġà¦¯à¦®à¦ĵ":10019,"à¦²à¦ªà§ľ":10020,"à¦Ĺà¦¦à¦ĸà¦²":10021,"à¦°à¦«à¦¸à¦²":10022,"à¦īà¦¦à¦ĺ":10023,"à¦ķà¦ļà¦Ł":10024,"à¦¹à¦ķà¦£":10025,"Ġà¦®à¦¦à¦®à¦¤":10026,"Ġà¦ıà¦¡à¦ĵà¦¯":10027,"à§©à§¯":10028,"à¦¯à¦¹à¦®à¦°":10029,"à¦¦à¦¸à¦ķà¦²":10030,"à¦¸à¦¸à¦ŀ":10031,"à¦²à¦ľà¦«":10032,"à¦²à¦ľà¦Ĺà¦¤":10033,"à¦²à¦ľà¦ĺ":10034,"à¦¶à¦¤à¦¬à¦°":10035,"ĠĠčĊčĊčĊč":10036,"à§ªà§©":10037,"à§ªà§¯":10038,"à§ªà§¦à§¦":10039,"Ġà§©à§ª":10040,"Ġà§©à§§à§¨":10041,"Ġà§©à§¬à§¦":10042,"Ġà§©à§¯à§§à§":10043,"Ġà§©à§¯à§¦":10044,"à¦¸à¦«à¦Ł":10045,"Ġà¦°à¦¥à¦¸":10046,"Ġà¦°à¦¥à¦Ł":10047,"Ġà¦°à¦¥à¦ļ":10048,"à¦«à¦²à¦¨à¦ķ":10049,"à¦«à¦²à¦¨à¦¬":10050,"à¦«à¦²à¦¨à¦ĵ":10051,"à¦«à¦²à¦¨à¦ıà¦¸à¦¬":10052,"Ġà¦¸à¦«à¦¦à¦°":10053,"Ġà¦«à¦¸à¦²à¦°":10054,"Ġà¦«à¦¸à¦²à¦ļà¦ķ":10055,"à¦ªà¦ķà¦²à¦ķ":10056,"Ġà¦¬à§Łà¦ķà¦Ł":10057,"Ġà§§à§¯à§Ńà§«":10058,"à§Ńà§¬":10059,"à¦¨à¦ļà¦£":10060,"à¦®à¦¸à¦®à§°":10061,"Ġà¦ľà¦¨à¦Ĺà¦¨à¦ķ":10062,"Ġà¦Ĺà¦¦à¦ĸ":10063,"à¦²à¦ĩà¦ľà¦®":10064,"à¦²à¦ĩà¦īà¦ľ":10065,"Ġà¦Ńà§Łà¦¸":10066,"Ġà¦Ńà§Łà¦Ń":10067,"Ġà¦Ńà§Łà¦īà¦¦":10068,"Ġà¦ĸà¦°à¦ļà¦ĵ":10069,"à¦ªà¦Ĺà¦ŀ":10070,"à§İà¦¸à¦¬à¦®":10071,"à§İà¦¸à¦¬à¦¸":10072,"à¦¨à¦¹à¦ł":10073,"Ġà¦®à¦¨à¦ķà¦·":10074,"Ġà§§à§¯à§«à§§":10075,"Ġà§§à§¯à§«à§Ń":10076,"Ġà¦¦à¦®à¦ķà¦²":10077,"Ġà¦¨à¦¬à¦¦à¦®":10078,"à¦Ĺà¦®à¦¨à¦ıà¦¸à¦¬à¦ĩ":10079,"à¦¨à¦ıà¦ĩà¦°à¦ķà¦®":10080,"Ġà¦Ĩà§Łà¦¬":10081,"à¦¨à¦Ĩà¦¨":10082,"à¦¨à¦Ĩà¦¬":10083,"à¦¨à¦Ĩà¦¶":10084,"à¦¨à¦Ĩà¦°à¦ĵ":10085,"à¦¨à¦Ĩà¦¨à¦®":10086,"à§°à¦¹à¦¨à¦ķ":10087,"Ġà¦ľà¦Ĺà§İà¦ıà¦¸à¦¬":10088,"à¦Ĳà¦¤à¦°":10089,"Ġà¦Ĩà¦Łà¦ĩ":10090,"Ġà¦Ĩà¦Łà¦Ĺ":10091,"Ġà¦Ĩà¦Łà¦¶à¦¤":10092,"ĠĠĠčĊ":10093,"à¦£à¦®à§Łà¦¤":10094,"à¦ªà¦ªà¦Ļ":10095,"à¦£à¦Ĺà¦¤à¦Ń":10096,"à§®à§¨":10097,"à§®à§¬":10098,"à§®à§§à§¦à§®":10099,"à¦£à¦Ńà¦ľà¦¨":10100,"Ġà¦ħà¦¯à¦¤à¦¨":10101,"Ġà¦ħà¦¯à¦ľà¦®":10102,"Ġà¦īà¦ªà¦ķà¦°à¦£à¦®":10103,"Ġà¦īà¦ªà¦ķà¦°à¦£à¦¸":10104,"Ġà¦īà¦ªà¦ķà¦°à¦£à¦Ĺ":10105,"Ġà¦īà¦ªà¦ķà¦°à¦£à¦ĵ":10106,"Ġà§§à§¯à§«à§¨à§«à§©":10107,"à¦Ĺà¦łà¦¨à¦ĵ":10108,"à§¬à§¨":10109,"à§¬à§§":10110,"à§¬à§«":10111,"à§¬à§§à§§à§":10112,"Ġà§«à§§":10113,"Ġà§«à§®":10114,"Ġà§«à§§à§¦":10115,"Ġà§«à§§à§§":10116,"Ġà§«à§§à§§à§":10117,"Ġà§«à§¨à§¦":10118,"Ġà§«à§®à§«":10119,"à¦®à¦ĵà¦ĩ":10120,"Ġà§ªà§¯à§«":10121,"Ġà§ªà§¯à§¦":10122,"à¦ĩà¦«à¦¨":10123,"Ġà¦¬à¦īà¦ªà¦°":10124,"Ġà¦¬à¦īà¦¬à¦²":10125,"à¦£à¦¸à¦ŀ":10126,"à¦£à¦¸à¦®à¦¨":10127,"Ġà§¨à§¦à§¨à§§":10128,"Ġà¦ķà¦²à¦®à¦ĸ":10129,"Ġà¦ķà¦²à¦®à¦«":10130,"Ġà¦ĭà¦£à¦°":10131,"Ġà¦¸à¦¦à¦¸à§İ":10132,"à¦¨à¦Ľà¦¯":10133,"Ġà¦¨à¦°à¦¡":10134,"Ġà¦¸à¦°à¦²à¦¤à¦®":10135,"à¦£à¦°à¦ļà¦¨":10136,"à¦īà¦ľà¦«":10137,"Ġà¦ıà¦°à¦ķà¦®à¦Ł":10138,"Ġà¦ıà¦°à¦ķà¦®à¦§":10139,"à¦§à¦¦à§°":10140,"à¦§à¦¦à¦ĩà¦¯":10141,"à¦¤à¦ļà¦°à¦ķ":10142,"à¦¤à¦ļà¦°à¦¬":10143,"à¦Łà¦¸à¦ľ":10144,"Ġà¦¬à¦¦à¦²à¦ķ":10145,"Ġà¦¬à¦¦à¦ĩà¦Ł":10146,"ĠĠĠĠĠĠĠĠĠĠĠĠĠĠĠĠĠĠĠĠĠĠĠĠĠĠĠĠĠĠĠĠĠĠĠĠĠĠĠĠĠĠĠĠĠĠ":10147,"ĠĠĠĠĠĠĠĠĠĠĠĠĠĠĠĠĠĠĠĠĠĠĠĠĠĠĠĠĠĠĠĠĠĠĠĠĠĠĠĠĠĠĠĠ":10148,"ĠĠĠĠĠĠĠĠĠĠĠĠĠĠĠĠĠĠĠĠĠĠĠĠĠĠĠĠĠĠĠĠĠĠĠĠĠĠĠĠĠĠĠĠĠĠĠĠĠĠĠĠĠ":10149,"à¦¯à¦ļà¦°à¦¤":10150,"à¦¯à¦ļà¦°à¦ķ":10151,"à¦§à¦¸à¦ķà¦²":10152,"à¦§à¦¸à¦°à¦¸à¦¤":10153,"Ġà¦ļà¦°à¦£à¦ķ":10154,"Ġà¦ļà¦°à¦£à¦¬":10155,"Ġà¦ļà¦°à¦£à¦¦à¦°":10156,"à¦¯à¦°à¦ķà¦®à¦®":10157,"à¦¡à¦ķà¦°à¦ķ":10158,"à¦¨à¦ıà¦¨":10159,"à¦¨à¦ıà¦¦":10160,"à¦¨à¦ıà¦ĸ":10161,"à¦¨à¦ħà¦¯":10162,"à¦¨à¦ħà¦ķ":10163,"à¦¨à¦ħà¦²":10164,"à¦¨à¦ħà¦¹":10165,"à¦¨à¦ħà¦°à¦£":10166,"à¦¨à¦ħà¦ªà¦¤":10167,"Ġà§§à§¦à§©":10168,"Ġà§§à§¦à§Ń":10169,"Ġà§§à§¦à§®à§«":10170,"Ġà§§à§¦à§¯à§®":10171,"à¦īà§İà¦¸à¦¬à¦¬":10172,"à¦īà§İà¦¸à¦¬à¦®":10173,"à¦¸à¦®à§Łà¦ĩ":10174,"Ġà¦Ķà¦°à¦¸à¦ľà¦¨":10175,"Ġà¦¬à§İà¦¸à¦°à¦Ĺ":10176,"Ġà¦ĵà¦ªà¦°à¦¤à¦²":10177,"Ġà¦ľà¦²à¦ľà¦Ļ":10178,"Ġà¦¨à¦Ĺà¦°à¦¨":10179,"à¦ľà§Łà¦ĩ":10180,"Ġà¦ħà¦¬à¦¸à¦°à¦Ĺ":10181,"à¦°à¦¸à¦¬à¦®":10182,"Ġà¦²à¦Ļà¦ĺà¦¨":10183,"Ġà¦Ĩà¦ĩà¦¨à¦ĵ":10184,"Ġà¦Ĩà¦ĩà¦¬à¦ķ":10185,"Ġà¦Ĩà¦ĩà¦¡à¦²":10186,"Ġà¦Ĩà¦ĩà¦Ĩà¦ĩà¦¸":10187,"à¦¦à¦¬à¦¦à¦¨":10188,"à¦Ńà¦¸à¦ŀ":10189,"à¦¦à¦Ńà¦¶à¦ķ":10190,"Ġà¦Ĩà¦¹à¦°à¦£à¦ķ":10191,"Ġà¦Ĩà¦¹à¦°à¦£à¦ĩ":10192,"Ġà¦®à¦°à¦£à¦Ł":10193,"Ġà¦®à¦°à¦£à¦¥":10194,"Ġà¦®à¦°à¦£à¦§à¦°":10195,"Ġà¦¶à¦ªà¦¥à¦¬":10196,"Ġà¦ĩà¦¸à¦¥":10197,"à§¦à§¦à§¦à§¦":10198,"Ġà¦ľà§ľà¦ªà¦¦":10199,"Ġà¦ľà§ľà¦ľà¦Ĺà§İ":10200,"à¦¤à¦°à¦ķà¦£":10201,"à¦¤à¦°à¦ķà¦°à¦£":10202,"Ġà¦¦à¦®à¦¨à¦®":10203,"Ġà¦¦à¦®à¦¨à¦¶":10204,"Ġà¦¬à¦°à¦«à¦ĩ":10205,"Ġà¦¬à¦°à¦«à¦¢":10206,"Ġà¦¬à¦°à¦«à¦Ŀà¦°":10207,"Ġà¦¬à¦°à¦«à¦Ĺà¦²à¦¨":10208,"à¦°à¦Ĩà¦¸":10209,"à¦°à¦Ĩà¦Ń":10210,"à¦°à¦Ĩà¦¡":10211,"à¦°à¦Ĩà¦ªà¦¨":10212,"à¦°à¦Ĩà¦¦à¦°":10213,"à¦¹à¦£à¦ĩ":10214,"à¦ļà¦¸à¦ľ":10215,"Ġà¦ľà¦¨à¦ªà¦¦à¦ª":10216,"Ġà¦¨à¦°à¦ķà¦¬":10217,"Ġà¦¨à¦°à¦ķà¦¸":10218,"Ġà¦¨à¦°à¦ķà¦ª":10219,"Ġà§¬à§§":10220,"Ġà§¬à§Ń":10221,"Ġà§¬à§¯":10222,"Ġà§¬à§¨à§®":10223,"à¦¬à¦¸à¦®à¦ķ":10224,"à¦²à¦¸à¦¬à¦ľ":10225,"Ġà¦¹à¦ĵà¦ķ":10226,"Ġà¦¹à¦ĵà¦®":10227,"à¦ıà¦ķà¦¦à¦®":10228,"à¦īà¦¬à¦ķà¦²":10229,"à¦Ĩà¦¤à¦Ļ":10230,"Ġà¦ıà¦®à¦ıà¦²":10231,"Ġà¦Ĩà¦¬à¦°à¦£à¦¬à¦¸":10232,"à¦¹à¦łà¦¯":10233,"à¦īà¦ªà¦¬à¦¨":10234,"à¦īà¦ªà¦²à¦ķ":10235,"Ġà§§à§®à§ª":10236,"Ġà§§à§®à§§à§ª":10237,"Ġà§§à§®à§©à§¦":10238,"Ġà§§à§®à§¨à§¯":10239,"Ġà§§à§®à§«à§ª":10240,"à¦¯à¦ľà¦¨à¦Ĺ":10241,"à¦®à¦Ľà¦²à¦¨":10242,"à¦°à¦£à¦ķà¦°à¦¸":10243,"à¦ĺà¦²à¦īà¦ªà¦¨":10244,"à¦°à¦®à¦¨à¦¸":10245,"à¦¸à¦ķà¦²à¦ķ":10246,"Ġà§Ńà§¨":10247,"Ġà§Ńà§¬":10248,"Ġà§§à§¯à§ªà§¦":10249,"Ġà§§à§¯à§ªà§§":10250,"Ġà§§à§¯à§ªà§§à§ª":10251,"Ġà¦Ĩà¦«à¦°":10252,"Ġà¦Ĩà¦«à¦¶":10253,"Ġà§§à§©à§§à§§":10254,"Ġà§§à§©à§ªà§¦":10255,"Ġà§§à§©à§©à§«":10256,"Ġà§§à§©à§®à§©":10257,"Ġà§§à§©à§«à§®":10258,"Ġà§§à§©à§©à§§":10259,"Ġà§§à§©à§¯à§Ń":10260,"à¦¨à¦¸à¦¬à¦ļ":10261,"à¦£à¦¤à¦°à¦¬":10262,"Ġà¦¤à¦«à¦¸":10263,"à¦®à¦ķà¦°à¦£à¦ĵ":10264,"Ġà§§à§¨à§¦":10265,"Ġà§§à§¨à§¯":10266,"Ġà¦īà§ľà¦²":10267,"à¦®à¦ĺà¦£":10268,"Ġà¦ķà¦²à¦¹à¦Ł":10269,"à¦®à¦²à¦¤à¦®":10270,"Ġà¦ħà¦¸à§İà¦Ń":10271,"à¦ħà¦ªà¦¹":10272,"à¦ħà¦ªà¦¹à¦°à¦£":10273,"à¦¬à¦ľà¦Ĺà¦¤à¦ķ":10274,"Ġà¦°à¦¤à¦¨à¦Ĺ":10275,"Ġà¦¬à¦ļà¦¨à¦®à¦¬":10276,"Ġà§§à§¯à§®à§¨":10277,"Ġà§§à§¯à§®à§ª":10278,"Ġà¦Ĩà¦®à¦¦à¦°à¦¬":10279,"Ġà¦ħà¦ļà¦²à¦ª":10280,"Ġà¦°à¦£à¦¹":10281,"Ġà¦°à¦£à¦ĸ":10282,"Ġà¦°à¦£à¦ķà¦²":10283,"Ġà¦®à¦¨à¦®à¦¥à¦¨":10284,"Ġà¦ľà¦ªà¦®à¦¨":10285,"Ġà¦ľà¦ªà¦¯à¦ľ":10286,"à¦ľà¦Ĺà§İà¦Ł":10287,"Ġà¦²à¦¬à¦£à¦ĩ":10288,"à¦ıà¦¸à¦ıà¦¸à¦¸":10289,"à¦¶à¦§à¦°à¦ĩ":10290,"Ġà¦ľà¦¨à¦®à¦¤à¦ķ":10291,"Ġà§§à§«à§¦":10292,"Ġà§§à§«à§¨à§¦":10293,"Ġà§§à§«à§¬à§§à§§à§":10294,"à¦®à¦®à¦¨à¦¨":10295,"à¦¡à¦¬à¦ķà¦¨":10296,"Ġà¦ħà¦²à¦¸à¦Ĺà¦®à¦¨":10297,"Ġà§§à§ªà§¦":10298,"Ġà§§à§ªà§ª":10299,"Ġà§§à§ªà§§à§«":10300,"Ġà§§à§ªà§§à§¬":10301,"à¦Īà¦²":10302,"à¦Īà¦®":10303,"Ġà¦ķà¦¹à¦¹à¦°":10304,"à¦Ĺà¦ļà¦ŀ":10305,"Ġà¦¦à¦«à¦¤à¦°à¦Ĺ":10306,"Ġà¦¦à¦Ĺà¦¦à¦Ĺ":10307,"Ġà¦ªà¦¥à¦ļà¦²à¦¤":10308,"Ġà§®à§Ń":10309,"Ġà§®à§§à§¦":10310,"Ġà§®à§§à§«":10311,"Ġà§®à§§à§¬":10312,"à¦¸à¦¨à¦ķà§°":10313,"à¦¨à¦ªà¦¤à¦¨à¦ıà¦ĩ":10314,"Ġà§¨à§¦à§¦à§§":10315,"Ġà§¨à§¦à§¦à§Ń":10316,"à¦¤à¦¸à¦®à¦°":10317,"à¦¬à¦ķà¦²à¦¹":10318,"Ġà§§à§¯à§§à§¦":10319,"Ġà§§à§¯à§§à§«":10320,"Ġà§§à§¯à§§à§¬":10321,"Ġà§§à§¯à§§à§¯à§¨à§¦":10322,"à¦·à¦ľà¦¨à¦ķà¦Ń":10323,"à¦¶à¦§à¦°à¦°":10324,"à¦¨à¦¬à¦®à¦¨à¦ķ":10325,"Ġà¦Ŀà§ľà¦ĩ":10326,"à¦Łà¦ķà¦²à¦ķ":10327,"Ġà§§à§¯à§¬à§¦":10328,"Ġà§§à§¯à§¬à§¯":10329,"Ġà§§à§¯à§¬à§¨à§¬":10330,"à¦ķà¦¸à¦®à¦·":10331,"Ġà¦łà¦ķà¦łà¦ķ":10332,"Ġà§§à§§à§¬":10333,"Ġà§§à§§à§¯":10334,"à§§à§¯à§¨":10335,"à§§à§¯à§§à§":10336,"à¦°à¦ħà¦¸à¦¹":10337,"à¦¯à¦¸à¦¬à¦®":10338,"Ġà¦ªà¦Łà¦²à¦¦":10339,"Ġà¦ªà¦Łà¦²à¦ª":10340,"à¦Ńà¦Ĺà¦¬à¦¦":10341,"Ġà¦ıà¦ķà¦ĺà¦£":10342,"à¦¨à¦¡à¦°à¦«":10343,"Ġà¦ªà¦²à¦ķà¦¹":10344,"Ġà¦Ĩà¦¹à¦¤à¦¦":10345,"Ġà¦ķà¦²à¦¨à¦ľà¦²":10346,"Ġà¦¨à¦¬à¦¬à¦¸à¦¨":10347,"Ġà§§à§¯à§©à§«":10348,"Ġà§§à§¯à§©à§Ń":10349,"Ġà§§à§¯à§©à§®":10350,"Ġà§§à§¯à§©à§¯":10351,"Ġà¦¬à§İà¦¸à¦°à¦¬":10352,"Ġà§¯à§¨":10353,"Ġà§¯à§©":10354,"Ġà§¯à§ª":10355,"Ġà§¯à§Ń":10356,"ĠĠĠĠĠĠĠĠĠĠĠĠĠĠĠĠĠĠĠĠĠĠĠĠĠĠĠĠĠĠĠ":10357,"Ġà¦¨à¦¬à¦°à¦Ļ":10358,"Ġà¦¸à¦¹à¦ļà¦°à¦Ĺà¦£":10359,"Ġà¦Ŀà¦²à¦ķà¦¸à¦¬à¦ĩ":10360,"âĢĬ":10361,"à§Ĺà¦ģ":10362,"Ġà¦²à¦Ńà¦¤":10363,"Ġà§©à§¦à§ª":10364,"Ġà§©à§¦à§«à§¦":10365,"à¦ķà¦¶à¦ªà¦ĵ":10366,"Ġà§¨à§«à§¨":10367,"Ġà¦¨à¦ĸà¦¦à¦¨":10368,"Ġà¦Łà¦ķà¦Ŀ":10369,"Ġà§§à§¯à§¦à§¦":10370,"Ġà§§à§¯à§¦à§®":10371,"Ġà§§à§¯à§¦à§¯":10372,"Ġà¦Ķà¦·à¦§à¦ªà¦¥":10373,"Ġà¦Ĩà¦īà¦Łà¦ķ":10374,"à¦¹à¦ľà¦°à¦¤":10375,"à¦¨à¦ªà¦°à¦¶":10376,"à¦Ńà§İà¦¸à¦¤à¦°":10377,"Ġà¦Ĺà¦²à¦¦à¦ĺà¦°":10378,"Ġà§©à§¨à§§":10379,"à¦¶à¦®à¦¨à¦ķ":10380,"à¦¶à¦®à¦¨à¦¦":10381,"Ġà§¨à§¨à§©":10382,"Ġà§¨à§¨à§¬":10383,"Ġà§¨à§ªà§Ń":10384,"Ġà§¨à§ªà§§à§¦":10385,"Ġà¦¬à¦Ľà¦°à¦ľ":10386,"Ġà¦ĵà¦ľà¦¨à¦¹":10387,"Ġà¦ħà¦¸à¦¦à¦Ĺà¦¤":10388,"à¦Ĩà¦ĩà¦¨à¦¸":10389,"Ġà§«à§¦à§¬à§¦":10390,"à¦¨à¦ĩà¦¨à¦¸":10391,"à¦¨à¦ıà¦ķà¦¥":10392,"à¦Ĺà¦ľà¦¨à¦ķà¦Ń":10393,"Ġà¦¯à¦¤à¦¬à¦¡":10394,"ĠĠĠĠĠĠĠĠĠĠĠĠĠĠĠĠĠĠĠĠĠĠĠĠĠĠĠĠĠĠĠĠĠĠĠĠĠĠĠĠĠĠĠĠĠĠĠĠĠĠĠĠĠĠĠĠĠĠĠĠĠĠĠĠĠĠ":10395,"ĠĠĠĠĠĠĠĠĠĠĠĠĠĠĠĠĠĠĠĠĠĠĠĠĠĠĠĠĠĠĠĠĠĠĠĠĠĠĠĠĠĠĠĠĠĠĠĠĠĠĠĠĠĠĠĠĠĠĠĠĠĠĠĠĠĠĠĠĠĠĠĠĠĠĠĠ":10396,"ĠĠĠĠĠĠĠĠĠĠĠĠĠĠĠĠĠĠĠĠĠĠĠĠĠĠĠĠĠĠĠĠĠĠĠĠĠĠĠĠĠĠĠĠĠĠĠĠĠĠĠĠĠĠĠĠĠĠĠĠĠĠĠĠĠĠĠĠĠĠĠĠĠĠĠĠĠĠĠĠĠĠĠĠĠĠĠĠĠ":10397,"Ġà§§à§Ńà§«à§Ń":10398,"Ġà§§à§Ńà§ªà§ª":10399,"Ġà§§à§¯à§¯à§¯":10400,"Ġà¦Ĩà¦īà¦Łà¦¸":10401,"Ġà¦ĸà¦¨à¦¨à¦ķ":10402,"Ġà§§à§¦à§¦à§®à§§à§¦à§®":10403,"à¦¤à¦ĺà¦¡":10404,"à¦£à¦¬à¦¸à¦ľ":10405,"à§§à§§à§«":10406,"à§§à§§à§®":10407,"Ġà¦¬à¦¦à¦¨à¦®à¦£":10408,"čĊčĊĠ":10409,"Ġà¦¤à¦ªà¦¨à¦¸":10410,"Ġà¦Ĳà¦°à¦ķà¦®à¦ĩ":10411,"à¦¡à¦īà¦ĩà¦¥":10412,"à¦°à¦®à¦¥à¦Ĺà¦£":10413,"à¦¸à¦ıà¦Ļ":10414,"à¦¡à¦¬à¦¬à¦§":10415,"Ġà§Ńà§¦à§®à§¦":10416,"à¦¬à§İà¦¸à¦Ń":10417,"à¦ĩà¦®à¦¸à¦ı":10418,"à¦ķà¦¬à¦ļà¦¬à¦¨":10419,"Ġà¦ĵà¦ĩà¦°à¦ķà¦®à¦ĩ":10420,"Ġà§¨à§¬à§«":10421,"Ġà¦īà¦ĩà¦²à¦ķ":10422,"Ġà¦īà¦ĩà¦Łà¦¨":10423,"Ġà¦ľà¦²à¦ªà¦¥à¦Ł":10424,"Ġà§ªà§ªà§Ń":10425,"Ġà§ªà§ªà§¨à§©":10426,"Ġà§§à§§à§§à§®":10427,"à¦²à¦®à¦¤à¦ĩ":10428,"Ġà§©à§Ńà§«":10429,"à¦°à¦Ĺà¦²à¦Ńà¦¤":10430,"Ġà¦ıà¦Ĩà¦ĩà¦ļ":10431,"à¦īà¦²à¦¬à¦¯":10432,"Ġà¦Ĩà¦ĵà¦°à¦Ļ":10433,"Ġà¦ĩà¦¬à¦ĩà§Ł":10434,"à¦ĩà¦²à¦«à¦²à¦ķà¦Ĺ":10435,"à§©à§ªà§Ń":10436,"à§±à¦¨":10437,"à¦¬à¦ħà¦¸à¦¹":10438,"Ġà¦īà¦Ńà§Łà¦ķ":10439,"Ġà¦ıà¦ķà¦ıà¦ķà¦ĸ":10440,"Ġà¦Ĩà¦°à¦¬à¦ĩà¦¹":10441,"Ġà§©à§¦à§¦à§ªà§¦à§¦":10442,"Ġà§ªà§®à§¨à§ª":10443,"Ġà§¨à§¦à§§à§ªà§§à§«":10444,"à¦®à¦ħà¦¬à¦¤":10445,"Ġà¦ªà¦ļà¦¨à¦¶":10446,"à¦ĸà¦¬à¦¸à¦¤à¦¤":10447,"Ġà¦°à¦ĩà¦²à¦¨":10448,"Ġà¦°à¦ĩà¦²à¦¤":10449,"Ġà¦ıà¦ķà¦§à¦°à¦£":10450,"à§İà¦ļà¦®à¦ķ":10451,"Ġà¦¶à¦¤à¦¦à¦²à¦¬":10452,"Ġà§§à§¦à§§à§¨à§Ń":10453,"Ġà§§à§¦à§§à§¨à§¯":10454,"Ġà§§à§©à§¬à§©":10455,"à¦²à¦īà¦¦à¦¦":10456,"à¦·à¦°à¦¸à¦®à¦·":10457,"Ġà¦¶à¦ķà¦²à¦¦":10458,"Ġà¦ıà¦ĩà¦°à¦ķà¦®à¦ķ":10459,"à¦ªà¦¨à¦¸à¦°à¦¶":10460,"ĠĠĠĠĠĠĠĠĠĠĠĠĠĠĠĠĠĠĠĠĠĠĠĠĠĠĠĠĠĠĠĠĠĠĠĠĠĠĠĠĠĠĠĠĠĠĠĠĠĠĠĠĠĠĠĠĠĠĠĠĠĠ":10461,"à¦·à¦ªà¦£à¦ķ":10462,"Ġà¦®à¦Ŀà¦Ŀ":10463,"à¦ľà¦Ĩà¦ĸ":10464,"Ġà¦¤à¦Łà¦¬à¦°":10465,"Ġà§§à§ªà§¬à§¬":10466,"à¦¨à¦®à¦ķà¦¬à¦°":10467,"à¦²à¦Ĩà¦ľà¦Ĺ":10468,"à¦Łà¦łà¦²à¦¨":10469,"Ġà¦¯à¦ľà¦¨à¦ķà¦°":10470,"Ġà¦ļà¦®à¦ļà¦®":10471,"Ġà¦²à¦°à¦¨à¦¸":10472,"Ġà¦§à¦ªà¦§à¦ª":10473,"Ġà¦ħà¦¸à¦®à¦ķà¦ķ":10474,"Ġà¦łà¦®à¦ķà¦Ĺà¦®à¦ķ":10475,"Ġà¦¦à¦¶à§İà¦ı":10476,"Ġà¦¬à¦¦à¦¹à¦ľà¦®":10477,"Ġà§§à§®à§¯à§¯":10478,"Ġà§¯à§¯à§¯":10479,"Ġà¦¹à¦ľà¦¸à¦¨à¦ľà¦¬à¦¸à¦¨":10480,"Ġà¦ķà¦Ĩà¦°à¦¤":10481,"Ġà¦ķà¦¸à¦°à§İ":10482,"Ġà¦¤à¦ļà¦¨à¦ļ":10483,"Ġà¦¤à¦¦à¦Ĺà¦ļ":10484,"Ġà¦ľà¦ĵà¦¹à¦°à¦²":10485,"Ġà¦¥à¦ªà¦¥à¦ª":10486,"Ġà¦«à¦¸à¦«à¦¸":10487,"Ġà¦¡à¦Ĺà¦¡à¦Ĺ":10488,"Ġà¦ıà¦¨à¦ıà¦ĩà¦ļà¦ıà¦¸":10489,"Ġà§©à§¯à§¦à§«":10490,"Ġà§§à§¯à§ªà§§à§ªà§¨":10491,"Ġà§§à§¯à§¬à§¨à§¬à§©":10492}