{"[PAD]":0,"[UNK]":1,"[CLS]":2,"[SEP]":3,"!":4,"\"":5,"#":6,"$":7,"%":8,"&":9,"'":10,"(":11,")":12,"*":13,"+":14,",":15,"-":16,".":17,"/":18,"0":19,"1":20,"2":21,"3":22,"4":23,"5":24,"6":25,"7":26,"8":27,"9":28,":":29,";":30,"<":31,"=":32,">":33,"?":34,"@":35,"A":36,"B":37,"C":38,"D":39,"E":40,"F":41,"G":42,"H":43,"I":44,"J":45,"K":46,"L":47,"M":48,"N":49,"O":50,"P":51,"Q":52,"R":53,"S":54,"T":55,"U":56,"V":57,"W":58,"X":59,"Y":60,"Z":61,"[":62,"\\":63,"]":64,"^":65,"_":66,"`":67,"a":68,"b":69,"c":70,"d":71,"e":72,"f":73,"g":74,"h":75,"i":76,"j":77,"k":78,"l":79,"m":80,"n":81,"o":82,"p":83,"q":84,"r":85,"s":86,"t":87,"u":88,"v":89,"w":90,"x":91,"y":92,"z":93,"{":94,"|":95,"}":96,"~":97,"¡":98,"¢":99,"£":100,"¤":101,"¥":102,"¦":103,"§":104,"¨":105,"©":106,"ª":107,"«":108,"¬":109,"®":110,"¯":111,"°":112,"±":113,"²":114,"³":115,"´":116,"µ":117,"¶":118,"·":119,"¸":120,"¹":121,"º":122,"»":123,"¼":124,"½":125,"¾":126,"¿":127,"À":128,"Á":129,"Â":130,"Ã":131,"Ä":132,"Å":133,"Æ":134,"Ç":135,"È":136,"É":137,"Ê":138,"Ë":139,"Ì":140,"Í":141,"Î":142,"Ï":143,"Ð":144,"Ñ":145,"Ò":146,"Ó":147,"Ô":148,"Õ":149,"Ö":150,"×":151,"Ø":152,"Ù":153,"Ú":154,"Û":155,"Ü":156,"Ý":157,"Þ":158,"ß":159,"à":160,"á":161,"â":162,"ã":163,"ä":164,"å":165,"æ":166,"ç":167,"è":168,"é":169,"ê":170,"ë":171,"ì":172,"í":173,"î":174,"ï":175,"ð":176,"ñ":177,"ò":178,"ó":179,"ô":180,"õ":181,"ö":182,"÷":183,"ø":184,"ù":185,"ú":186,"û":187,"ü":188,"ý":189,"þ":190,"ÿ":191,"Ā":192,"ā":193,"Ă":194,"ă":195,"Ą":196,"ą":197,"Ć":198,"ć":199,"Ĉ":200,"ĉ":201,"Ċ":202,"ċ":203,"Č":204,"č":205,"Ď":206,"ď":207,"Đ":208,"đ":209,"Ē":210,"ē":211,"Ĕ":212,"ĕ":213,"Ė":214,"ė":215,"Ę":216,"ę":217,"Ě":218,"ě":219,"Ĝ":220,"ĝ":221,"Ğ":222,"ğ":223,"Ġ":224,"ġ":225,"Ģ":226,"ģ":227,"Ĥ":228,"ĥ":229,"Ħ":230,"ħ":231,"Ĩ":232,"ĩ":233,"Ī":234,"ī":235,"Ĭ":236,"ĭ":237,"Į":238,"į":239,"İ":240,"ı":241,"Ĳ":242,"ĳ":243,"Ĵ":244,"ĵ":245,"Ķ":246,"ķ":247,"ĸ":248,"Ĺ":249,"ĺ":250,"Ļ":251,"ļ":252,"Ľ":253,"ľ":254,"Ŀ":255,"ŀ":256,"Ł":257,"ł":258,"Ń":259,"à¦":260,"à§":261,"Ġà¦":262,"à¦¾":263,"à§ĩ":264,"à¦°":265,"à§į":266,"à¦¿":267,"à¦¨":268,"à¦¤":269,"à¦²":270,"à§ģ":271,"à¦¬":272,"à¦¯":273,"à¦ķ":274,"à¦¼":275,"à¦®":276,"à§ĭ":277,"Ġč":278,"ĠĠč":279,"à¦¸":280,"à¦¦":281,"Ġà¦¸":282,"Ġà¦¬":283,"à§Ģ":284,"Ġà¦Ĩ":285,"à¦ª":286,"Ġà¦ª":287,"Ġà¦ķ":288,"Ġà¦®":289,"Ġà¦¨":290,"à¦¶":291,"Ġà¦ħ":292,"à¦ľ":293,"à§Ł":294,"à¦ģ":295,"à¦¹":296,"à¦§":297,"Ġà¦¹":298,"Ġà¦¦":299,"à¦ĸ":300,"à¦Ĺ":301,"à¦Ł":302,"à¦¼à§ĩ":303,"à¦·":304,"Ġà¦¤":305,"à¦£":306,"à¦Ľ":307,"Ġà¦Ĺ":308,"à§ĥ":309,"Ġà¦Ń":310,"à¦ļ":311,"à¦¥":312,"Ġà¦ľ":313,"Ġà¦¯":314,"à¦ĩ":315,"à¦¡":316,"Ġà¦¶":317,"Âł":318,"Ġà¦ļ":319,"Ġà¦°":320,"à¦Ń":321,"Ġà¦Ľ":322,"à¦¼à¦¾":323,"à§Ĥ":324,"ÂłÂł":325,"à¦Ļ":326,"à¦¾à¦ģ":327,"à¦ł":328,"Ġà¦ı":329,"à¦°à¦¤":330,"Ċč":331,"Ġà¦«":332,"ĠĠčĊč":333,"Ġà¦ķà¦°":334,"Ġà¦ī":335,"à¦¬à¦¨":336,"à¦ĵ":337,"Ġà¦ħà¦¨":338,"Ġà¦²":339,"à¦Ĩ":340,"Ġà¦ĸ":341,"à§ľ":342,"Ġà¦Ĩà¦²":343,"Ġà¦§":344,"à¦¬à¦ª":345,"Ġà¦ĵ":346,"à¦°à¦¬":347,"Ġà¦Ĩà¦®":348,"à¦ħ":349,"Ġà¦ħà¦®":350,"Ġà¦¥":351,"Ġà¦ıà¦ķ":352,"ÂłÂłÂłÂł":353,"à¦ĺ":354,"à¦¤à¦°":355,"Ġà¦®à¦¨":356,"Ġà¦ĵà¦ł":357,"à¦¦à¦¯":358,"à¦Ŀ":359,"à¦¬à¦²":360,"à§ģà¦ģ":361,"à¦ı":362,"à¦Ĥ":363,"à¦°à¦£":364,"à§ĭà¦ģ":365,"à¦ĥ":366,"à¦ī":367,"Ġà¦ªà¦¥":368,"Ġà¦¹à¦¯":369,"Ġà¦ĺ":370,"à¦¼à¦¿":371,"à¦ªà¦¨":372,"Ġà¦Ĩà¦¸":373,"à¦¬à¦°":374,"à¦¦à¦¨":375,"à¦ŀ":376,"à¦ªà¦°":377,"Ġà¦Ĩà¦¶":378,"à¦®à¦¨":379,"Ġà¦Ŀ":380,"Ġà¦Ĩà¦°":381,"Ġà¦¡":382,"à¦«":383,"Ġà¦¨à¦¤":384,"à¦¤à¦¨":385,"Ġà¦Ĩà¦ķ":386,"Ġà¦ªà¦°":387,"Ġà¦¸à¦®":388,"à¦ľà¦¨":389,"à¦¨à¦¬":390,"à¦ĸà¦¨":391,"Ġà¦¸à¦¬":392,"Ġà¦¢":393,"à¦¤à¦¬":394,"Ġà¦ħà¦®à¦²":395,"Ġà¦Ĩà¦Ľ":396,"Ġà¦ħà¦¬":397,"Ġà¦¬à¦¨":398,"à¦Ĩà¦®":399,"Ġà¦¬à¦²":400,"Ġà¦ļà¦²":401,"Ġà¦ħà¦¦":402,"à§İ":403,"Ġà¦¹à§Ł":404,"à¦°à¦ķ":405,"à¦¨à¦¤":406,"à¦¿à¦ĥ":407,"à¦§à¦ķ":408,"à§Į":409,"Ġà¦®à¦¤":410,"Ġà¦īà¦ł":411,"à¦°à¦¨":412,"à¦ļà¦²":413,"à¦¦à§Ł":414,"Ġà¦ªà¦¡":415,"à§ĩà¦ģ":416,"Ġà¦Ńà¦°":417,"à¦°à¦®":418,"à¦·à¦£":419,"à¦ķà¦²":420,"Ġà¦§à¦°":421,"à¦®à¦²":422,"Ġà¦Ĩà¦ľ":423,"à§Ī":424,"à¦ĵà¦¯":425,"à¦ªà¦¥":426,"à¦Ĺà¦¨":427,"Ġà¦Ĺà¦¡":428,"Ġà¦Ĩà¦¨":429,"Ġà¦¤à¦¬":430,"à¦¸à¦¨":431,"à¦ħà¦¨":432,"Ġà¦ľà¦²":433,"à¦¹à¦¸":434,"à¦§à¦¨":435,"à¦¹à¦°":436,"ÂłÂłÂłÂłÂłÂłÂłÂł":437,"Ġà¦ħà¦ļ":438,"à¦®à¦¯":439,"Ġà¦Ĺà¦²":440,"Ġà¦ķà¦¥":441,"Ġà¦®à¦§":442,"à¦ıà¦ķ":443,"Ġà¦¤à¦°":444,"Ġà¦°à¦Ļ":445,"Ġà¦Ĩà¦¬":446,"à¦¶à¦¬":447,"Ġà¦ĩ":448,"à¦¯à¦¤":449,"Ġà¦¸à¦¤":450,"à¦²à¦ķ":451,"Ġà¦ħà¦¸":452,"à¦¸à¦¬":453,"Ġà¦ıà¦ĩ":454,"Ġà¦Ł":455,"à¦°à¦¬à¦¤":456,"Ġà¦ľà¦¨":457,"à¦¤à¦²":458,"Ġà¦ħà¦ľ":459,"Ġà¦¨à¦¯":460,"Ġà¦¨à¦¦":461,"Ġà¦ħà¦¨à¦¨":462,"Ġà¦ħà¦ķ":463,"Ġà¦ķà¦£":464,"Ġà¦ħà¦¶":465,"à¦ķà¦°":466,"à¦²à¦¨":467,"Ġà¦Ľà¦¡":468,"à¦²à¦¬":469,"Ġà¦ķà¦¬":470,"à§ģà¦ĥ":471,"Ġà¦ľà¦®":472,"Ġà¦°à¦ķ":473,"Ġà¦ħà¦Ĺ":474,"à¦¦à¦°":475,"Ġà¦¶à¦¬":476,"à¦¨à¦¬à¦¤":477,"Ġà¦Ŀà¦°":478,"Ġà¦¬à¦¯":479,"Ġà¦ķà¦²":480,"Ġà¦¹à¦¤":481,"Ġà¦¨à¦¬":482,"à¦¸à¦®":483,"Ġà¦¸à¦Ļ":484,"Ġà¦¸à¦¨":485,"Ġà¦īà¦¦":486,"à¦ľà¦²":487,"Ġà¦¬à¦¸":488,"Ġà¦¹à¦¬":489,"à¦°à¦Ń":490,"Ġà¦ł":491,"à¦°à¦¦":492,"à¦ĵà§Ł":493,"Ġà¦Ĩà¦Ĺ":494,"à¦¸à¦°":495,"à¦¯à¦¥":496,"à¦ķà¦¤":497,"Ġà¦¹à¦²":498,"Ġà¦īà¦ľ":499,"Ġà¦ªà§ľ":500,"Ġà¦Ĺà¦¨":501,"Ġà¦®à¦°":502,"à¦Ĺà¦°":503,"Ġà¦īà¦¡":504,"à¦¨à¦¦":505,"Ġà¦®à¦¹":506,"à¦°à¦¥":507,"Ġà¦ħà¦¦à¦®":508,"Ġà¦ħà¦Ń":509,"Ġà¦ıà¦¸":510,"à¦°à¦¸":511,"Ġà¦Ľà¦¨":512,"à¦Łà¦²":513,"Ġà¦Ĩà¦®à¦°":514,"à¦°à¦¹":515,"à¦ıà¦ĩ":516,"Ġà¦ªà¦¦":517,"à¦Ĩà¦ľ":518,"à¦Ĩà¦²":519,"à¦°à¦¶":520,"Ġà¦Ľà¦¬":521,"Ġà¦ħà¦ª":522,"à¦Ĺà¦¤":523,"Ġà¦Ĺà¦Ń":524,"à¦ļà¦¨":525,"à¦®à¦¤":526,"à¦²à¦¤":527,"Ġà¦¬à¦¹":528,"à¦¸à¦¤":529,"à¦®à¦°":530,"Ġà¦¬à¦°":531,"à¦°à¦ľ":532,"à¦¢":533,"à¦¬à¦¤":534,"à¦·à¦°":535,"à¦¿à¦ģ":536,"Ġà¦ĺà¦°":537,"à¦°à¦¥à¦®":538,"à¦·à¦¤":539,"Ġà¦¯à¦¦":540,"Ġà¦ĩà¦¤":541,"à¦¨à¦¨":542,"Ġà¦¯à¦¤":543,"à¦¬à¦¸":544,"Ġà¦¶à¦ķ":545,"čĊč":546,"Ġà¦¯à¦ĸà¦¨":547,"Ġà¦ħà¦¤":548,"à¦Ĩà¦ķ":549,"Ġà¦ħà¦Łà¦²":550,"à¦°à¦¹à¦°":551,"Ġà¦ķà¦¤":552,"à¦¾à¦Ĥ":553,"Ġà¦¸à¦°":554,"Ġà¦ħà¦Ļ":555,"à¦Ĺà¦²":556,"Ġà¦Ĩà¦¨à¦¨":557,"Ġà¦¸à¦®à¦¯":558,"à¦°à¦¯":559,"Ġà¦Ĩà¦¤":560,"Ġà¦īà¦ļ":561,"ĠĠčĊ":562,"Ġà¦ķà¦ĸà¦¨":563,"Ġà¦ħà¦²":564,"Ġà¦¨à§Ł":565,"Ġà¦ħà¦ªà¦°":566,"à¦¦à¦²":567,"à¦Ľà¦¨":568,"à¦ķà¦¬":569,"à¦£à¦¤":570,"Ġà¦ħà¦§":571,"Ġà¦Ĺà¦°":572,"Ġà¦īà§İ":573,"Ġà¦ıà¦ķà¦Ł":574,"Ġà¦¸à¦ķ":575,"à¦Ŀà¦°":576,"à¦ĩà¦¤":577,"Ġà¦¤à¦²":578,"à¦¸à¦Ļ":579,"Ġà¦Ĺà¦¹":580,"à¦®à§Ł":581,"Ġà¦Ĺà§ľ":582,"à¦¤à¦¹":583,"à¦ĸà¦°":584,"Ġà¦īà¦¤":585,"à¦°à¦ĩ":586,"Ġà¦Ĩà¦¹":587,"à¦¬à¦¦":588,"Ġà¦ıà¦²":589,"à¦¥à¦°":590,"Ġà¦īà¦¨":591,"à¦ľà¦¯":592,"à¦§à¦¤":593,"Ġà¦ªà¦¤":594,"à¦ķà¦¨":595,"Ġà¦¶à¦¤":596,"à¦°à¦²":597,"à¦®à¦ķ":598,"à¦ªà¦¤":599,"à¦¼à§ģ":600,"à¦Ńà¦°":601,"Ġà¦¤à¦°à¦Ļ":602,"à¦ĩà¦¯":603,"Ġà¦Ĩà¦Ļ":604,"Ġà¦Ĩà¦ªà¦¨":605,"à¦¿à¦Ĥ":606,"Ġà¦ħà¦°":607,"à¦ħà¦¬":608,"Ġà¦Ĩà¦¡":609,"à¦ĩà¦²":610,"à¦Ńà¦¬":611,"à¦Ĩà¦°":612,"à¦¹à¦¨":613,"à¦¯à¦ķ":614,"Ġà¦¸à¦ķà¦²":615,"Ġà¦Ĳ":616,"à¦¼à§ĭ":617,"à¦ķà¦Ł":618,"Ġà¦¬à§Ł":619,"à¦īà¦¯":620,"Ġà¦īà¦·":621,"Ġà¦¸à¦¹":622,"à¦¹à¦²":623,"à¦¨à¦ķ":624,"à¦ľà¦°":625,"à¦¯à¦¯":626,"Ġà¦ķà¦¹":627,"à¦§à¦°":628,"ÂłÂłÂł":629,"Ġà¦¸à¦ŀ":630,"à¦ªà¦¦":631,"à¦¨à¦°":632,"à¦ĸà¦²":633,"Ġà¦Ńà¦¯":634,"Ġà¦¨à¦°à¦®":635,"Ġà¦Ĩà¦Ń":636,"à¦ĩà¦¬":637,"à¦ķà¦¡":638,"à¦¨à¦Ĺ":639,"à¦¶à¦ª":640,"à§§":641,"à¦ªà¦ķ":642,"à¦ħà¦ļ":643,"Ġà¦ªà¦°à¦¶":644,"à¦¼à§Ģ":645,"Ġà¦°à¦¬":646,"à¦¤à¦ķ":647,"à¦¤à¦®":648,"Ġà¦Ľà§ľ":649,"à¦ĺà¦°":650,"à¦¦à¦®":651,"à¦ļà¦°":652,"à¦¸à¦ķ":653,"Ġà¦ªà¦²":654,"Ġà¦īà§ľ":655,"à¦Łà¦ķ":656,"à¦Ĩà¦®à¦°":657,"à¦·à¦¯":658,"à¦ıà¦ķà¦Ł":659,"Ġà¦¨à¦ķ":660,"à¦ħà¦¸":661,"à¦Ľà¦¬":662,"à¦ķà¦£":663,"à¦ªà¦Ł":664,"à¦ĩà¦¨":665,"Ġà¦¦à¦²":666,"à¦®à¦°à¦£":667,"Ġà¦īà¦ª":668,"Ġà¦ħà¦¤à¦²":669,"Ġà¦¦à¦°à¦ľ":670,"Ġà¦ħà¦ľà¦¸":671,"Ġà¦īà§İà¦¸à¦¬":672,"à¦ļà¦ķ":673,"Ġà¦ħà¦®à¦°":674,"à¦Ńà¦¯":675,"à¦®à¦§":676,"Ġà¦¬à¦¸à¦¨":677,"Ġà¦¸à¦®à¦¸":678,"Ġà¦¶à¦¹à¦°":679,"Ġà¦ľà§Ł":680,"Ġà¦¸à¦¤à¦¤":681,"Ġà¦Ńà¦¬":682,"ÂłÂłÂłÂłÂłÂłÂłÂłÂłÂłÂłÂł":683,"à¦°à¦ª":684,"à¦¹à¦¤":685,"à¦ķà¦ĸà¦¨":686,"Ġà¦®à¦²":687,"à¦¸à¦®à¦¯":688,"à¦Ĩà¦¬":689,"à¦ħà¦¶":690,"Ġà¦®à¦¤à¦¨":691,"Ġà¦ĺà¦¨":692,"à¦¸à¦²":693,"Ġà¦ľà¦¯":694,"Ġà¦ľà¦¡":695,"à¦¨à¦Ń":696,"à¦®à¦¹":697,"Ġà¦¸à¦®à§Ł":698,"Ġà¦ĩà¦ļ":699,"à¦¬à¦ķ":700,"Ġà¦¹à¦°":701,"Ġà¦Ĩà¦¯":702,"à¦ªà¦²":703,"à¦¶à¦¨":704,"Ġà¦Ńà§Ł":705,"à¦ľà§Ł":706,"Ġà¦ªà¦²à¦ķ":707,"Ġà¦¶à¦ªà¦¥":708,"à¦¬à¦ļ":709,"à§İà¦ķ":710,"à¦¬à¦¹":711,"à¦®à¦¬":712,"à¦¯à¦°":713,"Ġà¦ĵà¦°":714,"Ġà¦ļà¦°à¦£":715,"à¦ļà¦¯":716,"à¦ĵà¦°":717,"à¦ªà¦¸":718,"à§§à§":719,"Ġà¦īà¦²":720,"à¦«à¦²":721,"Ġà¦Ĺà¦¤":722,"à¦Ĩà¦¶":723,"Ġà¦¤à¦ĸà¦¨":724,"Ġà¦¶à¦°":725,"à¦°à¦Ļ":726,"Ġà¦ħà¦°à¦£":727,"à¦ħà¦ľ":728,"Ġà¦Ŀà¦²":729,"Ġà¦°à¦ļ":730,"à¦®à¦£":731,"à§İà¦¸":732,"à¦Ĩà¦ªà¦¨":733,"à¦ĩà§Ł":734,"à¦¯à¦¸":735,"à¦·à¦®":736,"à¦¨à¦¶":737,"à¦¸à¦ķà¦²":738,"à¦¨à¦¸":739,"Ġà¦®à¦®à¦¤":740,"Ġà¦²à¦¯":741,"à¦¨à¦ª":742,"Ġà¦¬à¦ķ":743,"à¦¸à¦¤à¦¤":744,"à¦¯à¦®":745,"à¦ªà¦¡":746,"à¦Ľà¦²":747,"à¦¸à¦«":748,"à¦Ĺà¦°à¦£":749,"à¦¥à¦²":750,"à¦¶à¦ķ":751,"à¦¤à¦ĸà¦¨":752,"Ġà¦°à¦¹à¦¸":753,"à¦īà¦¦":754,"Ġà¦ĭ":755,"Ġà¦¯à¦¨":756,"Ġà¦§à¦¨":757,"à¦¯à¦¦":758,"à¦·à¦ķ":759,"à¦¤à¦¤":760,"à¦¬à¦²à¦¨":761,"à¦¯à¦¨":762,"Ġà¦ĵà¦ĩ":763,"Ġà¦ıà¦¤":764,"Ġà¦ķà¦°à¦¬":765,"Ġà¦ķà¦ł":766,"à§Łà¦¨":767,"Ġà¦°à¦¹":768,"Ġà¦°à¦¯":769,"Ġà¦ıà¦ĸà¦¨":770,"ÂłÂłÂłÂłÂłÂłÂłÂłÂłÂłÂłÂłÂłÂłÂłÂł":771,"Ġà¦®à¦£":772,"à¦īà§Ł":773,"Ġà¦ķà¦·":774,"à¦°à¦ļ":775,"à¦¬à¦ªà¦¨":776,"à§Ŀ":777,"Ġà¦Ĩà¦ĺ":778,"Ġà¦ıà¦¬":779,"à¦ħà¦Ĺ":780,"à¦ªà¦£":781,"à¦ĺà¦¨":782,"à¦ħà¦¦":783,"à¦²à¦®":784,"à¦¥à¦¨":785,"à¦ıà¦ĸà¦¨":786,"Ġà¦ļà¦ķ":787,"à¦ĸà¦¬":788,"à¦łà¦¸":789,"Ġà¦ªà¦¦à¦ķ":790,"à¦¬à¦²à¦¤":791,"à¦īà¦²":792,"ĠÂł":793,"à¦¹à¦°à¦£":794,"Ġà¦²à¦ķ":795,"à§Łà¦¤":796,"Ġà¦ķà¦¨":797,"à¦¨à¦²":798,"à¦°à¦ªà¦°":799,"à¦®à¦¶":800,"à¦ĸà¦¤":801,"à¦¨à¦¬à¦ľ":802,"à§¨":803,"à¦Ĺà¦®":804,"Ġà¦¯à¦¬":805,"à¦Ĩà¦¸":806,"à¦ĩà¦ķ":807,"Ġà¦°à¦ļà¦¨":808,"Ġà¦¸à¦ľ":809,"Ġà¦ªà¦¦à¦ļ":810,"à¦¤à¦¸":811,"Ġà¦Ŀà¦²à¦®à¦²":812,"à¦¦à¦¹":813,"Ġà¦¬à¦¦à¦²":814,"à¦§à¦¬":815,"à¦·à§Ł":816,"à¦Ĺà¦£":817,"Ġà¦ıà¦®à¦¨":818,"à¦¸à¦¹":819,"Ġà¦Ĩà¦¦à¦°":820,"Ġà¦ħà¦Ł":821,"à¦¬à¦£":822,"à¦ļà¦¡":823,"à¦²à¦¸":824,"à¦¯à¦ĸà¦¨":825,"à¦Ľà¦°":826,"Ġà¦Ŀà¦¡":827,"à¦ķà¦¹":828,"à¦ıà¦¸":829,"à¦Ĺà¦¬":830,"à¦¬à¦²à¦ľ":831,"Ġà¦®à¦ŀ":832,"Ġà¦Ĩà¦ľà¦ĵ":833,"à¦¸à¦®à§Ł":834,"à¦ħà¦®":835,"à¦°à¦ľà¦¨":836,"à¦¯à¦¬":837,"Ġà¦Ĩà¦¦":838,"Ġà¦ªà¦¶":839,"Ġà¦ķà¦®":840,"à¦¶à¦¤":841,"Ġà¦°à§Ł":842,"à¦ķà¦¥":843,"Ġà¦ķà¦°à¦¤":844,"à¦ħà¦¤":845,"Ġà¦®à¦¨à¦¨":846,"à¦īà¦ł":847,"à¦®à¦¸":848,"Ġà¦ıà¦Ĺ":849,"à¦¨à¦ļ":850,"à¦Ĺà¦Ń":851,"Ġà¦¯à¦¥":852,"Ġà¦īà¦ªà¦°":853,"Ġà¦«à¦²":854,"à¦¤à¦ª":855,"Ġà¦¸à¦ĸ":856,"Ġà¦²à¦¡":857,"à¦¶à¦°":858,"Ġà¦Ľà¦²":859,"Ġà¦ıà¦ķà¦¦":860,"Ġà¦ľà¦Ĺà¦¤":861,"à¦¬à¦¯":862,"à¦¤à¦°à¦Ļ":863,"à¦ķà§ľ":864,"à¦ķà¦¶":865,"à§©":866,"Ġà¦²à§Ł":867,"à¦¨à¦¯":868,"à¦īà¦¡":869,"à¦°à¦Ĺ":870,"à¦²à¦¯":871,"à¦ľà¦¸":872,"à¦°à¦®à¦£":873,"à¦ªà¦®":874,"Ġà¦Ĺà¦Ĺà¦¨":875,"à¦ªà¦¶":876,"Ġà¦¸à¦¦":877,"à¦¥à¦¬":878,"Ġà¦ıà¦ķà¦¤":879,"Ġà¦Ĩà§ľ":880,"à¦Łà¦¬":881,"à¦Ńà§Ł":882,"à¦¬à¦²à¦Ľ":883,"à¦ªà¦ķà¦¥":884,"Ġà¦ķà¦Ń":885,"à¦Łà¦¤":886,"Ġà¦ıà¦¨":887,"Ġà¦ħà¦¬à¦¸":888,"Ġà¦ħà¦¹":889,"à¦ıà¦®à¦¨":890,"Ġà¦¦à¦°":891,"à¦Ĺà§İ":892,"à¦Ĩà¦Ĺ":893,"Ġà¦®à¦°à¦£":894,"à¦Ĳ":895,"à¦²à¦ª":896,"à¦Łà¦¨":897,"à¦¦à¦Ĺ":898,"Ġà¦Ĳà¦ķ":899,"à¦¶à¦¹":900,"à¦ĵà¦ĩ":901,"Ġà¦¶à¦¹":902,"à¦°à¦¬à¦²":903,"Ġà¦Ĭ":904,"Ġà¦²à¦¹à¦°":905,"à¦ħà¦¨à¦¨":906,"Ġà¦¸à§İ":907,"à¦°à¦ĵ":908,"Ġà¦¨à¦¹":909,"à¦®à¦®":910,"à¦ĩà¦Ł":911,"à¦ıà¦¤":912,"à¦²à¦Ĺ":913,"Ġà¦¦à¦®":914,"à¦ħà¦Ń":915,"à¦ĺà¦²":916,"Ġà¦īà§İà¦¸":917,"à¦ªà§ľ":918,"Ġà¦ļà¦°":919,"Ġà¦ļà¦ŀ":920,"à¦¨à¦¹":921,"à¦¬à¦¸à¦¨":922,"à¦ľà¦¬":923,"à¦Ĺà¦ľ":924,"Ġà¦ķà¦²à¦°à¦¬":925,"à¦°à§Ł":926,"Ġà¦Ĩà¦§":927,"Ġà¦ªà¦Ł":928,"à¦¦à¦¸":929,"à¦¶à¦®":930,"à¦Ĩà¦¨":931,"à¦¬à¦ľ":932,"à¦ĵà¦Ĺ":933,"à¦ħà¦ķ":934,"Ġà¦¢à¦²":935,"Ġà¦¥à¦®à¦ķ":936,"à¦¶à¦¹à¦°":937,"à¦Ĩà¦¨à¦¨":938,"Ġà¦ªà¦°à¦®":939,"Ġà¦¬à¦Ľà¦°":940,"Ġà¦°à¦¸":941,"à¦ĩà¦Ľ":942,"à¦ħà¦°":943,"Ġà¦ªà¦¥à¦ļà¦²":944,"Ġà¦ħà¦¬à¦¶":945,"à¦īà¦¤":946,"à¦®à¦Ĺ":947,"Ġà¦ķà¦®à¦²":948,"à¦¹à¦¯":949,"à¦ļà§ľ":950,"à¦ĩà¦°":951,"à§ĩà¦¾":952,"Ġà¦¬à¦ªà¦¨":953,"Ġà¦Ĺà¦£":954,"Ġà¦¸à¦¹à¦ľ":955,"à¦¤à¦Ľ":956,"à¦ķà¦®":957,"Ġà¦¬à¦¡":958,"Ġà¦°à¦£":959,"à¦ıà¦ķà¦¦":960,"à§ª":961,"Ġà¦¶à¦Ļ":962,"à¦¯à¦¹":963,"Ġà¦ľà¦²à¦°":964,"à¦²à¦Ń":965,"Ġà¦ħà¦ļà¦²":966,"Ġà¦īà¦¦à¦¯":967,"à¦¬à¦°à¦²":968,"Ġà¦Ĩà¦Łà¦ķ":969,"à¦ļà¦°à¦£":970,"à¦Ĩà¦¤":971,"à¦ħà¦ª":972,"à§Īà¦ĥ":973,"Ġà¦¨à¦¬à¦ľ":974,"Ġà¦«à¦¸à¦²":975,"Ġà¦ªà¦¬":976,"à¦ªà¦ļ":977,"Ġà¦ľà§ľ":978,"Ġà¦ĺà¦Ł":979,"ÂłÂłÂłÂłÂłÂłÂłÂłÂł":980,"Ġà¦ĸà¦¸":981,"à¦°à¦£à¦¨":982,"Ġà¦Ŀà¦°à¦¨":983,"à¦¦à¦¬":984,"Ġà¦¹à¦ł":985,"à¦ľà¦¨à¦¤":986,"à¦¦à¦¦":987,"à¦ªà¦·":988,"à¦ħà¦®à¦²":989,"à¦ľà¦¤":990,"Ġà¦¸à¦°à¦²":991,"à¦¸à¦¹à¦¸":992,"Ġà¦¬à§ľ":993,"Ġà¦ıà¦°":994,"à¦īà¦¨":995,"Ġà¦Ŀà¦²à¦ķ":996,"Ġà¦ħà¦¸à¦®":997,"Ġà¦¸à¦Ń":998,"Ġà¦°à¦¶":999,"à¦ıà¦°":1000,"à¦¨à¦®":1001,"à¦®à¦¦":1002,"Ġà¦ļà¦¨":1003,"Ġà¦§à¦°à¦£":1004,"Ġà¦Ī":1005,"Ġà¦ķà¦ª":1006,"à¦ľà¦®":1007,"Ġà¦Ĩà§Ł":1008,"Ġà¦®à¦®":1009,"à¦Ľà¦¤":1010,"Ġà¦īà¦łà¦¬":1011,"Ġà¦ķà¦²à¦®":1012,"à¦Ĩà¦ľà¦ķ":1013,"à¦ķà¦ļ":1014,"Ġà¦¶à¦¸":1015,"Ġà¦Ĩà¦¸à¦¬":1016,"Ġà¦ľà¦¨à¦¨":1017,"à¦°à¦¤à¦°":1018,"à¦ĸà¦¦":1019,"Ġà¦¤à¦¨":1020,"à¦Ĩà¦Ļ":1021,"Ġà¦¸à¦®à¦¤":1022,"à¦¨à¦Ł":1023,"à¦¬à¦°à¦¤":1024,"Ġà¦¸à¦¹à¦¸":1025,"Ġà¦ıà¦ķà¦¸":1026,"Ġà¦¯à¦¤à¦ĩ":1027,"Ġà¦ĭà¦¤":1028,"Ġà§§à§":1029,"à§·":1030,"à¦¥à¦¤":1031,"Ġà¦ľà¦Ĺà§İ":1032,"à¦¨à¦ĵ":1033,"Ġà¦²à¦¤":1034,"Ġà¦ħà¦¨à¦¬à¦¦":1035,"à¦°à¦Ĺà¦¤":1036,"à¦¯à§Ł":1037,"à¦ķà¦·":1038,"à¦£à¦¦":1039,"ÂłÂłÂłÂłÂłÂłÂł":1040,"à¦Ŀà¦¡":1041,"à¦°à¦°":1042,"Ġà¦¤à¦¤":1043,"Ġà¦ľà¦¨à¦®":1044,"à¦¹à¦ł":1045,"Ġà¦ĵà¦¡":1046,"à¦Ŀà¦ĸ":1047,"à¦ıà¦ĸ":1048,"Ġà¦Ĩà¦¸à¦¨":1049,"Ġà¦Ńà¦°à¦¸":1050,"ĠÂłĠÂł":1051,"à¦¬à¦¬":1052,"à¦Ľà¦Ł":1053,"Ġà¦¨à§Łà¦¨":1054,"à¦¹à§Łà¦¤":1055,"Ġà¦¦à¦Ĺ":1056,"Ġà¦Ĺà¦®":1057,"à¦¡à¦²":1058,"Ġà¦°à¦¥":1059,"ÂłÂłÂłÂłÂł":1060,"à¦ħà¦ªà¦°":1061,"Ġà¦Ŀà§ľ":1062,"à§Įà¦ģ":1063,"à¦²à¦¬à¦¨":1064,"Ġà¦ħà¦¬à¦²":1065,"Ġà¦ĩà¦¨":1066,"Ġà¦®à¦¸":1067,"à¦·à¦¨":1068,"à¦°à¦¤à¦®":1069,"ÂłÂłÂłÂłÂłÂł":1070,"à¦¬à¦¶":1071,"Ġà¦¨à¦Ĺà¦°":1072,"à¦¶à¦¯":1073,"à¦ĸà¦£":1074,"Ġà¦¬à¦²à¦²":1075,"Ġà¦ħà¦Ĺà¦£":1076,"à§«":1077,"à¦ļà§Ł":1078,"Ġà¦ķà¦°à¦²":1079,"à¦°à¦£à¦¯":1080,"à¦²à¦ľ":1081,"à¦¬à¦Ł":1082,"Ġà¦²à¦ľ":1083,"Ġà¦ļà¦¡":1084,"Ġà¦ªà¦¥à¦ļ":1085,"Ġà¦ĵà¦Ĺ":1086,"à¦īà¦ļ":1087,"Ġà¦īà¦łà¦²":1088,"à¦®à¦ª":1089,"à¦®à¦ľ":1090,"à¦ľà¦Ĺà¦¤":1091,"à¦°à¦²à¦¯":1092,"à¦¤à¦§":1093,"à¦¬à¦§":1094,"Ġà¦¦à¦¹à¦¨":1095,"à¦ĺà¦¶":1096,"à¦²à¦²":1097,"à¦®à¦²à¦¤":1098,"Ġà¦Ĭà¦°":1099,"Ġà¦ľà¦¨à¦¤":1100,"à¦ķà¦ª":1101,"Ġà¦¹à¦ĩ":1102,"Ġà¦¤à¦¥":1103,"Ġà¦ıà¦ĸ":1104,"à¦¤à¦°à¦£":1105,"Ġà¦¬à¦ľ":1106,"Ġà¦ıà¦ķà¦¬":1107,"à¦®à¦Ł":1108,"à¦¥à¦ļ":1109,"Ġà¦ķà¦°à¦Ľ":1110,"ÂłÂłÂłÂłÂłÂłÂłÂłÂłÂłÂłÂłÂłÂłÂł":1111,"à¦ħà¦ľà¦¸":1112,"à§¬":1113,"à¦°à¦¸à¦¬":1114,"Ġà¦ķà¦¯":1115,"à¦ħà¦°à¦£":1116,"à¦īà¦ľ":1117,"Ġà¦ļà¦²à¦¤":1118,"Ġà¦ľà¦²à¦§":1119,"à¦¯à¦Ĺ":1120,"à¦¼à§į":1121,"Ġà¦ĭà¦£":1122,"à¦¶à¦¸":1123,"Ġà¦¹à¦ĩà¦¤":1124,"Ġà¦Ĩà¦ľà¦ķ":1125,"à¦¦à¦¶":1126,"Ġà¦¬à¦ŀ":1127,"à¦¸à¦®à¦¸":1128,"à¦ĸà¦¸":1129,"à¦Ŀà¦°à¦¨":1130,"à¦ıà¦¬":1131,"à¦°à¦§":1132,"Ġà¦ħà¦ŀ":1133,"à¦Ĩà¦¯":1134,"à¦ķà¦ł":1135,"à¦¦à¦ª":1136,"Ġà¦Ĩà¦¬à¦°":1137,"Ġà¦¦à¦¶":1138,"à¦Ĺà¦¡":1139,"à¦ıà¦²":1140,"Ġà¦ħà¦¬à¦¹":1141,"à¦¤à¦Ł":1142,"à¦¯à§İ":1143,"Ġà¦¹à¦ĩà¦¯":1144,"à§İà¦¸à¦¬":1145,"à¦Ĩà¦Ľ":1146,"Ġà¦ıà¦ķà¦²":1147,"Ġà¦¬à¦¹à¦¨":1148,"à¦¯à¦ľ":1149,"Ġà¦¨à¦¡":1150,"à¦īà¦·":1151,"à¦¯à¦®à¦¯":1152,"Ġà¦ļà¦®à¦ķ":1153,"Ġà¦®à¦¨à¦ķ":1154,"à¦¬à¦ļà¦¨":1155,"à¦ķà¦¸":1156,"à¦¹à¦ķ":1157,"à¦¹à¦Ļ":1158,"Ġà¦°à¦¤":1159,"Ġà¦ħà¦¨à¦¬à¦°à¦¤":1160,"à¦ħà¦§":1161,"ÂłÂłÂłÂłÂłÂłÂłÂłÂłÂłÂł":1162,"Ġà¦Ĩà¦¬à¦Ľ":1163,"à¦°à¦«":1164,"Ġà¦Ĩà¦ļ":1165,"Ġà¦°à¦ľà¦¨":1166,"Ġà¦Ĩà¦¬à¦°à¦£":1167,"à¦²à¦Ľ":1168,"à¦¬à¦®":1169,"à§Łà¦¬":1170,"Ġà¦Ńà¦Ļ":1171,"Ġà¦ľà¦°":1172,"à¦ĩà¦ĸ":1173,"à¦Ļà¦¨":1174,"Ġà¦ıà¦ķà¦ĩ":1175,"Ġà¦Ĩà¦¬à¦¦":1176,"à¦²à¦¸à¦¬":1177,"à¦¬à¦¡":1178,"à¦¬à¦ľà¦¨":1179,"Ġà¦¬à¦ĩà¦¯":1180,"à¦ľà¦ªà¦¥":1181,"Ġà¦ħà¦®à¦¨":1182,"ÂłÂłÂłÂłÂłÂłÂłÂłÂłÂłÂłÂłÂłÂł":1183,"Ġà§§à§©":1184,"à¦°à¦·":1185,"Ġà¦ķà§Ł":1186,"à¦ħà¦²":1187,"à¦«à¦Ł":1188,"ÂłÂłÂłÂłÂłÂłÂłÂłÂłÂłÂłÂłÂł":1189,"à¦¤à¦Ĺ":1190,"à¦ķà¦Ń":1191,"Ġà¦¹à¦ĩà¦²":1192,"Ġà¦¬à¦²à¦¤":1193,"à¦·à¦£à¦¸":1194,"ÂłÂłÂłÂłÂłÂłÂłÂłÂłÂł":1195,"Ġà¦ħà¦§à¦°":1196,"à¦¦à¦ķ":1197,"Ġà¦¨à¦²":1198,"Ġà¦¨à¦®":1199,"Ġà¦Ńà¦Ĺ":1200,"à¦ĩà¦¸":1201,"Ġà¦Ľà¦²à¦¨":1202,"Ġà¦¬à¦Ł":1203,"Ġà¦ĸà¦¬à¦°":1204,"Ġà¦¥à¦°":1205,"à§Ń":1206,"à¦°à¦ĸ":1207,"à¦¨à¦ĩ":1208,"à¦¨à¦®à¦¯":1209,"Ġà¦¬à¦°à¦£":1210,"Ġà¦®à¦Ļ":1211,"à¦Łà¦ª":1212,"Ġà¦¤à¦Ł":1213,"à§ľà¦¨":1214,"Ġà¦¬à¦¹à¦®":1215,"à¦²à¦ļ":1216,"à¦¹à¦¬":1217,"Ġà¦¹à¦ĵ":1218,"à¦Ĩà¦ľà¦ĵ":1219,"Ġà¦Ĺà¦¹à¦¨":1220,"à¦°à¦¸à¦°":1221,"Ġà¦¬à¦ĩ":1222,"Ġà¦¦à¦®à¦¨":1223,"à¦ħà¦¦à¦®":1224,"à¦ķà¦ķ":1225,"à¦£à¦¨":1226,"à¦Ĩà¦¹":1227,"Ġà¦¹à§Łà¦¤":1228,"Ġà¦ķà¦²à¦¤":1229,"Ġà¦Ĩà¦Ĺà¦®à¦¨":1230,"à¦¯à¦ª":1231,"Ġà¦ħà¦¬à¦°":1232,"Ġà¦¤à¦ª":1233,"à¦ļà¦¤":1234,"à¦ĩà¦ļ":1235,"Ġà¦ĸà¦£":1236,"à¦°à¦¬à¦°":1237,"Ġà¦īà¦łà¦¤":1238,"Ġà¦ķà¦²à¦Ļ":1239,"à¦°à¦¦à¦°":1240,"Ġà¦¬à¦§":1241,"à¦¹à¦®":1242,"à¦¬à¦°à¦£":1243,"à¦Ńà¦ķ":1244,"à¦łà¦¨":1245,"Ġà¦¤à¦°à¦²":1246,"à¦¸à¦¦":1247,"Ġà¦¬à¦Ļ":1248,"Ġà¦®à¦¶":1249,"à¦Ľà¦¡":1250,"Ġà¦ľà¦Ł":1251,"à¦ħà¦Ļ":1252,"Ġà¦ĩà¦¹":1253,"Ġà¦ķà¦²à¦ķà¦²":1254,"à¦ķà¦¬à¦°":1255,"à¦ķà¦®à¦²":1256,"à¦¸à¦ª":1257,"Ġà¦®à¦°à¦®":1258,"à§Łà¦¸":1259,"à¦ĸà¦Ľ":1260,"à¦ıà¦ķà¦¤":1261,"à¦¤à¦¦":1262,"Ġà¦®à¦¦":1263,"Ġà¦®à¦ľ":1264,"à¦¥à¦ķ":1265,"à§°":1266,"à¦¤à¦ľ":1267,"à¦¸à¦ĸ":1268,"Ġà¦ħà¦²à¦ķ":1269,"à¦Łà¦Ľ":1270,"ĠĠčĊčĊ":1271,"Ġà¦ħà¦®à¦°à¦¤":1272,"à¦ħà¦¬à¦¶":1273,"ĠĠ":1274,"Ġà¦¸à¦ª":1275,"Ġà¦¹à¦ļ":1276,"Ġà¦¶à¦¯":1277,"Ġà¦Ľà¦Ł":1278,"Ġà¦ĵà¦¦":1279,"Ġà¦ĺà¦£":1280,"à§®":1281,"à¦®à¦Ń":1282,"Ġà¦ķà¦Ļ":1283,"à§Łà¦®":1284,"à¦īà¦ķ":1285,"Ġà¦ħà¦¸à¦¹":1286,"Ġà¦ªà¦¦à¦§":1287,"Ġà¦ħà¦²à¦¸":1288,"à¦ŀà¦¤":1289,"à¦°à¦ķà¦®":1290,"Ġà¦Ĩà¦¹à¦¬":1291,"Ġà¦ľà§Łà¦Ĺ":1292,"à¦¸à¦¸":1293,"Ġà¦ķà¦ĩ":1294,"à¦¹à§Ł":1295,"Ġà¦¶à¦¶":1296,"Ġà¦ļà§ľ":1297,"Ġà¦²à¦Ń":1298,"à¦īà¦°":1299,"Ġà¦¬à¦²à¦¬":1300,"Ġà¦Łà¦²":1301,"Ġà¦ľà§Łà¦§":1302,"à¦Ī":1303,"Ġà¦¨à¦¨":1304,"Ġà¦Ĩà¦®à¦¨":1305,"à¦ıà¦ķà¦²":1306,"Ġà¦¸à¦¬à¦ĩ":1307,"à¦²à¦¦":1308,"à¦ķà¦Ľ":1309,"à¦¦à¦£":1310,"à¦Łà¦ĵà¦¯":1311,"à¦£à¦¬":1312,"Ġà¦ıà¦ķà¦¸à¦Ļ":1313,"à¦īà¦ª":1314,"à¦²à¦Ł":1315,"à¦¸à¦Ń":1316,"à¦¦à¦®à¦¯":1317,"Ġà¦ªà¦Ļ":1318,"à¦¬à¦¨à¦ķ":1319,"Ġà¦ĵà¦ª":1320,"Ġà¦ĵà¦ªà¦°":1321,"à¦ħà¦¥à¦¬":1322,"à¦²à§Ł":1323,"Ġà¦¸à¦²":1324,"Ġà¦¬à¦¦":1325,"Ġà¦ªà¦°à¦¤":1326,"à¦¶à¦Ļ":1327,"Ġà¦ħà¦¯":1328,"Ġà¦īà¦¦à§Ł":1329,"Ġà¦ĸà¦¨":1330,"Ġà¦¬à¦°à¦·":1331,"Ġà¦¨à¦ķà¦¶":1332,"à§¦":1333,"à¦°à¦Ľ":1334,"Ġà¦Ĩà¦ĸ":1335,"Ġà¦Ĩà¦ĵà¦¯":1336,"à¦ĵà¦²":1337,"à¦īà§ľ":1338,"Ġà¦Ľà¦²à¦Ľà¦²":1339,"à§¯":1340,"à¦¬à§ľ":1341,"Ġà¦¸à¦°à¦¸":1342,"Ġà¦Ĩà¦·":1343,"Ġà¦ķà¦ļ":1344,"à¦Ńà¦Ļ":1345,"Ġà¦ıà¦Ł":1346,"à¦īà§İà¦¸à¦¬":1347,"à¦«à¦°":1348,"à§ĩà¦ĥ":1349,"à¦°à¦Ł":1350,"à¦¤à¦ļ":1351,"Ġà¦ķà¦¦à¦®":1352,"à¦·à¦®à¦¤":1353,"à¦¬à¦¨à¦®":1354,"à¦Ĩà¦§":1355,"Ġà¦Ŀà¦°à¦Ŀà¦°":1356,"à¦¨à¦ªà¦¥":1357,"à¦¬à¦Ń":1358,"Ġà¦¹à¦ĩà¦¬":1359,"Ġà¦Ĺà¦ľ":1360,"Ġà¦Ńà¦ķ":1361,"Ġà¦īà¦°":1362,"Ġà¦²à¦²":1363,"à¦«à¦²à¦¨":1364,"Ġà¦ĩà¦Ļ":1365,"à¦Ĭ":1366,"Ġà¦ªà¦ķ":1367,"Ġà¦¨à¦°":1368,"à¦ľà¦ķ":1369,"Ġà¦¹à¦¸":1370,"à¦Ĺà¦¹":1371,"à¦£à¦°":1372,"Ġà¦ıà¦¦":1373,"à¦Ĩà¦¦":1374,"à¦ķà¦²à¦Ļ":1375,"Ġà¦Ĳà¦¤":1376,"Ġà¦¹à¦°à¦·":1377,"à¦°à¦¦à¦¯":1378,"à¦¨à¦ľ":1379,"à¦¨à¦Ľ":1380,"à¦ªà¦¬":1381,"à¦¶à¦ªà¦¥":1382,"Ġà¦¹à¦ĵà¦¯":1383,"à¦Ĺà¦Ļ":1384,"à¦¡à¦¬":1385,"à¦ħà¦Łà¦²":1386,"à¦Ŀà¦ķ":1387,"Ġà¦Ŀà¦Ļ":1388,"Ġà¦ĩà¦¶":1389,"Ġà¦īà¦ªà¦¸":1390,"à¦¸à§İ":1391,"à¦ĸà¦ļ":1392,"Ġà¦°à¦¤à¦¨":1393,"Ġà§§à§©à§§à§":1394,"à¦²à¦Ļ":1395,"à¦®à¦¡":1396,"à¦ĩà¦¹":1397,"à¦¬à¦²à¦¬":1398,"à¦ıà¦ķà¦¬":1399,"à¦ķà¦°à¦£":1400,"à¦®à¦Ŀ":1401,"à§Łà¦°":1402,"à¦Ĺà§ľ":1403,"Ġà¦¯à¦®":1404,"Ġà¦īà¦¥à¦²":1405,"Ġà¦²à§ľ":1406,"à¦°à¦£à§Ł":1407,"Ġà¦Ńà¦°à¦ª":1408,"à¦ķà¦²à¦®":1409,"Ġà¦Ĳà¦¶":1410,"Ġà¦¸à¦¹à¦®à¦°":1411,"à¦²à¦°":1412,"à¦¯à¦ĩ":1413,"Ġà¦ªà¦£":1414,"à¦¶à¦°à¦¤":1415,"à¦ľà¦ª":1416,"Ġà¦°à¦ĩà¦²":1417,"à¦Ŀà§ľ":1418,"à¦§à¦¨à¦¹":1419,"Ġà¦ħà¦ªà¦®":1420,"Ġà¦Ŀà¦²à¦¸":1421,"âĢ":1422,"à¦¯à¦¶":1423,"Ġà¦Ĩà§Łà¦¨":1424,"à¦ªà¦²à¦ķ":1425,"à¦ľà¦Ĺà§İ":1426,"Ġà¦¦à¦ķ":1427,"Ġà¦°à¦®à¦£":1428,"à¦ĵà¦¦":1429,"à§ľà¦ķ":1430,"Ġà¦°à¦ķà¦®":1431,"Ġà¦īà¦ªà¦¹":1432,"Ġà¦Ĩà¦ª":1433,"Ġà¦Ĩà¦¨à¦¤":1434,"Ġà¦ħà¦ĸà¦£":1435,"à¦ľà¦¡":1436,"Ġà¦¦à¦¯":1437,"à¦Ĺà¦¦":1438,"Ġà¦Ńà¦Ĺà¦¬":1439,"à¦ļà¦ŀ":1440,"à¦Ļà¦²":1441,"Ġà¦²à¦Ļ":1442,"à¦°à¦¬à¦§":1443,"Ġà¦Ĩà¦¸à¦¤":1444,"Ġà¦ıà¦ĸà¦¨à¦ĵ":1445,"à¦¬à¦¤à¦¨":1446,"Ġà¦ķà¦¬à¦°":1447,"Ġà¦®à¦¯":1448,"Ġà¦ħà¦«":1449,"à¦ĩà¦®":1450,"à¦°à¦¤à¦²":1451,"Ġà¦Ĩà¦²à¦¤":1452,"Ġà¦Īà¦¶":1453,"âĢī":1454,"à¦¨à¦ĸ":1455,"Ġà¦ªà¦¬à¦¨":1456,"à¦Ĺà¦Ĺà¦¨":1457,"à¦£à¦ķ":1458,"à¦ļà¦¬":1459,"Ġà¦²à¦¬":1460,"Ġà¦ĵà§ľ":1461,"à¦ħà¦®à¦¨":1462,"à¦Ŀà¦¬":1463,"Ġà¦ħà¦ļà¦ŀ":1464,"à¦°à¦¸à¦¨":1465,"à¦¬à¦ŀ":1466,"à¦¦à¦¤":1467,"Ġà¦¸à¦ł":1468,"Ġà¦¸à¦ªà¦¨":1469,"Ġà¦ªà¦ŀ":1470,"Ġà¦ħà¦£":1471,"à¦£à¦®":1472,"Ġà¦ıà¦ķà¦®":1473,"à¦Ŀà¦²":1474,"Ġà¦Ŀà¦ŀ":1475,"à¦ķà¦°à¦¶":1476,"à¦ĭ":1477,"à¦®à¦«":1478,"à¦ªà¦¹":1479,"Ġà¦ķà¦¡":1480,"Ġà¦®à¦Ĺ":1481,"Ġà¦ħà¦¹à¦°":1482,"Ġà¦ħà¦¥à¦ļ":1483,"Ġà¦Ĺà¦°à¦®":1484,"à¦¥à¦®":1485,"Ġà¦ľà¦¬":1486,"Ġà¦ľà¦Ļ":1487,"Ġà¦²à¦ĩà¦¯":1488,"à¦ħà¦¥à¦ļ":1489,"Ġà¦¸à¦®à¦°":1490,"Ġà¦¬à¦²à¦Ľ":1491,"Ġà¦ļà¦²à¦¬":1492,"Ġà¦Ĭà¦·":1493,"à¦¨à¦®à§Ł":1494,"à¦¤à¦°à¦¬":1495,"Ġà¦¨à§ľ":1496,"à¦¶à¦²":1497,"à¦¶à¦¶":1498,"Ġà¦ħà¦ĺ":1499,"à¦Łà¦°":1500,"Ġà¦Ĺà¦Ļ":1501,"à¦ıà¦Ń":1502,"Ġà¦Ĩà¦°à¦ĵ":1503,"à¦ıà¦ķà¦¸":1504,"à¦¸à¦¹à¦ľ":1505,"čĊ":1506,"à¦²à¦¶":1507,"à¦ķà¦¦":1508,"Ġà¦Ĩà¦¨à¦¬":1509,"à¦ªà¦Ĺ":1510,"à¦ľà¦Ľ":1511,"à¦ĸà¦ª":1512,"Ġà¦²à¦ĵ":1513,"Ġà¦ĵà¦ľà¦¨":1514,"à¦¼à¦¿à¦Ĥ":1515,"à¦ªà¦°à¦¶":1516,"Ġà¦¡à¦°":1517,"à¦ıà¦ķà¦ĩ":1518,"à¦°à¦¥à¦°":1519,"à¦°à¦²à§Ł":1520,"ÂłÂłÂłÂłÂłÂłÂłÂłÂłÂłÂłÂłÂłÂłÂłÂłÂłÂł":1521,"Ġà¦·":1522,"à¦°à¦ĸà¦°":1523,"à¦²à¦«":1524,"à¦Ńà¦¨":1525,"Ġà¦Ľà¦¤":1526,"Ġà¦ĸà¦¡":1527,"à¦Ŀà¦¨":1528,"à¦ıà¦Ł":1529,"Ġà¦ªà¦¥à¦ª":1530,"Ġà¦Ĩà¦ķà¦°":1531,"à¦ļà¦²à¦¤":1532,"ÂłÂłÂłÂłÂłÂłÂłÂłÂłÂłÂłÂłÂłÂłÂłÂłÂł":1533,"à¦§à¦°à¦£":1534,"Ġà¦¹à¦ĩà§Ł":1535,"à¦·à¦¸":1536,"à¦Ļà¦¤":1537,"Ġà¦«à¦£":1538,"à¦°à¦¬à¦£":1539,"à¦ĺà¦®":1540,"Ġà¦ļà¦²à¦Ľ":1541,"Ġà¦¬à¦¸à¦¤":1542,"à¦¨à¦Ńà¦°":1543,"à¦¤à¦Ń":1544,"à¦¼à¦Ĥ":1545,"à¦®à¦®à¦¤":1546,"à¦¦à¦®à¦¨":1547,"Ġà¦¨à¦ľà¦°":1548,"à¦Ĺà¦¯":1549,"à¦£à¦¬à¦¨":1550,"à¦ļà¦Ł":1551,"Ġà¦«à¦¡":1552,"Ġà¦²à¦¹":1553,"Ġà¦ıà¦ķà¦°":1554,"à¦Ŀà¦ŀ":1555,"Ġà¦ĺà¦¡":1556,"Ġà¦ħà¦¬à¦ļ":1557,"Ġà¦ķà¦²à¦¸":1558,"Ġà¦īà§İà¦¸à¦°":1559,"à¦°à¦ªà¦¥":1560,"à¦¤à¦¶":1561,"à¦¬à¦Ľ":1562,"à¦ķà¦Ĺ":1563,"Ġà¦¹à¦ĵà§Ł":1564,"Ġà¦Ńà¦¬à¦¨":1565,"Ġà¦¯à¦ľ":1566,"à¦¬à¦¨à¦¬":1567,"à¦Ĩà§Ł":1568,"à¦ħà¦¤à¦²":1569,"Ġà¦Ĩà¦¸à¦²":1570,"Ġà¦ħà¦¬à¦Ĺ":1571,"à¦°à¦®à¦°":1572,"à¦¤à¦²à¦¤":1573,"à§Ŀà¦¤":1574,"Ġà¦ªà¦Łà¦Ń":1575,"Ġà¦Łà¦²à¦®à¦²":1576,"à¦¯à¦Ń":1577,"Ġà¦¸à¦ľà¦²":1578,"Ġà¦ķà¦Ł":1579,"Ġà¦ķà¦¬à¦²":1580,"à¦§à¦®":1581,"Ġà¦¦à¦ĸà¦²":1582,"Ġà¦ļà¦Ł":1583,"Ġà¦«à¦°":1584,"à¦īà¦Ł":1585,"à¦«à¦¨":1586,"à¦ľà¦¨à¦¨":1587,"Ġà¦¨à¦¬à¦¯":1588,"à¦¸à¦®à¦¤":1589,"à¦²à¦¹":1590,"à¦²à¦Ĺà¦°":1591,"à¦¬à¦¦à¦²":1592,"à¦®à¦ļ":1593,"Ġà¦ªà¦¦à¦¯":1594,"Ġà¦ķà¦²à¦ķ":1595,"Ġà¦¶à¦°à¦¤":1596,"à¦¬à¦¨à¦¯":1597,"à¦ħà¦®à¦°":1598,"à¦ĺà¦Ł":1599,"Ġà¦Ĩà¦¸à¦Ľ":1600,"à¦¤à¦¬à¦ķ":1601,"Ġà¦īà¦ªà¦²à¦¬":1602,"à¦²à¦ĸ":1603,"à¦ĩà¦¦":1604,"Ġà¦īà¦®":1605,"Ġà¦ĸà§ľ":1606,"Ġà¦¥à¦°à¦¥à¦°":1607,"Ġà¦ıà¦ķà¦ľà¦¨":1608,"à¦ıà¦¦":1609,"Ġà¦ªà¦¥à¦¹":1610,"Ġà¦īà¦łà¦Ľ":1611,"à¦¸à¦¬à¦ĩ":1612,"à¦¸à¦°à¦²":1613,"à¦¬à§Ł":1614,"à¦ķà¦«":1615,"à¦®à¦Ľ":1616,"Ġà¦¬à¦¦à¦¨":1617,"Ġà¦¨à¦°à¦ķ":1618,"à¦£à¦¸":1619,"à¦£à¦®à¦¯":1620,"à¦ħà¦¬à¦¸":1621,"Ġà¦Ĩà¦Ľà¦¡":1622,"Ġà¦ħà¦¬à¦§":1623,"à§İà¦ª":1624,"à§İà¦¸à¦°":1625,"à¦°à¦¹à¦£":1626,"Ġà¦ķà¦ĸà¦¨à¦ĵ":1627,"à¦Ĭà¦°":1628,"à§ĩà¦¾à¦ģ":1629,"à¦¯à¦ŀ":1630,"Ġà¦ķà¦ķ":1631,"à¦¶à§Ł":1632,"à¦ľà¦Ł":1633,"Ġà¦¦à§Ł":1634,"à¦Ĺà¦¸":1635,"à¦·à¦¬":1636,"à¦£à¦ļ":1637,"Ġà¦¯à¦¤à¦¨":1638,"à¦ĵà¦¡":1639,"Ġà¦²à¦®":1640,"Ġà¦ľà¦²à¦¸":1641,"ÂłÂłÂłÂłÂłÂłÂłÂłÂłÂłÂłÂłÂłÂłÂłÂłÂłÂłÂłÂł":1642,"Ġà¦ħà¦ķà¦¥":1643,"à¦Ŀà¦°à¦Ŀà¦°":1644,"à¦Ĳà¦ķ":1645,"Ġà§¨":1646,"à¦¯à¦¬à¦¦":1647,"Ġà¦ªà¦¤à¦¨":1648,"Ġà¦¨à¦Ń":1649,"à¦Ĺà¦ª":1650,"à¦·à¦¹":1651,"Ġà¦¤à¦°à¦£":1652,"à¦£à¦ª":1653,"à¦£à¦¹":1654,"à¦£à¦Ĺ":1655,"à¦Ľà¦ª":1656,"Ġà¦Ĺà¦¦":1657,"à¦ĵà¦¨":1658,"Ġà¦ħà¦¨à¦²":1659,"à¦ħà¦¹":1660,"à¦ħà¦«":1661,"à¦°à¦ļà¦£":1662,"à¦¾à¦ĥ":1663,"à¦¨à§Ł":1664,"à¦¨à§Łà¦¨":1665,"à¦¬à¦Ĺ":1666,"à¦¯à¦¬à¦¹":1667,"Ġà¦¸à¦ļ":1668,"Ġà¦Ĩà¦ĩà¦¨":1669,"Ġà¦®à§Ł":1670,"Ġà¦¹à¦Ł":1671,"à¦Łà¦«":1672,"à¦łà¦ķ":1673,"Ġà¦īà¦¹":1674,"Ġà¦¥à¦®":1675,"à¦ĺà¦¬":1676,"Ġà¦®à¦¨à¦¸":1677,"à¦¬à¦²à¦ĩ":1678,"Ġà¦Ŀà¦¨":1679,"Ġà¦Ŀà¦ķ":1680,"à¦¤à¦¬à¦¤":1681,"Ġà¦ħà¦¬à¦¸à¦°":1682,"à¦°à¦®à¦¯":1683,"à¦ıà¦ĩà¦ĸ":1684,"Ġà¦¬à¦°à¦«":1685,"Ġà§©":1686,"à¦°à¦Ŀ":1687,"à¦¨à¦Ĺà¦°":1688,"à¦®à§ľ":1689,"Ġà¦¸à¦¯":1690,"à¦¹à¦¦":1691,"Ġà¦¦à¦£":1692,"à¦·à¦ª":1693,"à¦Ľà§ľ":1694,"Ġà¦¶à¦¨":1695,"à¦īà¦Ĺ":1696,"à¦°à¦ŀ":1697,"à¦¬à¦ĩ":1698,"à¦¦à¦§":1699,"Ġà¦¨à¦Ĺ":1700,"à¦§à¦¶":1701,"à¦·à¦¤à¦¬":1702,"Ġà¦¤à¦°à¦¬":1703,"à¦£à¦§":1704,"à¦ļà¦®":1705,"à¦ļà¦¸":1706,"à¦«à¦²à¦¤":1707,"Ġà¦¸à¦®à¦¬":1708,"Ġà¦ıà¦ĩà¦ĸ":1709,"Ġà¦¨à¦¬à¦ľà¦¨":1710,"Ġà¦ħà¦²à¦Ļ":1711,"ÂłÂłÂłÂłÂłÂłÂłÂłÂłÂłÂłÂłÂłÂłÂłÂłÂłÂłÂł":1712,"à¦¯à¦®à§Ł":1713,"à¦®à¦ĸ":1714,"à¦¸à¦ľ":1715,"Ġà¦¨à¦ĵ":1716,"à¦ľà§ľ":1717,"à§Łà¦ķ":1718,"Ġà¦¦à¦ĸ":1719,"à¦Łà¦Ĺ":1720,"à¦¥à¦¹":1721,"à¦°à¦¬à¦®à¦¯":1722,"à¦ıà¦¨":1723,"Ġà¦ħà¦¬à§Łà¦¬":1724,"Ġà¦Ĩà¦Ĺà¦²":1725,"à¦ħà¦¸à¦¹":1726,"à¦¯à¦¬à¦¸":1727,"à¦¼à§Ĥ":1728,"Ġà¦Ĩà¦°à¦¬":1729,"Ġà¦ħà¦Ŀ":1730,"à¦¹à¦¹":1731,"à¦ĸà¦ĸ":1732,"à¦ĸà¦Ĺ":1733,"à¦ĸà¦Ł":1734,"à¦Łà¦¸":1735,"à¦ļà¦®à¦ķ":1736,"à¦Ļà¦¬":1737,"à¦łà¦°":1738,"Ġà¦ªà¦°à¦¸":1739,"à¦¨à¦¬à¦¹":1740,"à¦ıà¦ķà¦¸à¦Ļ":1741,"Ġà¦ĩà¦¸":1742,"Ġà¦¤à¦ĸà¦¨à¦ĩ":1743,"Ġà§§à§©à§§à§Ń":1744,"à¦¤à¦Ŀà¦°":1745,"à¦¬à¦Ļ":1746,"à¦ķà¦ľ":1747,"à¦®à¦ĺ":1748,"à¦®à¦ŀ":1749,"à¦®à¦°à¦®":1750,"à¦¸à¦ŀ":1751,"Ġà¦ķà§ľ":1752,"à¦¶à¦Ŀ":1753,"Ġà¦ħà¦¥à¦¬":1754,"à¦Ńà¦Ĺ":1755,"à¦Ńà¦¬à¦¨":1756,"à¦łà¦¤":1757,"à¦Ĩà¦¡":1758,"à¦Ŀà¦¤":1759,"à¦¬à¦²à¦²":1760,"Ġà¦¸à¦®à¦Ĺ":1761,"Ġà¦¸à¦¬à¦ķ":1762,"Ġà¦ħà¦¬à¦ķ":1763,"à¦¸à¦°à¦¸":1764,"Ġà¦¸à¦¹à¦ļà¦°":1765,"Ġà¦Ķ":1766,"à¦¨à¦°à¦®":1767,"à¦¯à¦²":1768,"à¦¯à¦®à¦¨":1769,"à¦¸à¦Ľ":1770,"Ġà¦¸à¦¯à¦¤":1771,"Ġà¦¸à¦«à¦°":1772,"Ġà¦¨à¦·":1773,"Ġà¦¨à¦¬à¦°":1774,"Ġà¦¦à¦¸":1775,"à¦Ĺà¦Ľ":1776,"à¦Łà¦®":1777,"à¦£à¦ªà¦£":1778,"Ġà¦¯à¦¬à¦¨":1779,"à¦ĩà¦ª":1780,"Ġà¦ļà¦®":1781,"à¦łà¦¶":1782,"à¦Ĩà¦¸à¦¨":1783,"à¦¤à¦°à¦¸":1784,"à¦¤à¦¨à¦¤":1785,"à¦°à¦®à¦¶":1786,"à¦ªà¦¥à¦¹":1787,"Ġà¦Ĩà¦¨à¦®à¦¨":1788,"Ġà¦¦à¦®à¦¬à¦¨":1789,"Ġà¦¥à¦®à¦¥à¦®":1790,"à¦¤à¦¥":1791,"à¦¯à¦ªà¦Ł":1792,"à¦ķà¦Ľà¦Ł":1793,"à¦¦à¦®à§Ł":1794,"à¦ªà¦Ľ":1795,"à¦ªà¦Ļ":1796,"à¦ªà¦ŀ":1797,"à¦¹à§İ":1798,"Ġà¦Ĺà¦łà¦¨":1799,"Ġà¦¯à¦¶":1800,"Ġà¦ļà¦¤":1801,"à¦¬à¦¨à¦ªà¦¥":1802,"à¦ħà¦²à¦¸":1803,"à¦ľà¦¨à¦®":1804,"Ġà¦ħà¦ªà¦²à¦ķ":1805,"à¦·à¦°à¦Ĺ":1806,"Ġà¦ķà¦¤à¦Ł":1807,"à¦¤à¦¬à¦°":1808,"à¦²à¦¡":1809,"à¦¬à¦Ľà¦°":1810,"à¦¯à¦ªà¦¥":1811,"Ġà¦¸à¦®à¦¨":1812,"Ġà¦¬à¦ĩà¦Ľ":1813,"à¦¹à¦®à¦¯":1814,"à¦·à¦¦":1815,"à¦¬à¦¨à¦¸":1816,"Ġà¦ĸà¦°":1817,"Ġà¦Ĩà¦²à¦¸":1818,"Ġà¦§à¦¬à¦²":1819,"à¦ħà¦¯":1820,"Ġà¦Ĩà¦°à¦®":1821,"Ġà¦¸à¦¬à¦ļ":1822,"à¦¨à¦¤à¦®":1823,"à¦¦à¦°à¦ľ":1824,"à¦ľà¦²à¦°":1825,"Ġà¦ªà¦¦à¦¤à¦²":1826,"à¦°à¦§à¦¨":1827,"à¦¤à¦ĸ":1828,"à¦¤à¦¸à¦®":1829,"Ġà¦¬à¦¸à¦¬":1830,"Ġà¦¬à¦ĩà§Ł":1831,"Ġà¦Ĩà¦°à¦¤":1832,"Ġà¦ªà¦¨":1833,"à¦¶à¦ľ":1834,"à¦§à¦¹":1835,"Ġà¦¹à¦¨":1836,"Ġà¦¹à¦®":1837,"Ġà¦¦à¦¹":1838,"à¦Łà¦¹":1839,"à¦Łà¦ĵà§Ł":1840,"Ġà¦¤à¦ªà¦¨":1841,"à¦¡à¦¨":1842,"à¦¬à¦¨à¦§":1843,"à¦ĵà¦ł":1844,"à¦Ĩà¦ĩà¦¨":1845,"Ġà¦ıà¦ķà¦ķ":1846,"Ġà¦ħà¦¬à¦¯":1847,"Ġà¦ļà¦²à¦®":1848,"Ġà¦§à¦°à¦²":1849,"Ġà¦Ĩà¦¬à¦¹":1850,"à¦²à¦¨à¦®":1851,"Ġà¦¯à¦¤à¦¦":1852,"Ġà¦Ĺà§ľà¦¬":1853,"à§§à§¦":1854,"Ġà¦ħà¦¹à¦°à¦¹":1855,"à¦°à¦®à¦¨":1856,"à¦¨à¦ľà¦²":1857,"à¦ķà¦§":1858,"Ġà¦¬à¦¹à¦°":1859,"Ġà¦¬à¦ļà¦¨":1860,"Ġà¦ķà¦¨à¦ķ":1861,"à¦¶à¦¦":1862,"à¦¶à¦Ł":1863,"à¦¶à¦Ľ":1864,"à¦§à¦Ń":1865,"à¦ĸà¦¶":1866,"Ġà¦Ńà¦¸":1867,"à¦Ĩà¦¦à¦°":1868,"Ġà¦§à¦°à¦¬":1869,"Ġà¦ĵà¦·":1870,"à¦ħà¦§à¦°":1871,"Ġà¦ĺà§ľ":1872,"à¦°à¦ķà¦£":1873,"Ġà¦ľà¦²à¦ķà¦£":1874,"Ġà¦ĩà¦Ł":1875,"à¦ªà¦ķà¦¥à¦¨":1876,"à¦¤à¦ĸà¦¨à¦ĩ":1877,"à¦¦à¦Ľ":1878,"Ġà¦¨à¦ĩ":1879,"à¦ľà¦Ļ":1880,"à§Łà¦Ĺ":1881,"Ġà¦¹à¦īà¦ķ":1882,"à¦·à¦°à¦¹":1883,"à¦Ńà¦°à¦¤":1884,"à¦¬à¦¨à¦¦":1885,"Ġà¦ĸà¦²":1886,"Ġà¦ĵà¦ķ":1887,"à¦ħà¦ŀ":1888,"Ġà¦®à¦¨à¦Ł":1889,"à¦īà¦¹":1890,"à¦¬à¦°à¦Ĺ":1891,"à¦¬à¦°à¦·":1892,"à¦¦à§Łà¦ķ":1893,"Ġà¦¸à¦°à¦²à¦¤":1894,"Ġà¦Ĩà¦¤à¦Ļ":1895,"Ġà¦ĭà¦·":1896,"Ġà¦Ŀà¦ķà¦Ŀà¦ķ":1897,"à¦°à¦¦à§Ł":1898,"à¦®à¦§à¦¨":1899,"Ġà¦¬à¦ĩà¦¤":1900,"Ġà¦Ĩà¦«":1901,"à¦ľà¦¬à¦¨":1902,"à§Łà¦£":1903,"Ġà¦¦à¦¡":1904,"à¦Ĺà¦¬à¦¨":1905,"à¦£à¦¶":1906,"à¦ļà§Łà¦¤":1907,"à¦¥à¦ķà¦¤":1908,"Ġà¦ıà¦ª":1909,"à¦°à¦¤à¦¨":1910,"à¦Ĩà¦ĩ":1911,"Ġà¦Ĩà¦²à¦ªà¦¨":1912,"Ġà¦§à¦®à¦¨":1913,"à¦ħà¦¸à¦®":1914,"Ġà¦ıà¦ķà¦ĸ":1915,"Ġà¦®à¦¨à¦®":1916,"Ġà¦ħà¦¬à¦¤":1917,"Ġà¦ħà¦¬à¦¸à¦¨":1918,"Ġà¦¬à¦²à¦¯":1919,"à¦·à¦£à¦ľà¦¨":1920,"Ġà¦ħà¦ķà¦¸":1921,"Ġà¦ªà§ľà¦²":1922,"Ġà¦®à¦¹à§İ":1923,"Ġà¦īà§İà¦ª":1924,"à¦Ľà¦²à¦Ľà¦²":1925,"à¦°à¦¸à¦®":1926,"à¦¤à¦ĩ":1927,"à¦ķà¦Ńà¦°":1928,"Ġà¦¸à¦¤à¦°":1929,"à¦¶à¦ļ":1930,"à¦ľà¦¦":1931,"à¦ľà¦Ĺ":1932,"à§Łà¦¤à¦®":1933,"à¦¹à¦®à¦¨":1934,"à¦§à¦¸":1935,"Ġà¦¦à¦¨":1936,"à¦ĸà¦ķ":1937,"à¦ĸà¦®":1938,"à¦Ĺà¦Ĺ":1939,"à¦·à¦°à¦£":1940,"Ġà¦¤à¦ªà¦¸":1941,"à¦¥à¦¯":1942,"Ġà¦ļà¦°à¦®":1943,"Ġà¦²à¦Ĺ":1944,"à¦Ĩà¦°à¦¬":1945,"à¦Ĩà¦ĺ":1946,"à¦ħà¦ªà¦®":1947,"Ġà¦¡à¦Ĺ":1948,"Ġà¦ªà¦°à¦¦":1949,"Ġà¦¬à¦¨à¦Ń":1950,"à¦·à¦£à¦Ĺ":1951,"à¦¹à¦°à¦·":1952,"Ġà¦¬à§Łà¦¸":1953,"à¦Ĩà¦¬à¦Ľ":1954,"Ġà¦ıà¦¤à¦¦":1955,"à¦ıà¦ĸà¦¨à¦ĵ":1956,"Ġà¦¦à¦Ĺà¦¦à¦Ĺ":1957,"à¦°à¦ĺ":1958,"à¦¨à¦¬à¦ª":1959,"à¦¤à¦®à¦¯":1960,"ĠčĊ":1961,"Ġà¦¸à¦ĩ":1962,"Ġà¦Ĩà¦ľà¦¨":1963,"à¦ªà¦ľ":1964,"Ġà¦¨à¦ĸ":1965,"Ġà¦¨à¦Ł":1966,"Ġà¦ħà¦¬à¦¨":1967,"à¦ĸà¦¬à¦°":1968,"à¦¡à¦°":1969,"à¦¬à¦¨à¦°":1970,"à¦ĵà§ľ":1971,"à¦¨à¦¬à¦®":1972,"à¦°à¦ķà¦²":1973,"Ġà¦ľà¦²à¦¦":1974,"Ġà¦ĩà¦®":1975,"Ġà¦ħà¦Ńà¦¯":1976,"à¦°à¦¸à¦Ļ":1977,"à¦¢à¦²":1978,"čĊčĊ":1979,"Ġà¦ķà¦¤à¦¦":1980,"Ġà¦¶à¦¤à¦¦à¦²":1981,"Ġà¦Īà¦¦":1982,"Ġà¦ħà¦Ĺà¦£à¦¨":1983,"à¦ĭà¦¤":1984,"à¦²à¦Ŀ":1985,"à¦¯à¦Ļ":1986,"à¦¯à¦¬à¦¨":1987,"à¦ķà¦¯":1988,"à¦ķà¦¦à¦®":1989,"à¦®à¦®à¦¯":1990,"Ġà¦¸à¦°à¦£":1991,"Ġà¦¨à¦®à¦¨":1992,"à¦¶à¦Ń":1993,"Ġà¦ħà¦¥":1994,"à¦ľà¦¹":1995,"Ġà¦¦à¦°à¦ķ":1996,"Ġà¦¦à¦°à¦¦":1997,"à¦Ĺà¦ķ":1998,"à¦Ĺà¦¹à¦¨":1999,"Ġà¦Ĺà¦°à¦ľ":2000,"à¦ĩà¦Ń":2001,"Ġà¦¶à¦°à¦£":2002,"Ġà¦°à¦¸à¦¨":2003,"à¦Ĩà¦Ń":2004,"Ġà¦ĸà¦ļ":2005,"à§ľà¦¬":2006,"à¦ħà¦ļà¦²":2007,"à¦ĺà¦Ľ":2008,"à¦īà§İà¦¸":2009,"à¦ªà¦°à¦®":2010,"Ġà¦¹à¦¤à¦Ń":2011,"Ġà¦ħà¦Ńà§Ł":2012,"Ġà¦Ĩà¦¹à¦¤":2013,"à¦ķà¦Łà¦ķ":2014,"à¦¸à¦²à¦®":2015,"Ġà¦ļà¦°à¦£à¦¤à¦²":2016,"à¦¨à¦¸à¦ªà¦Ł":2017,"Ġà¦ļà¦ķà¦ļà¦ķ":2018,"Ġà¦°à¦£à¦ķ":2019,"à¦Ŀà¦²à¦®à¦²":2020,"à¦¤à¦¯":2021,"à§ģà¦Ĥ":2022,"à¦ķà¦°à¦¬":2023,"à¦¦à¦¹à¦¨":2024,"Ġà¦¸à§Ł":2025,"Ġà¦¸à¦¬à¦²":2026,"Ġà¦¬à§İà¦¸à¦°":2027,"à¦ªà¦ĸ":2028,"à¦ªà¦¤à¦¨":2029,"Ġà¦ªà¦°à¦¬":2030,"Ġà¦ķà¦ĵ":2031,"Ġà¦®à¦ľà¦¬":2032,"Ġà¦¨à¦°à¦¨":2033,"Ġà¦¨à¦®à¦¸":2034,"à¦·à¦¶":2035,"à¦·à¦Ł":2036,"Ġà¦¤à¦®":2037,"à¦£à¦Ń":2038,"Ġà¦Ńà¦¨":2039,"Ġà¦ľà¦ŀ":2040,"Ġà¦°à¦Ł":2041,"à¦¬à¦¨à¦ª":2042,"Ġà¦²à¦ĺ":2043,"à¦ħà¦Ł":2044,"à¦ıà¦®":2045,"à¦īà¦¬":2046,"Ġà¦Ĩà¦¸à¦°":2047,"Ġà¦Ĩà¦¸à¦®":2048,"à¦«à¦¸à¦²":2049,"à¦ľà¦¨à¦¶":2050,"Ġà¦ļà¦²à¦¨":2051,"Ġà¦ķà¦¥à¦¨":2052,"Ġà¦ĩà¦²":2053,"à¦¯à¦¤à¦ĩ":2054,"à¦ľà¦²à¦§":2055,"Ġà¦¶à¦¤à¦¬à¦°":2056,"Ġà¦īà§ľà¦¨":2057,"à¦Ĳà¦¤":2058,"Ġà¦Ľà¦Łà¦«à¦Ł":2059,"Ġà§§à§©à§§à§¬":2060,"à¦¨à¦¬à¦¨":2061,"à¦¤à¦¡":2062,"à¦²à¦¸à¦¨":2063,"à¦²à¦ľà¦¯":2064,"à¦¯à¦ļ":2065,"à¦ķà¦¤à¦¬":2066,"à§ĭà¦Ĥ":2067,"à¦¸à¦ļ":2068,"à¦¦à¦Ń":2069,"Ġà¦¸à¦ľà¦¨":2070,"Ġà¦¸à¦«à¦²à¦¤":2071,"Ġà¦Ĩà¦ĵà§Ł":2072,"à¦ľà¦Ń":2073,"à¦¹à¦Ń":2074,"à¦¹à¦ļà¦°":2075,"à¦ĸà¦§":2076,"à¦ĸà¦¡":2077,"à¦£à¦ľ":2078,"à¦¡à¦ª":2079,"Ġà¦ļà¦ªà¦²":2080,"Ġà¦°à¦ŀ":2081,"à¦łà¦¬":2082,"à¦łà¦¹":2083,"Ġà¦īà¦ªà¦¤":2084,"Ġà¦īà¦ªà¦ķ":2085,"Ġà¦²à¦¬à¦£":2086,"à¦Ĩà§ľ":2087,"Ġà¦ĵà¦¯":2088,"Ġà¦¥à¦²":2089,"à¦¤à¦°à¦²":2090,"à¦®à¦¨à¦¨":2091,"Ġà¦Ŀà¦Ł":2092,"Ġà¦¸à¦®à¦¤à¦²":2093,"à¦¨à¦¬à¦¸":2094,"Ġà¦¹à§Łà¦¨":2095,"à¦°à¦ķà¦°":2096,"à¦ķà¦²à¦ķ":2097,"Ġà¦ľà¦¨à¦Ĺà¦£":2098,"Ġà¦ĩà¦¤à¦¸":2099,"à¦°à¦¹à¦°à¦Ĺ":2100,"à¦¬à¦¹à¦®":2101,"à¦ıà¦¤à¦¦":2102,"Ġà¦Ĺà¦£à¦¨":2103,"Ġà¦¤à¦¤à¦ĩ":2104,"à¦°à¦¬à¦¨":2105,"à¦°à¦¹à¦¸":2106,"à¦°à¦ľà¦²":2107,"à¦°à¦ļà¦¨":2108,"à¦¨à¦·":2109,"à¦¤à¦ªà¦¨":2110,"à¦¤à¦ªà¦¥":2111,"à¦²à¦ļà¦ķ":2112,"à¦¯à¦§":2113,"à¦®à¦ĩ":2114,"à¦®à¦¹à¦°":2115,"Ġà¦¸à¦«à¦²":2116,"Ġà¦ªà¦¯":2117,"Ġà¦ķà¦ªà¦Ł":2118,"à¦¶à¦«":2119,"à¦¶à¦¤à¦²":2120,"Ġà¦ħà¦ĩ":2121,"à¦¹à¦Ĺ":2122,"à¦Łà¦¦":2123,"à¦·à¦§":2124,"Ġà¦ľà¦ª":2125,"Ġà¦¶à¦°à¦®":2126,"Ġà¦°à¦®":2127,"Ġà¦°à¦ĩ":2128,"Ġà¦Ľà¦¦":2129,"Ġà¦ıà¦¡":2130,"Ġà¦īà¦§":2131,"Ġà¦īà¦Ĺ":2132,"Ġà¦īà¦¤à¦°":2133,"à¦ĵà¦¤":2134,"Ġà¦²à¦ĩà§Ł":2135,"à¦Ĩà¦·":2136,"à¦Ĩà¦¸à¦¬":2137,"Ġà¦§à¦°à¦¤":2138,"à¦ħà¦²à¦ķ":2139,"à¦ĺà¦Łà¦ķ":2140,"à¦¦à¦¯à¦¨":2141,"à¦īà¦¦à¦¯":2142,"à¦īà¦ªà¦°":2143,"Ġà¦ĺà¦·":2144,"à¦ªà¦°à¦¸":2145,"Ġà¦¬à¦²à§Ł":2146,"à¦¦à§Łà¦¸":2147,"à¦ªà¦¥à¦ļà¦²":2148,"Ġà¦ľà¦²à¦ª":2149,"à¦ıà¦ķà¦ľà¦¨":2150,"à¦¯à¦¤à¦¦":2151,"Ġà¦ħà¦ľà¦ª":2152,"Ġà¦ķà¦¤à¦ķ":2153,"Ġà¦ķà¦¤à¦ĩ":2154,"Ġà¦ªà¦¤à¦Ļ":2155,"à¦ħà¦¬à¦¹":2156,"à§§à§§":2157,"Ġà¦®à¦²à¦¯":2158,"Ġà¦¶à¦°à§İ":2159,"Ġà¦Īà¦°":2160,"à¦Īà¦¶":2161,"à¦¨à¦¡":2162,"à¦¯à¦¤à¦¨":2163,"à¦¸à¦¯":2164,"à¦¸à¦Ł":2165,"à¦¸à¦ĵ":2166,"à¦¦à¦ĸ":2167,"Ġà¦Ĩà¦ĩà¦²":2168,"à¦ªà¦ª":2169,"à¦¶à¦¬à¦¨":2170,"à¦¹à¦ª":2171,"à¦¹à¦£":2172,"à¦§à¦ª":2173,"à¦ļà¦°à¦ķ":2174,"à¦ĩà¦«":2175,"à¦Ńà¦Ĺà¦¬":2176,"Ġà¦ıà¦¸à¦¬":2177,"à¦¬à¦¨à¦Ń":2178,"à¦Ĩà¦¸à¦²":2179,"à¦ħà¦ĺ":2180,"à¦ĺà¦£":2181,"à¦¤à¦°à¦ķ":2182,"à¦Ŀà¦²à¦ķ":2183,"à¦īà§İ":2184,"à¦¬à¦°à¦¹":2185,"Ġà¦ªà¦°à¦ª":2186,"à¦¨à¦¤à¦²":2187,"à¦¦à§Łà¦¬":2188,"à¦°à¦®à¦¤":2189,"à¦ķà¦²à¦°à¦¬":2190,"Ġà¦ľà¦²à¦Ľà¦¬":2191,"à¦¯à¦¤à¦®":2192,"Ġà¦ķà¦²à¦ªà¦¨":2193,"à¦Ĺà¦°à¦ľ":2194,"à¦°à¦¹à¦¬":2195,"à¦·à¦¤à¦Ĺ":2196,"Ġà¦¸à¦¹à¦¯":2197,"Ġà¦īà¦ªà¦ļ":2198,"à§§à§©":2199,"à¦°à¦ªà¦°à¦ĵ":2200,"Ġà¦ħà¦¹à¦Ļ":2201,"à¦¶à¦¹à¦°à¦Ĺ":2202,"Ġà¦Ĺà¦£à¦®":2203,"à¦¬à¦°à¦²à¦¹à¦°":2204,"Ġà¦ħà¦¬à¦²à¦®":2205,"à¦²à¦ľà¦²":2206,"à¦®à¦¸à¦®":2207,"à¦¸à¦¡":2208,"à¦¦à¦ľ":2209,"à¦¦à¦ļ":2210,"Ġà¦¸à¦¡":2211,"Ġà¦¬à¦£":2212,"à¦ªà¦¬à¦¨":2213,"Ġà¦ķà¦¦":2214,"Ġà¦®à¦¥":2215,"Ġà¦®à¦Ĺà¦¨":2216,"à¦¶à¦Ńà¦ķ":2217,"à¦ľà¦ķà¦¨":2218,"Ġà¦¦à¦°à¦¬":2219,"Ġà¦¦à¦®à¦ķ":2220,"à¦Ĺà¦°à¦¤":2221,"à¦Ĺà¦°à¦¬":2222,"à¦·à§İ":2223,"Ġà¦¤à¦¬à¦²":2224,"à¦£à¦®à¦¨":2225,"Ġà¦Ĺà¦°à¦¬":2226,"Ġà¦Ĺà¦®à¦¨":2227,"à¦¥à¦¸":2228,"Ġà¦¯à¦ķ":2229,"à¦ĩà¦¶":2230,"Ġà¦°à¦¨":2231,"Ġà¦°à¦ĩà¦¬":2232,"à¦Ńà¦¸":2233,"à¦łà¦Ĺà¦¡":2234,"Ġà¦ħà¦¨à¦°":2235,"Ġà¦²à¦ĩ":2236,"Ġà¦²à¦ĩà¦²":2237,"à¦Ĩà¦ļ":2238,"à§ľà¦¤":2239,"Ġà¦Ĩà¦²à¦®":2240,"Ġà¦ĵà¦²":2241,"à¦°à¦¬à¦ļ":2242,"à¦ħà¦¥":2243,"à¦¤à¦°à¦®":2244,"à¦ıà¦Ĺ":2245,"à¦¦à¦¨à¦ķ":2246,"Ġà¦Ĩà¦¶à¦Ļ":2247,"à¦®à¦¨à¦¸":2248,"à¦«à¦¡":2249,"à¦ľà¦¨à¦ķ":2250,"à¦¨à¦¬à¦®à¦¨":2251,"à¦¨à¦¬à¦ľà¦¨":2252,"Ġà¦ĩà¦¸à¦²":2253,"à¦²à¦ķà¦§":2254,"Ġà¦Ŀà¦°à¦Ľ":2255,"à¦ĩà¦²à¦¶":2256,"à¦ªà¦¦à¦ļ":2257,"Ġà¦®à¦²à§Ł":2258,"à¦°à¦Ĩà¦²":2259,"à¦°à¦Ĺà¦²":2260,"à¦²à¦§":2261,"à¦²à¦¦à¦²":2262,"à¦¬à§Łà¦¸":2263,"à¦ķà§Ł":2264,"à¦ķà¦ĩ":2265,"à¦¦à¦ĵ":2266,"à¦¦à¦Ńà¦°":2267,"Ġà¦¸à¦¸":2268,"Ġà¦¬à¦¶":2269,"Ġà¦Ĩà¦Ł":2270,"Ġà¦¨à¦¸":2271,"à¦¶à¦ĸ":2272,"à¦ľà¦²à¦ķ":2273,"à¦§à¦ļ":2274,"Ġà¦¤à¦ķ":2275,"Ġà¦¤à¦¡":2276,"à¦¥à¦ª":2277,"à¦ĩà¦Ĺ":2278,"à¦ĩà¦ľà¦¨":2279,"Ġà¦¶à§Łà¦¤":2280,"à¦Ńà§İà¦¸":2281,"Ġà¦īà¦ľà¦²":2282,"à¦¬à¦¨à¦ľ":2283,"Ġà¦²à¦ĩà¦¬":2284,"Ġà¦²à¦¹à¦®":2285,"Ġà¦ĸà¦¨à¦¨":2286,"Ġà¦§à¦¡":2287,"à¦°à¦¬à¦Ĺ":2288,"à¦ħà¦¬à¦²":2289,"à¦¤à¦°à¦ľ":2290,"à¦ıà¦ª":2291,"à¦°à¦£à¦®":2292,"à¦īà¦®":2293,"Ġà¦ªà¦¥à¦Ń":2294,"à¦®à¦¨à¦ĩ":2295,"à¦¨à¦¬à¦¦":2296,"Ġà¦¬à¦¨à¦¸":2297,"à¦ļà¦²à¦¬":2298,"à¦·à¦£à¦ķ":2299,"Ġà¦Ĩà¦¨à¦²":2300,"Ġà¦Łà¦ķà¦Łà¦ķ":2301,"Ġà¦ľà¦®à¦¤":2302,"Ġà¦ķà¦²à¦°":2303,"à¦°à¦Ńà¦°":2304,"Ġà¦®à¦¹à¦²":2305,"à¦ıà¦ĩà¦°":2306,"à¦Ĩà¦²à¦¸":2307,"Ġà¦¯à¦¤à¦ķ":2308,"Ġà¦īà¦ªà¦¬":2309,"à§§à§¯":2310,"à¦¯à¦ĸà¦¨à¦ĩ":2311,"à¦¯à¦¬à¦§":2312,"Ġà¦Ĺà¦£à¦¤à¦¨":2313,"Ġà¦®à§Łà¦¦":2314,"à¦²à¦ĵ":2315,"à¦¬à¦¦à¦¨":2316,"à¦¬à¦Łà¦¬":2317,"à¦¯à¦ĸ":2318,"à¦¯à¦°à¦¶":2319,"à¦ķà¦Ļ":2320,"à¦ķà¦®à¦¯":2321,"à¦¸à¦ł":2322,"Ġà¦¬à¦¤":2323,"Ġà¦¬à¦°à¦¨":2324,"Ġà¦¬à¦ĩà¦¬":2325,"à¦ªà¦ķà¦²":2326,"Ġà¦®à¦Ĺà¦ľ":2327,"à¦¶à¦ĵ":2328,"à¦¹à¦ĩ":2329,"à¦§à¦²":2330,"Ġà¦¹à¦°à¦£":2331,"à¦ĸà§ľ":2332,"à¦·à¦ªà¦°":2333,"à¦£à¦Ł":2334,"à¦£à¦¤à¦°":2335,"à¦£à¦«":2336,"Ġà¦Ĺà¦¬":2337,"Ġà¦ļà¦°à¦ķ":2338,"Ġà¦ļà¦¶à¦®":2339,"à§Ĥà¦ģ":2340,"à¦Ļà¦°":2341,"Ġà¦«à¦¨":2342,"Ġà¦īà¦ªà¦¦":2343,"Ġà¦īà¦Ľà¦²":2344,"à¦¬à¦¨à¦¹":2345,"à¦¬à¦¨à¦Ł":2346,"à¦Ĩà¦¬à¦°":2347,"à§ľà¦®":2348,"Ġà¦ĵà¦¹":2349,"Ġà¦ıà¦ķà¦¶":2350,"Ġà¦ıà¦ķà¦®à¦¨":2351,"à¦°à¦£à¦Ń":2352,"Ġà¦¡à¦Ļ":2353,"Ġà¦Ĩà¦Ľà§ľ":2354,"Ġà¦ļà¦²à¦²":2355,"à¦§à¦ķà¦¤":2356,"Ġà¦Ĺà¦²à¦¦":2357,"Ġà¦ħà¦¶à¦¨":2358,"à¦²à¦¨à¦ķ":2359,"à¦²à¦¨à¦¸":2360,"à¦ıà¦ĩà¦¸à¦¬":2361,"Ġà¦¶à¦¤à¦ķ":2362,"Ġà¦īà§ľà¦¤":2363,"Ġà¦īà¦²à¦Ł":2364,"à¦¸à¦¹à¦®à¦°":2365,"à¦¨à¦«":2366,"à¦¨à¦®à¦£":2367,"à¦²à¦¹à¦°":2368,"à¦®à¦¬à¦¨":2369,"à¦¸à¦ľà¦²":2370,"Ġà¦¸à¦ĺà¦¨":2371,"Ġà¦Ĩà¦¦à¦²":2372,"Ġà¦ªà§Łà¦¸":2373,"Ġà¦®à¦ķ":2374,"Ġà¦®à¦°à¦¤":2375,"à¦¶à¦Ĺ":2376,"Ġà¦ħà¦ĸ":2377,"à¦Ĺà¦®à¦¯":2378,"à¦·à¦Ĺ":2379,"à¦£à¦¯":2380,"à¦ļà¦ªà¦²":2381,"à¦ĩà¦ľ":2382,"Ġà¦¶à§Łà¦¨":2383,"Ġà¦°à¦ĺ":2384,"à¦Ńà¦¦":2385,"à¦Ļà¦ķ":2386,"Ġà¦ıà§ľ":2387,"Ġà¦ķà¦°à¦¨":2388,"à¦¬à¦¨à¦ļ":2389,"Ġà¦Ĩà¦²à¦¯":2390,"Ġà¦§à¦°à¦¨":2391,"à¦°à¦¬à¦Ń":2392,"Ġà¦Ĩà¦®à¦²":2393,"Ġà¦ħà¦®à¦Ļ":2394,"à¦ĺà§ľ":2395,"à¦¤à¦°à¦ª":2396,"à¦¬à¦²à¦®":2397,"Ġà¦ªà¦¥à¦Ł":2398,"Ġà¦ĺà¦°à¦¬":2399,"à¦¬à¦°à¦«":2400,"Ġà¦Ĩà¦°à¦¶":2401,"Ġà¦ħà¦¬à¦ľ":2402,"Ġà¦ľà¦²à¦¬":2403,"Ġà¦ľà¦²à¦°à¦Ļ":2404,"Ġà¦ĩà¦°":2405,"Ġà¦ħà¦ķà¦ªà¦Ł":2406,"à¦¦à¦°à¦¦":2407,"Ġà¦łà¦ķ":2408,"à¦°à¦¦à¦²":2409,"Ġà¦¹à¦²à¦¦":2410,"à¦Ĩà¦²à¦¤":2411,"Ġà¦ħà¦²à¦¸à¦¤":2412,"Ġà¦Ĺà§ľà¦¤":2413,"à¦°à¦ĩà¦²":2414,"à¦¤à¦ķà¦£":2415,"à¦ªà¦Łà¦ª":2416,"à¦¨à¦Ńà¦Ļ":2417,"à§§à§«":2418,"Ġà¦¤à¦ĸà¦¨à¦ĵ":2419,"à¦Ĩà¦¸à¦Ľ":2420,"à¦Ĺà¦£à¦¤à¦¨":2421,"à¦¶à¦°à§İ":2422,"à¦ıà¦®à¦¨à¦ĩ":2423,"à¦ħà¦ķà¦¸":2424,"Ġà¦¦à¦¶à¦Ł":2425,"ĠĠĠč":2426,"à¦¨à¦°à¦ķ":2427,"à¦¨à¦ľà¦°":2428,"à¦²à¦¨à¦¬":2429,"à¦²à¦ªà¦¤":2430,"à§ģà§į":2431,"à¦¯à¦ķà¦°":2432,"à¦ķà¦ĵ":2433,"à¦®à¦Ļ":2434,"à¦®à¦Ĺà¦¨":2435,"Ġà¦¸à¦ļà¦²":2436,"Ġà¦¸à¦«à¦Ł":2437,"Ġà¦Ĩà¦ĵ":2438,"à¦ªà¦Ŀ":2439,"Ġà¦ķà¦¸":2440,"Ġà¦ķà¦«":2441,"Ġà¦ķà¦¤à¦¨":2442,"Ġà¦ķà¦¤à¦¬":2443,"à¦ľà¦ĸ":2444,"à§Łà¦ļ":2445,"à¦¹à¦ļ":2446,"à¦¹à¦¬à¦¨":2447,"à¦¹à¦Ńà¦°":2448,"à¦Ĺà¦®à¦¨":2449,"à¦£à¦®à§Ł":2450,"à¦Ľà¦¦":2451,"à¦Ľà¦Ĺ":2452,"à¦Ľà¦¤à¦²":2453,"Ġà¦Ĺà¦ł":2454,"à¦ĩà¦¡":2455,"à¦ĩà¦¸à¦¬":2456,"Ġà¦ļà¦ĸ":2457,"Ġà¦Ľà¦ķ":2458,"Ġà¦ıà¦®":2459,"à¦°à¦¤à¦¬":2460,"Ġà¦īà¦¤à¦²":2461,"à¦¬à¦¨à¦Ĺ":2462,"à¦ĵà¦Ł":2463,"Ġà¦²à¦²à¦¨":2464,"Ġà¦Ĩà¦²à¦Ĺ":2465,"à¦ħà¦¬à¦°":2466,"à¦ĺà¦¡":2467,"à¦ĺà¦¬à¦¦":2468,"Ġà¦®à¦¨à¦ĸ":2469,"Ġà¦®à¦¨à¦¨à¦¶":2470,"à¦ıà¦¸à¦¬":2471,"Ġà¦ĺà¦Łà¦¨":2472,"à¦®à¦¨à¦Ł":2473,"Ġà¦ªà¦°à¦ķ":2474,"Ġà¦ªà¦°à¦ĵ":2475,"à¦ľà¦¨à¦¹":2476,"à¦¨à¦¬à¦¯":2477,"à¦ļà¦²à¦®":2478,"à¦°à¦®à¦¦":2479,"Ġà¦ľà¦²à¦ľ":2480,"à¦ıà¦ķà¦®":2481,"à¦²à¦ķà¦£":2482,"à¦¸à¦¬à¦ļ":2483,"Ġà¦ıà¦ĩà¦¬":2484,"Ġà¦ľà¦¨à¦¸":2485,"Ġà¦ľà¦¨à¦ªà¦¦":2486,"à¦ķà¦¤à¦ĩ":2487,"Ġà¦ªà§ľà¦¬":2488,"Ġà¦®à¦¹à¦¤":2489,"Ġà¦ħà¦ªà¦¬":2490,"à¦¹à¦¨à¦¶":2491,"Ġà¦Ĳà¦¨":2492,"à¦¨à¦ªà¦ŀ":2493,"à¦ħà¦Ĺà¦£à¦¨":2494,"à§¨à§®":2495,"à¦Ĩà¦¨à¦®à¦¨":2496,"Ġà¦®à¦¸à¦ľ":2497,"Ġà¦ªà¦Ļà¦ķ":2498,"à¦°à¦ªà¦Ł":2499,"à¦¨à¦§":2500,"à¦¤à§ľ":2501,"à¦²à¦ĩ":2502,"à¦²à¦¤à¦°":2503,"à¦²à¦ªà¦¥":2504,"à¦¬à§İ":2505,"à¦¯à¦°à¦¸":2506,"à¦¯à¦Ĺà¦£":2507,"à¦ķà¦ĸ":2508,"à¦®à¦¥":2509,"à¦®à¦ªà¦¥":2510,"à¦®à¦¹à¦²":2511,"à¦¸à¦ĩ":2512,"à¦¦à¦ĩ":2513,"à¦¦à¦²à¦¬":2514,"Ġà¦¸à¦Ńà¦¯":2515,"Ġà¦¬à¦ī":2516,"Ġà¦Ĩà¦ļà¦°à¦£":2517,"à¦ªà¦§":2518,"Ġà¦ªà¦¸":2519,"Ġà¦ħà¦·":2520,"à¦ľà¦ĩ":2521,"à§Łà¦²":2522,"à§Łà¦ª":2523,"à¦¹à¦ĸ":2524,"à¦Ĺà¦ļ":2525,"à¦Łà¦ĸ":2526,"à¦·à¦Ļ":2527,"Ġà¦¤à§ľ":2528,"à¦Ľà¦ķ":2529,"Ġà¦Ĺà¦¯":2530,"à¦ĩà¦Ļ":2531,"Ġà¦ļà¦£":2532,"à¦Ļà¦ļ":2533,"Ġà¦ıà¦°à¦ķà¦®":2534,"à¦°à¦¤à¦Ń":2535,"Ġà¦īà¦¥":2536,"Ġà¦īà¦ªà¦¨":2537,"à¦¬à¦¨à¦ĸ":2538,"à¦Ĩà¦ª":2539,"Ġà¦ĸà¦ŀ":2540,"Ġà¦ĸà¦°à¦ļ":2541,"Ġà¦Ĩà¦²à§Ł":2542,"Ġà¦ĵà¦Ł":2543,"à¦°à¦¬à¦ŀ":2544,"à¦ĺà¦ķ":2545,"à¦ĺà¦¸":2546,"à¦ĺà¦ª":2547,"à¦¤à¦°à¦¹":2548,"à¦¬à¦²à§Ł":2549,"à¦°à¦£à¦ķ":2550,"à¦īà¦¤à¦²":2551,"Ġà¦ªà¦¥à¦¶":2552,"à¦¬à¦°à¦¨":2553,"à¦ªà¦°à¦¦":2554,"Ġà¦ªà¦°à¦²":2555,"à¦¨à¦¬à¦ķ":2556,"à¦°à¦ķà¦Ł":2557,"à¦ķà¦²à¦¸":2558,"à¦ķà¦²à¦¹":2559,"à¦ªà¦¥à¦Ń":2560,"Ġà¦ľà¦²à¦Ľ":2561,"à¦¯à¦¤à¦ķ":2562,"à¦¸à¦¬à¦ķ":2563,"Ġà¦¨à¦¬à¦¸":2564,"Ġà¦¨à¦¬à¦¦":2565,"Ġà¦¨à¦¬à¦ļ":2566,"Ġà¦ªà§ľà¦¤":2567,"à¦ıà¦ĩà¦¬":2568,"à¦¬à¦¤à¦¶":2569,"ĠĠčĊĠĠč":2570,"à¦ķà¦¨à¦ķ":2571,"à¦ªà¦¤à¦Ļ":2572,"Ġà¦ªà¦°à¦¶à¦®à¦£":2573,"Ġà¦¶à¦¹à¦°à¦Ĺ":2574,"Ġà¦ļà¦°à¦£à¦§":2575,"Ġà¦ĭà¦ľ":2576,"ÂłÂłÂłÂłÂłÂłÂłÂłÂłÂłÂłÂłÂłÂłÂłÂłÂłÂłÂłÂłÂłÂłÂłÂł":2577,"à§¨à§§":2578,"à§¨à§¦":2579,"à¦¬à¦Łà¦Ĺ":2580,"Ġà¦¬à¦Łà¦Ĺ":2581,"ĠĠčĊčĊĠĠč":2582,"Ġà¦¾":2583,"à¦¨à¦¸à¦¨":2584,"à¦¤à¦Ĺà¦¤":2585,"à¦²à¦¬à¦°":2586,"à¦²à¦®à¦¨":2587,"à¦¬à¦ĸ":2588,"à¦¬à¦®à¦¯":2589,"à¦¬à¦¸à¦°":2590,"à¦¬à¦¶à¦ķ":2591,"à¦¯à¦¸à¦®":2592,"à¦ķà¦°à¦¤":2593,"à¦ķà¦¤à¦¨":2594,"à¦®à¦®à§Ł":2595,"à¦®à¦ĺà¦¨":2596,"à¦¦à¦Ł":2597,"à¦¦à¦«":2598,"à¦¦à¦°à¦®":2599,"Ġà¦¸à¦¦à¦¨":2600,"Ġà¦¬à¦¨à¦¬":2601,"Ġà¦Ĩà¦ŀ":2602,"Ġà¦Ĩà¦ĩà¦¸":2603,"à¦ªà¦¯":2604,"Ġà¦ªà¦¹":2605,"Ġà¦¨à¦¬à¦¨":2606,"Ġà¦¨à¦¬à¦ª":2607,"à¦¶à¦ĩ":2608,"à¦ľà¦¶":2609,"à¦¹à¦Ł":2610,"à¦§à¦¦":2611,"Ġà¦¹à¦ľ":2612,"à¦ĸà¦ĩ":2613,"à¦ĸà¦Ń":2614,"à¦ĸà¦°à¦¤":2615,"à¦ĸà¦Ńà¦°":2616,"à¦Ĺà¦¶":2617,"à¦·à¦ĵ":2618,"à¦·à¦¤à¦²":2619,"à¦£à¦¸à¦®":2620,"à¦Ľà¦¸":2621,"Ġà¦Ńà¦°à¦¤":2622,"à¦ļà¦¶":2623,"à¦¥à¦¶":2624,"à¦ĩà¦ĩ":2625,"à¦¡à¦®":2626,"à¦Ńà¦¬à¦¤":2627,"à¦Ńà¦°à¦¯":2628,"Ġà¦ıà¦¤à¦ķ":2629,"Ġà¦«à§ľ":2630,"Ġà¦īà¦Ńà¦¯":2631,"à¦¬à¦¨à¦¨":2632,"à¦¬à¦¨à¦ļà¦ķ":2633,"à¦ĵà¦ķ":2634,"Ġà¦ĸà¦¤":2635,"Ġà¦Ĩà¦²à¦ª":2636,"Ġà¦§à¦®à¦ķ":2637,"à¦ħà¦¸à¦¤":2638,"Ġà¦ıà¦ķà¦ľ":2639,"à¦ĺà¦Łà¦¨":2640,"à¦Ŀà¦Ł":2641,"à¦Ŀà¦ªà¦¥":2642,"à¦¬à¦²à¦¯":2643,"à¦ıà¦Ĩ":2644,"à¦ıà¦°à¦ķà¦®":2645,"à¦ıà¦Ĩà¦ĩ":2646,"à¦°à¦£à¦¹":2647,"Ġà¦ªà¦¥à¦ĺ":2648,"Ġà¦Ĩà¦°à¦ķ":2649,"Ġà¦¨à¦¤à¦¶":2650,"à¦¨à¦¬à¦¬":2651,"à¦ļà¦²à¦¨":2652,"à¦¦à§Łà¦Ł":2653,"à¦·à¦£à¦¹":2654,"à¦®à¦²à¦¯":2655,"à¦ªà¦¥à¦Ĺ":2656,"à¦ªà¦¥à¦ļ":2657,"Ġà¦Łà¦¨":2658,"Ġà¦Łà¦Ļ":2659,"Ġà¦Łà¦ªà¦ķ":2660,"à¦¸à¦®à¦°":2661,"Ġà¦¬à¦¸à¦²":2662,"à¦°à¦Ńà¦ŀ":2663,"à¦ķà¦¤à¦ķ":2664,"à¦°à¦¸à¦¤":2665,"à¦Łà¦²à¦®à¦²":2666,"à¦°à¦¹à¦¤":2667,"à¦Ĩà¦²à¦¯":2668,"à¦°à¦¶à¦¸":2669,"Ġà¦¯à¦¤à¦Ł":2670,"Ġà¦¨à§Łà¦¨à¦ª":2671,"Ġà¦Ĺà¦¹à¦¬à¦°":2672,"à¦°à¦²à¦¸":2673,"Ġà¦¸à¦ķà¦²à¦ķ":2674,"à¦¨à¦°à¦Ļ":2675,"Ġà¦īà§ľà¦Ľ":2676,"Ġà¦Ńà§Łà¦ķ":2677,"à¦ľà§Łà¦ķ":2678,"à¦ľà§Łà¦Ĺ":2679,"à§§à§¨":2680,"à§§à§ª":2681,"à§§à§®":2682,"Ġà¦īà¦²à¦Ļ":2683,"à¦¨à¦ªà¦¤à¦¨":2684,"à¦ħà¦Ĺà¦£":2685,"à¦īà¦łà¦¬":2686,"à¦ħà¦ªà¦²à¦ķ":2687,"Ġà¦Īà¦®":2688,"Ġà§§à§¯":2689,"à¦Īà¦°":2690,"à¦Ĭà¦·":2691,"à¦Ŀà¦ķà¦Ŀà¦ķ":2692,"à¦ĭà¦·":2693,"Ġà§·":2694,"à¦°à¦Ĩà¦®":2695,"à¦°à¦ªà¦¤":2696,"à¦¨à¦¤à¦°":2697,"à¦¨à¦¬à¦°":2698,"à¦¨à¦ĩà¦²":2699,"à¦¤à¦°à¦¤":2700,"à¦¤à¦ĵ":2701,"à¦¤à¦Ĩ":2702,"à¦¤à¦«":2703,"à¦¤à¦ľà¦²":2704,"à¦¤à¦®à§Ł":2705,"à¦¤à¦ļà¦ķ":2706,"à¦¤à¦ªà¦¸":2707,"à¦²à¦ľà§Ł":2708,"à¦¬à¦°à¦¬":2709,"à¦¬à¦ľà¦¯":2710,"à¦¯à¦Ł":2711,"à¦¯à¦¬à¦¤":2712,"à¦¼à¦ĥ":2713,"à¦®à¦ªà¦¤":2714,"à¦¸à¦°à¦£":2715,"Ġà¦¸à¦¦à¦¯":2716,"Ġà¦¸à¦¹à¦¨à¦¶":2717,"à¦ªà¦īà¦·":2718,"Ġà¦ªà¦ļ":2719,"Ġà¦ķà¦®à¦¨":2720,"Ġà¦®à¦°à¦¬":2721,"Ġà¦®à¦¦à¦¨":2722,"Ġà¦¨à¦¶":2723,"à¦¶à¦°à¦®":2724,"à¦¶à¦ľà¦²":2725,"Ġà¦ħà¦ķà¦²":2726,"Ġà¦ħà¦¯à¦¥":2727,"à¦ľà¦§":2728,"à§Łà¦¹":2729,"à¦¹à¦®à§Ł":2730,"Ġà¦¦à¦¤":2731,"Ġà¦¦à¦«":2732,"Ġà¦¦à¦°à¦¶":2733,"à¦ĸà¦®à¦£":2734,"à¦Ĺà¦°à¦®":2735,"à¦Łà¦¬à¦²":2736,"Ġà¦¤à¦®à¦¸":2737,"à¦£à¦Ńà¦°":2738,"à¦Ľà¦²à¦¨":2739,"Ġà¦Ńà¦Ł":2740,"Ġà¦°à¦ĵ":2741,"à¦Ńà¦°à¦¸":2742,"à¦Ļà¦Ľ":2743,"Ġà¦ıà¦ľ":2744,"Ġà¦«à¦°à¦®":2745,"Ġà¦īà¦®à¦°":2746,"à¦ĵà¦¹":2747,"Ġà¦ħà¦¨à¦¡":2748,"Ġà¦²à¦£":2749,"à¦Ĩà¦°à¦¤":2750,"à¦Ĩà¦°à¦®":2751,"à¦Ĩà¦Łà¦ķ":2752,"à¦Ĩà¦¹à¦¤":2753,"Ġà¦ĵà¦®":2754,"Ġà¦ĵà¦ĸ":2755,"Ġà¦ĵà§ľà¦¨":2756,"à¦°à¦¬à¦®à§Ł":2757,"Ġà¦Ĩà¦®à¦²à¦ķ":2758,"à¦ħà¦¬à¦¨":2759,"à¦ıà¦¤à¦ķ":2760,"à¦īà¦¦à§Ł":2761,"à¦¦à¦¨à¦¶":2762,"à¦®à¦¨à¦ķ":2763,"à¦®à¦¨à¦®":2764,"Ġà¦ħà¦¬à¦®":2765,"Ġà¦¬à¦¨à¦ªà¦¥":2766,"à¦°à¦®à§Ł":2767,"à¦ħà¦¨à¦²":2768,"ÂłÂłÂłÂłÂłÂłÂłÂłÂłÂłÂłÂłÂłÂłÂłÂłÂłÂłÂłÂłÂłÂłÂł":2769,"à¦ıà¦ķà¦ľ":2770,"Ġà¦ĩà¦ŀ":2771,"à¦²à¦ķà¦¬":2772,"à¦²à¦ķà¦ļ":2773,"Ġà¦ħà¦ľà¦°":2774,"Ġà¦ķà¦²à¦¹":2775,"Ġà¦ªà§ľà¦Ľ":2776,"à¦ıà¦ĩà¦¯":2777,"à¦·à¦¤à¦ļ":2778,"à¦Ĺà¦²à¦®à¦¯":2779,"à¦£à¦¤à¦®":2780,"Ġà¦ħà¦§à¦®":2781,"à¦¥à¦°à¦Ĺ":2782,"Ġà¦Ĩà¦ªà¦¨à¦®à¦¨":2783,"à¦¦à¦®à¦¬à¦¨":2784,"Ġà¦īà¦ªà¦¬à¦¨":2785,"Ġà¦ļà¦°à¦£à¦ļ":2786,"à§§à§¬":2787,"à§§à§Ń":2788,"à¦Ĺà¦®à¦ŀ":2789,"à¦ķà¦¸à¦ĩ":2790,"Ġà¦·à¦¡":2791,"Ġà¦Ŀà¦¨à¦Ŀà¦¨":2792,"Ġà¦Ķà¦ľ":2793,"Ġà¦ļà¦®à§İà¦ķ":2794,"à¦¦à¦°à¦®à¦¹à¦²":2795,"à¦¾à§ĩ":2796,"à¦°à¦§à¦°":2797,"à¦°à¦Ĺà¦£":2798,"à¦¨à¦ĺ":2799,"à¦¨à¦ªà¦¤":2800,"à¦¨à¦ªà¦Ł":2801,"à¦¨à¦®à¦¸":2802,"à¦¤à¦¤à¦®":2803,"à¦²à¦¥":2804,"à¦²à¦ŀ":2805,"à¦²à¦ªà¦°":2806,"à¦²à¦®à¦§":2807,"à¦¬à¦ī":2808,"à¦¬à¦ĩà§Ł":2809,"à¦¯à¦ľà¦¨":2810,"à¦¯à¦°à¦ķà¦®":2811,"à¦ķà¦ľà¦¨":2812,"à¦®à¦ªà¦°":2813,"à¦®à¦°à¦¨":2814,"à¦¸à¦Ĺ":2815,"à¦¸à¦ľà¦¨":2816,"à¦¦à¦Ļ":2817,"à¦¦à¦ĺà¦¨":2818,"Ġà¦¸à¦«":2819,"Ġà¦¸à¦ķà¦°":2820,"Ġà¦¸à¦ĵà¦Ĺ":2821,"Ġà¦¬à§İà¦¸":2822,"Ġà¦Ĩà¦ł":2823,"Ġà¦Ĩà¦°à¦£":2824,"à¦ªà¦¸à¦®":2825,"Ġà¦ªà¦¸à¦°":2826,"à¦¶à§Łà¦¨":2827,"Ġà¦ħà¦¡":2828,"à¦ľà¦°à¦£":2829,"à§Łà¦¦":2830,"à¦§à¦¬à¦²":2831,"Ġà¦¹à¦ķ":2832,"Ġà¦¦à§ľ":2833,"à¦ĸà¦¹":2834,"à¦Ĺà¦łà¦¨":2835,"à¦·à¦ªà¦¥":2836,"à¦Ľà¦²à¦¤":2837,"à¦¥à¦Ĺ":2838,"à¦¥à¦Ń":2839,"à¦¥à¦ªà¦°":2840,"Ġà¦ľà¦Ĺà¦¬à¦¨":2841,"à¦ĩà¦®à¦¤":2842,"à¦¡à¦ļ":2843,"Ġà¦¶à¦®":2844,"Ġà¦¶à¦ĸ":2845,"Ġà¦¶à¦¤à¦¬":2846,"Ġà¦ļà¦ķà¦²":2847,"à¦Ńà¦¤":2848,"Ġà¦Ľà¦²à¦ķ":2849,"Ġà¦«à¦Ł":2850,"Ġà¦«à¦²à¦¨":2851,"Ġà¦«à¦²à¦¬":2852,"à¦¬à¦¨à¦¶":2853,"à¦¬à¦¨à¦ĩ":2854,"à¦¬à¦¨à¦«":2855,"Ġà¦ħà¦¨à¦¤":2856,"Ġà¦²à¦ĩà¦¤":2857,"Ġà¦ıà¦ķà¦Ĺ":2858,"Ġà¦ıà¦ķà¦ļ":2859,"à¦ĺà¦¦":2860,"à¦ĺà¦«":2861,"à¦īà¦¸":2862,"Ġà¦ªà¦¥à¦ĩ":2863,"Ġà¦¸à¦¬à¦ľ":2864,"Ġà¦¸à¦¬à¦ĸ":2865,"à¦°à¦¨à¦¦":2866,"à¦ļà¦²à¦Ľ":2867,"Ġà¦ľà¦²à¦®":2868,"Ġà¦°à¦Ļà¦§à¦¨":2869,"Ġà¦ħà¦¸à¦¤":2870,"Ġà¦Łà¦¬":2871,"Ġà¦ľà¦¨à¦ķ":2872,"Ġà¦ľà¦¨à¦¹":2873,"à¦²à¦¬à¦§":2874,"à¦ľà¦²à¦ª":2875,"à¦°à¦¦à¦ķ":2876,"à¦Ĺà¦°à¦¸":2877,"à¦°à¦¹à¦¹":2878,"à¦ıà¦ĩà¦Ł":2879,"Ġà¦ªà¦¦à¦¸":2880,"à¦Ĺà¦²à¦ª":2881,"à¦®à¦ķà¦¥":2882,"à¦ħà¦¬à¦¸à¦¨":2883,"Ġà¦īà¦ªà¦²à¦ķ":2884,"à¦ķà¦ĸà¦¨à¦ĵ":2885,"Ġà¦ĺà¦¨à¦ĺ":2886,"Ġà¦Ńà§Łà¦Ļ":2887,"Ġà¦ıà¦¤à¦Ł":2888,"à§¨à§¬":2889,"Ġà¦ıà¦®à¦¨à¦ĩ":2890,"Ġà¦¢à¦²à¦¢à¦²":2891,"Ġà¦°à¦£à¦Ń":2892,"Ġà¦ĸà¦¸à¦¡":2893,"Ġà¦ĸà¦¸à¦ĸà¦¸":2894,"Ġà¦¨à§Łà¦¨à¦ľà¦²":2895,"à¦¬à¦®à¦ŀ":2896,"à¦Īà¦¦":2897,"à¦Īà¦·à§İ":2898,"à¦īà¦ªà¦¹":2899,"Ġà¦ħà¦¬à¦¨à¦¤":2900,"à¦īà§İà¦ķà¦£":2901,"Ġà¦¸à¦«à¦Łà¦ĵà¦¯":2902,"ĠÂłÂłÂłÂłÂłÂłÂłÂłÂłÂłÂłÂłÂłÂł":2903,"à¦°à¦¨à¦¤":2904,"à¦¨à¦ľà¦¨":2905,"à¦¨à¦¸à¦®":2906,"à¦¤à¦¬à¦¨":2907,"à¦¤à¦Ńà¦°":2908,"à¦¤à¦°à¦¤à¦®":2909,"à¦²à¦£":2910,"à¦²à¦¤à¦²":2911,"à¦¬à¦ĩà¦¯":2912,"à¦¯à¦ªà¦°":2913,"à¦¯à¦¨à¦¤":2914,"à¦¯à¦ķà¦²":2915,"à¦¯à¦¦à¦²":2916,"à¦ķà¦¤à¦°":2917,"à¦®à¦¦à¦¨":2918,"à¦®à¦°à¦ķ":2919,"à¦®à¦ľà¦²":2920,"à¦¸à¦°à¦¤":2921,"à¦¸à¦ªà¦¨":2922,"à¦¸à¦°à¦®":2923,"à¦¦à¦ķà¦£":2924,"Ġà¦Ĩà¦ĩ":2925,"Ġà¦ªà¦Łà¦²":2926,"Ġà¦ªà¦°à¦¬à¦°":2927,"Ġà¦ķà¦ŀ":2928,"Ġà¦®à¦ĸ":2929,"Ġà¦®à§ľ":2930,"Ġà¦®à¦¸à¦²":2931,"à¦¶à¦®à¦¨":2932,"à¦¶à¦®à¦¯":2933,"Ġà¦ħà¦¯à¦¤":2934,"à¦§à¦Ľ":2935,"à¦·à¦ľ":2936,"Ġà¦Ńà¦¦":2937,"à¦¡à¦ĵà¦¯":2938,"à¦Ļà§ľ":2939,"à¦łà¦ª":2940,"Ġà¦ıà¦¶":2941,"Ġà¦ıà¦Ń":2942,"Ġà¦«à¦ķ":2943,"Ġà¦«à¦¸":2944,"Ġà¦ķà¦°à¦£":2945,"Ġà¦īà¦ķ":2946,"Ġà¦īà¦Ł":2947,"Ġà¦īà¦Ńà§Ł":2948,"à¦¬à¦¨à¦Ńà¦°":2949,"à¦ĵà¦¬":2950,"Ġà¦ħà¦¨à§ľ":2951,"à¦Ĩà¦°à¦ķ":2952,"à¦Ĩà¦ĩà¦²":2953,"à¦Ĩà¦ĩà¦¸":2954,"Ġà¦ĸà¦ĩ":2955,"à§ľà¦¹":2956,"Ġà¦§à¦¬":2957,"à¦¬à¦ªà¦°":2958,"à¦°à¦¬à¦¦":2959,"à¦ħà¦¹à¦°":2960,"à¦ħà¦¬à¦¤":2961,"Ġà¦ıà¦ķà¦¤à¦°":2962,"à¦Ŀà¦Ļ":2963,"à¦īà¦§":2964,"à¦īà¦¥à¦²":2965,"Ġà¦ªà¦¥à¦¬":2966,"Ġà¦ªà¦¥à¦Ĺ":2967,"à¦¬à¦°à¦¸":2968,"à¦¬à¦°à¦Ļ":2969,"à¦¦à¦¨à¦¬":2970,"Ġà¦Ŀà¦°à¦£":2971,"à¦«à¦£":2972,"à¦«à¦²à¦ķ":2973,"à¦¤à¦¨à¦¦":2974,"Ġà¦¸à¦®à¦Ŀ":2975,"à¦ľà¦¨à¦¬":2976,"à¦ľà¦¨à¦¸":2977,"à¦¨à¦¬à¦¬à¦¨":2978,"Ġà¦ħà¦®à¦²à¦¤":2979,"Ġà¦¬à¦²à¦¦":2980,"à§İà¦¬":2981,"à¦§à¦ķà¦°":2982,"à¦¦à§Łà¦ª":2983,"à¦¦à§Łà¦ľ":2984,"à¦ķà¦²à¦ķà¦²":2985,"Ġà¦Ĩà¦ľà¦¬":2986,"à¦¯à¦¤à¦²":2987,"à¦¯à¦¤à¦Ł":2988,"Ġà¦ıà¦ĩà¦Ł":2989,"Ġà¦ħà¦¶à¦°":2990,"Ġà¦ķà¦²à¦§":2991,"à¦°à¦Ńà¦Ļ":2992,"à¦¸à¦°à¦ĺà¦°":2993,"à¦ķà¦¤à¦¦":2994,"Ġà¦ªà¦¦à¦¬":2995,"Ġà¦ħà¦ªà¦¸":2996,"Ġà¦ĺà¦°à¦ĺà¦°":2997,"à¦°à¦¥à¦®à¦¬":2998,"Ġà¦Ĺà¦°à¦²":2999,"Ġà¦¸à¦ķà¦²à¦ĩ":3000,"à¦¨à¦ķà¦£":3001,"à¦ĺà¦°à¦ĺà¦°":3002,"Ġà¦ħà¦¤à¦²à¦¸":3003,"à¦¹à¦¤à¦Ń":3004,"Ġà¦¸à¦®à§Łà¦ķ":3005,"à¦¤à¦ĸà¦¨à¦ĵ":3006,"à¦®à¦¶à¦¹à¦°":3007,"à§¨à§ª":3008,"à§¨à§«":3009,"à¦īà¦łà¦²":3010,"Ġà¦Ĩà§ľà¦®":3011,"Ġà¦Ĩà¦§à¦ĸ":3012,"Ġà¦¤à¦¤à¦Ł":3013,"Ġà¦Ĩà¦ļà¦®":3014,"Ġà¦®à¦¶à¦²":3015,"à¦ĭà¦£":3016,"Ġà¦Ķà¦¦":3017,"Ġà¦¦à¦°à¦¶à¦¨":3018,"à¦°à¦¡":3019,"à¦°à¦Ĺà¦°":3020,"à¦°à¦²à¦¤":3021,"à¦¨à¦ªà¦°":3022,"à¦¨à¦°à¦¨":3023,"à¦¨à¦ĵà¦°":3024,"à¦¤à¦Ļ":3025,"à¦¤à¦®à¦¨":3026,"à¦¤à¦Ĩà¦²":3027,"à¦¤à¦ªà¦¦":3028,"à¦¤à¦ľà¦¬":3029,"à¦¤à¦°à¦¤à¦²":3030,"à¦²à¦ĺ":3031,"à¦²à¦ķà¦²":3032,"à¦²à¦®à¦£":3033,"à¦¬à¦®à¦¨":3034,"à¦¬à¦Ĺà¦¤":3035,"à¦¬à¦ļà¦ķ":3036,"à¦ķà¦ªà¦°":3037,"à¦ķà¦¢":3038,"à¦ķà¦¦à¦²":3039,"à¦®à¦¬à¦²":3040,"à¦®à¦ķà¦²":3041,"à¦®à¦¹à¦¤":3042,"à¦¸à¦Ńà¦°":3043,"à¦¸à¦¯à¦ľ":3044,"à¦¦à¦¡":3045,"Ġà¦¸à¦Ĺ":3046,"Ġà¦¸à¦°à¦®":3047,"Ġà¦¸à¦ĩà¦¬":3048,"Ġà¦¸à¦ļà¦ķ":3049,"Ġà¦¸à¦ĵà¦¦":3050,"Ġà¦¬à¦Łà¦¬":3051,"Ġà¦Ĩà¦ĵà¦²":3052,"à¦ªà¦¹à¦°":3053,"à¦ªà¦®à¦¯":3054,"à¦ªà¦¬à¦¤":3055,"Ġà¦ķà¦ľà¦¨":3056,"Ġà¦®à¦¡":3057,"Ġà¦®à¦°à¦¨":3058,"Ġà¦¨à¦ķà¦²":3059,"Ġà¦¨à¦ĩà¦²":3060,"à¦¶à¦°à¦£":3061,"à¦¶à¦²à¦¯":3062,"à§Łà¦Ĩà¦®":3063,"à¦¹à¦ľ":3064,"à¦§à¦¨à¦¬":3065,"Ġà¦¹à¦ĩà¦¨":3066,"Ġà¦¦à¦ĩ":3067,"à¦ĸà¦ľ":3068,"à¦Łà¦¶":3069,"à¦Łà¦Ń":3070,"à¦·à¦ĩ":3071,"à¦·à¦Ń":3072,"à¦·à¦«":3073,"Ġà¦¤à¦«":3074,"Ġà¦Ĺà¦ľà¦²":3075,"Ġà¦Ńà¦£":3076,"Ġà¦Ńà¦ķà¦¤":3077,"à¦ļà¦ĸ":3078,"à¦¥à¦Ľ":3079,"Ġà¦ľà¦Ĺ":3080,"à¦¡à¦¦":3081,"à¦¡à¦Ĺ":3082,"à¦¡à¦Ļ":3083,"Ġà¦°à¦ľ":3084,"à¦Ńà¦²":3085,"à¦Ńà¦£":3086,"Ġà¦Ľà§Ł":3087,"Ġà¦«à¦²à¦ķ":3088,"Ġà¦«à¦¸à¦ķ":3089,"Ġà¦ķà¦°à¦¯":3090,"Ġà¦ķà¦°à¦¹":3091,"Ġà¦īà¦¸":3092,"Ġà¦īà¦Ľà¦¸":3093,"à¦ĵà¦ª":3094,"Ġà¦§à¦²":3095,"Ġà¦§à¦¸":3096,"à¦¬à¦ªà¦¨à¦ª":3097,"à¦°à¦¬à¦¸":3098,"à¦ħà¦£":3099,"Ġà¦ıà¦ķà¦ª":3100,"Ġà¦ıà¦ķà¦°à¦¤":3101,"Ġà¦ıà¦ķà¦«":3102,"à¦ĺà¦°à¦¬":3103,"à¦¤à¦°à¦¶":3104,"Ġà¦®à¦¨à¦°":3105,"Ġà¦®à¦¨à¦ª":3106,"Ġà¦®à¦¨à¦ľ":3107,"à¦ıà¦¹":3108,"à¦ıà¦¡":3109,"à¦°à¦£à¦¤":3110,"à¦°à¦£à¦¦":3111,"à¦īà¦¤à¦°":3112,"à¦ªà¦¨à¦¤":3113,"Ġà¦Ĩà¦¸à¦ķ":3114,"à¦¦à¦¨à¦§":3115,"à¦¦à¦¨à¦®à¦¯":3116,"Ġà¦Ĩà¦¶à¦¯":3117,"à¦®à¦¨à¦¤":3118,"Ġà¦¸à¦¬à¦Ł":3119,"Ġà¦¬à¦¨à¦²à¦¤":3120,"à¦Ĩà¦®à¦Ĺ":3121,"à¦Ĩà¦®à¦°à¦£":3122,"à¦°à¦ķà¦¨":3123,"à¦°à¦ķà¦¬":3124,"à¦¦à§Łà¦®":3125,"à¦°à¦®à¦²":3126,"à¦·à¦£à¦ľ":3127,"Ġà¦Ĩà¦ľà¦ĩ":3128,"Ġà¦ľà¦²à¦ĸ":3129,"ÂłÂłÂłÂłÂłÂłÂłÂłÂłÂłÂłÂłÂłÂłÂłÂłÂłÂłÂłÂłÂł":3130,"à¦ıà¦ķà¦ķ":3131,"Ġà¦°à¦Ļà¦¹":3132,"Ġà¦ĩà¦ľ":3133,"à¦²à¦ķà¦¨":3134,"à¦°à¦¬à¦¤à¦®":3135,"Ġà¦ľà¦¨à¦ª":3136,"Ġà¦ħà¦ľà¦Ĺà¦°":3137,"à¦²à¦¨à¦¹":3138,"à¦²à¦¬à¦¦":3139,"à¦ľà¦²à¦¸":3140,"Ġà¦łà¦¨":3141,"à¦Ĺà¦°à¦ª":3142,"à¦°à¦¹à¦¸à¦¨":3143,"à¦°à¦ľà¦°":3144,"Ġà¦ĺà¦°à¦Ľ":3145,"Ġà¦¨à§Łà¦ķ":3146,"Ġà¦īà§İà¦ķ":3147,"Ġà¦īà§İà¦«":3148,"Ġà¦¤à¦²à¦¦":3149,"à¦°à¦ĩà¦¬":3150,"à¦ħà¦¬à¦Ĺ":3151,"à¦ħà¦¬à¦¸à¦°":3152,"Ġà¦¸à¦¹à¦¬":3153,"Ġà¦¸à¦¹à¦ķ":3154,"à¦ªà¦¦à¦¤à¦²":3155,"Ġà¦īà¦ªà¦®":3156,"Ġà¦īà§İà¦¸à¦¬à¦®":3157,"à¦ļà¦ķà¦ļà¦ķ":3158,"à¦Ĩà¦¬à¦°à¦£":3159,"à¦¸à¦«à¦²à¦¤":3160,"à¦¸à¦«à¦Łà¦ĵà¦¯":3161,"Ġà¦ĭà¦¦":3162,"à¦¤à¦¤à¦ĩ":3163,"ÂłÂłÂłÂłÂłÂłÂłÂłÂłÂłÂłÂłÂłÂłÂłÂłÂłÂłÂłÂłÂłÂłÂłÂłÂłÂłÂłÂłÂłÂłÂłÂłÂłÂłÂłÂł":3164,"à¦īà¦²à¦¸":3165,"Ġà¦ķà¦¨à¦ķà¦¨":3166,"à¦®à¦¶à¦¯":3167,"à§¨à§©":3168,"à§¨à§Ń":3169,"à§¨à§¯":3170,"Ġà¦ķà¦°à¦¤à¦²":3171,"à¦īà¦łà¦Ľ":3172,"à¦®à¦¸à¦ľ":3173,"à§©à§¨":3174,"à§©à§¦":3175,"Ġà¦°à¦¸à¦§":3176,"Ġà¦Ĺà¦£à¦ľ":3177,"à§ªà§¦":3178,"Ġà§§à§©à§¦":3179,"Ġà¦®à¦°à¦®à¦°":3180,"à¦Ĩà¦§à¦ĸ":3181,"Ġà¦¹à¦ľà¦°à¦¤":3182,"Ġà¦§à¦¬à¦§à¦¬":3183,"Ġà§ĩ":3184,"Ġà§Ł":3185,"Ġà§Ń":3186,"à¦Ķ":3187,"à§ĩà¦Ĥ":3188,"à¦°à¦Ĩ":3189,"à¦°à¦ħà¦¨":3190,"à¦°à¦Ŀà¦°":3191,"à¦¨à¦Ŀ":3192,"à¦¨à¦Ĩà¦²":3193,"à¦¨à¦ĺà¦¨":3194,"à¦¤à¦¤à¦°":3195,"à¦¤à¦ķà¦°":3196,"à¦¤à¦ªà¦Ł":3197,"à¦²à¦Ĩà¦®":3198,"à¦²à¦Ĺà¦¨":3199,"à¦²à¦§à¦¨":3200,"à¦²à¦Ńà¦°":3201,"à¦²à¦ĺà¦°":3202,"à¦¬à¦¬à¦¨":3203,"à¦¬à¦¤à¦°":3204,"à¦¬à¦ķà¦°":3205,"à¦¬à¦ļà¦°":3206,"à¦¯à¦¤à¦°":3207,"à¦¯à¦«":3208,"à¦¯à¦¸à¦¨":3209,"à¦ķà¦¬à¦¨":3210,"à¦ķà¦Ŀ":3211,"à¦®à¦¤à¦°":3212,"à¦®à¦¬à¦°":3213,"à¦®à¦ľà¦¨":3214,"à¦®à§İ":3215,"à¦®à¦¤à¦²":3216,"à¦®à§İà¦¸":3217,"à§ĭà¦ĥ":3218,"à¦¸à¦¤à¦°":3219,"à¦¸à¦ªà¦¤":3220,"à¦¸à¦Ńà¦¯":3221,"à¦¦à¦ªà¦¥":3222,"à¦¦à¦ľà¦²":3223,"Ġà¦¸à¦ªà¦ķ":3224,"Ġà¦¸à§İà¦ķ":3225,"Ġà¦Ĩà¦¤à¦°":3226,"à¦ªà¦ĩ":3227,"à¦ªà¦«":3228,"à¦ªà¦ķà¦°":3229,"à¦ªà¦£à¦¤":3230,"Ġà¦ªà¦Ľà¦¨":3231,"Ġà¦ķà¦¦à¦°":3232,"Ġà¦®à¦°à¦ķ":3233,"Ġà¦®à¦ľà¦²":3234,"à¦¶à¦§":3235,"à¦¶à¦°à¦¥":3236,"à¦¶à¦§à¦°":3237,"Ġà¦ħà§Ł":3238,"à¦ľà¦¹à¦°":3239,"à¦ľà¦¦à¦£":3240,"à§Łà¦ľ":3241,"à§Łà¦ľà¦¨":3242,"à¦¹à¦°à¦¨":3243,"à¦¹à¦ĩà¦²":3244,"à¦§à¦°à¦¤":3245,"Ġà¦¹à¦¦":3246,"Ġà¦¦à¦ªà¦¦":3247,"à¦ĸà¦®à¦¯":3248,"à¦Ĺà¦ŀ":3249,"à¦Ĺà¦°à¦ķ":3250,"à¦Ĺà¦ªà¦¥":3251,"à¦Ĺà¦Ńà¦°":3252,"à¦Łà¦Ļ":3253,"à¦Łà¦°à¦ķ":3254,"à¦·à¦Ľ":3255,"à¦·à¦§à¦°":3256,"Ġà¦¤à¦ķà¦®":3257,"à¦£à¦ªà¦¥":3258,"à¦£à¦ķà¦°":3259,"à¦Ľà¦¯":3260,"Ġà¦Ĺà¦ŀ":3261,"à¦ļà¦Ľ":3262,"à¦ļà¦¶à¦®":3263,"à¦¥à¦ĩ":3264,"à¦¥à¦®à¦ķ":3265,"Ġà¦¯à¦¤à¦¬":3266,"à¦ĩà¦ĵ":3267,"Ġà¦¶à¦ķà¦¤":3268,"Ġà¦¶à¦®à¦¶":3269,"Ġà¦¶à¦¤à¦°à¦Ļ":3270,"ÂłĠÂłĠÂł":3271,"Ġà¦ļà¦·":3272,"Ġà¦°à¦ľà¦¤":3273,"à¦łà¦Ł":3274,"Ġà¦ıà¦¯":3275,"Ġà¦ıà¦¹":3276,"à¦°à¦¤à¦¸":3277,"à¦°à¦¤à¦ª":3278,"Ġà¦«à¦¤":3279,"Ġà¦īà¦¬":3280,"Ġà¦īà¦¦à¦°":3281,"à¦ĵà¦®":3282,"à¦ĵà¦¸":3283,"à¦ĵà¦ĸ":3284,"Ġà¦ħà¦¨à¦®":3285,"à¦Ĩà¦ľà¦¨":3286,"à¦Ĩà¦ķà¦°":3287,"à¦Ĩà§Łà¦¨":3288,"à§ľà¦²":3289,"à§ľà¦¸":3290,"à§ľà¦ª":3291,"à¦¬à¦ªà¦ķ":3292,"Ġà¦ĵà§Ł":3293,"à¦°à¦¬à¦¹à¦®":3294,"à¦ħà¦ĸà¦£":3295,"à¦ĺà¦ľ":3296,"à¦ĺà¦Ń":3297,"à¦¤à¦°à¦Ń":3298,"Ġà¦®à¦¨à¦ĵ":3299,"à¦īà¦ĸ":3300,"à¦īà¦ĩ":3301,"à¦īà¦ªà¦¤":3302,"à¦īà¦ªà¦¸":3303,"à¦īà§İà¦¸à¦°":3304,"Ġà¦ªà¦¥à¦°":3305,"Ġà¦ªà¦¥à¦ĵ":3306,"à¦¬à¦°à¦ķ":3307,"à¦¦à¦¨à¦¦":3308,"à¦¦à¦¨à¦¹":3309,"à¦«à§ľ":3310,"Ġà¦¨à¦¤à¦ľ":3311,"à¦¨à¦¬à¦ļ":3312,"à¦¨à¦¬à¦Ń":3313,"à¦¤à¦¬à¦¯":3314,"Ġà¦ħà¦¬à¦¦":3315,"Ġà¦¬à¦¨à¦®":3316,"Ġà¦¬à¦¨à¦¦":3317,"Ġà¦ħà¦¦à¦ķ":3318,"à¦¦à§Łà¦ĸ":3319,"Ġà¦Ńà¦°à¦²":3320,"à¦·à¦£à¦¤":3321,"à¦ķà¦²à¦Ń":3322,"Ġà¦ľà¦²à¦¨":3323,"Ġà¦ľà¦²à¦ķ":3324,"Ġà¦ľà¦²à¦¢":3325,"Ġà¦ľà¦²à¦Ńà¦°":3326,"Ġà¦ľà¦²à¦Ľà¦Ł":3327,"à¦§à¦¨à¦Ĺ":3328,"à¦§à¦¨à¦ĵà¦°":3329,"à¦ıà¦ķà¦ĸ":3330,"à¦ıà¦ķà¦¥":3331,"à¦ıà¦ķà¦«":3332,"Ġà¦¤à¦°à¦²à¦¤":3333,"Ġà¦°à¦Ļà¦¬":3334,"à¦²à¦ķà¦®à¦²":3335,"Ġà¦ıà¦ĩà¦¯":3336,"Ġà¦ıà¦ĩà¦¸à¦¬":3337,"Ġà¦Łà¦ª":3338,"Ġà¦ħà¦ľà¦ªà¦¥":3339,"Ġà¦ľà¦®à¦Ľ":3340,"Ġà¦ľà¦®à¦ľà¦®":3341,"Ġà¦¨à¦¬à¦¬":3342,"à¦ķà¦¤à¦Ł":3343,"à¦®à¦¤à¦®":3344,"à¦°à¦ľà§Ł":3345,"à¦Ĺà¦²à¦¬à¦¨":3346,"à¦Ĺà¦²à¦®à§Ł":3347,"à¦ķà¦¬à¦§":3348,"Ġà¦īà§İà¦ķà¦£":3349,"à¦¥à¦°à¦ĵ":3350,"Ġà¦¶à¦¤à¦Ń":3351,"Ġà¦Ĩà¦¡à¦®":3352,"à¦¯à¦ķà¦¥":3353,"à¦¯à¦¯à¦¨":3354,"à¦ªà¦¦à¦ķ":3355,"Ġà¦Ĩà¦Ńà¦°à¦£":3356,"Ġà¦ªà¦°à¦¶à¦¨":3357,"Ġà¦Ńà¦¬à¦®à¦£":3358,"Ġà¦ĺà¦¨à¦ĺà¦Ł":3359,"à¦¬à¦ķà¦¶":3360,"à¦ľà§Łà¦§":3361,"à¦¤à¦¤à¦¦":3362,"Ġà¦ĵà¦ĩà¦ĸ":3363,"Ġà¦ıà¦¤à¦ĩ":3364,"Ġà¦ļà¦ķà¦®à¦ķ":3365,"à§¨à§¨":3366,"à¦Ĺà¦¬à¦Ĺ":3367,"à¦Ĺà¦Ńà¦Ļ":3368,"à¦ľà¦¸à¦Ń":3369,"à¦Ĳà¦ĸ":3370,"à¦ıà¦¤à¦ĩ":3371,"à¦ªà§ľà¦¬":3372,"à§ªà§ª":3373,"Ġà¦Īà¦·à§İ":3374,"Ġà§§à§¦":3375,"Ġà¦¤à¦¤à¦¦":3376,"Ġà¦¦à¦¶à¦¦":3377,"Ġà¦ĸà¦¬à¦°à¦¦":3378,"ĠĠĠĠ":3379,"à¦īà¦ªà¦¬à¦¨":3380,"Ġà¦¸à¦¯à¦¤à¦¨":3381,"Ġà¦Ĩà¦«à¦¸":3382,"čĊčĊĠĠč":3383,"Ġà¦¹à¦¤à¦Ńà¦®":3384,"à¦ĸà¦ĩà¦¨à¦¬":3385,"Ġà¦®à¦ĸà¦®à¦²":3386,"Ġà¦¦à¦ªà¦¦à¦ª":3387,"ĠÂłÂł":3388,"ĠĠĠčĊč":3389,"à§»":3390,"à¦°à¦¬à¦ª":3391,"à¦¨à¦Ĩà¦®":3392,"à¦¨à¦Ĩà¦ľ":3393,"à¦¨à¦®à¦¤":3394,"à¦¤à¦ķà¦¨":3395,"à¦¤à¦ļà¦°à¦£":3396,"à¦²à¦ıà¦°":3397,"à¦¬à¦Ĺà¦£":3398,"à¦¬à§Łà¦¬":3399,"à¦¯à¦°à¦¤":3400,"à¦¯à¦¤à¦¬":3401,"à¦ķà¦°à¦ķ":3402,"à¦ķà¦¸à¦®":3403,"à¦ķà¦ķà¦¬":3404,"à¦ķà¦ļà¦ķ":3405,"à¦®à¦ĵ":3406,"à¦®à¦¤à¦¨":3407,"à¦®à¦Ĺà¦¤":3408,"à¦®à¦Ńà¦°":3409,"à¦®à¦®à¦°à¦£":3410,"à¦¸à¦°à¦ķ":3411,"à¦¸à¦ķà¦°":3412,"à¦¦à¦ªà¦°":3413,"à¦¦à¦ķà¦¤":3414,"à¦¦à¦ªà¦¦":3415,"à¦¦à¦ªà¦Ł":3416,"Ġà¦¸à¦°à¦¬":3417,"Ġà¦¸à¦°à¦ķ":3418,"Ġà¦¸à¦ªà¦¥":3419,"Ġà¦¸à§ľà¦ķ":3420,"Ġà¦¬à¦ªà¦£":3421,"à¦ªà¦²à¦¤":3422,"Ġà¦ķà¦¶":3423,"Ġà¦ķà¦Ľ":3424,"Ġà¦®à¦Ł":3425,"Ġà¦®à¦ł":3426,"Ġà¦®à¦Ŀ":3427,"Ġà¦¨à¦ļ":3428,"Ġà¦¨à¦¹à¦°":3429,"à¦¶à¦¸à¦®":3430,"Ġà¦ħà¦ľà¦¨":3431,"Ġà¦ħà¦ķà¦²à¦Ļ":3432,"à¦ľà¦ķà¦°":3433,"à¦ľà¦²à¦¬":3434,"à¦ľà¦Ĺà¦£":3435,"à§Łà¦Ń":3436,"à§Łà¦ĵ":3437,"à§Łà¦¤à¦°":3438,"à§Łà¦¬à¦¦":3439,"à¦¹à¦¶":3440,"à¦§à¦®à¦¯":3441,"Ġà¦¹à¦¦à¦¯":3442,"Ġà¦¦à¦§":3443,"à¦ĸà¦ŀ":3444,"à¦ĸà¦°à¦¸":3445,"à¦Ĺà¦§":3446,"à¦Ĺà¦Ł":3447,"à¦Ĺà¦ł":3448,"à¦Łà¦«à¦°":3449,"à¦·à¦®à¦¯":3450,"Ġà¦¤à¦ĸ":3451,"à¦£à¦²":3452,"à¦£à¦²à¦¤":3453,"à¦£à¦®à¦£":3454,"à¦£à¦¶à¦ķ":3455,"Ġà¦Ĺà¦Ĺ":3456,"à¦ļà¦£":3457,"à¦ļà¦ľà¦¨":3458,"à¦ļà¦ķà¦¤":3459,"à¦ļà¦ķà¦£":3460,"à¦ļà¦¬à¦Ł":3461,"à¦¥à¦°à¦ķ":3462,"à¦¥à¦°à¦¥à¦°":3463,"Ġà¦ľà¦¹":3464,"Ġà¦ľà¦®à¦²":3465,"Ġà¦ľà¦Ĺà¦¦":3466,"à¦ĩà¦¸à¦²":3467,"à¦¡à¦ķ":3468,"Ġà¦¶à¦ļ":3469,"Ġà¦°à¦Ĺ":3470,"Ġà¦Ľà¦¯":3471,"à¦łà¦®":3472,"à¦łà¦¦":3473,"à¦łà¦Ĺ":3474,"Ġà¦ıà§Ł":3475,"Ġà¦ıà¦°à¦ĩ":3476,"à¦°à¦¤à¦¬à¦°":3477,"Ġà¦«à¦Łà¦ķ":3478,"Ġà¦ķà¦°à¦ľ":3479,"Ġà¦īà¦ªà¦ķà¦¥":3480,"à¦¬à¦¨à¦¤":3481,"à¦ĵà¦°à¦ĩ":3482,"Ġà¦²à¦°":3483,"à¦Ĩà¦«":3484,"à¦Ĩà¦¸à¦¤":3485,"Ġà¦ĸà¦°à¦¸":3486,"Ġà¦ĸà¦°à¦Ĺ":3487,"à§ľà¦Ľ":3488,"Ġà¦ĵà¦Ŀ":3489,"Ġà¦Ĩà¦®à¦¦":3490,"à¦ħà¦Ŀ":3491,"à¦ħà¦¹à¦²":3492,"à¦ħà¦ķà¦¥":3493,"à¦ħà¦¨à¦¬à¦¦":3494,"Ġà¦ıà¦ķà¦¨":3495,"Ġà¦ıà¦ķà¦ĺ":3496,"à¦ĺà¦Ĺ":3497,"à¦¤à¦°à¦ŀ":3498,"Ġà¦®à¦¨à¦¬":3499,"Ġà¦®à¦¨à¦¹":3500,"Ġà¦®à¦¨à¦Ĺ":3501,"Ġà¦®à¦¨à¦Ń":3502,"Ġà¦®à¦¨à¦ķà¦£":3503,"Ġà¦ĵà¦łà¦¬":3504,"à¦¬à¦²à¦ª":3505,"à¦ıà¦¯":3506,"à¦ıà¦ľ":3507,"à¦°à¦£à¦¸":3508,"à¦īà¦ªà¦ķ":3509,"à¦īà¦ªà¦ļ":3510,"à¦īà¦ıà¦°":3511,"Ġà¦ªà¦¥à¦ľ":3512,"à¦¦à¦¨à¦Ĺ":3513,"à¦ªà¦°à¦ķ":3514,"à¦ªà¦°à¦ª":3515,"à¦®à¦¨à¦ĸ":3516,"à¦®à¦¨à¦¤à¦°":3517,"Ġà¦Ŀà¦°à¦¤":3518,"Ġà¦Ŀà¦°à¦¬":3519,"Ġà¦Ŀà¦¨à¦¨":3520,"Ġà¦Ĩà¦°à¦ıà¦ķ":3521,"à¦«à¦¤":3522,"à¦«à¦¸":3523,"Ġà¦¨à¦¤à¦®":3524,"Ġà¦Ĩà¦ķà¦¸":3525,"Ġà¦¸à¦®à¦Ń":3526,"à¦ľà¦¨à¦ª":3527,"à¦¨à¦¬à¦§":3528,"à¦¨à¦¬à¦¯à¦¨":3529,"à¦¤à¦¬à¦§":3530,"Ġà¦ħà¦¬à¦¤à¦°à¦£":3531,"Ġà¦¬à¦¨à¦°":3532,"Ġà¦¬à¦¨à¦«":3533,"Ġà¦ħà¦¦à¦®à¦¨":3534,"à§İà¦¸à¦¨":3535,"à¦ļà¦²à¦ĸ":3536,"à¦°à¦®à¦ŀ":3537,"à¦·à¦£à¦®":3538,"à¦·à¦£à¦ĩ":3539,"à¦®à¦²à§Ł":3540,"Ġà¦Ĩà¦¨à¦¯":3541,"Ġà¦ľà¦²à¦¹":3542,"Ġà¦ľà¦²à¦ĵ":3543,"Ġà¦ľà¦²à¦§à¦°":3544,"à¦ıà¦ķà¦¶":3545,"Ġà¦Ĩà¦¬à¦¹à¦®":3546,"Ġà¦ĩà§Ł":3547,"Ġà¦ĩà¦·":3548,"Ġà¦ĩà¦Ľ":3549,"Ġà¦ĩà¦¤à¦°":3550,"à¦¸à¦¬à¦¤":3551,"Ġà¦ľà¦¨à¦ľ":3552,"à¦¤à¦²à¦®":3553,"Ġà¦ħà¦ķà¦£":3554,"à¦²à¦¨à¦°":3555,"à¦²à¦¨à¦Ĺ":3556,"à¦²à¦¨à¦ļ":3557,"Ġà¦ķà¦¬à¦ļ":3558,"Ġà¦ľà¦®à¦ķ":3559,"à¦¦à¦°à¦¬à¦¨":3560,"Ġà¦ķà¦²à¦ľ":3561,"Ġà¦¨à¦¬à¦¤à¦°":3562,"Ġà¦¨à¦¬à¦īà¦¦":3563,"Ġà¦ªà§ľà¦¨":3564,"Ġà¦®à¦°à¦²":3565,"à¦ıà¦ĩà¦®à¦¤":3566,"Ġà¦ªà¦¦à¦®":3567,"Ġà¦ªà¦¦à¦ª":3568,"à¦°à¦¶à¦¯":3569,"à¦°à¦ľà¦¯":3570,"à¦¬à¦¤à¦®":3571,"Ġà¦ĺà¦°à¦Ł":3572,"Ġà¦¯à¦ĸà¦¨à¦ĩ":3573,"à¦Ĺà¦²à¦¦":3574,"ĠĠčĊĠĠ":3575,"Ġà¦ħà¦ªà¦°à¦ķ":3576,"à¦Ŀà¦°à¦Ľ":3577,"Ġà¦Ĺà¦¹à¦¨à¦¤":3578,"à¦ĸà¦°à¦ªà¦°":3579,"à¦®à¦ķà¦°à¦£":3580,"à¦¹à¦²à¦¦":3581,"à¦¨à¦ķà¦¥":3582,"à¦ĺà¦°à¦Ľ":3583,"à¦ªà¦Łà¦Ń":3584,"Ġà¦¹à¦°à¦«":3585,"à¦ľà§Łà¦°à¦¥":3586,"à¦¸à¦«à¦¡":3587,"à¦ıà¦ĸà¦¨à¦ĩ":3588,"Ġà¦ķà¦¨à¦ķà¦²à¦Ļ":3589,"Ġà¦ıà¦®à¦¨à¦ķ":3590,"à¦¸à¦¹à¦ļà¦°":3591,"à¦ħà¦®à¦Ļ":3592,"Ġà¦ªà¦¶à¦®":3593,"à¦¶à¦¤à¦¬à¦°":3594,"à¦¶à¦¤à¦¦à¦²":3595,"à¦¤à¦ªà¦¬à¦¨":3596,"à§©à§§":3597,"à§©à§©":3598,"à§©à§ª":3599,"à§©à§¯":3600,"à¦Ĩà¦Ĺà¦®à¦¨":3601,"à¦ıà¦¤à¦Ł":3602,"à¦®à¦Ĺà¦ŀ":3603,"Ġà¦ķà¦®à¦²à¦ķ":3604,"Ġà¦ķà¦®à¦²à¦¬à¦¨":3605,"à¦ħà¦²à¦Ļ":3606,"à¦ķà¦®à¦²à¦ķ":3607,"Ġà¦ĸà§ľà¦Ĺ":3608,"Ġà¦ĸà¦²à¦ĸà¦²":3609,"Ġà¦¨à¦ĸà¦¦à¦°":3610,"Ġà¦ķà¦ªà¦Łà¦¤":3611,"à¦¬à¦¸à¦°à¦ľà¦¨":3612,"Ġà¦Łà¦¨à¦Łà¦¨":3613,"Ġà¦ıà¦ķà¦¤à¦°à¦«":3614,"Ġà§§":3615,"Ġà§ª":3616,"ĠÂłÂłÂłÂłÂł":3617,"Ġà§«":3618,"ĠÂłÂłÂłÂłÂłÂłÂłÂłÂłÂł":3619,"Ġà§¯":3620,"à§±":3621,"à¦°à¦°à¦£":3622,"à¦°à¦¨à¦¬":3623,"à¦°à§İ":3624,"à¦°à¦Ĺà¦¨":3625,"à¦°à¦¶à¦¬":3626,"à¦°à¦°à¦¸":3627,"à¦°à¦Ĩà¦ķ":3628,"à¦°à¦ªà¦¦":3629,"à¦°à¦ĺà¦°":3630,"à¦°à¦Ĺà¦®":3631,"à¦°à¦Ŀà¦¡":3632,"à¦°à¦īà¦ľ":3633,"à¦¨à§ľ":3634,"à¦¨à¦°à¦¬":3635,"à¦¨à¦¬à¦²":3636,"à¦¨à¦®à¦¨":3637,"à¦¨à¦¨à¦¬":3638,"à¦¨à¦ħà¦¨":3639,"à¦¨à¦¸à¦¤":3640,"à¦¨à¦ķà¦¨":3641,"à¦¤à¦Ŀ":3642,"à¦¤à¦ľà¦¨":3643,"à¦¤à¦¸à¦¨":3644,"à¦¤à¦®à¦¤":3645,"à¦¤à¦ªà¦¤":3646,"à¦¤à¦ªà¦ķ":3647,"à¦²à¦¬à¦ª":3648,"à¦²à¦®à¦°":3649,"à¦²à¦ĩà¦¯":3650,"à¦²à¦¹à¦²":3651,"à¦²à¦ĩà¦¬":3652,"à¦²à¦°à¦Ļ":3653,"à¦¬à¦¸à¦¤":3654,"à¦¬à¦Ńà¦°":3655,"à¦¯à¦¡":3656,"à¦¯à¦¹à¦¤":3657,"à¦ķà¦®à¦¨":3658,"à¦ķà¦ªà¦¥":3659,"à¦ķà¦¦à¦°":3660,"à¦ķà¦ľà¦²":3661,"à¦ķà¦¨à¦¦":3662,"à¦ķà¦®à§Ł":3663,"à¦ķà¦Ľà¦¬":3664,"à¦®à¦ķà¦°":3665,"à¦®à¦Ĺà¦°":3666,"à¦®à¦°à¦¸":3667,"à¦®à¦¦à¦²":3668,"à¦®à¦ĺà¦°":3669,"à¦®à¦¶à¦ķ":3670,"à¦®à¦ĺà¦Ł":3671,"à¦¸à§ľ":3672,"à¦¸à¦ĺ":3673,"à¦¸à¦¬à¦²":3674,"à¦¸à¦ĵà¦¯":3675,"à¦¸à¦¯à¦¤":3676,"à¦¸à¦«à¦²":3677,"à¦¸à¦°à¦¤à¦®":3678,"à¦¸à§ľà¦ķ":3679,"à¦¦à¦°à¦¤":3680,"à¦¦à¦¬à¦¨":3681,"à¦¦à¦°à¦ķ":3682,"à¦¦à¦®à¦¤":3683,"à¦¦à¦¬à¦¦":3684,"Ġà¦¸à¦¶":3685,"Ġà¦¸à¦ĵà§Ł":3686,"Ġà¦¸à¦ĩà¦¤":3687,"Ġà¦¬à¦®":3688,"Ġà¦¬à¦¦à¦°":3689,"Ġà¦¬à¦°à¦¦":3690,"Ġà¦¬à¦ĩà¦²":3691,"Ġà¦¬à¦ĩà¦ĸ":3692,"Ġà¦Ĩà¦ªà¦¦":3693,"Ġà¦Ĩà¦ªà¦¡":3694,"à¦ªà¦°à¦¬":3695,"à¦ªà¦¤à¦°":3696,"à¦ªà¦ªà¦°":3697,"à¦ªà¦¶à¦¨":3698,"Ġà¦ķà¦ĸ":3699,"Ġà¦ķà¦ĩà¦¤":3700,"Ġà¦®à§İà¦¸":3701,"Ġà¦¨à¦ĸà¦°":3702,"Ġà¦¨à¦ĵà¦°":3703,"à¦¶à¦¸à¦Ļ":3704,"à¦¶à¦Ńà¦°":3705,"à¦¶à¦²à§Ł":3706,"Ġà¦ħà¦°à¦ķ":3707,"Ġà¦ħà¦°à¦¨":3708,"Ġà¦ħà¦Ĺà¦¨":3709,"Ġà¦ħà¦¸à¦¨":3710,"Ġà¦ħà¦¢":3711,"Ġà¦ħà¦¹à¦²":3712,"à¦ľà¦¬à¦²":3713,"à¦ľà¦¤à¦²":3714,"à¦ľà¦¬à¦ªà¦¨":3715,"à§Łà¦¶":3716,"à¦¹à¦Ľ":3717,"à¦¹à¦¡":3718,"à¦§à¦Ĺ":3719,"à¦§à¦ļà¦¨":3720,"à¦§à¦®à¦ķ":3721,"à¦§à¦Ńà¦°":3722,"Ġà¦¹à¦ª":3723,"Ġà¦¹à¦¦à§Ł":3724,"Ġà¦¦à¦²à¦¬":3725,"à¦ĸà¦¯":3726,"à¦ĸà¦°à¦®":3727,"à¦ĸà¦¢":3728,"à¦ĸà¦Ĩà¦¨à¦¨":3729,"à¦ĸà¦ķà¦·":3730,"à¦Ĺà§Ł":3731,"à¦Ĺà¦ĵ":3732,"à¦Ĺà¦°à¦¨":3733,"à¦Ĺà¦¸à¦®":3734,"à¦Ĺà¦°à¦¤à¦²":3735,"à¦Łà¦Ł":3736,"à¦Łà¦ļ":3737,"à¦·à¦ļ":3738,"à¦·à¦¸à¦ķ":3739,"à¦·à¦²à¦§":3740,"à¦£à¦ĸ":3741,"à¦£à¦ļà¦¨":3742,"Ġà¦Ńà¦°à¦¬":3743,"Ġà¦Ńà¦ľà¦¨":3744,"à¦ļà¦ª":3745,"à¦ļà¦Ń":3746,"à¦ļà¦°à¦®":3747,"à¦¥à¦°à¦¬":3748,"à¦¥à¦Ĺà¦Ĺà¦¨":3749,"Ġà¦ľà¦łà¦°":3750,"à¦ĩà¦Ĩà¦®":3751,"à¦ĩà¦ķà¦¤":3752,"à¦ĩà¦¨à¦Ĺ":3753,"à¦ĩà¦Łà¦¬":3754,"à¦¡à¦¡":3755,"à¦¡à¦ĵà§Ł":3756,"Ġà¦¶à§Ł":3757,"Ġà¦¶à¦¤à¦°":3758,"Ġà¦¶à¦°à¦¬à¦¤":3759,"Ġà¦ļà¦¯":3760,"Ġà¦ļà§Łà¦¨":3761,"Ġà¦ļà¦ĵà¦¡":3762,"Ġà¦°à¦¡":3763,"Ġà¦°à¦ĩà¦¤":3764,"Ġà¦°à¦ĩà¦¨":3765,"Ġà¦°à¦ļà¦¯":3766,"à¦Ńà¦ķà¦°":3767,"Ġà¦Ľà¦®":3768,"à¦łà¦§":3769,"à¦łà¦¤à¦²":3770,"Ġà¦ıà¦ĵ":3771,"à¦°à¦¤à¦ķ":3772,"à¦°à¦¤à¦Ł":3773,"à¦°à¦¤à¦¨à¦¹":3774,"Ġà¦«à¦°à¦¹":3775,"Ġà¦ķà¦°à¦ª":3776,"Ġà¦īà¦Ĺà¦°":3777,"Ġà¦īà¦°à¦¸":3778,"Ġà¦īà¦¸à¦ķ":3779,"à¦¬à¦¨à¦Ľ":3780,"à¦¬à¦¨à¦ľà¦²":3781,"à¦¬à¦¨à¦¨à¦¦":3782,"à¦¬à¦¨à¦ľà¦Ļ":3783,"Ġà¦ħà¦¨à¦Ń":3784,"Ġà¦²à¦Ł":3785,"à¦Ĩà¦ĸ":3786,"à¦Ĩà¦ĵ":3787,"à¦Ĩà¦¤à¦°":3788,"à¦Ĩà¦®à¦¨":3789,"à¦Ĩà¦¨à¦¤":3790,"à¦Ĩà¦¸à¦®":3791,"à§ľà¦Ń":3792,"à§ľà¦Ļ":3793,"Ġà¦§à¦ª":3794,"à¦¬à¦ªà¦¨à¦¸":3795,"Ġà¦ĵà¦ľ":3796,"Ġà¦ĵà¦Ļ":3797,"Ġà¦ĵà¦¸à¦¬":3798,"à¦°à¦¬à¦¹":3799,"à¦°à¦¬à¦²à¦¤":3800,"à¦ħà¦ªà¦Ł":3801,"Ġà¦ħà¦®à¦¸":3802,"Ġà¦ıà¦ķà¦Ń":3803,"à¦ĺà¦ļ":3804,"à¦¤à¦°à¦¨":3805,"à¦¤à¦°à¦¯":3806,"Ġà¦®à¦¨à¦¦":3807,"Ġà¦®à¦¨à¦ļ":3808,"Ġà¦®à¦¨à¦Ńà¦°":3809,"Ġà¦®à¦¨à¦ªà¦Ł":3810,"à¦Ŀà¦®":3811,"à¦Ŀà¦²à¦¸":3812,"à¦¬à¦²à¦¸":3813,"à¦¬à¦²à¦¦":3814,"à¦ıà¦°à¦ĩ":3815,"à¦°à¦£à¦¬":3816,"à¦°à¦£à¦§":3817,"à¦īà¦ľà¦²":3818,"à¦īà¦®à¦°":3819,"à¦īà¦Ľà¦²":3820,"à¦īà¦²à¦®":3821,"à¦īà¦¨à¦²":3822,"Ġà¦ªà¦¥à¦¨":3823,"à¦¬à¦°à¦ª":3824,"à¦¬à¦°à¦¦à¦¸":3825,"à¦¦à¦¨à¦°":3826,"Ġà¦Ĩà¦¶à¦®":3827,"à¦®à¦¨à¦Ń":3828,"Ġà¦¡à¦®":3829,"à¦¤à¦¨à¦¯":3830,"Ġà¦Ĩà¦ķà¦¬à¦°":3831,"à¦ľà¦¨à¦¦":3832,"à¦¨à¦¬à¦¶":3833,"à¦¨à¦¬à¦¦à¦¨":3834,"à¦¨à¦¬à¦¸à¦®":3835,"à¦¨à¦¬à¦Ĺà¦£":3836,"Ġà¦¸à¦¬à¦¸":3837,"Ġà¦¢à¦Ļ":3838,"à¦¤à¦¬à§İ":3839,"Ġà¦¬à¦²à¦¹":3840,"à§İà¦¸à¦ķ":3841,"à¦°à¦ķà¦¥":3842,"Ġà¦®à¦¤à¦ĩ":3843,"à¦°à¦¨à¦°":3844,"à¦ļà¦²à¦²":3845,"à¦¦à§Łà¦¦":3846,"à¦¦à§Łà¦¹":3847,"à¦¦à§Łà¦¬à¦¨":3848,"à¦°à¦®à¦ľ":3849,"à¦°à¦®à¦¬à¦°":3850,"à¦ķà¦²à¦¨":3851,"à¦ķà¦²à¦¤":3852,"à¦ķà¦²à¦ľ":3853,"Ġà¦§à¦°à¦Ľ":3854,"à¦®à¦²à¦¨":3855,"à¦ªà¦¥à¦¬":3856,"Ġà¦ľà¦²à¦Ľà¦²à¦Ľà¦²":3857,"à¦¹à¦¸à¦ĩ":3858,"à¦§à¦¨à¦ķ":3859,"à¦§à¦¨à¦Ńà¦Ļ":3860,"ÂłÂłÂłÂłÂłÂłÂłÂłÂłÂłÂłÂłÂłÂłÂłÂłÂłÂłÂłÂłÂłÂł":3861,"Ġà¦Ĺà¦²à¦Ľ":3862,"à¦ıà¦ķà¦ª":3863,"Ġà¦ĩà¦°à¦®":3864,"à¦²à¦ķà¦°":3865,"à¦²à¦ķà¦ķ":3866,"Ġà¦ħà¦¸à¦®à¦¯":3867,"Ġà¦ħà¦¸à¦®à§Ł":3868,"Ġà¦Łà¦Ĺà¦¬à¦Ĺ":3869,"Ġà¦ľà¦¨à¦¶":3870,"Ġà¦ħà¦¶à¦¥":3871,"à¦ķà¦°à¦Ľ":3872,"à¦²à¦¨à¦¶":3873,"à¦²à¦¨à¦ĸ":3874,"à¦²à¦¨à¦®à¦¯":3875,"Ġà¦ķà¦²à¦¸à¦ĸ":3876,"Ġà¦¨à¦¬à¦®":3877,"à¦¸à¦®à¦ķ":3878,"à¦¸à¦®à¦Ĺ":3879,"à¦ľà¦²à¦¤":3880,"à¦ľà¦²à¦Ĺ":3881,"à¦ľà¦²à¦Ľà¦¬":3882,"à¦°à¦¦à¦®":3883,"à¦¨à¦¦à¦²":3884,"à¦¨à¦¦à¦£":3885,"à¦°à¦¸à¦Ń":3886,"à¦°à¦¹à¦ķ":3887,"Ġà¦ªà¦¦à¦¶à¦¬":3888,"Ġà¦ħà¦ªà¦¦":3889,"Ġà¦ħà¦ªà¦Ł":3890,"à¦Ĺà¦¤à¦®":3891,"à¦®à¦°à¦²":3892,"à¦®à¦°à¦§":3893,"à¦°à¦ľà¦Ĺà¦¤":3894,"à¦¬à¦¸à¦²":3895,"Ġà¦ķà¦¤à¦ĸ":3896,"à¦Ĺà¦²à¦¸":3897,"Ġà¦Ĩà¦¤à¦ª":3898,"Ġà¦Ĩà¦¤à¦¶à¦¬":3899,"Ġà¦īà§İà¦ķà¦°":3900,"Ġà¦īà§İà¦ªà¦²":3901,"à¦Ŀà¦°à¦§":3902,"à¦¥à¦°à¦Ł":3903,"Ġà¦¶à¦¤à¦¶à¦¤":3904,"à¦°à¦²à¦¹à¦°":3905,"à¦Ńà¦°à¦ª":3906,"à¦ħà¦¬à¦ķ":3907,"à¦ĩà¦²à¦«à¦²à¦ķ":3908,"à¦Ńà¦¬à¦ķ":3909,"à¦Ĩà¦°à¦ĵ":3910,"Ġà¦Ĳà¦ĸ":3911,"à¦¹à¦²à¦¹":3912,"Ġà¦ķà¦¹à¦¤":3913,"à¦ªà¦¦à¦¸":3914,"Ġà¦¨à¦°à¦®à¦¤":3915,"à¦¤à¦ķà¦¥":3916,"Ġà¦īà§ľà¦¬":3917,"Ġà¦¦à¦²à¦Ľ":3918,"à¦®à¦°à¦£à¦¸":3919,"Ġà¦īà¦ªà¦ľ":3920,"Ġà¦īà¦ªà¦Ĺ":3921,"Ġà¦ľà§Łà¦²":3922,"Ġà¦ľà§Łà¦¯":3923,"Ġà¦Ńà¦¬à¦ĺ":3924,"à¦°à¦ªà¦ŀ":3925,"à¦ħà¦¶à¦¨":3926,"à¦¬à¦ķà¦¥":3927,"à¦ľà§Łà¦¨":3928,"à¦ľà§Łà¦¬":3929,"à¦ľà§Łà¦¸":3930,"à¦¬à¦¹à¦Ń":3931,"à¦¯à¦°à¦Ļ":3932,"Ġà¦ļà¦°à¦£à¦ª":3933,"à¦Ĩà¦ªà¦¨à¦®à¦¨":3934,"à¦¸à¦ķà¦²à¦ķ":3935,"à¦¯à¦®à¦ŀ":3936,"Ġà¦§à¦¨à¦¸à¦®":3937,"Ġà¦°à¦¹à¦®à¦¤":3938,"ÂłÂłÂłÂłÂłÂłÂłÂłÂłÂłÂłÂłÂłÂłÂłÂłÂłÂłÂłÂłÂłÂłÂłÂłÂł":3939,"à¦¬à¦ªà¦¨à¦¸à¦®":3940,"à¦¤à¦¸à¦ŀ":3941,"à¦Ĺà¦£à¦¨":3942,"à¦¸à¦®à§Łà¦¸":3943,"à§©à§«":3944,"à§©à§®":3945,"à¦Ńà§Łà¦ķ":3946,"à¦ĵà¦ĩà¦ĸ":3947,"Ġà¦¶à¦¹à¦°à¦ķ":3948,"Ġà¦Ĭà¦¨":3949,"à¦®à¦®à¦¦":3950,"Ġà¦°à¦£à¦¸":3951,"Ġà¦°à¦£à¦¦":3952,"Ġà¦ľà§ľà¦¤":3953,"Ġà¦Īà¦¸":3954,"Ġà¦Īà¦¦à¦Ĺ":3955,"à¦ľà¦®à¦¹à¦²":3956,"à¦¨à¦Łà¦°":3957,"Ġà§§à§®":3958,"à¦¦à¦ªà¦¤à¦¨":3959,"Ġà¦¬à¦Łà¦¤à¦²":3960,"Ġà¦®à¦°à¦®à¦¬":3961,"à§¦à§¦":3962,"Ġà¦Ľà¦²à¦Ľà¦²à¦Ľà¦²":3963,"Ġà¦¨à§ľà¦¬à§ľ":3964,"à¦ªà¦°à¦¶à¦®à¦£":3965,"Ġà¦ļà¦Łà¦ªà¦Ł":3966,"Ġà§¨à§¬":3967,"Ġà¦¶à¦¨à¦¶à¦¨":3968,"Ġà¦¨à¦ĵà¦ľ":3969,"à¦¯à¦®à¦¨à¦¸":3970,"Ġà¦Ĩà¦«à¦Ĺ":3971,"Ġà¦īà¦ªà¦ķà¦°à¦£":3972,"à¦ıà¦Ĩà¦ĩà¦¯":3973,"Ġà§ģ":3974,"ĠÂłÂłÂłÂł":3975,"ĠÂłÂłÂłÂłÂłÂłÂłÂłÂłÂłÂłÂłÂłÂłÂłÂł":3976,"ĠÂłÂłÂłÂłÂłÂłÂł":3977,"Ġà§¬":3978,"ĠÂłÂłÂłÂłÂłÂłÂłÂłÂłÂłÂłÂłÂł":3979,"Ġà§§à§§":3980,"à¦°à¦°à¦¬":3981,"à¦°à¦°à¦¥":3982,"à¦°à¦ıà¦ĩ":3983,"à¦°à¦Ľà¦¨":3984,"à¦°à¦īà§İà¦¸à¦¬":3985,"à¦¿à¦¾":3986,"à¦¨à¦¥":3987,"à¦¨à¦°à¦¤":3988,"à¦¨à¦¤à¦¨":3989,"à¦¨à¦¤à¦¬":3990,"à¦¨à¦ķà¦°":3991,"à¦¨à¦¨à¦¦":3992,"à¦¨à¦ıà¦ĩ":3993,"à¦¨à¦Ńà¦¬":3994,"à¦¨à¦§à¦°":3995,"à¦¨à¦ļà¦ķ":3996,"à¦¨à¦®à¦Ĺ":3997,"à¦¨à¦ħà¦¬à¦¶":3998,"à¦¤à¦ĺ":3999,"à¦¤à¦ªà¦°":4000,"à¦¤à¦¤à¦¬":4001,"à¦¤à¦Ĩà¦®":4002,"à¦¤à¦§à¦¨":4003,"à¦¤à¦¤à¦²":4004,"à¦¤à¦ķà¦¤":4005,"à¦¤à¦ļà¦¨":4006,"à¦¤à¦¸à¦¤":4007,"à¦¤à¦¤à¦ĸà¦¨":4008,"à¦²à¦°à¦ķ":4009,"à¦²à¦¸à¦®":4010,"à¦²à¦Ĩà¦ľ":4011,"à¦²à¦¢":4012,"à¦²à¦ĩà¦²":4013,"à¦²à¦ªà¦ķ":4014,"à¦²à¦ĩà§Ł":4015,"à¦²à¦Ĩà¦¨":4016,"à¦²à¦ĸà¦£":4017,"à¦¬à¦ĺ":4018,"à¦¬à¦¬à¦°":4019,"à¦¬à¦¹à¦¸":4020,"à¦¬à¦¦à¦°":4021,"à¦¬à¦¸à¦®":4022,"à¦¬à¦ĩà¦¤":4023,"à¦¬à¦®à§Ł":4024,"à¦¬à¦§à¦°":4025,"à¦¬à¦ľà§Ł":4026,"à¦¬à¦¶à¦¤":4027,"à¦¬à¦¶à¦°":4028,"à¦¬à¦°à¦¬à¦°":4029,"à¦¯à¦Ľ":4030,"à¦¯à¦¸à¦¬":4031,"à¦¯à¦ľà¦²":4032,"à¦¯à¦ļà¦¨":4033,"à¦¯à¦®à¦¤":4034,"à¦¯à¦Ńà¦°":4035,"à¦¯à¦ªà¦¦":4036,"à¦¯à¦ļà¦ķ":4037,"à¦¯à¦¶à¦ķ":4038,"à¦¯à¦Ńà¦Ļ":4039,"à¦ķà¦¤à¦²":4040,"à¦ķà¦¸à¦Ļ":4041,"à¦ķà¦ªà¦Ł":4042,"à¦ķà¦Ŀà¦²à¦ķ":4043,"à¦®à¦ł":4044,"à¦®à¦°à¦¤":4045,"à¦®à¦Ĩà¦²":4046,"à¦®à¦ļà¦¨":4047,"à¦®à¦ļà¦ķ":4048,"à¦¸à¦¶":4049,"à¦¸à¦§":4050,"à¦¸à¦°à¦¬":4051,"à¦¸à¦ĺà¦¨":4052,"à¦¦à¦°à¦¬":4053,"à¦¦à¦ĺ":4054,"à¦¦à¦¬à¦°":4055,"à¦¦à¦Ĺà¦¤":4056,"Ġà¦¸à¦Ł":4057,"Ġà¦¸à¦¦à¦°":4058,"Ġà¦¸à¦Ĺà¦°":4059,"Ġà¦¸à¦¶à¦¸":4060,"Ġà¦¸à¦¬à¦°à¦Ļ":4061,"Ġà¦¬à¦¬":4062,"Ġà¦¬à¦Ĺ":4063,"Ġà¦¬à¦°à¦¬":4064,"Ġà¦¬à¦°à¦ķ":4065,"Ġà¦¬à¦°à¦®":4066,"Ġà¦¬à¦ķà¦°":4067,"Ġà¦¬à¦Ĺà¦²":4068,"à§Ģà¦ģ":4069,"Ġà¦Ĩà¦Ĺà¦¨":4070,"Ġà¦Ĩà¦¢":4071,"Ġà¦Ĩà¦ĸà¦°":4072,"Ġà¦Ĩà¦ĩà¦¬":4073,"Ġà¦Ĩà¦ªà¦¶":4074,"Ġà¦Ĩà¦ĵà¦¡":4075,"à¦ªà¦Ń":4076,"à¦ªà¦®à¦¨":4077,"à¦ªà¦²à¦¬":4078,"à¦ªà¦Łà¦²":4079,"à¦ªà¦®à§Ł":4080,"à¦ªà¦®à¦£":4081,"à¦ªà¦¬à¦¯":4082,"Ġà¦ªà¦·":4083,"Ġà¦ªà¦īà¦·":4084,"Ġà¦ķà¦ĩà¦²":4085,"Ġà¦ķà¦ĩà¦¬":4086,"Ġà¦ķà¦®à¦¬":4087,"Ġà¦®à¦ī":4088,"Ġà¦®à¦ľà¦¨":4089,"Ġà¦¨à¦¬à¦²":4090,"Ġà¦¨à¦ĵà¦¯":4091,"Ġà¦¨à¦Ĺà¦£":4092,"à¦¶à¦¤à¦¬":4093,"à¦¶à¦ķà¦°":4094,"à¦¶à¦®à§Ł":4095,"à¦¶à¦ķà¦£":4096,"à¦¶à¦°à¦Ļ":4097,"à¦¶à¦®à¦£":4098,"à¦¶à§Łà¦¤":4099,"à¦¶à¦Ĺà¦Ļ":4100,"Ġà¦ħà¦¤à¦°":4101,"Ġà¦ħà¦¤à¦¨":4102,"à¦ľà¦¬à¦°":4103,"à¦ľà§İ":4104,"à¦ľà¦¸à¦®":4105,"à¦ľà¦ķà¦¤":4106,"à¦ľà¦Ľà¦¤":4107,"à§Łà¦ĩ":4108,"à§Łà¦¤à¦¨":4109,"à¦ģà¦ģ":4110,"à¦¹à¦§":4111,"à¦¹à¦ĵ":4112,"à¦¹à¦¤à¦²":4113,"à¦¹à¦¬à¦§":4114,"à¦§à¦§":4115,"à¦§à¦ĩ":4116,"à¦§à¦°à¦¬":4117,"à¦§à¦¤à¦°":4118,"à¦§à¦«":4119,"à¦§à¦¹à§Ł":4120,"Ġà¦¦à¦²à¦¨":4121,"Ġà¦¦à¦¶à¦ķ":4122,"Ġà¦¦à¦¶à¦®":4123,"à¦ĸà¦ªà¦°":4124,"à¦ĸà¦ªà¦¥":4125,"à¦ĸà¦Ľà¦¬":4126,"à¦Ĺà¦²à¦ķ":4127,"à¦Ĺà¦¦à¦²":4128,"à¦Ĺà¦ķà¦¨":4129,"à¦Ĺà¦§à¦°":4130,"à¦Łà¦§":4131,"à¦Łà¦¤à¦®":4132,"à¦·à¦²":4133,"à¦·à§ľ":4134,"à¦·à¦°à¦¬":4135,"à¦·à¦®à¦¨":4136,"à¦·à¦Ńà¦°":4137,"Ġà¦¤à¦¸":4138,"Ġà¦¤à¦¹":4139,"Ġà¦¤à¦¤à¦ķ":4140,"Ġà¦¤à¦ĸà¦¤":4141,"à¦£à¦¬à¦°":4142,"à¦£à¦¤à¦²":4143,"à¦£à¦ķà¦£":4144,"à¦£à¦°à¦Ļ":4145,"à¦£à¦²à¦Ļ":4146,"à¦Ľà¦®":4147,"à¦Ľà§Ł":4148,"Ġà¦Ĺà¦ª":4149,"Ġà¦Ĺà¦£à¦¤":4150,"Ġà¦Ĺà¦¦à¦Ĺ":4151,"à§ĥà¦Ĥ":4152,"Ġà¦Ńà¦²":4153,"Ġà¦Ńà¦ª":4154,"Ġà¦Ńà¦ľ":4155,"à¦ļà¦¹":4156,"à¦ļà¦Ļ":4157,"à¦ļà¦¤à¦°":4158,"à¦ļà¦«":4159,"à¦ļà¦ķà¦²":4160,"à¦¥à¦¦":4161,"à¦¥à¦¬à¦°":4162,"à¦¥à¦ªà¦¥":4163,"Ġà¦ľà¦ĸà¦®":4164,"Ġà¦ľà¦°à¦ľà¦°":4165,"Ġà¦¯à¦®à¦¦":4166,"à¦ĩà¦Ŀ":4167,"à¦ĩà¦¨à¦¬":4168,"à¦ĩà¦¦à¦¹":4169,"à¦¡à¦¤":4170,"à¦¡à¦¸":4171,"à¦¡à¦¶":4172,"à¦¡à¦¹":4173,"à¦¡à¦Ł":4174,"Ġà¦¶à¦²":4175,"Ġà¦¶à¦·":4176,"Ġà¦¶à¦®à¦¨":4177,"Ġà¦¶à¦°à¦ľ":4178,"Ġà¦ļà¦¬":4179,"Ġà¦ļà¦Łà¦ķ":4180,"Ġà¦°à¦¦":4181,"Ġà¦°à¦¸à¦¬à¦¤":4182,"à¦Ńà¦¹":4183,"à¦Ńà¦Ł":4184,"à¦Ńà¦°à¦£":4185,"à¦Ńà¦°à¦²":4186,"à¦łà¦ĸ":4187,"à¦łà¦°à¦¬":4188,"à¦łà¦ĺ":4189,"à¦°à¦¤à¦°à¦Ļ":4190,"ĊčĊč":4191,"Ġà¦«à¦ľà¦°":4192,"ĠĠčĊčĊčĊč":4193,"à¦¬à¦¨à¦®à§Ł":4194,"à¦¬à¦¨à¦®à¦°à¦£":4195,"à¦¬à¦¨à¦°à¦Ļ":4196,"à¦¬à¦¨à¦ķà¦¥":4197,"à¦ĵà¦ĩà¦¯":4198,"Ġà¦ħà¦¨à¦Ĺ":4199,"Ġà¦ħà¦¨à¦®à¦¨":4200,"Ġà¦ħà¦¨à¦¬à¦§":4201,"Ġà¦ħà¦¨à¦²à¦¶":4202,"Ġà¦²à¦ĩà¦¨":4203,"à¦Ĩà¦°à¦£":4204,"à¦Ĩà¦ĵà¦¯":4205,"à¦Ĩà§Łà¦°":4206,"Ġà¦ĸà¦°à¦¤à¦°":4207,"Ġà¦ĸà§ľà¦ķ":4208,"à§ľà¦Ŀ":4209,"Ġà¦Ĩà¦²à¦¬":4210,"Ġà¦Ĩà¦²à¦«":4211,"Ġà¦Ĩà¦²à¦ªà¦¥":4212,"Ġà¦§à§ľ":4213,"à¦¬à¦ªà¦¨à¦¬":4214,"Ġà¦ĵà¦ľà¦¸":4215,"à¦°à¦¬à¦®":4216,"à¦°à¦¬à¦¦à¦¨":4217,"à¦°à¦¬à¦ļà¦¨":4218,"Ġà¦Ĩà¦®à¦¬à¦¨":4219,"Ġà¦Ĩà¦®à¦°à¦£":4220,"Ġà¦Ĩà¦®à¦¸à¦¤":4221,"à¦ħà§Ł":4222,"à¦ħà¦·":4223,"à¦ħà¦ĩ":4224,"à¦ħà¦°à¦¬":4225,"à¦ħà¦¯à¦¥":4226,"à¦ħà¦Ńà¦¯":4227,"à¦ħà¦¹à¦Ļ":4228,"Ġà¦ħà¦®à¦¤":4229,"Ġà¦ħà¦®à¦°à¦ķ":4230,"Ġà¦¥à¦ķ":4231,"Ġà¦¥à¦ĩ":4232,"Ġà¦ıà¦ķà¦¯":4233,"Ġà¦ıà¦ķà¦¥":4234,"Ġà¦ıà¦ķà¦Ŀ":4235,"à¦ĺà¦§":4236,"à¦ĺà¦°à¦ķ":4237,"à¦ĺà¦Ĺà¦°":4238,"à¦ĺà¦Ńà¦°":4239,"à¦¤à¦°à¦Ĺ":4240,"Ġà¦®à¦¨à¦¯":4241,"à¦Ŀà¦Ľ":4242,"à¦Ŀà¦°à¦£":4243,"à¦Ŀà¦Ĺà¦¡":4244,"à¦Ŀà¦Ĺà§ľ":4245,"à¦¬à¦²à¦ķ":4246,"à¦¬à¦²à¦¤à¦®":4247,"à¦ıà¦¶":4248,"à¦ıà§Ł":4249,"à¦ıà¦¥":4250,"à¦ıà¦¤à¦¬":4251,"à¦īà¦Ŀ":4252,"à¦īà¦ªà¦²":4253,"à¦īà¦¶à¦¨":4254,"Ġà¦ªà¦¥à¦¯":4255,"Ġà¦ªà¦¥à¦ķ":4256,"Ġà¦ªà¦¥à¦§":4257,"Ġà¦¹à¦¯à¦°à¦¤":4258,"Ġà¦ĺà¦°à¦ķ":4259,"Ġà¦ĺà¦°à¦¦":4260,"à¦¬à¦°à¦°":4261,"à¦¬à¦°à¦®":4262,"à¦¬à¦°à¦¦":4263,"à¦¬à¦°à¦ļ":4264,"à¦¬à¦°à¦ľà¦²":4265,"à¦¦à¦¨à¦ĸ":4266,"à¦¦à¦¨à¦¬à¦¨":4267,"à¦ªà¦°à¦¹à¦°":4268,"à¦®à¦¨à¦ª":4269,"à¦®à¦¨à¦§":4270,"à¦®à¦¨à¦Ĺà¦°":4271,"Ġà¦¡à¦²":4272,"à¦¤à¦¨à¦ķ":4273,"Ġà¦ªà¦°à¦Ľ":4274,"Ġà¦ªà¦°à¦¶à¦ª":4275,"Ġà¦¸à¦®à¦ķ":4276,"Ġà¦¸à¦®à¦·":4277,"à¦¨à¦¬à¦¤à¦°":4278,"à¦¨à¦¬à¦¦à¦²":4279,"à¦¨à¦¬à¦§à¦°":4280,"à¦¨à¦¬à¦¸à¦Ń":4281,"Ġà¦¸à¦¬à¦¸à¦®à¦¯":4282,"à¦¤à¦¬à¦Ĺ":4283,"Ġà¦ħà¦®à¦²à¦¸":4284,"Ġà¦¬à¦¨à¦¹":4285,"Ġà¦¬à¦¨à¦ļ":4286,"Ġà¦¬à¦¨à¦¤à¦²":4287,"à¦Ĩà¦®à¦²":4288,"à¦Ĩà¦®à¦²à¦ķ":4289,"Ġà¦ļà¦²à¦ļ":4290,"à§İà¦°":4291,"à§İà¦²":4292,"à§İà¦¹":4293,"à§İà¦«":4294,"à§İà¦ķà¦£":4295,"à¦ļà¦²à¦¸à¦ĸ":4296,"à¦¦à§Łà¦°":4297,"à¦¦à§Łà¦¤":4298,"à¦¦à§Łà¦¤à¦²":4299,"à¦¦à§Łà¦ªà¦Ł":4300,"à¦°à¦®à¦¬":4301,"à¦·à¦£à¦¦":4302,"à¦·à¦£à¦Ńà¦Ļ":4303,"à¦®à¦²à¦¬":4304,"à¦ªà¦¥à¦°":4305,"à¦ªà¦¥à¦ª":4306,"à¦ªà¦¥à¦¶":4307,"à¦Ĺà¦¨à¦ķ":4308,"Ġà¦Ĩà¦¨à¦ķ":4309,"Ġà¦Ĩà¦¨à¦Ľ":4310,"Ġà¦ľà¦²à¦ľà¦²":4311,"Ġà¦ľà¦²à¦Ŀà¦°":4312,"à¦§à¦¨à¦¶":4313,"à¦¹à¦°à¦¸":4314,"à¦®à¦¯à¦ľ":4315,"Ġà¦Ĺà¦²à¦¤":4316,"Ġà¦ķà¦¥à¦ķ":4317,"à¦ıà¦ķà¦°":4318,"à¦ıà¦ķà¦¦à¦®":4319,"Ġà¦ĩà¦Łà¦¬":4320,"Ġà¦ĩà¦īà¦°":4321,"Ġà¦ĩà¦īà¦Ł":4322,"à¦²à¦ķà¦¤":4323,"Ġà¦ħà¦¸à¦Ļ":4324,"Ġà¦ħà¦¸à§İ":4325,"Ġà¦ıà¦ĩà¦°":4326,"Ġà¦ıà¦ĩà¦®à¦¤":4327,"Ġà¦Łà¦°":4328,"Ġà¦Łà¦ķ":4329,"Ġà¦ľà¦¨à¦ķà¦²":4330,"Ġà¦ľà¦¨à¦ªà¦¥":4331,"Ġà¦ľà¦¨à¦®à¦¤":4332,"Ġà¦ħà¦ķà¦¬":4333,"à¦ķà¦°à¦ª":4334,"à¦²à¦¨à¦¦":4335,"à¦²à¦¨à¦ª":4336,"à¦²à¦¬à¦¹":4337,"à¦²à¦¬à¦£":4338,"Ġà¦ľà¦®à¦¬":4339,"Ġà¦ħà¦Ĺà¦Ń":4340,"Ġà¦¶à¦¬à¦¦":4341,"Ġà¦¹à¦¤à¦ľ":4342,"Ġà¦¨à¦¬à¦§":4343,"Ġà¦¨à¦¬à¦¬à¦°":4344,"Ġà¦¨à¦¬à¦¤à¦®":4345,"Ġà¦¨à¦¬à¦¤à¦°à¦Ļ":4346,"Ġà¦¨à¦¬à¦¬à¦§":4347,"à¦¸à¦®à¦§":4348,"à¦¸à¦®à¦¤à¦²":4349,"Ġà¦īà¦¦à¦Ĺ":4350,"Ġà¦īà¦¦à¦ĺ":4351,"à¦ľà¦²à¦¦":4352,"à¦ľà¦²à¦¶":4353,"à¦°à¦Ńà¦®à¦¯":4354,"Ġà¦Ĩà¦Ĺà¦¤":4355,"à¦¸à¦°à¦²à¦¤":4356,"à¦ķà¦¤à¦ķà¦Ł":4357,"Ġà¦ªà§ľà¦¶":4358,"Ġà¦®à¦°à¦¸":4359,"Ġà¦®à¦°à¦Ľ":4360,"à¦°à¦¸à¦²":4361,"à¦°à¦¸à¦¹":4362,"à¦Łà¦²à¦Łà¦²":4363,"à¦°à¦¹à¦¨":4364,"Ġà¦ªà¦¦à¦²":4365,"Ġà¦ªà¦¦à¦Ľ":4366,"à¦Ĩà¦ľà¦ĩ":4367,"Ġà¦ħà¦ªà¦ķ":4368,"Ġà¦ħà¦ªà¦ĺ":4369,"à¦°à¦ľà¦ķ":4370,"à¦¢à¦Ļ":4371,"à¦¬à¦¤à¦ļ":4372,"à¦¨à¦¨à¦ķ":4373,"à¦¨à¦¨à¦Ń":4374,"à¦¬à¦¸à¦¯":4375,"Ġà¦¯à¦ĸà¦¨à¦¤à¦ĸà¦¨":4376,"Ġà¦ķà¦¤à¦Ĺ":4377,"à¦Ĺà¦²à¦¹":4378,"Ġà¦¨à§Łà¦¨à¦¬":4379,"Ġà¦Ĺà¦°à¦ľà¦¨":4380,"Ġà¦Ĺà¦°à¦Ĺà¦°":4381,"Ġà¦īà§İà¦°":4382,"à¦®à§Łà¦¤":4383,"Ġà¦Ĺà§ľà¦¨":4384,"à¦ĸà¦°à¦°":4385,"Ġà¦¶à¦¤à¦Ł":4386,"à¦®à¦ķà¦£":4387,"à¦¹à¦²à¦Ńà¦°":4388,"à¦ªà¦¦à¦¬":4389,"à¦ªà¦¦à¦§":4390,"à¦¨à¦°à¦ľà¦¨":4391,"à¦ĸà¦²à¦¹":4392,"à¦¨à¦Ĺà¦£":4393,"Ġà¦ªà¦°à¦¶à¦®":4394,"Ġà¦ªà¦°à¦¶à¦ĸ":4395,"à¦¤à¦®à¦¸":4396,"à¦¤à¦®à¦§":4397,"à¦¤à¦®à¦£":4398,"Ġà¦¦à¦²à¦¬à¦²":4399,"à¦®à¦°à¦£à¦ķ":4400,"à¦®à¦°à¦£à¦ª":4401,"à¦®à¦°à¦£à¦¶":4402,"Ġà¦īà¦ªà¦Ń":4403,"Ġà¦ľà§Łà¦¨":4404,"Ġà¦ľà§Łà¦®":4405,"à¦ħà¦¶à¦¥":4406,"à¦®à¦¹à§İ":4407,"Ġà¦¸à¦®à§Łà¦¸":4408,"à¦¶à¦¨à¦¶à¦¨":4409,"à¦ľà§Łà¦ªà¦°":4410,"à¦ľà§Łà¦ªà¦¤":4411,"Ġà¦ªà¦²à¦ķà¦¬":4412,"Ġà¦¶à¦ªà¦¥à¦¬":4413,"Ġà¦ļà¦°à¦£à¦Ľ":4414,"à¦Ĩà¦¶à¦Ļ":4415,"à¦¨à¦¶à¦ķ":4416,"à¦¨à¦¸à¦ŀ":4417,"à¦¨à¦¸à¦¸à¦°":4418,"à§Ŀà¦¸à¦®":4419,"à¦īà¦²à¦Ļ":4420,"Ġà¦ķà¦¨à¦«":4421,"à¦¸à¦¹à¦¯":4422,"à¦¬à¦£à¦§":4423,"à¦ħà¦¤à¦ıà¦¬":4424,"Ġà¦Ľà¦²à¦ļ":4425,"à¦ķà§ľà¦ķ":4426,"à§©à§¬":4427,"à§©à§Ń":4428,"Ġà¦Ĺà¦Ĺà¦¨à¦ļ":4429,"Ġà¦®à¦°à¦£à¦ķ":4430,"Ġà¦®à¦°à¦£à¦¹":4431,"à¦Ĳà¦¶":4432,"Ġà¦Ĭà¦·à¦°":4433,"Ġà¦¸à§İà¦ļ":4434,"Ġà¦¸à§İà¦¸à¦Ļ":4435,"à¦®à¦®à¦ŀ":4436,"à¦ªà§ľà¦¤":4437,"à¦ªà§ľà¦²":4438,"à¦°à§Łà¦¹":4439,"Ġà¦ªà¦Łà¦ļ":4440,"Ġà¦°à¦¸à¦¸":4441,"Ġà¦°à¦£à¦¬":4442,"à§ªà§§":4443,"à§ªà§©":4444,"à¦ļà¦°à¦£à¦¤à¦²":4445,"à¦Ĩà¦¤à¦Ļ":4446,"à¦ľà¦®à¦ľà¦®":4447,"Ġà§§à§¨":4448,"Ġà§§à§¬":4449,"Ġà¦ľà¦Ĺà§İà¦ª":4450,"Ġà¦Ĩà¦¸à¦¨à¦ĸ":4451,"Ġà¦Ĺà¦®à¦Ĺà¦®":4452,"Ġà¦¨à¦Ĺà¦°à¦Ĺ":4453,"à§«à§¦":4454,"à¦®à¦Łà¦°":4455,"à¦ķà¦¸à¦ľ":4456,"Ġà¦Ĩà¦ļà¦®à¦ķ":4457,"Ġà¦®à¦¶à¦Ĺ":4458,"Ġà¦ķà¦²à¦ķà¦²à¦°à¦¬":4459,"à§°à¦®":4460,"à§°à¦ľ":4461,"Ġà¦¶à¦¶à¦§à¦°":4462,"à¦Īà¦¨":4463,"à¦Īà¦®":4464,"à¦īà¦ªà¦¬":4465,"à¦īà¦ªà¦²à¦¬":4466,"à¦²à¦«à¦£":4467,"à¦Ŀà¦¨à¦Ŀà¦¨":4468,"Ġà§¨à§¦":4469,"Ġà§¨à§¯":4470,"à¦Ĺà¦ªà§İ":4471,"Ġà§©à§¬":4472,"Ġà¦ķà§ľà¦ķà§ľ":4473,"Ġà¦Ķà¦·à¦§":4474,"Ġà¦ķà¦¨à¦ķà¦ķ":4475,"à¦Ĩà¦ĩà¦ĵà¦Ł":4476,"Ġà¦ļà¦°à¦®à¦ªà¦¤":4477,"Ġà¦Ĩà¦Łà¦Ł":4478,"à¦¬à§İà¦¸à¦²":4479,"à¦¦à¦«à¦¤à¦°":4480,"à¦ıà¦Ĩà¦ĩà¦ıà¦°":4481,"à¦ħà¦¹à¦°à¦¹":4482,"Ġà¦Ĺà¦Ĺà¦¨à¦¤à¦²":4483,"Ġà¦Ĺà¦¦à¦Ĺà¦¦":4484,"Ġà§į":4485,"ĠÂłÂłÂłÂłÂłÂłÂłÂł":4486,"ĠÂłÂłÂłÂłÂłÂłÂłÂłÂł":4487,"Ġà§®":4488,"ĠÂłÂłÂłÂłÂłÂłÂłÂłÂłÂłÂłÂłÂłÂłÂłÂłÂłÂłÂłÂłÂłÂłÂłÂł":4489,"Ġà¦¿":4490,"Ġà¦Ļ":4491,"à¦¾à¦¾":4492,"à¦¾à¦¿":4493,"à§ĩà§ĭ":4494,"à¦°à¦ªà¦¨":4495,"à¦°à¦ļà¦²":4496,"à¦°à¦°à¦¶":4497,"à¦°à¦ļà¦°":4498,"à¦°à¦ļà¦ķ":4499,"à¦°à¦ļà¦¯":4500,"à¦°à¦Ĩà¦¶":4501,"à¦°à¦īà¦²":4502,"à¦°à¦°à¦ľà¦¨":4503,"à¦°à¦ħà¦¤":4504,"à¦°à¦ħà¦Ń":4505,"à¦°à¦Ĩà¦¨":4506,"à¦°à¦īà¦¨":4507,"à¦°à¦Ĩà¦¹":4508,"à§įà§ĩ":4509,"à¦¨à¦Ĩ":4510,"à¦¨à¦ıà¦ķ":4511,"à¦¨à¦²à¦ķ":4512,"à¦¨à¦¸à¦¬":4513,"à¦¨à¦¦à¦°":4514,"à¦¨à¦Ĺà¦¤":4515,"à¦¨à¦®à¦°":4516,"à¦¨à¦ĸà¦°":4517,"à¦¨à¦¹à¦²":4518,"à¦¨à¦ªà¦ķ":4519,"à¦¨à¦ļà¦°":4520,"à¦¨à¦ªà¦²":4521,"à¦¨à¦Ĩà¦¶":4522,"à¦¨à¦¬à¦¨à¦¬":4523,"à¦¨à¦ľà¦¨à¦¨":4524,"à¦¤à¦£":4525,"à¦¤à¦¶à¦¬":4526,"à¦¤à¦²à¦ķ":4527,"à¦¤à¦Ĩà¦ķ":4528,"à¦¤à¦ķà¦¡":4529,"à¦¤à¦ļà¦°":4530,"à¦¤à¦ħà¦¶":4531,"à¦¤à¦«à¦²":4532,"à¦¤à¦ħà¦§":4533,"à¦¤à¦Ĩà¦Ń":4534,"à¦¤à¦ĭà¦·":4535,"à¦²à¦°à¦¤":4536,"à¦²à¦Ĩ":4537,"à¦²à§ľ":4538,"à¦²à¦¬à¦²":4539,"à¦²à¦®à¦¯":4540,"à¦²à¦ĵà§Ł":4541,"à¦²à¦¸à¦°":4542,"à¦²à¦Ĩà¦²":4543,"à¦²à¦ļà¦¨":4544,"à¦²à¦Ŀà¦°":4545,"à¦²à¦ªà¦Ł":4546,"à¦²à¦ªà¦²":4547,"à¦²à¦¶à¦°":4548,"à¦²à¦¥à¦¤":4549,"à¦²à¦¶à¦¯":4550,"à¦²à¦īà¦ļ":4551,"à¦²à¦īà§İà¦¸à¦¬":4552,"à¦²à¦ļà¦²à¦¨":4553,"à§ģà§ģ":4554,"à¦¬à¦¥":4555,"à¦¬à¦ĵ":4556,"à¦¬à¦¬à¦²":4557,"à¦¬à¦ķà¦²":4558,"à¦¬à¦§à¦¨":4559,"à¦¬à¦¸à¦¬":4560,"à¦¬à¦¤à¦²":4561,"à¦¬à¦ķà¦¬":4562,"à¦¬à¦ķà¦¨":4563,"à¦¬à¦¹à¦¨":4564,"à¦¬à¦ĩà¦¬":4565,"à¦¬à¦ĺà¦°":4566,"à¦¬à¦¬à¦¹":4567,"à¦¬à¦īà¦²":4568,"à¦¬à¦ĩà¦Ľ":4569,"à¦¯à¦ĵ":4570,"à¦¯à¦ĺ":4571,"à¦¯à¦¬à¦²":4572,"à¦¯à¦ħà¦¨":4573,"à¦¯à¦ıà¦ķ":4574,"à¦¯à¦¶à¦¬":4575,"à¦¯à¦Ĩà¦²":4576,"à¦¯à¦¸à¦Ļ":4577,"à¦¯à¦ľà¦¯":4578,"à¦¯à¦Łà¦ķ":4579,"à¦¯à§İà¦ķ":4580,"à¦¯à¦Łà¦¨":4581,"à¦¯à¦īà¦ªà¦¬à¦¨":4582,"à¦ķà¦¬à¦²":4583,"à¦ķà¦¸à¦¨":4584,"à¦ķà¦Ĩà¦²":4585,"à¦ķà¦ķà¦£":4586,"à¦ķà¦¶à¦¨":4587,"à¦®à¦®à¦¨":4588,"à¦®à¦ħà¦¨":4589,"à¦®à¦ªà¦¦":4590,"à¦®à¦«à¦²":4591,"à¦®à¦®à¦£":4592,"à¦®à¦īà¦¦":4593,"à¦®à¦ħà¦Ń":4594,"à¦®à¦ļà¦°à¦£":4595,"à¦®à¦¦à¦¬":4596,"à¦®à¦°à¦®à¦°":4597,"à¦®à¦ħà¦¬à¦¸":4598,"à¦®à¦Ĩà¦¬à¦°à¦£":4599,"à§ĭà¦¿":4600,"à¦¸à¦¦à¦¨":4601,"à¦¸à¦¨à¦¬":4602,"à¦¸à¦ªà¦¥":4603,"à¦¸à¦¶à¦¬":4604,"à¦¸à¦Ĺà¦°":4605,"à¦¸à¦¹à¦¨":4606,"à¦¸à¦ļà¦ķ":4607,"à¦¸à¦°à¦¬à¦°":4608,"à¦¸à¦¹à¦¨à¦¶":4609,"à¦¦à¦Ĩ":4610,"à¦¦à¦Ĺà¦¨":4611,"à¦¦à¦ķà¦°":4612,"à¦¦à¦¸à¦®":4613,"à¦¦à¦¸à¦°":4614,"à¦¦à¦Ĩà¦²":4615,"à¦¦à¦¬à¦¤":4616,"à¦¦à¦®à¦ķ":4617,"à¦¦à¦ĸà¦²":4618,"à¦¦à¦°à¦¤à¦°":4619,"Ġà¦¸à¦¬à¦¨":4620,"Ġà¦¸à¦ĵà¦¯":4621,"Ġà¦¸à¦¸à¦®":4622,"Ġà¦¬à¦ª":4623,"Ġà¦¬à¦Ľ":4624,"Ġà¦¬à¦¤à¦°":4625,"à§Ģà¦ĥ":4626,"Ġà¦Ĩà¦Łà¦²":4627,"Ġà¦Ĩà§Łà¦¤":4628,"Ġà¦Ĩà¦īà¦¡":4629,"Ġà¦Ĩà¦Łà¦ª":4630,"Ġà¦Ĩà¦īà§ľ":4631,"à¦ªà¦°à¦¤":4632,"à¦ªà¦ĵ":4633,"à¦ªà¦¦à¦¯":4634,"à¦ªà¦ħà¦¨":4635,"à¦ªà¦Ĩà¦²":4636,"à¦ªà¦¦à¦²":4637,"à¦ªà¦Ŀà¦°":4638,"Ġà¦ªà¦°à¦£":4639,"Ġà¦ªà¦ī":4640,"Ġà¦ªà¦¦à¦¨":4641,"Ġà¦ªà¦¹à¦°":4642,"Ġà¦ªà¦ļà¦¨":4643,"Ġà¦ªà¦ªà¦¡":4644,"Ġà¦ķà¦¸à¦®":4645,"Ġà¦ķà¦ĩà¦¨":4646,"Ġà¦ķà¦ļà¦ķ":4647,"Ġà¦®à¦ļ":4648,"Ġà¦®à¦ĩ":4649,"Ġà¦®à¦Łà¦°":4650,"Ġà¦®à§İà¦¸à¦°":4651,"Ġà¦¨à¦ª":4652,"Ġà¦¨à¦¥":4653,"Ġà¦¨à¦°à¦¦":4654,"Ġà¦¨à¦ķà¦Ł":4655,"Ġà¦¨à¦Łà¦¨":4656,"Ġà¦¨à¦¦à¦¨à¦¦":4657,"à¦¶à¦ĺ":4658,"à¦¶à¦¬à¦°":4659,"à¦¶à¦ªà¦°":4660,"à¦¶à¦ľà¦¨":4661,"à¦¶à¦ļà¦¨":4662,"Ġà¦ħà¦Ľ":4663,"Ġà¦ħà¦°à¦¬":4664,"Ġà¦ħà¦ªà¦¨":4665,"Ġà¦ħà¦ªà¦¥":4666,"Ġà¦ħà¦ĸà¦²":4667,"à¦ľà¦ļ":4668,"à¦ľà¦ŀ":4669,"à¦ľà¦ªà¦°":4670,"à¦ľà¦®à¦²":4671,"à¦ľà¦®à¦¯":4672,"à¦ľà¦°à¦¥":4673,"à¦ľà¦°à¦¸":4674,"à¦ľà¦ªà¦¤":4675,"à¦ľà¦Ńà¦¬à¦¨":4676,"à§Łà¦§":4677,"à§Łà¦Ľ":4678,"à§Łà¦¬à¦¨":4679,"à§Łà¦ªà¦°":4680,"à§Łà¦Ĺà¦°":4681,"à§Łà¦ıà¦ĩ":4682,"à§Łà¦ħà¦¸":4683,"à§Łà¦®à¦¹":4684,"à§Łà¦¨à¦ª":4685,"à¦¹à¦Ĩ":4686,"à¦¹à¦¬à¦²":4687,"à¦¹à¦°à¦ķ":4688,"à¦¹à¦¨à¦¤":4689,"à¦¹à¦Ĩà¦ķ":4690,"à¦¹à¦ĩà¦¬":4691,"à¦¹à¦īà¦ķ":4692,"à¦§à¦¯":4693,"à¦§à¦ľ":4694,"à¦§à¦ªà¦°":4695,"à¦§à¦¸à¦¤":4696,"à¦§à¦¢":4697,"à¦§à¦°à¦²":4698,"à¦§à¦¬à¦²à¦¤":4699,"Ġà¦¹à¦¤à¦¬":4700,"Ġà¦¹à¦°à¦ķ":4701,"Ġà¦¦à¦ľ":4702,"à¦ĸà§Ł":4703,"à¦ĸà¦¬à¦¨":4704,"à¦ĸà¦ĵ":4705,"à¦ĸà¦²à¦¨":4706,"à¦ĸà¦ĺà¦¨":4707,"à¦Ĺà¦ĩ":4708,"à¦Ĺà¦ľà¦¨":4709,"à¦Ĺà¦ħà¦¨":4710,"à¦Ĺà¦²à¦¬":4711,"à¦Ĺà¦Ĩà¦²":4712,"à¦Ĺà¦²à¦¤":4713,"à¦Ĺà¦®à¦°":4714,"à¦Ĺà¦®à§Ł":4715,"à¦Łà¦ľ":4716,"à¦Łà¦°à¦¬":4717,"à¦Łà¦ªà¦°":4718,"à¦Łà¦®à¦¤":4719,"à¦·à¦¤à¦°":4720,"à¦·à¦°à¦ķ":4721,"à¦·à¦²à¦¤":4722,"à¦·à¦ªà¦¤":4723,"à¦·à¦¶à¦¤":4724,"Ġà¦¤à¦Ľ":4725,"Ġà¦¤à¦°à¦¤":4726,"Ġà¦¤à¦°à¦®":4727,"Ġà¦¤à¦ªà¦¤":4728,"Ġà¦¤à¦¸à¦²":4729,"Ġà¦¤à¦°à¦¤à¦°":4730,"à¦£à§Ł":4731,"à¦£à¦ł":4732,"à¦£à¦¤à¦¨":4733,"à¦£à¦ĸà¦¨":4734,"à¦£à¦°à¦¥":4735,"à¦£à¦Ĩà¦²":4736,"à¦£à¦¦à¦²":4737,"à¦£à¦ļà¦ķ":4738,"à¦£à¦¶à¦¶":4739,"Ġà¦Ĺà§Ł":4740,"Ġà¦Ĺà¦ļ":4741,"Ġà¦Ĺà¦¥":4742,"Ġà¦Ĺà§Łà¦¨":4743,"Ġà¦Ĺà¦Ĺà¦£":4744,"à§ĥà§į":4745,"Ġà¦Ńà¦ĩà¦²":4746,"à¦ļà¦°à¦¬":4747,"à¦ļà¦®à§Ł":4748,"à¦ļà¦¤à¦®":4749,"à¦ļà§Łà¦¨":4750,"à¦¥à¦ĸ":4751,"à¦¥à¦¨à¦¬":4752,"Ġà¦ľà¦Ĺà¦¨":4753,"Ġà¦ľà¦¹à¦°":4754,"Ġà¦¯à¦®à¦ª":4755,"à¦ĩà¦·":4756,"à¦ĩà¦®à¦¨":4757,"à¦ĩà¦¤à¦¬":4758,"à¦ĩà¦¹à¦°":4759,"à¦ĩà¦ķà¦°":4760,"à¦ĩà¦ıà¦°":4761,"à¦¡à¦¤à¦²":4762,"à¦¡à¦¬à¦¦":4763,"à¦¡à¦¬à¦¶":4764,"Ġà¦¶à¦°à¦¬":4765,"Ġà¦¶à¦«à¦°":4766,"Ġà¦¶à¦¬à¦¨à¦®":4767,"Ġà¦ļà¦ª":4768,"Ġà¦ļà¦ĵà§ľ":4769,"Ġà¦ļà¦ªà¦²à¦¤":4770,"Ġà¦°à¦¬à¦¨":4771,"Ġà¦°à¦¦à¦¨":4772,"Ġà¦°à¦¸à¦®":4773,"Ġà¦°à¦¹à¦²":4774,"à¦Ńà¦®":4775,"à¦Ńà¦ľ":4776,"à¦Ńà¦§":4777,"Ġà¦Ľà¦ª":4778,"à¦łà¦¬à¦¨":4779,"Ġà¦ıà¦¨à¦ķ":4780,"Ġà¦«à¦²à¦®":4781,"Ġà¦«à¦²à¦¸":4782,"Ġà¦ķà¦°à¦ķ":4783,"Ġà¦ķà¦°à¦¦":4784,"Ġà¦ķà¦°à¦®à¦°":4785,"Ġà¦īà¦Ľ":4786,"Ġà¦īà¦ŀ":4787,"Ġà¦īà¦°à¦°":4788,"à¦¬à¦¨à¦²":4789,"à¦¬à¦¨à¦¤à¦°":4790,"à¦¬à¦¨à¦ªà¦°":4791,"à¦¬à¦¨à¦°à¦ķ":4792,"à¦¬à¦¨à¦®à¦¯":4793,"à¦¬à¦¨à¦²à¦¤":4794,"à¦¬à¦¨à¦¸à¦Ļ":4795,"à¦ĵà¦·":4796,"à¦ĵà¦ľà¦¨":4797,"Ġà¦ħà¦¨à¦¬":4798,"Ġà¦ħà¦¨à¦¸":4799,"Ġà¦ħà¦¨à¦¶à¦¨":4800,"Ġà¦²à¦ª":4801,"Ġà¦²à¦ŀ":4802,"Ġà¦²à¦Ĺà¦¨":4803,"à¦Ĩà¦ī":4804,"à¦Ĩà¦ŀ":4805,"à¦Ĩà¦¨à¦¬":4806,"à¦Ĩà¦ļà¦²":4807,"à¦Ĩà¦°à¦¶":4808,"à¦Ĩà¦¬à¦¦":4809,"à¦Ĩà¦¦à¦®":4810,"à¦Ĩà¦¨à¦²":4811,"à¦Ĩà¦§à¦¬":4812,"à¦Ĩà¦ĸà¦£":4813,"Ġà¦ĸà¦¬":4814,"Ġà¦ĸà¦ª":4815,"Ġà¦ĸà§Ł":4816,"Ġà¦ĸà¦Ł":4817,"Ġà¦ĸà¦Łà¦ķ":4818,"à§ľà¦°":4819,"à§ľà¦Ĺ":4820,"à§ľà¦Ł":4821,"à§ľà¦¤à¦²":4822,"à§ľà¦¸à¦®":4823,"à§ľà¦¯à¦¨":4824,"Ġà¦§à¦ķ":4825,"Ġà¦§à¦®":4826,"à¦¬à¦ªà¦¥":4827,"Ġà¦ĵà¦¬":4828,"Ġà¦ĵà¦°à¦ĩ":4829,"Ġà¦ĵà¦¤à¦ª":4830,"à¦°à¦¬à¦¬":4831,"à¦°à¦¬à¦°à¦£":4832,"à¦°à¦¬à¦Ĩà¦ķ":4833,"Ġà¦Ĩà¦®à¦ķ":4834,"à¦ħà¦ĸ":4835,"à¦ħà¦¡":4836,"à¦ħà¦ľà¦¨":4837,"à¦ħà¦¸à¦¨":4838,"à¦ħà¦¸à¦Ļ":4839,"à¦ħà¦Ńà§Ł":4840,"à¦ħà¦ķà¦²à¦Ļ":4841,"Ġà¦ħà¦®à¦ĺ":4842,"Ġà¦ıà¦ķà¦§":4843,"Ġà¦ıà¦ķà¦¤à¦²":4844,"Ġà¦ıà¦ķà¦ıà¦ķà¦Ł":4845,"Ġà¦ıà¦ķà¦°à¦Ļ":4846,"Ġà¦ıà¦ķà¦ķà¦¥":4847,"à¦ĺà¦¯":4848,"à¦ĺà¦®à¦¨":4849,"à¦ĺà¦°à¦¦":4850,"à¦ĺà¦²à¦¤":4851,"à¦ĺà¦¦à¦²":4852,"à¦ĺà¦¤à¦®":4853,"à¦ĺà¦Ŀà¦¡":4854,"à¦¤à¦°à¦¦":4855,"à¦¤à¦°à¦ĸ":4856,"à¦¤à¦°à¦Ł":4857,"à¦¤à¦°à¦®à¦¨":4858,"à¦¤à¦°à¦Ĩà¦ķ":4859,"à¦¤à¦°à¦ľà¦Ĺà¦¤":4860,"Ġà¦®à¦¨à¦ĩ":4861,"Ġà¦ĵà¦łà¦¤":4862,"à¦Ŀà¦ª":4863,"à¦Ŀà¦°à¦¸":4864,"à¦Ŀà¦®à¦°":4865,"à¦¬à¦²à¦¹":4866,"à¦ıà¦¨à¦ķ":4867,"à¦°à¦£à¦¬à¦¨":4868,"à¦°à¦£à¦®à¦¯":4869,"à¦°à¦£à¦ªà¦¤":4870,"à¦°à¦£à§Łà¦¨":4871,"à¦īà¦¬à¦¨":4872,"à¦īà¦ĵ":4873,"à¦īà¦ªà¦¦":4874,"à¦īà§ľà¦¨":4875,"à¦īà§İà¦ª":4876,"à¦īà¦ĩà¦«":4877,"Ġà¦ªà¦¥à¦®":4878,"Ġà¦ªà¦¥à¦¸":4879,"Ġà¦ªà¦¥à¦ĸ":4880,"Ġà¦ªà¦¥à¦ªà¦¥":4881,"Ġà¦ĺà¦¨à¦¦":4882,"Ġà¦ĺà¦Łà¦²":4883,"à¦ªà¦¨à¦ĸ":4884,"Ġà¦Ĩà¦¸à¦¯":4885,"à¦¬à¦°à¦ĩ":4886,"à¦¬à¦°à¦®à¦¯":4887,"à¦¦à¦¨à¦¨":4888,"à¦¦à¦¨à¦®":4889,"à¦ŀà¦ª":4890,"à¦ªà¦°à¦¨":4891,"à¦ªà¦°à¦ļ":4892,"à¦ªà¦°à¦®à¦Ń":4893,"à¦®à¦¨à¦¦":4894,"à¦®à¦¨à¦¹":4895,"Ġà¦Ŀà¦°à¦ķ":4896,"Ġà¦Ŀà¦Ĺà¦¡":4897,"Ġà¦Ĩà¦°à¦ıà¦ķà¦¦":4898,"à¦«à¦°à¦®":4899,"à¦¤à¦¨à¦ª":4900,"à¦¤à¦¨à¦¹":4901,"à¦¤à¦¨à¦Ĺ":4902,"à¦¤à¦¨à¦ļ":4903,"Ġà¦Ĩà¦ķà¦£":4904,"Ġà¦ªà¦°à¦¨":4905,"Ġà¦ªà¦°à¦ľ":4906,"Ġà¦ªà¦°à¦ĸ":4907,"à¦ľà¦¨à¦¯":4908,"à¦ľà¦¨à¦ľ":4909,"à¦ľà¦¨à¦§":4910,"à¦ľà¦¨à¦Ĺ":4911,"à¦ľà¦¨à¦Ń":4912,"à¦ľà¦¨à¦®à¦¨":4913,"à¦¨à¦¬à¦ĩ":4914,"à¦¨à¦¬à¦°à¦¤":4915,"à¦¨à¦¬à¦¸à¦¤":4916,"Ġà¦¸à¦¬à¦¤":4917,"Ġà¦¢à¦ª":4918,"à¦¤à¦¬à¦¹":4919,"à¦¤à¦¬à¦°à¦£":4920,"à¦¤à¦¬à¦¸à¦¨":4921,"Ġà¦ħà¦®à¦²à¦¬":4922,"Ġà¦ħà¦®à¦²à¦§":4923,"Ġà¦ħà¦®à¦²à¦Ń":4924,"Ġà¦¬à¦¨à¦ľ":4925,"Ġà¦¬à¦¨à¦Ĺ":4926,"Ġà¦¬à¦²à¦ª":4927,"Ġà¦¬à¦²à¦¦à¦°":4928,"Ġà¦ħà¦¦à¦°":4929,"Ġà¦ħà¦¦à¦²à¦¬":4930,"à§İà¦ĩ":4931,"à§İà¦¸à¦®":4932,"à§İà¦¸à¦Ļ":4933,"à§İà¦ªà¦¤":4934,"à¦°à¦ķà¦¤":4935,"à¦°à¦ķà¦ķ":4936,"à¦¨à¦¤à¦¶":4937,"à¦¨à¦¤à¦Ń":4938,"à¦°à¦¨à¦¨":4939,"à¦°à¦¨à¦Ĺà¦°":4940,"à¦ļà¦²à¦¹":4941,"à¦ļà¦²à¦ļ":4942,"à¦¦à§Łà¦Ĺ":4943,"à¦¦à§Łà¦Ńà¦°":4944,"à¦¦à§Łà¦®à¦£":4945,"Ġà¦Ńà¦°à¦Ńà¦°":4946,"à¦°à¦®à¦¸":4947,"à¦°à¦®à¦¹":4948,"à¦°à¦®à¦§":4949,"à¦°à¦®à¦¥":4950,"à¦°à¦®à¦¥à¦¨":4951,"à¦·à¦£à¦¨":4952,"à¦·à¦£à¦ª":4953,"à¦·à¦£à¦¶":4954,"à¦·à¦£à¦Ń":4955,"à¦·à¦£à¦¤à¦°":4956,"à¦·à¦£à¦¬à¦ŀ":4957,"à¦ķà¦²à¦¬":4958,"à¦ķà¦²à¦ª":4959,"à¦ķà¦²à¦Ĺ":4960,"à¦ķà¦²à¦¬à¦¦":4961,"à¦ķà¦²à¦¬à¦¸à¦¨":4962,"à¦®à¦²à¦®":4963,"à¦®à¦²à¦Ń":4964,"à¦®à¦²à¦¤à¦®":4965,"Ġà¦Ĩà¦ľà¦°":4966,"Ġà¦Ĩà¦ľà¦Ĺ":4967,"à¦ªà¦¥à¦ĺ":4968,"à¦¸à¦¨à¦ķ":4969,"à¦¸à¦¨à¦®":4970,"à¦¸à¦¨à¦¦":4971,"à¦¸à¦¨à¦¹":4972,"à¦¸à¦¨à¦ªà¦°":4973,"à¦ħà¦¨à¦¡":4974,"à¦ħà¦¨à¦²à¦¨":4975,"Ġà¦ľà¦²à¦¤":4976,"Ġà¦ľà¦²à¦²":4977,"Ġà¦ľà¦²à¦®à¦¯":4978,"Ġà¦ľà¦²à¦¦à¦°":4979,"Ġà¦ľà¦²à¦¬à¦¤":4980,"Ġà¦ľà¦²à¦ļà¦°":4981,"Ġà¦ľà¦²à¦®à¦Ĺ":4982,"à¦§à¦¨à¦¸":4983,"à¦§à¦¨à¦¦":4984,"à¦§à¦¨à¦Ł":4985,"à¦§à¦¨à¦Ń":4986,"Ġà¦ħà¦ļà¦ªà¦²":4987,"à¦ıà¦ķà¦¯":4988,"à¦ıà¦ķà¦ļ":4989,"à¦ıà¦ķà¦Ŀ":4990,"à¦ıà¦ķà¦®à¦¨":4991,"à¦ıà¦ķà¦ıà¦ķà¦Ł":4992,"à¦ıà¦ķà¦ĸà¦£":4993,"à¦ıà¦ķà¦Ŀà¦²à¦ķ":4994,"Ġà¦°à¦Ļà¦¤":4995,"Ġà¦°à¦Ļà¦Ĺ":4996,"Ġà¦°à¦Ļà¦Ł":4997,"Ġà¦°à¦Ļà¦ļà¦Ļ":4998,"Ġà¦Ĩà¦¬à¦¶":4999,"à¦¶à¦¬à¦¦":5000,"à¦¶à¦¬à¦§":5001,"Ġà¦ĩà¦¦":5002,"Ġà¦ĩà¦¥":5003,"Ġà¦ĩà¦¨à¦¸":5004,"Ġà¦ĩà¦Łà¦ª":5005,"à¦²à¦ķà¦¦":5006,"à¦²à¦ķà¦ª":5007,"Ġà¦ħà¦¸à¦Ń":5008,"à¦¸à¦¬à¦ľ":5009,"Ġà¦Łà¦Ĺà¦°":5010,"Ġà¦ľà¦¨à¦®à¦¨":5011,"Ġà¦ľà¦¨à¦¸à¦®":5012,"à¦¤à¦²à¦¬":5013,"à¦¤à¦²à¦Ń":5014,"Ġà¦ħà¦ľà¦²":5015,"Ġà¦ħà¦ľà¦¯":5016,"Ġà¦ħà¦ķà¦°":5017,"Ġà¦ħà¦ķà¦°à¦£":5018,"à¦ķà¦°à¦²":5019,"à¦ķà¦°à¦¸":5020,"à¦ķà¦°à¦Ĺ":5021,"à¦²à¦¨à¦Ń":5022,"à¦²à¦¨à¦®à¦§":5023,"à¦²à¦¨à§Łà¦¨":5024,"à¦²à¦¬à¦¬":5025,"à¦²à¦¬à¦®à¦°":5026,"à¦²à¦¬à¦ĺà¦¨":5027,"Ġà¦ħà¦Ĺà¦¸":5028,"à¦¦à¦°à¦¸":5029,"Ġà¦Ŀà¦°à¦²":5030,"Ġà¦¨à¦¬à¦¤":5031,"Ġà¦¨à¦¬à¦ķ":5032,"Ġà¦¨à¦¬à¦¬à¦¸à¦¨":5033,"à¦ľà¦²à¦ľ":5034,"à¦ľà¦²à¦Ńà¦°":5035,"à¦ľà¦²à¦°à¦Ļ":5036,"Ġà¦¬à¦¸à¦°":5037,"à¦°à¦Ńà¦¬à¦¨":5038,"à¦°à¦¦à¦Ĺ":5039,"Ġà¦Ĩà¦Ĺà¦®":5040,"à¦¸à¦°à¦¹":5041,"à¦ķà¦¤à¦®":5042,"à¦ķà¦¤à¦ĸ":5043,"Ġà¦®à¦¹à¦¡":5044,"Ġà¦ħà¦Ńà¦Ļ":5045,"à¦°à¦¸à¦ª":5046,"à¦Łà¦²à¦¤":5047,"à¦°à¦¹à¦®":5048,"à¦°à¦¹à¦¦":5049,"à¦°à¦¹à¦Ĺ":5050,"à¦°à¦¹à¦°à¦£":5051,"à¦°à¦¹à¦®à¦¯":5052,"à¦ıà¦ĩà¦¤":5053,"à¦ıà¦ĩà¦ĩ":5054,"Ġà¦ªà¦¦à¦¤":5055,"Ġà¦ªà¦¦à¦¦":5056,"Ġà¦ªà¦¦à¦ªà¦¥":5057,"à¦Ĩà¦ľà¦¬":5058,"à¦Ĩà¦²à¦Ĺ":5059,"à¦Ĩà¦²à¦ªà¦¨":5060,"à¦Ĩà¦²à¦Ĺà¦°":5061,"à¦°à¦¶à¦°":5062,"à¦°à¦¶à¦ķ":5063,"Ġà¦ħà¦ªà¦²":5064,"à¦²à¦¤à¦®":5065,"à¦²à¦¤à¦Ł":5066,"Ġà¦¬à¦¹à¦¤":5067,"Ġà¦¬à¦¹à¦²":5068,"à¦®à¦°à¦Ļ":5069,"à¦°à¦ľà¦®":5070,"à¦¬à¦¤à¦Ĺà¦¹":5071,"à¦·à¦°à¦°":5072,"Ġà¦ĺà¦°à¦Ĺ":5073,"à¦¨à¦¨à¦¹":5074,"à¦¨à¦¨à¦Ĺà¦°":5075,"Ġà¦¯à¦¤à¦Ĺ":5076,"à¦¬à¦¸à¦Ļ":5077,"à¦Ĩà¦ķà¦¨":5078,"Ġà¦ķà¦¤à¦ľà¦¨":5079,"Ġà¦ķà¦¤à¦ķà¦Ĺ":5080,"Ġà¦¸à¦°à¦Ĺà¦®":5081,"à¦Ĺà¦²à¦®":5082,"à¦Ĺà¦²à¦¶à¦Ļ":5083,"à¦Ĺà¦²à¦ĺà¦Ł":5084,"Ġà¦Ĩà¦¤à¦¶":5085,"Ġà¦ķà¦ĸà¦¨à¦ĩ":5086,"Ġà¦ħà¦²à¦ĸ":5087,"Ġà¦¨à§Łà¦¤":5088,"Ġà¦¨à§Łà¦¨à¦¨":5089,"à¦¦à¦²à¦°":5090,"à¦¦à¦²à¦¶":5091,"à¦¦à¦²à¦¬à¦²":5092,"Ġà¦īà§İà¦ªà¦¨":5093,"Ġà¦īà§İà¦¸à¦®":5094,"à¦ĩà¦¤à¦¸":5095,"Ġà¦¤à¦²à¦ĵà§Ł":5096,"à¦®à§Łà¦°":5097,"à¦®à§Łà¦ķà¦°":5098,"Ġà¦Ĺà§ľà¦ĸ":5099,"à¦ĸà¦°à¦Ĺ":5100,"Ġà¦Ĩà¦¹à¦°à¦£":5101,"à¦¬à¦¦à¦®":5102,"à¦§à¦¤à¦®":5103,"à¦ķà¦¨à¦ļ":5104,"à¦ķà¦¨à¦ķà¦ķ":5105,"Ġà¦¶à¦¤à¦¸":5106,"Ġà¦¶à¦¤à¦¦":5107,"Ġà¦¶à¦¤à¦§":5108,"Ġà¦Ĩà¦ªà¦¨à¦¹":5109,"à¦ħà¦¬à¦ľ":5110,"à¦ħà¦¬à¦§":5111,"à¦ħà¦¬à¦ļ":5112,"à¦Ĩà¦°à¦ıà¦ķà¦Ł":5113,"à¦¯à¦ķà¦£":5114,"Ġà¦Ĳà¦°":5115,"à¦¨à¦ķà¦¶":5116,"à¦§à¦°à¦Ľ":5117,"à¦ĸà¦²à¦Ń":5118,"à¦¨à¦Ĺà¦Ĺà¦¨":5119,"à¦ªà¦ķà¦®":5120,"à¦¤à¦ķà§ľ":5121,"à¦¤à¦®à¦¹":5122,"à¦¤à¦®à¦ŀ":5123,"à¦ĺà¦°à¦Ł":5124,"à¦¦à¦®à¦¸":5125,"Ġà¦ªà¦²à¦²":5126,"Ġà¦ªà¦²à¦¸":5127,"à¦ħà¦¸à§İ":5128,"à¦®à¦°à¦£à¦²":5129,"à¦®à¦°à¦£à¦¹":5130,"Ġà¦īà¦ªà¦²":5131,"Ġà¦īà¦ªà¦¡":5132,"Ġà¦īà¦ªà§ľ":5133,"Ġà¦īà§İà¦¸à¦¬à¦¦":5134,"Ġà¦īà§İà¦¸à¦¬à¦¹":5135,"Ġà¦¬à¦¸à¦¨à¦Ń":5136,"Ġà¦¶à¦¹à¦°à¦ª":5137,"Ġà¦ľà§Łà¦ķ":5138,"Ġà¦ľà§Łà¦ľà§Łà¦ķ":5139,"à¦°à¦ªà¦²":5140,"à¦°à¦ªà¦Ļ":5141,"Ġà¦®à¦²à¦®":5142,"à¦Ĩà¦¬à¦¹":5143,"à¦ħà¦¶à¦ķ":5144,"Ġà¦ĺà¦¨à¦ªà¦¤":5145,"Ġà¦ĺà¦¨à¦ĺà¦¨":5146,"à¦¨à¦Ńà¦¨":5147,"Ġà¦¸à¦®à§Łà¦¹":5148,"Ġà¦¸à¦®à§Łà¦Ĺ":5149,"Ġà¦¸à¦®à§Łà¦ªà¦°":5150,"à¦¬à¦ķà¦¯":5151,"à¦¬à¦ķà¦®":5152,"à¦ªà¦²à¦²":5153,"Ġà¦¶à¦ªà¦¥à¦¬à¦¦":5154,"Ġà¦¶à¦ªà¦¥à¦ªà¦¤":5155,"à§İà¦ķà¦®":5156,"à¦®à¦¬à¦Ļ":5157,"à¦¯à¦°à¦¹à¦¸":5158,"à¦¯à¦°à¦ļà¦¨":5159,"Ġà¦ļà¦°à¦£à¦®":5160,"Ġà¦ļà¦°à¦£à¦¦":5161,"à¦«à¦²à¦Ĺ":5162,"à¦°à¦Ļà¦¬":5163,"à¦°à¦Ļà¦ķà¦°":5164,"à¦ħà¦ľà¦ª":5165,"à¦ħà¦ľà¦Ĺà¦°":5166,"à¦®à¦£à¦¦à¦²":5167,"à¦ĩà§Łà¦°":5168,"à¦¨à¦¶à¦¯":5169,"à¦¨à¦¶à¦¸":5170,"à¦¸à¦ķà¦²à¦ĩ":5171,"à¦¨à¦¸à¦ĸ":5172,"à¦¨à¦¸à¦Ń":5173,"à¦¨à¦¸à¦ªà¦¥":5174,"à¦¨à¦ªà¦£":5175,"à¦¸à¦«à¦°":5176,"à¦¸à¦«à¦Łà¦ĵà§Ł":5177,"à¦·à¦ķà¦¥":5178,"à¦¯à¦¨à¦Ĺà¦°":5179,"ÂłÂłÂłÂłÂłÂłÂłÂłÂłÂłÂłÂłÂłÂłÂłÂłÂłÂłÂłÂłÂłÂłÂłÂłÂłÂłÂłÂł":5180,"ÂłÂłÂłÂłÂłÂłÂłÂłÂłÂłÂłÂłÂłÂłÂłÂłÂłÂłÂłÂłÂłÂłÂłÂłÂłÂł":5181,"ÂłÂłÂłÂłÂłÂłÂłÂłÂłÂłÂłÂłÂłÂłÂłÂłÂłÂłÂłÂłÂłÂłÂłÂłÂłÂłÂłÂłÂłÂłÂłÂłÂłÂłÂłÂłÂłÂłÂłÂł":5182,"à¦¬à¦ªà¦¨à¦ļ":5183,"à¦¬à¦ªà¦¨à¦®à¦¯":5184,"à§Ŀà¦¬":5185,"à¦ĺà¦¨à¦ĺà¦¨":5186,"à¦ħà¦¦à¦®à¦¨":5187,"à¦¨à¦²à¦Ľ":5188,"à¦°à¦ªà¦°à¦¶":5189,"à¦®à¦¶à§Łà¦¨":5190,"à¦Ĺà¦®à¦Ĺ":5191,"à¦§à¦¬à¦§à¦¬":5192,"à¦·à§Łà¦ķ":5193,"à¦Ĺà¦£à¦®":5194,"à¦Ĺà¦£à¦¤à¦²":5195,"à¦¸à¦¹à¦ķà¦°":5196,"à¦¸à¦¹à¦§à¦°":5197,"à¦¬à¦£à¦®":5198,"à¦²à¦¸à¦¦":5199,"à¦¸à¦®à§Łà¦ª":5200,"à¦°à¦ľà¦¨à¦®":5201,"à¦¶à¦¤à¦¶à¦¤":5202,"à¦īà¦łà¦¤":5203,"à¦°à¦Ĺà¦¦":5204,"à¦ľà¦¸à¦ľ":5205,"à¦°à¦®à¦£à¦ªà¦¥":5206,"Ġà¦Ĺà¦Ĺà¦¨à¦¸":5207,"Ġà¦Ĺà¦Ĺà¦¨à¦ª":5208,"Ġà¦Ĩà§ľà¦·":5209,"à¦ıà¦®à¦¨à¦Ł":5210,"Ġà¦¦à¦°à¦¦à¦°":5211,"Ġà¦®à¦°à¦£à¦¸":5212,"à¦Ĳà¦°":5213,"à¦¶à¦¹à¦°à¦¤à¦²":5214,"à¦°à¦ĵà¦²":5215,"à¦°à¦ĵà¦ª":5216,"à¦ĩà¦Łà¦¸":5217,"à¦¬à¦¸à¦¨à¦Ń":5218,"à¦Ĺà¦ľà¦ªà¦¤":5219,"Ġà¦Ĩà¦§à¦®à¦°":5220,"à¦¬à¦ľà¦Ĺà¦¤":5221,"Ġà¦°à¦£à¦§":5222,"Ġà¦°à¦£à¦°à¦Ļ":5223,"à§ªà§«":5224,"à§ªà§¬":5225,"à§ªà§Ń":5226,"à§ªà§®":5227,"à¦²à¦Ńà¦Ļ":5228,"à¦ħà¦ªà¦¬":5229,"à¦¨à¦®à¦Ļ":5230,"à¦¬à¦°à¦¤à¦²":5231,"Ġà§§à§ª":5232,"Ġà§§à§«":5233,"Ġà¦ľà¦Ĺà§İà¦®":5234,"Ġà¦ľà¦Ĺà§İà¦ļà¦°":5235,"Ġà¦¨à§Łà¦¨à¦ľ":5236,"Ġà¦¨à§Łà¦¨à¦Ńà¦°":5237,"Ġà¦°à¦¥à¦¯":5238,"Ġà¦°à¦¥à¦ĺà¦°":5239,"Ġà¦Ŀà§ľà¦¬":5240,"à¦²à¦ľà¦«":5241,"à¦¦à¦¶à¦¦":5242,"à¦¦à¦¶à¦Ł":5243,"Ġà¦¦à¦¶à¦Ń":5244,"Ġà¦¦à¦¶à¦°à¦¥":5245,"à¦Ĩà¦Ľà§ľ":5246,"à¦ħà¦§à¦®":5247,"à¦¬à¦®à¦Ļ":5248,"à¦¬à¦ľà¦¨à¦¹":5249,"Ġà§§à§©à§©à§¨":5250,"Ġà¦ķà§Łà¦ľà¦¨":5251,"à¦ħà¦²à¦ĸ":5252,"à§Ńà§§":5253,"Ġà¦¤à¦Łà¦°":5254,"Ġà¦¦à¦®à¦¨à¦ķ":5255,"Ġà¦¦à¦®à¦¨à¦ª":5256,"à¦£à¦¨à¦Ĺà¦°":5257,"à¦ķà¦®à¦²à¦¦":5258,"Ġà¦®à¦°à¦®à¦ķ":5259,"Ġà¦®à¦°à¦®à¦¤à¦²":5260,"ĠĠĠ":5261,"ĠĠĠĠč":5262,"à¦Īà¦¨à¦¦":5263,"à¦¬à§ľà¦ĩ":5264,"à¦īà§İà¦¸à¦¬à¦®":5265,"à¦Ĭà¦¨":5266,"à¦¶à¦ªà¦¥à¦¬à¦¦":5267,"à¦Ŀà¦ķà¦®à¦ķ":5268,"Ġà¦²à§ľà¦¤":5269,"à¦ľà¦Ĺà§İà¦®":5270,"à¦ĭà¦¦":5271,"à¦¥à¦®à¦¥à¦®":5272,"Ġà¦Ĭà¦·à¦¸":5273,"čĊĠč":5274,"čĊÂłÂłÂłÂłÂłÂłÂłÂłÂłÂłÂłÂłÂłÂłÂłÂłÂłÂł":5275,"à¦°à¦²à§Łà¦¶":5276,"à¦°à¦²à§Łà¦Ļ":5277,"Ġà¦·à§ľà¦¯à¦¨":5278,"à¦·à¦¸à¦ªà¦¤":5279,"à¦¦à¦®à¦¨à¦¨":5280,"à¦¦à¦®à¦¨à¦ķ":5281,"à¦¦à¦®à¦¨à¦ª":5282,"Ġà¦ªà¦¦à¦¯à¦¨":5283,"à¦£à¦¸à¦ŀ":5284,"Ġà§¨à§¨":5285,"Ġà§¨à§ª":5286,"Ġà§¨à§«":5287,"à¦¨à§Łà¦¨à¦Ń":5288,"Ġà¦Ŀà¦ķà¦®à¦ķ":5289,"Ġà§©à§¦":5290,"à¦¬à¦ĩà¦Ĺ":5291,"Ġà¦Ĩà¦°à¦¬à¦¬":5292,"Ġà¦Ķà¦°à¦¸":5293,"à¦°à¦®à¦¶à¦ĩ":5294,"à¦ħà¦¯à¦¤à¦¨":5295,"à¦Ĩà¦ĩà¦¨à¦¶":5296,"Ġà¦ķà¦¨à¦ķà¦ļ":5297,"à¦Ĩà¦ĩà¦¨à¦¨":5298,"à¦ľà¦Ĺà§İà¦¸":5299,"Ġà¦ķà¦ĵà¦¸à¦°":5300,"Ġà¦¥à¦²à¦¥à¦²":5301,"Ġà¦Ŀà¦Łà¦ªà¦Ł":5302,"à¦īà§İà¦ªà¦²":5303,"Ġà¦ĵà¦²à¦Łà¦ª":5304,"à¦²à¦¦à¦²à¦Ĺ":5305,"à¦ľà¦²à¦ķà¦£":5306,"à¦ķà¦ĵà¦¸à¦°":5307,"Ġà¦¸à¦«à¦Łà¦ĵà§Ł":5308,"à¦ķà¦¨à¦ķà¦īà¦¦à¦¯":5309,"ÂłÂłÂłÂłÂłÂłÂłÂłÂłÂłÂłÂłÂłÂłÂłÂłÂłÂłÂłÂłÂłÂłÂłÂłÂłÂłÂłÂłÂłÂłÂłÂłÂłÂłÂłÂłÂłÂł":5310,"à¦ıà¦Ĩà¦ĩà§Ł":5311,"à¦ıà¦Ĩà¦ĩà¦°":5312,"Ġà§§à§¯à§ªà§¦":5313,"à¦ħà¦¬à¦¨à¦¤":5314,"Ġà¦Ĩà¦ĩà¦ķà¦¨":5315,"à¦Ķà¦¦":5316,"Ġà¦®à¦°à¦ķà¦¤":5317,"ÂłĠÂłĠÂłĠÂł":5318,"ĠĠĠĠĠĠĠĠ":5319,"Ġà¦²à¦Łà¦ªà¦Ł":5320,"Ġà¦¥à¦ĩà¦¥à¦ĩ":5321,"Ġà¦ªà¦īà¦·à¦¨":5322,"Ġà¦ķà¦ļà¦ķà¦ļ":5323,"à¦Ĩà¦īà¦¶":5324,"Ġà¦ħà¦¦à¦²à¦¬à¦¦à¦²":5325,"čĊÂłÂłÂłÂłÂłÂłÂłÂłÂłÂłÂłÂłÂłÂłÂłÂłÂłÂłč":5326,"Ġà§ĭ":5327,"ĠÂłÂłÂł":5328,"ĠÂłÂłÂłÂłÂłÂłÂłÂłÂłÂłÂłÂł":5329,"ĠÂłÂłÂłÂłÂłÂł":5330,"ĠÂłÂłÂłÂłÂłÂłÂłÂłÂłÂłÂł":5331,"ĠÂłÂłÂłÂłÂłÂłÂłÂłÂłÂłÂłÂłÂłÂłÂłÂłÂłÂł":5332,"ĠÂłÂłÂłÂłÂłÂłÂłÂłÂłÂłÂłÂłÂłÂłÂłÂłÂłÂłÂłÂł":5333,"ĠÂłÂłÂłÂłÂłÂłÂłÂłÂłÂłÂłÂłÂłÂłÂłÂłÂłÂłÂł":5334,"Ġà¦ŀ":5335,"à§ĩà¦¿":5336,"à§ĩà§Ģ":5337,"à¦°à¦°à¦ķ":5338,"à¦°à¦ĵà¦¯":5339,"à¦°à¦ĵà§Ł":5340,"à¦°à¦Ĩà¦ľ":5341,"à¦°à¦¢":5342,"à¦°à¦ĩà¦¤":5343,"à¦°à¦Ĩà¦°":5344,"à¦°à¦ħà¦¸":5345,"à¦°à¦ħà¦¶":5346,"à¦°à¦°à¦Ļ":5347,"à¦°à¦ħà¦ľ":5348,"à¦°à¦īà¦¦":5349,"à¦°à¦ĺà¦¨":5350,"à¦°à¦Ĩà¦¸":5351,"à¦°à¦¸à¦®à§Ł":5352,"à¦°à¦ħà¦®":5353,"à¦°à¦Ĺà¦Ń":5354,"à¦°à¦Ĩà¦¨à¦¨":5355,"à¦°à¦ħà¦°":5356,"à¦°à¦ħà¦ª":5357,"à¦°à¦Ĩà¦Ļ":5358,"à¦°à¦ĸà¦£":5359,"à¦°à¦ħà¦Ļ":5360,"à¦°à¦ĺà¦Ł":5361,"à¦°à¦īà¦ªà¦°":5362,"à¦°à¦īà¦²à¦®":5363,"à¦°à¦ħà¦Ńà§Ł":5364,"à¦¿à§į":5365,"à¦¨à¦Ļ":5366,"à¦¨à¦ł":5367,"à¦¨à¦ı":5368,"à¦¨à¦ĸà¦¨":5369,"à¦¨à¦¨à¦¤":5370,"à¦¨à¦ķà¦²":5371,"à¦¨à¦®à¦²":5372,"à¦¨à¦ĵà¦¯":5373,"à¦¨à¦Ĺà¦¨":5374,"à¦¨à¦¹à¦¸":5375,"à¦¨à¦¶à¦¬":5376,"à¦¨à¦¸à¦°":5377,"à¦¨à¦¯à¦¥":5378,"à¦¨à¦ķà¦¤":5379,"à¦¨à¦°à¦¥":5380,"à¦¨à¦²à¦¤":5381,"à¦¨à¦¢":5382,"à¦¨à¦ķà¦¬":5383,"à¦¨à¦Ŀà¦°":5384,"à¦¨à¦¸à¦Ļ":5385,"à¦¨à¦ĺà¦°":5386,"à¦¨à¦¸à¦ķ":5387,"à¦¨à¦ħà¦¸":5388,"à¦¨à¦Ľà¦¬":5389,"à¦¨à¦®à¦§":5390,"à¦¨à¦¹à¦¤":5391,"à¦¨à¦¸à¦²":5392,"à¦¨à¦®à¦¶":5393,"à¦¨à¦Ĩà¦¸":5394,"à¦¨à¦īà¦¡":5395,"à¦¨à¦°à¦®à¦£":5396,"à¦¨à¦īà¦¤":5397,"à¦¨à¦ľà¦Ĺà¦¤":5398,"à¦¨à¦Ľà¦¡":5399,"à¦¨à¦ĸà¦ļ":5400,"à¦¨à¦¨à¦¤à¦²":5401,"à¦¨à¦°à¦¹à¦¤":5402,"à¦¨à¦¦à¦¨à¦¦":5403,"à¦¤à¦¬à¦ª":5404,"à¦¤à¦¬à¦²":5405,"à¦¤à¦¹à¦¸":5406,"à¦¤à¦¸à¦¬":5407,"à¦¤à¦¸à¦°":5408,"à¦¤à¦®à¦°":5409,"à¦¤à¦¦à¦²":5410,"à¦¤à¦Ńà¦¬":5411,"à¦¤à¦¤à¦ķ":5412,"à¦¤à¦Ľà¦¬":5413,"à¦¤à¦ľà§Ł":5414,"à¦¤à¦ĸà¦¤":5415,"à¦¤à¦ħà¦¤":5416,"à¦¤à¦¤à¦°à¦Ļ":5417,"à¦¤à¦īà¦¤":5418,"à¦¤à¦°à¦¤à¦°":5419,"à¦¤à¦īà¦¦à§Ł":5420,"à¦²à¦ł":5421,"à¦²à¦ħ":5422,"à¦²à¦¤à¦¨":5423,"à¦²à¦ĸà¦¨":5424,"à¦²à¦¤à¦¬":5425,"à¦²à¦¨à¦¤":5426,"à¦²à¦ħà¦¨":5427,"à¦²à¦²à¦ķ":5428,"à¦²à¦²à¦¨":5429,"à¦²à¦®à¦¤":5430,"à¦²à¦Ĩà¦ķ":5431,"à¦²à¦ĩà¦¤":5432,"à¦²à¦¸à¦Ļ":5433,"à¦²à¦§à¦°":5434,"à¦²à¦Ľà¦¬":5435,"à¦²à¦ĩà¦¨":5436,"à¦²à¦«à¦²":5437,"à¦²à¦¶à¦ķ":5438,"à¦²à¦īà¦¦":5439,"à¦²à¦Ĩà¦¸":5440,"à¦²à¦ħà¦¤":5441,"à¦²à¦ħà¦°":5442,"à¦²à¦¹à¦®":5443,"à¦²à¦īà§ľ":5444,"à¦²à¦«à¦°":5445,"à¦²à¦ķà¦²à¦ķ":5446,"à¦²à¦ĩà¦¶":5447,"à¦²à¦¦à¦°à¦¦":5448,"à§ģà¦¾":5449,"à§ģà§ĩ":5450,"à§ģà¦¿":5451,"à¦¬à¦ł":5452,"à¦¬à¦ħà¦¨":5453,"à¦¬à¦¶à¦¬":5454,"à¦¬à¦ľà¦²":5455,"à¦¬à¦Ĺà¦°":5456,"à¦¬à¦®à¦°":5457,"à¦¬à¦Ĩà¦ķ":5458,"à¦¬à¦ĸà¦°":5459,"à¦¬à¦ľà¦°":5460,"à¦¬à¦ķà¦£":5461,"à¦¬à§°":5462,"à¦¬à§İà¦¸à¦°":5463,"à¦¬à¦ħà¦²à¦ķ":5464,"à¦¯à¦°à¦¬":5465,"à¦¯à¦¦à¦¯":5466,"à¦¯à¦ªà¦¨":5467,"à¦¯à¦¨à¦¬":5468,"à¦¯à¦¦à§Ł":5469,"à¦¯à¦¨à¦¦":5470,"à¦¯à¦°à¦¥":5471,"à¦¯à¦®à¦°":5472,"à¦¯à¦¢":5473,"à¦¯à¦ķà¦¬":5474,"à¦¯à¦¨à¦°":5475,"à¦¯à¦®à¦£":5476,"à¦¯à§Łà¦¨":5477,"à¦¯à¦ħà¦°":5478,"à¦¯à¦ľà¦Ĺà¦¤":5479,"à¦¯à¦¶à¦¸":5480,"à¦¯à¦¸à¦¬à¦ĩ":5481,"à¦¯à¦īà¦¦à¦¯":5482,"à¦ķà¦Ĩ":5483,"à¦ķà¦ŀ":5484,"à¦ķà¦Ĩà¦®":5485,"à¦ķà¦ļà¦²":5486,"à¦ķà¦°à¦®":5487,"à¦ķà¦·à¦£":5488,"à¦ķà¦ķà¦°":5489,"à¦ķà¦ĵà§Ł":5490,"à¦ķà¦ķà¦¤":5491,"à¦ķà¦®à¦°":5492,"à¦ķà¦ĩà¦¤":5493,"à¦ķà¦¹à¦²":5494,"à¦ķà¦ħà¦¶":5495,"à¦ķà¦®à¦£":5496,"à¦ķà¦Ĺà¦£":5497,"à¦ķà¦¶à¦¤":5498,"à¦ķà¦¯à¦ľ":5499,"à¦®à¦Ĩ":5500,"à¦®à¦°à¦¬":5501,"à¦®à¦Ĩà¦®":5502,"à¦®à¦®à¦²":5503,"à¦®à¦¸à¦¬":5504,"à¦®à¦¦à¦°":5505,"à¦®à¦°à¦¹":5506,"à¦®à¦®à¦°":5507,"à¦®à¦¬à¦¤":5508,"à¦®à¦¬à¦¸":5509,"à¦®à¦Ĩà¦ķ":5510,"à¦®à¦Ŀà¦°":5511,"à¦®à¦¥à¦°":5512,"à¦®à¦ľà¦¯":5513,"à¦®à¦ķà¦¨":5514,"à¦®à¦ªà¦Ł":5515,"à¦®à¦®à¦¹":5516,"à¦®à¦Ĩà¦¶":5517,"à¦®à¦Ĺà¦ľ":5518,"à¦®à¦Ŀà¦¡":5519,"à¦®à¦īà§İà¦¸à¦¬":5520,"à¦®à¦¸à¦¬à¦ĩ":5521,"à¦®à¦°à¦¤à¦¨":5522,"à¦®à¦ķà¦²à¦¹":5523,"à¦®à¦Ĩà¦²à¦¯":5524,"à¦®à¦ĭà¦£":5525,"à¦®à¦Ĩà¦ķà¦°":5526,"à§ĭà§ĩ":5527,"à¦¸à§Ł":5528,"à¦¸à¦¬à¦¨":5529,"à¦¸à¦¦à¦¯":5530,"à¦¸à¦¬à¦°":5531,"à¦¸à¦¨à¦¤":5532,"à¦¸à¦ļà¦²":5533,"à¦¸à¦ħà¦¨":5534,"à¦¸à¦²à¦¨":5535,"à¦¸à¦¦à¦°":5536,"à¦¸à¦¸à¦®":5537,"à¦¸à¦°à¦¦":5538,"à¦¸à¦ĵà§Ł":5539,"à¦¸à¦Ĩà¦²":5540,"à¦¸à¦Ĩà¦ķ":5541,"à¦¸à¦ĩà¦¤":5542,"à¦¸à¦ªà¦ķ":5543,"à¦¸à¦īà¦ļ":5544,"à¦¦à¦¬à¦²":5545,"à¦¦à¦ľà¦¨":5546,"à¦¦à¦°à¦¨":5547,"à¦¦à¦ķà¦²":5548,"à¦¦à¦¸à¦¨":5549,"à¦¦à¦¬à¦¸":5550,"à¦¦à¦ªà¦¤":5551,"à¦¦à¦īà¦²":5552,"à¦¦à¦īà¦ļ":5553,"à¦¦à¦ħà¦²":5554,"à¦¦à¦ĩà¦ļ":5555,"à¦¦à¦Ńà¦Ļ":5556,"à¦¦à¦Ńà¦¬à¦¨":5557,"à¦¦à¦ĩà¦Ń":5558,"à¦¦à¦īà¦ªà¦¸":5559,"Ġà¦¸à¦¬à¦°":5560,"Ġà¦¸à¦°à¦¨":5561,"Ġà¦¸à¦ĩà¦¯":5562,"Ġà¦¸à§İà¦¸":5563,"Ġà¦¸à¦¶à¦ķ":5564,"Ġà¦¸à§Łà¦¤":5565,"Ġà¦¸à¦Ńà§Ł":5566,"Ġà¦¸à§°":5567,"Ġà¦¸à¦¦à§Łà¦¤":5568,"Ġà¦¬à¦ĵ":5569,"Ġà¦¬à¦ĵà§Ł":5570,"Ġà¦¬à¦ķà¦¬":5571,"Ġà¦¬à¦ĩà¦Ł":5572,"Ġà¦¬à¦¬à¦®":5573,"Ġà¦¬à¦īà¦®":5574,"Ġà¦Ĩà¦ī":5575,"Ġà¦Ĩà¦¹à¦°":5576,"Ġà¦Ĩà¦¤à¦²":5577,"Ġà¦Ĩà¦ªà¦¤":5578,"Ġà¦Ĩà¦ļà¦°":5579,"Ġà¦Ĩà¦īà¦²":5580,"Ġà¦Ĩà¦§à¦¬":5581,"Ġà¦Ĩà¦£à¦¬":5582,"Ġà¦Ĩà¦ĵà§ľ":5583,"à¦ªà§Ł":5584,"à¦ªà¦¸à¦¨":5585,"à¦ªà¦¸à¦¬":5586,"à¦ªà¦¦à¦°":5587,"à¦ªà¦¸à¦°":5588,"à¦ªà¦Ĺà¦°":5589,"à¦ªà¦ļà¦¨":5590,"à¦ªà¦Ľà¦¨":5591,"à¦ªà¦ªà¦¤":5592,"à¦ªà¦Ńà¦°":5593,"à¦ªà¦ħà¦¬":5594,"à¦ªà¦ļà¦°":5595,"à¦ªà¦ļà¦ķ":5596,"à¦ªà¦¶à¦ķ":5597,"à¦ªà¦Ńà¦Ļ":5598,"Ġà¦ªà¦ª":5599,"Ġà¦ªà¦ĸ":5600,"Ġà¦ªà¦Ĺ":5601,"Ġà¦ªà¦¦à¦°":5602,"Ġà¦ªà¦Łà¦ķ":5603,"Ġà¦ªà§Łà¦ľ":5604,"Ġà¦ķà¦¬à¦¨":5605,"Ġà¦ķà¦ļà¦²":5606,"Ġà¦ķà¦ĵà¦¯":5607,"Ġà¦ķà¦¹à¦°":5608,"Ġà¦ķà¦¤à¦²":5609,"Ġà¦ķà¦²à¦¬":5610,"Ġà¦ķà¦®à¦¤":5611,"Ġà¦ķà¦®à¦°":5612,"Ġà¦ķà¦¦à¦²":5613,"Ġà¦ķà¦¹à¦²":5614,"Ġà¦ķà¦«à¦¨":5615,"Ġà¦®à¦°à¦¦":5616,"Ġà¦®à¦¥à¦¨":5617,"Ġà¦¨à¦ľ":5618,"Ġà¦¨à¦¨à¦¦":5619,"Ġà¦¨à¦§à¦°":5620,"Ġà¦¨à¦¬à¦²à¦¤":5621,"Ġà¦¨à¦ĩà¦ķ":5622,"Ġà¦¨à¦²à¦¬à¦¨":5623,"Ġà¦¨à¦Ĺà¦¦":5624,"Ġà¦¨à¦Łà¦°":5625,"Ġà¦¨à¦¬à¦¨à¦¬":5626,"Ġà¦¨à¦«à¦¸":5627,"à¦¶à¦°à¦ķ":5628,"à¦¶à¦²à¦ķ":5629,"à¦¶à¦¸à¦¬":5630,"à¦¶à¦¦à¦°":5631,"à¦¶à¦¨à¦¦":5632,"à¦¶à¦®à¦¤":5633,"à¦¶à¦®à¦°":5634,"à¦¶à¦¨à¦¨":5635,"à¦¶à¦¦à¦²":5636,"à¦¶à¦ķà¦¬":5637,"à¦¶à¦ªà¦¤":5638,"à¦¶à¦¨à¦ķ":5639,"à¦¶à¦¸à¦²":5640,"à¦¶à¦®à¦¶":5641,"à¦¶à¦¤à¦°à¦Ļ":5642,"à¦¶à¦ľà¦®":5643,"à¦¶à¦¬à¦¨à¦®":5644,"Ġà¦ħà¦°à¦¤":5645,"Ġà¦ħà¦ĸà¦¨":5646,"Ġà¦ħà¦°à¦²":5647,"Ġà¦ħà¦¹à¦¨":5648,"Ġà¦ħà¦Ľà¦²":5649,"à¦ľà¦°à¦¤":5650,"à¦ľà¦ĵ":5651,"à¦ľà¦®à¦¨":5652,"à¦ľà¦°à¦¨":5653,"à¦ľà¦¹à¦¸":5654,"à¦ľà¦§à¦¨":5655,"à¦ľà¦¸à¦¬":5656,"à¦ľà¦®à¦¤":5657,"à¦ľà¦°à¦¯":5658,"à¦ľà¦ķà¦¬":5659,"à¦ľà¦§à¦°":5660,"à¦ľà¦ĺà¦°":5661,"à¦ľà¦ķà¦£":5662,"à¦ľà¦ĺà¦¨":5663,"à¦ľà¦ľà¦¸":5664,"à¦ľà¦ªà¦®":5665,"à¦ľà¦Ĺà¦¦":5666,"à¦ľà¦°à¦ľà¦°":5667,"à§Łà¦¡":5668,"à§Łà¦«":5669,"à§Łà¦®à¦²":5670,"à§Łà¦ħà¦¨":5671,"à§Łà¦¦à¦°":5672,"à§Łà¦°à¦¥":5673,"à§Łà¦®à¦°":5674,"à§Łà¦¸à¦Ļ":5675,"à§Łà¦Ńà¦°":5676,"à§Łà¦ħà¦¬":5677,"à§Łà¦§à¦°":5678,"à§Łà¦¸à¦«":5679,"à§Łà¦¸à¦®à§Ł":5680,"à§Łà¦ªà§ľ":5681,"à§Łà¦ħà¦ª":5682,"à§Łà¦¦à¦®à¦¨":5683,"à§Łà¦¶à¦ĩ":5684,"à¦ģà¦¾":5685,"à¦¹à¦ªà¦°":5686,"à¦¹à¦«":5687,"à¦¹à¦Ĩà¦®":5688,"à¦¹à¦ªà¦¥":5689,"à¦¹à¦Ĺà¦¨":5690,"à¦¹à¦§à¦¨":5691,"à¦¹à¦²à¦ķ":5692,"à¦¹à¦Ĺà¦°":5693,"à¦¹à¦Ĺà¦¤":5694,"à¦¹à¦²à¦¤":5695,"à¦¹à¦ĩà¦¤":5696,"à¦¹à¦ĩà¦¯":5697,"à¦¹à¦®à¦§":5698,"à¦¹à¦¬à¦²à¦¤":5699,"à¦¹à¦Ĺà¦¬":5700,"à¦¹à¦®à¦¸":5701,"à¦¹à¦Ńà¦Ļ":5702,"à¦¹à¦£à¦¹":5703,"à¦§à¦ĸ":5704,"à¦§à¦Ł":5705,"à¦§à¦¡":5706,"à¦§à¦ĵ":5707,"à¦§à§ľ":5708,"à¦§à¦¬à¦°":5709,"à¦§à¦®à¦¨":5710,"à¦§à¦Ĩà¦®":5711,"à¦§à¦ªà¦¥":5712,"à¦§à¦Ĺà¦¨":5713,"à¦§à¦ħà¦¨":5714,"à¦§à¦°à¦¹":5715,"à¦§à¦Ĺà¦¤":5716,"à¦§à¦¬à¦¤":5717,"à¦§à¦¬à¦¸":5718,"à¦§à¦¦à¦²":5719,"à¦§à¦®à§Ł":5720,"à¦§à¦ľà¦¯":5721,"à¦§à¦ļà¦ķ":5722,"à¦§à¦¬à¦¹":5723,"à¦§à¦ĺà¦¨":5724,"à¦§à¦Ĺà¦£":5725,"à¦§à¦¶à¦°":5726,"à¦§à¦®à¦Ĺ":5727,"à¦§à¦¹à¦¯":5728,"Ġà¦¹à¦¡":5729,"Ġà¦¹à¦°à¦¬":5730,"Ġà¦¹à¦ŀ":5731,"Ġà¦¹à¦ķà¦¤":5732,"Ġà¦¹à¦¨à¦¨":5733,"Ġà¦¹à¦°à¦²":5734,"Ġà¦¹à¦°à¦¤à¦ķ":5735,"Ġà¦¹à¦°à¦¦à¦®":5736,"Ġà¦¦à¦¶à¦¬":5737,"Ġà¦¦à¦²à¦¤":5738,"Ġà¦¦à¦ĩà¦¯":5739,"à¦ĸà¦ł":5740,"à¦ĸà¦¤à¦°":5741,"à¦ĸà¦«":5742,"à¦ĸà¦¸à¦®":5743,"à¦ĸà¦ľà¦²":5744,"à¦ĸà¦¦à¦²":5745,"à¦ĸà¦¸à¦Ļ":5746,"à¦ĸà¦®à§Ł":5747,"à¦ĸà¦ļà¦ķ":5748,"à¦ĸà¦ħà¦¶":5749,"à¦ĸà¦ķà¦¥":5750,"à¦ĸà¦°à¦¤à¦°":5751,"à¦ĸà¦¶à¦¯":5752,"à¦ĸà¦¶à¦¶":5753,"à¦ĸà¦ĺà¦£":5754,"à¦Ĺà¦ĸ":5755,"à¦Ĺà¦¤à¦°":5756,"à¦Ĺà¦¬à¦°":5757,"à¦Ĺà¦ķà¦²":5758,"à¦Ĺà¦®à¦²":5759,"à¦Ĺà¦ķà¦°":5760,"à¦Ĺà¦°à¦¦":5761,"à¦Ĺà¦Ĺà¦¤":5762,"à¦Ĺà¦Ĩà¦ķ":5763,"à¦Ĺà¦ķà¦¬":5764,"à¦Ĺà¦®à¦ķ":5765,"à¦Ĺà¦ªà¦¤":5766,"à¦Ĺà¦®à¦¹":5767,"à¦Ĺà¦®à¦¬":5768,"à¦Ĺà¦īà¦¦":5769,"à¦Ĺà¦ĺà¦¨":5770,"à¦Ĺà¦Ĺà¦£":5771,"à¦Ĺà¦¶à¦°":5772,"à¦Ĺà¦ħà¦Ń":5773,"à¦Ĺà¦ĸà¦£":5774,"à¦Ĺà¦°à¦ķà¦²":5775,"à¦Ĺà¦²à¦¬à¦¦":5776,"à¦Łà¦¯":5777,"à¦Łà¦ĵ":5778,"à¦Łà¦®à¦¨":5779,"à¦Łà¦®à¦¯":5780,"à¦Łà¦¤à¦²":5781,"à¦Łà¦Ńà¦°":5782,"à¦Łà¦°à¦Ĺ":5783,"à¦Łà¦ķà¦Łà¦ķ":5784,"à¦Łà¦Ĺà¦¬à¦Ĺ":5785,"à¦¼à§ĩà¦¾":5786,"à¦·à¦·":5787,"à¦·à¦¡":5788,"à¦·à¦Ĩ":5789,"à¦·à¦¬à¦°":5790,"à¦·à¦¦à¦¨":5791,"à¦·à¦ľà¦¨":5792,"à¦·à¦°à¦®":5793,"à¦·à¦¹à¦°":5794,"à¦·à¦ķà¦°":5795,"à¦·à¦¸à¦®":5796,"à¦·à¦¸à¦°":5797,"à¦·à¦ķà¦¨":5798,"à¦·à¦¦à¦Ĺ":5799,"à¦·à¦¸à¦¦":5800,"à¦·à¦¸à¦Ń":5801,"à¦·à¦ķà¦¬à¦§":5802,"Ġà¦¤à¦¸à¦¬":5803,"Ġà¦¤à¦ķà¦¦":5804,"Ġà¦¤à§İà¦ª":5805,"à¦£à¦Ľ":5806,"à¦£à¦¡":5807,"à¦£à¦ĺ":5808,"à¦£à¦ªà¦°":5809,"à¦£à¦ķà¦²":5810,"à¦£à¦Ĺà¦¨":5811,"à¦£à¦¸à¦¨":5812,"à¦£à¦²à¦ķ":5813,"à¦£à¦°à¦¶":5814,"à¦£à¦®à¦¤":5815,"à¦£à¦Ŀà¦°":5816,"à¦£à¦§à¦°":5817,"à¦£à¦ªà¦¦":5818,"à¦£à¦ªà¦ķ":5819,"à¦£à¦¬à¦§":5820,"à¦£à¦¶à¦¸":5821,"à¦£à¦ĺà¦Ł":5822,"à¦Ľà¦Ľ":5823,"à¦Ľà¦ļ":5824,"à¦Ľà¦ĩ":5825,"à¦Ľà¦¤à¦®":5826,"Ġà¦Ĺà¦¹à¦°":5827,"Ġà¦Ĺà¦°à¦¸":5828,"Ġà¦Ĺà¦ľà¦¯":5829,"Ġà¦Ĺà¦¤à¦ķ":5830,"à§ĥà§ĥ":5831,"Ġà¦Ńà¦°à¦£":5832,"Ġà¦Ńà¦Ĺà¦¨":5833,"Ġà¦Ńà¦¨à¦¯":5834,"Ġà¦Ńà¦¬à¦¨à¦®":5835,"Ġà¦Ńà¦¨à¦Ńà¦¨":5836,"à¦ļà¦¦":5837,"à¦ļà¦Ĺ":5838,"à¦ļà¦ĩ":5839,"à¦ļà¦¤à¦¨":5840,"à¦ļà¦¨à¦¤":5841,"à¦ļà¦°à¦¸":5842,"à¦ļà¦¦à¦²":5843,"à¦ļà¦ªà¦Ł":5844,"à¦ļà¦¬à¦ķ":5845,"à¦ļà¦¬à¦§":5846,"à¦ļà¦ĵà¦¡":5847,"à¦¥à¦°à¦¤":5848,"à¦¥à¦ĵ":5849,"à¦¥à¦°à¦®":5850,"à¦¥à¦ħà¦¨":5851,"à¦¥à¦ľà¦²":5852,"à¦¥à¦°à¦Ń":5853,"à¦¥à¦°à¦¦":5854,"à¦¥à¦°à¦¹":5855,"à¦¥à¦ªà¦¤":5856,"à¦¥à¦Ńà¦°":5857,"Ġà¦ľà¦¬à¦¨":5858,"Ġà¦ľà¦ªà¦¤":5859,"Ġà¦ľà¦ĺà¦¨":5860,"Ġà¦ľà¦¬à¦°à¦¦à¦¸":5861,"Ġà¦¯à¦¯":5862,"Ġà¦¯à¦ľà¦®":5863,"Ġà¦¯à¦®à¦ľ":5864,"à¦ĩà¦§":5865,"à¦ĩà¦¥":5866,"à¦ĩà¦ł":5867,"à¦ĩà¦ĺ":5868,"à¦ĩà¦ī":5869,"à¦ĩà¦¬à¦°":5870,"à¦ĩà¦ĸà¦¨":5871,"à¦ĩà¦ıà¦ķ":5872,"à¦ĩà¦¦à¦°":5873,"à¦ĩà¦¸à¦°":5874,"à¦ĩà¦ıà¦ĩ":5875,"à¦ĩà¦Ĩà¦ľ":5876,"à¦ĩà¦®à¦Ł":5877,"à¦ĩà¦īà¦¤à¦°":5878,"à¦¡à¦¯":5879,"à¦¡à¦ĸ":5880,"à¦¡à¦Ľ":5881,"à¦¡à¦¤à¦°":5882,"à¦¡à¦¬à¦²":5883,"à¦¡à¦°à¦ķ":5884,"à¦¡à¦§à¦°":5885,"à¦¡à§Łà¦¨":5886,"à¦¡à¦ķà¦¥":5887,"à¦¡à¦Ńà¦£":5888,"à¦¡à¦Łà¦Ļ":5889,"Ġà¦¶à¦§":5890,"Ġà¦¶à¦Ł":5891,"Ġà¦¶à¦¬à¦°":5892,"Ġà¦¶à¦°à¦¨":5893,"Ġà¦¶à¦°à¦¦":5894,"Ġà¦¶à¦¶à¦ķ":5895,"Ġà¦¶à¦°à¦¶à¦¯":5896,"Ġà¦ļà¦¶":5897,"Ġà¦ļà¦°à¦¤":5898,"Ġà¦ļà¦°à¦¨":5899,"Ġà¦°à¦°":5900,"Ġà¦°à¦²":5901,"Ġà¦°à¦§":5902,"Ġà¦°à¦Ń":5903,"Ġà¦°à§ľ":5904,"Ġà¦°à¦®à¦¨":5905,"Ġà¦°à¦¸à¦°":5906,"Ġà¦°à¦£à¦¤":5907,"à¦Ńà¦·":5908,"à¦Ńà¦Ľ":5909,"à¦Ńà¦ŀ":5910,"à¦Ńà¦ĸà¦¨":5911,"à¦Ńà§İ":5912,"à¦Ńà¦Ĺà¦¨":5913,"à¦Ńà¦¸à¦®":5914,"à¦Ńà¦¨à¦¨":5915,"à¦Ńà§Łà¦¤":5916,"à¦Ńà¦²à¦Ĺ":5917,"à¦Ńà§İà¦¸à¦¨":5918,"Ġà¦Ľà¦®à¦ķ":5919,"à¦¼à¦¾à¦ģ":5920,"à¦¼à¦¾à¦Ĥ":5921,"à§Ĥà§į":5922,"à§Ĥà¦ĥ":5923,"à¦Ļà¦¶":5924,"à¦Ļà¦¡":5925,"à¦łà¦²":5926,"à¦łà¦Ń":5927,"à¦łà¦«":5928,"à¦łà¦¨à¦¬":5929,"à¦łà¦°à¦¸":5930,"à¦łà¦°à¦¹":5931,"à¦łà¦Ńà¦°":5932,"à¦łà¦¶à¦ķ":5933,"à¦łà¦¨à¦Ł":5934,"à¦łà¦Ĺà§ľ":5935,"Ġà¦ıà¦Ĩ":5936,"Ġà¦ıà¦ŀ":5937,"Ġà¦ıà¦ľà¦¨":5938,"Ġà¦ıà¦ľà¦²":5939,"Ġà¦ıà¦ľà¦¨à¦®":5940,"Ġà¦ıà¦«à¦¤":5941,"à¦°à¦¤à¦¤":5942,"à¦°à¦¤à¦Ļ":5943,"à¦°à¦¤à¦¸à¦®":5944,"à¦°à¦¤à¦°à¦¸":5945,"Ġà¦«à¦²à¦¤":5946,"Ġà¦ķà¦°à¦®":5947,"Ġà¦ķà¦°à¦ªà¦¦":5948,"Ġà¦ķà¦°à¦®à¦ļ":5949,"Ġà¦ķà¦°à¦Ńà¦¸à¦®":5950,"Ġà¦īà¦¶":5951,"Ġà¦īà¦¸à¦ĸ":5952,"Ġà¦īà¦«à¦¸":5953,"à¦¬à¦¨à¦°à¦¬":5954,"à¦¬à¦¨à¦Ŀ":5955,"à¦¬à¦¨à¦®à¦¨":5956,"à¦¬à¦¨à¦ľà¦¨":5957,"à¦¬à¦¨à¦²à¦ķ":5958,"à¦¬à¦¨à¦¸à¦°":5959,"à¦¬à¦¨à¦°à¦¸":5960,"à¦¬à¦¨à¦ħà¦¬":5961,"à¦¬à¦¨à¦§à¦°":5962,"à¦¬à¦¨à¦ļà¦°":5963,"à¦¬à¦¨à¦Ľà¦¬":5964,"à¦¬à¦¨à¦īà¦¦":5965,"à¦¬à¦¨à¦ħà¦®":5966,"à¦¬à¦¨à¦²à¦¯":5967,"à¦¬à¦¨à¦®à¦¦":5968,"à¦ĵà¦Ŀ":5969,"à¦ĵà¦¸à¦¬":5970,"à¦ĵà¦Ĩà¦ľ":5971,"à¦ĵà¦Ĩà¦²":5972,"à¦ĵà¦¦à¦²":5973,"à¦ĵà§ľà¦¨":5974,"à¦ĵà¦²à¦Ł":5975,"Ġà¦ħà¦¨à¦ľ":5976,"Ġà¦ħà¦¨à¦²à¦ª":5977,"Ġà¦²à¦¨":5978,"Ġà¦²à¦ĵà§Ł":5979,"Ġà¦²à¦¹à¦¨":5980,"Ġà¦²à¦Łà¦ķ":5981,"Ġà¦²à¦ĩà¦Ľ":5982,"à¦Ĩà¦£":5983,"à¦Ĩà¦Ĺà¦¨":5984,"à¦Ĩà¦°à¦¸":5985,"à¦Ĩà¦Ĺà¦²":5986,"à¦Ĩà¦¹à¦²":5987,"à¦Ĩà¦¨à¦ķ":5988,"à¦Ĩà¦¸à¦ķ":5989,"à¦Ĩà¦¸à¦«":5990,"à¦Ĩà¦¹à¦¬":5991,"à¦Ĩà¦Łà¦Ł":5992,"Ġà¦ĸà¦¦":5993,"Ġà¦ĸà¦²à¦¨":5994,"Ġà¦ĸà¦°à¦¶":5995,"Ġà¦ĸà¦ĩà¦¯":5996,"Ġà¦ĸà¦¤à¦®":5997,"à§ľà¦ĸ":5998,"à§ľà¦ĺ":5999,"à§ľà¦«":6000,"Ġà¦Ĩà¦²à¦ķ":6001,"Ġà¦Ĩà¦²à¦Ļ":6002,"Ġà¦§à¦Ł":6003,"Ġà¦§à¦°à¦®":6004,"à¦¬à¦ªà¦¤":6005,"à¦¬à¦ªà¦Ł":6006,"à¦¬à¦ªà¦£":6007,"à¦¬à¦ªà¦¨à¦¦":6008,"Ġà¦ĵà¦¤":6009,"Ġà¦ĵà¦¸":6010,"Ġà¦ĵà¦ĩà¦¯":6011,"Ġà¦ĵà¦ķà¦¥":6012,"à¦°à¦¬à¦°à¦¬":6013,"à¦°à¦¬à¦¸à¦¨":6014,"à¦°à¦¬à¦¸à¦¤":6015,"à¦°à¦¬à§İà¦¸à¦°":6016,"à¦°à¦¬à¦¬à¦Ļ":6017,"Ġà¦Ĩà¦®à¦¤":6018,"Ġà¦Ĩà¦®à¦Ĺ":6019,"Ġà¦Ĩà¦®à¦ļ":6020,"Ġà¦Ĩà¦®à§ľ":6021,"à¦ħà¦¤à¦¨":6022,"à¦ħà¦ķà¦²":6023,"à¦ħà¦¯à¦¤":6024,"à¦ħà¦ķà¦°":6025,"à¦ħà¦¸à¦¤à¦¤":6026,"à¦ħà¦¸à¦°à¦²":6027,"à¦ħà¦¨à¦¬à¦°à¦¤":6028,"Ġà¦ħà¦®à¦¯":6029,"Ġà¦ħà¦®à¦°à¦¬":6030,"Ġà¦ħà¦®à¦°à¦®":6031,"Ġà¦ħà¦®à¦¬à¦¸":6032,"Ġà¦ħà¦®à¦°à¦²":6033,"Ġà¦¥à¦°à¦¹à¦°":6034,"Ġà¦¥à¦ĩà¦¤":6035,"Ġà¦ıà¦ķà¦¹":6036,"Ġà¦ıà¦ķà¦ıà¦ķ":6037,"Ġà¦ıà¦ķà¦°à¦¶":6038,"Ġà¦ıà¦ķà¦¦à¦²":6039,"Ġà¦ıà¦ķà¦¦à¦®":6040,"Ġà¦ıà¦ķà¦ķà¦£":6041,"Ġà¦ıà¦ķà¦ĸà¦£":6042,"Ġà¦ıà¦ķà¦°à¦ķà¦®":6043,"à¦ĺà¦¤":6044,"à¦ĺà¦¹":6045,"à¦ĺà¦·":6046,"à¦ĺà¦¬à¦¨":6047,"à¦ĺà¦ĺ":6048,"à¦ĺà¦¤à¦°":6049,"à¦ĺà¦Ŀ":6050,"à¦ĺà¦ªà¦¥":6051,"à¦ĺà¦¸à¦¨":6052,"à¦ĺà¦°à¦¸":6053,"à¦ĺà¦¢":6054,"à¦ĺà¦Ŀà¦°":6055,"à¦ĺà¦ľà¦Ł":6056,"à¦¤à¦°à¦§":6057,"à¦¤à¦°à¦ļ":6058,"à¦¤à¦°à¦¥":6059,"à¦¤à¦°à¦ĵ":6060,"à¦¤à¦°à¦ªà¦°":6061,"à¦¤à¦°à¦¶à¦¬":6062,"à¦¤à¦°à¦Ĺà¦¤":6063,"à¦¤à¦°à¦Ĩà¦Ĺ":6064,"à¦¤à¦°à¦ľà¦Ĺà§İ":6065,"Ġà¦®à¦¨à¦¶":6066,"Ġà¦®à¦¨à¦Ľ":6067,"Ġà¦®à¦¨à¦®à¦¨":6068,"Ġà¦®à¦¨à¦®à¦¤":6069,"Ġà¦®à¦¨à¦®à¦°":6070,"Ġà¦®à¦¨à¦¨à¦ķ":6071,"Ġà¦®à¦¨à¦ķà¦¥":6072,"Ġà¦®à¦¨à¦®à¦¸":6073,"à¦Ŀà¦¸":6074,"à¦Ŀà¦ĩ":6075,"à¦Ŀà¦°à¦¬":6076,"à¦Ŀà¦¨à¦¨":6077,"à¦Ŀà¦¬à¦¯":6078,"à¦¬à¦²à¦ĸ":6079,"à¦¬à¦²à¦ļ":6080,"à¦¬à¦²à¦¤à¦°":6081,"à¦¬à¦²à¦ľà¦²":6082,"à¦ıà¦¤à¦¨":6083,"à¦ıà¦ľà¦¨":6084,"à¦°à¦£à¦²":6085,"à¦°à¦£à¦Ĺ":6086,"à¦°à¦£à¦£":6087,"à¦°à¦£à¦°à¦£":6088,"à¦°à¦£à¦ķà¦°":6089,"à¦°à¦£à¦ķà¦£":6090,"à¦°à¦£à¦¤à¦ª":6091,"à¦°à¦£à¦¬à¦¸à¦¨":6092,"à¦°à¦£à¦¡à¦Ļ":6093,"à¦īà¦¥":6094,"à¦īà¦Ń":6095,"à¦īà¦ĺ":6096,"à¦īà¦ªà¦¨":6097,"à¦īà¦¨à¦¤":6098,"à¦īà¦°à¦¨":6099,"à¦īà¦²à¦ķ":6100,"à¦īà¦¸à¦¬":6101,"à¦īà¦Ĺà¦°":6102,"à¦īà¦¨à¦¸":6103,"à¦īà¦ªà¦¶":6104,"à¦īà¦Łà¦¨":6105,"à¦īà¦¸à¦¬à¦ĩ":6106,"à¦īà¦Ľà¦¸":6107,"à¦īà¦ĩà§Łà¦°":6108,"Ġà¦ªà¦¥à¦Ľ":6109,"Ġà¦ĺà¦°à¦£":6110,"Ġà¦ĺà¦°à¦ľ":6111,"Ġà¦ĺà¦Łà¦ķ":6112,"à¦ªà¦¨à¦²":6113,"à¦ªà¦¨à¦¯":6114,"à¦ªà¦¨à¦§":6115,"à¦ªà¦¨à¦Ń":6116,"Ġà¦Ĩà¦¸à¦¨à¦Ł":6117,"à¦¬à¦°à¦¶":6118,"à¦¬à¦°à¦ľ":6119,"à¦¬à¦°à¦§":6120,"à¦¬à¦°à¦ĸ":6121,"à¦¬à¦°à¦¥":6122,"à¦¬à¦°à¦Ń":6123,"à¦¬à¦°à¦ŀ":6124,"à¦¬à¦°à¦ķà¦°":6125,"à¦¬à¦°à¦Ĺà¦Ń":6126,"à¦¬à¦°à¦Ĺà¦¸":6127,"à¦¦à¦¨à¦¸":6128,"à¦¦à¦¨à¦ª":6129,"à¦¦à¦¨à¦ľ":6130,"à¦¦à¦¨à¦Ł":6131,"à¦¦à¦¨à¦Ľ":6132,"à¦¦à¦¨à¦Ń":6133,"à¦¦à¦¨à¦ĵ":6134,"à¦¦à¦¨à¦«":6135,"à¦¦à¦¨à¦Ĺà¦¨":6136,"à¦¦à¦¨à¦®à§Ł":6137,"à¦¦à¦¨à¦ļà¦°":6138,"à¦¦à¦¨à¦ĺà¦¨":6139,"à¦ŀà¦¬":6140,"à¦ŀà¦¯":6141,"à¦ŀà¦ķ":6142,"à¦ŀà¦ĺ":6143,"à¦ŀà¦®à¦¨":6144,"à¦ªà¦°à¦ľà¦¨":6145,"à¦ªà¦°à¦¶à¦¹":6146,"à¦ªà¦°à¦¶à¦®":6147,"Ġà¦Ĩà¦¶à¦¨":6148,"Ġà¦Ĩà¦¶à¦ª":6149,"à¦®à¦¨à¦°":6150,"à¦®à¦¨à¦ļ":6151,"à¦®à¦¨à¦°à¦®":6152,"à¦®à¦¨à¦ªà¦Ł":6153,"à¦®à¦¨à¦¨à¦¶":6154,"à¦®à¦¨à¦Ĺà¦°à¦ķ":6155,"Ġà¦Ŀà¦®":6156,"Ġà¦Ŀà¦Ĺà§ľ":6157,"Ġà¦Ĩà¦°à¦¨":6158,"Ġà¦Ĩà¦°à¦¸":6159,"Ġà¦Ĩà¦°à¦¸à¦ķà¦²":6160,"Ġà¦Ĩà¦°à¦ıà¦ķà¦¬":6161,"Ġà¦¡à¦®à¦°":6162,"à¦«à¦®":6163,"à¦«à¦Ĺ":6164,"à¦«à¦²à¦¬":6165,"à¦¤à¦¨à¦¬":6166,"à¦¤à¦¨à¦¶":6167,"à¦¤à¦¨à¦ĸ":6168,"à¦¤à¦¨à¦Ń":6169,"à¦¤à¦¨à§Łà¦¨":6170,"Ġà¦Ĩà¦ķà¦¡":6171,"Ġà¦ªà¦°à¦¹":6172,"Ġà¦ªà¦°à¦Ń":6173,"Ġà¦ªà¦°à¦Ĺà¦¨":6174,"Ġà¦ªà¦°à¦®à¦¤":6175,"Ġà¦ªà¦°à¦ªà¦¦":6176,"Ġà¦ªà¦°à¦®à¦¸":6177,"Ġà¦¸à¦®à¦®":6178,"Ġà¦¸à¦®à¦ª":6179,"Ġà¦¸à¦®à¦¬à¦¯":6180,"à¦ľà¦¨à¦²":6181,"à¦ľà¦¨à¦Ĺà¦£":6182,"à¦¨à¦¬à¦Ĺ":6183,"à¦¨à¦¬à¦°à¦£":6184,"à¦¨à¦¬à§İ":6185,"à¦¨à¦¬à¦ķà¦²":6186,"à¦¨à¦¬à¦ķà¦£":6187,"à¦¨à¦¬à¦īà¦¦":6188,"à¦¨à¦¬à¦¬à¦¸à¦¨":6189,"à¦¨à¦¬à¦¬à¦§":6190,"à¦¨à¦¬à¦Ĺà¦łà¦¨":6191,"à¦ĸà¦¨à¦ĸ":6192,"Ġà¦¸à¦¬à¦¶":6193,"Ġà¦¸à¦¬à¦¹":6194,"Ġà¦¸à¦¬à¦ķà¦Ł":6195,"Ġà¦¸à¦¬à¦¸à¦®à§Ł":6196,"Ġà¦¸à¦¬à¦Ĩà¦Ĺ":6197,"Ġà¦¢à¦°":6198,"Ġà¦¢à¦ķ":6199,"Ġà¦¢à¦²à¦ķ":6200,"à¦¤à¦¬à§İà¦¸":6201,"à¦¤à¦¬à¦ķà¦Ĺ":6202,"Ġà¦ħà¦®à¦²à¦ª":6203,"Ġà¦ħà¦®à¦²à¦²à¦¤":6204,"Ġà¦ħà¦¬à§Ł":6205,"Ġà¦ħà¦¬à¦Ľ":6206,"Ġà¦¬à¦¨à¦¨":6207,"Ġà¦¬à¦¨à¦Ľ":6208,"Ġà¦¬à¦¨à¦¬à¦¨":6209,"Ġà¦¬à¦¨à¦«à¦²":6210,"Ġà¦¬à¦¨à¦¸à¦ĸ":6211,"à¦Ĩà¦®à¦¬":6212,"Ġà¦¬à¦²à¦°":6213,"Ġà¦¬à¦²à¦¨":6214,"Ġà¦¬à¦²à¦¶":6215,"Ġà¦¬à¦²à¦Ĩà¦®":6216,"Ġà¦ļà¦²à¦ļà¦ŀ":6217,"à§İà¦¨":6218,"à§İà¦¯":6219,"à§İà¦®":6220,"à§İà¦¶":6221,"à§İà¦ļ":6222,"à§İà¦ªà¦°":6223,"à§İà¦ķà¦°":6224,"à§İà¦Ŀà¦²":6225,"Ġà¦¹à§Łà¦¯":6226,"à¦°à¦ķà¦ł":6227,"à¦°à¦ķà¦¦à¦®":6228,"à¦°à¦ķà¦°à¦°":6229,"Ġà¦®à¦¤à¦ķ":6230,"Ġà¦īà¦łà¦¨":6231,"à¦°à¦¨à¦¹":6232,"à¦°à¦¨à¦ľà¦°":6233,"à¦ļà¦²à¦°":6234,"à¦ļà¦²à¦ķ":6235,"à¦ļà¦²à¦Ł":6236,"à¦ļà¦²à¦Ń":6237,"à¦ļà¦²à¦Ĩà§ľ":6238,"à¦¦à§Łà¦ĩ":6239,"à¦¦à§Łà¦Ń":6240,"à¦¦à§Łà¦Ļ":6241,"à¦¦à§Łà¦ĵ":6242,"à¦¦à§Łà¦®à¦¨":6243,"à¦¦à§Łà¦¦à¦²":6244,"à¦¦à§Łà¦®à§Ł":6245,"à¦¦à§Łà¦¯à¦¨":6246,"à¦¦à§Łà¦¹à¦°à¦£":6247,"à¦¦à§Łà¦ħà¦ŀ":6248,"Ġà¦Ńà¦°à¦®":6249,"à¦°à¦®à¦ķ":6250,"à¦°à¦®à¦Ĺ":6251,"à¦°à¦®à¦ªà¦°":6252,"à¦°à¦®à¦¸à¦ľ":6253,"à¦·à¦£à¦°":6254,"à¦·à¦£à¦¬":6255,"à¦·à¦£à¦ªà¦°":6256,"à¦ķà¦²à¦°":6257,"à¦ķà¦²à¦Ł":6258,"à¦ķà¦²à¦¬à¦¨":6259,"à¦ķà¦²à¦ķà¦£":6260,"à¦ķà¦²à¦Ńà¦Ļ":6261,"à¦®à¦²à¦ķ":6262,"à¦®à¦²à¦¶":6263,"à¦®à¦²à¦Ĺ":6264,"à¦®à¦²à¦§à¦¨":6265,"à¦ªà¦¥à¦¯":6266,"à¦ªà¦¥à¦ľ":6267,"à¦ªà¦¥à¦ĸ":6268,"à¦ªà¦¥à¦Ł":6269,"à¦Ĺà¦¨à¦°à¦ķ":6270,"Ġà¦Ĩà¦¨à¦ļ":6271,"Ġà¦Ĩà¦¨à§Łà¦¨":6272,"à¦¸à¦¨à¦Ł":6273,"à¦ħà¦¨à¦°":6274,"Ġà¦ľà¦²à¦ļ":6275,"Ġà¦ľà¦²à¦ĩ":6276,"Ġà¦ľà¦²à¦Ń":6277,"Ġà¦ľà¦²à¦«":6278,"Ġà¦ľà¦²à¦ªà¦¥":6279,"Ġà¦ľà¦²à¦¦à¦®":6280,"Ġà¦ľà¦²à¦¯à¦¨":6281,"Ġà¦ľà¦²à¦¤à¦°à¦Ļ":6282,"Ġà¦ľà¦²à¦¦à¦¸":6283,"Ġà¦ľà¦²à¦ķà¦²à¦¸":6284,"à¦¹à¦¸à¦¬":6285,"à¦¹à¦¸à¦ķ":6286,"à¦¹à¦¸à¦¸":6287,"à¦¹à¦¸à¦Ļ":6288,"à¦§à¦¨à¦®":6289,"à¦§à¦¨à¦ª":6290,"à¦§à¦¨à¦ļ":6291,"à¦¹à¦°à¦¥":6292,"à¦¹à¦°à¦ĩ":6293,"à¦¹à¦°à¦°à¦®":6294,"Ġà¦ħà¦ļà¦ķ":6295,"Ġà¦Ĺà¦²à¦¬":6296,"Ġà¦ķà¦¥à¦ķà¦¤":6297,"à¦ıà¦ķà¦§":6298,"à¦ıà¦ķà¦Ĺ":6299,"à¦ıà¦ķà¦Ľ":6300,"à¦ıà¦ķà¦ıà¦ķ":6301,"à¦ıà¦ķà¦ķà¦¥":6302,"Ġà¦¤à¦°à¦ľ":6303,"Ġà¦°à¦Ļà¦¨":6304,"Ġà¦°à¦Ļà¦®":6305,"Ġà¦°à¦Ļà¦°à¦¸":6306,"Ġà¦°à¦Ļà¦¹à¦°à¦£":6307,"à¦¶à¦¬à¦¬":6308,"à¦¶à¦¬à¦ķ":6309,"à¦¶à¦¬à¦¶":6310,"à¦¶à¦¬à¦ĩ":6311,"Ġà¦ĩà¦¬":6312,"Ġà¦ĩà¦¯":6313,"Ġà¦ĩà¦ķ":6314,"Ġà¦ĩà¦Ń":6315,"Ġà¦ĩà¦¬à¦¨":6316,"Ġà¦ĩà¦¸à¦°":6317,"Ġà¦ĩà¦¨à¦ķ":6318,"Ġà¦ĩà¦īà¦¨":6319,"à¦²à¦ķà¦¹":6320,"à¦²à¦ķà¦®à¦¤":6321,"à¦²à¦ķà¦ķà¦¬":6322,"Ġà¦ħà¦¸à¦®à¦¤":6323,"Ġà¦ħà¦¸à¦¤à¦¤":6324,"à¦¸à¦¬à¦¸":6325,"à¦¸à¦¬à¦¶":6326,"à¦¸à¦¬à¦ĸ":6327,"Ġà¦ıà¦ĩà¦¤":6328,"Ġà¦ıà¦ĩà¦ļ":6329,"Ġà¦ıà¦ĩà¦ĩ":6330,"Ġà¦ıà¦ĩà¦°à¦ķà¦®":6331,"Ġà¦Łà¦®":6332,"Ġà¦Łà¦¸":6333,"Ġà¦ľà¦¨à¦°à¦¬":6334,"à¦¤à¦²à¦ĵà§Ł":6335,"à¦¤à¦²à¦¶à¦¯":6336,"Ġà¦ħà¦¶à¦¥à¦ª":6337,"à¦ķà¦°à¦¹":6338,"à¦ķà¦°à¦¥":6339,"à¦ķà¦°à¦¸à¦®":6340,"à¦ķà¦°à¦ªà¦²":6341,"à¦²à¦¨à¦²":6342,"à¦²à¦¨à¦¯":6343,"à¦²à¦¨à¦ªà¦°":6344,"à¦²à¦¨à¦ªà¦¦":6345,"à¦²à¦¨à¦ķà¦¥":6346,"à¦²à¦¨à¦²à¦Ĺ":6347,"à¦²à¦¨à¦®à¦ŀ":6348,"à¦²à¦¬à¦¸":6349,"à¦²à¦¬à¦¦à¦¨":6350,"Ġà¦ķà¦¬à¦ľ":6351,"Ġà¦ķà¦¬à¦¹":6352,"Ġà¦ħà¦Ĺà¦®":6353,"à¦¦à¦°à¦Ļ":6354,"à¦¦à¦°à¦ŀ":6355,"Ġà¦¶à¦¬à¦¬":6356,"Ġà¦ķà¦²à¦ª":6357,"Ġà¦ķà¦²à¦¶":6358,"Ġà¦ķà¦²à¦Ń":6359,"Ġà¦ķà¦²à¦¹à¦¬":6360,"Ġà¦¹à¦¤à¦®":6361,"Ġà¦¹à¦¤à¦¦à¦°":6362,"Ġà¦¨à¦¬à¦Ĺ":6363,"Ġà¦¨à¦¬à¦°à¦¤":6364,"Ġà¦¨à¦¬à¦®à¦¨":6365,"Ġà¦¨à¦¬à¦ķà¦°":6366,"Ġà¦¨à¦¬à¦Ĩà¦²":6367,"Ġà¦¨à¦¬à¦Ĩà¦ķ":6368,"Ġà¦¨à¦¬à¦ĺà¦¨":6369,"à¦¸à¦®à¦Ŀ":6370,"Ġà¦¸à¦¨à¦¦":6371,"à¦ľà¦²à¦¯":6372,"à¦ľà¦²à¦®":6373,"à¦ľà¦²à¦¹":6374,"à¦ľà¦²à¦®à¦¯":6375,"à¦ľà¦²à¦¢":6376,"à¦ľà¦²à¦§à¦°":6377,"à¦ľà¦²à¦®à¦Ĺ":6378,"à¦ľà¦²à¦Ľà¦²à¦Ľà¦²":6379,"à¦°à¦Ńà¦Ń":6380,"à¦°à¦Ńà¦§à¦¨":6381,"Ġà¦łà¦Ĺ":6382,"Ġà¦łà¦Ļ":6383,"à¦°à¦¦à¦¶":6384,"à¦°à¦¦à¦²à¦®":6385,"à¦¸à¦°à¦¯":6386,"à¦¸à¦°à¦ª":6387,"à¦¸à¦°à¦·":6388,"à¦¸à¦°à¦¶à§Łà¦¨":6389,"Ġà¦Ĺà¦¨à¦¨":6390,"à¦Ĺà¦°à¦²":6391,"à¦Ĺà¦°à¦Ĺ":6392,"à¦Ĺà¦°à¦ľà¦²":6393,"à¦¨à¦¦à¦ķ":6394,"à¦°à¦¸à¦¦":6395,"à¦°à¦¸à¦ĸ":6396,"à¦°à¦¸à¦°à¦£":6397,"à¦°à¦¸à¦¦à¦®":6398,"à¦°à¦¹à¦¯":6399,"à¦°à¦¹à¦¶":6400,"à¦°à¦¹à¦ľ":6401,"à¦°à¦¹à¦°à¦¤":6402,"à¦°à¦¹à¦°à¦ķ":6403,"à¦°à¦¹à¦®à§Ł":6404,"à¦°à¦¹à¦Ńà¦°":6405,"à¦°à¦¹à¦īà¦ª":6406,"Ġà¦ªà¦¦à¦ĺ":6407,"Ġà¦ªà¦¦à¦¦à¦²":6408,"à¦Ĩà¦ľà¦Ĺ":6409,"à¦Ĩà¦²à¦®":6410,"à¦Ĩà¦²à¦ª":6411,"à¦°à¦¶à¦®":6412,"à¦°à¦¶à§Łà¦¨":6413,"Ġà¦ħà¦ªà¦¤":6414,"Ġà¦ħà¦ªà¦¹":6415,"Ġà¦ħà¦ªà¦¹à¦°":6416,"Ġà¦ħà¦ªà¦ļà§Ł":6417,"à¦ļà¦¨à¦²":6418,"à¦ļà¦¨à¦®":6419,"à¦ļà¦¨à¦¸":6420,"à¦ļà¦¨à¦¶":6421,"Ġà¦¬à¦¹à¦¬":6422,"Ġà¦¬à¦¹à¦¨à¦ķ":6423,"Ġà¦¬à¦°à¦°":6424,"Ġà¦¬à¦°à¦ª":6425,"Ġà¦¬à¦°à¦ĸ":6426,"à¦°à¦ľà¦¤":6427,"à¦°à¦ľà¦¸":6428,"à¦°à¦ľà¦¦":6429,"à¦°à¦ľà¦¬à¦¨":6430,"à¦¢à¦ª":6431,"à¦¬à¦¤à¦¸":6432,"à¦¬à¦¤à¦¦":6433,"à¦¬à¦¤à¦ª":6434,"à¦¬à¦¤à¦Ĺ":6435,"à¦·à¦°à¦ĸ":6436,"Ġà¦ĺà¦°à¦ª":6437,"Ġà¦ĺà¦°à¦ĸ":6438,"à¦·à¦¤à¦ĵ":6439,"à¦¨à¦¨à¦¨":6440,"à¦¨à¦¨à¦®":6441,"à¦¨à¦¨à¦¸":6442,"à¦¨à¦¨à¦ª":6443,"à¦¨à¦¨à§Ł":6444,"à¦¨à¦¨à¦ªà¦¥":6445,"à¦¨à¦¨à¦®à¦¯":6446,"Ġà¦¯à¦¤à¦ĸ":6447,"à¦¬à¦¸à¦¹":6448,"à¦¬à¦¸à¦Ń":6449,"à¦¬à¦¸à¦¶à¦°":6450,"Ġà¦¶à¦ķà¦Ł":6451,"à¦Ĩà¦ķà¦£":6452,"Ġà¦ħà¦Łà¦²à¦Ń":6453,"à¦°à¦¹à¦°à¦¹":6454,"à¦°à¦¹à¦°à¦Ń":6455,"Ġà¦ķà¦¤à¦®à¦¤":6456,"Ġà¦ķà¦¤à¦¶à¦¤":6457,"Ġà¦¸à¦°à¦ª":6458,"Ġà¦¸à¦°à¦ŀ":6459,"à¦Ĺà¦²à¦§":6460,"à¦Ĺà¦²à¦Ĺ":6461,"à¦Ĺà¦²à¦Ľ":6462,"à¦Ĺà¦²à¦¸à¦®":6463,"Ġà¦Ĩà¦¤à¦¸à¦¬":6464,"Ġà¦īà¦ļà¦Ľ":6465,"Ġà¦ķà¦ĸà¦¨à¦¬à¦¨":6466,"Ġà¦ħà¦²à¦¯":6467,"Ġà¦¨à§Łà¦®":6468,"Ġà¦¨à§Łà¦ľà¦¨":6469,"Ġà¦¨à§Łà¦¤à¦¬":6470,"Ġà¦¨à§Łà¦¨à¦¤":6471,"Ġà¦¨à§Łà¦ıà¦ĩ":6472,"Ġà¦¨à§Łà¦Ĩà¦ľ":6473,"à¦¦à¦²à¦®":6474,"à¦¦à¦²à¦¦":6475,"à¦¦à¦²à¦ª":6476,"à¦Ľà¦¨à¦§":6477,"à¦ķà¦¬à¦ļ":6478,"à¦ķà¦¬à¦¦à¦²":6479,"Ġà¦ħà¦§à¦°à¦®":6480,"Ġà¦īà§İà¦ķà¦Ł":6481,"Ġà¦¸à¦ķà¦®":6482,"Ġà¦¸à¦ķà¦°à¦£":6483,"à¦Ŀà¦°à¦²":6484,"à¦®à§Łà¦¨":6485,"à¦®à§Łà¦¦":6486,"Ġà¦Ĺà§ľà¦Ĺà§ľ":6487,"à¦ĸà¦°à¦ļ":6488,"Ġà¦ıà¦²à¦Ĺà¦°":6489,"à¦¥à¦°à¦ļ":6490,"à¦¥à¦°à¦Ĺà¦¤":6491,"Ġà¦īà¦¨à¦®":6492,"à¦ķà¦¨à¦ķà¦®":6493,"à¦ķà¦¨à¦ķà¦ļ":6494,"Ġà¦¶à¦¤à¦Ĺ":6495,"Ġà¦¶à¦¤à¦ļ":6496,"Ġà¦¶à¦¤à¦ľà¦¨":6497,"à¦°à¦²à§Łà¦¨":6498,"à¦°à¦²à§Łà¦¬":6499,"à¦°à¦²à§Łà¦°":6500,"à¦®à¦ķà¦¹":6501,"à¦®à¦ķà¦°à¦ķ":6502,"Ġà¦Ĩà¦Ļà¦¡":6503,"Ġà¦Ĩà¦ªà¦¨à¦®":6504,"à¦ĩà¦²à¦®":6505,"à¦ĩà¦²à¦¸":6506,"à¦Ĩà¦°à¦ª":6507,"à¦Ĩà¦°à¦ı":6508,"à¦Ĩà¦°à¦ıà¦ķ":6509,"à¦Ĩà¦°à¦ıà¦ķà¦¦":6510,"à¦¹à¦¨à¦°":6511,"à¦¹à¦¨à¦¸":6512,"à¦¹à¦¨à¦®à¦¨":6513,"Ġà¦Ĳà¦Ł":6514,"Ġà¦Ĳà¦ķà¦¤":6515,"Ġà¦Ĳà¦°à¦ķà¦®":6516,"à¦ķà¦Łà¦¨":6517,"à¦ķà¦Łà¦¤à¦°":6518,"à¦¹à¦²à¦®à§Ł":6519,"à¦¨à¦ķà¦¯":6520,"à¦¨à¦ķà§ľ":6521,"à¦¨à¦ķà¦ĸà¦¨":6522,"à¦ľà¦°à¦Ĺ":6523,"à¦ªà¦¦à¦¤":6524,"à¦ªà¦¦à¦®":6525,"à¦ĸà¦²à¦°":6526,"Ġà¦Ĩà¦Ńà¦°à¦£à¦¹":6527,"à¦¨à¦Ĺà¦®":6528,"à¦¨à¦Ĺà¦¹à¦¨":6529,"à¦¶à¦ªà¦Ł":6530,"à¦ªà¦ķà¦£":6531,"Ġà¦ªà¦°à¦¶à¦¸":6532,"à¦¤à¦ķà¦ª":6533,"à¦¤à¦ķà¦°à¦¬":6534,"à¦¤à¦ķà¦®à¦¨":6535,"à¦¤à¦ķà¦®à¦²":6536,"à¦¤à¦ķà¦¦à¦²":6537,"à¦ĺà¦°à¦®à¦¨":6538,"à¦¦à¦®à¦Ĺ":6539,"à¦ļà¦°à¦ļ":6540,"à¦¸à¦ķà¦¶":6541,"à¦¸à¦ķà¦·":6542,"à¦¸à¦ķà¦¥":6543,"Ġà¦īà§ľà¦²":6544,"à¦Łà¦ķà¦®à¦¯":6545,"Ġà¦¦à¦²à¦²":6546,"Ġà¦¦à¦²à¦ªà¦¤":6547,"à¦®à¦°à¦£à¦¬":6548,"à¦®à¦°à¦£à¦®":6549,"à¦®à¦°à¦£à¦¦":6550,"à¦®à¦°à¦£à¦Ĺ":6551,"à¦®à¦°à¦£à¦¸à¦Ń":6552,"Ġà¦ħà¦¤à¦²à¦¤":6553,"Ġà¦ħà¦¤à¦²à¦¬":6554,"Ġà¦īà§İà¦¸à¦¬à¦§":6555,"Ġà¦īà§İà¦¸à¦¬à¦Ĺ":6556,"Ġà¦īà§İà¦¸à¦¬à¦®à¦¨":6557,"Ġà¦īà§İà¦¸à¦¬à¦®à¦¯":6558,"à¦ļà¦ķà§ľ":6559,"Ġà¦¶à¦¹à¦°à¦ĵ":6560,"Ġà¦ľà§Łà¦¸":6561,"Ġà¦ľà§Łà¦ª":6562,"Ġà¦ľà§Łà¦ªà¦°":6563,"à¦°à¦ªà§ľ":6564,"Ġà¦®à¦²à¦®à¦²":6565,"à¦Ĩà¦¬à¦¹à¦®":6566,"à¦Ĩà¦¬à¦ľà¦®à¦ľà¦®":6567,"Ġà¦ĺà¦¨à¦¤à¦°":6568,"Ġà¦ĺà¦¨à¦¬à¦°":6569,"Ġà¦¸à¦®à§Łà¦§":6570,"Ġà¦ĩà¦ļà¦Ľ":6571,"à¦¬à¦ķà¦¸":6572,"à¦¬à¦ķà¦ª":6573,"Ġà¦¹à¦°à¦°":6574,"Ġà¦¹à¦°à¦·à¦£":6575,"à¦ªà¦²à¦Ĺ":6576,"à¦¶à¦¨à¦®à¦¯":6577,"Ġà¦Ńà§Łà¦¬":6578,"Ġà¦Ńà§Łà¦¦":6579,"Ġà¦Ńà§Łà¦¹":6580,"à¦ľà§Łà¦²":6581,"à¦ľà§Łà¦¯":6582,"à¦ľà§Łà¦®":6583,"à¦ľà§Łà¦¹":6584,"à¦ľà§Łà¦ªà¦¥":6585,"Ġà¦ªà¦²à¦ķà¦¹":6586,"Ġà¦ªà¦²à¦ķà¦Ĺ":6587,"Ġà¦¶à¦ªà¦¥à¦®":6588,"Ġà¦¶à¦ªà¦¥à¦ª":6589,"Ġà¦ļà¦°à¦£à¦°":6590,"Ġà¦ļà¦°à¦£à¦ķ":6591,"Ġà¦ļà¦°à¦£à¦¸":6592,"Ġà¦ļà¦°à¦£à¦ªà¦°":6593,"Ġà¦ļà¦°à¦£à¦ªà¦¦":6594,"à¦ªà¦¸à¦ľ":6595,"Ġà¦īà¦²à¦¸":6596,"à¦«à¦²à¦¸":6597,"Ġà¦¤à¦ĸà¦¨à¦ķ":6598,"Ġà¦Ŀà¦²à¦Ŀà¦²":6599,"à¦·à¦®à¦ª":6600,"à¦¨à¦¸à¦¸à¦°à¦¸":6601,"à¦¨à¦ªà¦¬à¦¨":6602,"Ġà¦¬à¦ķà¦¶":6603,"à¦¯à¦®à¦¸":6604,"à¦¯à¦®à¦¦":6605,"à¦¯à¦®à¦®à¦¯":6606,"à¦Ľà¦²à¦ļ":6607,"à¦Ľà¦²à¦Ń":6608,"à¦Ĺà¦°à¦£à¦¶":6609,"Ġà¦§à¦¨à¦ªà¦¤":6610,"Ġà¦§à¦¨à¦ħà¦§":6611,"à¦·à¦ķà¦ª":6612,"à¦·à¦ķà¦¶":6613,"à¦·à¦ķà¦¸à¦¬":6614,"Ġà¦ıà¦¤à¦Ĺ":6615,"Ġà¦°à¦¹à¦®":6616,"Ġà¦ıà¦ĸà¦¨à¦ĩ":6617,"ÂłÂłÂłÂłÂłÂłÂłÂłÂłÂłÂłÂłÂłÂłÂłÂłÂłÂłÂłÂłÂłÂłÂłÂłÂłÂłÂłÂłÂłÂłÂł":6618,"ÂłÂłÂłÂłÂłÂłÂłÂłÂłÂłÂłÂłÂłÂłÂłÂłÂłÂłÂłÂłÂłÂłÂłÂłÂłÂłÂłÂłÂł":6619,"à¦°à¦ļà¦ŀ":6620,"à¦¬à¦ªà¦¨à¦®":6621,"à¦¬à¦ªà¦¨à¦Ľ":6622,"à¦¬à¦ªà¦¨à¦®à¦¤":6623,"à§Ŀà¦¸":6624,"à¦ªà¦£à¦¬":6625,"à¦ªà¦£à¦¦":6626,"à¦ªà¦£à¦ĸ":6627,"à¦²à¦®à¦¸à¦²":6628,"à¦ıà¦ĸà¦¨à¦ķ":6629,"à¦īà¦²à¦¦":6630,"à¦īà¦²à¦ª":6631,"à¦īà¦²à¦Ł":6632,"ĠÂłĠ":6633,"à¦¹à¦°à¦£à¦®à¦¯":6634,"Ġà¦ķà¦¨à¦ķà¦°":6635,"Ġà¦ķà¦¨à¦Ńà¦¯":6636,"à¦¨à¦²à¦°":6637,"à¦°à¦ªà¦°à¦¨":6638,"à¦¨à¦¬à¦ľà¦®":6639,"à¦·à§Łà¦¬":6640,"Ġà¦ıà¦®à¦¨à¦¤à¦°":6641,"à¦¸à¦¹à¦¬":6642,"Ġà¦Ĩà¦¦à¦°à¦¸":6643,"à¦¬à¦£à¦¨":6644,"à¦¬à¦£à¦¬":6645,"à¦¬à¦£à¦¬à¦°":6646,"à¦¬à¦£à¦Ĺà¦Ĺà¦¨":6647,"à¦²à¦¸à¦ł":6648,"à¦ķà¦¹à¦¬":6649,"à¦Ĺà¦¬à¦Ļ":6650,"à¦¸à¦®à§Łà¦¬":6651,"à¦¸à¦®à§Łà¦ķ":6652,"à¦¸à¦®à§Łà¦§":6653,"à¦°à¦ľà¦¨à¦ķ":6654,"à¦¯à¦¬à¦¯":6655,"Ġà¦Ĩà¦¦à¦ª":6656,"Ġà¦ªà¦¶à¦²":6657,"Ġà¦®à¦¨à¦¨à¦¯":6658,"à¦īà¦łà¦¨":6659,"Ġà¦īà¦ªà¦°à¦ķ":6660,"Ġà¦«à¦²à¦²":6661,"Ġà¦«à¦²à¦Ĺ":6662,"Ġà¦«à¦²à¦«":6663,"à¦¤à¦ªà¦Ļ":6664,"Ġà¦ľà¦Ĺà¦¤à¦Ł":6665,"à¦ķà¦¶à¦Ń":6666,"Ġà¦²à§Łà¦¹":6667,"à¦ľà¦¸à¦°à¦ķ":6668,"à¦°à¦®à¦£à¦¬":6669,"à¦°à¦®à¦£à¦ķ":6670,"à¦°à¦®à¦£à¦¸à¦Ļ":6671,"Ġà¦Ĺà¦Ĺà¦¨à¦®":6672,"Ġà¦Ĺà¦Ĺà¦¨à¦Ľ":6673,"Ġà¦Ĺà¦Ĺà¦¨à¦Ń":6674,"Ġà¦Ĺà¦Ĺà¦¨à¦ªà¦¥":6675,"à¦ªà¦¶à¦¯":6676,"à¦ªà¦¶à¦ķà¦Ł":6677,"Ġà¦Ĩà§ľà¦ļ":6678,"à¦Łà¦¬à¦Ł":6679,"à¦Łà¦¬à§ľ":6680,"Ġà¦ħà¦¹à¦®":6681,"Ġà¦¦à¦°à¦¦à¦¨":6682,"Ġà¦®à¦°à¦£à¦¬":6683,"Ġà¦®à¦°à¦£à¦ª":6684,"Ġà¦®à¦°à¦£à¦¶":6685,"Ġà¦®à¦°à¦£à¦ĸ":6686,"Ġà¦®à¦°à¦£à¦Ń":6687,"Ġà¦®à¦°à¦£à¦¸à¦¨":6688,"Ġà¦®à¦°à¦£à¦¹à¦°à¦£":6689,"Ġà¦®à¦°à¦£à¦¶à¦¯":6690,"Ġà¦®à¦°à¦£à¦¦à¦¶":6691,"à¦²à¦ªà¦Ļ":6692,"à¦Łà¦¨à¦Łà¦¨":6693,"à¦¦à¦Ĺà¦§":6694,"Ġà¦Ĭà¦¨à¦¬":6695,"Ġà¦Ĭà¦¨à¦ªà¦ŀ":6696,"Ġà¦¸à§İà¦¤":6697,"Ġà¦¸à§İà¦¬":6698,"Ġà¦¨à¦¹à¦°à¦¤":6699,"à¦®à¦®à¦®à¦¤":6700,"à¦²à¦Ĺà¦¹":6701,"à¦²à¦Ĺà¦ŀ":6702,"à¦²à¦Ĺà¦Ĺà¦¨":6703,"Ġà¦īà§İà¦¸à¦°à¦£":6704,"Ġà¦īà§İà¦¸à¦¬à¦°":6705,"à¦ªà§ľà¦¶":6706,"Ġà¦ļà¦°à¦Ľ":6707,"à¦ľà¦¬à¦§":6708,"à¦Ĺà¦ľà¦ĸ":6709,"à¦°à§Łà¦¦":6710,"Ġà¦Ĩà¦§à¦ľ":6711,"Ġà¦Ĩà¦§à¦Ĺ":6712,"Ġà¦Ĩà¦§à¦ĺ":6713,"Ġà¦Ĩà¦§à¦ªà¦¥":6714,"à¦¦à¦¸à¦Ń":6715,"à¦¦à¦¸à¦¦à¦¨":6716,"à¦Ĩà¦¨à¦Ľ":6717,"Ġà¦¬à¦Ľà¦°à¦Ĺ":6718,"Ġà¦°à¦¸à¦¦":6719,"Ġà¦ķà¦®à¦²à¦¬":6720,"Ġà¦ķà¦®à¦²à¦Ĺà¦¨":6721,"Ġà¦ķà¦®à¦²à¦ķà¦°":6722,"Ġà¦ķà¦®à¦²à¦¦à¦²":6723,"Ġà¦ķà¦®à¦²à¦ªà¦¦":6724,"Ġà¦Ĺà¦£à¦¸":6725,"Ġà¦¸à¦¹à¦ľà¦Ń":6726,"Ġà¦°à¦£à¦¨":6727,"Ġà¦°à¦£à¦¹":6728,"Ġà¦°à¦£à¦¤à¦°":6729,"Ġà¦°à¦£à¦°à¦£":6730,"Ġà¦°à¦£à¦¡à¦Ļ":6731,"Ġà¦°à¦£à¦Ŀà¦¨à¦Ŀà¦¨":6732,"à§ªà§¨":6733,"à¦¯à¦¹à¦ĩ":6734,"à¦²à¦Ńà¦¤":6735,"à¦²à¦Ńà¦¬à¦¨":6736,"à¦ļà¦°à¦£à¦°":6737,"à¦ļà¦°à¦£à¦¶":6738,"à¦ļà¦°à¦£à¦ħà¦²à¦ķ":6739,"à¦ħà¦ªà¦¹":6740,"Ġà¦ľà§ľà¦¸à§ľ":6741,"Ġà¦ĺà¦Łà¦°":6742,"Ġà¦ĺà¦Łà¦Ľ":6743,"Ġà¦ĸà¦¸à§ľ":6744,"à¦ľà¦¤à¦ªà¦¨":6745,"Ġà¦¬à§ľà¦¦":6746,"à¦īà¦¨à¦®à¦¤":6747,"Ġà¦Ŀà¦²à¦ķà¦¨":6748,"à¦®à¦¦à¦ķà¦²":6749,"Ġà¦Īà¦¨":6750,"Ġà¦Īà¦·à¦¤":6751,"à¦¬à¦°à¦¤à¦¨":6752,"à¦¬à¦°à¦¤à¦°à¦Ļ":6753,"Ġà¦ľà¦Ĺà§İà¦Ł":6754,"à¦¨à¦ĵà¦ľ":6755,"à¦¯à§Łà¦®à§Ł":6756,"à¦°à¦°à¦ŀ":6757,"à¦°à¦°à¦¹à¦¸":6758,"Ġà¦ľà¦¨à¦®à¦Ń":6759,"ĠÂłĠÂłĠ":6760,"à¦¬à¦¬à¦®":6761,"à¦¡à¦²à¦§à¦¨":6762,"Ġà¦°à¦¥à¦ļ":6763,"Ġà¦°à¦¥à¦ļà¦ķ":6764,"Ġà¦Ŀà§ľà¦¤":6765,"Ġà¦Ŀà§ľà¦Ŀ":6766,"à¦²à¦¬à¦¨à¦®à¦§":6767,"à§«à§©":6768,"à§«à§ª":6769,"à§«à§¯":6770,"à¦¬à¦Łà¦¤à¦²":6771,"à¦ľà¦Ĺà¦¤à¦®":6772,"à¦¤à¦§à¦¡":6773,"Ġà¦¦à¦¹à¦¨à¦ľ":6774,"Ġà¦¦à¦¹à¦¨à¦¹":6775,"à¦¯à¦Ĺà¦ŀ":6776,"Ġà¦¦à¦¶à¦Ĺ":6777,"à¦ıà¦²à¦Ĺà¦°":6778,"à¦īà¦·à¦¸":6779,"Ġà¦ļà¦®à¦ķà¦¯":6780,"à¦ķà¦¸à¦Ń":6781,"à¦ķà¦¸à¦ŀ":6782,"à¦°à¦«à¦¤":6783,"à¦°à¦«à¦²à¦ķ":6784,"à¦Ļà¦¨à¦Ńà¦°":6785,"à¦¬à¦ľà¦¨à¦¨":6786,"ÂłÂłÂłÂłÂłÂłÂłÂłÂłÂłÂłÂłÂłÂłč":6787,"Ġà§§à§©à§¨à§¦":6788,"Ġà§§à§©à§©à§¯":6789,"Ġà§§à§©à§ªà§©":6790,"Ġà¦ķà§Łà¦¶":6791,"à¦ħà¦²à¦¸à¦¤":6792,"à¦¤à¦Ĺà¦Ļ":6793,"à¦¤à¦Ĺà¦°à¦®":6794,"à§Ńà§§à§¯":6795,"Ġà¦¬à¦°à¦£à¦®":6796,"Ġà¦¬à¦°à¦£à¦¹":6797,"Ġà¦¬à¦°à¦£à¦¡":6798,"Ġà¦¬à¦ĩà¦Ĺ":6799,"Ġà¦¦à¦®à¦¨à¦¬":6800,"Ġà¦¦à¦®à¦¨à¦®":6801,"Ġà¦¦à¦®à¦¨à¦¹":6802,"Ġà¦¦à¦®à¦¨à¦¶à¦ķ":6803,"à¦¬à¦°à¦£à¦ı":6804,"Ġà¦ķà¦²à¦ķà¦²à¦§":6805,"Ġà¦ķà¦²à¦ķà¦²à¦ķà¦²":6806,"à¦ķà¦®à¦²à¦Ĩà¦²à¦¯":6807,"Ġà¦®à¦°à¦®à¦ľ":6808,"Ġà¦®à¦¦à¦ĺ":6809,"Ġà¦®à¦¦à¦®à¦¤":6810,"à§°à¦¤":6811,"à§°à¦ķ":6812,"à§°à¦®à¦£":6813,"à§°à¦ľà¦ķ":6814,"Ġà¦ħà¦²à¦ķà¦°":6815,"Ġà¦ħà¦²à¦ķà¦ķ":6816,"à§®à§¦":6817,"Ġà¦ķà¦ĩà¦®":6818,"Ġà¦ļà§ľà¦²":6819,"Ġà¦Łà¦²à¦Łà¦²":6820,"à¦¸à¦Ńà¦¬à¦¨":6821,"Ġà¦īà¦¦à§Łà¦¨":6822,"Ġà¦¬à¦°à¦·à¦ªà¦°":6823,"à¦īà§ľà¦¤":6824,"à¦īà§ľà¦Ľ":6825,"à§¯à§¯":6826,"Ġà¦ķà¦¦à¦®à¦ª":6827,"Ġà¦ķà¦¦à¦®à¦«":6828,"à¦Ĩà¦§à¦ĺ":6829,"à¦¬à¦Ńà¦¬à¦¨":6830,"Ġà¦¹à¦°à¦·à¦ļ":6831,"Ġà¦¹à¦°à¦·à¦Ńà¦°":6832,"à¦¨à¦ľà¦Ł":6833,"à¦¸à§İà¦ªà¦¥":6834,"Ġà¦°à¦¤à¦¨à¦¬":6835,"Ġà¦°à¦¤à¦¨à¦¦":6836,"Ġà¦°à¦¤à¦¨à¦ª":6837,"Ġà¦°à¦¤à¦¨à¦Ĩ":6838,"Ġà¦°à¦¤à¦¨à¦®à¦¯":6839,"Ġà¦°à¦¤à¦¨à¦ķà¦£":6840,"Ġà¦°à¦¤à¦¨à¦®à¦£":6841,"Ġà§§à§©à§§à§«":6842,"à¦®à¦Ŀà¦®":6843,"âĢĥ":6844,"à¦ľà¦Ĺà§İà¦ħà¦¤":6845,"Ġà¦ķà¦¬à¦°à¦¸":6846,"à¦Ĺà¦Ĺà¦¨à¦Ńà¦°":6847,"à¦£à¦ķà¦Ļ":6848,"Ġà¦¸à¦ªà¦¨à¦ªà¦¥":6849,"à¦¶à¦¶à¦§à¦°à¦Ľ":6850,"Ġà¦ħà¦ĺà¦Łà¦¨":6851,"Ġà¦ĵà¦ľà¦¨à¦¹":6852,"Ġà¦¡à¦°à¦¡à¦°":6853,"à¦°à¦²à§Łà¦ķ":6854,"Ġà¦·à¦·":6855,"à¦°à¦¬à¦£à¦¶à¦ķ":6856,"à¦¤à¦Ńà¦Ĺ":6857,"à¦¦à¦®à¦¨à¦¬":6858,"Ġà¦¸à¦ľà¦²à¦¤":6859,"à¦®à¦ļà§Łà¦¨":6860,"Ġà¦ķà¦²à¦ķà¦¥":6861,"Ġà¦īà¦®à¦Ļ":6862,"à¦®à¦Ľà¦®":6863,"Ġà¦¬à¦¦à¦¨à¦¸":6864,"Ġà¦¬à¦¦à¦¨à¦ĸ":6865,"Ġà¦¨à¦°à¦ķà¦ķ":6866,"Ġà§¨à§§":6867,"Ġà§¨à§©":6868,"Ġà§¨à§Ń":6869,"Ġà§¨à§®":6870,"Ġà¦¨à¦Ńà¦¸":6871,"Ġà¦¨à¦Ńà¦ª":6872,"Ġà¦¨à¦Ńà¦¤à¦²":6873,"à¦¨à§Łà¦Ł":6874,"à¦¨à§Łà¦¨à¦¬":6875,"Ġà¦®à§Łà¦²":6876,"à¦łà¦ķà¦ĸ":6877,"Ġà§©à§©":6878,"Ġà§©à§®":6879,"Ġà§©à§§à§¦":6880,"Ġà§©à§«à§¦":6881,"à¦°à¦Ŀà¦Ļ":6882,"à¦·à¦ªà¦Ļ":6883,"Ġà¦¨à¦Ĺà¦°à¦¬":6884,"à¦®à¦ĸà¦®à¦²":6885,"Ġà¦¨à¦ĵà¦®à¦«":6886,"à¦ľà§ľà¦¤":6887,"à¦®à¦°à¦®à¦ķ":6888,"Ġà¦ķà§ľà¦®à§ľ":6889,"Ġà¦Ķà¦ªà¦¨":6890,"Ġà¦Ķà§İà¦¸":6891,"Ġà¦¨à¦¬à¦°à¦¸":6892,"Ġà¦¨à¦¬à¦°à¦ļ":6893,"Ġà¦Ĩà¦²à¦¸à¦Ńà¦°":6894,"Ġà¦¹à¦¨à¦¹à¦¨":6895,"à¦Ĩà¦ĩà¦¨à¦®à¦¨":6896,"Ġà¦ķà¦¨à¦ķà¦¸":6897,"Ġà¦ķà¦¨à¦ķà¦¶":6898,"Ġà¦ķà¦¨à¦ķà¦Ńà¦¬à¦¨":6899,"à¦ľà¦Ĺà¦¤à¦¬":6900,"à¦Ĺà¦Ĺà¦¨à¦¤à¦²":6901,"à¦¨à¦¬à¦ªà¦¤":6902,"à¦ĸà¦¬à¦°à¦¦":6903,"Ġà¦ľà¦²à¦¦à¦ļ":6904,"à¦¢à¦²à¦¢à¦²":6905,"Ġà¦¶à¦¤à¦¦à¦²à¦¦à¦²":6906,"Ġà¦ħà¦¥à¦ĩ":6907,"à¦Ĩà¦Ńà¦°à¦£":6908,"Ġà¦¸à§Łà¦²":6909,"à¦īà¦¬à¦ĵà¦¯":6910,"à¦¨à¦¬à¦¨à¦¨":6911,"Ġà¦²à¦¬à¦£à¦ļ":6912,"à¦°à¦¬à¦¨à¦ļ":6913,"à¦¤à¦ªà¦¨à¦¤":6914,"Ġà¦ľà¦ªà¦®à¦¨":6915,"Ġà¦¶à¦°à§İà¦¬":6916,"à¦¯à¦¤à¦¨à¦Ńà¦°":6917,"à¦ħà¦ĺà¦Łà¦¨":6918,"à¦īà§İà¦ķà¦°":6919,"à§§à§©à§§à§Ń":6920,"à¦°à¦Ĺà¦²à¦Ń":6921,"à¦ķà§Łà¦²":6922,"à¦¥à¦ªà¦°à¦¤":6923,"Ġà¦¹à¦°à¦£à¦Ĺ":6924,"Ġà¦Ĺà¦²à¦¦à¦ĺ":6925,"à¦¯à¦Ĺà¦£à¦¨":6926,"Ġà¦īà¦ªà¦¨à¦¦":6927,"Ġà¦«à§ľà¦«à§ľ":6928,"Ġà§§à§¯à§ªà§§":6929,"à¦ħà¦¬à¦¨à¦¤à¦®":6930,"à¦īà¦¦à§Łà¦¨":6931,"Ġà¦Ľà¦²à¦ķà¦°":6932,"Ġà¦«à¦Łà¦«à¦Ł":6933,"à¦ķà¦¤à¦°à¦ķà¦®":6934,"à¦®à¦¦à¦¨à¦®":6935,"à¦®à¦°à¦ķà¦¤":6936,"Ġà¦Ĩà¦ĩà¦¨à¦ķ":6937,"Ġà¦Ĩà¦ĩà¦ĵà¦Ł":6938,"à¦¶à¦®à¦¨à¦ĸ":6939,"à¦ķà¦²à¦ķà¦²à¦ķà¦²":6940,"Ġà¦ľà¦Ĺà§İà¦ķ":6941,"Ġà¦ľà¦Ĺà§İà¦¸":6942,"Ġà§§à§©à§¦à§¨":6943,"Ġà§§à§©à§¦à§¬":6944,"Ġà¦¹à¦ľà¦°à¦¤à¦¤":6945,"à¦Ķà¦ľ":6946,"à¦°à¦Ĩà¦ļà¦°à¦£":6947,"à§»à§ĩ":6948,"à¦°à¦¬à¦ªà¦¥":6949,"à¦ķà¦°à¦ķà¦®à¦²":6950,"Ġà¦®à¦Łà¦°à¦Ń":6951,"Ġà¦ľà¦¹à¦°à¦¤":6952,"Ġà¦Ŀà¦¨à¦¨à¦¨à¦¨à¦¨":6953,"à¦¶à¦¤à¦¦à¦²à¦¦à¦²":6954,"à¦ıà¦¤à¦¬à¦¡":6955,"Ġà§§à§¨à§¯à§¯":6956,"à¦¦à¦ĸà¦²à¦¦":6957,"Ġà¦¬à¦Ľà¦°à¦ķ":6958,"Ġà¦®à§İà¦¸à¦°à¦ŀ":6959,"Ġà¦¨à¦Łà¦¨à¦Ł":6960,"à¦£à¦°à¦¥à¦ļ":6961,"Ġà¦¶à¦°à¦¬à§İ":6962,"ÂłÂłÂłÂłÂłÂłÂłÂłÂłÂłÂłÂłÂłÂłÂłÂłÂłÂłÂłÂłÂłÂłÂłÂłÂłÂłÂłÂłÂłÂłÂłÂłÂłÂłÂłÂłÂłÂłÂłÂłÂłÂłÂłÂłÂłÂłÂłÂłÂłÂłÂłÂłÂł":6963,"à¦·à¦¸à¦Ńà¦°à¦¸":6964,"Ġà¦¤à§İà¦ªà¦°à¦¤":6965,"à¦Ńà§İà¦¸à¦¤":6966,"à¦°à¦¹à¦īà¦ªà¦Ĺ":6967,"à§Ńà§§à§¯à§¨à§¬":6968,"Ġà§©à§§à§¦à§Ńà§§à§¯à§¨à§¬":6969}