{
  "version": "1.0",
  "truncation": null,
  "padding": null,
  "added_tokens": [
    {
      "id": 0,
      "content": "[PAD]",
      "single_word": false,
      "lstrip": false,
      "rstrip": false,
      "normalized": false,
      "special": true
    },
    {
      "id": 1,
      "content": "[UNK]",
      "single_word": false,
      "lstrip": false,
      "rstrip": false,
      "normalized": false,
      "special": true
    },
    {
      "id": 2,
      "content": "[CLS]",
      "single_word": false,
      "lstrip": false,
      "rstrip": false,
      "normalized": false,
      "special": true
    },
    {
      "id": 3,
      "content": "[SEP]",
      "single_word": false,
      "lstrip": false,
      "rstrip": false,
      "normalized": false,
      "special": true
    }
  ],
  "normalizer": null,
  "pre_tokenizer": {
    "type": "Whitespace"
  },
  "post_processor": null,
  "decoder": null,
  "model": {
    "type": "WordPiece",
    "unk_token": "[UNK]",
    "continuing_subword_prefix": "##",
    "max_input_chars_per_word": 100,
    "vocab": {
      "[PAD]": 0,
      "[UNK]": 1,
      "[CLS]": 2,
      "[SEP]": 3,
      "!": 4,
      "\"": 5,
      "#": 6,
      "%": 7,
      "&": 8,
      "'": 9,
      "(": 10,
      ")": 11,
      "*": 12,
      "+": 13,
      ",": 14,
      "-": 15,
      ".": 16,
      "/": 17,
      "0": 18,
      "1": 19,
      "2": 20,
      "3": 21,
      "4": 22,
      "5": 23,
      "6": 24,
      "7": 25,
      "8": 26,
      "9": 27,
      ":": 28,
      ";": 29,
      "<": 30,
      "=": 31,
      ">": 32,
      "?": 33,
      "A": 34,
      "B": 35,
      "C": 36,
      "D": 37,
      "E": 38,
      "F": 39,
      "G": 40,
      "H": 41,
      "I": 42,
      "J": 43,
      "K": 44,
      "L": 45,
      "M": 46,
      "N": 47,
      "O": 48,
      "P": 49,
      "Q": 50,
      "R": 51,
      "S": 52,
      "T": 53,
      "U": 54,
      "V": 55,
      "W": 56,
      "X": 57,
      "Y": 58,
      "Z": 59,
      "[": 60,
      "\\": 61,
      "]": 62,
      "^": 63,
      "_": 64,
      "`": 65,
      "a": 66,
      "b": 67,
      "c": 68,
      "d": 69,
      "e": 70,
      "f": 71,
      "g": 72,
      "h": 73,
      "i": 74,
      "j": 75,
      "k": 76,
      "l": 77,
      "m": 78,
      "n": 79,
      "o": 80,
      "p": 81,
      "q": 82,
      "r": 83,
      "s": 84,
      "t": 85,
      "u": 86,
      "v": 87,
      "w": 88,
      "x": 89,
      "y": 90,
      "z": 91,
      "{": 92,
      "|": 93,
      "}": 94,
      "~": 95,
      "¤": 96,
      "¦": 97,
      "«": 98,
      "¬": 99,
      "­": 100,
      "°": 101,
      "²": 102,
      "·": 103,
      "»": 104,
      "É": 105,
      "Ñ": 106,
      "×": 107,
      "Ø": 108,
      "ß": 109,
      "á": 110,
      "â": 111,
      "ä": 112,
      "æ": 113,
      "ç": 114,
      "é": 115,
      "ê": 116,
      "ë": 117,
      "í": 118,
      "ó": 119,
      "ö": 120,
      "ü": 121,
      "ć": 122,
      "ę": 123,
      "ğ": 124,
      "ı": 125,
      "ł": 126,
      "ń": 127,
      "ņ": 128,
      "œ": 129,
      "ş": 130,
      "š": 131,
      "ż": 132,
      "ž": 133,
      "ə": 134,
      "ʻ": 135,
      "ʼ": 136,
      "̊": 137,
      "Γ": 138,
      "Ο": 139,
      "Ω": 140,
      "ά": 141,
      "ή": 142,
      "α": 143,
      "β": 144,
      "γ": 145,
      "δ": 146,
      "ε": 147,
      "η": 148,
      "θ": 149,
      "ι": 150,
      "κ": 151,
      "λ": 152,
      "μ": 153,
      "ν": 154,
      "ο": 155,
      "π": 156,
      "ρ": 157,
      "σ": 158,
      "τ": 159,
      "υ": 160,
      "ω": 161,
      "ό": 162,
      "Г": 163,
      "К": 164,
      "О": 165,
      "Ч": 166,
      "а": 167,
      "б": 168,
      "в": 169,
      "г": 170,
      "д": 171,
      "е": 172,
      "ж": 173,
      "з": 174,
      "и": 175,
      "й": 176,
      "к": 177,
      "л": 178,
      "м": 179,
      "н": 180,
      "о": 181,
      "п": 182,
      "р": 183,
      "с": 184,
      "т": 185,
      "у": 186,
      "ф": 187,
      "х": 188,
      "ц": 189,
      "ч": 190,
      "ш": 191,
      "ы": 192,
      "ь": 193,
      "э": 194,
      "я": 195,
      "і": 196,
      "ў": 197,
      "ғ": 198,
      "қ": 199,
      "ү": 200,
      "ҷ": 201,
      "ә": 202,
      "ө": 203,
      "ӯ": 204,
      "՗": 205,
      "ա": 206,
      "դ": 207,
      "ե": 208,
      "է": 209,
      "ի": 210,
      "լ": 211,
      "խ": 212,
      "կ": 213,
      "ձ": 214,
      "ղ": 215,
      "յ": 216,
      "ն": 217,
      "ո": 218,
      "պ": 219,
      "ս": 220,
      "վ": 221,
      "տ": 222,
      "ր": 223,
      "ւ": 224,
      "ք": 225,
      "ֆ": 226,
      "ְ": 227,
      "ַ": 228,
      "־": 229,
      "א": 230,
      "ב": 231,
      "ג": 232,
      "ד": 233,
      "ה": 234,
      "ו": 235,
      "ז": 236,
      "ח": 237,
      "ט": 238,
      "י": 239,
      "ך": 240,
      "כ": 241,
      "ל": 242,
      "ם": 243,
      "מ": 244,
      "ן": 245,
      "נ": 246,
      "ס": 247,
      "ע": 248,
      "פ": 249,
      "צ": 250,
      "ר": 251,
      "ש": 252,
      "ת": 253,
      "،": 254,
      "آ": 255,
      "أ": 256,
      "إ": 257,
      "ئ": 258,
      "ا": 259,
      "ب": 260,
      "ة": 261,
      "ت": 262,
      "ج": 263,
      "ح": 264,
      "خ": 265,
      "د": 266,
      "ذ": 267,
      "ر": 268,
      "ز": 269,
      "س": 270,
      "ش": 271,
      "ص": 272,
      "ض": 273,
      "ط": 274,
      "ظ": 275,
      "ع": 276,
      "غ": 277,
      "ف": 278,
      "ق": 279,
      "ل": 280,
      "م": 281,
      "ن": 282,
      "ه": 283,
      "و": 284,
      "ي": 285,
      "َ": 286,
      "ُ": 287,
      "ِ": 288,
      "ّ": 289,
      "ْ": 290,
      "٤": 291,
      "ٹ": 292,
      "پ": 293,
      "چ": 294,
      "ڑ": 295,
      "ړ": 296,
      "ک": 297,
      "گ": 298,
      "ھ": 299,
      "ہ": 300,
      "ی": 301,
      "ے": 302,
      "ۼ": 303,
      "ँ": 304,
      "ं": 305,
      "ः": 306,
      "अ": 307,
      "आ": 308,
      "इ": 309,
      "ई": 310,
      "उ": 311,
      "ए": 312,
      "ओ": 313,
      "औ": 314,
      "क": 315,
      "ख": 316,
      "ग": 317,
      "घ": 318,
      "च": 319,
      "छ": 320,
      "ज": 321,
      "झ": 322,
      "ट": 323,
      "ठ": 324,
      "ड": 325,
      "ढ": 326,
      "ण": 327,
      "त": 328,
      "थ": 329,
      "द": 330,
      "ध": 331,
      "न": 332,
      "प": 333,
      "फ": 334,
      "ब": 335,
      "भ": 336,
      "म": 337,
      "य": 338,
      "र": 339,
      "ल": 340,
      "ळ": 341,
      "व": 342,
      "श": 343,
      "ष": 344,
      "स": 345,
      "ह": 346,
      "़": 347,
      "ा": 348,
      "ि": 349,
      "ी": 350,
      "ु": 351,
      "ू": 352,
      "ृ": 353,
      "े": 354,
      "ै": 355,
      "ो": 356,
      "ौ": 357,
      "्": 358,
      "ॐ": 359,
      "ढ़": 360,
      "।": 361,
      "॥": 362,
      "ঁ": 363,
      "ং": 364,
      "ঃ": 365,
      "অ": 366,
      "আ": 367,
      "ই": 368,
      "ঈ": 369,
      "উ": 370,
      "ঊ": 371,
      "ঋ": 372,
      "এ": 373,
      "ঐ": 374,
      "ও": 375,
      "ঔ": 376,
      "ক": 377,
      "খ": 378,
      "গ": 379,
      "ঘ": 380,
      "ঙ": 381,
      "চ": 382,
      "ছ": 383,
      "জ": 384,
      "ঝ": 385,
      "ঞ": 386,
      "ট": 387,
      "ঠ": 388,
      "ড": 389,
      "ঢ": 390,
      "ণ": 391,
      "ত": 392,
      "থ": 393,
      "দ": 394,
      "ধ": 395,
      "ন": 396,
      "প": 397,
      "ফ": 398,
      "ব": 399,
      "ভ": 400,
      "ম": 401,
      "য": 402,
      "র": 403,
      "ল": 404,
      "শ": 405,
      "ষ": 406,
      "স": 407,
      "হ": 408,
      "়": 409,
      "া": 410,
      "ি": 411,
      "ী": 412,
      "ু": 413,
      "ূ": 414,
      "ৃ": 415,
      "ে": 416,
      "ৈ": 417,
      "ো": 418,
      "ৌ": 419,
      "্": 420,
      "ৎ": 421,
      "৕": 422,
      "ৗ": 423,
      "ড়": 424,
      "ঢ়": 425,
      "য়": 426,
      "০": 427,
      "১": 428,
      "২": 429,
      "৩": 430,
      "৪": 431,
      "৫": 432,
      "৬": 433,
      "৭": 434,
      "৮": 435,
      "৯": 436,
      "ৰ": 437,
      "ৱ": 438,
      "৷": 439,
      "ਇ": 440,
      "ਕ": 441,
      "ਜ": 442,
      "ਪ": 443,
      "ਭ": 444,
      "ਯ": 445,
      "ਸ": 446,
      "ਾ": 447,
      "ਿ": 448,
      "ੋ": 449,
      "ੜ": 450,
      "ં": 451,
      "ક": 452,
      "ગ": 453,
      "ઘ": 454,
      "ચ": 455,
      "દ": 456,
      "ધ": 457,
      "પ": 458,
      "મ": 459,
      "ર": 460,
      "વ": 461,
      "ષ": 462,
      "હ": 463,
      "ા": 464,
      "િ": 465,
      "ુ": 466,
      "ૂ": 467,
      "ે": 468,
      "ો": 469,
      "્": 470,
      "ଛ": 471,
      "ର": 472,
      "ା": 473,
      "ୁ": 474,
      "க": 475,
      "ச": 476,
      "ண": 477,
      "த": 478,
      "ம": 479,
      "ர": 480,
      "ஷ": 481,
      "ீ": 482,
      "்": 483,
      "ం": 484,
      "ఆ": 485,
      "త": 486,
      "ధ": 487,
      "న": 488,
      "ప": 489,
      "మ": 490,
      "ర": 491,
      "శ": 492,
      "స": 493,
      "ా": 494,
      "ు": 495,
      "ృ": 496,
      "ే": 497,
      "ಕ": 498,
      "ಚ": 499,
      "ತ": 500,
      "ರ": 501,
      "ಲ": 502,
      "ಷ": 503,
      "ೂ": 504,
      "ೃ": 505,
      "್": 506,
      "ം": 507,
      "ക": 508,
      "ഘ": 509,
      "ത": 510,
      "പ": 511,
      "ര": 512,
      "വ": 513,
      "സ": 514,
      "ി": 515,
      "ു": 516,
      "ോ": 517,
      "്": 518,
      "භ": 519,
      "ර": 520,
      "්": 521,
      "ි": 522,
      "ก": 523,
      "ค": 524,
      "ง": 525,
      "ต": 526,
      "ท": 527,
      "น": 528,
      "พ": 529,
      "ม": 530,
      "ย": 531,
      "ล": 532,
      "ส": 533,
      "อ": 534,
      "ั": 535,
      "า": 536,
      "ิ": 537,
      "ื": 538,
      "ุ": 539,
      "ู": 540,
      "่": 541,
      "་": 542,
      "တ": 543,
      "ယ": 544,
      "ရ": 545,
      "သ": 546,
      "ီ": 547,
      "ု": 548,
      "ံ": 549,
      "း": 550,
      "်": 551,
      "჋": 552,
      "ა": 553,
      "ბ": 554,
      "დ": 555,
      "ე": 556,
      "ვ": 557,
      "თ": 558,
      "ი": 559,
      "კ": 560,
      "ლ": 561,
      "მ": 562,
      "ნ": 563,
      "ო": 564,
      "პ": 565,
      "რ": 566,
      "ს": 567,
      "უ": 568,
      "ფ": 569,
      "ჩ": 570,
      "ც": 571,
      "წ": 572,
      "ხ": 573,
      "ង": 574,
      "ត": 575,
      "ហ": 576,
      "ី": 577,
      "ូ": 578,
      "ោ": 579,
      "ṛ": 580,
      "ṭ": 581,
      "ạ": 582,
      "ụ": 583,
      "​": 584,
      "‌": 585,
      "‍": 586,
      "‐": 587,
      "‒": 588,
      "–": 589,
      "—": 590,
      "―": 591,
      "‘": 592,
      "’": 593,
      "‚": 594,
      "“": 595,
      "”": 596,
      "„": 597,
      "•": 598,
      "…": 599,
      "′": 600,
      "″": 601,
      "⁠": 602,
      "₁": 603,
      "₂": 604,
      "₆": 605,
      "→": 606,
      "−": 607,
      "√": 608,
      "─": 609,
      "★": 610,
      "❤": 611,
      "⠀": 612,
      "⦁": 613,
      "「": 614,
      "」": 615,
      "い": 616,
      "え": 617,
      "て": 618,
      "と": 619,
      "に": 620,
      "の": 621,
      "へ": 622,
      "み": 623,
      "る": 624,
      "・": 625,
      "一": 626,
      "三": 627,
      "上": 628,
      "世": 629,
      "丝": 630,
      "为": 631,
      "书": 632,
      "事": 633,
      "会": 634,
      "何": 635,
      "倒": 636,
      "光": 637,
      "冻": 638,
      "分": 639,
      "刻": 640,
      "剤": 641,
      "助": 642,
      "化": 643,
      "去": 644,
      "口": 645,
      "句": 646,
      "吹": 647,
      "响": 648,
      "問": 649,
      "啜": 650,
      "啡": 651,
      "喘": 652,
      "地": 653,
      "域": 654,
      "声": 655,
      "外": 656,
      "奏": 657,
      "实": 658,
      "家": 659,
      "宿": 660,
      "屋": 661,
      "幕": 662,
      "废": 663,
      "心": 664,
      "志": 665,
      "快": 666,
      "息": 667,
      "惑": 668,
      "惜": 669,
      "手": 670,
      "抗": 671,
      "抵": 672,
      "拭": 673,
      "拾": 674,
      "文": 675,
      "族": 676,
      "日": 677,
      "晚": 678,
      "暖": 679,
      "根": 680,
      "構": 681,
      "欒": 682,
      "欢": 683,
      "歓": 684,
      "済": 685,
      "温": 686,
      "滴": 687,
      "界": 688,
      "的": 689,
      "省": 690,
      "眞": 691,
      "真": 692,
      "眷": 693,
      "眺": 694,
      "眼": 695,
      "知": 696,
      "社": 697,
      "种": 698,
      "秘": 699,
      "站": 700,
      "節": 701,
      "約": 702,
      "締": 703,
      "育": 704,
      "腾": 705,
      "节": 706,
      "蔟": 707,
      "薬": 708,
      "見": 709,
      "試": 710,
      "誘": 711,
      "诱": 712,
      "起": 713,
      "越": 714,
      "踏": 715,
      "軽": 716,
      "辉": 717,
      "込": 718,
      "阻": 719,
      "響": 720,
      "顔": 721,
      "願": 722,
      "鳴": 723,
      "ꉂ": 724,
      "ꜟ": 725,
      "ꠖ": 726,
      "가": 727,
      "간": 728,
      "갈": 729,
      "감": 730,
      "개": 731,
      "것": 732,
      "골": 733,
      "공": 734,
      "권": 735,
      "그": 736,
      "극": 737,
      "깊": 738,
      "꺼": 739,
      "나": 740,
      "녓": 741,
      "놀": 742,
      "눈": 743,
      "눌": 744,
      "능": 745,
      "닻": 746,
      "대": 747,
      "더": 748,
      "도": 749,
      "둘": 750,
      "뒤": 751,
      "든": 752,
      "따": 753,
      "라": 754,
      "러": 755,
      "로": 756,
      "루": 757,
      "리": 758,
      "마": 759,
      "막": 760,
      "모": 761,
      "민": 762,
      "믿": 763,
      "바": 764,
      "반": 765,
      "변": 766,
      "복": 767,
      "부": 768,
      "비": 769,
      "소": 770,
      "속": 771,
      "쇙": 772,
      "숨": 773,
      "시": 774,
      "싶": 775,
      "씩": 776,
      "아": 777,
      "알": 778,
      "앞": 779,
      "약": 780,
      "어": 781,
      "역": 782,
      "왔": 783,
      "우": 784,
      "욱": 785,
      "웃": 786,
      "으": 787,
      "은": 788,
      "을": 789,
      "의": 790,
      "이": 791,
      "일": 792,
      "작": 793,
      "적": 794,
      "정": 795,
      "조": 796,
      "지": 797,
      "챌": 798,
      "첫": 799,
      "커": 800,
      "탄": 801,
      "튁": 802,
      "팔": 803,
      "품": 804,
      "풋": 805,
      "한": 806,
      "할": 807,
      "험": 808,
      "화": 809,
      "확": 810,
      "": 811,
      "": 812,
      "︎": 813,
      "️": 814,
      "﻿": 815,
      "！": 816,
      "－": 817,
      "？": 818,
      "�": 819,
      "𑁍": 820,
      "𝜋": 821,
      "🙂": 822,
      "##ল": 823,
      "##দ": 824,
      "##ূ": 825,
      "##ষ": 826,
      "##ণ": 827,
      "##্": 828,
      "##র": 829,
      "##ত": 830,
      "##ি": 831,
      "##ব": 832,
      "##ে": 833,
      "##শ": 834,
      "##ট": 835,
      "##ঙ": 836,
      "##য়": 837,
      "##ন": 838,
      "##ঘ": 839,
      "##া": 840,
      "##স": 841,
      "##ড": 842,
      "##়": 843,
      "##য": 844,
      "##জ": 845,
      "##ো": 846,
      "##চ": 847,
      "##ছ": 848,
      "##গ": 849,
      "##ু": 850,
      "##প": 851,
      "##ী": 852,
      "##ই": 853,
      "##ম": 854,
      "##ক": 855,
      "##ঁ": 856,
      "##ধ": 857,
      "##ভ": 858,
      "##খ": 859,
      "##ৃ": 860,
      "##হ": 861,
      "##থ": 862,
      "##ং": 863,
      "##ঞ": 864,
      "##ঃ": 865,
      "##ৌ": 866,
      "##ফ": 867,
      "##ড়": 868,
      "##ও": 869,
      "##ৎ": 870,
      "##a": 871,
      "##n": 872,
      "##g": 873,
      "##u": 874,
      "##e": 875,
      "##ঠ": 876,
      "##ৈ": 877,
      "##৪": 878,
      "##ৰ": 879,
      "##m": 880,
      "##s": 881,
      "##w": 882,
      "##i": 883,
      "##I": 884,
      "##V": 885,
      "##A": 886,
      "##L": 887,
      "##्": 888,
      "##र": 889,
      "##‌": 890,
      "##भ": 891,
      "##উ": 892,
      "##-": 893,
      "##আ": 894,
      "##ঢ": 895,
      "##h": 896,
      "##r": 897,
      "##o": 898,
      "##f": 899,
      "##অ": 900,
      "##l": 901,
      "##H": 902,
      "##ঝ": 903,
      "##t": 904,
      "##c": 905,
      "##p": 906,
      "##y": 907,
      "##b": 908,
      "##৭": 909,
      "##৮": 910,
      "##৯": 911,
      "##এ": 912,
      "##ხ": 913,
      "##”": 914,
      "##০": 915,
      "##২": 916,
      "##л": 917,
      "##у": 918,
      "##ч": 919,
      "##а": 920,
      "##й": 921,
      "##日": 922,
      "##の": 923,
      "##k": 924,
      "##৬": 925,
      "##৩": 926,
      "##v": 927,
      "##d": 928,
      "##O": 929,
      "##C": 930,
      "##K": 931,
      "##৫": 932,
      "##S": 933,
      "##ं": 934,
      "##क": 935,
      "##گ": 936,
      "##ا": 937,
      "##ه": 938,
      "##—": 939,
      "##–": 940,
      "##श": 941,
      "##ර": 942,
      "##්": 943,
      "##_": 944,
      "##ঈ": 945,
      "##골": 946,
      "##ल": 947,
      "##…": 948,
      "##U": 949,
      "##M": 950,
      "##é": 951,
      "##न": 952,
      "##軽": 953,
      "##2": 954,
      "##ի": 955,
      "##B": 956,
      "##.": 957,
      "##ت": 958,
      "##ح": 959,
      "##د": 960,
      "##о": 961,
      "##з": 962,
      "##я": 963,
      "##ঋ": 964,
      "##歓": 965,
      "##欢": 966,
      "##'": 967,
      "##刻": 968,
      "##‍": 969,
      "##ö": 970,
      "##9": 971,
      "##6": 972,
      "##j": 973,
      "##T": 974,
      "##E": 975,
      "##R": 976,
      "##ा": 977,
      "##ष": 978,
      "##च": 979,
      "##ि": 980,
      "##त": 981,
      "##P": 982,
      "##{": 983,
      "##<": 984,
      "##}": 985,
      "##ण": 986,
      "##)": 987,
      "##:": 988,
      "##ৗ": 989,
      "##य": 990,
      "##q": 991,
      "##ज": 992,
      "##ह": 993,
      "##ी": 994,
      "##ل": 995,
      "##ّ": 996,
      "##َ": 997,
      "##ذ": 998,
      "##ِ": 999,
      "##ي": 1000,
      "##ن": 1001,
      "##म": 1002,
      "##े": 1003,
      "##ु": 1004,
      "##व": 1005,
      "##,": 1006,
      "##’": 1007,
      "##構": 1008,
      "##え": 1009,
      "##て": 1010,
      "##১": 1011,
      "##י": 1012,
      "##ੋ": 1013,
      "##।": 1014,
      "##ू": 1015,
      "##ظ": 1016,
      "##―": 1017,
      "##ե": 1018,
      "##ր": 1019,
      "##N": 1020,
      "##D": 1021,
      "##ر": 1022,
      "##ی": 1023,
      "##ع": 1024,
      "##ے": 1025,
      "##/": 1026,
      "##育": 1027,
      "##و": 1028,
      "##ش": 1029,
      "##थ": 1030,
      "##द": 1031,
      "##*": 1032,
      "##ä": 1033,
      "##ृ": 1034,
      "##5": 1035,
      "##स": 1036,
      "##F": 1037,
      "##G": 1038,
      "##ठ": 1039,
      "##響": 1040,
      "##晚": 1041,
      "##ف": 1042,
      "##(": 1043,
      "##п": 1044,
      "##н": 1045,
      "##ঢ়": 1046,
      "##ঐ": 1047,
      "##7": 1048,
      "##м": 1049,
      "##!": 1050,
      "##x": 1051,
      "##צ": 1052,
      "##ל": 1053,
      "##॥": 1054,
      "##4": 1055,
      "##ְ": 1056,
      "##ი": 1057,
      "##რ": 1058,
      "##ვ": 1059,
      "##ე": 1060,
      "##ლ": 1061,
      "##и": 1062,
      "##р": 1063,
      "##ۼ": 1064,
      "##ო": 1065,
      "##ბ": 1066,
      "##ს": 1067,
      "##٤": 1068,
      "##פ": 1069,
      "##ט": 1070,
      "##‘": 1071,
      "##3": 1072,
      "##踏": 1073,
      "##み": 1074,
      "##込": 1075,
      "##喘": 1076,
      "##息": 1077,
      "##к": 1078,
      "##ж": 1079,
      "##ो": 1080,
      "###": 1081,
      "##\"": 1082,
      "##ঊ": 1083,
      "##і": 1084,
      "##ш": 1085,
      "##啜": 1086,
      "##в": 1087,
      "##z": 1088,
      "##·": 1089,
      "##ड": 1090,
      "##=": 1091,
      "##ौ": 1092,
      "##吹": 1093,
      "##ट": 1094,
      "##е": 1095,
      "##д": 1096,
      "##ц": 1097,
      "##ꠖ": 1098,
      "##ы": 1099,
      "##с": 1100,
      "##[": 1101,
      "##ß": 1102,
      "##ग": 1103,
      "##W": 1104,
      "##ब": 1105,
      "##라": 1106,
      "##“": 1107,
      "##見": 1108,
      "##る": 1109,
      "##ิ": 1110,
      "##ต": 1111,
      "##س": 1112,
      "##ٹ": 1113,
      "##ס": 1114,
      "##ढ़": 1115,
      "##속": 1116,
      "##分": 1117,
      "##快": 1118,
      "##三": 1119,
      "##ա": 1120,
      "##ս": 1121,
      "##­": 1122,
      "##א": 1123,
      "##ા": 1124,
      "##ર": 1125,
      "##્": 1126,
      "##ગ": 1127,
      "##م": 1128,
      "##غ": 1129,
      "##ض": 1130,
      "##ُ": 1131,
      "##ب": 1132,
      "##छ": 1133,
      "##า": 1134,
      "##ส": 1135,
      "##ρ": 1136,
      "##ω": 1137,
      "##ध": 1138,
      "##顔": 1139,
      "##ង": 1140,
      "##팔": 1141,
      "##작": 1142,
      "##0": 1143,
      "##1": 1144,
      "##시": 1145,
      "##薬": 1146,
      "##৷": 1147,
      "##Y": 1148,
      "##光": 1149,
      "##辉": 1150,
      "##ৱ": 1151,
      "##ü": 1152,
      "##ଛ": 1153,
      "##ד": 1154,
      "##ן": 1155,
      "##ئ": 1156,
      "##ः": 1157,
      "##ോ": 1158,
      "##പ": 1159,
      "##8": 1160,
      "##க": 1161,
      "##ர": 1162,
      "##ँ": 1163,
      "##प": 1164,
      "##ʼ": 1165,
      "##]": 1166,
      "##خ": 1167,
      "##ई": 1168,
      "##т": 1169,
      "##倒": 1170,
      "##ṭ": 1171,
      "##μ": 1172,
      "##ο": 1173,
      "##υ": 1174,
      "##拭": 1175,
      "##ფ": 1176,
      "##어": 1177,
      "##ն": 1178,
      "##լ": 1179,
      "##ո": 1180,
      "##ւ": 1181,
      "##루": 1182,
      "##Q": 1183,
      "##í": 1184,
      "##घ": 1185,
      "##ע": 1186,
      "##ઘ": 1187,
      "##ז": 1188,
      "##מ": 1189,
      "##ş": 1190,
      "##ו": 1191,
      "##ר": 1192,
      "##ូ": 1193,
      "##უ": 1194,
      "##ა": 1195,
      "##»": 1196,
      "##커": 1197,
      "##œ": 1198,
      "##භ": 1199,
      "##ι": 1200,
      "##κ": 1201,
      "##;": 1202,
      "##?": 1203,
      "##丝": 1204,
      "##​": 1205,
      "##â": 1206,
      "##फ": 1207,
      "##ਾ": 1208,
      "##ਸ": 1209,
      "##ь": 1210,
      "##დ": 1211,
      "##ล": 1212,
      "##리": 1213,
      "##의": 1214,
      "##冻": 1215,
      "##ق": 1216,
      "##志": 1217,
      "##願": 1218,
      "##պ": 1219,
      "##J": 1220,
      "##節": 1221,
      "##約": 1222,
      "##풋": 1223,
      "##秘": 1224,
      "##书": 1225,
      "##文": 1226,
      "##化": 1227,
      "##သ": 1228,
      "##부": 1229,
      "##幕": 1230,
      "##ı": 1231,
      "##抵": 1232,
      "##抗": 1233,
      "##ó": 1234,
      "##ط": 1235,
      "##도": 1236,
      "##ც": 1237,
      "##ం": 1238,
      "##ధ": 1239,
      "##յ": 1240,
      "##տ": 1241,
      "##ղ": 1242,
      "##屋": 1243,
      "##ک": 1244,
      "##X": 1245,
      "##ಲ": 1246,
      "##ஷ": 1247,
      "##પ": 1248,
      "##ૂ": 1249,
      "##ά": 1250,
      "##ნ": 1251,
      "##મ": 1252,
      "##િ": 1253,
      "##ક": 1254,
      "##ષ": 1255,
      "##ਕ": 1256,
      "##త": 1257,
      "##﻿": 1258,
      "##़": 1259,
      "##社": 1260,
      "##会": 1261,
      "##ز": 1262,
      "##თ": 1263,
      "##声": 1264,
      "##ା": 1265,
      "##ે": 1266,
      "##á": 1267,
      "##蔟": 1268,
      "##σ": 1269,
      "##τ": 1270,
      "##α": 1271,
      "##ε": 1272,
      "##š": 1273,
      "##ै": 1274,
      "##奏": 1275,
      "##ా": 1276,
      "##శ": 1277,
      "##ג": 1278,
      "##ោ": 1279,
      "##б": 1280,
      "##ғ": 1281,
      "##家": 1282,
      "##的": 1283,
      "##温": 1284,
      "##暖": 1285,
      "##ए": 1286,
      "##چ": 1287,
      "##ే": 1288,
      "##స": 1289,
      "##√": 1290,
      "##γ": 1291,
      "##剤": 1292,
      "##地": 1293,
      "##域": 1294,
      "##ھ": 1295,
      "##놀": 1296,
      "##Г": 1297,
      "##О": 1298,
      "##ു": 1299,
      "##ത": 1300,
      "##қ": 1301,
      "##ח": 1302,
      "##г": 1303,
      "##ื": 1304,
      "##่": 1305,
      "##อ": 1306,
      "##น": 1307,
      "##ృ": 1308,
      "##ู": 1309,
      "##ม": 1310,
      "##为": 1311,
      "##何": 1312,
      "##₂": 1313,
      "##ត": 1314,
      "##러": 1315,
      "##나": 1316,
      "##극": 1317,
      "##ړ": 1318,
      "##ख": 1319,
      "##ْ": 1320,
      "##ં": 1321,
      "##ચ": 1322,
      "##ձ": 1323,
      "##ү": 1324,
      "##口": 1325,
      "##ढ": 1326,
      "##ʻ": 1327,
      "##θ": 1328,
      "##η": 1329,
      "##ั": 1330,
      "##ง": 1331,
      "##ก": 1332,
      "##ੜ": 1333,
      "##δ": 1334,
      "##ό": 1335,
      "##ೂ": 1336,
      "##ರ": 1337,
      "##ڑ": 1338,
      "##界": 1339,
      "##ର": 1340,
      "##ો": 1341,
      "##ุ": 1342,
      "##世": 1343,
      "##바": 1344,
      "##일": 1345,
      "##ә": 1346,
      "##હ": 1347,
      "##ņ": 1348,
      "##ҷ": 1349,
      "##π": 1350,
      "##ê": 1351,
      "##்": 1352,
      "##த": 1353,
      "##조": 1354,
      "##|": 1355,
      "##న": 1356,
      "##ೃ": 1357,
      "##든": 1358,
      "##ğ": 1359,
      "##」": 1360,
      "##ം": 1361,
      "##ഘ": 1362,
      "##締": 1363,
      "##ท": 1364,
      "##一": 1365,
      "##ओ": 1366,
      "##ص": 1367,
      "##滴": 1368,
      "##É": 1369,
      "##`": 1370,
      "##ք": 1371,
      "##ַ": 1372,
      "##済": 1373,
      "##ə": 1374,
      "##ć": 1375,
      "##ב": 1376,
      "##ת": 1377,
      "##화": 1378,
      "##ீ": 1379,
      "##诱": 1380,
      "##に": 1381,
      "##ု": 1382,
      "##ံ": 1383,
      "##پ": 1384,
      "##감": 1385,
      "##을": 1386,
      "##ย": 1387,
      "##대": 1388,
      "##响": 1389,
      "##इ": 1390,
      "##誘": 1391,
      "##惑": 1392,
      "##节": 1393,
      "##省": 1394,
      "##★": 1395,
      "##으": 1396,
      "##로": 1397,
      "##废": 1398,
      "##~": 1399,
      "##越": 1400,
      "##კ": 1401,
      "##种": 1402,
      "##ν": 1403,
      "##根": 1404,
      "##ם": 1405,
      "##ہ": 1406,
      "##̊": 1407,
      "##ф": 1408,
      "##복": 1409,
      "##ך": 1410,
      "##ꉂ": 1411,
      "##х": 1412,
      "##ळ": 1413,
      "##ạ": 1414,
      "##ў": 1415,
      "##ಕ": 1416,
      "##್": 1417,
      "##ಷ": 1418,
      "##탄": 1419,
      "##ക": 1420,
      "##്": 1421,
      "##მ": 1422,
      "##Z": 1423,
      "##ֆ": 1424,
      "##간": 1425,
      "##欒": 1426,
      "##宿": 1427,
      "##소": 1428,
      "##개": 1429,
      "##起": 1430,
      "##ë": 1431,
      "##ค": 1432,
      "##拾": 1433,
      "##æ": 1434,
      "##ج": 1435,
      "##^": 1436,
      "##것": 1437,
      "##વ": 1438,
      "##은": 1439,
      "##녓": 1440,
      "##능": 1441,
      "##한": 1442,
      "##ୁ": 1443,
      "##ತ": 1444,
      "##ី": 1445,
      "##할": 1446,
      "##아": 1447,
      "##ụ": 1448,
      "##튁": 1449,
      "##ž": 1450,
      "##દ": 1451,
      "##ધ": 1452,
      "##ή": 1453,
      "##ီ": 1454,
      "##း": 1455,
      "##נ": 1456,
      "##ண": 1457,
      "##問": 1458,
      "##い": 1459,
      "##პ": 1460,
      "##へ": 1461,
      "##ṛ": 1462,
      "##झ": 1463,
      "##욱": 1464,
      "##တ": 1465,
      "##်": 1466,
      "##鳴": 1467,
      "##ॐ": 1468,
      "##手": 1469,
      "##ി": 1470,
      "##ര": 1471,
      "##ة": 1472,
      "##眺": 1473,
      "##眷": 1474,
      "##阻": 1475,
      "##พ": 1476,
      "##ę": 1477,
      "##ঔ": 1478,
      "##ӯ": 1479,
      "##խ": 1480,
      "##씩": 1481,
      "##비": 1482,
      "##ు": 1483,
      "##ర": 1484,
      "##ń": 1485,
      "##句": 1486,
      "##眞": 1487,
      "##と": 1488,
      "##ż": 1489,
      "##उ": 1490,
      "##Ñ": 1491,
      "##ි": 1492,
      "##啡": 1493,
      "##真": 1494,
      "##事": 1495,
      "##实": 1496,
      "##上": 1497,
      "##試": 1498,
      "##族": 1499,
      "##험": 1500,
      "##ુ": 1501,
      "##ਯ": 1502,
      "##站": 1503,
      "##ਿ": 1504,
      "##ਪ": 1505,
      "##眼": 1506,
      "##민": 1507,
      "##지": 1508,
      "##막": 1509,
      "##ার": 1510,
      "##ের": 1511,
      "##য়": 1512,
      "##্র": 1513,
      "##্য": 1514,
      "##ান": 1515,
      "##্ত": 1516,
      "##লে": 1517,
      "##কে": 1518,
      "কর": 1519,
      "##য়ে": 1520,
      "##তে": 1521,
      "##ছে": 1522,
      "##্ব": 1523,
      "##ড়": 1524,
      "প্র": 1525,
      "##ির": 1526,
      "##িন": 1527,
      "##াল": 1528,
      "##ায়": 1529,
      "##বে": 1530,
      "না": 1531,
      "আম": 1532,
      "এক": 1533,
      "বা": 1534,
      "##িক": 1535,
      "##ন্": 1536,
      "##িয়ে": 1537,
      "##ুর": 1538,
      "##াস": 1539,
      "##াম": 1540,
      "##িল": 1541,
      "##িত": 1542,
      "##টা": 1543,
      "করে": 1544,
      "সে": 1545,
      "দে": 1546,
      "##াত": 1547,
      "##াক": 1548,
      "আর": 1549,
      "##নে": 1550,
      "##্ষ": 1551,
      "##াঁ": 1552,
      "যে": 1553,
      "##য়ে": 1554,
      "##রে": 1555,
      "নি": 1556,
      "##তি": 1557,
      "##টি": 1558,
      "##াদ": 1559,
      "বি": 1560,
      "##লো": 1561,
      "##র্": 1562,
      "##াই": 1563,
      "##ায়": 1564,
      "তার": 1565,
      "##াব": 1566,
      "##ষ্": 1567,
      "##সে": 1568,
      "##ঙ্": 1569,
      "##ুক": 1570,
      "বল": 1571,
      "##াজ": 1572,
      "##ুন": 1573,
      "##ীর": 1574,
      "পা": 1575,
      "##োন": 1576,
      "পর": 1577,
      "তো": 1578,
      "সম": 1579,
      "##খন": 1580,
      "##েকে": 1581,
      "##লেন": 1582,
      "##চ্": 1583,
      "##গে": 1584,
      "##্ন": 1585,
      "দেখ": 1586,
      "##েল": 1587,
      "মা": 1588,
      "অন": 1589,
      "##থা": 1590,
      "##রা": 1591,
      "কি": 1592,
      "##ুল": 1593,
      "##াকে": 1594,
      "##্প": 1595,
      "##্ম": 1596,
      "স্ব": 1597,
      "এই": 1598,
      "##ুম": 1599,
      "দি": 1600,
      "##ক্ষ": 1601,
      "কে": 1602,
      "##বার": 1603,
      "##ানে": 1604,
      "##াপ": 1605,
      "থেকে": 1606,
      "##ন্ধ": 1607,
      "##াগ": 1608,
      "##াহ": 1609,
      "##ন্দ": 1610,
      "##ছিল": 1611,
      "##াদের": 1612,
      "##না": 1613,
      "##দ্": 1614,
      "##তো": 1615,
      "##েই": 1616,
      "আমার": 1617,
      "##ছি": 1618,
      "##নের": 1619,
      "##ড়ে": 1620,
      "আমি": 1621,
      "সব": 1622,
      "যা": 1623,
      "##তা": 1624,
      "##কার": 1625,
      "##টে": 1626,
      "##খে": 1627,
      "মু": 1628,
      "বে": 1629,
      "পার": 1630,
      "হয়ে": 1631,
      "##স্ত": 1632,
      "##ন্ত": 1633,
      "##শে": 1634,
      "##স্": 1635,
      "##িন্ত": 1636,
      "##কা": 1637,
      "##নি": 1638,
      "##দের": 1639,
      "প্রতি": 1640,
      "##্তি": 1641,
      "কোন": 1642,
      "দু": 1643,
      "##ীব": 1644,
      "##ত্য": 1645,
      "##লা": 1646,
      "##বি": 1647,
      "মান": 1648,
      "##ূর": 1649,
      "সেই": 1650,
      "কিন্ত": 1651,
      "কিন্তু": 1652,
      "##ধ্য": 1653,
      "##িয়ে": 1654,
      "কা": 1655,
      "##ঠে": 1656,
      "##াতে": 1657,
      "ব্য": 1658,
      "##ন্য": 1659,
      "ভে": 1660,
      "##্দ": 1661,
      "##য়া": 1662,
      "যেন": 1663,
      "তোম": 1664,
      "মে": 1665,
      "##জে": 1666,
      "আলো": 1667,
      "চো": 1668,
      "শু": 1669,
      "বলে": 1670,
      "##মে": 1671,
      "আছে": 1672,
      "##িনি": 1673,
      "কথা": 1674,
      "##দ্ধ": 1675,
      "থাক": 1676,
      "##ণ্": 1677,
      "মি": 1678,
      "##ুষ": 1679,
      "##চে": 1680,
      "##ঙ্গ": 1681,
      "মতো": 1682,
      "হয়": 1683,
      "##পর": 1684,
      "খু": 1685,
      "##মন": 1686,
      "কো": 1687,
      "##ঙ্গে": 1688,
      "##্ল": 1689,
      "##চ্ছে": 1690,
      "কী": 1691,
      "##শ্ব": 1692,
      "বু": 1693,
      "জীব": 1694,
      "##ছু": 1695,
      "মনে": 1696,
      "##ৃত": 1697,
      "##তার": 1698,
      "##দি": 1699,
      "সু": 1700,
      "হবে": 1701,
      "পরি": 1702,
      "##বং": 1703,
      "##জ্": 1704,
      "##খানে": 1705,
      "একটা": 1706,
      "##রের": 1707,
      "##েলে": 1708,
      "##ুত": 1709,
      "চে": 1710,
      "অব": 1711,
      "আস": 1712,
      "সং": 1713,
      "করতে": 1714,
      "এবং": 1715,
      "##াবে": 1716,
      "##াড়": 1717,
      "##ঞ্": 1718,
      "##ুলো": 1719,
      "আজ": 1720,
      "সঙ্গে": 1721,
      "##জন": 1722,
      "##োক": 1723,
      "দিয়ে": 1724,
      "##ুমি": 1725,
      "কিছু": 1726,
      "##ৃদ": 1727,
      "##ৃষ্": 1728,
      "##ীন": 1729,
      "ছিল": 1730,
      "রা": 1731,
      "তোমার": 1732,
      "জান": 1733,
      "নিজ": 1734,
      "যায়": 1735,
      "স্বপ": 1736,
      "তুমি": 1737,
      "##্ট": 1738,
      "##াও": 1739,
      "আমাদের": 1740,
      "নিয়ে": 1741,
      "উঠ": 1742,
      "##ান্ত": 1743,
      "আপ": 1744,
      "##োট": 1745,
      "##োঁ": 1746,
      "##্যা": 1747,
      "মধ্য": 1748,
      "কার": 1749,
      "##ালো": 1750,
      "পথ": 1751,
      "##াত্র": 1752,
      "##ছেন": 1753,
      "##ড়ে": 1754,
      "এসে": 1755,
      "নত": 1756,
      "বলল": 1757,
      "রে": 1758,
      "নেই": 1759,
      "স্বপ্ন": 1760,
      "মানুষ": 1761,
      "নতুন": 1762,
      "নির": 1763,
      "গেল": 1764,
      "আমরা": 1765,
      "হাত": 1766,
      "##িতে": 1767,
      "দাঁ": 1768,
      "শে": 1769,
      "হাস": 1770,
      "##োগ": 1771,
      "পে": 1772,
      "কোনো": 1773,
      "গ্র": 1774,
      "সাম": 1775,
      "##খা": 1776,
      "##ানো": 1777,
      "##দিন": 1778,
      "##িম": 1779,
      "নে": 1780,
      "হৃদ": 1781,
      "স্": 1782,
      "এখন": 1783,
      "পুর": 1784,
      "##গুলো": 1785,
      "জন্য": 1786,
      "অম": 1787,
      "##ল্প": 1788,
      "গে": 1789,
      "##ধু": 1790,
      "তিনি": 1791,
      "মন": 1792,
      "##িস": 1793,
      "##ণে": 1794,
      "##শের": 1795,
      "##ড়িয়ে": 1796,
      "##ত্ত": 1797,
      "##জ্ঞ": 1798,
      "তা": 1799,
      "নয়": 1800,
      "##ানা": 1801,
      "##নার": 1802,
      "দিন": 1803,
      "বাঁ": 1804,
      "তাঁ": 1805,
      "##শি": 1806,
      "##ারে": 1807,
      "##বা": 1808,
      "##ণ্ড": 1809,
      "##ষ্ট": 1810,
      "##ঠা": 1811,
      "আঁ": 1812,
      "ক্ষ": 1813,
      "গা": 1814,
      "তখন": 1815,
      "রাজ": 1816,
      "ভা": 1817,
      "চোখ": 1818,
      "ফির": 1819,
      "##ব্দ": 1820,
      "##ত্র": 1821,
      "##কি": 1822,
      "লে": 1823,
      "##দে": 1824,
      "##পে": 1825,
      "##ভাবে": 1826,
      "গো": 1827,
      "পড়": 1828,
      "##ারা": 1829,
      "##শ্বাস": 1830,
      "##্ভ": 1831,
      "দিকে": 1832,
      "কেউ": 1833,
      "##য়ের": 1834,
      "শেষ": 1835,
      "সা": 1836,
      "বুঝ": 1837,
      "শুধু": 1838,
      "ছোট": 1839,
      "শি": 1840,
      "##য়া": 1841,
      "##কের": 1842,
      "##ুলে": 1843,
      "একটি": 1844,
      "মুখ": 1845,
      "কাছে": 1846,
      "##ক্ত": 1847,
      "নাম": 1848,
      "সুর": 1849,
      "##রণ": 1850,
      "বন্ধ": 1851,
      "##াণ": 1852,
      "##র্ণ": 1853,
      "হল": 1854,
      "।”": 1855,
      "##্যের": 1856,
      "##ুরু": 1857,
      "মধ্যে": 1858,
      "##য়ার": 1859,
      "প্রথ": 1860,
      "##চার": 1861,
      "##ুঁ": 1862,
      "প্রতিটি": 1863,
      "সর": 1864,
      "##িক্ষ": 1865,
      "আশ": 1866,
      "ওঠে": 1867,
      "##োধ": 1868,
      "দেখে": 1869,
      "ঠিক": 1870,
      "##চ্ছ": 1871,
      "পারে": 1872,
      "##রি": 1873,
      "হয়ে": 1874,
      "##ীত": 1875,
      "##টির": 1876,
      "##বর": 1877,
      "##টু": 1878,
      "##দ্র": 1879,
      "বাড়": 1880,
      "সাহ": 1881,
      "##ালি": 1882,
      "থাকে": 1883,
      "যদি": 1884,
      "কখন": 1885,
      "মহ": 1886,
      "##স্থ": 1887,
      "করল": 1888,
      "স্ম": 1889,
      "কাঁ": 1890,
      "চলে": 1891,
      "উপ": 1892,
      "অস": 1893,
      "##ার্": 1894,
      "অর্": 1895,
      "##াসে": 1896,
      "##মের": 1897,
      "##ুপ": 1898,
      "##োর": 1899,
      "যখন": 1900,
      "পড়ে": 1901,
      "##ক্তি": 1902,
      "তাদের": 1903,
      "প্রথম": 1904,
      "অভ": 1905,
      "কাজ": 1906,
      "শব্দ": 1907,
      "মাঝ": 1908,
      "ভাব": 1909,
      "অনে": 1910,
      "কোনও": 1911,
      "##চিত": 1912,
      "গ্রাম": 1913,
      "##গ্র": 1914,
      "আকা": 1915,
      "##ুণ": 1916,
      "ধরে": 1917,
      "তারা": 1918,
      "##াকা": 1919,
      "##লের": 1920,
      "ভালো": 1921,
      "চোখে": 1922,
      "##্ধ": 1923,
      "যু": 1924,
      "বললেন": 1925,
      "নিজের": 1926,
      "##লি": 1927,
      "##বু": 1928,
      "##থে": 1929,
      "নদ": 1930,
      "##ৃতি": 1931,
      "অন্ধ": 1932,
      "হে": 1933,
      "##বাস": 1934,
      "##ানের": 1935,
      "অন্য": 1936,
      "বসে": 1937,
      "##টার": 1938,
      "আবার": 1939,
      "##ীল": 1940,
      "বার": 1941,
      "এমন": 1942,
      "শুরু": 1943,
      "##ুক্ত": 1944,
      "হঠা": 1945,
      "চি": 1946,
      "করা": 1947,
      "হঠাৎ": 1948,
      "সত্য": 1949,
      "##শ্য": 1950,
      "##জা": 1951,
      "ফিরে": 1952,
      "দর": 1953,
      "##ীরে": 1954,
      "##ওয়া": 1955,
      "##ূপ": 1956,
      "কেন": 1957,
      "নীর": 1958,
      "##াধ": 1959,
      "হাতে": 1960,
      "আগে": 1961,
      "##প্র": 1962,
      "স্প": 1963,
      "লাগ": 1964,
      "খুঁ": 1965,
      "তবে": 1966,
      "গিয়ে": 1967,
      "##কাল": 1968,
      "##ষ্ঠ": 1969,
      "##েক": 1970,
      "জীবনের": 1971,
      "উঠে": 1972,
      "তাঁর": 1973,
      "##শ্র": 1974,
      "বর": 1975,
      "আন": 1976,
      "অন্ধকার": 1977,
      "অনেক": 1978,
      "অনু": 1979,
      "।’": 1980,
      "হয়": 1981,
      "##ৃষ্টি": 1982,
      "##ড়া": 1983,
      "জ্ব": 1984,
      "বড়": 1985,
      "শিক্ষ": 1986,
      "প্রত্য": 1987,
      "পাত": 1988,
      "সহ": 1989,
      "##মা": 1990,
      "##ছিলেন": 1991,
      "একটু": 1992,
      "যায়": 1993,
      "রাখ": 1994,
      "##শ্": 1995,
      "আসে": 1996,
      "আমাকে": 1997,
      "লোক": 1998,
      "সি": 1999,
      "##ীয়": 2000,
      "অন্ত": 2001,
      "##দ্য": 2002,
      "তাই": 2003,
      "##ৎস": 2004,
      "তাকে": 2005,
      "বাঙ": 2006,
      "এর": 2007,
      "উঠল": 2008,
      "গান": 2009,
      "##ন্ত্র": 2010,
      "নীরব": 2011,
      "বো": 2012,
      "আত": 2013,
      "##পা": 2014,
      "##তেই": 2015,
      "##ানি": 2016,
      "##ড়া": 2017,
      "##ূল": 2018,
      "##র্ম": 2019,
      "যাবে": 2020,
      "##ঙে": 2021,
      "##ন্ম": 2022,
      "##ালা": 2023,
      "হলে": 2024,
      "দেখা": 2025,
      "##ণা": 2026,
      "কল": 2027,
      "হাসি": 2028,
      "##িতা": 2029,
      "##োল": 2030,
      "চাই": 2031,
      "লা": 2032,
      "থাকা": 2033,
      "দী": 2034,
      "তাক": 2035,
      "জল": 2036,
      "বস": 2037,
      "##মান": 2038,
      "জীবন": 2039,
      "##ঞ্চ": 2040,
      "ডাক": 2041,
      "##ূর্ত": 2042,
      "##ড়িয়ে": 2043,
      "##দ্ভ": 2044,
      "লুক": 2045,
      "বিষ": 2046,
      "সময়": 2047,
      "দিল": 2048,
      "বাত": 2049,
      "খুব": 2050,
      "##িব": 2051,
      "এত": 2052,
      "##ায়ের": 2053,
      "আগ": 2054,
      "দুর": 2055,
      "ভাষ": 2056,
      "##স্ব": 2057,
      "##য়ের": 2058,
      "শহ": 2059,
      "অত": 2060,
      "গেছে": 2061,
      "##্রি": 2062,
      "পি": 2063,
      "ভেত": 2064,
      "হার": 2065,
      "কত": 2066,
      "##েলা": 2067,
      "চল": 2068,
      "##হার": 2069,
      "রেখে": 2070,
      "দেয়": 2071,
      "কখনো": 2072,
      "মানব": 2073,
      "গল্প": 2074,
      "নিয়ে": 2075,
      "আত্ম": 2076,
      "কব": 2077,
      "##কৃত": 2078,
      "##ক্ষা": 2079,
      "বিশ্বাস": 2080,
      "মো": 2081,
      "মাঝে": 2082,
      "উত্ত": 2083,
      "দিয়ে": 2084,
      "##ণের": 2085,
      "##বেশ": 2086,
      "প্রশ": 2087,
      "নিঃ": 2088,
      "##াদা": 2089,
      "##টের": 2090,
      "সন্ধ": 2091,
      "হতে": 2092,
      "##্যে": 2093,
      "মিল": 2094,
      "এখানে": 2095,
      "লি": 2096,
      "ছে": 2097,
      "##তের": 2098,
      "##ঞ্জ": 2099,
      "##হূর্ত": 2100,
      "ছি": 2101,
      "তবু": 2102,
      "##ীম": 2103,
      "শুন": 2104,
      "সবাই": 2105,
      "##ন্দ্র": 2106,
      "##থায়": 2107,
      "##ুক্তি": 2108,
      "ধর": 2109,
      "বের": 2110,
      "কু": 2111,
      "তুলে": 2112,
      "##িকা": 2113,
      "##মি": 2114,
      "খে": 2115,
      "##ুলি": 2116,
      "##ন্ন": 2117,
      "##র্শ": 2118,
      "মানুষের": 2119,
      "##ভূ": 2120,
      "দিতে": 2121,
      "রো": 2122,
      "অচে": 2123,
      "মিশে": 2124,
      "##নো": 2125,
      "##ারের": 2126,
      "যেতে": 2127,
      "বহ": 2128,
      "দ্র": 2129,
      "##ধা": 2130,
      "বলতে": 2131,
      "?’": 2132,
      "##পুর": 2133,
      "যেখানে": 2134,
      "কণ্": 2135,
      "##ুটে": 2136,
      "ভেসে": 2137,
      "পথে": 2138,
      "মুহূর্ত": 2139,
      "করছে": 2140,
      "##্যান": 2141,
      "##কম": 2142,
      "অথ": 2143,
      "##্রে": 2144,
      "##সব": 2145,
      "##্রম": 2146,
      "চার": 2147,
      "হাঁ": 2148,
      "গাছ": 2149,
      "##তিহ": 2150,
      "লাল": 2151,
      "কারণ": 2152,
      "দেব": 2153,
      "মেঘ": 2154,
      "##জি": 2155,
      "অজ": 2156,
      "##বেন": 2157,
      "অদ": 2158,
      "##যোগ": 2159,
      "##লাম": 2160,
      "##ুট": 2161,
      "##ড়ি": 2162,
      "সামনে": 2163,
      "নয়": 2164,
      "হয়েছে": 2165,
      "##লার": 2166,
      "স্বপ্নের": 2167,
      "হলো": 2168,
      "ফেলে": 2169,
      "##বাব": 2170,
      "##বর্ত": 2171,
      "ভেঙে": 2172,
      "তারপর": 2173,
      "পাখ": 2174,
      "দাঁড়িয়ে": 2175,
      "স্ত": 2176,
      "করার": 2177,
      "ছেলে": 2178,
      "বই": 2179,
      "##হীন": 2180,
      "রাত": 2181,
      "##ঙ্ক": 2182,
      "খুঁজে": 2183,
      "অচেনা": 2184,
      "ওই": 2185,
      "##াস্ত": 2186,
      "##তিক": 2187,
      "সূর": 2188,
      "মুখে": 2189,
      "##সা": 2190,
      "যত": 2191,
      "দূর": 2192,
      "প্রে": 2193,
      "হি": 2194,
      "বাং": 2195,
      "ব্যব": 2196,
      "করি": 2197,
      "##াসের": 2198,
      "হচ্ছে": 2199,
      "রি": 2200,
      "##তন": 2201,
      "ব্র": 2202,
      "বুক": 2203,
      "একে": 2204,
      "বছ": 2205,
      "##ধে": 2206,
      "##িত্ব": 2207,
      "সম্প": 2208,
      "##ড়ি": 2209,
      "##স্য": 2210,
      "##ধার": 2211,
      "##িন্দ": 2212,
      "আল": 2213,
      "তর": 2214,
      "##ুলের": 2215,
      "ভি": 2216,
      "##শা": 2217,
      "সোন": 2218,
      "##লেই": 2219,
      "##ক্ষে": 2220,
      "নদীর": 2221,
      "##বল": 2222,
      "##ূর্ণ": 2223,
      "##দা": 2224,
      "যাও": 2225,
      "দ্ব": 2226,
      "বির": 2227,
      "বৃ": 2228,
      "তে": 2229,
      "কম": 2230,
      "ছায়": 2231,
      "ঘরে": 2232,
      "##শেষ": 2233,
      "দেখতে": 2234,
      "##শ্চ": 2235,
      "##্ড": 2236,
      "##াড়া": 2237,
      "##ালের": 2238,
      "আরও": 2239,
      "##িজ্ঞ": 2240,
      "##সের": 2241,
      "##তী": 2242,
      "ওপর": 2243,
      "##র্য": 2244,
      "অদ্ভ": 2245,
      "জন": 2246,
      "পাঠ": 2247,
      "##্বল": 2248,
      "##ুনি": 2249,
      "জে": 2250,
      "অদ্ভুত": 2251,
      "স্মৃতি": 2252,
      "শর": 2253,
      "ধীরে": 2254,
      "##ুজ": 2255,
      "এল": 2256,
      "এগ": 2257,
      "রূপ": 2258,
      "ফেল": 2259,
      "ভাল": 2260,
      "দূ": 2261,
      "##জ্জ": 2262,
      "চির": 2263,
      "প্রাণ": 2264,
      "##চ্ছিল": 2265,
      "আপনি": 2266,
      "স্ক": 2267,
      "গভ": 2268,
      "##িকার": 2269,
      "অপ": 2270,
      "উদ": 2271,
      "##বের": 2272,
      "##ম্ব": 2273,
      "রঙ": 2274,
      "সেটা": 2275,
      "মুক্ত": 2276,
      "##দিকে": 2277,
      "ঘুম": 2278,
      "রক্ত": 2279,
      "##ভা": 2280,
      "##িন্ন": 2281,
      "সার": 2282,
      "ফাঁ": 2283,
      "##পন": 2284,
      "ছোট্ট": 2285,
      "টে": 2286,
      "আপনার": 2287,
      "মেয়ে": 2288,
      "##য়ার": 2289,
      "শিশ": 2290,
      "বাই": 2291,
      "পুরনো": 2292,
      "ঢে": 2293,
      "বেশি": 2294,
      "আশা": 2295,
      "?”": 2296,
      "পরে": 2297,
      "ওর": 2298,
      "জানে": 2299,
      "ভালোবাস": 2300,
      "##ৃশ্য": 2301,
      "##ান্ন": 2302,
      "পৃ": 2303,
      "সমাজ": 2304,
      "নী": 2305,
      "##াধীন": 2306,
      "প্রশ্ন": 2307,
      "##াবার": 2308,
      "ঢেউ": 2309,
      "লেখা": 2310,
      "##ুরে": 2311,
      "স্থ": 2312,
      "পাল": 2313,
      "এটা": 2314,
      "যাচ্ছে": 2315,
      "নীল": 2316,
      "##েরা": 2317,
      "মাথা": 2318,
      "##লায়": 2319,
      "পদ": 2320,
      "##্স": 2321,
      "পৃথ": 2322,
      "স্বাধীন": 2323,
      "##াচ": 2324,
      "##্যার": 2325,
      "##ষণ": 2326,
      "##ৃত্য": 2327,
      "বোঝ": 2328,
      "তুল": 2329,
      "শুনে": 2330,
      "শক্তি": 2331,
      "ভূ": 2332,
      "ছুঁ": 2333,
      "ভার": 2334,
      "##িত্র": 2335,
      "##োনা": 2336,
      "যেমন": 2337,
      "দুঃ": 2338,
      "পড়ে": 2339,
      "##্লান": 2340,
      "চোখের": 2341,
      "মাটি": 2342,
      "বাজ": 2343,
      "তিন": 2344,
      "##াভ": 2345,
      "সেখানে": 2346,
      "গ্রামের": 2347,
      "করেছে": 2348,
      "উৎস": 2349,
      "বুঝতে": 2350,
      "##স্ম": 2351,
      "অমল": 2352,
      "##াট": 2353,
      "##ম্ভ": 2354,
      "বেশ": 2355,
      "সক": 2356,
      "##দী": 2357,
      "পৌ": 2358,
      "##গত": 2359,
      "পর্য": 2360,
      "সম্ভ": 2361,
      "ঘট": 2362,
      "তৈ": 2363,
      "করলেন": 2364,
      "##ংশ": 2365,
      "বিশ্ব": 2366,
      "##ছিলাম": 2367,
      "##প্ত": 2368,
      "##ুকে": 2369,
      "পৃথিব": 2370,
      "##রম": 2371,
      "##্রো": 2372,
      "ছবি": 2373,
      "ভয়": 2374,
      "##বো": 2375,
      "পারি": 2376,
      "##স্থা": 2377,
      "##ার্থ": 2378,
      "চেয়ে": 2379,
      "##ষ্টা": 2380,
      "!”": 2381,
      "সর্ব": 2382,
      "ধার": 2383,
      "নিজেকে": 2384,
      "##ক্ষণ": 2385,
      "আব": 2386,
      "জাগ": 2387,
      "খুলে": 2388,
      "ব্যাপ": 2389,
      "##াশ": 2390,
      "দো": 2391,
      "বৈ": 2392,
      "করেন": 2393,
      "দেয়": 2394,
      "গন্ধ": 2395,
      "##াড়ি": 2396,
      "একজন": 2397,
      "##ষ্য": 2398,
      "হোক": 2399,
      "চাল": 2400,
      "মানে": 2401,
      "ভাঙ": 2402,
      "##বাদ": 2403,
      "##ধি": 2404,
      "তাহ": 2405,
      "করবে": 2406,
      "##ুদ্ধ": 2407,
      "বিপ": 2408,
      "মূল": 2409,
      "##গ্ন": 2410,
      "হেসে": 2411,
      "##চি": 2412,
      "রহ": 2413,
      "##ৈতিক": 2414,
      "পাহ": 2415,
      "হাও": 2416,
      "সূর্য": 2417,
      "বেঁ": 2418,
      "ইতিহ": 2419,
      "সো": 2420,
      "##কর": 2421,
      "দুই": 2422,
      "ভো": 2423,
      "##িত্য": 2424,
      "##ুত্র": 2425,
      "##ধুর": 2426,
      "আনন্দ": 2427,
      "##ব্ধ": 2428,
      "##গা": 2429,
      "কেমন": 2430,
      "গু": 2431,
      "সাথে": 2432,
      "##টো": 2433,
      "ভাস": 2434,
      "##েরে": 2435,
      "বরং": 2436,
      "নাকি": 2437,
      "##ৎকার": 2438,
      "বেদ": 2439,
      "এবার": 2440,
      "##ুই": 2441,
      "মাটির": 2442,
      "##াকার": 2443,
      "পাশে": 2444,
      "খোঁ": 2445,
      "##চনা": 2446,
      "বাবা": 2447,
      "##র্ঘ": 2448,
      "##ুখ": 2449,
      "জন্ম": 2450,
      "##্বে": 2451,
      "জা": 2452,
      "তৈরি": 2453,
      "অপর": 2454,
      "পরিবেশ": 2455,
      "##কৃতি": 2456,
      "ভিত": 2457,
      "##বী": 2458,
      "##ণী": 2459,
      "বাড়ি": 2460,
      "নার": 2461,
      "ভী": 2462,
      "##দার": 2463,
      "##ব্য": 2464,
      "দেশ": 2465,
      "##াতা": 2466,
      "##শন": 2467,
      "অথচ": 2468,
      "কথ": 2469,
      "বাস": 2470,
      "##্যাঁ": 2471,
      "জিজ্ঞ": 2472,
      "পেছ": 2473,
      "ভাই": 2474,
      "##ফিস": 2475,
      "##ালির": 2476,
      "প্রকৃত": 2477,
      "ঘো": 2478,
      "বদ": 2479,
      "##ামা": 2480,
      "গভীর": 2481,
      "মনের": 2482,
      "দিনের": 2483,
      "বছর": 2484,
      "একবার": 2485,
      "ভেতর": 2486,
      "বাজে": 2487,
      "অধ্য": 2488,
      "##জুন": 2489,
      "নদী": 2490,
      "লাগল": 2491,
      "ভর": 2492,
      "শূ": 2493,
      "##ামী": 2494,
      "গড়ে": 2495,
      "টি": 2496,
      "দেখি": 2497,
      "##তির": 2498,
      "কাল": 2499,
      "##িনী": 2500,
      "মৃদ": 2501,
      "ছায়": 2502,
      "সংস্": 2503,
      "চা": 2504,
      "ঘর": 2505,
      "##ন্দর": 2506,
      "অস্ত": 2507,
      "সমস্ত": 2508,
      "জানি": 2509,
      "এলো": 2510,
      "ছড়িয়ে": 2511,
      "রাস্ত": 2512,
      "মৃদু": 2513,
      "দীর্ঘ": 2514,
      "যুদ্ধ": 2515,
      "সূ": 2516,
      "##ান্তি": 2517,
      "দাঁড়": 2518,
      "ক্ল": 2519,
      "##িয়": 2520,
      "##াজিক": 2521,
      "আপন": 2522,
      "##জার": 2523,
      "বিক": 2524,
      "তোমাকে": 2525,
      "##ময়": 2526,
      "ভাষা": 2527,
      "ঝাঁ": 2528,
      "ছেড়ে": 2529,
      "##ভে": 2530,
      "অধ": 2531,
      "ছোঁ": 2532,
      "##বাহ": 2533,
      "বুকে": 2534,
      "পো": 2535,
      "##নী": 2536,
      "##িতার": 2537,
      "সঙ্গ": 2538,
      "সত্যি": 2539,
      "কোণে": 2540,
      "আকাশ": 2541,
      "পাঁ": 2542,
      "হৃদয়": 2543,
      "পেয়ে": 2544,
      "তাহলে": 2545,
      "যার": 2546,
      "অভি": 2547,
      "##টাই": 2548,
      "##নাথ": 2549,
      "জু": 2550,
      "##ন্দন": 2551,
      "গেলে": 2552,
      "##ায়ের": 2553,
      "হিসে": 2554,
      "##্থ": 2555,
      "##স্ট": 2556,
      "##াদে": 2557,
      "##গ্ধ": 2558,
      "জাত": 2559,
      "##রো": 2560,
      "##িকের": 2561,
      "পায়": 2562,
      "জন্যে": 2563,
      "পড়ল": 2564,
      "চুপ": 2565,
      "নিজে": 2566,
      "অক্ষ": 2567,
      "থেকেই": 2568,
      "##ুদ্র": 2569,
      "বাতাসে": 2570,
      "##স্প": 2571,
      "##ঠি": 2572,
      "আলোর": 2573,
      "##শাল": 2574,
      "##কালে": 2575,
      "##িনা": 2576,
      "##ঁচ": 2577,
      "বাইরে": 2578,
      "পৌঁ": 2579,
      "অপে": 2580,
      "আদ": 2581,
      "হাজ": 2582,
      "##ংস": 2583,
      "লুকিয়ে": 2584,
      "লক্ষ": 2585,
      "পাই": 2586,
      "তাকিয়ে": 2587,
      "বন্ধু": 2588,
      "অবি": 2589,
      "##্যাম": 2590,
      "এসব": 2591,
      "ধর্ম": 2592,
      "ভুল": 2593,
      "কৌ": 2594,
      "আঁচ": 2595,
      "পড়": 2596,
      "##খান": 2597,
      "চেষ্টা": 2598,
      "শূন্য": 2599,
      "পাখি": 2600,
      "সামাজিক": 2601,
      "বহু": 2602,
      "কণ্ঠ": 2603,
      "পর্যন্ত": 2604,
      "ভেবে": 2605,
      "##টকে": 2606,
      "##শীল": 2607,
      "##ৃতির": 2608,
      "দূরে": 2609,
      "##ত্ব": 2610,
      "খো": 2611,
      "কিং": 2612,
      "##ৃষ্টির": 2613,
      "আধ": 2614,
      "##্রী": 2615,
      "জমে": 2616,
      "##্বনি": 2617,
      "শিল": 2618,
      "শো": 2619,
      "দরজা": 2620,
      "##টুক": 2621,
      "জ্বল": 2622,
      "প্রত্যেক": 2623,
      "থাকবে": 2624,
      "বী": 2625,
      "##ওয়ার": 2626,
      "জো": 2627,
      "বিকে": 2628,
      "ভবি": 2629,
      "জাগে": 2630,
      "পাতা": 2631,
      "মৃত্য": 2632,
      "দুঃখ": 2633,
      "পুত্র": 2634,
      "##ুত্ব": 2635,
      "##ুতি": 2636,
      "ভবিষ্য": 2637,
      "কর্": 2638,
      "অন্ধকারে": 2639,
      "লো": 2640,
      "##মকে": 2641,
      "##চ্চ": 2642,
      "এসেছে": 2643,
      "মুহূর্তে": 2644,
      "##ন্দে": 2645,
      "##্যব": 2646,
      "অর্জুন": 2647,
      "খেল": 2648,
      "##ধান": 2649,
      "চিৎকার": 2650,
      "##কো": 2651,
      "সুরে": 2652,
      "যাই": 2653,
      "অজানা": 2654,
      "##য়েক": 2655,
      "##হ্ন": 2656,
      "##াক্ষ": 2657,
      "হয়তো": 2658,
      "ঘরের": 2659,
      "সাহস": 2660,
      "শান্ত": 2661,
      "নিতে": 2662,
      "অল": 2663,
      "বোধ": 2664,
      "সংগ্র": 2665,
      "প্রয": 2666,
      "##চ্ছি": 2667,
      "বিভ": 2668,
      "তাতে": 2669,
      "##ন্ট": 2670,
      "সত": 2671,
      "##ুরি": 2672,
      "উল": 2673,
      "আহ": 2674,
      "হ্যাঁ": 2675,
      "নিশ্চ": 2676,
      "##তু": 2677,
      "ডি": 2678,
      "বৃষ্টি": 2679,
      "গোপন": 2680,
      "ফো": 2681,
      "মুক্তির": 2682,
      "চিন্ত": 2683,
      "ছুটে": 2684,
      "পাণ্ড": 2685,
      "স্মৃতির": 2686,
      "আকাশে": 2687,
      "##ওয়": 2688,
      "নব": 2689,
      "ফুল": 2690,
      "প্রজ": 2691,
      "##াবি": 2692,
      "বাঙালির": 2693,
      "কিংবা": 2694,
      "গাছের": 2695,
      "কণ্ঠে": 2696,
      "জেগে": 2697,
      "##জ্জ্বল": 2698,
      "দৃষ্টি": 2699,
      "তরুণ": 2700,
      "বাগ": 2701,
      "##তাম": 2702,
      "##জ্ঞান": 2703,
      "##চিত্র": 2704,
      "পান": 2705,
      "সকাল": 2706,
      "##ুরের": 2707,
      "বয়ে": 2708,
      "##লেও": 2709,
      "কালো": 2710,
      "##ম্য": 2711,
      "মুক্তি": 2712,
      "সুখ": 2713,
      "চাঁ": 2714,
      "—“": 2715,
      "কেবল": 2716,
      "##পি": 2717,
      "দাঁড়িয়ে": 2718,
      "##েস": 2719,
      "##হে": 2720,
      "বাংলা": 2721,
      "উত্তর": 2722,
      "বুকের": 2723,
      "সবুজ": 2724,
      "হিসেবে": 2725,
      "কৃষ্": 2726,
      "##ফি": 2727,
      "ছাড়া": 2728,
      "পূর": 2729,
      "অদৃশ্য": 2730,
      "শরীর": 2731,
      "পুরুষ": 2732,
      "আলোয়": 2733,
      "##মল": 2734,
      "বন": 2735,
      "##ফল": 2736,
      "ভেতরে": 2737,
      "##ঁটে": 2738,
      "নৈতিক": 2739,
      "কোথা": 2740,
      "ব্যক্তি": 2741,
      "##ত্রে": 2742,
      "##ষ্ণ": 2743,
      "কয়েক": 2744,
      "নিল": 2745,
      "ছায়া": 2746,
      "##ান্য": 2747,
      "হৃদয়ে": 2748,
      "বাঙালি": 2749,
      "দীপ": 2750,
      "কাম": 2751,
      "পরী": 2752,
      "##র্ব": 2753,
      "ছাপ": 2754,
      "সুন্দর": 2755,
      "রাখা": 2756,
      "নেমে": 2757,
      "##ডি": 2758,
      "##ঢ়": 2759,
      "রাতে": 2760,
      "একদিন": 2761,
      "পু": 2762,
      "কবিতা": 2763,
      "কিছুই": 2764,
      "কখনও": 2765,
      "শিক্ষা": 2766,
      "ন্য": 2767,
      "##ীরা": 2768,
      "##্তার": 2769,
      "শত": 2770,
      "এগিয়ে": 2771,
      "করেছেন": 2772,
      "মিলে": 2773,
      "সবই": 2774,
      "বলা": 2775,
      "বৃদ্ধ": 2776,
      "কোথায়": 2777,
      "রহস্য": 2778,
      "##ভাব": 2779,
      "##িন্দু": 2780,
      "ধরা": 2781,
      "রই": 2782,
      "##সি": 2783,
      "দেবে": 2784,
      "রাখে": 2785,
      "জায়": 2786,
      "যোগ": 2787,
      "সৌ": 2788,
      "##ানোর": 2789,
      "হাল": 2790,
      "ব্যাপার": 2791,
      "##বাবু": 2792,
      "ফুটে": 2793,
      "ফিস": 2794,
      "ওরা": 2795,
      "##োনো": 2796,
      "সম্ম": 2797,
      "প্রায়": 2798,
      "বিদ": 2799,
      "নির্": 2800,
      "##ীয়": 2801,
      "##ান্না": 2802,
      "##নায়": 2803,
      "যাত্র": 2804,
      "শিল্প": 2805,
      "পাঁচ": 2806,
      "স্বাধীনতার": 2807,
      "##্নে": 2808,
      "পত": 2809,
      "মার": 2810,
      "##জীব": 2811,
      "বিল": 2812,
      "##বারে": 2813,
      "বড়": 2814,
      "##ায়ন": 2815,
      "একই": 2816,
      "পাথ": 2817,
      "ফোঁ": 2818,
      "##র্থ": 2819,
      "দাও": 2820,
      "##িনে": 2821,
      "##্‌": 2822,
      "বাড়ির": 2823,
      "##হর": 2824,
      "ভাগ": 2825,
      "লাই": 2826,
      "প্ল": 2827,
      "অতি": 2828,
      "##াউ": 2829,
      "চায়": 2830,
      "রাতের": 2831,
      "কুন": 2832,
      "গিয়ে": 2833,
      "##কাশ": 2834,
      "আকাশের": 2835,
      "চাপ": 2836,
      "কর্ম": 2837,
      "##পরে": 2838,
      "##সার": 2839,
      "সবার": 2840,
      "মাত্র": 2841,
      "ফের": 2842,
      "সংক": 2843,
      "##জের": 2844,
      "পরিচ": 2845,
      "অনুভূ": 2846,
      "টাকা": 2847,
      "কাগ": 2848,
      "যাওয়া": 2849,
      "একা": 2850,
      "##ষে": 2851,
      "শহরের": 2852,
      "থাকতে": 2853,
      "##কেই": 2854,
      "##শব্দ": 2855,
      "পাশ": 2856,
      "জীবনে": 2857,
      "বিশেষ": 2858,
      "ঝল": 2859,
      "উজ্জ্বল": 2860,
      "বাস্ত": 2861,
      "##বন্ধ": 2862,
      "শীত": 2863,
      "বাক": 2864,
      "আক": 2865,
      "আজকের": 2866,
      "##ীতে": 2867,
      ",”": 2868,
      "নানা": 2869,
      "ব্যবহার": 2870,
      "হাতের": 2871,
      "সাজ": 2872,
      "##ষ্টি": 2873,
      "লেখ": 2874,
      "##টুকু": 2875,
      "পরিবর্ত": 2876,
      "বান": 2877,
      "##ীদের": 2878,
      "##োজন": 2879,
      "##ুটি": 2880,
      "##থার": 2881,
      "##র্জ": 2882,
      "##োপ": 2883,
      "বেরিয়ে": 2884,
      "লিখ": 2885,
      "তোলে": 2886,
      "##মনি": 2887,
      "##সর": 2888,
      "স্ন": 2889,
      "সাহিত্য": 2890,
      "আঙ": 2891,
      "অনুভ": 2892,
      "স্রো": 2893,
      "পিছ": 2894,
      "পেল": 2895,
      "ভরে": 2896,
      "করলে": 2897,
      "উপর": 2898,
      "উদ্": 2899,
      "দেওয়া": 2900,
      "##াস্ট": 2901,
      "##তায়": 2902,
      "আরেক": 2903,
      "এখনও": 2904,
      "##তায়": 2905,
      "##চের": 2906,
      "কাঠ": 2907,
      "দিক": 2908,
      "বাঁচ": 2909,
      "মিথ": 2910,
      "ডাক্তার": 2911,
      "ক্র": 2912,
      "##হের": 2913,
      "##টল": 2914,
      "##র্ক": 2915,
      "হারিয়ে": 2916,
      "উন্ন": 2917,
      "যাব": 2918,
      "সময়": 2919,
      "ক্ষে": 2920,
      "কঠ": 2921,
      "দাদ": 2922,
      "ফিসফিস": 2923,
      "বাঁধ": 2924,
      "##ন্ড": 2925,
      "বয়": 2926,
      "খেলা": 2927,
      "দায়": 2928,
      "##রব": 2929,
      "দরকার": 2930,
      "##িমা": 2931,
      "রকম": 2932,
      "থাম": 2933,
      "পাখির": 2934,
      "হয়েছিল": 2935,
      "##চল": 2936,
      "দিলেন": 2937,
      "ঠোঁ": 2938,
      "##ীকার": 2939,
      "ঘুরে": 2940,
      "##মাণ": 2941,
      "গোল": 2942,
      "##বর্তী": 2943,
      "বদলে": 2944,
      "##ৌপ": 2945,
      "দুটো": 2946,
      "ছিলেন": 2947,
      "ইচ্ছে": 2948,
      "খবর": 2949,
      "মধুর": 2950,
      "লিখে": 2951,
      "##গর": 2952,
      "ভাসে": 2953,
      "প্রাচ": 2954,
      "অনন্ত": 2955,
      "তুই": 2956,
      "দৃ": 2957,
      "কাঁপ": 2958,
      "দিচ্ছে": 2959,
      "আয়": 2960,
      "সীম": 2961,
      "বললে": 2962,
      "##ড়ায়": 2963,
      "বাড়িতে": 2964,
      "##্যো": 2965,
      "কোথাও": 2966,
      "##গুলি": 2967,
      "আবে": 2968,
      "বাল": 2969,
      "প্রকৃতির": 2970,
      "বৃষ্টির": 2971,
      "সম্ভব": 2972,
      "তখনই": 2973,
      "ভোরের": 2974,
      "##িকে": 2975,
      "হাজার": 2976,
      "হত": 2977,
      "দ্রৌপ": 2978,
      "করো": 2979,
      "##্ঞ": 2980,
      "জ্বলে": 2981,
      "##ময়": 2982,
      "##স্থিত": 2983,
      "##মাত্র": 2984,
      "হেঁটে": 2985,
      "লাগে": 2986,
      "আসা": 2987,
      "##েমে": 2988,
      "অশ্র": 2989,
      "##ান্দ": 2990,
      "##্তা": 2991,
      "দুপুর": 2992,
      "ফে": 2993,
      "##টাকে": 2994,
      "##াত্ম": 2995,
      "রাত্র": 2996,
      "##য়ায়": 2997,
      "অংশ": 2998,
      "সৃষ্টি": 2999,
      "উদ্য": 3000,
      "নিচে": 3001,
      "ভদ্র": 3002,
      "শান্তি": 3003,
      "বাড়": 3004,
      "হাঁট": 3005,
      "##জনের": 3006,
      "##্ৰ": 3007,
      "##ুমাত্র": 3008,
      "বিস্ম": 3009,
      "অক": 3010,
      "আসছে": 3011,
      "শিখ": 3012,
      "সাদা": 3013,
      "আই": 3014,
      "বলি": 3015,
      "আগেই": 3016,
      "গল": 3017,
      "অর্থ": 3018,
      "বাঁধা": 3019,
      "ইতিহাস": 3020,
      "##গের": 3021,
      "মাত": 3022,
      "শুনতে": 3023,
      "অথবা": 3024,
      "##ওয়া": 3025,
      "রয়ে": 3026,
      "ভুলে": 3027,
      "আরো": 3028,
      "মত": 3029,
      "কারো": 3030,
      "##জিত": 3031,
      "##িরে": 3032,
      "গলায়": 3033,
      "রাজা": 3034,
      "দশ": 3035,
      "মনো": 3036,
      "শ্ব": 3037,
      "ভালোবাসা": 3038,
      "বস্ত": 3039,
      "##ালার": 3040,
      "করব": 3041,
      "তোর": 3042,
      "খান": 3043,
      "##্রের": 3044,
      "শুক": 3045,
      "ঢুকে": 3046,
      "জলে": 3047,
      "##াহ্ম": 3048,
      "##চ্ছা": 3049,
      "ওদের": 3050,
      "একস": 3051,
      "##মার": 3052,
      "দেশের": 3053,
      "##ুনিক": 3054,
      "##াসা": 3055,
      "চক": 3056,
      "##ালী": 3057,
      "জানতে": 3058,
      "গাঁ": 3059,
      "##াড়": 3060,
      "##ামের": 3061,
      "স্পর্শ": 3062,
      "অম্লান": 3063,
      "অগ্ন": 3064,
      "##চা": 3065,
      "নিয়": 3066,
      "দেখল": 3067,
      "চিঠি": 3068,
      "থেমে": 3069,
      "জিজ্ঞেস": 3070,
      "অপেক্ষা": 3071,
      "পেছনে": 3072,
      "ভরা": 3073,
      "##ভার": 3074,
      "##শার": 3075,
      "##ম্প": 3076,
      "প্রেমের": 3077,
      "ব্রাহ্ম": 3078,
      "আঁক": 3079,
      "##ধিষ্ঠ": 3080,
      "টেনে": 3081,
      "ধুলো": 3082,
      "আধুনিক": 3083,
      "গর্": 3084,
      "মর": 3085,
      "##খ্য": 3086,
      "##ুব": 3087,
      "##হন": 3088,
      "বীর": 3089,
      "মায়": 3090,
      "উন্ম": 3091,
      "শ্র": 3092,
      "সকালে": 3093,
      "আগুন": 3094,
      "আস্ত": 3095,
      "অনুভব": 3096,
      "##তম": 3097,
      "##চেতন": 3098,
      "রাখতে": 3099,
      "কুন্ত": 3100,
      "প্রেম": 3101,
      "বন্দ": 3102,
      "দ্রুত": 3103,
      "যন্ত্র": 3104,
      "শেষে": 3105,
      "##পাশে": 3106,
      "সোনালি": 3107,
      "##শ্বর": 3108,
      "বর্ণ": 3109,
      "আলোক": 3110,
      "কবি": 3111,
      "ছায়া": 3112,
      "সেদিন": 3113,
      "##লোক": 3114,
      "অবশ্য": 3115,
      "বুঝে": 3116,
      "অবাক": 3117,
      "আঁকা": 3118,
      "অদম্য": 3119,
      "ভাবে": 3120,
      "##ষ্কার": 3121,
      "অর": 3122,
      "সবচে": 3123,
      "ঢুক": 3124,
      "খাও": 3125,
      "পাওয়া": 3126,
      "পারেন": 3127,
      "যুধিষ্ঠ": 3128,
      "চুম": 3129,
      "ছড়িয়ে": 3130,
      "প্রতী": 3131,
      "সন্ত": 3132,
      "##পের": 3133,
      "যারা": 3134,
      "লেগে": 3135,
      "কানে": 3136,
      "কাপ": 3137,
      "যুধিষ্ঠির": 3138,
      "নিঃশব্দ": 3139,
      "জ্ঞ": 3140,
      "কৃ": 3141,
      "মুছে": 3142,
      "নির্ম": 3143,
      "গলা": 3144,
      "ভাঙা": 3145,
      "মাছ": 3146,
      "টুক": 3147,
      "বাতাস": 3148,
      "সন্ধ্যার": 3149,
      "এনে": 3150,
      "কষ্ট": 3151,
      "ফল": 3152,
      "সিঁ": 3153,
      "ওঠা": 3154,
      "ফলে": 3155,
      "অবির": 3156,
      "মায়ের": 3157,
      "ব্যা": 3158,
      "মেলে": 3159,
      "বিদ্য": 3160,
      "দিগ": 3161,
      "পের": 3162,
      "পুরো": 3163,
      "উদ্ভ": 3164,
      "এভাবে": 3165,
      "কলক": 3166,
      "##ীতি": 3167,
      "##্ষণ": 3168,
      "জয়": 3169,
      "ধারে": 3170,
      "ছাড়": 3171,
      "অতীত": 3172,
      "##শী": 3173,
      "##টিকে": 3174,
      "শোন": 3175,
      "শোনা": 3176,
      "##িং": 3177,
      "ফুট": 3178,
      "##মুখ": 3179,
      "বেঁচে": 3180,
      "অঙ্গ": 3181,
      "পাহাড়": 3182,
      "’,": 3183,
      "সরকার": 3184,
      "বিজ্ঞান": 3185,
      "সহজ": 3186,
      "শহর": 3187,
      "মাটিতে": 3188,
      "পূর্ব": 3189,
      "বুঝি": 3190,
      "একেবারে": 3191,
      "নৌ": 3192,
      "হালকা": 3193,
      "##ছো": 3194,
      "মাধ্য": 3195,
      "অ্য": 3196,
      "করুণ": 3197,
      "চিহ্ন": 3198,
      "নীরবতা": 3199,
      "দোক": 3200,
      "##সঙ্গ": 3201,
      "চাক": 3202,
      "তেমন": 3203,
      "কৃষ্ণ": 3204,
      "জানা": 3205,
      "প্রতিদিন": 3206,
      "বোঝা": 3207,
      "প্রস্ত": 3208,
      "গুর": 3209,
      "দল": 3210,
      "বুদ্ধ": 3211,
      "##থি": 3212,
      "গেলেন": 3213,
      "অগ্র": 3214,
      "নিজেই": 3215,
      "ঝরে": 3216,
      "##দান": 3217,
      "##চক": 3218,
      "মিষ্টি": 3219,
      "##ীকে": 3220,
      "স্থান": 3221,
      "ঐতিহ": 3222,
      "কাছ": 3223,
      "##ড়ো": 3224,
      "পরিবার": 3225,
      "মহাভ": 3226,
      "খেতে": 3227,
      "##ামে": 3228,
      "খেয়ে": 3229,
      "মাথায়": 3230,
      "তাঁকে": 3231,
      "জিনি": 3232,
      "পল": 3233,
      "সারা": 3234,
      "তত": 3235,
      "মন্ত্র": 3236,
      "মুখের": 3237,
      "করেছিল": 3238,
      "ফোঁটা": 3239,
      "হা": 3240,
      "আটকে": 3241,
      "কেটে": 3242,
      "বলেই": 3243,
      "ভয়": 3244,
      "##জনে": 3245,
      "—‘": 3246,
      "ডেকে": 3247,
      "উঠেছে": 3248,
      "হয়নি": 3249,
      "সাধার": 3250,
      "নরম": 3251,
      "##হণ": 3252,
      "##পাত": 3253,
      "##োদ": 3254,
      "ঘন": 3255,
      "হৃদয়": 3256,
      "মহাভার": 3257,
      "মানবিক": 3258,
      "স্ট": 3259,
      "##ারাপ": 3260,
      "হলেও": 3261,
      "করেছি": 3262,
      "দিগন্ত": 3263,
      "ধোঁ": 3264,
      "##থায়": 3265,
      "প্রকাশ": 3266,
      "খোঁজে": 3267,
      "পুন": 3268,
      "কর্ণ": 3269,
      "আছি": 3270,
      "##ুদ": 3271,
      "মাই": 3272,
      "##্লে": 3273,
      "##েলের": 3274,
      "##পূর্ণ": 3275,
      "সময়ে": 3276,
      "##বান": 3277,
      "করছিল": 3278,
      "বাবার": 3279,
      "রঙিন": 3280,
      "কীভাবে": 3281,
      "##টক": 3282,
      "পায়ে": 3283,
      "আজও": 3284,
      "লাভ": 3285,
      "কল্প": 3286,
      "বীজ": 3287,
      "##সং": 3288,
      "##পথ": 3289,
      "পরের": 3290,
      "চেয়ে": 3291,
      "চর": 3292,
      "চিত্র": 3293,
      "দুটি": 3294,
      "সিদ্ধ": 3295,
      "##ধ্বনি": 3296,
      "##ড়ার": 3297,
      "কিছ": 3298,
      "হৃদয়ের": 3299,
      "চুল": 3300,
      "অমলিন": 3301,
      "রং": 3302,
      "মেঘের": 3303,
      "নির্ভ": 3304,
      "পৃথিবীর": 3305,
      "প্রযুক্তি": 3306,
      "শব": 3307,
      "ছুঁয়ে": 3308,
      "ভাঁ": 3309,
      "রবী": 3310,
      "##থাৎ": 3311,
      "খারাপ": 3312,
      "##িলা": 3313,
      "##স্বর": 3314,
      "##গো": 3315,
      "প্রয়": 3316,
      "ঘটনা": 3317,
      "##ক্তির": 3318,
      "নামে": 3319,
      "ছিঁ": 3320,
      "##্লা": 3321,
      "বারবার": 3322,
      "সত্ত": 3323,
      "সাধারণ": 3324,
      "অটল": 3325,
      "দৃশ্য": 3326,
      "অমো": 3327,
      "অর্থাৎ": 3328,
      "মানবতার": 3329,
      "খুল": 3330,
      "নিস্ত": 3331,
      "প্রান্ত": 3332,
      "##জর": 3333,
      "কাট": 3334,
      "রবীন্দ্র": 3335,
      "সমাজের": 3336,
      "ভিজে": 3337,
      "হৃদয়ের": 3338,
      "ভীম": 3339,
      "##ক্ষার": 3340,
      "নির্ব": 3341,
      "তথ": 3342,
      "বলেন": 3343,
      "দরজার": 3344,
      "নিশ্চয়": 3345,
      "রিয়া": 3346,
      "ঘটে": 3347,
      "’।": 3348,
      "##াতার": 3349,
      "##শেষে": 3350,
      "ভূম": 3351,
      "আলোয়": 3352,
      "##স্র": 3353,
      "গর": 3354,
      "পুক": 3355,
      "প্রাচীন": 3356,
      "ধূ": 3357,
      "##ীক": 3358,
      "পারবে": 3359,
      "জ্যো": 3360,
      "##্দের": 3361,
      "মিলিয়ে": 3362,
      "##হিত": 3363,
      "সমুদ্র": 3364,
      "স্বর": 3365,
      "সুযোগ": 3366,
      "ফোন": 3367,
      "সন্দে": 3368,
      "##শ্চিত": 3369,
      "রইল": 3370,
      "গতি": 3371,
      "##ঘাত": 3372,
      "আসবে": 3373,
      "সম্ব": 3374,
      "##ন্মের": 3375,
      "আছেন": 3376,
      "জগ": 3377,
      "##্তন": 3378,
      "##ায": 3379,
      "##ীব্র": 3380,
      "পথের": 3381,
      "করেই": 3382,
      "বারান্দ": 3383,
      "সামান্য": 3384,
      "মধ্যেই": 3385,
      "ঝর": 3386,
      "রেখা": 3387,
      "কাহ": 3388,
      "সবকি": 3389,
      "বউ": 3390,
      "দিয়েছে": 3391,
      "সংস্কৃতি": 3392,
      "অস্তিত্ব": 3393,
      "কঠিন": 3394,
      "লুকিয়ে": 3395,
      "ওকে": 3396,
      "মিশ্র": 3397,
      "##লাই": 3398,
      "##দিক": 3399,
      "পেতে": 3400,
      "থাকি": 3401,
      "বিয়ে": 3402,
      "অমোঘ": 3403,
      "##ঝে": 3404,
      "প্রমাণ": 3405,
      "অনি": 3406,
      "সচেতন": 3407,
      "খানিক": 3408,
      "দৌ": 3409,
      "ঘুর": 3410,
      "##চ্চার": 3411,
      "আসল": 3412,
      "জম": 3413,
      "কেঁ": 3414,
      "অনুভূতি": 3415,
      "রাম": 3416,
      "##খানা": 3417,
      "তীব্র": 3418,
      "মাল": 3419,
      "##ৃহ": 3420,
      "##বেলা": 3421,
      "এস": 3422,
      "মাস": 3423,
      "গায়ে": 3424,
      "##টায়": 3425,
      "দায়িত্ব": 3426,
      "##াগুলো": 3427,
      "সম্ভাব": 3428,
      "অধিকার": 3429,
      "ঢাকা": 3430,
      "##ড়াই": 3431,
      "##চন": 3432,
      "আসতে": 3433,
      "কথাটা": 3434,
      "বন্ধন": 3435,
      "খোলা": 3436,
      "মুনি": 3437,
      "##্রা": 3438,
      "রয়েছে": 3439,
      "বললাম": 3440,
      "অস্ব": 3441,
      "আসলে": 3442,
      "জিনিস": 3443,
      "জ্বাল": 3444,
      "দুর্য": 3445,
      "ক্ষম": 3446,
      "তবুও": 3447,
      "##াপে": 3448,
      "স্পষ্ট": 3449,
      "গৌ": 3450,
      "##্যাক": 3451,
      "ভাষার": 3452,
      "পৃথিবী": 3453,
      "হলেন": 3454,
      "বেঁধে": 3455,
      "রাগ": 3456,
      "শা": 3457,
      "পানি": 3458,
      "##ণি": 3459,
      "গত": 3460,
      "রক্ষা": 3461,
      "বিন্দু": 3462,
      "প্রকৃতি": 3463,
      "অন্তর": 3464,
      "তাল": 3465,
      "##খানি": 3466,
      "সূর্যের": 3467,
      "##বোধ": 3468,
      "প্রধান": 3469,
      "ঠাক": 3470,
      "কোলে": 3471,
      "সন্ধ্য": 3472,
      "##ডে": 3473,
      "দুর্": 3474,
      "##িকি": 3475,
      "##াতি": 3476,
      "বাস্তব": 3477,
      "আচ": 3478,
      "##দর্শ": 3479,
      "চলেছে": 3480,
      "মৃত্যু": 3481,
      "যাওয়া": 3482,
      "##ষি": 3483,
      "শীতল": 3484,
      "গল্পের": 3485,
      "কাজে": 3486,
      "শাস": 3487,
      "বছরের": 3488,
      "পৌঁছ": 3489,
      "বয়ে": 3490,
      "সত্যের": 3491,
      "গাই": 3492,
      "আনে": 3493,
      "ওপরে": 3494,
      "##ড়ায়": 3495,
      "প্রবেশ": 3496,
      "##বিল": 3497,
      "ভ্রম": 3498,
      "##িনের": 3499,
      "##ড়ের": 3500,
      "##্ক": 3501,
      "ব্যবস্থা": 3502,
      "বিশাল": 3503,
      "অবস্থ": 3504,
      "নিঃশ্বাস": 3505,
      "চিন্তা": 3506,
      "একসঙ্গে": 3507,
      "ফুলের": 3508,
      "চেপে": 3509,
      "স্পন্দন": 3510,
      "গড়ে": 3511,
      "অবিরাম": 3512,
      "##জায়": 3513,
      "উত্তে": 3514,
      "সোনার": 3515,
      "স্কুল": 3516,
      "১৯": 3517,
      "ইতিহাসের": 3518,
      "ভালোবাসার": 3519,
      "পরবর্তী": 3520,
      "##প্রে": 3521,
      "##াভাব": 3522,
      "ব্রাহ্মণ": 3523,
      "কাউ": 3524,
      "##াদি": 3525,
      "##্যাট": 3526,
      "##ূহ": 3527,
      "নিশ্বাস": 3528,
      "দ্বিত": 3529,
      "পৌঁছে": 3530,
      "##স্যা": 3531,
      "শিশু": 3532,
      "##ূপে": 3533,
      "পরিণ": 3534,
      "সবকিছু": 3535,
      "বিধ": 3536,
      "নারী": 3537,
      "বেল": 3538,
      "নির্দ": 3539,
      "ট্রে": 3540,
      "##ৃদ্ধ": 3541,
      "টান": 3542,
      "বন্ধুত্ব": 3543,
      "শব্দের": 3544,
      "সাহায": 3545,
      "ব্যস্ত": 3546,
      "ছিলো": 3547,
      "##সিক": 3548,
      "বাধা": 3549,
      "পুলি": 3550,
      "যান": 3551,
      "বলেছেন": 3552,
      "নিস্তব্ধ": 3553,
      "ওঠ": 3554,
      "##র্গ": 3555,
      "মাঠ": 3556,
      "যাওয়ার": 3557,
      "উনি": 3558,
      "চাঁদের": 3559,
      "##িগ্ধ": 3560,
      "সিদ্ধান্ত": 3561,
      "ধ্ব": 3562,
      "কাঁধে": 3563,
      "জায়গ": 3564,
      "সভ": 3565,
      "স্পর্": 3566,
      "নাচ": 3567,
      "পারল": 3568,
      "বিস্ত": 3569,
      "খা": 3570,
      "হৃদয়ে": 3571,
      "জুড়ে": 3572,
      "দাগ": 3573,
      "অস্থ": 3574,
      "হচ্ছিল": 3575,
      "চিরন্ত": 3576,
      "##যাত্র": 3577,
      "##চু": 3578,
      "##াব্য": 3579,
      "রাখি": 3580,
      "স্ত্রী": 3581,
      "##্যাগ": 3582,
      "হই": 3583,
      "তোমাদের": 3584,
      "পরিবর্তন": 3585,
      "খাঁ": 3586,
      "ক্রম": 3587,
      "ধরনের": 3588,
      "মায়": 3589,
      "##িশ": 3590,
      "##ঞ্জন": 3591,
      "আশার": 3592,
      "দুর্যোধ": 3593,
      "আন্দ": 3594,
      "বন্ধুর": 3595,
      "টুকরো": 3596,
      "আলি": 3597,
      "উৎ": 3598,
      "গিয়েছিল": 3599,
      "##বীর": 3600,
      "বাদ": 3601,
      "গুরুত্ব": 3602,
      "শুধ": 3603,
      "শিক্ষক": 3604,
      "অন্ধকারের": 3605,
      "যুব": 3606,
      "বাঙলা": 3607,
      "সাত": 3608,
      "করবেন": 3609,
      "##স্ক": 3610,
      "সরল": 3611,
      "দায়": 3612,
      "অশ": 3613,
      "জলের": 3614,
      "কান": 3615,
      "আস্তে": 3616,
      "কোল": 3617,
      "আঁধ": 3618,
      "খুঁজ": 3619,
      "##াভাবিক": 3620,
      "পূর্ণ": 3621,
      "ভীষণ": 3622,
      "মৌ": 3623,
      "##রিত": 3624,
      "##স্তি": 3625,
      "সময়ের": 3626,
      "পতাকা": 3627,
      "পাশের": 3628,
      "##ানার": 3629,
      "অভ্য": 3630,
      "কুঁ": 3631,
      "রম": 3632,
      "##ষা": 3633,
      "বোন": 3634,
      "##রকম": 3635,
      "পাবে": 3636,
      "তাঁদের": 3637,
      "##শো": 3638,
      "হাসির": 3639,
      "উচ্চ": 3640,
      "নিজেদের": 3641,
      "##্রত": 3642,
      "জ্ঞান": 3643,
      "অল্প": 3644,
      "কলে": 3645,
      "ভঙ্গ": 3646,
      "করেছিলেন": 3647,
      "কোমল": 3648,
      "বাহ": 3649,
      "যাতে": 3650,
      "##ুক্তির": 3651,
      "জি": 3652,
      "রাস্তা": 3653,
      "উচ্চার": 3654,
      "চায়": 3655,
      "অভিজ্ঞ": 3656,
      "##ন্যা": 3657,
      "নির্জন": 3658,
      "মেল": 3659,
      "##হারা": 3660,
      "##ণার": 3661,
      "কবিতার": 3662,
      "##য়াল": 3663,
      "##য়ায়": 3664,
      "চৌ": 3665,
      "বটে": 3666,
      "মুখো": 3667,
      "নিষ্": 3668,
      "ফোটে": 3669,
      "শৈ": 3670,
      "নিভ": 3671,
      "ডাকে": 3672,
      "এখনো": 3673,
      "পাণ্ডব": 3674,
      "##গুলোর": 3675,
      "অগ্নি": 3676,
      "##রণের": 3677,
      "গঙ্গ": 3678,
      "জর": 3679,
      "##ছা": 3680,
      "মেঝে": 3681,
      "জবাব": 3682,
      "অনুর": 3683,
      "লক্ষ্য": 3684,
      "আগের": 3685,
      "কৌত": 3686,
      "সকল": 3687,
      "বেদনার": 3688,
      "মেনে": 3689,
      "স্থির": 3690,
      "চিরন্তন": 3691,
      "পায়": 3692,
      "থমকে": 3693,
      "হরি": 3694,
      "##হী": 3695,
      "উদ্দে": 3696,
      "##লী": 3697,
      "##লায়": 3698,
      "##ষণা": 3699,
      "##ার্ট": 3700,
      "বর্ষ": 3701,
      "ছন্দ": 3702,
      "##তুর": 3703,
      "##্চ": 3704,
      "##য়েছে": 3705,
      "পাতায়": 3706,
      "এঁ": 3707,
      "স্কুলের": 3708,
      "জিজ্ঞাসা": 3709,
      "তোমরা": 3710,
      "শব্দে": 3711,
      "##্যান্ড": 3712,
      "দান": 3713,
      "বিজ": 3714,
      "অবস্থা": 3715,
      "কম্প": 3716,
      "যিনি": 3717,
      "##জ্ঞা": 3718,
      "গুণ": 3719,
      "দক্ষ": 3720,
      "ব্যাক": 3721,
      "দার": 3722,
      "সবচেয়ে": 3723,
      "মাথার": 3724,
      "তেমনি": 3725,
      "সায়ন": 3726,
      "মূল্যব": 3727,
      "ধ্বনি": 3728,
      "স্নিগ্ধ": 3729,
      "বিন": 3730,
      "সাধ": 3731,
      "অতীতের": 3732,
      "##বির": 3733,
      "গাড়ি": 3734,
      "##াপা": 3735,
      "অত্য": 3736,
      "##ঙ্খ": 3737,
      "দৃঢ়": 3738,
      "আভ": 3739,
      "যাক": 3740,
      "উঁচ": 3741,
      "রবি": 3742,
      "সংস্কৃত": 3743,
      "বিকেলের": 3744,
      "অরণ": 3745,
      "পায়ের": 3746,
      "প্রতিষ্ঠ": 3747,
      "##ীণ": 3748,
      "দোল": 3749,
      "##ওয়": 3750,
      "##ুপ্ত": 3751,
      "বলো": 3752,
      "হো": 3753,
      "##পাল": 3754,
      "##েলি": 3755,
      "ম্লান": 3756,
      "##টাল": 3757,
      "অফিস": 3758,
      "সাব": 3759,
      "আশ্চ": 3760,
      "পড়েছে": 3761,
      "ভোর": 3762,
      "বোনা": 3763,
      "লোকটা": 3764,
      "##পো": 3765,
      "দিনে": 3766,
      "এটি": 3767,
      "মৃত": 3768,
      "##সম": 3769,
      "অনুপ": 3770,
      "শ্রে": 3771,
      "বাংলার": 3772,
      "নই": 3773,
      "সাঁ": 3774,
      "সুন": 3775,
      "পাতার": 3776,
      "শিশুর": 3777,
      "হারিয়ে": 3778,
      "নজর": 3779,
      "একাক": 3780,
      "##পরি": 3781,
      "আগামী": 3782,
      "উড়ে": 3783,
      "ডু": 3784,
      "বলছে": 3785,
      "বিভিন্ন": 3786,
      "##পু": 3787,
      "বেজে": 3788,
      "দেখেছি": 3789,
      "##র্ষ": 3790,
      "##িত্ত": 3791,
      "নিশ্চিত": 3792,
      "স্বপ্নে": 3793,
      "হাঁটতে": 3794,
      "##যান": 3795,
      "নেয়": 3796,
      "পদক্ষে": 3797,
      "সন্দেহ": 3798,
      "##ক্ষায়": 3799,
      "!’": 3800,
      "বায়": 3801,
      "##ুতে": 3802,
      "ব্যক্তিগত": 3803,
      "##ৃষ্ট": 3804,
      "##ওয়াজ": 3805,
      "সাহিত": 3806,
      "মল": 3807,
      "##নায়": 3808,
      "প্রাণের": 3809,
      "দোলা": 3810,
      "পরিচয়": 3811,
      "শহরে": 3812,
      "সম্বন্ধ": 3813,
      "##দেশ": 3814,
      "যৌ": 3815,
      "পড়া": 3816,
      "##ন্ব": 3817,
      "##গল": 3818,
      "যতই": 3819,
      "কিছুক": 3820,
      "মম": 3821,
      "চেত": 3822,
      "উঠতে": 3823,
      "আন্দোল": 3824,
      "দ্রৌপদী": 3825,
      "##ুমার": 3826,
      "নক্ষ": 3827,
      "পক্ষে": 3828,
      "##াৎ": 3829,
      "করত": 3830,
      "ভিতর": 3831,
      "##িয়": 3832,
      "##ড্ড": 3833,
      "অজস্র": 3834,
      "##্কা": 3835,
      "কথায়": 3836,
      "বর্ত": 3837,
      "সঙ্গীত": 3838,
      "গণ": 3839,
      "যুক্তি": 3840,
      "##াতের": 3841,
      "থাকলে": 3842,
      "ঈশ্বর": 3843,
      "##চাপ": 3844,
      "বাকি": 3845,
      "##ঞ্চল": 3846,
      "সাক্ষ": 3847,
      "##মু": 3848,
      "বিষয়": 3849,
      "##ণীর": 3850,
      "সমৃদ্ধ": 3851,
      "দর্শ": 3852,
      "আরম্ভ": 3853,
      "সম্পর্": 3854,
      "ফ্ল": 3855,
      "##র্ধ": 3856,
      "মেয়ের": 3857,
      "##্যালে": 3858,
      "রঙের": 3859,
      "##জু": 3860,
      "##স্টার": 3861,
      "উৎসাহ": 3862,
      "নাই": 3863,
      "করলাম": 3864,
      "##ড়ালে": 3865,
      "স্বাধীনতা": 3866,
      "ইন্দ্র": 3867,
      "ওঁ": 3868,
      "সেতু": 3869,
      "##াক্ত": 3870,
      "##াগত": 3871,
      "ধারণা": 3872,
      "##াহীন": 3873,
      "শিক্ষার": 3874,
      "অস্থির": 3875,
      "ঘণ্": 3876,
      "##ন্তর": 3877,
      "কৃত": 3878,
      "##ম্বর": 3879,
      "অপ্র": 3880,
      "দাঁড়": 3881,
      "##র্মের": 3882,
      "ভবিষ্যতের": 3883,
      "দেশে": 3884,
      "অসু": 3885,
      "রোদ": 3886,
      "আলাদা": 3887,
      "##্লো": 3888,
      "মতোই": 3889,
      "##পত্র": 3890,
      "যেত": 3891,
      "খুশি": 3892,
      "প্রা": 3893,
      "ক্লান্ত": 3894,
      "##িরা": 3895,
      "কারণে": 3896,
      "শিশির": 3897,
      "##্রান্ত": 3898,
      "ঝাঁক": 3899,
      "করছি": 3900,
      "রাজার": 3901,
      "আয়": 3902,
      "গ্রহণ": 3903,
      "ভিতরে": 3904,
      "মৃত্যুর": 3905,
      "রান্না": 3906,
      "হয়েছে": 3907,
      "##ুদ্ধে": 3908,
      "বিছ": 3909,
      "আওয়াজ": 3910,
      "যাচ্ছিল": 3911,
      "##দীপ": 3912,
      "রোগ": 3913,
      "স্বরে": 3914,
      "গ্রামে": 3915,
      "বিশ্বাসের": 3916,
      "জমি": 3917,
      "নক্ষত্র": 3918,
      "ডান": 3919,
      "ভীষ্": 3920,
      "বেলা": 3921,
      "##ামার": 3922,
      "আশ্র": 3923,
      "যাত্রা": 3924,
      "কাঠের": 3925,
      "সরে": 3926,
      "খাবার": 3927,
      "তাড়": 3928,
      "পেরে": 3929,
      "মোট": 3930,
      "ক্ষেত্রে": 3931,
      "##ালে": 3932,
      "##ঙ্গল": 3933,
      "ভাবতে": 3934,
      "দ্বি": 3935,
      "শুধুমাত্র": 3936,
      "যাবার": 3937,
      "মাঠে": 3938,
      "শেখ": 3939,
      "ছা": 3940,
      "মিনি": 3941,
      "জায়গায়": 3942,
      "সাহে": 3943,
      "প্রভ": 3944,
      "ইং": 3945,
      "কিনা": 3946,
      "##নিক": 3947,
      "টেবিল": 3948,
      "আত্মার": 3949,
      "আশ্চর্য": 3950,
      "জড়িয়ে": 3951,
      "স্বাদ": 3952,
      "##ষ্ট্র": 3953,
      "আঁধার": 3954,
      "মর্য": 3955,
      "একমাত্র": 3956,
      "##স্কার": 3957,
      "দ্রো": 3958,
      "বক": 3959,
      "প্রিয়": 3960,
      "সুজিত": 3961,
      "সিং": 3962,
      "আপনাকে": 3963,
      "পঞ্চ": 3964,
      "##সল": 3965,
      "সত্যিই": 3966,
      "রবীন্দ্রনাথ": 3967,
      "উচিত": 3968,
      "জয়": 3969,
      "লড়াই": 3970,
      "ডিজি": 3971,
      "যাঁ": 3972,
      "দিলে": 3973,
      "ছুট": 3974,
      "দম": 3975,
      "##েরি": 3976,
      "পড়তে": 3977,
      "নীচে": 3978,
      "সংগ্রাম": 3979,
      "হু": 3980,
      "##তর": 3981,
      "করছেন": 3982,
      "জানেন": 3983,
      "কাক": 3984,
      "সাং": 3985,
      "ইত্য": 3986,
      "পকে": 3987,
      "সাই": 3988,
      "##ন্স": 3989,
      "নিয়": 3990,
      "বিপ্ল": 3991,
      "কথার": 3992,
      "মিশ": 3993,
      "রেখ": 3994,
      "ছেঁ": 3995,
      "উৎসব": 3996,
      "তথ্য": 3997,
      "উপস্থিত": 3998,
      "স্বামী": 3999,
      "আড়ালে": 4000,
      "বাতাসের": 4001,
      "মহাভারতের": 4002,
      "##ামি": 4003,
      "গবে": 4004,
      "##এব": 4005,
      "##ন্থ": 4006,
      "##ড়ির": 4007,
      "স্পন্দ": 4008,
      "অতএব": 4009,
      "কাউকে": 4010,
      "এলে": 4011,
      "হওয়া": 4012,
      "##ছন্দ": 4013,
      "##াস্থ": 4014,
      "##াপের": 4015,
      "ভেজা": 4016,
      "নিশ্চয়ই": 4017,
      "এসো": 4018,
      "নো": 4019,
      "মেরে": 4020,
      "স্তব্ধ": 4021,
      "পেছন": 4022,
      "##রাধ": 4023,
      "জায়গা": 4024,
      "মন্দ": 4025,
      "প্রক": 4026,
      "##ূর্তি": 4027,
      "গভীরে": 4028,
      "ডিজিটাল": 4029,
      "##দূর": 4030,
      "##্টে": 4031,
      "##বন": 4032,
      "কাটা": 4033,
      "মাধ্যমে": 4034,
      "##সী": 4035,
      "##িকল্প": 4036,
      "পেলে": 4037,
      "সী": 4038,
      "প্রহ": 4039,
      "##্রাণ": 4040,
      "বলবে": 4041,
      "পিছনে": 4042,
      "পাহাড়ের": 4043,
      "##ত্তি": 4044,
      "জোর": 4045,
      "বিব": 4046,
      "লাফ": 4047,
      "ভদ্রলোক": 4048,
      "কাগজ": 4049,
      "আঁকে": 4050,
      "ভারত": 4051,
      "##্টি": 4052,
      "##ীর্ণ": 4053,
      "অনন্য": 4054,
      "দিই": 4055,
      "বেদনা": 4056,
      "ছাত্র": 4057,
      "ফাঁক": 4058,
      "##হি": 4059,
      "শিক": 4060,
      "কাঁটা": 4061,
      "দ্বিতীয়": 4062,
      "##লাদে": 4063,
      "স্বচ্ছ": 4064,
      "প্রথমে": 4065,
      "দেশপ্রে": 4066,
      "পরীক্ষা": 4067,
      "স্পর্শে": 4068,
      "কয়ে": 4069,
      "উষ্ণ": 4070,
      "##টিল": 4071,
      "##নৈতিক": 4072,
      "##ঠো": 4073,
      "##্যাল": 4074,
      "জেনে": 4075,
      "ঝাঁপ": 4076,
      "লল": 4077,
      "বললো": 4078,
      "তাকাল": 4079,
      "চুপচাপ": 4080,
      "##ানু": 4081,
      "বলেছিল": 4082,
      "স্টে": 4083,
      "অন্তত": 4084,
      "ভূমিকা": 4085,
      "প্রচ": 4086,
      "থাকার": 4087,
      "চারপাশে": 4088,
      "পত্র": 4089,
      "##ভি": 4090,
      "শ্বাস": 4091,
      "ড্র": 4092,
      "বেড়ে": 4093,
      "কারও": 4094,
      "পুরোনো": 4095,
      "সাহায্য": 4096,
      "প্রত": 4097,
      "##ত্ত্ব": 4098,
      "হয়তো": 4099,
      "প্রবল": 4100,
      "সমস্যা": 4101,
      "অস্ত্র": 4102,
      "ট্র": 4103,
      "পাক": 4104,
      "##দীর": 4105,
      "সংগ": 4106,
      "অশ্রু": 4107,
      "এসেছিল": 4108,
      "অর্জুনের": 4109,
      "সততার": 4110,
      "ব্যথা": 4111,
      "সম্পূর্ণ": 4112,
      "কুক": 4113,
      "##াণ্ড": 4114,
      "গরম": 4115,
      "##ৃত্ত": 4116,
      "ছোঁয়া": 4117,
      "কৌতূহ": 4118,
      "মূল্যবোধ": 4119,
      "ত্যাগ": 4120,
      "হতা": 4121,
      "বিশ": 4122,
      "##দেব": 4123,
      "চিরকাল": 4124,
      "বাড়িয়ে": 4125,
      "ক্যাম": 4126,
      "জাহ": 4127,
      "ক্ষু": 4128,
      "চরিত্র": 4129,
      "সূচনা": 4130,
      "##ঞ্চে": 4131,
      "স্নে": 4132,
      "কণ্ঠস্বর": 4133,
      "প্লাস্ট": 4134,
      "বাড়ি": 4135,
      "উঠবে": 4136,
      "মিলন": 4137,
      "হস্ত": 4138,
      "##হ্ম": 4139,
      "সঙ্গী": 4140,
      "এলেন": 4141,
      "গৃহ": 4142,
      "চাও": 4143,
      "ঝুঁ": 4144,
      "দৈ": 4145,
      "নক": 4146,
      "পরম": 4147,
      "বলেছিলেন": 4148,
      "এসেছি": 4149,
      "তরঙ্গ": 4150,
      "পরিষ্কার": 4151,
      "সিগ": 4152,
      "বিরুদ্ধে": 4153,
      "##ৌক": 4154,
      "##চ্ছন্ন": 4155,
      "যদিও": 4156,
      "শুভ": 4157,
      "জীবন্ত": 4158,
      "##বাবুর": 4159,
      "সোনালী": 4160,
      "যাকে": 4161,
      "হওয়ার": 4162,
      "বাতি": 4163,
      "##াজে": 4164,
      "বিকেলে": 4165,
      "পরিণত": 4166,
      "সংস্কৃতির": 4167,
      "চান": 4168,
      "##েশ": 4169,
      "আলোচনা": 4170,
      "সুবি": 4171,
      "অনুস": 4172,
      "সম্পর্ক": 4173,
      "আট": 4174,
      "##িক্ত": 4175,
      "আর্তন": 4176,
      "##ণ্ণ": 4177,
      "নিজস্ব": 4178,
      "দুঃখের": 4179,
      "প্রজন্মের": 4180,
      "দাদা": 4181,
      "##ংশে": 4182,
      "##স্ফ": 4183,
      "চেঁচ": 4184,
      "ঘে": 4185,
      "প্রয়": 4186,
      "ঘা": 4187,
      "##িনার": 4188,
      "চেনা": 4189,
      "ক্ষুদ্র": 4190,
      "ম্য": 4191,
      "##গাছ": 4192,
      "আবি": 4193,
      "ভিন্ন": 4194,
      "রাহ": 4195,
      "##শোর": 4196,
      "প্রযুক্তির": 4197,
      "##ঠিক": 4198,
      "কাঁদ": 4199,
      "কয়েক": 4200,
      "##্টা": 4201,
      "বাব": 4202,
      "গুরু": 4203,
      "##টিতে": 4204,
      "##ম্বা": 4205,
      "তুলতে": 4206,
      "মতন": 4207,
      "##দ্ব": 4208,
      "##রাজ": 4209,
      "দেন": 4210,
      "##ৎস্ন": 4211,
      "অক্ষর": 4212,
      "অমর": 4213,
      "মশ": 4214,
      "##ছিলো": 4215,
      "##পথে": 4216,
      "ভারী": 4217,
      "এভাবেই": 4218,
      "বট": 4219,
      "বৌ": 4220,
      "##ঙ্কর": 4221,
      "সম্মান": 4222,
      "##াড়ির": 4223,
      "##ন্ত্রণ": 4224,
      "স্রোত": 4225,
      "শক্ত": 4226,
      "বাধ্য": 4227,
      "আচ্ছা": 4228,
      "বাংলাদে": 4229,
      "##ণ্ডিত": 4230,
      "গিয়েছে": 4231,
      "অন্তরে": 4232,
      "খুন": 4233,
      "কুন্তী": 4234,
      "প্রয়োজন": 4235,
      "উচ্ছ": 4236,
      "হিম": 4237,
      "অসহ": 4238,
      "##শ্রুতি": 4239,
      "আনু": 4240,
      "ঝুল": 4241,
      "##ড়ো": 4242,
      "বিদ্র": 4243,
      "দেখলাম": 4244,
      "##ম্ভীর": 4245,
      "পছন্দ": 4246,
      "##ূলক": 4247,
      "##্যাব": 4248,
      "সম্বন্ধে": 4249,
      "##্বন": 4250,
      "##ামীর": 4251,
      "কোথায়": 4252,
      "স্মরণ": 4253,
      "ঠাকুর": 4254,
      "খর": 4255,
      "চমকে": 4256,
      "বলার": 4257,
      "##চার্য": 4258,
      "প্রবাহ": 4259,
      "##টাও": 4260,
      "পরিশ্র": 4261,
      "কেঁপে": 4262,
      "##ৌকিক": 4263,
      "ডানা": 4264,
      "##দম": 4265,
      "নামের": 4266,
      "তু": 4267,
      "##পণ": 4268,
      "নীতি": 4269,
      "প্রবন্ধ": 4270,
      "কান্না": 4271,
      "##হয়": 4272,
      "সমন্ব": 4273,
      "মানুষকে": 4274,
      "চম": 4275,
      "মারা": 4276,
      "মেজ": 4277,
      "শত্র": 4278,
      "বাবু": 4279,
      "শরীরে": 4280,
      "সন্তান": 4281,
      "কবে": 4282,
      "সঠিক": 4283,
      "দেখিয়ে": 4284,
      "ব্যাগ": 4285,
      "দিয়েছেন": 4286,
      "ফুঁ": 4287,
      "##াপ্ত": 4288,
      "ফাঁকে": 4289,
      "দ্যা": 4290,
      "রাস্তার": 4291,
      "##ড়ানো": 4292,
      "আমিও": 4293,
      "মানসিক": 4294,
      "মহার": 4295,
      "বসন্ত": 4296,
      "ভালবাস": 4297,
      "পদ্ম": 4298,
      "পাঠক": 4299,
      "মেঝেতে": 4300,
      "অর্ধ": 4301,
      "কাজের": 4302,
      "ছায়ায়": 4303,
      "স্বাভাবিক": 4304,
      "দিদি": 4305,
      "আসার": 4306,
      "শির": 4307,
      "##গণ": 4308,
      "বিচার": 4309,
      "রক্তের": 4310,
      "##রাতে": 4311,
      "ঢেকে": 4312,
      "##ান্ড": 4313,
      "করতেন": 4314,
      "শুধুই": 4315,
      "আকাঙ্": 4316,
      "চাঁদ": 4317,
      "শৈশ": 4318,
      "চিন": 4319,
      "…”": 4320,
      "চাকরি": 4321,
      "শক": 4322,
      "পরিকল্প": 4323,
      "##ভূম": 4324,
      "পেরিয়ে": 4325,
      "ধন": 4326,
      "##াদার": 4327,
      "তাকিয়ে": 4328,
      "চলছে": 4329,
      "আবেগ": 4330,
      "ঐতিহ্য": 4331,
      "জমা": 4332,
      "দেখছি": 4333,
      "ভ্র": 4334,
      "হন": 4335,
      "ডুবে": 4336,
      "হবার": 4337,
      "ইউ": 4338,
      "ছুঁয়ে": 4339,
      "তাঁরা": 4340,
      "অন্তর্": 4341,
      "আদি": 4342,
      "চতুর": 4343,
      "দ্য": 4344,
      "ধান": 4345,
      "##দন": 4346,
      "বাগানের": 4347,
      "ধু": 4348,
      "যাচ্ছি": 4349,
      "উঠছে": 4350,
      "গুঁ": 4351,
      "সন্ধ্যা": 4352,
      "তীরে": 4353,
      "##তাকে": 4354,
      "##ন্মে": 4355,
      "অরুণ": 4356,
      "জ্যোৎস্ন": 4357,
      "বিনি": 4358,
      "##চর": 4359,
      "##াসী": 4360,
      "পাপ": 4361,
      "ভবিষ্যৎ": 4362,
      "ছিঁড়ে": 4363,
      "ধাক": 4364,
      "##মুন": 4365,
      "##ফিক": 4366,
      "##স্পন্দন": 4367,
      "উঁচু": 4368,
      "আগ্র": 4369,
      "তী": 4370,
      "নৃত্য": 4371,
      "গম্ভীর": 4372,
      "রচনা": 4373,
      "##িলি": 4374,
      "বলব": 4375,
      "ধূসর": 4376,
      "ইন": 4377,
      "##্বর": 4378,
      "দাঁড়াল": 4379,
      "জ্বলজ": 4380,
      "স্বয়": 4381,
      "জানিয়ে": 4382,
      "নিঃসঙ্গ": 4383,
      "এমনি": 4384,
      "##খ্যা": 4385,
      "##জ্জা": 4386,
      "রু": 4387,
      "##কেত": 4388,
      "রিয়া": 4389,
      "চ্যালে": 4390,
      "##ক্ট": 4391,
      "মূ": 4392,
      "শান্তির": 4393,
      "দ্রৌপদীর": 4394,
      "ঝাপ": 4395,
      "নষ্ট": 4396,
      "পিত": 4397,
      "##স্যের": 4398,
      "পারব": 4399,
      "অক্ষরে": 4400,
      "পাথর": 4401,
      "আলিঙ্গ": 4402,
      "##সুম": 4403,
      "##ক্ষ্ম": 4404,
      "পেয়ে": 4405,
      "রেখেছে": 4406,
      "রোজ": 4407,
      "খোঁজ": 4408,
      "এখান": 4409,
      "##িরি": 4410,
      "##ক্ষের": 4411,
      "চেহারা": 4412,
      "মাঝখানে": 4413,
      "ইত্যাদি": 4414,
      "ঐক": 4415,
      "গহ": 4416,
      "##তেন": 4417,
      "নিম": 4418,
      "রাজ্য": 4419,
      "ভাষায়": 4420,
      "##ভূমি": 4421,
      "কাব্য": 4422,
      "চলা": 4423,
      "নোট": 4424,
      "বক্ত": 4425,
      "##নির": 4426,
      "তারই": 4427,
      "ঠোঁট": 4428,
      "প্রহর": 4429,
      "নিরাপ": 4430,
      "##িমার": 4431,
      "এরকম": 4432,
      "##্যান্ট": 4433,
      "সকলের": 4434,
      "ইংরে": 4435,
      "গর্ব": 4436,
      "ভয়ে": 4437,
      "হ্র": 4438,
      "##মিক": 4439,
      "সেন": 4440,
      "বিষ্ণ": 4441,
      "ব্যর্থ": 4442,
      "দায়িত্ব": 4443,
      "লম্বা": 4444,
      "ভাবনা": 4445,
      "বোধহয়": 4446,
      "ভ্রমণ": 4447,
      "যথে": 4448,
      "##পার": 4449,
      "##াময়": 4450,
      "দেহ": 4451,
      "সৎ": 4452,
      "##টিং": 4453,
      "##াতেই": 4454,
      "আহ্ব": 4455,
      "বাচ্চ": 4456,
      "সৈ": 4457,
      "বুঝল": 4458,
      "ক্ষমতা": 4459,
      "হাহ": 4460,
      "ঘণ্টা": 4461,
      "জনের": 4462,
      "##ওয়ার": 4463,
      "পাতায়": 4464,
      "##ণিক": 4465,
      "এগিয়ে": 4466,
      "##ফোন": 4467,
      "প্রণ": 4468,
      "পড়ছে": 4469,
      "অভিম": 4470,
      "মহারাজ": 4471,
      "দেখার": 4472,
      "বেগ": 4473,
      "আঙুল": 4474,
      "মুহূর্তের": 4475,
      "অধ্যায়": 4476,
      "##ডের": 4477,
      "##ছিলে": 4478,
      "প্রতিজ্ঞা": 4479,
      "শুনি": 4480,
      "দূরের": 4481,
      "ব্রাউ": 4482,
      "গোলাপ": 4483,
      "কিছুক্ষণ": 4484,
      "নাও": 4485,
      "বৃহ": 4486,
      "##ত্বের": 4487,
      "চ্যালেঞ্জ": 4488,
      "পর্": 4489,
      "রুম": 4490,
      "##কেও": 4491,
      "নেয়": 4492,
      "পাশাপা": 4493,
      "পাশাপাশি": 4494,
      "দাম": 4495,
      "##শালী": 4496,
      "##ূত": 4497,
      "##ভাগ": 4498,
      "পয়": 4499,
      "সদ": 4500,
      "নাগর": 4501,
      "সুরের": 4502,
      "সততা": 4503,
      "নিয়ম": 4504,
      "##খি": 4505,
      "স্বীকার": 4506,
      "গেছেন": 4507,
      "কান্ন": 4508,
      "হতো": 4509,
      "প্রজন্ম": 4510,
      "লজ্জ": 4511,
      "##ধারা": 4512,
      "##ক্ষিত": 4513,
      "পাব": 4514,
      "##য়ন": 4515,
      "বাপ": 4516,
      "উপল": 4517,
      "অসীম": 4518,
      "জাগ্রত": 4519,
      "উদ্যোগ": 4520,
      "পুলিশ": 4521,
      "প্য": 4522,
      "করিয়ে": 4523,
      "দুধ": 4524,
      "##ণ্ঠ": 4525,
      "অবশেষে": 4526,
      "বাঁশি": 4527,
      "হাওয়া": 4528,
      "##যুক্ত": 4529,
      "প্রভাব": 4530,
      "উদার": 4531,
      "পড়ল": 4532,
      "দোকান": 4533,
      "কমে": 4534,
      "রয়েছে": 4535,
      "##মিশে": 4536,
      "##শুর": 4537,
      "আরি": 4538,
      "অমৃত": 4539,
      "অপরি": 4540,
      "সঞ্": 4541,
      "যথেষ্ট": 4542,
      "ডে": 4543,
      "##যোগ্য": 4544,
      "নর": 4545,
      "জানালা": 4546,
      "ইতি": 4547,
      "ঠাণ্ড": 4548,
      "প্রাক": 4549,
      "প্রতিধ্বনি": 4550,
      "ছেড়ে": 4551,
      "সোম": 4552,
      "ফেটে": 4553,
      "প্রতীক": 4554,
      "গানের": 4555,
      "পশ্চ": 4556,
      "##ংকার": 4557,
      "শুভা": 4558,
      "সাহসের": 4559,
      "কর্ত": 4560,
      "উপায়": 4561,
      "ন্যায়": 4562,
      "অবস্থায়": 4563,
      "আবিষ্কার": 4564,
      "নিক": 4565,
      "##ন্দর্য": 4566,
      "##্রিয়": 4567,
      "ধরল": 4568,
      "অহ": 4569,
      "##ঙ্কার": 4570,
      "প্রতিশ্রুতি": 4571,
      "ন্যায়ের": 4572,
      "আর্তনাদ": 4573,
      "##ড়ার": 4574,
      "ফ্র": 4575,
      "##বাসে": 4576,
      "##াইল": 4577,
      "মেয়ে": 4578,
      "এখানেই": 4579,
      "দুর্গ": 4580,
      "ঝিল": 4581,
      "##বিলে": 4582,
      "হাসতে": 4583,
      "কল্যা": 4584,
      "##যো": 4585,
      "মিলিয়ে": 4586,
      "সৌন্দর্য": 4587,
      "ক্লান": 4588,
      "ফিরিয়ে": 4589,
      "অঙ্গীকার": 4590,
      "##মতো": 4591,
      "##ক্ষায়": 4592,
      "উঠলেন": 4593,
      "খাদ": 4594,
      "বার্তা": 4595,
      "বিষণ্ণ": 4596,
      "ক্লান্তি": 4597,
      "ডাল": 4598,
      "চাপা": 4599,
      "স্রোতে": 4600,
      "রস": 4601,
      "শ্যাম": 4602,
      "##জো": 4603,
      "পর্ব": 4604,
      "নারীর": 4605,
      "এদের": 4606,
      "ব্যাপারটা": 4607,
      "সম্পর্কে": 4608,
      "সমাধ": 4609,
      "সংস": 4610,
      "প্রত্যাশ": 4611,
      "##he": 4612,
      "এটাই": 4613,
      "খানিকটা": 4614,
      "ভিত্তি": 4615,
      "মিলেমিশে": 4616,
      "##ড়াল": 4617,
      "বিষয়ে": 4618,
      "বলেছে": 4619,
      "দুপুরে": 4620,
      "সাহেব": 4621,
      "বলছি": 4622,
      "পায়ে": 4623,
      "অন্যদিকে": 4624,
      "##স্বরে": 4625,
      "##চিহ্ন": 4626,
      "অলৌকিক": 4627,
      "বয়": 4628,
      "একান্ত": 4629,
      "কিশোর": 4630,
      "উচ্চারণ": 4631,
      "খেলে": 4632,
      "ছেলের": 4633,
      "##ঙা": 4634,
      "কাহিনী": 4635,
      "আড্ড": 4636,
      "##ুকের": 4637,
      "##াজা": 4638,
      "ঠিকানা": 4639,
      "##বাদী": 4640,
      "আছ": 4641,
      "কপা": 4642,
      "টেবিলে": 4643,
      "ছু": 4644,
      "হৃদস্পন্দন": 4645,
      "অন্তহীন": 4646,
      "সকলেই": 4647,
      "বাড়ির": 4648,
      "##খ্যাত": 4649,
      "ভগ": 4650,
      "শুয়ে": 4651,
      "চলতে": 4652,
      "##বদ্ধ": 4653,
      "ভেদ": 4654,
      "পরিবে": 4655,
      "পরিচিত": 4656,
      "##ত্তা": 4657,
      "ঘিরে": 4658,
      "##াতির": 4659,
      "##াবু": 4660,
      "ফেলল": 4661,
      "উদাহ": 4662,
      "ভোরে": 4663,
      "##মুখি": 4664,
      "##কিল": 4665,
      "##ড়াতে": 4666,
      "পরিবারের": 4667,
      "স্বাস্থ": 4668,
      "দুজনে": 4669,
      "##গুলোকে": 4670,
      "রাত্রি": 4671,
      "দুল": 4672,
      "##মো": 4673,
      "##ফে": 4674,
      "##াতায়": 4675,
      "প্রতিটা": 4676,
      "নৌকা": 4677,
      "পড়া": 4678,
      "##জনা": 4679,
      "দেখো": 4680,
      "##ৃঙ্খ": 4681,
      "গন্ধে": 4682,
      "শ্রদ্ধ": 4683,
      "জরুরি": 4684,
      "বর্তমান": 4685,
      "সপ্ত": 4686,
      "ব্যাপারে": 4687,
      "আঁধারে": 4688,
      "আঘাত": 4689,
      "##্ধার": 4690,
      "শিক্ষার্থ": 4691,
      "আলোকিত": 4692,
      "##ন্টার": 4693,
      "##দ্দ": 4694,
      "আনতে": 4695,
      "কৃষ": 4696,
      "অনির": 4697,
      "নেবে": 4698,
      "অচ": 4699,
      "সংর": 4700,
      "থাকেন": 4701,
      "যোগা": 4702,
      "প্রস্তুত": 4703,
      "আত্মা": 4704,
      "খালি": 4705,
      "##তীর": 4706,
      "করবো": 4707,
      "গেলো": 4708,
      "##ণ্য": 4709,
      "##কী": 4710,
      "##পর্য": 4711,
      "প্রত্যা": 4712,
      "মুখোমুখি": 4713,
      "হাহাকার": 4714,
      "##ফুল": 4715,
      "ব্রহ্ম": 4716,
      "অপরের": 4717,
      "##ীদ": 4718,
      "দেয়া": 4719,
      "আর্য": 4720,
      "সুস্থ": 4721,
      "জানো": 4722,
      "##দিনের": 4723,
      "ক্ষণে": 4724,
      "বিকা": 4725,
      "##ধ্যে": 4726,
      "বাঁধে": 4727,
      "##দেশে": 4728,
      "সংকল্প": 4729,
      "বয়স": 4730,
      "ধৃত": 4731,
      "মুগ্ধ": 4732,
      "জানালার": 4733,
      "কুয়া": 4734,
      "অত্যন্ত": 4735,
      "ছিন্ন": 4736,
      "##চকে": 4737,
      "পর্যা": 4738,
      "অতিক": 4739,
      "দোষ": 4740,
      "পুনর": 4741,
      "##ষ্ঠা": 4742,
      "পাথরের": 4743,
      "উদাহরণ": 4744,
      "কির": 4745,
      "##ণায়": 4746,
      "মুঠো": 4747,
      "যুগ": 4748,
      "যুগে": 4749,
      "নৈতিকতার": 4750,
      "সামনের": 4751,
      "##ীতির": 4752,
      "সবাইকে": 4753,
      "দূষণ": 4754,
      "মূল্য": 4755,
      "ঠোঁটে": 4756,
      "ধর্মের": 4757,
      "নীরবতার": 4758,
      "জোরে": 4759,
      "মায়া": 4760,
      "সভ্য": 4761,
      "কোলাহ": 4762,
      "আলাপ": 4763,
      "স্কুলে": 4764,
      "বনে": 4765,
      "বাঁশ": 4766,
      "উদ্দেশ্য": 4767,
      "ঢাক": 4768,
      "বাণী": 4769,
      "তারপরে": 4770,
      "খাওয়া": 4771,
      "যোগাযোগ": 4772,
      "ধৃতরা": 4773,
      "তাও": 4774,
      "উঠলো": 4775,
      "মাঝেই": 4776,
      "##ম্ভব": 4777,
      "ক্লাস": 4778,
      "ধারা": 4779,
      "##ড়ের": 4780,
      "##ানী": 4781,
      "উদাস": 4782,
      "সমাজে": 4783,
      "প্রশ্নের": 4784,
      "পলা": 4785,
      "##সূ": 4786,
      "বিচিত্র": 4787,
      "জানাল": 4788,
      "##বর্ষ": 4789,
      "লুকানো": 4790,
      "আনন্দের": 4791,
      "বিদ্রো": 4792,
      "আকর": 4793,
      "নিঃশব্দে": 4794,
      "ওঠার": 4795,
      "বুন": 4796,
      "বন্ধুত্বের": 4797,
      "পুরাণ": 4798,
      "প্রতিচ্ছ": 4799,
      "মর্যাদা": 4800,
      "আনা": 4801,
      "##্যাপ": 4802,
      "##িতি": 4803,
      "হারানো": 4804,
      "দুর্যোধন": 4805,
      "ঘোর": 4806,
      "##গু": 4807,
      "##ূর্ব": 4808,
      "মিস্টার": 4809,
      "অপরাধ": 4810,
      "বাগান": 4811,
      "গর্জন": 4812,
      "ধ্বংস": 4813,
      "এতে": 4814,
      "পাচ্ছে": 4815,
      "ক্ষত্র": 4816,
      "ছন্দে": 4817,
      "অনুম": 4818,
      "কল্পনা": 4819,
      "এগুলো": 4820,
      "##রী": 4821,
      "তোলা": 4822,
      "কর্ণের": 4823,
      "উচ্ছ্ব": 4824,
      "আহ্বান": 4825,
      "পাওয়া": 4826,
      "রাখার": 4827,
      "এরা": 4828,
      "বুল": 4829,
      "##িরের": 4830,
      "কিছুতেই": 4831,
      "##কালের": 4832,
      "সৃ": 4833,
      "##তল": 4834,
      "কন": 4835,
      "নন": 4836,
      "##িনীর": 4837,
      "থাকল": 4838,
      "কপালে": 4839,
      "পিতা": 4840,
      "##ুদা": 4841,
      "##ড়ির": 4842,
      "প্রায়": 4843,
      "মার্": 4844,
      "স্যার": 4845,
      "##বনের": 4846,
      "বলছেন": 4847,
      "বইয়ের": 4848,
      "অঙ্ক": 4849,
      "খাতা": 4850,
      "মায়ের": 4851,
      "##ুখে": 4852,
      "##াজের": 4853,
      "##ড়ালে": 4854,
      "গলার": 4855,
      "ফাট": 4856,
      "##কর্ম": 4857,
      "##ভাবেই": 4858,
      "ভিড়": 4859,
      "বুদ্ধি": 4860,
      "সাহিত্যের": 4861,
      "##রুম": 4862,
      "##য়ন": 4863,
      "##যুদ্ধ": 4864,
      "অবিচল": 4865,
      "গলে": 4866,
      "##ড়াই": 4867,
      "প্রতিক": 4868,
      "##ক্ষণে": 4869,
      "গোধ": 4870,
      "অভাব": 4871,
      "উঠেছিল": 4872,
      "বিপদ": 4873,
      "দীপ্তি": 4874,
      "নন্দ": 4875,
      "মুক": 4876,
      "এমনকি": 4877,
      "ঘোষণা": 4878,
      "আপনাদের": 4879,
      "বালি": 4880,
      "##ঘর": 4881,
      "দেখলে": 4882,
      "দিচ্ছিল": 4883,
      "ক্ষতি": 4884,
      "খুবই": 4885,
      "পুকুর": 4886,
      "ব্যাকুল": 4887,
      "তাড়াত": 4888,
      "কৌতূহল": 4889,
      "দেরি": 4890,
      "নান": 4891,
      "##ৃত্তি": 4892,
      "কিছুটা": 4893,
      "##স্মাৎ": 4894,
      "অভিশ": 4895,
      "নৈ": 4896,
      "করলো": 4897,
      "নাড়": 4898,
      "বিবাহ": 4899,
      "##্লি": 4900,
      "পণ্ডিত": 4901,
      "সুখের": 4902,
      "##বাসী": 4903,
      "তাড়াতাড়ি": 4904,
      "বলুন": 4905,
      "কিন": 4906,
      "টেলি": 4907,
      "রঙে": 4908,
      "সুম": 4909,
      "দেওয়ার": 4910,
      "অর্জন": 4911,
      "রূপে": 4912,
      "দেখলেন": 4913,
      "করুন": 4914,
      "মরে": 4915,
      "##টিয়ে": 4916,
      "কুসুম": 4917,
      "ধাক্কা": 4918,
      "চট": 4919,
      "জাম": 4920,
      "##ানন্দ": 4921,
      "##াবদ্ধ": 4922,
      "##বিশ্বাস": 4923,
      "ধোঁয়া": 4924,
      "ভঙ্গিতে": 4925,
      "ক্যান": 4926,
      "শিখে": 4927,
      "ভাবল": 4928,
      "আনন্দে": 4929,
      "সূক্ষ্ম": 4930,
      "ঠাণ্ডা": 4931,
      "##শক্তি": 4932,
      "পারছি": 4933,
      "গায়ে": 4934,
      "ভীমের": 4935,
      "নিঃস্ব": 4936,
      "খাম": 4937,
      "ছো": 4938,
      "ঢেলে": 4939,
      "নিমে": 4940,
      "কলম": 4941,
      "লজ্জা": 4942,
      "##যু": 4943,
      "প্রস": 4944,
      "মুনিয়া": 4945,
      "শুকনো": 4946,
      "অভিজ্ঞতা": 4947,
      "##াসি": 4948,
      "অন্যের": 4949,
      "ছিলাম": 4950,
      "##চিত্র্য": 4951,
      "##শিষ্ট": 4952,
      "ফুর": 4953,
      "##টাতে": 4954,
      "মাধুর": 4955,
      "আজকাল": 4956,
      "ফাঁকা": 4957,
      "আপনারা": 4958,
      "ভাত": 4959,
      "মর্ম": 4960,
      "রায়": 4961,
      "##্ণ": 4962,
      "##াসন": 4963,
      "নিচু": 4964,
      "##স্কৃত": 4965,
      "দৃষ্টিতে": 4966,
      "চন্দ্র": 4967,
      "তৃত": 4968,
      "বর্জ": 4969,
      "শপথ": 4970,
      "##চারের": 4971,
      "মোব": 4972,
      "ধারণ": 4973,
      "সূর্যোদ": 4974,
      "কাগজের": 4975,
      "ভাঁজে": 4976,
      "উড়ে": 4977,
      "নিত্য": 4978,
      "##শনের": 4979,
      "##ায়ী": 4980,
      "গেলাম": 4981,
      "অসম্ভব": 4982,
      "সিঁড়ি": 4983,
      "ফ্ল্যা": 4984,
      "অংশে": 4985,
      "ওখানে": 4986,
      "##িয়া": 4987,
      "প্রের": 4988,
      "দেবার": 4989,
      "করতেই": 4990,
      "অকস্মাৎ": 4991,
      "প্রতিচ্ছবি": 4992,
      "ডো": 4993,
      "ছাড়া": 4994,
      "বংশ": 4995,
      "##গোল": 4996,
      "লোকের": 4997,
      "জাতি": 4998,
      "##ষণের": 4999,
      "##জায়": 5000,
      "প্রার্থ": 5001,
      "সঙ্গেই": 5002,
      "ছায়ার": 5003,
      "ছোঁয়ায়": 5004,
      "ভীষ্ম": 5005,
      "সংকেত": 5006,
      "নীরবে": 5007,
      "বিরাট": 5008,
      "রক্তে": 5009,
      "কথাই": 5010,
      "##নু": 5011,
      "##সাম": 5012,
      "স্মার্ট": 5013,
      "কৃষ্ণের": 5014,
      "অনুভূতির": 5015,
      "##গতি": 5016,
      "##উল": 5017,
      "দিয়েছে": 5018,
      "আন্দোলন": 5019,
      "##থের": 5020,
      "সেকে": 5021,
      "রাজনৈতিক": 5022,
      "দরজায়": 5023,
      "সন্ধ্যায়": 5024,
      "পায়ের": 5025,
      "##খো": 5026,
      "##ুক্ষ": 5027,
      "চলবে": 5028,
      "পরেই": 5029,
      "পালন": 5030,
      "বৃদ্ধি": 5031,
      "উত্তেজনা": 5032,
      "উৎপ": 5033,
      "ঘাড়": 5034,
      "মূর্তি": 5035,
      "##শু": 5036,
      "##ান্স": 5037,
      "বেয়ে": 5038,
      "প্রতিফল": 5039,
      "নেওয়া": 5040,
      "পরিকল্পনা": 5041,
      "উপলব্ধ": 5042,
      "ধাপে": 5043,
      "সমান": 5044,
      "##পুরুষ": 5045,
      "রহস্যের": 5046,
      "বিক্রি": 5047,
      "যুবক": 5048,
      "স্বয়ং": 5049,
      "অদে": 5050,
      "জাদ": 5051,
      "হাসে": 5052,
      "ক্ষণ": 5053,
      "জাতির": 5054,
      "একাকী": 5055,
      "প্লাস্টিক": 5056,
      "ধাপ": 5057,
      "এইসব": 5058,
      "গেঁ": 5059,
      "কবির": 5060,
      "মেঘে": 5061,
      "পুরুষের": 5062,
      "লেখক": 5063,
      "##০০": 5064,
      "নিভে": 5065,
      "##কথা": 5066,
      "নিখ": 5067,
      "উর্ব": 5068,
      "চাবি": 5069,
      "অধ্যায়": 5070,
      "শোনে": 5071,
      "মিথ্যে": 5072,
      "তেমনই": 5073,
      "##দর্শন": 5074,
      "##ষু": 5075,
      "##ট্র": 5076,
      "চোর": 5077,
      "স্মৃতিতে": 5078,
      "ঠেলে": 5079,
      "##পুত্র": 5080,
      "সোজা": 5081,
      "প্রহরে": 5082,
      "কালি": 5083,
      "গ্ল": 5084,
      "##্কে": 5085,
      "অব্য": 5086,
      "তালে": 5087,
      "দুর্ব": 5088,
      "##র্মে": 5089,
      "##ডিও": 5090,
      "জনে": 5091,
      "নম": 5092,
      "নাটক": 5093,
      "কেন্দ্র": 5094,
      "বসু": 5095,
      "উদ্ভাব": 5096,
      "নির্ভর": 5097,
      "নির্দেশ": 5098,
      "গড়": 5099,
      "গাল": 5100,
      "##রণে": 5101,
      "পদক্ষেপ": 5102,
      "জটিল": 5103,
      "##পাশের": 5104,
      "দিলাম": 5105,
      "নম্বর": 5106,
      "##ন্‌": 5107,
      "চেতনা": 5108,
      "ঢো": 5109,
      "দা": 5110,
      "##োতে": 5111,
      "##লোকের": 5112,
      "আবির": 5113,
      "সরকারি": 5114,
      "ফি": 5115,
      "স্বর্গ": 5116,
      "দুর্বল": 5117,
      "বাগানে": 5118,
      "আইন": 5119,
      "সচেতনতা": 5120,
      "নগর": 5121,
      "বাইরের": 5122,
      "ঝলমল": 5123,
      "কুন্তীর": 5124,
      "হৃ": 5125,
      "নিবি": 5126,
      "##াবী": 5127,
      "অবিশ্বাস": 5128,
      "লাইন": 5129,
      "নাদি": 5130,
      "বিজ্ঞ": 5131,
      "টের": 5132,
      "##মলে": 5133,
      "থেকেও": 5134,
      "হাসিতে": 5135,
      "সহম": 5136,
      "অন্তরের": 5137,
      "শক্তিশালী": 5138,
      "রমণী": 5139,
      "বর্ষার": 5140,
      "তাকা": 5141,
      "গোপ": 5142,
      "লাগছে": 5143,
      "উড়": 5144,
      "##ত্ন": 5145,
      "##মানের": 5146,
      "দেয়া": 5147,
      "##াপন": 5148,
      "ছাদে": 5149,
      "##ুচ": 5150,
      "##টায়": 5151,
      "বিচ্ছ": 5152,
      "##ত্যা": 5153,
      "তখনও": 5154,
      "চাইল": 5155,
      "অদেখা": 5156,
      "##ত্থ": 5157,
      "##ুড়ি": 5158,
      "স্বার্থ": 5159,
      "অবস": 5160,
      "ঘেঁ": 5161,
      "জন্মে": 5162,
      "টা": 5163,
      "##্রিম": 5164,
      "##ান্তে": 5165,
      "স্থা": 5166,
      "মেঘলা": 5167,
      "গৌরব": 5168,
      "ইচ্ছা": 5169,
      "ছল": 5170,
      "নিলেন": 5171,
      "##নীতি": 5172,
      "##লাইন": 5173,
      "##িদ": 5174,
      "##ানায়": 5175,
      "##িকতা": 5176,
      "##িয়েছে": 5177,
      "##গুলোতে": 5178,
      "পড়াশ": 5179,
      "সমুদ্রের": 5180,
      "সম্ভাবনা": 5181,
      "ব্যক্তির": 5182,
      "সংসার": 5183,
      "ভূত": 5184,
      "মাতৃ": 5185,
      "মিনিট": 5186,
      "চাদ": 5187,
      "##ষিত": 5188,
      "##গুল": 5189,
      "বুড়ো": 5190,
      "অন্যায়": 5191,
      "বৃক্ষ": 5192,
      "রাস্তায়": 5193,
      "টানে": 5194,
      "##গন্ধ": 5195,
      "##্রিয়া": 5196,
      "মোহ": 5197,
      "##শীলতা": 5198,
      "টেবিলের": 5199,
      "সঞ্চার": 5200,
      "ধৈ": 5201,
      "সফল": 5202,
      "লোকে": 5203,
      "নির্মল": 5204,
      "##পরিচ": 5205,
      "চুরি": 5206,
      "##কারী": 5207,
      "জন্যই": 5208,
      "সূত্র": 5209,
      "গাঁথা": 5210,
      "ফুলে": 5211,
      "##োয়": 5212,
      "##োনে": 5213,
      "##響響": 5214,
      "সেল": 5215,
      "অতল": 5216,
      "জুড়ে": 5217,
      "ফেরার": 5218,
      "পেলাম": 5219,
      "##ুৎ": 5220,
      "যুদ্ধে": 5221,
      "হাজির": 5222,
      "যুধিষ্ঠিরের": 5223,
      "পাণ্ডবদের": 5224,
      "প্রদীপ": 5225,
      "বিবে": 5226,
      "বিচ্ছে": 5227,
      "##ষ্প": 5228,
      "ওঁর": 5229,
      "স্নেহ": 5230,
      "##ৈত": 5231,
      "##ন্দ্ব": 5232,
      "পাহাড়": 5233,
      "লোভ": 5234,
      "আওয়": 5235,
      "রীতি": 5236,
      "##টুট": 5237,
      "নবীন": 5238,
      "পৃষ্": 5239,
      "##ক্তিম": 5240,
      "কতটা": 5241,
      "আত্মবিশ্বাস": 5242,
      "দাদু": 5243,
      "ছাই": 5244,
      "পুঁ": 5245,
      "মেশ": 5246,
      "মহাক": 5247,
      "##বন্ধন": 5248,
      "##স্কৃতিক": 5249,
      "অটুট": 5250,
      "ইচ্ছ": 5251,
      "কুল": 5252,
      "তীর": 5253,
      "দার্": 5254,
      "ভাঙে": 5255,
      "অপরূপ": 5256,
      "মিথ্যা": 5257,
      "দক্ষি": 5258,
      "রাস": 5259,
      "সময়ের": 5260,
      "##্মি": 5261,
      "স্বামীর": 5262,
      "##স্টে": 5263,
      "উপরে": 5264,
      "##সাথে": 5265,
      "পুকুরের": 5266,
      "##ায়ে": 5267,
      "করবার": 5268,
      "##দেশের": 5269,
      "পারেনি": 5270,
      "দেবতা": 5271,
      "উদ্ব": 5272,
      "দুপুরের": 5273,
      "টাই": 5274,
      "রেল": 5275,
      "##ানির": 5276,
      "নিষ্ঠ": 5277,
      "ভাগ্য": 5278,
      "##ারি": 5279,
      "##াহে": 5280,
      "##বিদ্য": 5281,
      "দৃঢ়": 5282,
      "ব্রাউন": 5283,
      "##কল": 5284,
      "##র্ড": 5285,
      "কবিত": 5286,
      "আভাস": 5287,
      "সাংস্কৃতিক": 5288,
      "প্রাকৃত": 5289,
      "কই": 5290,
      "##্যাস": 5291,
      "দিয়েছিল": 5292,
      "যাবো": 5293,
      "কুকুর": 5294,
      "এদিকে": 5295,
      "ওটা": 5296,
      "ফেলা": 5297,
      "##চো": 5298,
      "##ায়ণ": 5299,
      "আসি": 5300,
      "ভাঁজ": 5301,
      "মাঠের": 5302,
      "আড়ালে": 5303,
      "তলায়": 5304,
      "ভাবি": 5305,
      "সংগ্রামের": 5306,
      "কাঁপতে": 5307,
      "আফ": 5308,
      "চূ": 5309,
      "চলো": 5310,
      "মজ": 5311,
      "দুজন": 5312,
      "চেয়ার": 5313,
      "তুলেছে": 5314,
      "মুহূর্তেই": 5315,
      "ফোট": 5316,
      "শ্রী": 5317,
      "##ুস": 5318,
      "##ঠন": 5319,
      "রাজি": 5320,
      "মলিন": 5321,
      "গোঁ": 5322,
      "##বণ": 5323,
      "##বতী": 5324,
      "নাচে": 5325,
      "##াত্ত": 5326,
      "পারলে": 5327,
      "##াড়িতে": 5328,
      "এরপর": 5329,
      "বসল": 5330,
      "বাক্স": 5331,
      "উদ্ধ": 5332,
      "ভোগ": 5333,
      "##ফের": 5334,
      "গাছে": 5335,
      "নীলা": 5336,
      "লেখার": 5337,
      "##ফট": 5338,
      "একদিকে": 5339,
      "##্যাড": 5340,
      "আদর্শ": 5341,
      "ছাগ": 5342,
      "ঝর্ণ": 5343,
      "দিত": 5344,
      "##তলা": 5345,
      "##ভঙ্গ": 5346,
      "##নিষ্ঠ": 5347,
      "##ান্তর": 5348,
      "এসেছেন": 5349,
      "ধরতে": 5350,
      "দুনি": 5351,
      "যাদ": 5352,
      "’-": 5353,
      "হাওয়ায়": 5354,
      "বাক্য": 5355,
      "##ৃতে": 5356,
      "একলা": 5357,
      "বায়": 5358,
      "দিলো": 5359,
      "দাদুর": 5360,
      "ললিতা": 5361,
      "সিগারে": 5362,
      "বর্জ্য": 5363,
      "আভা": 5364,
      "ঝন্ট": 5365,
      "হেল": 5366,
      "##ঘরে": 5367,
      "##গান": 5368,
      "পারছে": 5369,
      "বিষাদের": 5370,
      "হাওয়ায়": 5371,
      "গুঞ্জন": 5372,
      "মজা": 5373,
      "মাস্ট": 5374,
      "কাজেই": 5375,
      "ভাসমান": 5376,
      "ত্র": 5377,
      "চেতন": 5378,
      "কঠোর": 5379,
      "কলকাতার": 5380,
      "খুঁজতে": 5381,
      "সিল": 5382,
      "##র্ট": 5383,
      "##সেস": 5384,
      "পড়ার": 5385,
      "মায়া": 5386,
      "দ্যুতি": 5387,
      "সাগ": 5388,
      "##হা": 5389,
      "##শ্লে": 5390,
      "কুয়া": 5391,
      "যুদ্ধের": 5392,
      "সবচেয়ে": 5393,
      "বিদ্যাল": 5394,
      "##তন্ত্র": 5395,
      "দেবযান": 5396,
      "বোঝে": 5397,
      "রাহুল": 5398,
      "পরিশ্রম": 5399,
      "সহমর্ম": 5400,
      "কীর": 5401,
      "কালের": 5402,
      "যজ্ঞ": 5403,
      "ল্যাব": 5404,
      "##জাত": 5405,
      "হাসল": 5406,
      "প্রত্যেকে": 5407,
      "সৃজন": 5408,
      "পাত্র": 5409,
      "পিতার": 5410,
      "আমায়": 5411,
      "খাদ্য": 5412,
      "ঝন্টুম": 5413,
      "##াধার": 5414,
      "নিত": 5415,
      "হুম": 5416,
      "##বাজ": 5417,
      "##ছাড়া": 5418,
      "অনেকেই": 5419,
      "সারি": 5420,
      "পানির": 5421,
      "দুর্যোধনের": 5422,
      "ইঙ্গ": 5423,
      "বারান্দায়": 5424,
      "##গাছের": 5425,
      "হাই": 5426,
      "একসাথে": 5427,
      "##বারের": 5428,
      "হাওয়া": 5429,
      "টিপ": 5430,
      "ঠান্ড": 5431,
      "পক্ষ": 5432,
      "মস": 5433,
      "কাণ্ড": 5434,
      "থাকত": 5435,
      "আসছিল": 5436,
      "স্ক্র": 5437,
      "গেঁথে": 5438,
      "##মাল": 5439,
      "##er": 5440,
      "সরিয়ে": 5441,
      "অন্তরা": 5442,
      "শূন্যতা": 5443,
      "নইলে": 5444,
      "গি": 5445,
      "কাটে": 5446,
      "##চারী": 5447,
      "উপলব্ধি": 5448,
      "ঘ্রাণ": 5449,
      "উপন্য": 5450,
      "দেবতার": 5451,
      "সংগ্রহ": 5452,
      "গুরুত্বপূর্ণ": 5453,
      "অরণ্য": 5454,
      "দেশপ্রেমের": 5455,
      "ছড়ায়": 5456,
      "##তাদের": 5457,
      "##ঙ্কা": 5458,
      "##ন্তব্য": 5459,
      "কার্য": 5460,
      "ময়": 5461,
      "ব্যক্ত": 5462,
      "সরু": 5463,
      "অজ্ঞ": 5464,
      "করেনি": 5465,
      "আসুন": 5466,
      "প্রিয়": 5467,
      "পেলেন": 5468,
      "আত্মপরিচ": 5469,
      "বিকেল": 5470,
      "লিখতে": 5471,
      "চরম": 5472,
      "##টিয়ে": 5473,
      "##nd": 5474,
      "##িকারের": 5475,
      "সেখান": 5476,
      "##ষ্ক": 5477,
      "##ভূত": 5478,
      "দাঁড়ায়": 5479,
      "পেয়েছে": 5480,
      "##জন্য": 5481,
      "##াব্দ": 5482,
      "স্বভাব": 5483,
      "সম্প্র": 5484,
      "##্সি": 5485,
      "মাদ": 5486,
      "শোক": 5487,
      "##লিক": 5488,
      "মিস": 5489,
      "দাঁত": 5490,
      "নেড়ে": 5491,
      "কেননা": 5492,
      "শুনেছি": 5493,
      "সম্ভাবনার": 5494,
      "নাগরিক": 5495,
      "জায়": 5496,
      "##েকের": 5497,
      "পথিক": 5498,
      "পাহা": 5499,
      "চাচ": 5500,
      "মদ": 5501,
      "##ষের": 5502,
      "##স্থান": 5503,
      "আঁচলে": 5504,
      "পুত": 5505,
      "মণ": 5506,
      "##শল": 5507,
      "সেটি": 5508,
      "বেরিয়ে": 5509,
      "কাত": 5510,
      "ত্ব": 5511,
      "নাগ": 5512,
      "নিচ্ছে": 5513,
      "প্রতিবাদ": 5514,
      "বিষাদ": 5515,
      "মধু": 5516,
      "##ড়ানো": 5517,
      "জ্বলজ্বল": 5518,
      "মালা": 5519,
      "##জাল": 5520,
      "##জাগ": 5521,
      "##চন্দ্র": 5522,
      "বাঁকে": 5523,
      "বস্তুত": 5524,
      "উন্মো": 5525,
      "##য়াল": 5526,
      "একনাথ": 5527,
      "##ণ্ডল": 5528,
      "##জীবন": 5529,
      "অস্তিত্বের": 5530,
      "অর্ধেক": 5531,
      "কলি": 5532,
      "##টিক": 5533,
      "##ায়ক": 5534,
      "নাক": 5535,
      "বিখ্যাত": 5536,
      "শুদ্ধ": 5537,
      "কথাগুলো": 5538,
      "চারদিকে": 5539,
      "যত্ন": 5540,
      "একেক": 5541,
      "পূ": 5542,
      "##ংসের": 5543,
      "আজো": 5544,
      "কোনোদিন": 5545,
      "পৃথিবীতে": 5546,
      "বাঁধন": 5547,
      "সিংহ": 5548,
      "প্রচণ্ড": 5549,
      "##্রীর": 5550,
      "##ৃষ্ণ": 5551,
      "##্বেও": 5552,
      "সার্": 5553,
      "##শান": 5554,
      "##শির": 5555,
      "অমন": 5556,
      "থর": 5557,
      "##াময়": 5558,
      "বিশ্লে": 5559,
      "পিছু": 5560,
      "সতর্ক": 5561,
      "তপ": 5562,
      "সায়": 5563,
      "নৈতিকতা": 5564,
      "শৈশবের": 5565,
      "সেকেন্ড": 5566,
      "যাদের": 5567,
      "পরস্প": 5568,
      "দেখেই": 5569,
      "পিছন": 5570,
      "দখ": 5571,
      "রৌ": 5572,
      "##রির": 5573,
      "##বিত্র": 5574,
      "মানবতা": 5575,
      "বইয়ের": 5576,
      "আঁচল": 5577,
      "ছিঁড়ে": 5578,
      "স্পন্দনে": 5579,
      "সোহ": 5580,
      "উল্ল": 5581,
      "সংকট": 5582,
      "পশ্চিম": 5583,
      "আকর্ষণ": 5584,
      "ঠান্ডা": 5585,
      "ঠেক": 5586,
      "মের": 5587,
      "মাম": 5588,
      "##ূরে": 5589,
      "##বেলার": 5590,
      "মাথায়": 5591,
      "গলায়": 5592,
      "দারুণ": 5593,
      "অতিক্রম": 5594,
      "উঁ": 5595,
      "তালা": 5596,
      "বৃত্ত": 5597,
      "মেলা": 5598,
      "##ীবন": 5599,
      "বলেছি": 5600,
      "সহজে": 5601,
      "##পুরের": 5602,
      "পোশ": 5603,
      "প্রত্যাশার": 5604,
      "##খ্যান": 5605,
      "রাখল": 5606,
      "আঁকড়ে": 5607,
      "##াটা": 5608,
      "পারো": 5609,
      "##লাতে": 5610,
      "রাফি": 5611,
      "পাহাড়ি": 5612,
      "সীমা": 5613,
      "এতদিন": 5614,
      "দুর্ন": 5615,
      "জ্বলন্ত": 5616,
      "##িপ্ত": 5617,
      "বাঁশের": 5618,
      "অসং": 5619,
      "সীমাবদ্ধ": 5620,
      "##িকিৎস": 5621,
      "লু": 5622,
      "##াবিল": 5623,
      "ক্ষত": 5624,
      "রাত্রে": 5625,
      "মাছের": 5626,
      "প্যাকে": 5627,
      "দেবেন": 5628,
      "##্টো": 5629,
      "শূন্যতার": 5630,
      "রহস্যময়": 5631,
      "যন্ত্রণা": 5632,
      "##যাত্রা": 5633,
      "গীত": 5634,
      "দাস": 5635,
      "##ঘরের": 5636,
      "##মধ্যে": 5637,
      "আরে": 5638,
      "সীমানা": 5639,
      "##বাক": 5640,
      "##শনে": 5641,
      "##পট": 5642,
      "রাষ্ট্র": 5643,
      "গোটা": 5644,
      "ঠিকই": 5645,
      "অসুবি": 5646,
      "পকেটে": 5647,
      "খোল": 5648,
      "##ভাই": 5649,
      "অবল": 5650,
      "বাঁক": 5651,
      "করেননি": 5652,
      "মুক্তিযুদ্ধ": 5653,
      "আচরণ": 5654,
      "স্বাস্থ্য": 5655,
      "সাপ": 5656,
      "পড়বে": 5657,
      "পরিবেশের": 5658,
      "##ৃণ": 5659,
      "গেছি": 5660,
      "##ভাষ": 5661,
      "স্থানীয়": 5662,
      "রৌদ্র": 5663,
      "##ারো": 5664,
      "##িকর": 5665,
      "সংগীত": 5666,
      "তোকে": 5667,
      "##্ধব": 5668,
      "বারো": 5669,
      "পাশেই": 5670,
      "ক্ষেত্র": 5671,
      "আঁধারের": 5672,
      "খাই": 5673,
      "তিত": 5674,
      "আঁকি": 5675,
      "ছুটি": 5676,
      "বনের": 5677,
      "সিম": 5678,
      "দেওয়া": 5679,
      "মনুষ": 5680,
      "হয়েছিল": 5681,
      "প্রাকৃতিক": 5682,
      "অশ্ব": 5683,
      "উভ": 5684,
      "##দল": 5685,
      "##হরণ": 5686,
      "##ৈব": 5687,
      "বেড়া": 5688,
      "সাক্ষী": 5689,
      "##ভো": 5690,
      "##াদন": 5691,
      "##ষ্ট্রের": 5692,
      "বিদায়": 5693,
      "টর্": 5694,
      "##ুনে": 5695,
      "##ভের": 5696,
      "বাঘ": 5697,
      "ফেলুদা": 5698,
      "দর্শন": 5699,
      "জাল": 5700,
      "সুবাস": 5701,
      "আপা": 5702,
      "মহান": 5703,
      "কাঁধ": 5704,
      "বিরক্ত": 5705,
      "কাগজে": 5706,
      "যাঁরা": 5707,
      "##ানুভূ": 5708,
      "##হু": 5709,
      "মাকে": 5710,
      "স্বর্": 5711,
      "চালু": 5712,
      "খেলার": 5713,
      "শতাব্দ": 5714,
      "ট্রেন": 5715,
      "প্রাণে": 5716,
      "##ভূমির": 5717,
      "ঈশ্ব": 5718,
      "তলে": 5719,
      "মোর": 5720,
      "মঞ্চ": 5721,
      "শক্তির": 5722,
      "শৃঙ্খ": 5723,
      "##তাব": 5724,
      "গোব": 5725,
      "সাফল": 5726,
      "সন্ধান": 5727,
      "বস্তু": 5728,
      "দেয়ালে": 5729,
      "##াসিক": 5730,
      "প্রত্যেকের": 5731,
      "কৌরব": 5732,
      "##ফিসে": 5733,
      "শরীরের": 5734,
      "গানে": 5735,
      "চাব": 5736,
      "তিনটি": 5737,
      "প্ল্যাট": 5738,
      "পেরিয়ে": 5739,
      "প্রান্তে": 5740,
      "শত্রু": 5741,
      "কুরু": 5742,
      "দাবি": 5743,
      "মঞ্চে": 5744,
      "##শায়": 5745,
      "##য়ারে": 5746,
      "##াবতী": 5747,
      "##াপতি": 5748,
      "কোটি": 5749,
      "লাগলেন": 5750,
      "##মাখা": 5751,
      "ছিটকে": 5752,
      "বহন": 5753,
      "গুপ্ত": 5754,
      "চাম": 5755,
      "ঝড়": 5756,
      "ডুব": 5757,
      "##বেলায়": 5758,
      "দিব্য": 5759,
      "দীর্ঘশ্বাস": 5760,
      "কলেজ": 5761,
      "ধৈর্য": 5762,
      "দেখুন": 5763,
      "মুসল": 5764,
      "লালন": 5765,
      "অলীক": 5766,
      "বন্দি": 5767,
      "চায়ের": 5768,
      "ফেরে": 5769,
      "মতে": 5770,
      "##ভরা": 5771,
      "পয়সা": 5772,
      "চিকিৎস": 5773,
      "মরি": 5774,
      "##রিক": 5775,
      "##বৈ": 5776,
      "##ায়ন": 5777,
      "পরা": 5778,
      "##ন্তী": 5779,
      "দুজনের": 5780,
      "মেয়েটি": 5781,
      "ইন্টার": 5782,
      "মঙ্গল": 5783,
      "##প্ন": 5784,
      "উন্মুক্ত": 5785,
      "টেক": 5786,
      "সালের": 5787,
      "##হেলা": 5788,
      "##ংক": 5789,
      "##য়ো": 5790,
      "##পাশ": 5791,
      "যাবেন": 5792,
      "##মানুষ": 5793,
      "বিদ্যুৎ": 5794,
      "ক্রমাগত": 5795,
      "খাব": 5796,
      "##াসিত": 5797,
      "নিই": 5798,
      "কাছেই": 5799,
      "বিষাক্ত": 5800,
      "সন্ধ্যায়": 5801,
      "আচম": 5802,
      "খি": 5803,
      "##জল": 5804,
      "সেগুলো": 5805,
      "##াবর": 5806,
      "##াগের": 5807,
      "দেয়াল": 5808,
      "ঘটনার": 5809,
      "##হেতু": 5810,
      "নিভৃত": 5811,
      "##ননি": 5812,
      "##সহ": 5813,
      "সংবাদ": 5814,
      "শহীদ": 5815,
      "চারি": 5816,
      "ফেলতে": 5817,
      "তুলল": 5818,
      "ছোঁয়া": 5819,
      "অনুপ্রের": 5820,
      "গবেষণা": 5821,
      "অঞ্চ": 5822,
      "কন্যা": 5823,
      "চশ": 5824,
      "জঙ্গ": 5825,
      "দত্ত": 5826,
      "মধ্যেও": 5827,
      "জ্বলছে": 5828,
      "বর্ণনা": 5829,
      "অসুস্থ": 5830,
      "ক্যানভ": 5831,
      "##চনার": 5832,
      "##in": 5833,
      "##ামো": 5834,
      "##ক্ষ্ণ": 5835,
      "সাধু": 5836,
      "##ষ্ঠান": 5837,
      "আশ্রয়": 5838,
      "হস্তিন": 5839,
      "আকাঙ্ক্ষা": 5840,
      "আলিঙ্গন": 5841,
      "কোলাহল": 5842,
      "আওয়াজ": 5843,
      "অন্তরালে": 5844,
      "খ্রি": 5845,
      "পবিত্র": 5846,
      "##দুর": 5847,
      "##্সের": 5848,
      "পাচ্ছি": 5849,
      "অন্যান্য": 5850,
      "ছেলেমে": 5851,
      "দূরত্ব": 5852,
      "ঝলক": 5853,
      "সমাধান": 5854,
      "##ষুধ": 5855,
      "হর": 5856,
      "##জির": 5857,
      "##পালা": 5858,
      "##াঁই": 5859,
      "শুভার": 5860,
      "মিসেস": 5861,
      "নিয়েছে": 5862,
      "অসম": 5863,
      "লাগবে": 5864,
      "বহুমাত্র": 5865,
      "##ক্টর": 5866,
      "##ীতা": 5867,
      "প্রচে": 5868,
      "দ্বার": 5869,
      "মুর": 5870,
      "শার": 5871,
      "হিস": 5872,
      "##মিত": 5873,
      "অস্প": 5874,
      "পুত্রের": 5875,
      "বয়সে": 5876,
      "চিহ্নিত": 5877,
      "টিক": 5878,
      "দলে": 5879,
      "প্রসার": 5880,
      "##িলের": 5881,
      "##র্প": 5882,
      "অবধি": 5883,
      "এখনই": 5884,
      "জ্বেলে": 5885,
      "হলেই": 5886,
      "অপমান": 5887,
      "বায়ু": 5888,
      "##যন্ত্র": 5889,
      "অনলাইন": 5890,
      "মনোভাব": 5891,
      "অবশ্যই": 5892,
      "প্রয়োজন": 5893,
      "##িষ্ট": 5894,
      "প্রচার": 5895,
      "সহ্য": 5896,
      "কখনোই": 5897,
      "ভর্তি": 5898,
      "আবেগের": 5899,
      "ক্রমশ": 5900,
      "প্ল্যাটফ": 5901,
      "কালে": 5902,
      "দিয়েছিলেন": 5903,
      "চিঠ": 5904,
      "বিস্ময়": 5905,
      "চিত্ত": 5906,
      "##সু": 5907,
      "##্বা": 5908,
      "বন্ধুদের": 5909,
      "হতেই": 5910,
      "##মব": 5911,
      "##at": 5912,
      "##রাশি": 5913,
      "বেড়ে": 5914,
      "যুগের": 5915,
      "সংরক্ষণ": 5916,
      "the": 5917,
      "ঋষি": 5918,
      "চলি": 5919,
      "দানা": 5920,
      "##বাল": 5921,
      "##লেট": 5922,
      "##িলার": 5923,
      "বিহ": 5924,
      "মাংস": 5925,
      "প্রত্যয়": 5926,
      "গিয়েছিল": 5927,
      "##কেট": 5928,
      "বিশ্র": 5929,
      "দিচ্ছি": 5930,
      "মনন": 5931,
      "ব্রত": 5932,
      "সত্ত্বেও": 5933,
      "চিনতে": 5934,
      "কান্নার": 5935,
      "পট": 5936,
      "পাকা": 5937,
      "ব্রি": 5938,
      "##ংশের": 5939,
      "##on": 5940,
      "প্রকা": 5941,
      "##াতন": 5942,
      "পরাজ": 5943,
      "পারলেন": 5944,
      "##ন্তু": 5945,
      "বাজার": 5946,
      "আবির্ভ": 5947,
      "রচিত": 5948,
      "শাল": 5949,
      "সৃষ্টির": 5950,
      "…।": 5951,
      "##জগ": 5952,
      "##বেলায়": 5953,
      "একটুও": 5954,
      "স্তরে": 5955,
      "##শাখ": 5956,
      "মেয়েদের": 5957,
      "চালিয়ে": 5958,
      "ঝাঁপিয়ে": 5959,
      "ইঙ্গিত": 5960,
      "মনুষ্য": 5961,
      "শোনো": 5962,
      "##শত": 5963,
      "একদম": 5964,
      "##র্জন": 5965,
      "কথাও": 5966,
      "চলল": 5967,
      "ফেলেছে": 5968,
      "নদীতে": 5969,
      "পর্যায়ে": 5970,
      "গায়": 5971,
      "হিন্দু": 5972,
      "##দু": 5973,
      "##হুর": 5974,
      "থাকলেও": 5975,
      "ছায়ায়": 5976,
      "টাক": 5977,
      "সঙ্ক": 5978,
      "##কেল": 5979,
      "বিচ": 5980,
      "প্রতিবেশ": 5981,
      "থাকুক": 5982,
      "চলার": 5983,
      "ওষুধ": 5984,
      "গলি": 5985,
      "##পারে": 5986,
      "সমগ্র": 5987,
      "##ঞ্চিত": 5988,
      "নিরব": 5989,
      "লক্ষ্ম": 5990,
      "মাইক": 5991,
      "প্রত্যাশা": 5992,
      "আচমকা": 5993,
      "রক্তিম": 5994,
      "##বর্ণ": 5995,
      "##ম্": 5996,
      "যেভাবে": 5997,
      "রেশ": 5998,
      "ঘোরে": 5999,
      "দোকানে": 6000,
      "চেতনার": 6001,
      "প্রবন্ধের": 6002,
      "সৈন্য": 6003,
      "হায়": 6004,
      "##re": 6005,
      "বাধ": 6006,
      "##িকায়": 6007,
      "দিয়েই": 6008,
      "মহাজ": 6009,
      "যাওয়ার": 6010,
      "নির্মাণ": 6011,
      "পদক্ষেপে": 6012,
      "বিপ্লবের": 6013,
      "চেঁচিয়ে": 6014,
      "প্রার্থনা": 6015,
      "ইস": 6016,
      "আপাত": 6017,
      "##স্যার": 6018,
      "এসবই": 6019,
      "কাপড়": 6020,
      "ধোঁয়া": 6021,
      "পকেট": 6022,
      "টু": 6023,
      "তত্ত্ব": 6024,
      "করলেই": 6025,
      "যেহেতু": 6026,
      "##াদী": 6027,
      "দেখছে": 6028,
      "ভিজ": 6029,
      "ভারসাম": 6030,
      "টিপে": 6031,
      "বুদ্ধিম": 6032,
      "মগ": 6033,
      "শিকার": 6034,
      "সন্": 6035,
      "সহযোগ": 6036,
      "আদর": 6037,
      "##াক্ষণ": 6038,
      "আন্তর": 6039,
      "টাকার": 6040,
      "##মানে": 6041,
      "##িয়েছে": 6042,
      "##ণ্ডে": 6043,
      "সেখানেই": 6044,
      "অভিযান": 6045,
      "##জীবনের": 6046,
      "ঝলমলে": 6047,
      "শকুন": 6048,
      "সোমনাথ": 6049,
      "কিনে": 6050,
      "পাগল": 6051,
      "ক্ষীণ": 6052,
      "শব্দগুলো": 6053,
      "লোকটার": 6054,
      "মাধ্যম": 6055,
      "ফ্রান্স": 6056,
      "ঘেঁষে": 6057,
      "চঞ্চল": 6058,
      "রক": 6059,
      "পাগ": 6060,
      "হয়েছেন": 6061,
      "ঢেউয়ে": 6062,
      "দেয়াল": 6063,
      "কাছাকা": 6064,
      "এলি": 6065,
      "খাট": 6066,
      "টো": 6067,
      "সজীব": 6068,
      "##ংসা": 6069,
      "##ফা": 6070,
      "মনকে": 6071,
      "মোহন": 6072,
      "মশাই": 6073,
      "আশে": 6074,
      "তাপ": 6075,
      "##দায়": 6076,
      "##ীপ": 6077,
      "প্রবীর": 6078,
      "পারলাম": 6079,
      "গাঢ়": 6080,
      "##চার্যের": 6081,
      "ফেলার": 6082,
      "সারাক্ষণ": 6083,
      "সাজানো": 6084,
      "অনুরোধ": 6085,
      "সময়ে": 6086,
      "পলকে": 6087,
      "চতুর্দ": 6088,
      "’—": 6089,
      "##নীয়": 6090,
      "##গতির": 6091,
      "##খানার": 6092,
      "লোহার": 6093,
      "এতো": 6094,
      "তরে": 6095,
      "##্রমে": 6096,
      "##াপ্র": 6097,
      "সহানুভূ": 6098,
      "##ঞ্চি": 6099,
      "শোনার": 6100,
      "দ্রোণা": 6101,
      "আগ্রহ": 6102,
      "ক্ষত্রিয়": 6103,
      "অপেক্ষায়": 6104,
      "##্যাম্প": 6105,
      "সুন্দরী": 6106,
      "শাসন": 6107,
      "ফস": 6108,
      "বুঝলাম": 6109,
      "বিপুল": 6110,
      "নিভৃতে": 6111,
      "তীক্ষ্ণ": 6112,
      "ইংরেজ": 6113,
      "##বিদ্যাল": 6114,
      "হস্তিনাপ": 6115,
      "মিন": 6116,
      "##াকি": 6117,
      "##াবাহ": 6118,
      "দেখবে": 6119,
      "পারত": 6120,
      "গ্রন্থ": 6121,
      "গুঞ্জ": 6122,
      "জানতেন": 6123,
      "কাছাকাছি": 6124,
      "##নাশ": 6125,
      "উল্লে": 6126,
      "কেঁদে": 6127,
      "বিস্তৃত": 6128,
      "শ্রেষ্ঠ": 6129,
      "মাস্টার": 6130,
      "আঙ্গ": 6131,
      "তৎ": 6132,
      "তৃষ্": 6133,
      "একাকার": 6134,
      "বিয়ের": 6135,
      "##ক্ষম": 6136,
      "তোমায়": 6137,
      "##চ্ছেন": 6138,
      "মহিলা": 6139,
      "ঠোঁটের": 6140,
      "কলকাতা": 6141,
      "মিশ্রিত": 6142,
      "তৃতীয়": 6143,
      "বিশ্লেষণ": 6144,
      "ধীর": 6145,
      "মণি": 6146,
      "কোণ": 6147,
      "রাজু": 6148,
      "##পাধ্য": 6149,
      "##াস্ত্র": 6150,
      "পাঠিয়ে": 6151,
      "চিন্তার": 6152,
      "সকালের": 6153,
      "কাটিয়ে": 6154,
      "ঝুঁকে": 6155,
      "খরচ": 6156,
      "ঈশ্বরের": 6157,
      "অগ": 6158,
      "কঙ্ক": 6159,
      "ঘাম": 6160,
      "##পদ": 6161,
      "##্বিক": 6162,
      "নিশী": 6163,
      "থাকব": 6164,
      "##িক্ষণ": 6165,
      "অসুখ": 6166,
      "এমনই": 6167,
      "স্বপ্নেরা": 6168,
      "দ্বারা": 6169,
      "উন্নত": 6170,
      "নিঃশ্বাসে": 6171,
      "বাংলাদেশ": 6172,
      "ভারসাম্য": 6173,
      "কুর": 6174,
      "”।": 6175,
      "বিপর্য": 6176,
      "জানত": 6177,
      "বিশ্ববিদ্যাল": 6178,
      "জাগিয়ে": 6179,
      "অসংখ্য": 6180,
      "উড়": 6181,
      "ছাতা": 6182,
      "জোগ": 6183,
      "জামা": 6184,
      "ডালে": 6185,
      "##োরে": 6186,
      "##en": 6187,
      "##ামূলক": 6188,
      "মুদ্র": 6189,
      "অন্তঃ": 6190,
      "বিরোধ": 6191,
      "অপূর্ব": 6192,
      "রাত্রির": 6193,
      "নানান": 6194,
      "সিগারেট": 6195,
      "কাকে": 6196,
      "##মক": 6197,
      "##ানক": 6198,
      "##াজন": 6199,
      "হাওয়ার": 6200,
      "##ফুল্ল": 6201,
      "##িণী": 6202,
      "##মালা": 6203,
      "গ্রহ": 6204,
      "জাতীয়": 6205,
      "জমিদার": 6206,
      "অনির্ব": 6207,
      "ত্রি": 6208,
      "শিহরণ": 6209,
      "খেয়ে": 6210,
      "সকলে": 6211,
      "চাহ": 6212,
      "মুন": 6213,
      "আমের": 6214,
      "হবেন": 6215,
      "##জ্ঞে": 6216,
      "সেটাই": 6217,
      "মালিক": 6218,
      "উদাসীন": 6219,
      "অস্পষ্ট": 6220,
      "উল্লেখ": 6221,
      "জড়িয়ে": 6222,
      "বঙ্গ": 6223,
      "স্য": 6224,
      "##শোধ": 6225,
      "##থিত": 6226,
      "##িতের": 6227,
      "মুছ": 6228,
      "আগুনের": 6229,
      "সাহিত্যে": 6230,
      "জাহাজ": 6231,
      "চমৎকার": 6232,
      "..": 6233,
      "হ্য": 6234,
      "নাট": 6235,
      "বলবেন": 6236,
      "পার্থ": 6237,
      "কারা": 6238,
      "নামিয়ে": 6239,
      "সূর্যাস্ত": 6240,
      "খোদ": 6241,
      "প্রতিদিনের": 6242,
      "দিগন্তের": 6243,
      "রবীন্দ্রনাথের": 6244,
      "উই": 6245,
      "ফিল": 6246,
      "##an": 6247,
      "স্বর্ণ": 6248,
      "##িসি": 6249,
      "আলমার": 6250,
      "রূপক": 6251,
      "পল্ল": 6252,
      "প্রতিষ্ঠান": 6253,
      "প্রেরণা": 6254,
      "ফ্রান্সিস": 6255,
      "খায়": 6256,
      "ঢাল": 6257,
      "ব্ল": 6258,
      "যুক্ত": 6259,
      "কেব": 6260,
      "মিঠ": 6261,
      "অন্যতম": 6262,
      "স্ত্রীর": 6263,
      "সোনা": 6264,
      "ঘুমের": 6265,
      "বাজারে": 6266,
      "পরিবর্তনের": 6267,
      "ছাগল": 6268,
      "বহুমাত্রিক": 6269,
      "যেদিন": 6270,
      "অন্বে": 6271,
      "দ্বন্দ্ব": 6272,
      "সর্বো": 6273,
      "পোশাক": 6274,
      "টল": 6275,
      "রাই": 6276,
      "##য়ী": 6277,
      "নিউ": 6278,
      "পাওয়ার": 6279,
      "##কালীন": 6280,
      "মনোযোগ": 6281,
      "ছাড়িয়ে": 6282,
      "নিশ্বাসে": 6283,
      "অনুসন্ধ": 6284,
      "নিষ্ঠুর": 6285,
      "ঝক": 6286,
      "একটাই": 6287,
      "যায়নি": 6288,
      "খেয়াল": 6289,
      "ছায়ার": 6290,
      "দ্যাখো": 6291,
      "ছবির": 6292,
      "সাড়া": 6293,
      "##ভর": 6294,
      "##দ্ধি": 6295,
      "গ্রামীণ": 6296,
      "কথাবার": 6297,
      "কলকাতায়": 6298,
      "তল": 6299,
      "##াবো": 6300,
      "পারবেন": 6301,
      "হাস্য": 6302,
      "সত্যিকারের": 6303,
      "মানেই": 6304,
      "ঝগ": 6305,
      "—’": 6306,
      "##বিক": 6307,
      "##তেও": 6308,
      "##্বিত": 6309,
      "মেতে": 6310,
      "উপহার": 6311,
      "বোতল": 6312,
      "সাহসী": 6313,
      "কিরণ": 6314,
      "থাকো": 6315,
      "মোটা": 6316,
      "মোটেই": 6317,
      "উঁকি": 6318,
      "ঝিম": 6319,
      "টুপ": 6320,
      "ধন্য": 6321,
      "##শাই": 6322,
      "##কৃষ্ণ": 6323,
      "করেও": 6324,
      "বেয়ে": 6325,
      "##মেলো": 6326,
      "লুকোনো": 6327,
      "অনিবার": 6328,
      "উত্তেজন": 6329,
      "ধৃতরাষ্ট্র": 6330,
      "ব্যক্তিত্ব": 6331,
      "খসে": 6332,
      "চিনি": 6333,
      "##্সে": 6334,
      "##ব্র": 6335,
      "আজই": 6336,
      "নিয়েই": 6337,
      "পড়েছিল": 6338,
      "##্যেস": 6339,
      "বলতেন": 6340,
      "দেবতাদের": 6341,
      "প্রস্তাব": 6342,
      "আড্ডা": 6343,
      "ডায়ের": 6344,
      "তি": 6345,
      "ফ্রে": 6346,
      "##ঝি": 6347,
      "বলছিল": 6348,
      "##াজি": 6349,
      "পরাম": 6350,
      "পরিস্থিত": 6351,
      "মোবাইল": 6352,
      "ছাদ": 6353,
      "প্ৰ": 6354,
      "##াঙ্গ": 6355,
      "##করা": 6356,
      "##্তে": 6357,
      "শুয়ে": 6358,
      "মিছিল": 6359,
      "কাঁচের": 6360,
      "এলোমেলো": 6361,
      "আঙিন": 6362,
      "##স্বরূপ": 6363,
      "নড়": 6364,
      "সঞ্চ": 6365,
      "সেসব": 6366,
      "অনেকে": 6367,
      "সৌর": 6368,
      "বিস্তার": 6369,
      "),": 6370,
      "##শিত": 6371,
      "উঠুক": 6372,
      "##স্বপ্ন": 6373,
      "##াত্মক": 6374,
      "জ্যোতি": 6375,
      "রমণীর": 6376,
      "স্পন্দিত": 6377,
      "কৈ": 6378,
      "তৃ": 6379,
      "##ট্ট": 6380,
      "##ডার": 6381,
      "##গার": 6382,
      "গোর": 6383,
      "দেখেছে": 6384,
      "কাঁপে": 6385,
      "প্রথমেই": 6386,
      "জগতে": 6387,
      "আরিফ": 6388,
      "অজ্ঞাত": 6389,
      "শস্য": 6390,
      "##গুণ": 6391,
      "প্রতিযোগ": 6392,
      "এমনকী": 6393,
      "##্রিয়": 6394,
      "ভরসা": 6395,
      "জাতিস": 6396,
      "সবুজের": 6397,
      "##যোগে": 6398,
      "##ড়াতে": 6399,
      "প্রাস": 6400,
      "লেখে": 6401,
      "অনেকটা": 6402,
      "করিড": 6403,
      "ক্রোধ": 6404,
      "চকিতে": 6405,
      "চুম্বন": 6406,
      "উদ্দেশে": 6407,
      "বিন্দ": 6408,
      "##পতি": 6409,
      "##থর": 6410,
      "##ানায়": 6411,
      "স্বে": 6412,
      "পড়লেন": 6413,
      "অতির": 6414,
      "অনিবার্য": 6415,
      "##টন": 6416,
      "##াবহ": 6417,
      "##রাশ": 6418,
      "##প্রাণ": 6419,
      "জীবনকে": 6420,
      "পিঠে": 6421,
      "আক্রম": 6422,
      "মৃ": 6423,
      "লড়াই": 6424,
      "হও": 6425,
      "আমারই": 6426,
      "ছুঁড়ে": 6427,
      "নিশ্চিন্ত": 6428,
      "ব্যাখ্যা": 6429,
      "ক্ষুধার": 6430,
      "বিচ্ছেদের": 6431,
      "এলাম": 6432,
      "লাজ": 6433,
      "##ar": 6434,
      "##াগার": 6435,
      "চেনে": 6436,
      "নিঃস": 6437,
      "রোব": 6438,
      "তেজ": 6439,
      "হিসেব": 6440,
      "ঐতিহাসিক": 6441,
      "দার্শন": 6442,
      "##াধারণ": 6443,
      "ডাই": 6444,
      "বিক্ষ": 6445,
      "##িজ": 6446,
      "নিবে": 6447,
      "##ঙ্কের": 6448,
      "##কারি": 6449,
      "স্বপ্নগুলো": 6450,
      "হয়নি": 6451,
      "রাখবে": 6452,
      "কারণেই": 6453,
      "উৎসবের": 6454,
      "চেয়েও": 6455,
      "প্রকল্প": 6456,
      "কল্যাণ": 6457,
      "ইঁ": 6458,
      "পদ্ধ": 6459,
      "##লাল": 6460,
      "##বধ": 6461,
      "##ুরা": 6462,
      "নিপ": 6463,
      "হাসিম": 6464,
      "অসাম": 6465,
      "##গ্রহণ": 6466,
      "##ভাগে": 6467,
      "##চলিত": 6468,
      "প্রতিষ্ঠিত": 6469,
      "ঝাপসা": 6470,
      "সহমর্মিতা": 6471,
      "ফর": 6472,
      "বাপের": 6473,
      "বিদে": 6474,
      "পারিনি": 6475,
      "মোমব": 6476,
      "মিলনের": 6477,
      "খাবে": 6478,
      "রুপ": 6479,
      "##কতা": 6480,
      "##মেন্ট": 6481,
      "বুনে": 6482,
      "##জনক": 6483,
      "গ্রী": 6484,
      "শিখা": 6485,
      "অভিন": 6486,
      "চাইছে": 6487,
      "লাঠি": 6488,
      "শহুরে": 6489,
      "সারাদ": 6490,
      "সবকিছুই": 6491,
      "নজরুল": 6492,
      "##্রিক": 6493,
      "##ড়িতে": 6494,
      "হিংস": 6495,
      "পরীক্ষার": 6496,
      "ব্রাহ্মণের": 6497,
      "যথ": 6498,
      "##োষ": 6499,
      "##করণ": 6500,
      "সমর্থ": 6501,
      "বেড়ায়": 6502,
      "##ত্তর": 6503,
      "হেঁ": 6504,
      "ঘুমিয়ে": 6505,
      "অতিথি": 6506,
      "করুণা": 6507,
      "যেটা": 6508,
      "দেখাতে": 6509,
      "##াহত": 6510,
      "ধরেই": 6511,
      "ধরেছে": 6512,
      "মিশ্রণ": 6513,
      "এঁকে": 6514,
      "সাঁতার": 6515,
      "বিনিম": 6516,
      "ঘৃ": 6517,
      "তির": 6518,
      "ধূল": 6519,
      "পনের": 6520,
      "হুঁ": 6521,
      "##মহ": 6522,
      "##ধর": 6523,
      "##াসরি": 6524,
      "মুচ": 6525,
      "প্রতিষ্ঠা": 6526,
      "##ণ্ডের": 6527,
      "স্নান": 6528,
      "চক্র": 6529,
      "দিগন্তে": 6530,
      "ঘাটে": 6531,
      "##শিক্ষ": 6532,
      "##ঠাক": 6533,
      "সেবা": 6534,
      "কিভাবে": 6535,
      "কিছুদিন": 6536,
      "ব্যবসা": 6537,
      "ফোটা": 6538,
      "স্রোতের": 6539,
      "চুম্ব": 6540,
      "আন্ত": 6541,
      "চুলের": 6542,
      "শ্রম": 6543,
      "সাল": 6544,
      "##লক": 6545,
      "##শায়": 6546,
      "##it": 6547,
      "##লেক": 6548,
      "##ড়িত": 6549,
      "ব্যাস": 6550,
      "নিজেরই": 6551,
      "উত্তরে": 6552,
      "শোভা": 6553,
      "বিকাশ": 6554,
      "ইশ": 6555,
      "##বাদের": 6556,
      "##বরের": 6557,
      "##য়ান": 6558,
      "কাঁচা": 6559,
      "স্থাপন": 6560,
      "অফ": 6561,
      "ইনি": 6562,
      "ওদিকে": 6563,
      "কণ": 6564,
      "বারে": 6565,
      "##ভোগ": 6566,
      "বাসা": 6567,
      "##ঙ্গের": 6568,
      "ফিরতে": 6569,
      "ভেতরের": 6570,
      "অফিসের": 6571,
      "শাড়ি": 6572,
      "##খার": 6573,
      "পরিপূর্ণ": 6574,
      "সরাসরি": 6575,
      "বৈচিত্র্য": 6576,
      "সংস্কার": 6577,
      "পাখিদের": 6578,
      "উদ্ধার": 6579,
      "তথা": 6580,
      "বজ": 6581,
      "##ব্যের": 6582,
      "##পটে": 6583,
      "##ংকর": 6584,
      "ব্যথার": 6585,
      "##ূল্য": 6586,
      "অচেতন": 6587,
      "ফাঁকি": 6588,
      "আবছা": 6589,
      "প্রাচীর": 6590,
      "বাচ্চা": 6591,
      "কাব": 6592,
      "মস্ত": 6593,
      "রও": 6594,
      "সদ্য": 6595,
      "সন্ত্র": 6596,
      "##িমের": 6597,
      "হাঁটা": 6598,
      "কৃষি": 6599,
      "অভ্যাস": 6600,
      "##জুড়ে": 6601,
      "ড্রাই": 6602,
      "কর্তব্য": 6603,
      "বিচ্ছিন্ন": 6604,
      "চাচা": 6605,
      "প্যাকেট": 6606,
      "কান্তি": 6607,
      "জোন": 6608,
      "জলা": 6609,
      "তুম": 6610,
      "##্কের": 6611,
      "##al": 6612,
      "বাড়িয়ে": 6613,
      "আরজুন": 6614,
      "আবদ্ধ": 6615,
      "কন্য": 6616,
      "ঘাস": 6617,
      "নূর": 6618,
      "##ঙের": 6619,
      "পরদিন": 6620,
      "আলোকে": 6621,
      "নেচে": 6622,
      "গেলেও": 6623,
      "লিখি": 6624,
      "আঙুলের": 6625,
      "মরু": 6626,
      "অস্বাভাবিক": 6627,
      "নক্ষত্রের": 6628,
      "ভগবান": 6629,
      "ইন্দ": 6630,
      "চায়ের": 6631,
      "##ূলি": 6632,
      "##থমিক": 6633,
      "কাশ": 6634,
      "শিউ": 6635,
      "স্তম্ভ": 6636,
      "##ষ্ণু": 6637,
      "আকুল": 6638,
      "নৌকো": 6639,
      "অশোক": 6640,
      "গঙ্গাচ": 6641,
      "দেশপ্রেম": 6642,
      "গোপনে": 6643,
      "অর্ণ": 6644,
      "টিকি": 6645,
      "##বনে": 6646,
      "সুতো": 6647,
      "চেহার": 6648,
      "সাথ": 6649,
      "উপাদ": 6650,
      "পাঠকের": 6651,
      "সর্বদা": 6652,
      "গর্ভ": 6653,
      "দৌড়ে": 6654,
      "প্রচুর": 6655,
      "অভিমান": 6656,
      "অহংকার": 6657,
      "দেয়ালে": 6658,
      "মুক্তিযুদ্ধের": 6659,
      "সন্ন্য": 6660,
      "অফিসে": 6661,
      "আড়": 6662,
      "আচার": 6663,
      "##বিন্দু": 6664,
      "##শ্মি": 6665,
      "করেছিলাম": 6666,
      "দেখব": 6667,
      "চৌধুর": 6668,
      "প্রাথমিক": 6669,
      "গবেষণ": 6670,
      "অসহায়": 6671,
      "শ্রদ্ধা": 6672,
      "ইসলাম": 6673,
      "অতিরিক্ত": 6674,
      "কুমার": 6675,
      "##সই": 6676,
      "##্বের": 6677,
      "আপত্তি": 6678,
      "মিলিত": 6679,
      "রোদে": 6680,
      "জননী": 6681,
      "যাত্রার": 6682,
      "পুলিশের": 6683,
      "কলেজের": 6684,
      "বক্তব্য": 6685,
      "নিরাপদ": 6686,
      "গাড়ির": 6687,
      "ঝুলে": 6688,
      "ঠাঁই": 6689,
      "##নন্দ": 6690,
      "সুদূর": 6691,
      "তুমিই": 6692,
      "এগো": 6693,
      "ভাসছে": 6694,
      "গর্ভে": 6695,
      "জানালেন": 6696,
      "গহ্ব": 6697,
      "দুজনেই": 6698,
      "##শয়": 6699,
      "আমন্ত্রণ": 6700,
      "##রেখা": 6701,
      "বসেছে": 6702,
      "ভূমি": 6703,
      "গ্রীষ্": 6704,
      "##ূঢ়": 6705,
      "খুলতে": 6706,
      "জগৎ": 6707,
      "ঝাঁকুনি": 6708,
      "আস্থা": 6709,
      "কুম": 6710,
      "চক্ষ": 6711,
      "বপন": 6712,
      "করিনি": 6713,
      "মহাম": 6714,
      "বড়ো": 6715,
      "পুষ্প": 6716,
      "অ্যাল": 6717,
      "প্রস্তুতি": 6718,
      "অনিশ্চ": 6719,
      "ভারতবর্ষ": 6720,
      "বসন্তের": 6721,
      "মাইক্রো": 6722,
      "অঞ্জ": 6723,
      "নরে": 6724,
      "পুণ": 6725,
      "##কদের": 6726,
      "##or": 6727,
      "##ুনের": 6728,
      "দেখিনি": 6729,
      "##কাঠ": 6730,
      "পথচ": 6731,
      "বুঝিয়ে": 6732,
      "হতাশার": 6733,
      "এখানকার": 6734,
      "প্রচেষ্টা": 6735,
      "পঁ": 6736,
      "ভয়ে": 6737,
      "মাসে": 6738,
      "##দাস": 6739,
      "##য়ারে": 6740,
      "##বংশের": 6741,
      "নেট": 6742,
      "রেখেছিল": 6743,
      "পরেও": 6744,
      "দ্রোণ": 6745,
      "পলাশ": 6746,
      "গুল": 6747,
      "পদে": 6748,
      "সান্ত": 6749,
      "বলত": 6750,
      "##ছিস": 6751,
      "হয়ত": 6752,
      "সংঘ": 6753,
      "পেট": 6754,
      "এতক্ষণ": 6755,
      "পর্দা": 6756,
      "খণ্ড": 6757,
      "চড়": 6758,
      "##ক্য": 6759,
      "মেখে": 6760,
      "নির্ধার": 6761,
      "তখনো": 6762,
      "তামা": 6763,
      "সেরে": 6764,
      "##চির": 6765,
      "##ৃশ": 6766,
      "অবদান": 6767,
      "লুকো": 6768,
      "গৌর": 6769,
      "বৃহস্প": 6770,
      "দখল": 6771,
      "ধাত": 6772,
      "বিনা": 6773,
      "হওয়ার": 6774,
      "##টিভ": 6775,
      "দাঁড়া": 6776,
      "শীতের": 6777,
      "ঘটেছে": 6778,
      "নিস্তব্ধতা": 6779,
      "বন্য": 6780,
      "মস্তি": 6781,
      "রুক্ষ": 6782,
      "প্রফুল্ল": 6783,
      "সুগন্ধ": 6784,
      "##িসের": 6785,
      "ডাকছে": 6786,
      "লিপ": 6787,
      "বিশ্বের": 6788,
      "আঁচড়": 6789,
      "পানিতে": 6790,
      "উন্নয়ন": 6791,
      "শুক্রা": 6792,
      "জ্বালিয়ে": 6793,
      "জ্যোৎস্না": 6794,
      "ঝিলিক": 6795,
      "##াসু": 6796,
      "মিঃ": 6797,
      "মধ্যরাতে": 6798,
      "##ক্ষেত্রে": 6799,
      "পেছনের": 6800,
      "দোকানের": 6801,
      "কাহিনি": 6802,
      "জিগ": 6803,
      "বাংলাদেশের": 6804,
      "ঝকঝ": 6805,
      "পদ্ধতি": 6806,
      "রিমা": 6807,
      "##ষৎ": 6808,
      "##ফির": 6809,
      "##টিই": 6810,
      "##ায়ী": 6811,
      "##াবা": 6812,
      "পাঞ্জ": 6813,
      "তোলার": 6814,
      "বেড়": 6815,
      "মানুষদের": 6816,
      "ভারি": 6817,
      "কাঁপছে": 6818,
      "অশ্রুজ": 6819,
      "##মন্ত": 6820,
      "##বেসে": 6821,
      "এক্ষ": 6822,
      "##াবল": 6823,
      "মুশ": 6824,
      "কোকিল": 6825,
      "আজকে": 6826,
      "জাগায়": 6827,
      "অভিশাপ": 6828,
      "নিমেষে": 6829,
      "##কু": 6830,
      "আর্থ": 6831,
      "##চ্ছেদ্য": 6832,
      "রাশি": 6833,
      "পুরস্কার": 6834,
      "ফিরি": 6835,
      "প্রথমত": 6836,
      "আগুনে": 6837,
      "পিঁ": 6838,
      "##পুরি": 6839,
      "##নীয়": 6840,
      "কষ্টের": 6841,
      "সুবিধা": 6842,
      "সংসারের": 6843,
      "অগণ": 6844,
      "ক্লা": 6845,
      "যো": 6846,
      "##বাড়ির": 6847,
      "##কির": 6848,
      "কীট": 6849,
      "মনেই": 6850,
      "হলুদ": 6851,
      "লাগিয়ে": 6852,
      "পালিয়ে": 6853,
      "আবহ": 6854,
      "ব্যাপক": 6855,
      "পরিচয়": 6856,
      "কিছুর": 6857,
      "ছেঁড়া": 6858,
      "দুর্গাপ": 6859,
      "গুম": 6860,
      "ঝি": 6861,
      "##য্য": 6862,
      "পাঞ্চ": 6863,
      "মাখা": 6864,
      "গাইতে": 6865,
      "দ্বিধা": 6866,
      "কটা": 6867,
      "পলি": 6868,
      "ফসল": 6869,
      "যমুন": 6870,
      "##কথ": 6871,
      "##কারে": 6872,
      "হাতছ": 6873,
      "কাঁদে": 6874,
      "কোনওদিন": 6875,
      "হঠাৎই": 6876,
      "প্রাণী": 6877,
      "পারেননি": 6878,
      "ইউনি": 6879,
      "গোধূলি": 6880,
      "কাদ": 6881,
      "ছাঁ": 6882,
      "তুলি": 6883,
      "শর্ম": 6884,
      "বেছে": 6885,
      "##স্‌": 6886,
      "ভাসিয়ে": 6887,
      "অবিশ্য": 6888,
      "বৃষ্টিতে": 6889,
      "ঢুকল": 6890,
      "শিশুদের": 6891,
      "ছাড়": 6892,
      "জন্মের": 6893,
      "দৃষ্ট": 6894,
      "১২": 6895,
      "##সাই": 6896,
      "কোম": 6897,
      "মনটা": 6898,
      "ক্ষমা": 6899,
      "বুঝলেন": 6900,
      "##গ্রস্ত": 6901,
      "সর্বত্র": 6902,
      "অবিচ্ছেদ্য": 6903,
      "সম্মিল": 6904,
      "প্রতিনি": 6905,
      "সভ্যতার": 6906,
      "তাকালেন": 6907,
      "অবিশ্যি": 6908,
      "উড়িয়ে": 6909,
      "গণ্ড": 6910,
      "##চনায়": 6911,
      "এক্স": 6912,
      "##চ্ছিলেন": 6913,
      "##বারেই": 6914,
      "আবারও": 6915,
      "ঢেউয়ের": 6916,
      "পাণ্ডু": 6917,
      "বটগাছের": 6918,
      "উচ্ছ্বাস": 6919,
      "প্রতিফলিত": 6920,
      "ক্রি": 6921,
      "মিত্র": 6922,
      "##তাই": 6923,
      "##িয়ার": 6924,
      "##সায়": 6925,
      "##েলার": 6926,
      "বাস্তবে": 6927,
      "শাস্তি": 6928,
      "বিদ্রোহী": 6929,
      "বধ": 6930,
      "যয": 6931,
      "##হাত": 6932,
      "##হারে": 6933,
      "##es": 6934,
      "##াতিক": 6935,
      "নিশ": 6936,
      "নিদ্র": 6937,
      "##ঙ্গা": 6938,
      "উঠোনে": 6939,
      "সাড়ে": 6940,
      "##টারি": 6941,
      "##াধিক": 6942,
      "চাইলে": 6943,
      "পিঠ": 6944,
      "হাঁটু": 6945,
      "জুতো": 6946,
      "বনহুর": 6947,
      "সত্তা": 6948,
      "বারান্দার": 6949,
      "দক্ষতা": 6950,
      "নাদিয়া": 6951,
      "গুন": 6952,
      "মাসের": 6953,
      "##রতা": 6954,
      "##ঘা": 6955,
      "##সাদ": 6956,
      "জীববৈ": 6957,
      "উপা": 6958,
      "নিঃশেষ": 6959,
      "দুঃস্বপ্ন": 6960,
      "অর্জুনকে": 6961,
      "বন্দী": 6962,
      "নিষ্প": 6963,
      "মল্ল": 6964,
      "ঝর্ণার": 6965,
      "ঈষৎ": 6966,
      "তাজা": 6967,
      "পুল": 6968,
      "##যত": 6969,
      "##কুমার": 6970,
      "##ঝুম": 6971,
      "বিম": 6972,
      "বন্ধনে": 6973,
      "অন্যরকম": 6974,
      "ভিডিও": 6975,
      "বিকশিত": 6976,
      "যৌবন": 6977,
      "চাদর": 6978,
      "আজ্ঞে": 6979,
      "ময়": 6980,
      "##দির": 6981,
      "##সময়": 6982,
      "##পান": 6983,
      "##প্তি": 6984,
      "##is": 6985,
      "প্রতিজ্ঞ": 6986,
      "বললুম": 6987,
      "নিরী": 6988,
      "জন্যেই": 6989,
      "##ার্ড": 6990,
      "তিনজন": 6991,
      "বিপন্ন": 6992,
      "বাসায়": 6993,
      "থামে": 6994,
      "খাঁটি": 6995,
      "খ্রিস্ট": 6996,
      "গড়া": 6997,
      "##বুক": 6998,
      "##িন্ট": 6999,
      "বাদে": 7000,
      "কোন্‌": 7001,
      "উঠি": 7002,
      "সামগ্র": 7003,
      "হাঁস": 7004,
      "চাষ": 7005,
      "কয়েকটি": 7006,
      "মিথ্যার": 7007,
      "সম্ভবত": 7008,
      "স্বরূপ": 7009,
      "বিবর্ণ": 7010,
      "মুকুট": 7011,
      "দিব্যি": 7012,
      "দার্শনিক": 7013,
      "আড়াল": 7014,
      "ঝো": 7015,
      "থম": 7016,
      "রফিক": 7017,
      "##বক": 7018,
      "##শিল": 7019,
      "##ুগ": 7020,
      "নেব": 7021,
      "সরো": 7022,
      "##স্থার": 7023,
      "ভাবনার": 7024,
      "##হার্য": 7025,
      "মমতা": 7026,
      "ধানক্ষে": 7027,
      "ঝন্টুমামা": 7028,
      "লাজুক": 7029,
      "পী": 7030,
      "##সভ": 7031,
      "বিস্ফ": 7032,
      "##াহার": 7033,
      "নামতে": 7034,
      "সন্ধানে": 7035,
      "বারান্দায়": 7036,
      "কফি": 7037,
      "টানা": 7038,
      "মামা": 7039,
      "রথ": 7040,
      "রিক": 7041,
      "সের": 7042,
      "দেওয়": 7043,
      "অস্বীকার": 7044,
      "ছট": 7045,
      "ঢের": 7046,
      "সাদ": 7047,
      "সুমি": 7048,
      "গালে": 7049,
      "রাজনীতি": 7050,
      "##ঙ্কো": 7051,
      "মাত্রা": 7052,
      "উন্মাদ": 7053,
      "মহাভারত": 7054,
      "মাধুর্য": 7055,
      "পৃষ্ঠ": 7056,
      "ধানের": 7057,
      "মৎস": 7058,
      "##রাত": 7059,
      "##তারা": 7060,
      "ছেলেটি": 7061,
      "তুলবে": 7062,
      "চমক": 7063,
      "বুনো": 7064,
      "ফ্ল্যাশ": 7065,
      "আপাতত": 7066,
      "সিনে": 7067,
      "##াণে": 7068,
      "##কীর": 7069,
      "করলেও": 7070,
      "##ায়া": 7071,
      "অনিক": 7072,
      "মিটিং": 7073,
      "##ঞ্জে": 7074,
      "কেউই": 7075,
      "পর্যবে": 7076,
      "হাওয়ার": 7077,
      "বীরের": 7078,
      "অনুপ্রেরণা": 7079,
      "চিল": 7080,
      "প্লে": 7081,
      "##জরে": 7082,
      "সেও": 7083,
      "শিষ্য": 7084,
      "অসাধারণ": 7085,
      "আসেনি": 7086,
      "চাইলেন": 7087,
      "লালিত": 7088,
      "##মুখী": 7089,
      "##র্ধন": 7090,
      "##ভূমিতে": 7091,
      "ওপারে": 7092,
      "ফার": 7093,
      "##হত": 7094,
      "নিলে": 7095,
      "রেক": 7096,
      "নেশা": 7097,
      "ছোটো": 7098,
      "বন্ধুরা": 7099,
      "অস্থিরতা": 7100,
      "শুভ্র": 7101,
      "অব্যক্ত": 7102,
      "তলায়": 7103,
      "ফাই": 7104,
      "বিত": 7105,
      "রয়ে": 7106,
      "লক্ষণ": 7107,
      "##দন্ত": 7108,
      "##টর": 7109,
      "প্রতির": 7110,
      "পাড়ার": 7111,
      "কোম্প": 7112,
      "##বাচক": 7113,
      "##দেবের": 7114,
      "লাগানো": 7115,
      "বৈশাখ": 7116,
      "পাথরে": 7117,
      "উৎক": 7118,
      "লাফিয়ে": 7119,
      "ফাটল": 7120,
      "কন্": 7121,
      "ঢলে": 7122,
      "##লাপ": 7123,
      "##তরে": 7124,
      "##সো": 7125,
      "##পাতা": 7126,
      "##ীমা": 7127,
      "ভাইয়ের": 7128,
      "উদ্ভাসিত": 7129,
      "দ্বিতীয়": 7130,
      "বিধাতা": 7131,
      "ট্রেনের": 7132,
      "গঙ্গার": 7133,
      "পাহাড়ের": 7134,
      "গড়": 7135,
      "দাল": 7136,
      "##ীর্ব": 7137,
      "আমিই": 7138,
      "বেহ": 7139,
      "সংখ্যা": 7140,
      "অনেকক্ষণ": 7141,
      "দুর্ভ": 7142,
      "আঙুলে": 7143,
      "ছেঁড়া": 7144,
      "আদিম": 7145,
      "অগো": 7146,
      "ছড়": 7147,
      "ফিকে": 7148,
      "রিম": 7149,
      "২০০": 7150,
      "##নাকে": 7151,
      "একখানা": 7152,
      "বাউল": 7153,
      "যেসব": 7154,
      "তারও": 7155,
      "দিশা": 7156,
      "দেবো": 7157,
      "##ৈতন্য": 7158,
      "অচল": 7159,
      "কপাল": 7160,
      "গড়িয়ে": 7161,
      "তেল": 7162,
      "বঞ্চিত": 7163,
      "হওয়া": 7164,
      "##বায়": 7165,
      "##ফর": 7166,
      "##ed": 7167,
      "উঠছিল": 7168,
      "আশীর্ব": 7169,
      "বসতে": 7170,
      "বাসনা": 7171,
      "বোনের": 7172,
      "ক্যামেরা": 7173,
      "হ্রাস": 7174,
      "ইঞ্জ": 7175,
      "চড়ে": 7176,
      "ঝাম": 7177,
      "পাদ": 7178,
      "শী": 7179,
      "হৈ": 7180,
      "##রার": 7181,
      "##োয়া": 7182,
      "##মনে": 7183,
      "##খের": 7184,
      "##ৃতা": 7185,
      "##বিহীন": 7186,
      "আসেন": 7187,
      "এবারে": 7188,
      "চুমুক": 7189,
      "অরণ্যের": 7190,
      "ইংরেজি": 7191,
      "মুশকিল": 7192,
      "ছড়া": 7193,
      "ধ্র": 7194,
      "##িয়া": 7195,
      "##্বলে": 7196,
      "##বেল": 7197,
      "##্যাং": 7198,
      "##দীপ্ত": 7199,
      "পৌরা": 7200,
      "আহা": 7201,
      "নৌক": 7202,
      "সেতুবন্ধন": 7203,
      "বিপ্লব": 7204,
      "দৈনন্দ": 7205,
      "পরামর্শ": 7206,
      "আবু": 7207,
      "##জ্য": 7208,
      "অনুক": 7209,
      "অনাবিল": 7210,
      "##স্তা": 7211,
      "পাতলা": 7212,
      "আতঙ্ক": 7213,
      "ক্রমে": 7214,
      "মাইল": 7215,
      "ভালবাসা": 7216,
      "কুয়াশা": 7217,
      "##শিল্প": 7218,
      "দৈনন্দিন": 7219,
      "পালা": 7220,
      "##রাই": 7221,
      "পাবেন": 7222,
      "পরশ": 7223,
      "দেখায়": 7224,
      "মাহ": 7225,
      "##ুত্ত": 7226,
      "রাখো": 7227,
      "দূষণের": 7228,
      "বোঝাতে": 7229,
      "অপরিহার্য": 7230,
      "সপ্তাহ": 7231,
      "অসুবিধে": 7232,
      "ঝোপ": 7233,
      "রতন": 7234,
      "##বারিক": 7235,
      "##টেক": 7236,
      "দিকেই": 7237,
      "##গ্রহ": 7238,
      "বসা": 7239,
      "গাছপালা": 7240,
      "বিশ্বে": 7241,
      "ক্যামের": 7242,
      "দক্ষিণ": 7243,
      "সৃজনশীল": 7244,
      "ঝগড়া": 7245,
      "গায়ের": 7246,
      "ডক্টর": 7247,
      "মধ": 7248,
      "##ূন্য": 7249,
      "##সিত": 7250,
      "##সম্প": 7251,
      "##গির": 7252,
      "##কশ": 7253,
      "##সেন": 7254,
      "শিহর": 7255,
      "##ভেদ": 7256,
      "রহস্যময়": 7257,
      "পাখিরা": 7258,
      "ভদ্রলোকের": 7259,
      "শ্বাসে": 7260,
      "শ্বশুর": 7261,
      "খাচ্ছে": 7262,
      "অনুমান": 7263,
      "উৎপাদন": 7264,
      "##গুলির": 7265,
      "তিতির": 7266,
      "আছো": 7267,
      "দিব": 7268,
      "পুরূর": 7269,
      "গ্রামবাস": 7270,
      "দ্রুপ": 7271,
      "একেবারেই": 7272,
      "##ভাষা": 7273,
      "পালক": 7274,
      "খেলায়": 7275,
      "আহত": 7276,
      "##ডিং": 7277,
      "রইলেন": 7278,
      "বালক": 7279,
      "প্রয়োগ": 7280,
      "##যাত্রার": 7281,
      "আলিঙ্গনে": 7282,
      "নিতান্ত": 7283,
      "রকমের": 7284,
      "জিগ্যেস": 7285,
      "কানের": 7286,
      "গ্য": 7287,
      "ট্যাক": 7288,
      "##চরে": 7289,
      "প্রতার": 7290,
      "এসেছিলেন": 7291,
      "মহাস": 7292,
      "কল্কে": 7293,
      "ছেলেকে": 7294,
      "অপার": 7295,
      "অধ্যায়ের": 7296,
      "টিকে": 7297,
      "পূর্বে": 7298,
      "হাজারো": 7299,
      "চাকর": 7300,
      "ছুটতে": 7301,
      "কথাবার্তা": 7302,
      "ভগ্ন": 7303,
      "ল্যাম্প": 7304,
      "##ছল": 7305,
      "##ধানে": 7306,
      "আরাম": 7307,
      "রাজ্যের": 7308,
      "পড়ছিল": 7309,
      "অন্যদের": 7310,
      "যতক্ষণ": 7311,
      "ঢেউয়ের": 7312,
      "ভাসতে": 7313,
      "পেয়েছি": 7314,
      "বাস্তবের": 7315,
      "আরেকটি": 7316,
      "মাতাল": 7317,
      "মৌলিক": 7318,
      "চতুর্দিকে": 7319,
      "সারাদিন": 7320,
      "।…": 7321,
      "নু": 7322,
      "বজায়": 7323,
      "সদান": 7324,
      "”—": 7325,
      "##মত": 7326,
      "এইভাবে": 7327,
      "ঘুমন্ত": 7328,
      "লাইব": 7329,
      "অর্থনৈতিক": 7330,
      "ঝুঁকি": 7331,
      "হাসিমুখে": 7332,
      "চিত": 7333,
      "দলের": 7334,
      "ভার্": 7335,
      "##চুরি": 7336,
      "##মিল": 7337,
      "যেতেই": 7338,
      "পাখা": 7339,
      "স্বল্প": 7340,
      "আসুক": 7341,
      "মোড়": 7342,
      "পাণ্ডুর": 7343,
      "বিশেষত": 7344,
      "সরকারের": 7345,
      "মূল্যবোধের": 7346,
      "##ভঙ্গি": 7347,
      "তাগ": 7348,
      "রব": 7349,
      "লতা": 7350,
      "হব": 7351,
      "##ায়িত": 7352,
      "##টিশ": 7353,
      "অনব": 7354,
      "দিয়েছি": 7355,
      "বাঁকা": 7356,
      "গাথা": 7357,
      "দেখেছেন": 7358,
      "সহায়": 7359,
      "লোকজন": 7360,
      "পারিবারিক": 7361,
      "বাড়িতে": 7362,
      "জগতের": 7363,
      "নাচতে": 7364,
      "কাঁদতে": 7365,
      "অগণিত": 7366,
      "লাইব্রের": 7367,
      "উপে": 7368,
      "কূ": 7369,
      "খস": 7370,
      "ছাদের": 7371,
      "পানে": 7372,
      "বরণ": 7373,
      "হায়": 7374,
      "##ফার": 7375,
      "##ড়াল": 7376,
      "একাত্ম": 7377,
      "পরিত্য": 7378,
      "এইরকম": 7379,
      "বুজে": 7380,
      "##ার্জি": 7381,
      "অনেকের": 7382,
      "বিষয়": 7383,
      "যতটা": 7384,
      "বদল": 7385,
      "পত্ন": 7386,
      "গলিতে": 7387,
      "নন্দিনী": 7388,
      "উপন্যাস": 7389,
      "চিঠির": 7390,
      "সম্মিলিত": 7391,
      "দই": 7392,
      "##্গ": 7393,
      "##পনা": 7394,
      "সমালো": 7395,
      "##ান্তরিত": 7396,
      "নির্বি": 7397,
      "দ্রৌপদীকে": 7398,
      "প্রসঙ্গে": 7399,
      "পড়াশোনা": 7400,
      "গড়ি": 7401,
      "নগ্ন": 7402,
      "ভীত": 7403,
      "যথা": 7404,
      "##শয়": 7405,
      "##্বার": 7406,
      "পাড়ে": 7407,
      "অমনি": 7408,
      "আত্মীয়": 7409,
      "সম্পদ": 7410,
      "উন্নয়ন": 7411,
      "পুরোপুরি": 7412,
      "কল্পনার": 7413,
      "নির্দিষ্ট": 7414,
      "বিজয়": 7415,
      "বংশের": 7416,
      "ভব": 7417,
      "সান": 7418,
      "##াসনে": 7419,
      "##াদ্দ": 7420,
      "বলর": 7421,
      "##রাও": 7422,
      "পেঁ": 7423,
      "যাচ্ছেন": 7424,
      "কৌশল": 7425,
      "বিলীন": 7426,
      "বড়ো": 7427,
      "আরেকবার": 7428,
      "হরিণ": 7429,
      "পিতৃ": 7430,
      "ভিক্ষ": 7431,
      "রাক্ষ": 7432,
      "##্জ": 7433,
      "##রূপ": 7434,
      "দেড়": 7435,
      "##াবন": 7436,
      "দিঘ": 7437,
      "কাচের": 7438,
      "বারণ": 7439,
      "গিয়েছিলেন": 7440,
      "##জীবী": 7441,
      "সাহিত্যিক": 7442,
      "বাঁচিয়ে": 7443,
      "ঐতিহ্যের": 7444,
      "গরু": 7445,
      "আন্দোলনের": 7446,
      "উষ্ণতা": 7447,
      "বাবাকে": 7448,
      "গঙ্গাচরণ": 7449,
      "এদিক": 7450,
      "ম্যা": 7451,
      "শ্য": 7452,
      "##টান": 7453,
      "##ামাত্র": 7454,
      "খুঁজি": 7455,
      "##ষ্ঠীর": 7456,
      "গল্পে": 7457,
      "ছেলেটা": 7458,
      "ফাঁস": 7459,
      "তরুণী": 7460,
      "পুনর্ব": 7461,
      "সাফল্য": 7462,
      "চশমা": 7463,
      "হীর": 7464,
      "হোট": 7465,
      "হাউ": 7466,
      "হত্যা": 7467,
      "##দাম": 7468,
      "##য়ত": 7469,
      "##স্তক": 7470,
      "অবিন": 7471,
      "##্টার": 7472,
      "##াওয়া": 7473,
      "অসুর": 7474,
      "প্রেমে": 7475,
      "অনন্তের": 7476,
      "সীমাহীন": 7477,
      "চকচকে": 7478,
      "কয়েকটি": 7479,
      "বিন্দুমাত্র": 7480,
      "হিংস্র": 7481,
      "টিকিট": 7482,
      "উপাদান": 7483,
      "ভৌ": 7484,
      "”-": 7485,
      "##িদ্র": 7486,
      "##াপী": 7487,
      "পারতেন": 7488,
      "দুষ্ট": 7489,
      "##ুষে": 7490,
      "প্রথমবার": 7491,
      "ফেললেন": 7492,
      "ফিসফিসানি": 7493,
      "খুলতেই": 7494,
      "গতকাল": 7495,
      "১৯৭": 7496,
      "কুঁচকে": 7497,
      "উপস্থিতি": 7498,
      "অনুসরণ": 7499,
      "##স্ফুট": 7500,
      "মিসির": 7501,
      "আন্তরিক": 7502,
      "আক্রমণ": 7503,
      "গায়": 7504,
      "হাম": 7505,
      "##োরা": 7506,
      "##গামী": 7507,
      "করুক": 7508,
      "নিঝুম": 7509,
      "##ষ্টে": 7510,
      "পারছেন": 7511,
      "##োক্ত": 7512,
      "তাৎ": 7513,
      "##পুরে": 7514,
      "ছেলেদের": 7515,
      "##সিং": 7516,
      "উদ্দীপ": 7517,
      "দাদার": 7518,
      "প্লাস্টিকের": 7519,
      "দরি": 7520,
      "মড": 7521,
      "সই": 7522,
      "##ঘন": 7523,
      "##জাবে": 7524,
      "##গায়": 7525,
      "##ন্টু": 7526,
      "##োনি": 7527,
      "সুত": 7528,
      "অমাব": 7529,
      "##টারের": 7530,
      "পাতাগুলো": 7531,
      "##্যেষ্ঠ": 7532,
      "শুনলে": 7533,
      "চারপাশের": 7534,
      "ততই": 7535,
      "##বান্ধব": 7536,
      "ঘুরিয়ে": 7537,
      "সাবধান": 7538,
      "শিশুরা": 7539,
      "মেয়েরা": 7540,
      "কৃতজ্ঞ": 7541,
      "সূর্যাস্তের": 7542,
      "ইত": 7543,
      "ইলেক": 7544,
      "গুলি": 7545,
      "মজার": 7546,
      "সর্": 7547,
      "##ষার": 7548,
      "##ou": 7549,
      "মানচিত্র": 7550,
      "##্লিশ": 7551,
      "##িসীম": 7552,
      "গান্ধার": 7553,
      "রোদ্দ": 7554,
      "উল্টে": 7555,
      "অভিজ্ঞতার": 7556,
      "##হীনে": 7557,
      "শেখার": 7558,
      "কৃষক": 7559,
      "টেলিফোন": 7560,
      "সান্ত্ব": 7561,
      "ডায়ের": 7562,
      "##মুক্ত": 7563,
      "একক": 7564,
      "পাড়": 7565,
      "স্বস্তি": 7566,
      "##াগ্র": 7567,
      "##বংশ": 7568,
      "আসব": 7569,
      "স্লো": 7570,
      "রেখেছি": 7571,
      "সার্ভ": 7572,
      "মেয়েটা": 7573,
      "বোঝার": 7574,
      "কথোপ": 7575,
      "যোগ্য": 7576,
      "ঝলসে": 7577,
      "শাঙ্কো": 7578,
      "ভীষ্মের": 7579,
      "শ্যামল": 7580,
      "চারিদিকে": 7581,
      "মনি": 7582,
      "১০": 7583,
      "দেহে": 7584,
      "##ান্ত্রিক": 7585,
      "এতই": 7586,
      "পাঠ্য": 7587,
      "ফেলি": 7588,
      "অধ্যাপ": 7589,
      "সিগন্য": 7590,
      "ইতিমধ্যে": 7591,
      "ধৃতরাষ্ট্রের": 7592,
      "কথোপকথ": 7593,
      "ভক্ত": 7594,
      "সন": 7595,
      "বেড়াতে": 7596,
      "কারুর": 7597,
      "সহসা": 7598,
      "বিদায়": 7599,
      "লিখেছেন": 7600,
      "প্রান্তরে": 7601,
      "অফিসার": 7602,
      "ভোরবেলা": 7603,
      "কৃত্রিম": 7604,
      "বিষ্ণুপ": 7605,
      "গোধূল": 7606,
      "বজ্র": 7607,
      "ওসব": 7608,
      "কমি": 7609,
      "খবরের": 7610,
      "শাশ": 7611,
      "##দ্ম": 7612,
      "##ুরির": 7613,
      "##াবেন": 7614,
      "হাসলেন": 7615,
      "গাঢ়": 7616,
      "কতদিন": 7617,
      "ছুঁড়ে": 7618,
      "ভবিষ্যতে": 7619,
      "##র্ষি": 7620,
      "জ্বলজ্বলে": 7621,
      "নাড়ল": 7622,
      "রীতিমতো": 7623,
      "ঝকঝকে": 7624,
      "তাম": 7625,
      "দয়া": 7626,
      "পুজ": 7627,
      "ভাড়া": 7628,
      "##মী": 7629,
      "##খায়": 7630,
      "স্বাত": 7631,
      "জানার": 7632,
      "ভূতের": 7633,
      "অধিক": 7634,
      "রইলো": 7635,
      "গিয়েছে": 7636,
      "বিস্মিত": 7637,
      "এঁদের": 7638,
      "মিশিয়ে": 7639,
      "শিকল": 7640,
      "সমন্বিত": 7641,
      "##響響響響": 7642,
      "শারীর": 7643,
      "হাতছানি": 7644,
      ",’": 7645,
      "কড়া": 7646,
      "গদ্য": 7647,
      "গাড়িতে": 7648,
      "গহীনে": 7649,
      "##য়াই": 7650,
      "##র্চা": 7651,
      "সুধ": 7652,
      "গোয়ে": 7653,
      "##িক্ষণে": 7654,
      "ফাঁদ": 7655,
      "##ান্নার": 7656,
      "##্যবহার": 7657,
      "পূরণ": 7658,
      "##র্জাতিক": 7659,
      "দারিদ্র": 7660,
      "নোং": 7661,
      "বিজ্ঞানের": 7662,
      "আত্মপরিচয়": 7663,
      "ক্ষেত্রেই": 7664,
      "ইন্টারনে": 7665,
      "আং": 7666,
      "গন্তব্য": 7667,
      "বৎস": 7668,
      "সুক": 7669,
      "##ন্টের": 7670,
      "##স্থলে": 7671,
      "শব্দটি": 7672,
      "দেয়ালের": 7673,
      "রাত্ত": 7674,
      "রিপো": 7675,
      "গেলেই": 7676,
      "নিজেও": 7677,
      "পড়ছে": 7678,
      "সুখী": 7679,
      "শুকিয়ে": 7680,
      "মায়ার": 7681,
      "জ্ঞানের": 7682,
      "প্রকাশিত": 7683,
      "অস্বস্ত": 7684,
      "ঠাকুরের": 7685,
      "অবস্থান": 7686,
      "হতাশা": 7687,
      "তীর্থ": 7688,
      "ক্ষুধার্ত": 7689,
      "অনবদ্য": 7690,
      "ইট": 7691,
      "এন": 7692,
      "গহন": 7693,
      "ঘড়ি": 7694,
      "য়ে": 7695,
      "##ড়ন": 7696,
      "রাজ্যে": 7697,
      "বসবাস": 7698,
      "দেবী": 7699,
      "মেয়েকে": 7700,
      "বাজারের": 7701,
      "চেয়েছিল": 7702,
      "কয়েকটা": 7703,
      "কলেজে": 7704,
      "অনির্বাণ": 7705,
      "আন্তর্জাতিক": 7706,
      "পিঁপ": 7707,
      "কণা": 7708,
      "ছিন": 7709,
      "ধ্যান": 7710,
      "শার্ট": 7711,
      "সঞ্জ": 7712,
      "##পাতে": 7713,
      "##ন্টে": 7714,
      "##োনার": 7715,
      "অনিন্দ": 7716,
      "দিনগুলো": 7717,
      "আশায়": 7718,
      "##জিৎ": 7719,
      "টিউ": 7720,
      "রাস্তায়": 7721,
      "চুপি": 7722,
      "প্রজাপতি": 7723,
      "সৌন্দর": 7724,
      "মন্দিরের": 7725,
      "মূর্": 7726,
      "দুর্নীতি": 7727,
      "পনেরো": 7728,
      "ঘাসের": 7729,
      "##বন্ত": 7730,
      "করাই": 7731,
      "##াবলি": 7732,
      "পরিচ্ছন্ন": 7733,
      "মনস্ত": 7734,
      "উপভোগ": 7735,
      "শব্দহীন": 7736,
      "##মাধ্য": 7737,
      "আত্মত্য": 7738,
      "প্রশান্ত": 7739,
      "শোভ": 7740,
      "অ্যাপ": 7741,
      "যাঁর": 7742,
      "পলাশের": 7743,
      "গালাগ": 7744,
      "তুমুল": 7745,
      "উত": 7746,
      "জিনা": 7747,
      "নহ": 7748,
      "ভয়ের": 7749,
      "মোক": 7750,
      "##দৃষ্টি": 7751,
      "##ায়ে": 7752,
      "করছ": 7753,
      "করেছ": 7754,
      "সুব": 7755,
      "ধরার": 7756,
      "রিয়ার": 7757,
      "বিপদে": 7758,
      "ড্রোন": 7759,
      "এলিজাবে": 7760,
      "গহ্বরে": 7761,
      "মৎস্য": 7762,
      "পৌরাণিক": 7763,
      "গোয়েন্দ": 7764,
      "গজ": 7765,
      "ঘেরা": 7766,
      "পান্না": 7767,
      "ভুব": 7768,
      "হীরা": 7769,
      "##ণু": 7770,
      "##্কার": 7771,
      "করছিলেন": 7772,
      "একরাশ": 7773,
      "পর্বে": 7774,
      "কাজটা": 7775,
      "বোকা": 7776,
      "জীবনানন্দ": 7777,
      "নিজেকেই": 7778,
      "যানবাহ": 7779,
      "উচ্চারিত": 7780,
      "সম্পর্কের": 7781,
      "অসহায়": 7782,
      "প্রবাহিত": 7783,
      "ন্যায়বি": 7784,
      "রাসায়ন": 7785,
      "কাতর": 7786,
      "শৃঙ্খল": 7787,
      "আঙিনায়": 7788,
      "উজ": 7789,
      "মরণ": 7790,
      "সিন": 7791,
      "হত্য": 7792,
      "##য়নের": 7793,
      "বিস": 7794,
      "বাঁচার": 7795,
      "ফিরিয়ে": 7796,
      "দীপ্ত": 7797,
      "##জ্ঞানিক": 7798,
      "দৌড়": 7799,
      "মমতার": 7800,
      "অনুমতি": 7801,
      "##রুমে": 7802,
      "বিশ্রাম": 7803,
      "...": 7804,
      "থমথ": 7805,
      "কতো": 7806,
      "ছেল": 7807,
      "ঝড়": 7808,
      "সির": 7809,
      "বিপর": 7810,
      "অনঙ্গ": 7811,
      "##াগা": 7812,
      "অমূল্য": 7813,
      "জ্বালা": 7814,
      "ছিলে": 7815,
      "ভাঙার": 7816,
      "অপরিসীম": 7817,
      "পরিচাল": 7818,
      "এঁরা": 7819,
      "ক্যানভাসে": 7820,
      "##বৃ": 7821,
      "প্রব": 7822,
      "বিড়": 7823,
      "রক্তাক্ত": 7824,
      "ভয়ঙ্কর": 7825,
      "জালে": 7826,
      "বিকল্প": 7827,
      "অক্ষয়": 7828,
      "প্রত্যেকটি": 7829,
      "সিঁড়ি": 7830,
      "ঐক্য": 7831,
      "কঙ্কাবতী": 7832,
      "খ্য": 7833,
      "##দর": 7834,
      "##যাপন": 7835,
      "##খর": 7836,
      "##য়ারা": 7837,
      "##টিও": 7838,
      "কিসের": 7839,
      "ছোটখা": 7840,
      "বেরো": 7841,
      "স্তর": 7842,
      "উদ্বে": 7843,
      "কথায়": 7844,
      "কামনা": 7845,
      "লেগেছে": 7846,
      "প্রান্তর": 7847,
      "অত্যা": 7848,
      "ললিতার": 7849,
      "আবির্ভাব": 7850,
      "অ্যা": 7851,
      "ঋষ": 7852,
      "##ঘাট": 7853,
      "##খণ্ড": 7854,
      "##থির": 7855,
      "##ালাম": 7856,
      "একজনের": 7857,
      "##ুরুর": 7858,
      "যেক": 7859,
      "চেয়ারে": 7860,
      "আসো": 7861,
      "সিস্টে": 7862,
      "বাঙলায়": 7863,
      "##মিশ্র": 7864,
      "হাঁটে": 7865,
      "ভবিষ্যত": 7866,
      "কর্কশ": 7867,
      "খেলতে": 7868,
      "অগ্রসর": 7869,
      "যৌবনের": 7870,
      "প্রসারিত": 7871,
      "ছদ্ম": 7872,
      "ঢাকার": 7873,
      "##োভ": 7874,
      "##খুনি": 7875,
      "স্বী": 7876,
      "আলোতে": 7877,
      "তোমারই": 7878,
      "নিরিব": 7879,
      "বসিয়ে": 7880,
      "দুর্দ": 7881,
      "দাঁড়িয়েছে": 7882,
      "##জ্জিত": 7883,
      "বাজছে": 7884,
      "ঘোষ": 7885,
      "বীথি": 7886,
      "আধুনিকতার": 7887,
      "নির্মম": 7888,
      "##সঙ্গীত": 7889,
      "গর্ত": 7890,
      "গঙ্গা": 7891,
      "ছটফট": 7892,
      "তুষ": 7893,
      "দণ্ড": 7894,
      "শাপ": 7895,
      "##িষ্ণু": 7896,
      "##জম": 7897,
      "##চাঁ": 7898,
      "বিয়ে": 7899,
      "পাও": 7900,
      "পার্টি": 7901,
      "নামার": 7902,
      "মহাপ": 7903,
      "ধারাবাহ": 7904,
      "পরীক্ষ": 7905,
      "সাজিয়ে": 7906,
      "বানিয়ে": 7907,
      "কাঁপুনি": 7908,
      "অগ্রগতি": 7909,
      "গতিতে": 7910,
      "মুনিয়ার": 7911,
      "রান্নাঘরে": 7912,
      "গুঁজে": 7913,
      "শর্মি": 7914,
      "কাদা": 7915,
      "তান": 7916,
      "দগ্ধ": 7917,
      "ধাঁ": 7918,
      "সবে": 7919,
      "##শালা": 7920,
      "##ীতার": 7921,
      "সংযোগ": 7922,
      "নেওয়ার": 7923,
      "উপযুক্ত": 7924,
      "রোদের": 7925,
      "স্মৃতিগুলো": 7926,
      "দীর্ঘমে": 7927,
      "আয়নায়": 7928,
      "ভীমকে": 7929,
      "সায়নের": 7930,
      "সদানন্দ": 7931,
      "খাত": 7932,
      "নগ": 7933,
      "মগ্ন": 7934,
      "সক্ষম": 7935,
      "##তলায়": 7936,
      "##চ্য": 7937,
      "##ার্ন": 7938,
      "করিয়ে": 7939,
      "##াতো": 7940,
      "বলতেই": 7941,
      "##স্তত": 7942,
      "স্ফ": 7943,
      "গোছ": 7944,
      "পড়লে": 7945,
      "##বরাজ": 7946,
      "##ার্স": 7947,
      "##লিপি": 7948,
      "দেখাচ্ছে": 7949,
      "##িবদ্ধ": 7950,
      "বিশ্বাসে": 7951,
      "##ুটো": 7952,
      "দাঁড়াতে": 7953,
      "বিক্রে": 7954,
      "ধর্মীয়": 7955,
      "থামল": 7956,
      "ঢুকতে": 7957,
      "ঐক্যব": 7958,
      "গহ্বর": 7959,
      "অপরিচিত": 7960,
      "উন্মোচন": 7961,
      "খায়": 7962,
      "চাকা": 7963,
      "ঠে": 7964,
      "রুদ্ধ": 7965,
      "সদা": 7966,
      "সেরা": 7967,
      "একথা": 7968,
      "একাধিক": 7969,
      "##াবলী": 7970,
      "##্পা": 7971,
      "##জেন": 7972,
      "##োঁচ": 7973,
      "তাড়": 7974,
      "নীরবতায়": 7975,
      "শরৎ": 7976,
      "বেশির": 7977,
      "##ুখী": 7978,
      "ঘোরা": 7979,
      "পাথুরে": 7980,
      "##দানী": 7981,
      "বিন্দুতে": 7982,
      "উত্তেজিত": 7983,
      "ইন্দ্রের": 7984,
      "বিছানায়": 7985,
      "সংসারে": 7986,
      "অঞ্চলে": 7987,
      "সহানুভূতি": 7988,
      "দুর্গাপূ": 7989,
      "রাসায়নিক": 7990,
      "ইলি": 7991,
      "চৈতন্য": 7992,
      "টক": 7993,
      "ফু": 7994,
      "মূর্ত": 7995,
      "##ll": 7996,
      "##্তিক": 7997,
      "পার্ট": 7998,
      "আসত": 7999,
      "আজীবন": 8000,
      "##গ্রাম": 8001,
      "##পাঠ": 8002,
      "ভিড়": 8003,
      "বহুদিন": 8004,
      "কয়েকজন": 8005,
      "অ্যাক": 8006,
      "অগ্রগতির": 8007,
      "মুখোশ": 8008,
      "##িত্তিক": 8009,
      "ভারতীয়": 8010,
      "নকশা": 8011,
      "জমাট": 8012,
      "ঝড়ের": 8013,
      "ভোল": 8014,
      "##িউ": 8015,
      "##গঞ্জ": 8016,
      "আর্ত": 8017,
      "##্মা": 8018,
      "হয়েছিলেন": 8019,
      "দুশ্চ": 8020,
      "সুখে": 8021,
      "শিব": 8022,
      "লোকেরা": 8023,
      "প্রশান্তি": 8024,
      "বিজ্ঞানী": 8025,
      "বেলায়": 8026,
      "স্টেশনে": 8027,
      "গ্লাস": 8028,
      "শকুন্ত": 8029,
      "পুণ্য": 8030,
      "পর্যবেক্ষণ": 8031,
      "দরিদ্র": 8032,
      "শারীরিক": 8033,
      "মঞ্জ": 8034,
      "সার্থ": 8035,
      "##ধাও": 8036,
      "অনবর": 8037,
      "প্রতিপ": 8038,
      "শুষ্ক": 8039,
      "রাঙা": 8040,
      "রেগে": 8041,
      "বাঁধি": 8042,
      "গ্রাম্য": 8043,
      "অনুবাদ": 8044,
      "তিনটে": 8045,
      "ভয়ংকর": 8046,
      "অভিয": 8047,
      "বিদুর": 8048,
      "বিস্ময়ে": 8049,
      "ঘুরতে": 8050,
      "অস্বস্তি": 8051,
      "গঠন": 8052,
      "ঘূর্ণ": 8053,
      "বীরে": 8054,
      "রঞ্জন": 8055,
      "##ঘাতে": 8056,
      "সুবীর": 8057,
      "মনোর": 8058,
      "হলাম": 8059,
      "লাগলো": 8060,
      "এরই": 8061,
      "এতটাই": 8062,
      "আলতো": 8063,
      "উৎসবে": 8064,
      "ন্যায়": 8065,
      "কাঠামো": 8066,
      "নির্ভীক": 8067,
      "শাখা": 8068,
      "সাহায্যে": 8069,
      "স্মার্টফোন": 8070,
      "টেকসই": 8071,
      "স্বেচ্ছ": 8072,
      "ইলেকট্র": 8073,
      "গর্জ": 8074,
      "হিন্দ": 8075,
      "##িও": 8076,
      "একত্র": 8077,
      "তারি": 8078,
      "##ুল্য": 8079,
      "দুলে": 8080,
      "পেটে": 8081,
      "উত্তাল": 8082,
      "ছাপা": 8083,
      "অংশগ্রহণ": 8084,
      "খাওয়ার": 8085,
      "প্রতীক্ষা": 8086,
      "অবিরত": 8087,
      "##ছাড়া": 8088,
      "সীমান": 8089,
      "পর্যায়ে": 8090,
      "নিবিড়": 8091,
      "নোংরা": 8092,
      "ছেলেরা": 8093,
      "এম": 8094,
      "ঘু": 8095,
      "ডা": 8096,
      "তর্ক": 8097,
      "##ভীর": 8098,
      "##নিং": 8099,
      "তাছাড়া": 8100,
      "প্রত্যয়ের": 8101,
      "নিয়েছে": 8102,
      "চালাতে": 8103,
      "কণ্ঠস্বরে": 8104,
      "বাক্সের": 8105,
      "লেখাপ": 8106,
      "গলির": 8107,
      "একসময়": 8108,
      "মিশ্রণে": 8109,
      "শতাব্দীর": 8110,
      "তৃষ্ণা": 8111,
      "ফলা": 8112,
      "য়": 8113,
      "সতে": 8114,
      "১৮": 8115,
      "##ধন": 8116,
      "##েরো": 8117,
      "করতো": 8118,
      "একট": 8119,
      "বলছ": 8120,
      "##ন্দি": 8121,
      "##কারের": 8122,
      "সুদ": 8123,
      "পেশ": 8124,
      "##ত্তার": 8125,
      "এলাক": 8126,
      "বিকট": 8127,
      "উল্টো": 8128,
      "নিলাম": 8129,
      "কুন্তি": 8130,
      "নিকট": 8131,
      "দাঁড়ালেন": 8132,
      "খিল": 8133,
      "ঝিক": 8134,
      "##ণ্ন": 8135,
      "##রাতের": 8136,
      "##বাগ": 8137,
      "##োধ্য": 8138,
      "একদা": 8139,
      "##বিদ": 8140,
      "##ত্রের": 8141,
      "অজানার": 8142,
      "প্রাণবন্ত": 8143,
      "##বীণ": 8144,
      "বাঁচতে": 8145,
      "যুবতী": 8146,
      "ঝুলছে": 8147,
      "অনবরত": 8148,
      "ইয়ে": 8149,
      "পাস": 8150,
      "শ্ম": 8151,
      "সাপের": 8152,
      "##বয়": 8153,
      "##নাম": 8154,
      "##মন্ত্র": 8155,
      "##ংবার": 8156,
      "একশো": 8157,
      "পাঠা": 8158,
      "কেশ": 8159,
      "প্রতিবি": 8160,
      "নিরন্তর": 8161,
      "যখনই": 8162,
      "বসলেন": 8163,
      "চারপাশ": 8164,
      "##ুটিয়ে": 8165,
      "বাজতে": 8166,
      "ভেবেছিল": 8167,
      "দায়িত্ববোধ": 8168,
      "স্নেহের": 8169,
      "প্রত্যেকেই": 8170,
      "পাহাড়ে": 8171,
      "ব্রততী": 8172,
      "মুচকি": 8173,
      "তামাং": 8174,
      "অন্ন": 8175,
      "অ্যান্ট": 8176,
      "রণ": 8177,
      "রক্ষার": 8178,
      "##গর্": 8179,
      "##গুপ্ত": 8180,
      "##াকের": 8181,
      "##ান্তের": 8182,
      "সামলে": 8183,
      "বারংবার": 8184,
      "ভিড়ে": 8185,
      "ফেলবে": 8186,
      "আকস্ম": 8187,
      "দিচ্ছেন": 8188,
      "হাফ": 8189,
      "পিতাম": 8190,
      "বেগম": 8191,
      "সাগর": 8192,
      "উল্লাস": 8193,
      "ঘৃণা": 8194,
      "ক্যা": 8195,
      "মৈ": 8196,
      "রঙ্গ": 8197,
      "লত": 8198,
      "##ভ্য": 8199,
      "##ান্বিত": 8200,
      "প্রো": 8201,
      "##াইড": 8202,
      "মাখ": 8203,
      "##্পে": 8204,
      "##ন্দু": 8205,
      "তুমিও": 8206,
      "পথিকের": 8207,
      "পড়ি": 8208,
      "মহা": 8209,
      "##শ্রে": 8210,
      "বিষণ্ন": 8211,
      "ফাঁদে": 8212,
      "##মুগ্ধ": 8213,
      "দ্বিধ": 8214,
      "জঙ্গল": 8215,
      "ঠাট": 8216,
      "দিকের": 8217,
      "পহেলা": 8218,
      "নিশি": 8219,
      "##ঙ্কে": 8220,
      "জানতাম": 8221,
      "শব্দটা": 8222,
      "শিক্ষিত": 8223,
      "পিপ": 8224,
      "##িকাঠি": 8225,
      "শূদ্র": 8226,
      "শূন্যে": 8227,
      "ফোনে": 8228,
      "আয়না": 8229,
      "আঁকতে": 8230,
      "খুলল": 8231,
      "##সম্ম": 8232,
      "নমস্কার": 8233,
      "##ঞ্চিৎ": 8234,
      "অ্যান": 8235,
      "চুলে": 8236,
      "ঝে": 8237,
      "ডিম": 8238,
      "মন্তব্য": 8239,
      "হক": 8240,
      "১১": 8241,
      "দেহের": 8242,
      "জানলার": 8243,
      "শেখা": 8244,
      "ভাঙতে": 8245,
      "ভাঙাচ": 8246,
      "নিলো": 8247,
      "নির্বাক": 8248,
      "সমৃদ্ধি": 8249,
      "সাহেবের": 8250,
      "তুচ্ছ": 8251,
      "জাদু": 8252,
      "অবলম্ব": 8253,
      "পথচলা": 8254,
      "অকার": 8255,
      "আয়ে": 8256,
      "##ঘট": 8257,
      "##ধর্ম": 8258,
      "##য়াকে": 8259,
      "স্বাগত": 8260,
      "##াগর": 8261,
      "কোরো": 8262,
      "##ার্থে": 8263,
      "ছুঁই": 8264,
      "পড়বে": 8265,
      "থামিয়ে": 8266,
      "ট্রেনে": 8267,
      "নিরাপত্তা": 8268,
      "পার্থক্য": 8269,
      "সান্ত্বনা": 8270,
      "অনিন্দ্য": 8271,
      "নিরিবিলি": 8272,
      "অয": 8273,
      "গরি": 8274,
      "##তলে": 8275,
      "##পূর্ব": 8276,
      "বাপু": 8277,
      "সেজে": 8278,
      "মাপ": 8279,
      "রাঙ": 8280,
      "রাধা": 8281,
      "শেক": 8282,
      "গোপাল": 8283,
      "কাজী": 8284,
      "রোমা": 8285,
      "দরজাটা": 8286,
      "বৃদ্ধা": 8287,
      "শিল্পী": 8288,
      "আঁকড়ে": 8289,
      "ভ্রমণের": 8290,
      "বকুল": 8291,
      "নিবিড়": 8292,
      "দেবযানীর": 8293,
      "হস্তিনাপুরের": 8294,
      "মোমবাতি": 8295,
      "ঐক্যবদ্ধ": 8296,
      "আনি": 8297,
      "##ক্রম": 8298,
      "একের": 8299,
      "আসছি": 8300,
      "##ান্তরে": 8301,
      "নেবার": 8302,
      "ক্ষয়": 8303,
      "লোকটি": 8304,
      "গুহ": 8305,
      "বেদন": 8306,
      "নিশ্চুপ": 8307,
      "ফেরত": 8308,
      "মন্দির": 8309,
      "প্রজন্মকে": 8310,
      "লজ্জায়": 8311,
      "ছুটির": 8312,
      "স্ক্রিনে": 8313,
      "থরথর": 8314,
      "থমথমে": 8315,
      "সতেজ": 8316,
      "ইদ্র": 8317,
      "ঢি": 8318,
      "নূ": 8319,
      "##গি": 8320,
      "##মূলক": 8321,
      "একত্রে": 8322,
      "নেওয়া": 8323,
      "ফিরল": 8324,
      "সরিয়ে": 8325,
      "চলুন": 8326,
      "বহুক": 8327,
      "ভিড়ে": 8328,
      "রূপান্তরিত": 8329,
      "গভীরতা": 8330,
      "পুড়ে": 8331,
      "সিঁড়ির": 8332,
      "মানবিকতার": 8333,
      "বিজয়ের": 8334,
      "গোবর্ধন": 8335,
      "দ্রোণাচার্য": 8336,
      "পঁচি": 8337,
      "ফেরা": 8338,
      "##রাত্র": 8339,
      "##হ্নে": 8340,
      "দেখলেই": 8341,
      "আমারও": 8342,
      "শেষের": 8343,
      "উপস্থা": 8344,
      "দিয়েছিল": 8345,
      "ভারতের": 8346,
      "ইতিহাসে": 8347,
      "ক্লাব": 8348,
      "##টুকুই": 8349,
      "##ওয়ালা": 8350,
      "কুঁড়ে": 8351,
      "সুনীতা": 8352,
      "দ্যাখে": 8353,
      "শিক্ষার্থী": 8354,
      "জায়গা": 8355,
      "খোদাই": 8356,
      "কেবলি": 8357,
      "প্রতিরোধ": 8358,
      "উধাও": 8359,
      "ঘনিষ্ঠ": 8360,
      "তব": 8361,
      "প্যার": 8362,
      "যিশ": 8363,
      "শাম": 8364,
      "##ম্যান": 8365,
      "##মশাই": 8366,
      "প্রসঙ্গ": 8367,
      "তারার": 8368,
      "##চ্ছু": 8369,
      "##াপ্তি": 8370,
      "##বাসের": 8371,
      "বসেছিল": 8372,
      "আগেও": 8373,
      "বৈজ্ঞানিক": 8374,
      "অলস": 8375,
      "সকালবেলা": 8376,
      "অরণ্যে": 8377,
      "মেজম": 8378,
      "নিমেষ": 8379,
      "প্রতিফলন": 8380,
      "মিঠু": 8381,
      "##সন": 8382,
      "##পিত": 8383,
      "##পাড়": 8384,
      "বামুন": 8385,
      "##্প্র": 8386,
      "##ছিয়ে": 8387,
      "পারছিল": 8388,
      "দুষ্য": 8389,
      "পরিম": 8390,
      "পরিমাণ": 8391,
      "হাতি": 8392,
      "কাঁক": 8393,
      "আল্ল": 8394,
      "ভালোবাসি": 8395,
      "অভিযোগ": 8396,
      "শিল্পক": 8397,
      "উদ্ভিদ": 8398,
      "##যোদ্ধ": 8399,
      "মোবাই": 8400,
      "চাবিকাঠি": 8401,
      "পাঞ্চাল": 8402,
      "নহুষ": 8403,
      "যেকোনো": 8404,
      "আকস্মিক": 8405,
      "ঘাট": 8406,
      "চার্": 8407,
      "পশু": 8408,
      "রঞ্জ": 8409,
      "রত্ন": 8410,
      "হবো": 8411,
      "##পক্ষে": 8412,
      "##র্মন": 8413,
      "সমস্যার": 8414,
      "##স্কো": 8415,
      "##খানেক": 8416,
      "আসবেন": 8417,
      "আনল": 8418,
      "ডাক্ত": 8419,
      "##ন্দ্রনাথ": 8420,
      "প্রেক্ষ": 8421,
      "বছরে": 8422,
      "পদার্থ": 8423,
      "দেয়ালের": 8424,
      "##গাথা": 8425,
      "অধ্যায়ে": 8426,
      "ভরত": 8427,
      "বিদ্যা": 8428,
      "পরিবর্তে": 8429,
      "যুধিষ্ঠিরকে": 8430,
      "সুজিতের": 8431,
      "হৃৎ": 8432,
      "আশীর্বাদ": 8433,
      "ঝোল": 8434,
      "শ্লো": 8435,
      "##ষক": 8436,
      "##িনির": 8437,
      "প্রতিশোধ": 8438,
      "হাতটা": 8439,
      "##ষ্টার": 8440,
      "প্রশংসা": 8441,
      "শুনলাম": 8442,
      "ব্রজ": 8443,
      "ঘুমো": 8444,
      "##স্মরণ": 8445,
      "বৈশিষ্ট": 8446,
      "পায়নি": 8447,
      "স্থানীয়": 8448,
      "পরস্পরের": 8449,
      "রওনা": 8450,
      "এলিজাবেথ": 8451,
      "দুশ্চিন্ত": 8452,
      "ঋণ": 8453,
      "এও": 8454,
      "গ্যাস": 8455,
      "ছয়": 8456,
      "মন্থ": 8457,
      "##ডিয়": 8458,
      "দিও": 8459,
      "গ্রন্": 8460,
      "পুরানো": 8461,
      "##োধন": 8462,
      "সন্ধে": 8463,
      "পড়েছে": 8464,
      "বিকৃত": 8465,
      "যন্ত্রণার": 8466,
      "ভাবেই": 8467,
      "তথ্যের": 8468,
      "বিছানা": 8469,
      "লক্ষ্মী": 8470,
      "##পাধ্যায়": 8471,
      "সমর্থন": 8472,
      "অর্ণব": 8473,
      "ভাঙাচোরা": 8474,
      "ওয়ে": 8475,
      "ছড়ানো": 8476,
      "পিন্ট": 8477,
      "হির": 8478,
      "##হাই": 8479,
      "বাথ": 8480,
      "উপদেশ": 8481,
      "ভয়াবহ": 8482,
      "নির্ভয়ে": 8483,
      "ম্যানে": 8484,
      "বৌদ্ধ": 8485,
      "ভালবাসার": 8486,
      "ফসলের": 8487,
      "সিগন্যাল": 8488,
      "প্রতিবিম্ব": 8489,
      "উগ্র": 8490,
      "নও": 8491,
      "##ূষণ": 8492,
      "##ধ্বন": 8493,
      "##ায়নের": 8494,
      "প্রতিবার": 8495,
      "সুই": 8496,
      "নেড়ে": 8497,
      "ভালোই": 8498,
      "ধরলেন": 8499,
      "দুঃখে": 8500,
      "সন্তানের": 8501,
      "ততক্ষণে": 8502,
      "ভঙ্গি": 8503,
      "মেজাজ": 8504,
      "অনুসন্ধান": 8505,
      "শিউরে": 8506,
      "##যত্নে": 8507,
      "ডাক্তারের": 8508,
      "আঠ": 8509,
      "পিক": 8510,
      "ফ্য": 8511,
      "লক": 8512,
      "##দায়": 8513,
      "##দারের": 8514,
      "##্কি": 8515,
      "##তঃ": 8516,
      "##হরি": 8517,
      "পরশুর": 8518,
      "অন্তি": 8519,
      "##াপটে": 8520,
      "##াগুলি": 8521,
      "##স্ত্র": 8522,
      "দরজায়": 8523,
      "দুঃশ": 8524,
      "ঘোড়া": 8525,
      "দাঁড়ানো": 8526,
      "অপেক্ষায়": 8527,
      "কৌটিল": 8528,
      "স্পর্শের": 8529,
      "মোটাম": 8530,
      "সমন্বয়": 8531,
      "ধুয়ে": 8532,
      "প্রতিক্রিয়া": 8533,
      "দেবযানী": 8534,
      "পরস্পর": 8535,
      "জীববৈচিত্র্য": 8536,
      "and": 8537,
      "অলি": 8538,
      "ওরে": 8539,
      "টিনের": 8540,
      "তাড়া": 8541,
      "পড়ি": 8542,
      "রক্ষ": 8543,
      "রজন": 8544,
      "লুপ্ত": 8545,
      "##তলার": 8546,
      "##োজনে": 8547,
      "##ড়িতে": 8548,
      "##om": 8549,
      "##ন্টা": 8550,
      "##শ্বিক": 8551,
      "জানাতে": 8552,
      "##ান্তেই": 8553,
      "##কেরা": 8554,
      "##াকাশে": 8555,
      "হেড": 8556,
      "বসার": 8557,
      "রিয়ার": 8558,
      "রূপের": 8559,
      "পাঁচটা": 8560,
      "##ষেধ": 8561,
      "পূর্বপুরুষ": 8562,
      "বিধাতার": 8563,
      "একাকিত্ব": 8564,
      "ঢোকার": 8565,
      "একেকটি": 8566,
      "মুসলমান": 8567,
      "চৌধুরী": 8568,
      "গগ": 8569,
      "ঘটা": 8570,
      "ছুরি": 8571,
      "জীর্ণ": 8572,
      "জ্যেষ্ঠ": 8573,
      "নড়ে": 8574,
      "ফ্রি": 8575,
      "##ভিত্তিক": 8576,
      "##্বি": 8577,
      "##বেদ": 8578,
      "বুড়ো": 8579,
      "অবাধ": 8580,
      "সুরেলা": 8581,
      "##ুঁত": 8582,
      "চলেছি": 8583,
      "সহস্র": 8584,
      "এতকাল": 8585,
      "হারায়": 8586,
      "সম্পন্ন": 8587,
      "##ান্নি": 8588,
      "আঁচড়ে": 8589,
      "ফোঁটায়": 8590,
      "আকুতি": 8591,
      "সুনীত": 8592,
      "রান্নাঘরের": 8593,
      "হতাশ": 8594,
      "মেশিন": 8595,
      "নীলাভ": 8596,
      "পরিত্যক্ত": 8597,
      "মোটামুটি": 8598,
      "গ্লো": 8599,
      "দের": 8600,
      "নূপ": 8601,
      "##ুশ": 8602,
      "##ic": 8603,
      "কোড": 8604,
      "তিনিই": 8605,
      "উপসং": 8606,
      "উত্তরাধ": 8607,
      "প্রেত": 8608,
      "বৈদিক": 8609,
      "অধিকা": 8610,
      "##বাহী": 8611,
      "জোড়া": 8612,
      "##ুটিয়ে": 8613,
      "সেদিনের": 8614,
      "ডানায়": 8615,
      "##যুগ": 8616,
      "উদ্ভাবনী": 8617,
      "স্বর্গের": 8618,
      ")।": 8619,
      "of": 8620,
      "ওদিক": 8621,
      "তক্ষ": 8622,
      "ফট": 8623,
      "বঞ্চ": 8624,
      "ম্যাড": 8625,
      "##নাল": 8626,
      "##ুদের": 8627,
      "হয়েই": 8628,
      "থাকবেন": 8629,
      "দাঁড়ায়": 8630,
      "##শিখা": 8631,
      "বিরাজ": 8632,
      "শর্ত": 8633,
      "সারার": 8634,
      "পড়তে": 8635,
      "ঝরঝ": 8636,
      "ডেটা": 8637,
      "বুলিয়ে": 8638,
      "ল্যাবের": 8639,
      "মসজি": 8640,
      "গিলে": 8641,
      "ড্রাইভার": 8642,
      "আশ্বাস": 8643,
      "কবর": 8644,
      "গন্ত": 8645,
      "দড়ি": 8646,
      "রায়": 8647,
      "শ্": 8648,
      "হাট": 8649,
      "##চাল": 8650,
      "প্রল": 8651,
      "দেখানো": 8652,
      "##খানেই": 8653,
      "অবতার": 8654,
      "আসন": 8655,
      "##াওয়া": 8656,
      "পড়লো": 8657,
      "ঠিকঠাক": 8658,
      "আগামীর": 8659,
      "দিতেন": 8660,
      "অজান্তেই": 8661,
      "স্থানে": 8662,
      "বৈষ": 8663,
      "ভুলতে": 8664,
      "##চনায়": 8665,
      "অনুরণ": 8666,
      "বেড়াচ্ছে": 8667,
      "ডায়েরি": 8668,
      "কঙ্": 8669,
      "গাম": 8670,
      "চু": 8671,
      "তিল": 8672,
      "ভুরু": 8673,
      "…’": 8674,
      "##ণির": 8675,
      "##বাড়ি": 8676,
      "##শীর": 8677,
      "##সানা": 8678,
      "##গরি": 8679,
      "##as": 8680,
      "যেই": 8681,
      "##কাশি": 8682,
      "##মেশ": 8683,
      "জানলা": 8684,
      "মুখটা": 8685,
      "কাঁপা": 8686,
      "ভাবলেন": 8687,
      "##প্রকাশ": 8688,
      "মিলবে": 8689,
      "ধরনে": 8690,
      "তুলছে": 8691,
      "শক্তিতে": 8692,
      "বান্ধ": 8693,
      "উন্নয়": 8694,
      "নিয়ন্ত্রণ": 8695,
      "সভায়": 8696,
      "আছড়ে": 8697,
      "চেতনায়": 8698,
      "বিনিময়ে": 8699,
      "##সভায়": 8700,
      "ইতস্তত": 8701,
      "##দানীং": 8702,
      "ইস্ক": 8703,
      "ঊর্ধ": 8704,
      "বন্যা": 8705,
      "মারে": 8706,
      "##িস্ত": 8707,
      "##জী": 8708,
      "##কুল": 8709,
      "##হাস": 8710,
      "প্রাই": 8711,
      "##াসার": 8712,
      "সেদিকে": 8713,
      "নিহিত": 8714,
      "গেট": 8715,
      "ডাকতে": 8716,
      "আদৌ": 8717,
      "বাঁচাতে": 8718,
      "চুমো": 8719,
      "স্ট্রি": 8720,
      "##ীকরণ": 8721,
      "##্রাণে": 8722,
      "মেলবন্ধন": 8723,
      "দ্বিতীয়ত": 8724,
      "সুবিধে": 8725,
      "প্রতিবেশী": 8726,
      "ঝামেলা": 8727,
      "খাল": 8728,
      "প্যান্ট": 8729,
      "হারা": 8730,
      "##ঘু": 8731,
      "##ঝের": 8732,
      "নিচের": 8733,
      "##্নি": 8734,
      "দেখেনি": 8735,
      "ভালোবেসে": 8736,
      "##েকো": 8737,
      "জলরাশি": 8738,
      "জন্মায়": 8739,
      "পোস্ট": 8740,
      "পেয়েছেন": 8741,
      "আরেকটু": 8742,
      "##পাতের": 8743,
      "কাটতে": 8744,
      "স্টেশন": 8745,
      "কুকুরের": 8746,
      "কুয়াশা": 8747,
      "রেকর্ড": 8748,
      "আদেশ": 8749,
      "ইদানীং": 8750,
      "কিল": 8751,
      "ন্যা": 8752,
      "যম": 8753,
      "সিক্ত": 8754,
      "##তই": 8755,
      "##আই": 8756,
      "মেয়ের": 8757,
      "কোডের": 8758,
      "চেক": 8759,
      "হাসপাত": 8760,
      "পেয়েছে": 8761,
      "মহিমা": 8762,
      "চাইতে": 8763,
      "তাকাই": 8764,
      "তাকাতে": 8765,
      "অদূরে": 8766,
      "সম্পাদ": 8767,
      "দেশকে": 8768,
      "পেয়েছিল": 8769,
      "অভিভাব": 8770,
      "##াক্ষর": 8771,
      "কর্ণকে": 8772,
      "সত্তার": 8773,
      "চরিত্রের": 8774,
      "জ্যোৎস্নার": 8775,
      "পুনরায়": 8776,
      "টর্চ": 8777,
      "ঝাল": 8778,
      "ঝরা": 8779,
      "রোধ": 8780,
      "##রস": 8781,
      "##রূপে": 8782,
      "##জুর": 8783,
      "##য়োর": 8784,
      "প্রবীণ": 8785,
      "বিবি": 8786,
      "##লোকে": 8787,
      "অবহেলা": 8788,
      "সংয": 8789,
      "রাজন": 8790,
      "মুখর": 8791,
      "##ূপের": 8792,
      "কুটির": 8793,
      "সামনেই": 8794,
      "নীচের": 8795,
      "ভূতে": 8796,
      "সর্বনাশ": 8797,
      "##ব্যাপী": 8798,
      "জাতীয়": 8799,
      "মৌন": 8800,
      "কুয়াশার": 8801,
      "পুতুল": 8802,
      "আশেপাশে": 8803,
      "ঘড়ির": 8804,
      "ভয়ের": 8805,
      "##জয়": 8806,
      "##োগে": 8807,
      "##ৃহে": 8808,
      "##ঝরা": 8809,
      "সেকালের": 8810,
      "পারবো": 8811,
      "পারস্প": 8812,
      "##ৃত্ব": 8813,
      "আশঙ্কা": 8814,
      "##প্রিয়": 8815,
      "কলমে": 8816,
      "পদচার": 8817,
      "জাগিয়ে": 8818,
      "প্রায়ই": 8819,
      "লাইট": 8820,
      "চিত্রক": 8821,
      "নিয়মিত": 8822,
      "খাবারের": 8823,
      "ব্রিটিশ": 8824,
      "মধুম": 8825,
      "পঁচিশ": 8826,
      "শ্লোক": 8827,
      "কায়": 8828,
      "গির": 8829,
      "চিনে": 8830,
      "ঝোঁ": 8831,
      "সান্নি": 8832,
      "##শূন্য": 8833,
      "দেখাবে": 8834,
      "পারতাম": 8835,
      "আলোচনার": 8836,
      "কার্বন": 8837,
      "গেয়ে": 8838,
      "দিনরাত": 8839,
      "সালে": 8840,
      "সাহসে": 8841,
      "একটুখানি": 8842,
      "শুনল": 8843,
      "পাইনি": 8844,
      "পতাকার": 8845,
      "বিনোদ": 8846,
      "গর্বের": 8847,
      "পরিবেশে": 8848,
      "বৃহস্পতি": 8849,
      "ধ্রুব": 8850,
      "উদ্দীপনা": 8851,
      "বীরেন্দ্র": 8852,
      "পং": 8853,
      "লহর": 8854,
      "হেরে": 8855,
      "##রুদ্ধ": 8856,
      "প্রৌ": 8857,
      "প্রদর্শ": 8858,
      "প্রদর্শন": 8859,
      "নিশ্": 8860,
      "স্বতন্ত্র": 8861,
      "##চেত": 8862,
      "নিয়েছেন": 8863,
      "উঠোন": 8864,
      "কার্ড": 8865,
      "মননের": 8866,
      "##দেহ": 8867,
      "সায়ে": 8868,
      "নামক": 8869,
      "জলজ": 8870,
      "দূষিত": 8871,
      "পাল্টে": 8872,
      "শুনেই": 8873,
      "খোঁচা": 8874,
      "চাপে": 8875,
      "সঞ্চারিত": 8876,
      "গ্রীষ্মের": 8877,
      "কল্কেকাশি": 8878,
      "পুনর্ব্যবহার": 8879,
      "১৯৭১": 8880,
      "মডেল": 8881,
      "নূতন": 8882,
      "নিন": 8883,
      "বদ্ধ": 8884,
      "রসিক": 8885,
      "##নাই": 8886,
      "##নীর": 8887,
      "##স্রো": 8888,
      "##চিন্ত": 8889,
      "##মনের": 8890,
      "##াদুর": 8891,
      "##ায়িত": 8892,
      "##ক্ষিপ্ত": 8893,
      "##ঞ্ছ": 8894,
      "জানাই": 8895,
      "##িমায়": 8896,
      "গেটের": 8897,
      "##স্থল": 8898,
      "অভিব": 8899,
      "তবেই": 8900,
      "##িন্নি": 8901,
      "বিশ্বস্ত": 8902,
      "আহমে": 8903,
      "মারাত্মক": 8904,
      "বিস্ময়": 8905,
      "সময়েই": 8906,
      "ঝরনা": 8907,
      "##মুহূর্ত": 8908,
      "পত্রিকা": 8909,
      "বিশুদ্ধ": 8910,
      "প্রয়োগ": 8911,
      "ম্যাজিক": 8912,
      "ক্ষণিকের": 8913,
      "অবিশ্বাস্য": 8914,
      "##াত্ত্বিক": 8915,
      "মসৃণ": 8916,
      "গের": 8917,
      "##ফোনে": 8918,
      "##র্ন": 8919,
      "সমতার": 8920,
      "দেখছিল": 8921,
      "সামলাতে": 8922,
      "##চারি": 8923,
      "আশফ": 8924,
      "ভাবছে": 8925,
      "জ্বর": 8926,
      "দুরন্ত": 8927,
      "কতক": 8928,
      "হিট": 8929,
      "ঘটল": 8930,
      "দোলে": 8931,
      "ভাইদের": 8932,
      "তরুণদের": 8933,
      "কম্পিউ": 8934,
      "ব্যাকরণ": 8935,
      "প্রভাতের": 8936,
      "নিখুঁত": 8937,
      "ভার্চু": 8938,
      "ছোটখাটো": 8939,
      "কুন্তিভো": 8940,
      "সভা": 8941,
      "##্জি": 8942,
      "##বরে": 8943,
      "তারাই": 8944,
      "##েলায়": 8945,
      "##ত্যাশ": 8946,
      "অবিক": 8947,
      "শিবেন": 8948,
      "দেখেছিল": 8949,
      "নীরবতায়": 8950,
      "হাঁক": 8951,
      "পদচিহ্ন": 8952,
      "ক্রুদ্ধ": 8953,
      "গর্জে": 8954,
      "ঢুকিয়ে": 8955,
      "অনিশ্চিত": 8956,
      "পরিণতি": 8957,
      "মহাকাব": 8958,
      "বিহ্বল": 8959,
      "গুঞ্জরিত": 8960,
      "মুনির": 8961,
      "আর্থিক": 8962,
      "অবলম্বন": 8963,
      "দুষ্যন্ত": 8964,
      "বৈশিষ্ট্য": 8965,
      "অন্তিম": 8966,
      "অধিকাংশ": 8967,
      "পারস্পরিক": 8968,
      "ক্য": 8969,
      "নান্দ": 8970,
      "লহ": 8971,
      "শ্বে": 8972,
      "হুক": 8973,
      "##াচ্ছে": 8974,
      "##পাই": 8975,
      "##কীয়": 8976,
      "##ণ্ডার": 8977,
      "রাজধান": 8978,
      "##পেন": 8979,
      "##চ্ছিন্ন": 8980,
      "ভাবছিল": 8981,
      "অনুষ্ঠান": 8982,
      "প্রত্যহ": 8983,
      "সহায়": 8984,
      "বিশ্বাসী": 8985,
      "চারটে": 8986,
      "##িন্দম": 8987,
      "##র্থক": 8988,
      "বাল্য": 8989,
      "কম্পন": 8990,
      "বিব্রত": 8991,
      "কিশোরী": 8992,
      "লুকোচুরি": 8993,
      "অগোচরে": 8994,
      "আনার": 8995,
      "আচার্য": 8996,
      "কাকা": 8997,
      "শঙ্খ": 8998,
      "##ল্য": 8999,
      "##র্যের": 9000,
      "##য়ী": 9001,
      "##ৃক": 9002,
      "প্রথা": 9003,
      "##র্পণ": 9004,
      "বেঞ্চ": 9005,
      "##য়ারি": 9006,
      "লাগছিল": 9007,
      "আনুর": 9008,
      "চিরে": 9009,
      "পরিবেশবান্ধব": 9010,
      "প্ল্যান": 9011,
      "ঝরনার": 9012,
      "অন্তরঙ্গ": 9013,
      "হ্রদ": 9014,
      "গোলাপি": 9015,
      "মার্ক": 9016,
      "জায়গায়": 9017,
      "##ing": 9018,
      "তুষার": 9019,
      "আও": 9020,
      "উড়িয়ে": 9021,
      "কপ": 9022,
      "ঠক": 9023,
      "নজরে": 9024,
      "মথ": 9025,
      "মন্টু": 9026,
      "শ্রো": 9027,
      "##রায়": 9028,
      "##নেই": 9029,
      "দিতেই": 9030,
      "অর্থে": 9031,
      "মাঝের": 9032,
      "চলমান": 9033,
      "আত্মহ": 9034,
      "তরঙ্গে": 9035,
      "##ক্ষেপ": 9036,
      "ফেলছে": 9037,
      "স্থিতি": 9038,
      "ছুঁতে": 9039,
      "ঘটবে": 9040,
      "শোষণ": 9041,
      "ছাপিয়ে": 9042,
      "বুঝেছি": 9043,
      "দানব": 9044,
      "আগামীকাল": 9045,
      "পঞ্চাশ": 9046,
      "সাংবাদ": 9047,
      "ঝিলমিল": 9048,
      "যাদব": 9049,
      "ধন্যবাদ": 9050,
      "বলরাম": 9051,
      "কক্ষ": 9052,
      "খাড়া": 9053,
      "চৈ": 9054,
      "ফুস": 9055,
      "সখ": 9056,
      "হ্যার": 9057,
      "##েত্রে": 9058,
      "##ুঞ্জ": 9059,
      "##ফাত": 9060,
      "অবহ": 9061,
      "গ্রে": 9062,
      "কাঁচ": 9063,
      "অনুষ্ঠ": 9064,
      "লাশ": 9065,
      "ব্যবস": 9066,
      "মেয়েটির": 9067,
      "ঢেউয়ে": 9068,
      "##মুখে": 9069,
      "অব্যাহত": 9070,
      "জনেই": 9071,
      "চন্দন": 9072,
      "হাড়": 9073,
      "##্কর": 9074,
      "##নিত": 9075,
      "##ড়ক": 9076,
      "প্রাত": 9077,
      "বাণি": 9078,
      "##াসনের": 9079,
      "##াবাদ": 9080,
      "রাগে": 9081,
      "##ান্তিক": 9082,
      "পথপ্র": 9083,
      "নেত": 9084,
      "গোরা": 9085,
      "মুখরিত": 9086,
      "প্রশিক্ষণ": 9087,
      "বাংলো": 9088,
      "তরল": 9089,
      "ভয়ানক": 9090,
      "বয়সের": 9091,
      "মহাভারতে": 9092,
      "১৯৫": 9093,
      "কম্পমান": 9094,
      "মিনিটের": 9095,
      "কৃষকের": 9096,
      "নৈঃ": 9097,
      "জঙ্গলে": 9098,
      "সহযোগিতা": 9099,
      "অনিশ্চয়": 9100,
      "নিষ্পাপ": 9101,
      "ট্রা": 9102,
      "মতি": 9103,
      "রশ্মি": 9104,
      "লী": 9105,
      "সিক": 9106,
      "সৃষ্ট": 9107,
      "##বাড়িতে": 9108,
      "##সুর": 9109,
      "##জলে": 9110,
      "##ঁক": 9111,
      "##ভরে": 9112,
      "কেষ্ট": 9113,
      "বেসর": 9114,
      "আনবে": 9115,
      "কলরব": 9116,
      "##ঙ্কিত": 9117,
      "অপরা": 9118,
      "মাথাটা": 9119,
      "সর্বক্ষণ": 9120,
      "বাড়িটা": 9121,
      "ভরপুর": 9122,
      "পড়ার": 9123,
      "অতিশয়": 9124,
      "মায়ার": 9125,
      "অপ্রত্যাশ": 9126,
      "সাইকেল": 9127,
      "হিসাব": 9128,
      "পাঞ্জাবি": 9129,
      "কদিন": 9130,
      "হোঁচ": 9131,
      "##ষণে": 9132,
      "##রক": 9133,
      "##সাহে": 9134,
      "##পাক": 9135,
      "নাড়া": 9136,
      "##াঁস": 9137,
      "যেও": 9138,
      "##াগারে": 9139,
      "বেঞ্চে": 9140,
      "মেম": 9141,
      "মিয়া": 9142,
      "হাসছে": 9143,
      "স্থায়": 9144,
      "ভাবছি": 9145,
      "##শ্রী": 9146,
      "কুড়ি": 9147,
      "ভালই": 9148,
      "বেঁকে": 9149,
      "ভেবেছিলাম": 9150,
      "পিছিয়ে": 9151,
      "আয়োজন": 9152,
      "খাওয়": 9153,
      "শাড়ি": 9154,
      "বিস্তর": 9155,
      "ঘণ্টার": 9156,
      "শিশিরের": 9157,
      "দৈত্য": 9158,
      "শত্রুর": 9159,
      "সদস্য": 9160,
      "ছেলেমেয়ে": 9161,
      "মুছতে": 9162,
      "পরিস্থিতি": 9163,
      "রাত্তিরে": 9164,
      "এখুনি": 9165,
      "রুদ্র": 9166,
      "##ীষ": 9167,
      "##তিপ": 9168,
      "পাট": 9169,
      "পাথে": 9170,
      "##জেক্ট": 9171,
      "##ণ্ডলে": 9172,
      "আগমন": 9173,
      "অতলে": 9174,
      "দেয়নি": 9175,
      "সেটাও": 9176,
      "বাজায়": 9177,
      "বিভাজন": 9178,
      "ভদ্রমহ": 9179,
      "মায়াবী": 9180,
      "খাওয়া": 9181,
      "উর্বশী": 9182,
      "হৃদি": 9183,
      "পাহাড়ি": 9184,
      "জঙ্গলের": 9185,
      "সাথেই": 9186,
      "চক্ষু": 9187,
      "লিপিবদ্ধ": 9188,
      "শুক্রাচার্য": 9189,
      "অ্যান্টনি": 9190,
      "অপ্রত্যাশিত": 9191,
      "জৈব": 9192,
      "দাব": 9193,
      "নায়": 9194,
      "মীরা": 9195,
      "রুক": 9196,
      "লাব": 9197,
      "প্রম": 9198,
      "বাছ": 9199,
      "##াদির": 9200,
      "##ায়ণ": 9201,
      "তিনিও": 9202,
      "##কিং": 9203,
      "সুরক্ষা": 9204,
      "তাকায়": 9205,
      "চিরদিন": 9206,
      "নীড়": 9207,
      "সক্রিয়": 9208,
      "অপরাজে": 9209,
      "##ব্যব": 9210,
      "পোকা": 9211,
      "বানিয়ে": 9212,
      "ছাড়াও": 9213,
      "ভগব": 9214,
      "তৃতীয়": 9215,
      "উদ্ভাবন": 9216,
      "মহাকাব্য": 9217,
      "প্ল্যাটফর্ম": 9218,
      "অগাধ": 9219,
      "নিপুণ": 9220,
      "একটানা": 9221,
      "মেজমামা": 9222,
      "অষ্ট": 9223,
      "আবর্ত": 9224,
      "ইম": 9225,
      "ঈর্ষ": 9226,
      "ওল": 9227,
      "চালা": 9228,
      "মামার": 9229,
      "##ানীর": 9230,
      "##াতক": 9231,
      "নিষেধ": 9232,
      "##াহ্য": 9233,
      "পরিবারে": 9234,
      "অনুয": 9235,
      "আলু": 9236,
      "পৃথিবীকে": 9237,
      "জাগরণ": 9238,
      "##ংসিত": 9239,
      "##খানায়": 9240,
      "হাশে": 9241,
      "##পথের": 9242,
      "ফোনের": 9243,
      "রেখায়": 9244,
      "তরঙ্গের": 9245,
      "নরক": 9246,
      "##বদ্ধতা": 9247,
      "##যুগের": 9248,
      "চূড়": 9249,
      "গোঁফ": 9250,
      "অবিনশ্বর": 9251,
      "উত্তরাধিকার": 9252,
      "ঘ্রাণে": 9253,
      "রুটি": 9254,
      "হাড়": 9255,
      "##সাহ": 9256,
      "##গীতি": 9257,
      "##পল": 9258,
      "##পূর": 9259,
      "##মাস": 9260,
      "একাই": 9261,
      "নিষি": 9262,
      "##র্স": 9263,
      "দেখবেন": 9264,
      "কিচ্ছু": 9265,
      "সবসময়": 9266,
      "##স্টের": 9267,
      "প্রতিধ্বন": 9268,
      "কারুক": 9269,
      "পুরাতন": 9270,
      "আশায়": 9271,
      "বাড়ছে": 9272,
      "##চিত্রে": 9273,
      "অন্যায়ের": 9274,
      "সমাজকে": 9275,
      "আঁচড়ে": 9276,
      "##াত্মা": 9277,
      "শিখতে": 9278,
      "এনেছে": 9279,
      "গরুর": 9280,
      "যুক্তিবাদী": 9281,
      "অনুসারে": 9282,
      "ঐক্যের": 9283,
      "দুধের": 9284,
      "ময়লা": 9285,
      "তাৎপর্য": 9286,
      "ইন্টারনেট": 9287,
      "নানার": 9288,
      "ভাজা": 9289,
      "সুষ": 9290,
      "##ূলে": 9291,
      "##ানিতে": 9292,
      "আমায়": 9293,
      "পরম্প": 9294,
      "মাধ": 9295,
      "##নিতে": 9296,
      "কীসের": 9297,
      "নেক": 9298,
      "##গুলোই": 9299,
      "মননে": 9300,
      "গাড়ি": 9301,
      "গ্রামবাসী": 9302,
      "অনেকদিন": 9303,
      "লালচে": 9304,
      "আবৃত্তি": 9305,
      "##র্জনা": 9306,
      "উদ্যম": 9307,
      "ক্ষমতার": 9308,
      "বেলায়": 9309,
      "মূল্যবান": 9310,
      "আশ্রয়": 9311,
      "ভ্রাত": 9312,
      "বিষ্ণুচ": 9313,
      "অবসান": 9314,
      "বায়ু": 9315,
      "হ্যালো": 9316,
      "সামগ্রিক": 9317,
      "সৌন্দর্যের": 9318,
      "আদ্য": 9319,
      "আচ্ছন্ন": 9320,
      "নিন্দ": 9321,
      "ষড়": 9322,
      "##ঝাঁ": 9323,
      "##ঝিম": 9324,
      "দেই": 9325,
      "বলেছিলাম": 9326,
      "আমরাও": 9327,
      "হাতেই": 9328,
      "ধরো": 9329,
      "তুলনায়": 9330,
      "ধারায়": 9331,
      "মুক্তিযোদ্ধ": 9332,
      "সহজেই": 9333,
      "প্রণাম": 9334,
      "ছুড়ে": 9335,
      "শিখেছি": 9336,
      "সন্ন্যাসী": 9337,
      "ভারতবর্ষের": 9338,
      "আংটি": 9339,
      "বেসরকারি": 9340,
      "নিষিদ্ধ": 9341,
      "ইটের": 9342,
      "উজ্জ": 9343,
      "ওহ": 9344,
      "দাড়ি": 9345,
      "দৃষ্টির": 9346,
      "পাবার": 9347,
      "ম্যান": 9348,
      "রান্নার": 9349,
      "##প্ল": 9350,
      "##ion": 9351,
      "তারক": 9352,
      "##ীর্ষ": 9353,
      "##কাতে": 9354,
      "মিষ্ট": 9355,
      "মিশন": 9356,
      "আঁখি": 9357,
      "ফিরবে": 9358,
      "কাঁপন": 9359,
      "##াধিকার": 9360,
      "##ষ্ঠী": 9361,
      "ঝাঁকে": 9362,
      "আদর্": 9363,
      "নিশ্চয়": 9364,
      "শতকের": 9365,
      "গাঁয়ের": 9366,
      "ঢুকতেই": 9367,
      "ঘটনাটা": 9368,
      "সাধন": 9369,
      "সাবধানে": 9370,
      "বিষয়টা": 9371,
      "প্রহরী": 9372,
      "পৃষ্ঠা": 9373,
      "টাইম": 9374,
      "গ্লোবাল": 9375,
      "গুজ": 9376,
      "ডিস": 9377,
      "শাদা": 9378,
      "তারাও": 9379,
      "##ঙ্‌": 9380,
      "দেখিয়ে": 9381,
      "কাটিয়ে": 9382,
      "উঠত": 9383,
      "এখনকার": 9384,
      "##িসারে": 9385,
      "দেখেন": 9386,
      "মিলল": 9387,
      "যতদিন": 9388,
      "বৃন্দ": 9389,
      "নীচ": 9390,
      "আবর্জনা": 9391,
      "##স্পর্শ": 9392,
      "উন্নয়নের": 9393,
      "জমিতে": 9394,
      "অনুপস্থিত": 9395,
      "নিয়মিত": 9396,
      "বিপ্লবী": 9397,
      "কোলাহলে": 9398,
      "অশ্বত্থ": 9399,
      "বিদেশি": 9400,
      "কথোপকথন": 9401,
      "ঠাট্টা": 9402,
      "রোমাঞ্চ": 9403,
      "আখ": 9404,
      "ঊর্ম": 9405,
      "কষ্টে": 9406,
      "গড়া": 9407,
      "ডাকা": 9408,
      "শাস্ত": 9409,
      "শফিক": 9410,
      "##ধের": 9411,
      "##ফুলের": 9412,
      "##ড়ক": 9413,
      "বিদেশে": 9414,
      "তারে": 9415,
      "##ুনা": 9416,
      "##ুলা": 9417,
      "##াপি": 9418,
      "##ষ্টায়": 9419,
      "বুঝবে": 9420,
      "সত্যবতী": 9421,
      "অনুশীল": 9422,
      "চিরতরে": 9423,
      "উৎসর্গ": 9424,
      "অধ্যাত্ম": 9425,
      "আরেকটা": 9426,
      "বীরত্বের": 9427,
      "সংস্কৃতিকে": 9428,
      "ক্ষুধা": 9429,
      "উদাহরণস্বরূপ": 9430,
      "সিমি": 9431,
      "সর্বোপরি": 9432,
      "দৃষ্টান্ত": 9433,
      "উপাখ্যান": 9434,
      "রাক্ষস": 9435,
      "হিটলার": 9436,
      "হোঁচট": 9437,
      "উত্থ": 9438,
      "জড়ো": 9439,
      "বড্ড": 9440,
      "শালা": 9441,
      "##ূঢ়": 9442,
      "##তাল": 9443,
      "##াধ্য": 9444,
      "##জিল": 9445,
      "করতাম": 9446,
      "আরণ্য": 9447,
      "##িমায়": 9448,
      "##প্রতি": 9449,
      "বরাবর": 9450,
      "শিক্ষকের": 9451,
      "বিরাম": 9452,
      "সার্ব": 9453,
      "অধ্যায়ের": 9454,
      "পুড়ে": 9455,
      "রাখেন": 9456,
      "উন্নতির": 9457,
      "##িমাখা": 9458,
      "শ্রাব": 9459,
      "পুরোহিত": 9460,
      "প্রকৃতিকে": 9461,
      "উৎসাহিত": 9462,
      "তথ্যপ্র": 9463,
      "জাদুক": 9464,
      "বিবেক": 9465,
      "ক্যামেরার": 9466,
      "উদ্বেগ": 9467,
      "এড়িয়ে": 9468,
      "খট": 9469,
      "##বেদন": 9470,
      "নিচ": 9471,
      "পাড়া": 9472,
      "মেসে": 9473,
      "সুপার": 9474,
      "##োগ্রা": 9475,
      "পেত": 9476,
      "বুঝলে": 9477,
      "এমনভাবে": 9478,
      "মানবজীবন": 9479,
      "বৃথা": 9480,
      "দোতলা": 9481,
      "বৈশ্বিক": 9482,
      "গুহার": 9483,
      "একবারও": 9484,
      "ছোঁয়ায়": 9485,
      "জ্বলতে": 9486,
      "চিৎকারে": 9487,
      "স্নায়": 9488,
      "আবেগে": 9489,
      "হতভ": 9490,
      "##ম্পূর্ণ": 9491,
      "শোনায়": 9492,
      "##বোধের": 9493,
      "সাধনা": 9494,
      "ওঁকে": 9495,
      "শৈশব": 9496,
      "উদারতা": 9497,
      "ঢোকে": 9498,
      "কবিতায়": 9499,
      "##ভাষার": 9500,
      "শহীদদের": 9501,
      "বিরোধী": 9502,
      "আলমারি": 9503,
      "মৃগ": 9504,
      "চণ্ড": 9505,
      "মরা": 9506,
      "শীল": 9507,
      "শুরুর": 9508,
      "##দূরে": 9509,
      "##রবে": 9510,
      "##িয়ের": 9511,
      "##চূ": 9512,
      "##ve": 9513,
      "##্রাজ": 9514,
      "নাহ": 9515,
      "নাতি": 9516,
      "সমাদ্দ": 9517,
      "##রাগ": 9518,
      "##্লাদ": 9519,
      "আসতেই": 9520,
      "সংখ্য": 9521,
      "##্টর": 9522,
      "কারি": 9523,
      "##শ্যাল": 9524,
      "##োলার": 9525,
      "এতটুকু": 9526,
      "কতবার": 9527,
      "চলছিল": 9528,
      "তারপরও": 9529,
      "রূপকথা": 9530,
      "বিপদের": 9531,
      "প্রেমিক": 9532,
      "বারান্দা": 9533,
      "ধ্বংসের": 9534,
      "বাহু": 9535,
      "অনুপ্রাণ": 9536,
      "সাক্ষাৎ": 9537,
      "অচিন্ত": 9538,
      "বিদ্রোহ": 9539,
      "##রুমের": 9540,
      "টর্চের": 9541,
      "চিকিৎসা": 9542,
      "ভিজিয়ে": 9543,
      "নিবেদন": 9544,
      "জোনাকি": 9545,
      "রিপোর্ট": 9546,
      "প্রতিধ্বনিত": 9547,
      "আটক": 9548,
      "ঋদ্ধ": 9549,
      "কের": 9550,
      "কতিপ": 9551,
      "তলা": 9552,
      "পয়": 9553,
      "শীর্ষ": 9554,
      "হীন": 9555,
      "##ুদার": 9556,
      "##il": 9557,
      "##য়াম": 9558,
      "একদল": 9559,
      "পরও": 9560,
      "থাকবো": 9561,
      "কারখানা": 9562,
      "হাসপাতা": 9563,
      "মনু": 9564,
      "সাড়া": 9565,
      "##ুপি": 9566,
      "ভাবলাম": 9567,
      "ভালোবাসে": 9568,
      "বোর্": 9569,
      "পোড়া": 9570,
      "##রোপণ": 9571,
      "জোয়ার": 9572,
      "লাইক": 9573,
      "গোলাপের": 9574,
      "ধুলোয়": 9575,
      "জয়ন্তী": 9576,
      "পুকুরে": 9577,
      "জিনিসটা": 9578,
      "খাটের": 9579,
      "ক্যাম্প": 9580,
      "শিরায়": 9581,
      "ব্যর্থতা": 9582,
      "মুঠোয়": 9583,
      "অনুপ্রাণিত": 9584,
      "অকৃত": 9585,
      "ঘন্টা": 9586,
      "নমুন": 9587,
      "ভু": 9588,
      "শঙ্কর": 9589,
      "সল": 9590,
      "##োরের": 9591,
      "##চাই": 9592,
      "তোদের": 9593,
      "কেনা": 9594,
      "সুগ": 9595,
      "কারখানার": 9596,
      "মহর্ষি": 9597,
      "উঠলাম": 9598,
      "##ন্ত্রিত": 9599,
      "বইতে": 9600,
      "##ক্ষেত্র": 9601,
      "##বেরা": 9602,
      "তুলনা": 9603,
      "বিক্রম": 9604,
      "দৃষ্টিভঙ্গি": 9605,
      "##চিত্র্যের": 9606,
      "পরীক্ষায়": 9607,
      "দুটোই": 9608,
      "আবেদন": 9609,
      "বিস্ময়ের": 9610,
      "সঙ্গীতের": 9611,
      "পদ্মার": 9612,
      "উন্মোচিত": 9613,
      "নাট্য": 9614,
      "নরেশ": 9615,
      "ট্যাক্সি": 9616,
      "ধারাবাহিক": 9617,
      "গরিব": 9618,
      "নান্দনিক": 9619,
      "কচ": 9620,
      "ঘুষ": 9621,
      "চর্য": 9622,
      "দমন": 9623,
      "পশ": 9624,
      "ফলের": 9625,
      "##মণ্ডল": 9626,
      "##ঝা": 9627,
      "##ান্": 9628,
      "বাসে": 9629,
      "বাজি": 9630,
      "##াবতীর": 9631,
      "##াজাল": 9632,
      "তোরা": 9633,
      "সমরে": 9634,
      "##ক্ষণের": 9635,
      "মানস": 9636,
      "কখনই": 9637,
      "ভাষায়": 9638,
      "ব্যবহারে": 9639,
      "বিরহের": 9640,
      "পাঠানো": 9641,
      "তাতেই": 9642,
      "লেখকের": 9643,
      "অশ্রুর": 9644,
      "গাঁথে": 9645,
      "##পত্রের": 9646,
      "রেখেই": 9647,
      "জোরালো": 9648,
      "##মোহন": 9649,
      "ছলছল": 9650,
      "কবিতায়": 9651,
      "অবলীল": 9652,
      "ইঁদুর": 9653,
      "নেটওয়ার": 9654,
      "স্লোগান": 9655,
      "গোয়েন্দা": 9656,
      "নখ": 9657,
      "##বৃত্ত": 9658,
      "##ুরিত": 9659,
      "বললেই": 9660,
      "মুড়ে": 9661,
      "বেড়": 9662,
      "রাজত্ব": 9663,
      "ছোটবেলা": 9664,
      "মহাশ": 9665,
      "হেমন্ত": 9666,
      "ছায়াময়": 9667,
      "এলাকা": 9668,
      "মনোবল": 9669,
      "চুমু": 9670,
      "##সংস্কার": 9671,
      "জ্বালায়": 9672,
      "মূলে": 9673,
      "বিষ্ণু": 9674,
      "দেবতারা": 9675,
      "ফ্ল্যাশলাই": 9676,
      "পুজো": 9677,
      "দারিদ্র্য": 9678,
      "সিস্টেম": 9679,
      "ফলাফল": 9680,
      "ঋতু": 9681,
      "খাতায়": 9682,
      "জর্মন": 9683,
      "ঠেকে": 9684,
      "তদন্ত": 9685,
      "নায়ক": 9686,
      "হওয়": 9687,
      "##বত": 9688,
      "##বস্ত": 9689,
      "##খিল": 9690,
      "##ড়িত": 9691,
      "একরকম": 9692,
      "বিধান": 9693,
      "##রাং": 9694,
      "কোন্": 9695,
      "জীবিত": 9696,
      "উপকার": 9697,
      "সত্যিকার": 9698,
      "ডাকল": 9699,
      "কতকাল": 9700,
      "ভালোবাসায়": 9701,
      "পরীক্ষিত": 9702,
      "কর্মসূ": 9703,
      "থাকতেন": 9704,
      "উন্নতি": 9705,
      "সত্তায়": 9706,
      "সমুদ্রে": 9707,
      "শাশ্ব": 9708,
      "প্রক্রি": 9709,
      "সভ্যতা": 9710,
      "কিনারে": 9711,
      "যোদ্ধ": 9712,
      "ন্যায়বিচার": 9713,
      "ইদ্রিস": 9714,
      "অবিকল": 9715,
      "হাসপাতালে": 9716,
      "আঘাতে": 9717,
      "ইজ": 9718,
      "কদ": 9719,
      "ধরি": 9720,
      "প্যা": 9721,
      "বর্ধ": 9722,
      "সিন্দ": 9723,
      "সযত্নে": 9724,
      "##ব্ব": 9725,
      "##শোনা": 9726,
      "##াংশ": 9727,
      "##গল্প": 9728,
      "##গণের": 9729,
      "##খির": 9730,
      "##উনি": 9731,
      "কর্তা": 9732,
      "একতার": 9733,
      "##্ষণের": 9734,
      "##র্মা": 9735,
      "পরশে": 9736,
      "##েইন": 9737,
      "##্দ্র": 9738,
      "কোত্থ": 9739,
      "##শ্বর্য": 9740,
      "বাঁচে": 9741,
      "##বুকে": 9742,
      "বোনে": 9743,
      "কলত": 9744,
      "চলতি": 9745,
      "ছিটিয়ে": 9746,
      "##বাবুকে": 9747,
      "পালাতে": 9748,
      "বৈঠ": 9749,
      "গুছ": 9750,
      "ডিভাই": 9751,
      "কুন্তীকে": 9752,
      "বন্দুক": 9753,
      "প্রতীক্ষায়": 9754,
[...]
