#version: 0.2 - Trained by `huggingface/tokenizers`
à ¦
à §
Ġ à¦
à¦ ¾
à§ ĩ
à¦ °
à§ į
à¦ ¿
à¦ ¨
à¦ ¤
à¦ ²
à¦ ķ
à¦ ¯
à§ ģ
à¦ ¬
à¦ ¼
à¦ ®
Ġà¦ ķ
à§ ĭ
Ġà¦ ¬
à ¥
à¥ ¤
Ġà¦ ¸
Ġà¦ ª
à¦ ¸
Ġà¦ Ĩ
à¦ Ł
à¦ ¦
à¦ ĩ
Ġà¦ ¨
Ġà¦ ®
à¦ Ľ
Ġà¦ ¦
à¦ ª
Ġà¦ ı
Ġà¦ ¤
à§ Ģ
Ġà¦ ¹
à¦ ľ
à¦¼ à§ĩ
â Ģ
à¦ ¶
à¦ ĸ
à¦ Ĺ
à¦ ·
Ġà¦ ħ
Ġà¦ķ à¦°
à¦ ¡
Ġà¦ ¯
à¦ §
à¦ ļ
Ġà¦ Ĺ
à¦ ¹
à§ Ł
à¦ £
à¦ ¥
Ġà¦ ¶
à¦ ģ
Ġà¦ ļ
Ġà¦ ľ
Ġà¦ Ń
Ġà¦ °
à¦ ĵ
à§ĩ à¥¤
Ġà¦ı à¦ķ
à¦ Ń
à¦¼ à¦¾
Ġà¦ Ľ
Ġà¦Ĩ à¦®
à¦ Ĥ
à¦ ł
Ġà¦¬ à¦²
Ġà¦ ī
Ġà¦Ĩ à¦°
à§ ĥ
Ġà¦ ¥
à¦¾ à¦ģ
à¦ Ļ
Ġà¦ ²
Ġà¦ ĵ
à§ Ĥ
âĢ Ķ
à§ĩ ,
Ġà¦ «
Ġà¦ ĸ
à¦¾ à¥¤
Ġà¦ª à¦°
Ġà¦¹ à¦¯
Ġ âĢ
Ġà¦ §
à¦° à¦¤
Ġà¦ħ à¦¨
Ġà¦¸ à¦®
à¦¼ à¦¿
à¦ĸ à¦¨
à¦¾ ,
Ġà¦ıà¦ķ à¦Ł
Ġà¦ ĺ
à§ ľ
à¦ª à¦°
Ġà¦® à¦¨
à¦® à¦¨
Ġà¦ı à¦ĩ
à¦¿ à¥¤
à¦ «
âĢ Ļ
Ġà¦¬à¦² à¦²
à¦° à¦£
à¦¬ à¦¨
à¦ Ŀ
à¦ ŀ
âĢ Ŀ
à§ İ
à¦ľ à¦¨
à¦ ı
à¦ ī
à¦° à¦ķ
Ġà¦¸ à¦¬
à¦ª à¦¨
Ġà¦ Ł
Ġà¦¹ à¦²
à¦¬ à¦°
Ġà¦ķ à¦¥
à¦¤ à¦°
à¦¿ ,
ĠâĢ ľ
Ġà¦Ĩ à¦Ľ
Ġà¦Ĩ à¦¸
ĠâĢ ĺ
Ġà¦ī à¦ł
à¦° à¦¬
à§ Į
à¦ Ĩ
Ġà¦ ĩ
Ġà¦ı à¦¬
Ġà¦¹ à¦¬
à¦¼ à¥¤
Ġà¦ª à¦¡
Ġà¦ľ à¦¨
Ġà¦¸ à¦Ļ
Ġà¦Ĩ à¦²
Ġà¦ ¡
Ġà¦® à¦¤
à§ Ī
Ġà¦ķà¦° à¦¤
à¦ĵ à¦¯
Ġà¦§ à¦°
Ġà¦ķà¦° à¦²
âĢ ĵ
Ġà¦ ł
Ġà¦ı à¦¸
Ġà¦ Ŀ
Ġà¦ħ à¦¬
à¦ ĺ
Ġà¦® à¦§
à¦° à¦®
à¦· à¦£
Ġà¦¬ à¦¸
à¦¼ ,
Ġà¦ļ à¦²
à¦¨ à¦¤
Ġà¦Ĩ à¦Ĺ
Ġà¦Ĩ à¦ľ
à¦¬ à¦²
Ġà¦Ĩ à¦¬
à¦ķ à¦°
à¦ķ à¦²
Ġà¦ ¢
à¦ķ à¦Ł
à§ģ à¦ģ
Ġà¦¬ à¦¨
Ġà¦¹ à§Ł
Ġà¦Ĩà¦® à¦°
Ġà¦¨ à¦¯
à¦ ĥ
à¦° à¦¥
Ġà¦ħ à¦°
Ġà¦Ĺ à¦²
à¦¸ à¦¬
Ġà¦ħ à¦¸
Ġà¦ı à¦ĸà¦¨
à§ĭ à¥¤
Ġà¦Ĩ à¦ªà¦¨
à¦¯ à¦¬
Ġà¦¨ à¦¤
Ġà¦¤ à¦¬
à§ĩ ?
Ġà¦ķà¦° à¦Ľ
à¦° à¦¸
Ġà¦¤ à¦ĸà¦¨
à¦² à¦ķ
à¦°à¦¥ à¦®
à¦¾ à¦Ĥ
Ġà¦ı à¦²
à¦¨ à¦ĵ
Ġà¦¹ à¦¤
à¦¤ à¦¨
à§ĭ à¦ģ
à§ĩ âĢĶ
à¦ķ à¦¤
à§ĩ à¦ģ
à§ĭ ,
Ġà¦¬ à¦°
à¦Ĺ à¦²
Ġ Ċ
Ġà¦īà¦ł à¦²
à¦¿ à¦Ĥ
Ġà¦¸à¦® à¦¯
à¦° à¦¨
à¦¾ -
Ġà¦¸ à¦¤
à¦¬ à¦ª
Ġà¦¶ à¦¬
Ġà¦¯ à¦¦
à¦° à¦²
à¦¬ à¦¤
Ġà¦® à¦¹
Ġà¦ī à¦¦
Ġà¦ķà¦° à¦¬
Ġà¦ª à¦¥
Ġà¦ĺ à¦°
à¦ ħ
Ġà¦Ĩ à¦¨
à¦Ĩ à¦®
Ġà¦ħ à¦Ń
à¦¦ à¦°
à¦ĩ à¦²
à¦ĸ à¦¤
Ġà¦¬ à¦¡
Ġà¦ī à¦ª
Ġà¦ħ à¦¤
Ġà¦¸ à¦¨
à¦Ĺ à¦¤
Ġà¦ı à¦®à¦¨
à¦¤ à¦¬
Ġà¦ķ à¦²
à¦ĸ à¦²
Ġà¦ħ à¦¦
à¦® à¦¤
à¦Ľ à¦¨
à¦¯ à¦ķ
Ġà¦Ĩ à¦ķ
Ġà¦¯ à¦ĸà¦¨
à¦¶ à¦¨
Ġà¦ľ à¦²
à¦² à¦¤
Ġà¦° à¦ķ
à¦® à¦ķ
à¦° à¦¶
à¦ļ à¦¨
Ġà¦¹ à¦ļ
à¦° à¦ªà¦°
Ġà¦¸ à¦°
à¦ª à¦¦
à¦¹ à¦¸
Ġà¦ı à¦¤
Ġà¦ĵ à¦ł
Ġà¦Ĩ à¦¶
à¦° à¦¹
à¦² à¦¬
à¦° à¦ľ
à¦¨ à¦¬
Ġà¦ĵ à¦ªà¦°
Ġà¦ħ à¦ª
à¦® à¦²
Ġà¦¸ à¦¹
à¦ĵ à§Ł
à¦² à¦¨
Ġà¦¹ à¦ł
à¦° à¦¦
à¦¦ à¦¨
Ġà¦¬à¦² à¦¤
à¦° à¦ĩ
à¦ĩ à¦¨
à¦¾ âĢĶ
à¦° à¦¯
Ġà¦¨ à¦¦
à¦¼ à§ĭ
à¦§ à¦¨
à¦ª à¦¤
Ġà¦ī à¦¤
Ġà¦ħ à¦§
Ġà¦Ĩ à¦¤
Ġà¦ķ à¦ĸà¦¨
Ġà¦ĺ à¦Ł
à¦ķ à¦¬
à¦§ à¦ķ
Ġà¦ı à¦ĸ
Ġ ĠĊ
à¦ı à¦ĩ
à¦¯ à¦¨
Ġà¦¶ à¦ķ
à¦¯ à¦¤
à¦¹ à¦°
à¦® à¦¯
à¦Ł à¦ķ
à¦Ľ à¦°
Ġà¦ķ à¦¬
Ġà¦ķ à¦®
Ġà¦ĵ à¦°
Ġà¦ı à¦Ĺ
à¦¹ à¦²
âĢ ¦
à¦¨ à¦¨
à¦¸ à¦¨
Ġà¦ı à¦Ł
à¦° à¦ĵ
à¦Ń à¦¬
Ġà¦ª à§ľ
à¦¾ ?
Ġà¦ĵ à¦ĩ
à¦¿ ?
Ġà¦Ĩà¦° à¦ĵ
âĢ ľ
à§ĩ -
Ġà¦ķ à¦¤
Ġà¦¬ à¦Ľà¦°
Ġà¦ľ à¦®
à¦¿ -
Ġà¦¬ à¦ĩ
Ġà¦ķ à¦£
à¦® à¦°
Ġà¦¦ à¦°à¦ľ
à¦ļ à¦²
à¥¤ âĢĿ
Ġà¦ĩ à¦¤
Ġà¦ī à¦¨
à¦® à¦£
Ġà¦Ń à¦¯
Ġà¦¯ à¦¤
à¦Ŀ à¦¤
à¦¨ à¦ķ
Ġà¦¨ à§Ł
à¦¤ à¦²
Ġà¦ħ à¦ľ
Ġà¦ī à§İ
Ġà¦¬ à¦¹
à¦° à¦ª
Ġà¦¸à¦® à¦¸
Ġà¦¸ à¦ķ
Ġà¦ı à¦°
! âĢĿ
à§Ģ ,
à¦ĩ à¦°
à¦¿ âĢĶ
à¦¸ à¦®
à¦° à¦Ł
Ġà¦¶ à¦¹à¦°
Ġà¦ħ à¦ļ
à¦· à¦ķ
Ġà¦ī à¦ļ
à¦¬ à¦¦
à¦· à¦¤
à¦ļ à¦¯
Ġà¦« à¦²
à¦² à¦²
à¦¯ à¦®
Ġà¦ħ à¦¥
Ġà¦¬à¦² à¦Ľ
Ġà¦ĩ à¦¨
à§İ à¦ķ
à¦¸ à¦°
à¦¤ à¦ķ
Ġà¦Ĺ à¦°
à¦¿ à¦ĥ
Ġà¦Ń à¦°
Ġà¦Ľ à¦¡
à¦¦ à¦²
à¦ļ à¦ķ
Ġà¦ħ à¦®
à§Ģ à¥¤
Ġà¦ª à¦¦
à¦¼à§ĩ à¥¤
à¦°à¦ķ à¦®
à¦Ĺ à¦°
à¦¨ à¦Ł
à¦¯à¦¬ à¦¹
à¦¤ à¦¤
Ġà¦¬ à¦¯
à§ °
Ġà¦Ľ à¦¬
à¦ı à¦ķ
à¦¤ à¦®
Ġà¦ıà¦ķ à¦ľà¦¨
Ġà¦² à¦ķ
Ġà¦ħ à¦ªà¦°
Ġà¦ıà¦ķ à¦¬
Ġà¦Ĺ à¦Ń
Ġà¦¶ à¦°
à¦® à¦¬
à¦¿ à¦ģ
à¦¬ à¦¸
Ġà¦Ĩà¦¸ à¦²
à¦¦ à¦¯
Ġà¦Ĺ à¦¨
Ġà¦ Ĳ
à¦° à¦Ľ
à§ģ âĢĻ
Ġà¦ħ à¦ķ
à¦ª à¦ķ
Ġà¦ħà¦¬ à¦¸
Ġà¦° à¦Ļ
à§ģ ,
Ġà¦Ĺ à¦¡
à¦¸ à¦²
à¦¯à¦¬ à¦¸
à¦° à¦ļ
à§ §
à¦¶ à¦ķ
à¦° à¦Ń
Ġà¦ıà¦ķ à¦¦
Ġà¦ķ à¦¯
à¦ĩ à¦ķ
Ġà¦Ĩà¦¸ à¦Ľ
à¦Ł à¦²
Ġà¦Ĩ à¦§
à§Ł à¦¨
Ġà¦® à¦°
à§Į à¦ģ
à¥¤ âĢĻ
à¦¼à§ĩ ,
Ġ âĢĶ
à¦ļ à¦°
à§ĩ !
Ġà¦° à¦¬
Ġà¦¤ à¦°
à§ĩà¥¤ âĢĿ
Ġà¦Ĩà¦ľ à¦ķ
Ġà¦° à¦¹à¦¸
à¦¶ à¦¬
Ġà¦ħ à¦Ĺ
à¦¸ à¦¤
âĢ Į
Ġà¦ħ à¦²
à¦¬ à¦¬
Ġà¦ħà¦¬ à¦¶
Ġ Ġ
à¦¯ à¦¸
à¦¸ à¦«
à¦Ĺ à¦¨
à¦¬ à¦ķ
Ġà¦ª à¦ķ
à§ģ à¥¤
à¦¨ à¦²
à§ģ à¦ĥ
à¦· à¦¯
Ġà¦Ń à¦¬
à¦¬ à¦¯
Ġà¦ħ à¦¶
Ġà¦¬ à¦¦à¦²
à¦ ¢
à¦ª à¦Ł
à§į âĢĮ
à¦¯ à¦¦
à¦ľ à¦°
à¦ĸ à¦¬
Ġà¦ĩ à¦ļ
à¦¹ à¦¨
Ġà¦Ĩà¦¨ à¦¨
Ġà¦¬à¦² à¦¬
à¦ĩ à¦Ł
à¦ĸ à¦Ľ
? âĢĻ
à¦¾ !
? âĢĿ
Ġà¦Ĩ à¦ļ
à¦ĩ à¦¯
à§ģ -
à¦¸ à¦Ļ
Ġà¦Ĺ à¦¤
Ġà¦ī à¦ªà¦°
Ġà¦Ĩ à¦¦
Ġà¦ª à¦¤
Ġà¦ħà¦¥ à¦ļ
à¦ķ à¦¨
à¦Ĺ à¦ľ
Ġà¦ Ī
Ġà¦ĵ à¦¦
à§ĩ âĢĵ
Ġà¦¶ à¦¤
à¦£ à¦¤
Ġà¦¸ à¦ķà¦²
Ġà¦Ĩ à¦¡
Ġà¦ĺà¦Ł à¦¨
Ġà¦° à¦ĩà¦²
à¦Ł à¦¤
à¦¨ à¦¦
à¦ª à¦¸
Ġà¦¬ à¦Ł
à¦ĺ à¦°
à¦Ŀ à¦²
Ġà¦ĸ à¦¬à¦°
à§ĩ ;
à¦¨ à¦¸
Ġà¦¹ à¦ĵà¦¯
à¦° à¦Ĺ
à¦¸ à¦ķ
à¦Ļ à¦²
à¦ª à¦¥
à¦§ à¦¤
Ġà¦°à¦ķ à¦®
à¦¬ à¦¶
à¦° à¦ľà¦¨
Ġà¦ī à¦²
à¦ķ à¦ķ
à¦ī à¦¨
à§§ à§
Ġà¦ıà¦ĸà¦¨ à¦ĵ
à¦¦ à§Ł
à¦Ł à¦°
Ġà¦¸à¦® à§Ł
Ġà¦ħ à¦«
Ġà¦Ĩà¦¸ à¦¬
Ġà¦¦ à¦°à¦ķ
à¦§ à¦°
Ġà¦° à¦¯
à¦ı à¦¬
à¦² à¦Ľ
à¦ľ à¦¬
Ġ (
Ġà¦ı à¦¨
à¦ľ à¦²
à¦¯ à¦ĩ
Ġà¦ıà¦ķ à¦ĩ
à¦ª à¦¡
à§ĭ âĢĶ
à¦ı à¦°
Ġà¦¦ à¦²
à¦°à¦® à¦£
Ġà¦Ĩ à¦Łà¦ķ
Ġà¦Ń à¦¦
à¦¼ à§Ģ
Ġà¦Ĩ à¦¯
Ġà¦ı à¦¦
à¦¼ à§ģ
à¦¨ à¦Ĺ
Ġà¦¤ à¦²
Ġà¦¸à¦¬ à¦ļ
à¦° à¦§
à¦« à¦²
à¦Ł à¦¬
Ġà¦ħ à¦Ļ
Ġà¦ķ à¦ł
Ġà¦ ĭ
Ġà¦¤ à¦¥
à¦ı à¦ķà¦Ł
à¦°à¦¬ à¦¤
Ġà¦ķ à¦¨
Ġà¦¤à¦ĸà¦¨ à¦ĩ
Ġà¦¸à¦¹ à¦ľ
Ġà¦Ĩà¦¸ à¦¤
à¦°à¦¹ à¦£
à¦¯ à¦°
Ġà¦īà§İ à¦¸
à¦¥ à¦¨
à¦ĩ à¦¤
à¦ª à¦·
Ġà¦¯ à¦¥
à¦ħ à¦¨
à¦Ĺ à¦¬
Ġà¦ĺ à¦¨
Ġà¦ľ à¦¯
Ġà¦Ĩ à¦ª
Ġà¦ľ à¦°
à¦Ĩ à¦°
à¦² à¦®
à¦® à¦¸
à¦¼à¦¾ ,
âĢĶ âĢľ
à¦ķ à¦¦
à¦¼à¦¾ à¥¤
Ġà¦¬ à¦ķ
à¦¹ à¦¤
Ġà¦ķ à¦²à¦ķ
à¦¾ âĢĵ
Ġà¦Ľ à§ľ
à¦ľ à¦ķ
à§İ à¦¸
à¦Ł à¦¨
Ġà¦ļ à¦°
Ġà¦¸ à¦ļ
à¦· à¦®
Ġà¦¤ à¦¤
à¦¸à¦¬ à¦ĩ
à¦¨ à¦°
à¦¾ ;
Ġà¦Ĩ à¦Ļ
à¦§ à¦¬
à¦· à¦°
Ġà¦¦ à¦¶
à§ĭ ?
Ġà¦ķ à¦·
Ġà¦¹ à¦°
Ġà¦Ī à¦¶
Ġà¦ħà¦¨ à¦¨
à¦® à¦Ł
à¦¥ à¦°
Ġà¦¦ à¦°
Ġà¦ķà¦ĸà¦¨ à¦ĵ
Ġà¦ļ à¦ķ
Ġà¦Ĺ à§ľ
à¦¼ âĢĶ
Ġà¦¸ à¦°à¦ķ
Ġà¦ª à¦²
Ġà¦ľ à¦¡
Ġ à§§à§
à¦¨ à¦¯
à¦ĩ à¦¬
Ġà¦Ĳ à¦¤
à¦ľ à¦¸
Ġà¦¬ à§ľ
à¦Ń à¦°
à¦ķ à¦¶
Ġà¦Ń à§Ł
Ġà¦īà¦ł à¦¤
à¦¹ à¦¯
à¦ľ à¦¤
à¦¾à¥¤ âĢĿ
à¦¿ !
à¦¨ à¦ĩ
Ġà¦Ĩ à¦¹
Ġà¦§à¦° à¦¨
Ġà¦ľ à¦¬
Ġà¦¨ à¦®
âĢ ĺ
à¦¼ ?
Ġà¦ıà¦¸ à¦¬
Ġà¦² à¦ľ
Ġà¦ªà¦° à¦¬à¦°
à§Ģ -
à¦ľ à¦¯
à¦² à¦Ł
Ġà¦ī à¦ľ
Ġà¦¬ à¦ī
à¦ĩ à¦Ľ
à¦· à¦®à¦¤
à¦¯ à¦¥
âĢĻ à¥¤
à¦¹ à¦ł
Ġà¦§ à¦¨
à¦² à¦Ĺ
ĠâĢ ĵ
Ġà¦īà¦ª à¦¸
à¦¸ à¦Ł
à¦Ĩ à¦ªà¦¨
à¦ķ à¦¡
à¦Ĩà¦® à¦°
à¦Ĺ à¦®
à¦Ł à¦«
à§ĭ -
à¦ŀ à¦¤
à¦ł à¦ķ
à¦ª à¦£
à¦² à¦¸
Ġà¦¯ à¦¨
à¦¦ à¦®
Ġà¦¸ à¦Ń
Ġà¦¨ à¦¬
à¦¾à¦ģ ,
Ġà¦Ĩ à¦ĵà¦¯
à¦ĥ à¥¤
Ġà¦§à¦° à¦²
à¦¶ à¦²
à¦® à¦¹
Ġà¦ī à¦¡
Ġà¦īà¦ł à¦Ľ
Ġ à§
Ġà¦ħà¦¥ à¦¬
à¦£ à¦ķ
à¦² à¦¯
à¦¼ à¦Ĥ
à¦¦ à¦¸
Ġà¦ĵ à¦ķ
à¦¬ à¦ĩ
à¦¼ -
Ġà¦¨ à¦°à¦®
Ġà¦® à¦ľ
Ġà¦Ŀ à¦°
Ġà¦ı à¦Ń
à§Ģ ?
Ġà¦ıà¦ķ à¦¸à¦Ļ
à¦ī à¦ķ
à¦® à¦§
Ġà¦Ĩà¦° à¦®
à§ĩà¥¤ âĢĻ
Ġà¦¸à¦¬ à¦ĩ
à¦ĩ à¦Ń
Ġà¦¨ à¦ľà¦°
Ġà¦ĵ à¦Ł
à¦¡ à¦²
Ġà¦ıà¦ķ à¦®
¯ à§
Ġà¦¦ à¦ķ
Ġà¦Ĺ à¦£
Ġà¦¨ à¦¨
à¦® à¦Ĺ
Ġà¦Ĩ à¦Ń
à¦® à§Ł
à¦¬ à¦Ľ
à¦° à§Ł
à¦¾à¥¤ âĢĻ
à¦¯ à¦¯
à¦ĩ à¦¡
Ġà¦ªà¦° à¦®
à¦¹ à¦°à¦£
à¦ī à¦²
à¦¾ âĢĻ
à¦¯ à¦ª
à¦¸ à¦ª
Ġà¦¬à¦¸ à¦²
Ġà¦¶ à¦¹
Ġà¦¬ à§Ł
Ġà¦Ĩ à¦¦à¦°
Ġà¦Ĩà¦ľ à¦ĵ
à¦ı à¦Ł
Ġà¦ļà¦² à¦Ľ
à¦¿ âĢĵ
à¦® à¦°à¦£
à¦¤ à¦Ł
à¦ķ à¦¥
Ġà¦¸ à¦°à¦²
à¦° à¦ĸ
Ġà¦ħà¦¸ à¦®
Ġà¦ķ à¦ª
Ġà¦Ĺ à¦°à¦®
à¦§ à¦¹à¦¯
à§Ł à¦¤
à¦ķ à¦ľà¦¨
Ġà¦² à¦¡
Ġà¦īà§İ à¦¸à¦¬
à¦ķ à¦°à¦£
Ġà¦ª à¦¶
à§ĩ? âĢĿ
à¦¶ à¦ª
à¦¯ à¦Ń
à¦ļ à¦¡
à¦ħ à¦°
à¦ķ à¦¸
Ġà¦ļ à¦®à¦ķ
Ġà¦¥ à¦®à¦ķ
à¦Ĺ à¦Ľ
à¦ı à¦¸à¦¬
Ġà¦ĺ à¦£
à¦Ĩ à¦ľ
à¦ķ à¦Ń
à ¤
Ġà¦¸ à¦ŀ
âĢĻ ,
à¦ľ à¦®
Ġà¦Ĺ à¦¬
Ġà¦ªà§ľ à¦²
Ġà¦² à¦²
Ġà¦° à¦®à¦£
à¦¶ à¦®
à¦° à¦°
Ġà¦® à¦¸
Ġà¦¸à¦¤ à¦¤
Ġà¦² à¦®
à¦¡ à¦¬
Ġà¦ª à¦ŀ
Ġà¦Ĺ à¦®
à¦¨ à¦Ń
Ġà¦ļ à¦¨
Ġà¦ıà¦®à¦¨ à¦ķ
à¦° à¦«
Ġà¦° à¦¸
Ġà¦® à¦²
Ġà¦¹ à¦¸
à¦Ŀ à¦ĸ
à¦¿à¥¤ âĢĿ
à§ĩ âĢ¦
Ġà¦® à¦£
Ġà¦ĵ à¦¯
à¦¦ à¦Ĺ
Ġà¦ªà¦¦ à¦ķ
à§ĩ? âĢĻ
à¦¤ à¦¦
à¦ķ à¦Ľ
à¦ķ à¦Ĺ
à¦£ à¦¨
à§ ¦
à¦® à¦¶
à¦¸ à¦Ľ
à¦ķ à¦ĩ
à¦ļ à¦¤
Ġà¦ļ à¦¡
Ġà¦ļà¦² à¦¤
à¦¬ à¦Ń
Ġà¦¸à¦® à¦¨
à¦¸ à¦®à¦¯
à¦ª à¦ļ
à¦¬ à¦¡
à¦° à¦¬à¦¨
à¦ļ à¦Ł
à¦ı à¦ĸ
Ġà¦Ĺ à¦Ļ
à¦® à¦ľ
à¦· à¦Ł
, âĢĿ
à¦¤ à¦¨à¦¤
à¦¤ à¦ª
Ġà¦ħ à¦ŀ
Ġà¦¯à¦¤ à¦ĩ
Ġà¦¦ à¦®
Ġà¦ª à¦Ľà¦¨
à¦² à¦®à¦²
à¦Ľ à¦²
à¦® à¦¦
à¦¦ à¦Ł
Ġà¦° à¦ļà¦¨
à¦£ à¦¬
Ġà¦® à¦ŀ
à¦ł à¦¨
à¦ľ à¦Ł
Ġà¦Ń à¦Ļ
Ġà¦ļà¦² à¦²
Ġà¦ª à¦£
à¦¬ à¦ļ
à¦® à¦ª
Ġà¦¸ à¦ª
Ġà§§à§ ¯à§
Ġà¦ħà¦¤ à¦ıà¦¬
Ġà¦® à¦¶
à¦¬ à¦§
Ġà¦¸ à¦ł
à¦¼ ;
à¦² à¦Ń
à§ĭ !
à¦ľ à¦Ľ
Ġà¦ķ à§Ł
Ġà¦ħ à¦®à¦²
à¦Ł à¦Ľ
à¦ľà¦¨ à¦ķ
Ġ :
à¦ı à¦ĸà¦¨
Ġà¦¸à¦¬ à¦ķ
à¦¥ à¦²
à¦ĩ à¦¸
Ġà¦īà¦ł à¦¬
à¦ī à¦°
à¦¬ à¦¹
à¦ł à¦¸
Ġà¦ļ à¦Ł
à§ĩ :
à¦¿ ;
à¦Ł à¦Ł
Ġà¦ī à¦°
à¦¥ à¦ķ
à¦ī à¦Ł
à¦¿à¥¤ âĢĻ
à¦· à¦¦
Ġà¦¹ à¦¨
à¦°à¦¸ à¦Ļ
à¦¤ à¦Ń
Ġà¦¨ à¦·
Ġà¦ĵ à¦ĸ
Ġà¦ľ à¦Ł
à¦¶ à¦¯
à¦ĸ à¦ķ
Ġà¦Ŀ à¦¨
à¦¯ à§İ
à¦° à¦¦à¦°
Ġà¦ª à¦¯
Ġà¦ħ à¦°à¦£
Ġà¦ľ à¦Ļ
à¦ª à¦®
Ġà¦ħ à¦Ł
à¦° à¦Ĺà¦¤
Ġà¦¸ à¦¦
âĢ¦ âĢĿ
à¦Ĺ à¦¡
à¦®à¦¨ à¦ĩ
Ġà¦Ŀ à¦²à¦®à¦²
Ġà¦¬ à¦ľ
à¦® à¦ļ
Ġà¦ı à¦°à¦ķà¦®
Ġà¦Ĩ à¦¨à¦¤
à¦ļ à§Ł
à¦¶ à¦Ł
à¦Ł à¦®
Ġà¦« à¦°
à§ĩ !âĢĿ
à¦Ł à¦ª
Ġà¦ķà¦¤ à¦Ł
à§ Ŀ
à¦² à¦ĩ
à¦¨ à¦¶
Ġà¦Ľ à¦¨
à¦Ľ à¦¬
Ġà¦Ĩ à¦ĩà¦¨
Ġà¦¬à¦ĩ à¦¯
à¦® à¦¡
Ġà¦¨ à¦¡
à¦¸ à¦¹
à¦ª à¦²
Ġà¦® à¦¦
Ġà¦° à¦«
Ġà¦° à§Ł
à¦ĩ à§Ł
à¦² à¦ļ
à¦Ń à¦¯
Ġà¦ī à¦ªà¦¨
Ġà¦ ·
à¦Ĩ à¦²
à¦¤ à¦ĩ
Ġà¦Ĩ à¦ĺ
à¦ĩ à¦ľ
Ġà¦ľ à§Ł
à¦¨ à¦Ľ
Ġà¦Ĩ à¦ķà¦°
à¦¿ âĢĻ
Ġà¦ľ à¦Ĺà¦¤
Ġà¦ıà¦¤ à¦ķ
à¦ĩ à¦®
à§ ¨
à¦ª à¦Ľ
à¦ĸ à¦°
à¦¡ à¦¬à¦¦
à¦¼à¦¿ à¥¤
à¦¸à¦¬ à¦ķ
à¦¬ à¦Ł
à¦ĵ à¦°
Ġà¦ıà¦ķ à¦¤
Ġà¦ĩ à¦¯
. .
à¦°à¦¬ à¦²
Ġà¦Ŀ à¦¡
Ġà¦ķ à¦Ł
à¦¦ à¦ķ
à¦¤ à¦¸
à¦¯ à¦®à¦¯
âĢĶ âĢĺ
à¦¨ à¦¬à¦¤
à¦¥ à¦®
à¦Ĩ à¦Ĺ
à¦Ŀ à¦°
é Ł
Ġà¦¹ à¦ĵà§Ł
éŁ ¿
à¦¾ à¦ĥ
à¦Ľ à¦¤
Ġà¦ĩ à¦²
Ġà¦ħà¦¸ à¦¹
à§į à¥¤
Ġà¦¨ à¦ķ
Ġà¦ļ à¦®
à¦® à¦ªà¦°
à¦¯ à¦Ł
à¦¼à¦¿ ,
Ġà¦§ à¦°à¦¤
éŁ¿ éŁ¿
à¦ĺ à¦¨
à¦ļ à¦°à¦£
à¦ľ à¦Ĺ
Ġà¦ĵ à¦ª
Ġà¦īà¦ª à¦²à¦¬
à¦¹ à¦®
à¦ĵ à¦¨
Ġà¦ħà¦¨ à¦²
Ġà¦ħà¦ª à¦®
Ġà¦ħà¦¦ à¦®
à¦¨ à§Łà¦¨
à¦ķ à¦®
Ġà¦ıà¦¤ à¦Ł
Ġà¦ħ à¦Łà¦²
à§ĩ à¦¾
Ġà¦Ĩà¦ļ à¦°à¦£
à¦° à¦¬à¦°
à¦Ĺ à¦£
Ġà¦ļ à¦°à¦®
Ġà¦ļà¦² à¦¬
Ġà¦° à¦ŀ
Ġà¦¹à§Ł à¦¤
à¦² à¦ª
à¦°à¦¹ à¦°
Ġà¦¶ à¦Ļ
à¦¾? âĢĻ
à¦ķ à¦ļ
Ġà¦ı à¦°à¦ªà¦°
à¦· à§Ł
à¦¨ à¦ª
à¦ĺ à¦²
Ġà¦Ĳ à¦ķ
à¦¾ :
Ġà¦ĭ à¦·
i n
à¦¬ à¦®
Ġà¦ī à¦·
Ġà¦¹ à¦ĩ
à¦¦ à¦¬
Ġà¦¨ à¦Ĺà¦°
à¦¦ à¦¶
Ġà¦¬à¦¸ à¦¤
à¦¼ âĢĵ
Ġà¦ļ à¦¤
à§ĭà¥¤ âĢĿ
Ġà¦ķ à¦«
Ġà¦Ł à¦°
à¦¨ à¦ļ
à¦¯ à¦ķà¦°
à¦¬ à¦ľà¦¨
Ġà¦¤à¦ĸà¦¨ à¦ĵ
Ġà¦Ń à¦ķ
à¦ª à¦¯
Ġà¦ı à¦¡
à¦Ł à¦¸
à¦® à¦Ľ
Ġà¦¸ à¦ľ
à¦¼à¦¾ -
Ġà¦ĩ à¦¸
à¦°à¦ķ à¦²
Ġà¦Ĩà¦² à¦®
à¦Łà¦« à¦°
t h
à¦ĩ à¦¦
Ġà¦¸ à§İ
à¦¯à¦¤ à¦®
Ġà¦ħà¦ľ à¦¸
à¦ĩ à¦ª
Ġà¦® à¦¯
Ġà¦ĸ à¦°à¦ļ
Ġà¦® à¦¡
à§Ł à¦Ĺ
Ġà¦¸ à¦¤à¦°
à¦¾ âĢĿ
Ġà¦¸à¦® à¦°
a n
Ġà¦ª à¦¨
à¦¦ à¦¤
Ġà¦ļ à¦¶à¦®
à¦¨ à¦®
à¦² à§Ł
à¦°à¦¥à¦® à¦¬
à¦¶ à¦¤
à¦¶ à¦Ĺ
Ġà¦®à¦¤ à¦¨
à¦¯ à¦ĵ
Ġà¦¸à¦¹ à¦®à¦°
à¦¥ à¦¬
à¦¼ !
Ġà¦ħ à¦®à¦¨
à¦ħ à¦¤
Ġà¦Ĩ à¦«
à¦² à¦ľ
à§Ģ !
à¦¬à¦² à¦¤
Ġà¦ħ à¦¹
à¦ľ à¦Ĺà¦¤
Ġà¦ĸ à¦¸
à¦ī à¦¦
Ġà¦ħà¦¬ à¦§
à¦® à¦®
Ġà¦ª à¦Ł
Ġà¦ĩ à¦Ļ
Ġà¦ķ à¦¡
à¦Ŀ à¦¬
Ġà¦¬à¦¸ à¦¬
à¦¶ à¦°
à¦ķ à¦ª
à§ «
à§Ģ âĢĶ
Ġà¦® à¦Ļ
à¦« à¦°
à¦¿? âĢĿ
Ġà¦ľ à¦Ĺ
à§ĩâĢĶ âĢľ
e r
à¦ı à¦®à¦¨
Ġà¦ĺ à¦¡
à¦ľà¦¨ à¦¶
à¦ı à¦Ń
à¦¬à¦² à¦ľ
à¦¬ à¦°à¦£
Ġà¦¯ à¦ľ
Ġà¦ıà¦ķ à¦¸
à¦Ń à¦Ļ
Ġà¦ıà¦¤ à¦¦
à§Ł à¦®
à¦¬ à¦£
Ġà¦Ĺ à¦¦
à¦¥ à¦¤
à¦°à¦® à¦¶
à¦¸ à¦Ń
à¦ľ à¦ª
Ġà¦ªà¦° à¦¶
Ġà¦Ĩ à§Ł
Ġà¦Ĩà¦¬ à¦¦
Ġà¦Ĩ à¦ĵà§Ł
à¦ĸ à¦Ł
Ġà¦² à¦¤
Ġà¦¸à¦¹ à¦¯
à¦¨ à¦ľà¦¨
à¦® à¦ĩ
Ġà¦« à¦Ł
à§ĩ âĢĻ
Ġà¦¬à¦ĩ à§Ł
Ġà¦ªà¦° à¦¸
Ġà¦īà§İ à¦ª
Ġà¦īà¦ª à¦ķ
à¦¤ à¦ĸà¦¨
Ġà¦ķ à¦ļ
Ġà¦®à¦¨ à¦¸
à¦ī à¦¯
à¦°à¦ļ à¦£
Ġà¦ķ à¦ķ
Ġà¦Ĺ à¦¹
à¦¾ !âĢĿ
Ġà¦¬ à¦Ļ
Ġà¦Ĩà¦¤ à¦Ļ
à¦ª à§ľ
à¦ķ à§ľ
à¦ī à¦ľ
à¦² à¦«
à¦¬ à¦°à¦¤
à¦ľ à¦¦
Ġà¦®à¦¨ à¦Ł
Ġà¦ķà¦² à¦®
Ġà¦ļà¦® à§İà¦ķ
Ġà¦¨ à¦ĩà¦²
à¦Ń à¦ķ
Ġà¦² à§ľ
à¦¸ à¦¸
Ġà¦Ĩ à¦ªà¦¤
à¦¬à¦¨ à¦ķ
à¦¯ à¦ľ
à¦Ł à¦¦
Ġà¦¯à¦¤ à¦Ł
à¦¸ à¦¦
à¦° à¦Ļ
à¦¶ à¦¦
Ġà¦¬à¦¸ à¦¨
à¦¤ à¦ľ
à¦¿? âĢĻ
à§ĭ ?âĢĿ
Ġà¦Ĩ à§ľ
à¦Ł à¦Ĺ
Ġà¦ķ à¦®à¦²
à¦² à¦¦
à¦¬à¦² à¦Ľ
Ġà¦Ĺ à¦ľ
Ġà¦Ń à¦°à¦¸
à¦Ĩ à¦ľà¦ķ
Ġà¦¦ à¦¤
Ġà¦ıà¦ķ à¦ĸ
à¦¼à¥¤ âĢĿ
Ġà¦® à¦®à¦¤
à¦« à¦Ł
à¦ī à¦¸
Ġà§ ¨
Ġà¦Ĩ à¦ĩ
à¦Ľ à¦Ł
à¦¬à¦¨ à¦¯
Ġà¦¬à¦Ł à¦Ĺ
Ġà¦ħà¦¬ à¦¦
Ġà¦Ĩà¦¨ à¦²
Ġà¦¤ à¦ªà¦¸
Ġà¦īà¦ª à¦¹
Ġà¦ Ĭ
Ġà¦Ĩà¦® à¦¨
Ġà¦ıà¦ĩ à¦¸à¦¬
Ġà¦ĩ à¦ŀ
à¦ı à¦¸à¦¬à¦ĩ
à¦¬ à¦ľ
Ġà¦Ĩ à¦¬à¦°
à¦ª à¦Ĺ
Ġà¦¨ à¦ĩ
Ġà¦®à¦¨ à¦¨
a l
Ġà¦Ń à¦Ĺ
à¦ª à¦¬
à¦ļ à¦¬
à§ ©
à¦ľ à§Ł
Ġà¦¬à¦¹ à¦¨
Ġà¦ĭ à¦¦
Ġà¦ Ķ
à¦¤ à¦Ĺ
à§ĩ, âĢĿ
Ġà¦ĩ à¦¶
à¦ıà¦ķ à¦¦
à¦ Ī
Ġà¦Ĩ à¦Ł
à¦¯ à¦Ĺ
Ġà¦« à¦¸à¦²
Ġà¦ĩ à¦Ł
Ġà¦Ĩà¦° à¦ľ
à¦ħ à¦¬à¦¶
à¦ķ à¦£
Ġà¦ª à¦Ļ
Ġà¦¨ à¦ķà¦¶
à¦ı à¦¸
à¦Ĺ à¦Ł
Ġà¦ĵ à¦·
Ġà¦¤à¦° à¦Ļ
Ġà¦¨ à¦°
Ġà¦ıà¦ķ à¦ķ
à¦ī à¦ĩ
Ġà¦ľà¦¨ à¦¨
Ġà¦īà¦ª à¦Ń
Ġà¦° à¦¥
à¦Ľ à¦ª
à¦ĺ à¦Łà¦¨
à¦Ń à¦¨
Ġà¦¤ à¦¨
à¦¸ à¦°à¦£
Ġà¦ªà¦° à¦¦
Ġà¦¬ à¦¦
à¦¾ âĢ¦
à¦Ł à¦ĸ
Ġà¦ķ à¦¦
Ġà¦Ń à¦Ĺà¦¬
à¦Ń à¦¬à¦¤
Ġà¦¸à¦® à¦Ĺ
Ġà¦īà¦² à¦Ł
e n
o n
à§ģ âĢĶ
Ġà¦° à¦®
Ġà¦ĩ à¦¸à¦²
Ġà¦Ŀ à¦Ĺà¦¡
Ġà¦Ń à¦¬à¦¨
à¦ĵ à¦ĩ
à§İ à¦ĩ
à¦ı à¦¤
Ġà¦ĩ à¦īà¦¨
à¦°à¦¥à¦® à¦¤
à¦° à¦·
Ġà¦ıà¦ķà¦¦ à¦®
à§ Ń
à¦Ĺ à¦¦
à¦¯ à¦¶
Ġà¦¶ à¦ªà¦¥
à¦¸à¦® à§Ł
à¦¿ âĢ¦
à¦¯ à§Ł
Ġà¦ª à¦²à¦ķ
Ġà¦¦ à¦¯
Ġà¦¦ à¦ĸà¦²
à¦¡ à¦¨
Ġà¦ī à§ľ
Ġà¦ħà¦¬ à¦¹
à¦¯ à¦°à¦ķà¦®
Ġà¦¬ à¦¶
Ġà¦¬ à¦ŀ
à¦¡ à¦°
Ġà¦Ĩà¦¸ à¦¨
Ġà¦¬à§Ł à¦¸
à¦¾à¦ģ à¥¤
Ġà¦¢ à¦²
Ġà¦ıà¦®à¦¨ à¦ĩ
à¦¿ âĢĿ
à¦ķ à¦¶à¦¨
à¦¦ à¦¦
Ġà¦¤ à¦ķ
à¦§ à¦®
Ġà¦¸ à¦«à¦²
Ġà¦ıà¦ķ à¦¶
à¦¿ !âĢĿ
à¦ļ à¦®
à¦ļ à§ľ
à¦ĵ à¦¡
Ġà¦Ĩà¦° à¦¬
à¦°à¦¤ à¦¬à¦°
à¦Ĩ à¦ķ
Ġà¦Ŀ à¦²à¦ķ
à§ģ ?
à¦· à¦¸
à§ ª
à¦¿ .
Ġà¦Ĩà¦ļ à¦®à¦ķ
à¦¬ à§Ł
âĢĻ -
Ġà¦ħà¦¬ à¦ķ
Ġà¦¦ à¦¡
à¦· à¦¬
à¦ĺ à¦®
Ġà¦ĺà¦° à¦Ł
Ġà¦īà¦ª à¦¦
Ġà¦ľà¦² à¦¬
Ġà¦Ń à¦°à¦¤
Ġà¦®à¦¨ à¦ķ
à¦ī à¦¡
Ġà¦¸ à¦°à¦¸
Ġà¦ıà¦ķ à¦ª
Ġà¦ıà¦ĩ à¦Ł
Ġà¦¸ à¦¹à¦¸
à¦¸ à¦°à¦ķ
à¦¾? âĢĿ
à¦¸à¦² à¦®
Ġà¦ĭ à¦¤
! âĢĻ
Ġà¦Ĩà¦ľ à¦ĩ
à§İ à¦ª
Ġà¦Ĩà¦¬ à¦¹
à¦¯à¦¬ à¦¤
Ġà¦īà¦ª à¦¯
Ġà¦ħà¦¤ à¦²
à¦ĸ à¦¸
Ġà¦ıà¦ĩ à¦Ń
à¦Ľ à¦Ĺ
Ġà¦Ŀ à¦ķ
à¦® à¦ĵ
à¦Ĺ à¦¸
à¦Ĺ à¦Ń
à¦ı à¦Ĺ
Ġà¦ĩ à¦®
Ġà¦ıà¦ĸà¦¨ à¦ĩ
Ġ th
Ġà¦¯ à¦¯
Ġà¦ļà¦ķ à¦ļà¦ķ
à¦¹ à¦ķ
Ġà¦¶ à¦«
à¦Ĩ à¦ļ
e s
à¦ĩ à¦ľà¦¨
Ġà¦ľ à§ľ
à¦ĸ à¦£
Ġà¦§ à¦®à¦ķ
t i
Ġà¦¹à¦¤ à¦Ń
à§İ à¦ªà¦°
Ġà¦ıà¦¤ à¦ĩ
à¦¨ à¦¹
Ġà¦¨ à¦¹
Ġà¦ī à¦ķ
Ġà¦¯ à¦®
à¦Ĩ à¦ª
Ġà¦¤ à¦¤à¦ķ
Ġà¦ĺà¦Ł à¦²
à¦¿ :
âĢ į
à§Ł à¦ķ
à¦Ŀ à¦ķ
à¦¾, âĢĿ
à§ĭ ;
à¦¼à§ĩ -
âĢĿ à¥¤
à¦ī à§Ł
Ġà¦¬à¦ĩ à¦Ł
Ġà¦¹ à¦ķ
o r
à¦ķ à¦ł
à¦°à¦¤ à¦¤
à¦ª à¦ľ
Ġà¦Ĩà¦¨ à¦¬
à¦ķ à¦ĵ
Ġà¦ĸ à¦£
à¦Ĺ à¦°à¦£
éŁ¿éŁ¿ éŁ¿éŁ¿
a r
Ġà¦ıà¦ķ à¦²
Ġà¦Ĩà¦® à¦²
à¦°à¦¤ à¦°
à¦ ĭ
Ġà¦¸ à¦ĸ
Ġà¦¤ à¦¦
à¦¶ à¦¹à¦°
à¦¡ à¦ķ
Ġà¦Ĺ à¦łà¦¨
à¦¯ à¦ĸà¦¨
à¦ĩ à¦ļ
Ġà¦° à¦ľ
Ġà¦Ĩà¦¶ à¦Ļ
Ġà¦¨ à¦Ł
Ġà¦ªà§ľ à¦Ľ
Ġà¦ķ à¦ĩ
à¦£ à¦¦
Ġà¦¶ à¦¨
Ġà¦° à¦ĵà¦¨
Ġà¦Ľ à¦¯
à¦ıà¦ķ à¦ľà¦¨
à¦¦ à¦ª
à§ģ !
Ġ s
à§ ¬
à¦² à¦°
à¦£ à¦Ĺ
à¦Ĩ à¦¶
Ġà¦ªà§ľ à¦¤
Ġà¦¦à¦¶ à¦Ł
à¦¯ à¦¹
à¦¸ à¦ĩ
à¦Ĺ à¦Ĺ
à¦Ĩ à¦§
à¦ķ à¦ľà¦¬
Ġà¦Ĩà¦² à¦¤
à¦ĺ à¦¶
à§ģ à¦Ĥ
Ġà¦¬ à¦§
Ġà¦° à¦¤à¦¨
.. .
à¦¬ à¦Ĺ
Ġà¦ª à¦¬
Ġà¦® à¦Ĺ
à¦« à¦¸
Ġà¦¹à§Ł à¦¨
à¦¤ à¦¬à¦¤
à¦· à¦ĩ
Ġà¦ıà¦ĩ à¦°à¦ķà¦®
Ġà¦ħà¦¬ à¦¤
à¦ħ à¦¸
Ġà¦Ŀ à¦°à¦¨
à¦¬à¦² à¦¨
à¦ª à¦ĩ
à¦¯à¦® à§Ł
Ġà¦Ĭ à¦°
Ġà¦¥ à¦®
à¦¨à¦ĵ à¦¦
à¦¨à¦¬ à¦ľ
Ġà¦¦ à¦£
Ġà¦ı à¦®
à¦ľ à¦ĩ
Ġà¦ħ à¦¯
à¦Ĩ à¦¬
Ġà¦ī à¦Ńà¦¯
Ġà¦Ĩà¦¸ à¦°
Ġà¦ªà¦¥ à¦ļà¦²
à§ĭ âĢĻ
à¦ľ à¦ķà¦°
Ġà¦ıà¦ķ à¦¸à¦®à¦¯
à¦¿à¦Ĥ ,
à¦ Ĳ
à¦¤ à¦ĵ
à¦ĩ à¦¶
à¦Ń à§Ł
à¦¸ à¦ĵ
Ġà¦ħ à¦®à¦°
Ġà¦¬à¦° à¦«
à¦ī à¦®
Ġà¦¬à¦ī à¦¦
i s
à¦¼ à§į
Ġà¦¸à¦¬ à¦¸à¦®à¦¯
à¦¬ à¦Ľà¦°
Ġà¦¸ à¦¸
Ġà¦¶ à¦¤à¦ķ
Ġà¦Ŀà¦ķ à¦Ŀà¦ķ
à¦ĩ à¦«
à¦· à¦ª
Ġà¦¶ à¦¸
Ġà¦ļ à¦ŀ
Ġà¦§ à¦°à¦¬
à¦¿à¦Ĥ -
à¦ķà¦¸ à¦ĩ
à¦¤ à¦Ľ
à¦¶ à¦¸
à¦ĵ à¦²
Ġà¦ľà¦¨ à¦¸
à¦ĺ à¦¦
à¦Łà¦« à¦Ł
Ġà¦ĵ à¦Ĺ
à§¦ à§¦
à¦¤ à¦¹
à¦¼à¦¾ âĢĶ
Ġà¦Ĩà¦¬ à¦Ľ
Ġà¦ıà¦ķ à¦°
Ġà¦Ĩà¦° à¦£
à§İ à¦¸à¦¬
à¦¦ à¦Ľ
Ġà¦ħ à¦ļà¦²
à¦ħ à¦²
Ġà¦¤à¦° à¦«
Ġà¦ľà¦Ĺ à§İ
à¦² à¦¬à¦¨
à¦¶ à¦ĩ
Ġà¦¸à¦® à¦¬
à§İ à¦¸à¦°
à¦® à¦Ń
à¦ª à¦¶
Ġà¦° à¦ļ
à¦« à¦²à¦¨
Ġà¦Ĩà¦ķ à¦¸
Ġà¦ķ à¦¬à¦°
à¦ļ à¦Ľ
à¦¼à¦¿ -
Ġà¦¶ à¦¯
à¦ī à¦¬
à¦¾ à¦ĥà¥¤
à¦¨ à¦ľ
Ġà¦¦ à¦¸
à¦ľ à¦Ļ
Ġà¦¬à¦¨ à¦¬
à§ĭ ?âĢĻ
Ġà¦® à§İà¦¸
Ġà¦īà¦¦ à¦¯
âĢį à§į
à¦¬ à¦ĵ
Ġà¦Ĳ à¦¶
à§Ģ âĢĻ
Ġà¦Ľ à¦Łà¦«à¦Ł
à¦² à¦ĵ
à¦Ĺ à¦ĩ
à¦¿, âĢĿ
Ġà¦¡ à¦ķ
à¦¦ à¦ĩ
à¦§à¦¨ à¦ķ
à¦¬ à¦¤à¦¨
Ġà¦¥à¦® à¦¥à¦®
Ġà¦ª à¦¹
à§Ģ à¦Ĥ
Ġà¦¹ à¦ĵ
à¦¼à§ĩ âĢĶ
Ġà¦° à¦¨
Ġà¦Ĩà¦¶ à¦ª
Ġà¦ıà¦ķ à¦¥
à¦Ļ à¦¤
à¦Ĩ à¦ĩ
Ġà¦ķà¦¤ à¦ķ
e d
à¦ľ à¦ĵ
à§Ł à¦¬
à¦Ń à¦¸
Ġà¦Ĩà¦° à¦¤
âĢĿ âĢĶ
Ġà¦¤à¦¤ à¦ĩ
Ġà¦ħ à¦¬à¦°
à¦ł à¦¤
à¦Ĩ à¦¸
Ġà¦ı à¦¯
âĢĿ -
Ġth e
à¦ª à¦ķà¦²
Ġà¦¤ à§İà¦ķ
à¦Ĩ à¦¹
Ġà¦®à¦¹ à¦°
Ġà¦¹à¦¤à¦Ń à¦®
Ġà¦° à¦¤
Ġà¦ĵ à§Ł
Ġà¦Ŀ à¦²à¦¸
Ġà¦Ĩà¦Ĺ à¦®à¦¨
à¦ķ à¦«
Ġà¦¸ à¦«
Ġà¦ħ à¦¬à¦¨
à¦ļ à¦¸
à¦£ à¦®
à¦ĵ à¦¤
ĠĠĊ ĠĠ
à¦ªà¦ķ à¦¥à¦¨
a t
Ń à§§
à¦· à¦Ĺ
à¦°à¦£ à¦¯
à¦¤à¦° à¦Ļ
à¦¼à¥¤ âĢĻ
Ġà¦ħà¦¬ à¦²à¦®
à¦ªà¦ķ à¦¥
à§ĭ âĢĵ
Ġà¦® à¦¥
à¦Ĺ à¦łà¦¨
Ġà¦Ľ à¦¦
à¦¤à¦° à¦Ł
Ġà¦¯à¦¤ à¦ķ
à¦¸ à¦ķà¦²
à¦¦ à¦£
à¦Ĺ à¦ŀ
Ġà¦Ĺ à¦¤à¦ķ
Ġà¦ĩ à¦¹
à§ ·
à¦¤ à¦°à¦£
Ġà¦¸ à¦¦à¦¸
Ġà¦Ĩ à¦ł
Ġà¦ıà¦ķ à¦Ĺ
à§ľ à¦¤
Ġ c
à¦£ à¦¬à¦¨
Ġà¦ıà¦®à¦¨ à¦Ń
à¦¬ à§İ
à§ĭ !âĢĿ
Ġà¦Ĩ à§Łà¦¨
Ġà¦¦ à¦¶à¦ķ
Ġà¦ī à¦Ĺ
à¦®à¦¨ à¦¸
Ġà¦ĺà¦Ł à¦¬
à¦° à¦ļà¦²
Ġà¦ķà¦¤ à¦¦
à§Ģ âĢĵ
à¦ľ à¦§
âĢĻ âĢĶ
Ġà¦Ĩà¦Ľ à¦¡
à¦°à¦¸ à¦¨
Ġà¦Ĩ à¦¹à¦¤
Ġà¦¯à¦¤ à¦¦
Ġà¦Ľ à¦Ł
e l
Ġ w
à¦Ł à¦ĩ
à§Ł à¦¸
Ġà¦ĵ à¦¸à¦¬
Ġà¦ĩ à¦ľ
à¦¯à¦¬ à¦¦
) ,
i t
à¦¤ à¦¶
à¦² à¦ĸ
Ġà¦¬ à¦ªà¦¨
Ġà¦¨ à§ľ
à¦Ĺ à¦ķ
Ġà¦Ĩà¦¶ à¦«
à¦¯ à¦Ļ
Ġà¦ı à¦°à¦ĩ
Ġà¦ĸ à¦¡
, âĢĻ
Ġ b
à¦¯ à¦ŀ
Ġà¦¦ à¦ĩ
Ġà¦ı à¦Ľ
à¦¥ à¦ª
Ġà¦ĵ à¦¸
Ġà¦¨ à¦°à¦ķ
Ġà¦ĩ à¦ī
Ġà¦ł à¦ķ
Ġà¦¹ à¦Ł
à¦Ĺ à¦ª
à¦ī à¦ªà¦¸
Ġà¦Ĩà¦« à¦¸
Ġà¦¬ à¦°à¦£
à¦°à¦¸ à¦°
Ġà¦ªà¦¦ à¦ļ
à¦ħà¦¤ à¦ıà¦¬
à¦ļ à¦¶
Ġà¦¸à¦® à¦¤
à¦Ĩ à¦¨
à§ĭà¥¤ âĢĻ
) à¥¤
a s
à¦· à¦°à¦Ĺ
Ġà¦° à¦¶
Ġà¦ľà¦¨ à¦®
Ġà¦¶à¦° à§İ
o u
Ġà¦¬à¦¨ à¦®
Ġà¦¤à¦°à¦« à¦¦
Ġà¦¨ à¦®à¦¸
à¦°à¦£ à¦¤
à¦°à¦ªà¦° à¦ĵ
à¦¹à¦°à¦£ à¦¸
à¦ķ à¦ĸà¦¨
à¦ĸ à¦ĸ
à¦¬à¦¨ à¦Ł
Ġà¦Ī à¦¦
Ġà§§à§¯à§ Ńà§§
an d
à¦ķ à¦ĸ
à¦¡ à¦¬à¦°
Ġà¦¸à¦¬ à¦Ł
Ġà¦ķà¦¤ à¦Ĺ
Ġà§ ©
Ġ à¤
à¦Ń à¦¦
à¦® à¦ŀ
à¦® à¦¹à¦¤
Ġà¦¨ à¦¥
Ġà¦ı à¦ľ
Ġà¦ıà¦ķ à¦¦à¦²
Ġà¦ªà¦° à¦ĩ
à¦ī à¦¤
à¦ĺ à¦£
Ġà¦ķà¦² à¦Ļ
à¦¾ à§ĩ
à¦ķ à¦ľ
à¦¬ à§ľ
Ġà¦Ľ à¦¤
Ġà¦ªà¦° à¦¨
à¦®à¦¨ à¦Ł
à§Ī à¦ĥ
ĠĠĊ Ġ
Ġà¦®à¦¸ à¦ľ
à¦¸ à¦¡
à¦¡ à¦Ł
à¦¹ à¦¨à¦¬
Ġà¦¶ à¦®
Ġà¦ī à¦ĩà¦²
Ġ .
à¦¦ à¦ĵ
Ġà¦ħ à¦·
Ġà¦ıà¦ĸà¦¨ à¦ķ
à¦¾âĢĶ âĢľ
Ġà¦¬ à§İà¦¸à¦°
Ġà¦¶ à¦ĸ
à¦ĵ à¦¦
à¦ı à¦ķà¦¬
Ġà¦ħà¦§ à¦°
à¦®à¦£ à¦¦
à§ ®
à¦¸ à¦¯
à¦¡ à¦¸
Ġà¦ĵ à¦Ń
à¦¼à¦¿ à¦Ĥ
Ġ m
à¦¨ à¦Ĺà¦°
Ġà¦Ĩ à¦Łà¦Ł
Ġà¦² à¦¨
Ġà¦ĵ à¦¡
Ġà¦ľà¦² à¦°
Ġà¦ĭ à¦£
Ġà¦¤à¦¤ à¦Ł
à§ĭ âĢ¦
Ġà¦ķà¦° à¦£
à¦§ à¦Ł
Ġà¦¥ à¦°à¦¥
à§ľ à¦Ľ
à¦ľà¦¨ à¦ĩ
à¦¼ :
à§ĭ à¦Ĥ
Ġà¦¨ à¦²
à¦£ à¦Ń
à¦°à¦¬ à¦¦
Ġà¦Ĩà¦¨ à¦Ľ
à¦ķ à¦®à¦¤
à¦Ł à¦Ń
Ġà¦ıà¦ķ à¦ľ
Ġà¦§ à¦¡
à¦¦à¦° à¦ľ
à¦¸à¦® à¦¸
à§įâĢĮ à¥¤
à¦Ī à¦¶
Ġà¦¥à¦°à¦¥ à¦°
Ġà¦¦ à¦«
Ġà¦¤ à¦ª
à¦§ à¦²
Ġà¦§ à¦°à¦£
Ġà¦§à¦° à¦Ľ
Ġà¦· à¦¡
à¦¨ à§Ł
à¦ĩ à¦ĩ
Ġà¦¯ à¦¶
Ġà¦ĸ à¦°
à¦°à¦® à¦¹
l e
Ġà¦ı à¦«
à¦Ĺ à¦¯
à¦Ĺ à¦®à¦¨
Ġà¦¡ à¦Ĺ
Ġà¦ķà¦² à¦°à¦¬
Ġà¦¯à¦ĸà¦¨ à¦ĩ
à¦¤ à¦ļ
à¦¹ à¦¬
à¦ł à¦¶
Ġà¦² à¦Ļ
à¦® à¦Ŀ
Ġà¦® à¦®
à¦· à§İ
à§Ł à¦¬à¦¦
à¦ħ à¦Ń
Ġà¦ĩà¦¨ à¦¸
Ġà¦¸à¦« à¦²à¦¤
à¦Ł à¦ĵ
Ġà¦® à¦ľà¦¬
Ġà¦¤ à¦«
à¦Ń à¦°à¦¤
à¦Ĩ à¦¤
à¦¤à¦ĸà¦¨ à¦ĩ
Ġ h
à¦¸ à¦ªà¦¤
Ġà¦ħà¦¨ à¦¬à¦°à¦¤
Ġà¦ľà¦² à¦ľ
r e
à¦ķ à¦·
à¦ĸ à¦¬à¦°
à¦Ĩ à¦¸à¦²
Ġà¦ĸà¦¬à¦° à¦Ł
Ġà¦ªà¦Ł à¦Ń
à§Ĥ à¦ģ
Ġà¦¬à¦ĩ à¦¤
à§ĩ âĢĿ
Ġà¦ķ à¦¨à¦¸
à¦¸ à¦Ĺ
à¦¡ à¦Ĺ
à¦ļ à¦ľà¦¨
Ġà¦² à¦£
Ġà¦ĸ à¦Ł
Ġà¦Ŀ à§ľ
Ġ a
Ġ f
Ġà¦¨ à¦Ĺ
Ġà¦ĵ à¦¹
Ġà¦ªà¦° à¦ĵ
Ġà¦ıà¦ĩ à¦ĸ
Ġà¦ľà¦¨ à¦Ĺà¦£
Ġà¦ħà¦¬ à¦²
Ġà¦ħà¦¬ à¦¸à¦°
Ġà¦ĺà¦Ł à¦¤
« à§¨
à¦® à¦ķà¦°
Ġà¦¨ à¦ķà¦²
à¦¶ à¦¶
à¦¶ à¦Ŀ
à¦£ à¦ĵ
Ġà¦ıà¦ķ à¦°à¦ķà¦®
à¦°à¦¬ à¦£à¦¤
à¦ħ à¦ª
in g
Ġ p
à¦¬ à¦¹à¦¨
à§ĭ :
à¦ĸ à¦Ĺ
à¦¡ à¦ª
à¦¥ à¦ķà¦¤
à¦ł à¦ķà¦ķ
à¦ĺ à¦ķ
à¦ķà¦Ł à¦ķ
Ġà¦ı à¦ĵ
Ġà¦¥ à¦°à¦¹à¦°
à¦ı à¦¦
Ġà¦¬à¦ĩ à¦Ĺ
à¦ķ à¦¬à¦°
Ġà¦¸ à¦²
Ġà¦® à¦Ľ
à§Ģ ;
à¦· à¦¨
à¦¹ à¦Ł
à§Ł à¦°
Ġà¦ĺ à¦·
à¦¿à¦Ĥ à¥¤
Ġà¦¸à¦¹ à¦ķà¦°
Ġà¦Ī à¦·à§İ
Ġà¦¬à¦ī à¦¯
Ġà¦¸à¦°à¦² à¦¤
Ġ t
à¦¯ à¦°à¦¸
à¥ ¥
Ġà¦Ĩ à¦ĸ
Ġà¦¤ à¦¦à¦¨
à¦ĸ à¦ļ
Ġà¦Ĺ à¦¯
à¦Ŀ à¦¨
Ġà¦ªà§ľ à¦¬
Ġ o
à§ ¯
à¦¤ à¦²à¦¤
à¦§ à¦¦
à¦£ à¦®à¦¯
à§ľ à¦ķ
à¦°à¦¶ à¦¸
Ġà¦° à¦¹
Ġà¦ī à¦§
à¦°à¦ķ à¦Ł
Ġà¦ĩ à¦¦
à¦ĺ à¦Ł
Ġ -
Ġ A
à¦ķ à¦¯
Ġà¦® à¦°à¦£
à¦¶ à¦Ĺà¦¤
Ġà¦ľà¦¨ à¦Ĺ
Ġà¦ľà¦² à¦ª
Ġà¦¸à¦¹ à¦¦
Ġ d
à¦° à¦¹à¦¸
Ġà¦® à¦¶à¦²
à¦¡ à¦®
Ġà¦ıà¦ĩ à¦¬
Ġà¦¬à¦° à¦ŀ
à¦¤ à¦°à¦ķ
Ġà¦ĸ à¦¨
Ġà¦ªà¦° à¦²
Ġà¦ħà¦¬ à¦ļ
à¦¬à¦² à¦²
Ġà¦¸ à¦¡
Ġà¦Ĩ à¦ŀ
à¦¼à§ĩ ?
à¦ĸ à¦®
à¦· à¦Ń
Ġà¦ħ à¦²à¦ķ
à¦£ à¦Ł
Ġà¦ªà¦¥ à¦Ł
à¦ħ à¦®
ĠĠ ĠĠ
Ġ à§§
Ġà¦Ĩ à¦ĩà¦¡
à¦¦ à¦¹
à¦Ń à¦Ł
à¦°à¦¬ à¦£
Ġà¦ľà¦¨ à¦ªà¦¦
à¦ķà¦² à¦®
à¦ħ à¦ªà¦°
à¦Ĺà¦ľ à¦ªà¦¤
Ġà¦Ĩà¦¹ à¦®
Â Ń
à¦ª à¦Ŀ
à§Ģ ?âĢĻ
à¦£ à¦°
Ġà¦®à¦¤ à¦ĩ
âĢĵ âĢĵ
à¦ħ à¦ļ
Ġà¦¨à¦¬ à¦ľ
à¦¿ âĢĻà¥¤
à¦¨ à¦¶à¦¨
à¦¶ à¦ķà¦°
Ġà¦ľà¦¨ à¦ª
Ġà¦Ŀ à¦Ł
Ġà¦ªà¦¥ à¦ª
Ġà¦ĺà¦Ł à¦Ľ
Ġà¦Ŀà¦° à¦Ŀà¦°
Ġà¦¤ à¦°à¦²
à¦£ à¦ª
Ġà¦ªà¦° à¦ķ
Ġà¦ħà¦¨ à¦¬à¦¦
à¦ĺ à¦¡
Ġà¦ļà¦² à¦®
à¦ĭ à¦·
Ġà¦¬ à¦®
à¦ļ à§Łà¦¤
Ġà¦ĵ à¦ľà¦¨
à¦ħ à¦¬
Ġà¦īà§İ à¦¸à¦°
à¦ªà¦Ł à¦ª
Ġà¦¬à¦Ł à¦¬
Ġà¦ı à¦ª
à¦¶ à¦ĵ
à§ĭ, âĢĿ
Ġà¦®à¦¹ à§İ
à¦ľà¦¸ à¦Ń
à¦¾ âĢĻà¥¤
à¦Ł à¦ĵà¦¯
à¦ª à¦ª
à¦· à¦ªà¦°
à¦¡ à¦Ń
Ġà¦¬à¦ĩ à¦Ľ
Ġà¦ħà¦ªà¦° à¦ķ
Ġà¦ħà¦Ĺ à¦£
à¦ĩ à¦ĸ
à¦Ľ à¦ķ
Ġà¦ļ à§ľ
Ġà¦° à¦£
æ Ń
Ġ P
Ġà¦ª à¦ļ
à¦· à¦ĵ
à¦§ à¦¸
à§ľ à¦¨
à¦ī à§İà¦¸à¦¬
à¦Ĩ à¦¦
Ġà¦ľà¦¨ à¦¤
à¦ħ à¦§
æŃ ĵ
o m
Ġà¦¹ à¦¦
à¦Ĺ à¦ĵ
à§Ł à¦²
Ġà¦ķà¦¤ à¦ķà¦Ĺ
Ġà¦ĩà¦¤ à¦¸
Ġà¦¶à¦°à§İ à¦ļà¦¨
æŃĵ æŃĵ
Ġà¦¦ à¦Ĺ
à§ľ à¦²
Ġà¦¬à¦¨ à¦Ń
Ġà¦ħà¦ª à¦¬
à¦¯ à¦¬à¦°
à¦® à¦ļà¦¨
Ġà¦ķ à¦¸
Ġà¦ķ à§ľ
Ġà¦ħ à¦£
à¦¹ à§İ
Ġà¦¹à¦¤ à¦¬
à§° à¦®
Ġà¦ħà¦² à¦¸
Ġà¦ħà¦² à¦Ļ
Ġo f
à¦¨ à¦®à¦¨
à¦ĩ à¦°à¦ķà¦®
Ġà¦¨ à¦¸
Ġà¦¨ à¦ĵ
Ġà¦¤ à¦¸
à§Ł à¦¦
à¦ħ à¦¦
Ġà¦¸à¦¹ à¦ķ
à¦Ł à¦¹
à¦Ĺ à¦ł
à¦ªà¦° à¦®
à¦²à¦ķ à¦£
à¦¬ à¦°à¦ķ
à¦ª à¦¶à¦¨
Ġà¦ļ à¦£
à¦ĵ à¦Ł
Ġà¦®à¦¤ à¦²à¦¬
à¦ħ à¦ķ
à¦·à¦ķ à¦¦
Ġà¦Ī à¦°
à¦¬ à¦ļà¦¨
à¦· à¦ķà¦°
Ġà¦Ĺ à¦¹à¦¨
Ġà¦¶ à¦ļ
Ġà¦ľà¦¨ à¦ľ
Ġà§§à§¯à§ «à§¨
éŁ¿éŁ¿éŁ¿éŁ¿ éŁ¿éŁ¿éŁ¿éŁ¿
à¦Ĳ à¦¤
à¦® à¦«
à¦ª à¦ĵ
à¦£ à¦ĩ
Ġà¦ĸ à¦¦
à¦°à¦¤ à¦®
à¦ľà¦¨ à¦¤
Ġà¦Ł à¦²
Ġà¦Ĩà¦² à¦Ĺ
i c
à¦¬ à¦Ļ
Ġà¦¸ à¦¦à¦°
Ġà¦ħ à§Łà¦¨
Ġà¦ıà¦ķ à¦¯
Ġà¦ªà¦° à¦¤
Ġà¦ªà¦° à¦ªà¦°
à¦ī à¦¶à¦¨
Ġà¦¸à¦ķà¦² à¦ķ
à¦¸à¦ķ à¦·
à§ĩâĢ¦ âĢĿ
Ġ S
à¦ķ à¦°à¦¬
à¦® à§ľ
à¦ĩ à¦Ĺ
à¦§ à¦ĩ
Ġà¦Ĩà¦° à¦ķ
à¦¾ âĢ¦âĢĿ
à¦¬ à§°
Ġà¦ķ à¦¦à¦®
à¦°à¦¤ à¦²
Ġà¦ıà¦ķà¦ľà¦¨ à¦ķ
à¦¯ à¦ľà¦¨
Ġà¦ķ à¦Ļ
Ġà¦Ľ à¦²
Ġà¦² à¦¬à¦£
à¦°à¦ķ à¦°
à¦ĩà¦² à¦Ł
Ġà¦¸à¦¹ à¦ª
à¦¦à¦¨ à¦ķ
Ġà¦īà§İ à¦ķà¦£
à§° à¦¹
à¦ıà¦ķ à¦ĩ
al l
o l
à¦¯ à¦²
à¦Ĺ à¦¬à¦¤
à¦· à¦ľ
Ġà¦ļ à¦ĵà¦¡
à¦¬à¦² à¦®
Ġà¦ķà¦² à¦¤
Ġà¦ķà¦¨ à¦°
Ġà¦¤à¦¤ à¦¦
Ġà¦¸ à¦¯à¦¤
à¦ĩ à¦¸à¦¬
à¦Ľ à¦¡
Ġà¦ı à¦ļ
Ġà¦Ń à¦Ł
Ġà¦Ľ à¦²à¦Ľ
à¦ī à¦ļ
à¦Ĺà¦¤ à¦Ń
Ġà¦ķà¦ĸà¦¨ à¦ĩ
Ġà¦ıà¦ķà¦ĩ à¦Ń
i g
à¦Ĩ à¦¯
r a
Ġà¦¦ à¦ª
Ġà¦¦ à¦®à¦¨
à¦£ à¦¸
Ġà¦Ŀ à¦°à¦Ľ
Ġà¦īà¦ª à¦®
Ġà¦ķà¦¤ à¦ĸ
Ġà¦¶à¦¹à¦° à¦Ł
à¦¾à¦ĥ ,
Ġà¦Ľà¦²à¦Ľ à¦²
à¦² à¦¶
à¦ľ à¦¡
à¦£ à¦¯
Ġà¦Ķ à¦°à¦¸
à¦¨ à¦ĸ
âĢ ķ
à¦¹ à¦¦
à¦°à¦£ à¦Ł
Ġà¦¹à¦² à¦¦
à§§à§ ¯à§
á ĥ
à¦¿ âĢ¦âĢĿ
à¦¨ à¦¡
à¦¨ à¦¸à¦®
à§ģ âĢĵ
à¦£ à¦ªà¦£
Ġà¦Ń à¦°à¦ª
à¦ªà¦° à¦¦
à¦¬à¦² à¦ĩ
Ġà¦¤à¦ĸà¦¨ à¦ķ
à¦¦à¦¨ à¦¶
v e
Ġ B
à¦° à¦ŀ
à¦ª à¦Ļ
à¦ĸ à¦¡
à¦ĸ à¦®à¦¯
Ġà¦ħ à¦¡
à¦¡ à¦¶
Ġà¦² à¦°
à¦Ĩ à¦¨à¦¨
Ġà¦ħà¦¬ à¦ľ
Ġà¦®à¦¹ à¦¤
Ġà¦¯à¦¤ à¦ĸ
à§ĭâĢĶ âĢľ
Ġà¦ķ à¦¤à¦¬
à¦Ł à¦¬à¦²
Ġà¦¦ à¦®à¦ķ
à¦ł à¦Ł
à¦ī à¦ª
à¦Ĺà¦² à¦Ł
à¦¬à¦¤ à¦ĩ
Ġà¦ľà¦² à¦¦
Ġ l
à¦¨ à¦¬à¦°
à¦¼ âĢ¦
à¦® à¦¸à¦®
à§ĭ âĢ¦âĢĿ
à¦¦ à¦¬à¦¦
Ġà¦¤ à¦®
à¦ĸ à¦ķà¦¦
à¦· à¦Ļ
à¦§ à¦ĵ
à¦£ à¦Ĺà¦¤
Ġà¦Ľ à¦ķ
à¦Ŀ à¦ªà¦¥
Ġà¦Ł à¦²à¦®à¦²
ç ľ
à¦¤ à¦ĸ
Ġà¦Ĩ à¦ªà¦¡
à¦§ à¦Ń
à¦¬à¦¨ à¦¬
à¦ľà¦¨ à¦¨
à¦ı à¦²
à§ĩ! âĢĻ
à¦Ĺà¦ľ à¦Ł
Ġà¦¸ à¦Ł
Ġà¦¨ à¦ĸ
Ġà¦° à¦ľà¦¨
à¦ł à¦°
Ġà¦¸à¦¬ à¦¸à¦®à§Ł
à¦Ĩ à¦¡
Ġà¦ķà¦¨ à¦«
Ġ in
à§ĩ )
à¦¨ à¦·
à¦² à¦¹
à§ģ ;
à¦¼ ?âĢĿ
à¦® à¦²à¦¤
à¦Ĺ à§ľ
Ġà¦¯ à¦ķ
à¦§ à¦ķà¦¤
Ġà¦¥ à¦²
ĠâĢ ¦
Ġà¦ıà¦ĩ à¦ľà¦¨
Ġà¦¡ à¦²
à¦¨à¦ĵ à¦Ń
Ġà¦®à¦¹ à¦²
à¦ªà¦¦ à¦ķ
Ġà§§à§ ®
Ġà§ «
Ġà§§à§¯à§ ª
Ġà¦® à¦°à¦¤
Ġà¦ħ à¦°à¦¬
à¦ļ à¦ĩ
Ġà¦ıà¦ķ à¦¨
Ġà¦² à¦ŀ
à¦ªà¦° à¦¬à¦°
Ġà¦®à¦¨ à¦¨à¦¶
Ġà¦Ĩà¦ľ à¦¹
Ġà¦Ĩà¦¬ à¦°à¦£
Ġà¦īà¦ª à¦²à¦ķ
Ġà¦ľà¦® à¦ľà¦®
à¦° à¦¸à¦¬
à§ģ à¥¤âĢĿ
à¦¬ à¦¬à¦°
à¦Ĺ à¦ļ
à¦Ĺ à¦Ļ
à¦§ à¦¹
Ġà¦ĵ à¦®
à§İ à¦¸à¦ķ
à¦¦à¦° à¦¬à¦¨
à¦ªà¦ķ à¦¦
Ġ I
à¦¿ âĢĻ,
à¦® à¦ĸ
à¦¸ à¦ļ
Ġà¦¹ à¦¨à¦¨
à¦°à¦¬ à¦§
à§° à¦¬
Ġ n
à¦¯ à¦ļ
à¦¯ à¦®à¦¨à¦¸
à¦¸ à¦¤à¦¤
à¦Ĥ ,
Ġà¦² à¦Ĺ
Ġà¦ĵ à¦°à¦ķà¦®
à¦« à¦¡
Ġà¦¸à¦¬ à¦ľ
Ġà¦Ł à¦®
à¦¨à¦ĵ à¦°à¦ķà¦®
à¦ħ à¦ľ
à¦ħ à¦«
Ġà¦īà§İ à¦ķ
à¦¿à¦ĥ à¥¤
à¦¾âĢĻ ,
à¦ļà§Ł à¦ĩ
u s
Ġ ;
à¦¸ à¦ľ
à¦¸ à¦ĸ
Ġà¦¤ à¦°à¦ķ
Ġà¦¸à¦® à¦ķ
à§ľ à¦¬
à¦¬à¦° à¦Ł
à§ĩâĢĶ âĢĺ
à¦¿âĢĶ âĢľ
Ġà¦Ŀà¦¨ à¦Ŀà¦¨
Ġ and
à¦¤ à¦Ĺà¦¤
Ġà¦® à¦°à¦¬
à¦¶ à¦¹
à¦Ļ à¦¨
Ġà¦« à¦ľà¦²
Ġà¦Ĩà¦Ĺ à¦²
à¦ķà¦² à¦ķ
Ġ à¥¥
à¦¤ à¦¥
Ġà¦ķ à¦ªà¦Ł
Ġà¦¸ à¦«à¦°
à¦§ à¦Ľ
Ġà¦ĵ à¦¸à¦®
Ġà¦« à¦¡
Ġà¦ĺ à§ľ
Ġà¦ĩ à¦īà¦°
Ġà¦Ĺà¦² à¦¦
à¦°à¦ªà¦° à¦ĩ
à¦ıà¦ĩ à¦¸à¦¬
Ġà¦Ĺà¦£ à¦®
e c
e t
à¦¤ à¦Ļ
Ġà¦¬ à¦¦à¦®
Ġà¦Ĩ à¦·
Ġà¦® à¦Ĺà¦ľ
Ġà¦ī à¦Ńà§Ł
Ġà¦« à¦£
Ġà¦Ł à¦ķ
à¦·à¦£ à¦ķ
Ġà¦Ĩà¦Ĺ à¦¨
ĠĠĊĠĠ Ġ
à§ĩ à¦¾à¦ģ
à¦¼ ?âĢĻ
à¦Ł à¦ĵà§Ł
à¦ª à¦ŀ
à¦¼à§ĩ !
à¦§ à¦¶
Ġà¦ªà¦¥ à¦ļ
à¦¤à¦¬ à¦¡
Ġà¦¹à¦ķ à¦ļà¦ķ
à§ĩ âĢĻà¥¤
à¦¯ à¦ķà¦²
Ġà¦¸ à¦ĩ
Ġà¦ª à¦¤à¦¨
à¦¶ à§Ł
Ġà¦ļ à¦°à¦£
à¦« à¦¨
à¦¬à¦¨ à¦§
Ġà¦ıà¦®à¦¨ à¦Ł
Ġà¦ķà¦² à¦ķà¦²
Ġà¦ķà¦® à¦ª
Ġà¦īà§İ à¦ķà¦°
Ġà¦Ĺà¦£ à¦¤à¦¨
Ġà¦ħà¦¸à¦® à¦ŀ
Ġà¦¨ à¦ľ
à¦¹ à¦ĩ
à¦¥ à¦¸
Ġà¦ıà¦ķ à¦ļ
Ġà¦¸à¦® à¦·
à¦« à¦¤
âĢĿ âĢĵ
à¦Ĩ à¦ĩà¦¨
Ġà¦¨à¦¬ à¦¬à¦°
Ġà§ ª
Ġà¦Ķ à¦ªà¦¨
Ġ M
Ġà¦ķ à¦¨à¦ķ
Ġà¦¬ à¦£
Ġà¦¸ à¦¯
à¦ª à¦¦à¦°
à¦¼à§ĩ âĢĵ
à§Ł à¦ĩ
à¦®à¦¨ à¦¨
Ġà¦ĩ à¦ķ
en t
Ġà¦ħà¦¬à¦¨ à¦¤
ÂŃ ÂŃ
âĢķ âĢķ
u t
Ġ à¥¤
à¦¤ à¦¯
à¦¤ à¦ļà¦°
à¦® à¦¹à¦°
Ġà¦¨ à¦Ń
à¦ĸ à¦¯
Ġà¦ļ à¦ª
à¦ĵ à¦ķ
à¦Ń à¦²à¦Ń
Ġà¦² à¦Ł
Ġà¦¸à¦¬ à¦Ĺ
Ġà¦Ĩà¦§ à¦ĸ
Ġà¦Ĩà¦« à¦ľ
Ġà¦°à¦¤à¦¨ à¦¬
o s
u r
à¦² à¦®à¦¨
à¦¼ !âĢĿ
Ġà¦¦ à§Ł
à¦ª à¦ķà¦°
Ġà¦¹ à¦°à¦£
à¦¶ à¦Ļ
à¦¥ à¦¹
Ġà¦¶ à¦¶
Ġà¦° à¦¹à¦®
Ġà¦« à¦ķ
Ġà¦§ à¦ķ
Ġà¦īà¦ª à¦ķà¦°à¦£
Ġà§§à§ ¦
Ġà¦Ńà§Ł à¦Ļ
ti on
à¦¶à¦¶ à¦¤à¦ķ
à¦° à¦Ŀ
à¦¤ à¦¡
Ġà¦Ĩ à¦īà¦Ł
à¦¶ à¦ļà¦¨
Ġà¦ľ à¦®à¦¤
Ġà¦ī à¦ĩ
Ġà¦² à¦ĺ
Ġà¦Ł à¦ķà¦Łà¦ķ
à¦°à¦¹à¦£ à¦¯
Ġà§§à§ Ń
Ġà¦ħà¦¹ à¦Ļ
Ġ R
à¦² à¦ªà¦¤
à¦¯ à¦®à¦¨
Ġà¦ı à¦ŀ
à§Ł à¦£
à¦¼à¦¾ à¦Ĥ
Ġà¦ĸ à¦²
Ġà¦ĩ à¦°
à¦ħ à¦¶
à¦°à¦¶ à¦ķ
Ġà¦¸à¦¹ à¦¨à¦¶
à¦²à¦¨ à¦®
à¦° à¦ĺ
à§į ,
à¦ķ à¦°à¦ķ
Ġà¦¸ à¦ļà¦²
Ġà¦ª à§Łà¦¸
Ġà¦¶ à¦²
Ġà¦ľ à¦Ĺà¦¨
à¦·à¦£ à¦ĩ
à¦ĩà¦¨ à¦Ł
à¦ıà¦ĩ à¦ļ
Ġà¦ĸà¦¸ à¦ĸà¦¸
à¦¥à¦ª à¦°à¦¤
i l
u n
à§ĩ âĢĻ,
à¦¤ à¦Ńà¦°
à§ģ à¥¤âĢĻ
à¥ į
à¦ļ à¦ª
à¦£ à¦ļ
Ġà¦¶ à¦°à¦£
à§ĩ, âĢĻ
à¦ı à¦®
à¦¨à¦¤ à¦®
à¦ĥ ,
Ġà¦Ĩà¦¨ à¦®à¦¨
Ġà¦Ĩà¦ķ à¦¬à¦°
Ġà§§à§¯à§ ¯à§
Ġ D
Ġ e
à¦¼ à§ĭà¥¤
à¦Ł à¦Ĺà¦²
à¦ª à¦¬à¦¯
à¦Ĺ à¦¬à¦¨
Ġà¦¸à¦° à¦ŀ
âĢ¦ à¥¤
à§° à¦¤
Ġà¦°à¦ķà¦® à¦ĩ
o w
Ġ [
à¦¾ )
à¦° à¦ªà¦¤
à¦¤ à¦¬à¦°
à¦¼ à§ģ,
Ġà¦¬ à¦ļà¦¨
à§Ģ à¥¤âĢĿ
Ġà¦¹ à¦ĩà¦²
Ġà¦Ĺ à¦Ĺà¦¨
Ġà¦ľ à¦¸
Ġà¦ľ à¦®à¦²
Ġà¦Ń à¦£
Ġà¦° à¦ľà¦¤
Ġà¦ıà¦ķ à¦¤à¦²
à¦Ĥ -
Ġà¦« à¦°à¦¸
à¦Ŀ à¦¡
à¦¬à¦° à¦¬
à¦¬à¦° à¦ĩ
Ġà¦ļà¦² à¦¨
Ġà¦ļà¦² à¦ļ
à¦°à¦¥à¦® à¦Ł
Ġà¦ıà¦¤ à¦Ĺ
Ġà¦¬à¦ī à¦®
à¤ ¾
c h
à¦¯ à¦§
à¦¦ à¦ªà¦¤
Ġà¦ľ à¦¤
à¦Ń à¦°à¦¶
Ġà¦Ĩà¦® à¦Ĺ
à¦Ļ à¦¬
à¦°à¦£ à¦ĵ
à¦ı à¦¨
Ġà¦ħà¦¬ à§Łà¦¬
Ġà¦ĺà¦° à¦Ĺ
Ġà¦ĩà¦¨ à¦«
à¦¾! âĢĻ
i d
à¦² à¦¡
à¦ķ à¦Ĩà¦ª
à§Ģ ?âĢĿ
à¦ľ à¦¶
à¦§ à¦°à¦¨
Ġà¦Ń à¦°à¦¦
Ġà¦ĵ à¦¤
à¦¾, âĢĻ
à¦ī à¦ł
à¦ī à¦ªà¦°
Ġà¦Ł à¦ªà¦ķ
à¦ķà¦° à¦¦
à¦¨à¦ĵ à¦Ł
Ġà¦¹à¦° à¦«
Ġà§ ¬
Ġà¦°à¦¸ à¦Ĺ
à¦ľà¦Ĺ à§İ
à§ Ĺ
à¦° à¦¡
à¦® à¦®à¦¤
Ġà¦Ĩ à¦ªà¦¸
à¦ĩ à¦ĵ
Ġà¦® à¦ķ
Ġà¦¤ à¦¡
à¦ľ à¦Ń
à¦¶ à¦Ľ
à¦¶ à¦ªà¦¥
à¦£ à¦¹
à¦¥ à¦Ĺ
Ġà¦¶ à¦ª
à¦¼à¦¾ âĢĵ
à¦Ĥ à¥¤
à¦Ļ à¦°
Ġà¦¸à¦® à¦Ŀ
Ġà¦¡ à¦¯
à¦¯à¦¬ à¦§
Ġà¦ľà¦² à¦¸
Ġà¦ľà¦² à¦§
Ġà¦¸à¦° à¦¬à¦°
Ġà¦ħà¦ľ à¦¯
à¦¬à¦¦ à¦²
à¦¼ à¦ĥ
à¦¼ à§Ģà¥¤
Ġà¦¸ à¦ĩà¦¤
à¦Ľ à¦¤à¦²
à¦¶ à¦«
à¦ĸ à¦ķà¦°
à¦ĸ à¦¬à¦¤
Ġà¦ľ à¦¹
Ġà¦ī à¦ĩà¦¨
Ġà¦ĸ à¦ļ
Ġà¦īà¦ª à¦¤
à¦®à¦¸ à¦®à¦°
à¦°à¦ĸ à¦°
Ġà¦¦à¦® à¦¬à¦¨
à¦¿ )
à¦¸ à¦°à¦²
à¦¶ à¦Ń
Ġà¦¯ à¦¤à¦¬
à¦§ à¦ķà¦°
Ġà¦ıà¦ķ à¦¸à¦®à§Ł
Ġà¦« à¦Łà¦ķ
Ġà¦ĸ à¦¤
à¦Ŀ à¦Ľ
à¦°à¦¬ à¦ķ
à¦ħ à¦¥
Ġà¦ıà¦®à¦¨ à¦ĵ
Ġà¦¸à¦®à§Ł à¦ĩ
Ġà¦ĭ à¦Ĺà¦¬
Ġà§§à§ ¨
à§Ŀ à¦¤
Ġà¦ªà¦Ł à¦ļ
... âĢĿ
à§ģ âĢ¦
à¦® à¦¹à¦²
Ġà¦¸ à¦«à¦Ł
à¦· à¦ľà¦¨
Ġà¦ħ à¦Ŀ
à¦Ń à§İà¦¸
Ġà¦Ľ à§Ł
Ġà¦Ľ à¦²à¦¨
à¦ł à¦ª
Ġà¦ĵ à¦¨
Ġà¦§ à¦¸
Ġà¦Ł à¦¹à¦²
Ġà¦Ĩà¦¨ à¦Ĺ
Ġà¦ķà¦® à¦¬
Ġ g
à¦¨ à¦¬à¦¨
à¦² à¦Ļ
à¦² à¦®à¦£
à¦ķ à¦¸à¦Ļ
à¦¬ à¦ķà¦°
Ġà¦¬ à¦Ĺà¦²
Ġà¦¦ à¦°à¦¦
Ġà¦ı à¦Ĩà¦ĩ
Ġà¦ļ à¦Łà¦ķ
à¦ĵ à¦¹
à¦Ĩ à¦ļà¦°à¦£
Ġà¦ľà¦¨ à¦ķ
à¦¤à¦¨ à¦¦
Ġà¦¬à¦¹ à¦®
à¦®à¦¬ à¦Ļ
à¦łà¦ķ à¦ĸ
Ġà§ Ń
Ġà§¨ à§¦
a m
à§ĩ à¦Ĥ
à¦¦ à¦Ń
à¦ª à¦¹
à¦¥ à¦ªà¦°
Ġà¦² à¦¹à¦°
Ġà¦§ à¦ª
à¦ı à¦°à¦ªà¦°
à¦ī à¦¹
à¦¨à¦¤ à¦²
Ġà¦Ĩà¦¬ à¦¶
Ġà¦ħà¦¸ à§İ
Ġà¦ªà¦¦ à¦¬
à¦¨à¦Ł à¦¨
à¦¨à¦¦ à¦£
Ġ T
Ġà¦ķ à¦¦à¦°
Ġà¦¦ à¦¹
Ġà¦¦ à¦°à¦¬
Ġà¦ħ à¦¯à¦¥
Ġà¦« à¦¨
à¦« à¦ķ
à¦¬à¦¨ à¦®
à¦°à¦ķ à¦¨
Ġà¦īà¦ª à¦ļ
à¦ĩà¦¨ à¦Ĺ
à¦ķà¦¬ à¦ķ
Ġà¦«à¦² à¦¶
à§° à¦¸
à¦·à§Ł à¦ķ
à¦®à¦Ľ à¦®
a y
à§ĩ à§Ĺ
Ġà¦Ĩ à¦¦à¦²
à¦Ľ à¦¯
Ġà¦ı à§ľ
à¦ľ à¦ªà¦¥
à¦· à¦§
Ġà¦ħ à¦ªà¦¦
à¦¬à¦¨ à¦ĩ
Ġà¦Ł à¦ª
à¦Ĩ à¦°à¦ĵ
à¦¬à¦² à¦¬
Ġà¦īà¦¦ à¦Ĺ
à¦Ĺà¦¤ à¦ķ
Ġà¦ķà¦® à¦Ľ
à¦°à¦®à¦¶ à¦ĩ
à¦Ĩà¦§ à¦Ł
à¦¯ à¦ļà¦°
à¦® à¦§à¦¨
à§Ģ âĢĿ
Ġà¦¹ à¦ĩà¦¬
Ġà¦ħ à¦¯à¦¤
à¦¹ à¦ª
à¦¹ à¦Ń
Ġà¦ıà¦ķ à¦«
à¦¼à¦¾ ?
Ġà¦ªà¦° à¦¬
Ġà¦ħà¦¨ à¦°
Ġà¦ıà¦ĩ à¦®
à¦¤à¦¨ à¦Ń
Ġà¦īà¦¤ à¦Ļ
Ġà¦ħà¦¶ à¦°
Ġà¦¬à¦ī à¦ķ
à¤ °
à¦¬à¦® à¦ŀ
à¦ķ à¦§
à¦® à¦®à¦°
Ġà¦ķ à¦Ń
Ġà¦¸ à¦¶à¦¸
Ġà¦ª à¦¬à¦¨
à¦ĩ à¦¹
à¦ĩ à¦¨à¦¬
Ġà¦¦ à¦²à¦¬
à¦ª à¦¤à¦¨
à¦¶ à¦§
à¦· à¦¬à¦°
Ġà¦ļ à¦¬
à¦ł à¦¦
Ġà¦² à¦¯
Ġà¦² à¦¬
à¦ī à¦Ĺ
à¦ķà¦² à¦¨
Ġà¦ħà¦ķ à¦¸
u l
à§į -
à¦¸ à¦ĺ
Ġà¦¹ à¦ĩà¦¤
à¦¶ à¦ļ
à¦§ à¦ª
Ġà¦Ń à¦²
Ġà¦ıà¦ķ à¦ĺ
Ġà¦² à¦¹à¦®
à¦ªà¦° à¦ķ
Ġà¦¸à¦¬ à¦ĸ
à¦°à¦® à¦°
Ġà¦ķà¦² à¦¸
à¦¨à¦¬ à¦¦
à¦®à¦£ à¦ķ
Ġà¦¶à¦¤ à¦§à¦¨
à¦¿! âĢĻ
h a
Ġ N
à¦¬ à¦ķà¦Ł
à¦¼ à§Ĥ
à¦¼ à§Ģ,
à¦® à¦ĺ
à¦® à¦īà¦¦
à¦ĸ à¦ĩ
à¦¹ à¦£
Ġà¦° à¦¡
à¦ĵ à§ľ
à¦¼à¦¿ âĢĶ
à¦¬à¦° à¦²
à¦Ĩ à¦Ł
Ġà¦ħà¦° à¦¨
à¦¸à¦¬ à¦ĸ
Ġà¦īà¦ª à¦ľ
Ġà¦īà§İ à¦ªà¦¤
Ġà¦ħà¦ķ à¦ªà¦Ł
Ġà¦¦à¦¶ à¦®
a c
o t
Ġ C
à¦² à¦Ĺà¦°
à¦¬ à¦ľà¦Ĺà¦¤
à¦® à¦°à¦ķ
Ġà¦¦ à¦¹à¦¨
Ġà¦ı à¦ľà¦¨
à¦ĸ à¦ĵ
à¦§ à¦Ĺ
à¦ļ à¦¤à¦²
Ġà¦Ľ à¦®à¦Ľà¦®
Ġà¦Ĩà¦® à¦¦
Ġà¦ĺ à¦°à¦¬
Ġà¦®à¦¨ à¦¤
à¦ī à¦ªà¦¨
Ġà¦Ŀ à¦Łà¦ķ
à¦ħ à¦¨à¦¨
à¦ıà¦ķ à¦¸à¦Ļ
Ġà¦Ĩà¦¹ à¦°à¦£
i m
à¦¤ à¦ķà¦°
à¦¯ à¦¸à¦¨
à¦® à¦Ļ
Ġà¦ª à¦Łà¦²
à¦¦ à¦¬à¦¤
à¦¶ à¦§à¦°
Ġà¦ļ à¦ķà¦²
Ġà¦² à¦¸
Ġà¦ĵ à¦²
à§Ĥ -
à¦°à¦£ à¦Ń
à§ģà¦ģ à¥¤
à¦¨à¦¬ à¦¸à¦®
à¦®à¦£ à¦°
à§§à§ ¦
Ġà¦¶à¦¹ à¦°à¦¤à¦²
æŃĵæŃĵ æŃĵæŃĵ
à¦° à¦ĺà¦°
à¦¬ à¦¸à¦¨
à¦® à¦ļà¦°
Ġà¦ķ à¦®à¦¤
Ġà¦® à¦Ļà¦²
Ġà¦ı à¦¶
Ġà¦¤ à§İ
Ġà¦¹ à¦ľà¦®
à¦¼à§ĩ à¥¤âĢĿ
à¦¹ à¦ļà¦°
Ġà¦ľ à¦²à¦ķ
Ġà¦ıà¦ķ à¦Ń
Ġà¦ĸ à¦¤à¦®
à¦¬à¦¨ à¦¦
Ġà¦Ĩà¦Ľ à§ľ
à¦ķà¦¤ à¦ķ
Ġà¦ħà¦§ à¦®
Ġà¦«à¦² à¦¸
Ġà¦Ĩà¦ĩ à¦¸à¦ķ
à¦¯ à¦¸à¦®
Ġà¦ķ à¦¨à¦Ł
Ġà¦¸ à¦ľà¦²
Ġà¦¸ à§ľà¦ķ
à¦¦ à¦®à¦¯
Ġà¦® à¦Ł
à¦Ľ à¦¦
à¦¶ à¦ľ
à¦§ à¦¯
à¦§ à¦¨à¦¬
à¦¼à¦¾ !
Ġà¦¬à¦² à¦°
Ġà¦ī à¦¬
Ġà¦ĸ à¦Łà¦ķ
à¦°à¦£ à¦ķ
à¦°à¦£ à¦Ĺ
à¦¸à¦¬ à¦¶
à¦¤à¦¨ à¦¶
à¦ıà¦ĩ à¦Ń
Ġà¦ķà¦¬ à¦ļ
Ġà¦ĩà¦¨ à¦ľ
Ġà¦ħà¦ªà¦° à¦¦
Ġà¦ıà¦¨ à¦ľ
à¦°à¦®à¦£ à¦ķ
Ġà¦Ĺà¦£ à¦ªà¦°
Ġb e
i r
t er
à¦ķ à¦¤à¦°
à¦¯ à¦Łà¦ķ
à¦¯ à¦ªà¦Ł
à¦¼ à§ĭ,
à¦Ł à¦ķà¦°
à¦ľ à¦¹
à¦Ĺ à¦²à¦ķ
Ġà¦Ĺ à¦ł
Ġà¦¥ à¦¤
Ġà¦« à¦²à¦¤
Ġà¦¬à¦²à¦² à¦¤
à§Į à¥¤
Ġà¦ħà¦¸ à¦®à¦¯
à¦¬à¦ª à¦¤
à¦²à¦¨ à¦ķ
Ġà¦Ĩà¦§ à¦ĺà¦£
à¦¬à¦ķ à¦¦
à§§à§ ¨
Ġà¦Ĺà§ľ à¦¤
à¦¬ à¦Ĺà¦¤
Ġà¦ķ à¦¬à¦²
Ġà¦¸ à¦ļà¦ķ
Ġà¦ı à¦¹
à¦ľ à¦ĸà¦¬à¦°
à¦¼à§ĩ ;
à¦Ĺ à¦°à¦®
à¦· à¦²
à¦ļ à¦¦
Ġà¦ıà¦ķ à¦Ŀ
à¦°à¦£ à¦¬
Ġà¦¸à¦¬ à¦¥
Ġà¦Ĩà¦¸ à¦®
Ġà¦ħà¦¤ à¦Ł
Ġà¦· à¦·
à§İà¦ª à¦°à¦¤
Ø §
Ġ re
à¦¬ à¦ªà¦¨
à¦¦ à¦°à¦®
Ġà¦¦ à§ľ
à¦ª à¦Ń
à¦¥ à¦°à¦Ł
Ġà¦¥ à¦°
à¦¾à¦ģ ?
Ġà¦§ à§ľ
Ġà¦§ à¦ķà¦²
à¦°à¦¤ à¦¨
Ġà¦ħà¦¨ à¦¸
à§İ à¦¬
à¦¤à¦° à¦¬
à¦°à¦® à¦¤
à¦ķà¦° à¦¶
Ġà¦ħà¦¸ à¦Ń
Ġà¦¬à¦° à¦¦
à¦ħ à¦¹
à¦®à§Ł à¦ķà¦°
à¦¸à¦¹ à¦¦
à¦Ī à¦¨
à¦ħà¦¥ à¦ļ
Ġ =
Ġ L
à§ģ !âĢĿ
à¦¼ âĢĶâĢľ
Ġà¦¬ à¦ķà¦¬à¦ķ
à¦¸ à¦ŀ
à¦¦ à¦®à¦¨
Ġà¦¨ à¦®à¦¨
Ġà¦® à¦¦à¦¨
Ġà¦® à¦¸à¦²
Ġà¦ı à¦¨à¦ķ
à¦ļ à¦Ĺ
Ġà¦Ĺ à¦ļ
Ġà¦¸à¦® à¦¤à¦²
à¦¬à¦° à¦¹
à¦¿, âĢĻ
à¦°à¦¬ à¦®à¦¯
Ġà¦ĵà¦ł à¦²
à¦ıà¦ĩ à¦Ł
Ġà¦¬à¦ĩ à¦ķ
à¦Łà¦¬ à¦ĩ
Ġt o
à¦§à¦¹ à§Ł
Ġ "
à¦¤ à¦ľà¦¨
à¦¼ à¦ĥà¥¤
Ġà¦ķ à¦¶
Ġà¦ķ à¦¹
à¦£ à¦§
Ġà¦¶ à¦°à¦¬à¦¤
à¦ĵ à¦ª
Ġà¦ıà¦ķ à¦²à¦¬
à¦Ń à¦ľ
Ġà¦« à¦°à¦®
Ġà¦ħà¦¨ à¦¡
âĢĿ ,
Ġà¦Ł à¦¨à¦Łà¦¨
Ġà¦Ĩà¦¸ à¦ķ
à¦Ĩ à¦¦à¦°
Ġà¦¬à¦¨ à¦¸
à¦Ĺà¦¤ à¦®
!âĢĿ âĢĶ
Ġà¦ªà¦¦ à¦§
à§§à§ ®
à¦¦à¦°à¦® à¦¹à¦²
à¦ Ĭ
à¦¨ à¦Ńà¦°
à¦² à¦ĺ
à¦¯ à¦Ĺà¦¤
à¦¼ âĢĻ
à¦¦ à¦®à¦¸
Ġà¦® à§Łà¦²
âĢ ¢
à¦¡ à¦īà¦ĩ
Ġà¦Ĺ à¦«
à¦£ à¦§à¦°
âĢĶ âĢĻ
à¦ĺ à¦¸
à¦°à¦® à¦¬à¦°
à¦ħ à¦ŀ
Ġà¦īà¦ª à¦¬
à¦°à¦ľ à¦¬
Ġà¦ħà¦ª à¦Ľà¦¨
Ġà¦¸à¦¹ à¦ļà¦°
Ġà¦ĵà¦ĩ à¦Ł
à¦¤à¦² à¦Ł
Ġà¦¶à¦¤ à¦¬à¦°
à¦°à¦Ĺ à¦£
Ġà¦¦à¦² à¦Ł
Ġà¦ļà¦Ł à¦ªà¦Ł
Ġà§¨ à§§
Ġà¦Ńà¦°à¦¤ à¦¬
r i
Ġ is
à¦° à¦ļà¦¨
à¦® à§İ
Ġà¦ķ à¦ľà¦¨
Ġà¦ķ à¦ļà¦ķ
Ġà¦¬ à¦Ľ
Ġà¦® à¦°à¦²
Ġà¦® à¦ĵà¦²
Ġà¦ı à¦¤à¦¬à¦¡
Ġà¦¤ à¦ªà¦¨
à¦Ĺ à¦¹
Ġà¦ħ à¦ĸ
à§Ł à¦Ń
Ġà¦Ĩà¦® à¦¤
à¦¾à¦ģ -
Ġà¦² à§Ł
Ġà¦« à¦¤
Ġà¦« à¦¸à¦ķ
à§İ à¦¸à¦²
à¦ľà¦¨ à¦¦
à¦ī à¦£
Ġà¦ħà¦¬ à¦¸à¦¨
Ġà¦ħà¦¸ à¦¤
à¦¨à¦¬ à¦¸
Ġà¦ķà¦® à¦ĩ
Ġà¦¬à¦ĩ à¦ĸ
à§° à¦ľ
Ġà¦¹à¦ĩ à¦ļà¦ĩ
Ġà¦ĸà¦¸ à¦¡
a tion
e m
à¦¨ à¦ªà¦¤
à§ģ :
à¦¬ à¦¦à¦¨
à¦® à¦·
à¦ĩ à¦®à¦¨
Ġà¦® à¦°à¦¦
Ġà¦® à§Łà¦¦
à¦¹ à¦ľà¦¨à¦ķ
à¦¥ à¦ĩ
Ġà¦¶ à¦Ł
Ġà¦¬à¦² à¦ļ
Ġà¦ĵ à¦²à¦Ł
Ġà¦ĸ à§ľ
à¦°à¦¤ à¦ķ
à¦ı à¦Ľ
Ġà¦ĩ à¦īà¦Ł
Ġà¦ħà¦¬ à¦¯
Ġà¦ħà¦¸ à¦¨
à¦¾à¦Ĥ ,
Ġà¦īà¦¦ à¦ĺ
Ġà¦ªà¦¥ à¦ĩ
Ġà¦ħà¦Ń à¦¦
à¦ªà¦¦ à¦¬
âĢ¦ âĢĻ
Ġà¦Ĺà¦£ à¦¨
à¤ ¿
éŁ¿éŁ¿éŁ¿éŁ¿éŁ¿éŁ¿éŁ¿éŁ¿ éŁ¿éŁ¿éŁ¿éŁ¿éŁ¿éŁ¿éŁ¿éŁ¿
º çľ
à¦¨ à¦«
à¦¤ à¦ªà¦ķ
à¦¼ à§ģà¥¤
Ġà¦¬ à¦ļ
Ġà¦¬ à¦¦à¦¨
Ġà¦¬ à¦¹à¦°
Ġà¦¬ à§İà¦¸
Ġà¦ª à¦ľ
Ġà¦¨ à¦¬à¦¬
Ġà¦® à¦Īà¦¨
Ġà¦¤ à§İà¦ªà¦°à¦¤
à¦ĸ à¦¦
à¦· à¦¶
à¦ļ à¦²à¦¤
Ġà¦Ĺ à¦£à¦¤
Ġà¦ıà¦ķ à¦®à¦¤
à¦ľà¦¨ à¦¬
à¦°à¦¬ à¦ļ
Ġà¦ĩ à¦¬
à¦²à¦ķ à¦¦
à¦°à¦² à¦¯
à¦¶à¦¨ à¦Ł
à¦®à¦ķ à¦°à¦£
Ġà¦ħà¦ľ à§Ł
Ġà¦īà§İ à¦ªà¦¨
Ġà§ ®
à¦ķà¦ľà¦¨ à¦ķ
Ġà¦īà§İà¦¸à¦¬ à¦®
r o
· çľ
à§ĩ à¦ĥ
à¦¯ à¦¤à¦°
à¦¬ à¦¶à¦ķ
Ġà¦Ĩ à¦¹à¦¸
Ġà¦¹ à¦¡
à¦· à¦¹
à¦¡ à¦ĩ
Ġà¦¯ à¦¬à¦¨
Ġà¦ľ à§Łà¦¨
Ġà¦Ń à¦¬à¦¤
à¦ĵ à¦Ĺ
Ġà¦Ĩà¦® à¦ľ
à¦Ļ à¦Ľ
Ġà¦§ à¦¬
à¦¤à¦° à¦¸
à¦¼, âĢĿ
à¦ĥ âĢĵ
Ġà¦Ī à¦²
Ġà¦¶à¦¤ à¦ªà¦¥
à¦ľà¦² à¦Ń
Ġà¦¤à¦² à¦¦
Ġà§§à§ ¯
Ġà§§à§¯à§¯à§ ¦
ºçľ ºçľ
v er
à§ ¯à§
à¦² à¦Ŀ
à¦¬ à¦®à¦¯
à¦¶ à¦¬à¦¨
à¦· à¦°à¦¤
à¦¡ à¦ľ
à¦¹ à¦ķà¦°
Ġà¦° à¦Ł
Ġà¦° à¦ª
Ġà¦ī à¦¹
à¦°à¦£ à¦ĩ
à¦Ĩ à¦Ľ
Ġà¦ĩ à¦ĵà¦°
Ġà¦Ĩà¦² à¦¸
Ġà¦Ĩà¦² à¦ªà¦¨
à¦°à¦¸ à¦¹
Ġà¦īà¦ª à¦¡
à¦¤à¦¬ à¦ķ
à¦¨à¦¬ à¦¸à¦Ń
à¦¼à§ĭ -
Ġà¦«à¦² à¦ª
à§Ģà¥¤ âĢĻ
à§° à¦ķ
à¦ıà¦ķ à¦¸
Ġà§§à§ «
à¦Ĺà¦® à¦ŀ
à¦ıà¦ĸà¦¨ à¦ĩ
à¦ıà¦ĸà¦¨ à¦ĵ
ti c
à§¦à§¦ à§¦
âĢĵâĢĵ âĢĵâĢĵ
·çľ ·çľ
a d
à¦¤ à¦°à¦¤
à¦ķ à§Ł
à¦¬ à¦¸à¦®
à¦Ł à¦¶
à¦ĩ à¦ŀ
à¦· à¦ªà¦¥
Ġà¦ħ à¦ĸà¦£
à¦¥ à¦Ń
Ġà¦¶ à¦°à¦¦
Ġà¦° à¦ĺ
Ġà¦ĸ à¦¯
Ġà¦ĸ à¦ª
Ġà¦¬à¦²à¦² à¦Ĩà¦®
Ġà¦ķà¦¥ à¦ķ
à¦ĺ à¦¬
à¦ĺ à¦°à¦Ł
Ġà¦¬à¦¸ à¦Ľ
à¦ķà¦° à¦Ł
à¦²à¦¬ à¦§
à¦ĩà¦¨ à¦¸
Ġà¦ħà¦® à¦Ļ
Ġà¦īà¦ªà¦° à¦¨
à¦Ŀà¦² à¦®à¦²
à¦Ĺà¦¬ à¦Ĺ
à¤ ¤
Ġà¦¸à¦°à¦¸ à¦¤
à¦ĭ à¦£
Ġà¦Łà¦² à¦Łà¦²
à¦¡à¦īà¦ĩ à¦ļ
r u
à¦° à¦®à¦¨
à¦® à¦ĵà¦¯
à¦¸ à¦¶
à¦ª à¦²à¦ķ
Ġà¦¹ à¦ľ
à¦ľ à¦ĸ
Ġà¦ħ à¦ķà¦²
Ġà¦ħ à¦ĺà¦Łà¦¨
à¦§ à¦Ĺà¦®
à¦¹ à¦°à¦¨
Ġà¦ľ à¦ĺà¦¨
à¦Ń à¦²
à¦¼à¦¾ âĢĻ
Ġà¦ĵ à¦§
Ġà¦« à¦²à¦¨
Ġà¦ĸ à¦°à¦Ĺ
à¦°à¦£ à¦¨
Ġà¦Ł à¦¬
à¦Ĩ à¦īà¦Ł
à¦°à¦® à¦¬
à¦·à¦£ à¦®
à¦°à¦¥ à¦ķ
à¦°à¦¸ à¦®
Ġà¦ķà¦² à¦¹
Ġà¦¸à¦¹ à¦ľà¦²à¦Ń
Ġà¦ķà¦¤ à¦ĩ
Ġà¦ĩà¦¨ à¦²
à¦¬à¦¬ à¦Ļ
à¦°à¦ľà¦¨ à¦¨
Ġà¦¦à¦¶ à¦ľà¦¨
à¦¡à¦¬ à¦Ń
Ġà¦ľà§Ł à¦Ĺ
ĠĠĠĠ ĠĠĠĠ
Ġà¦¨à¦ľ à¦°à¦¦
Ġà¦¥à¦¤ à¦®à¦¤
l y
à¦° à¦ĵà¦¯
à§į !
à¦² à¦ķà¦Ł
à¦ķ à¦¹
à¦¯ à¦Ŀ
à¦¸ à¦®à¦²
à¦Ł à¦°à¦Ĺ
à§Ģ âĢĻà¥¤
à¦ľ à¦¤à¦¨
à¦ľ à¦ķà¦¨
à¦ĸ à¦Ń
à¦¡ à¦«
à¦¹ à¦¨à¦ķ
Ġà¦ľ à¦Łà¦²
Ġà¦ľ à¦ĸà¦®
Ġà¦Ń à¦ľ
à¦Ń à¦¬à¦¨
Ġà¦ī à¦®
Ġà¦¸à¦¬ à¦²
à¦·à¦£ à¦¶
à¦¨à¦ĵ à¦ķ
à¦ħ à¦Ł
Ġà¦ĵà¦ĩ à¦ĸ
Ġà¦Ĺà¦Ń à¦°
à¦¬à¦¶ à¦¤
Ġà¦¬à¦ī à¦Ł
à¦¾âĢĿ à¥¤
es s
Ġà¦ħà¦¬à¦¤ à¦°à¦£
Ġà¦ľà¦¨à¦¸ à¦ļ
à¦¨à§Ł à¦Ń
a g
o d
à¦¨ à¦ľà¦Ł
à¦¨ à¦ľà¦¨à¦ķ
à¦² à¦¥
à¦¯ à¦ĸ
à¦¯ à¦ªà¦°
à¦¯ à¦¬à¦¨
à§ĭ âĢĿ
Ġà¦¸ à¦ĵà¦¯
Ġà¦Ĩ à¦ĩà¦¸
à¦¦ à¦°à¦¬
Ġà¦ħ à¦Ĺà¦¤
Ġà¦« à¦¸
à¦ŀ à¦ª
à¦ı à¦ķà¦¤
Ġà¦ķà¦¥ à¦ŀ
à¦¤à¦° à¦ª
Ġà¦Ĩà¦² à¦¨
à§Ī à¦ĥà¥¤
Ġà¦Ŀ à¦Ļ
Ġà¦ħà¦¬ à¦®
à¦ĺ à¦Ĺ
à¦°à¦¥à¦® à¦¦
à¦ħ à¦Ĺ
Ġà¦ħà¦ª à¦¸
Ġà¦ħà¦ª à¦²à¦ķ
Ġà¦ķà¦¬ à¦ľ
à§ģà¦ĥ à¥¤
Ġà¦ıà¦ķà¦ĩ à¦¸à¦Ļ
Ġà¦ķà¦ĸà¦¨à¦ĵ à¦ĩ
Ġà¦¦à¦²à¦¬ à¦¦
i k
Ġ Ð
à¦¤ à¦¦à¦¨
à¦¤ à¦§à¦¨
à¦ķ à¦®à¦²
à§ģ à§į
à¦¬ à¦īà¦¦
à¦¼ à§ģ-
à¥¤ âĢĺ
Ġà¦ª à¦ª
Ġà¦ª à¦łà¦¨
Ġà¦® à¦«à¦¸
à¦¶ à¦Ńà¦ķ
Ġà¦ħ à¦¤à¦¨
à¦ļ à¦ķà¦°
à¦¥ à¦¯
à¦¥ à¦ªà¦¤
Ġà¦ľ à¦ª
Ġà¦° à¦£à¦ķ
Ġà¦Ĩà¦® à¦¬
à¦¾à¦ģ à¥¤âĢĻ
Ġà¦Ł à¦Ĺà¦¬à¦Ĺ
à¦ĺ à¦¤à¦®
à¦ķà¦° à¦¨
à¦¯à¦¬ à¦ĩ
Ġà¦ħà¦ª à¦ļà¦¯
à¦ıà¦ĩ à¦¬
Ġà¦ķà¦® à¦ªà¦ķ
Ġà¦ĵà¦° à¦«
?âĢĿ âĢĶ
à¤ ¨
à¦°à¦« à¦¤
Ġà§§à§¯à§ ¨
Ġà§§à§¯à§ ©
à§« à§Ń
à¦ıà¦®à¦¨ à¦ķ
ti ve
à¦ķà¦ĸà¦¨ à¦ĵ
Ġf or
Ġà¦¨à¦¬à¦¬ à¦§
n t
Ġ G
Ġ y
Ġ Ø
à§ĩ âĢĿâĢĶ
à¦¨ à¦®à¦¯
à¦¯ à¦ľà¦¨à¦ķ
à¦¬ à¦ĸ
à¦¬ à¦§à¦°
Ġà¦¬ à¦¦à¦°
Ġà¦¸ à¦ļà¦°
à¦¸ à§İ
Ġà¦Ĩ à¦ĵà¦¤
à¦ª à¦ĸ
Ġà¦¤ à§İà¦ªà¦°
à¦ĸ à¦ª
Ġà¦ħ à¦ĺ
à¦ĵ à¦ĸ
âĢĻ âĢĵ
à¦°à¦£ à¦®à¦¯
à§İ à¦ķà¦°
à¦ı à¦°à¦ķà¦®
à¦ı à¦®à¦ľ
Ġà¦ĩ à§Ł
à¦°à¦® à¦ľ
à¦ĥ !
à¦¬à¦ª à¦ķ
à¦¤à¦ķ à¦¡
Ġà§§à§¯à§ ¦
Ġà¦Ńà¦Ĺ à¦¬à¦¦
Ġà¦®à¦Ĺ à¦§
âĢķâĢķ âĢķâĢķ
Ġà¦§à¦¬ à¦§à¦¬
Ð °
à¦¤ à¦«
Ġà¦Ĩ à¦ªà¦¦
Ġà¦Ĩ à¦ĩà¦Ł
à¦Ł à¦ļ
à¦Ľ à¦ĩ
à¦ľ à¦§à¦°
âĢ ī
à¦Ĺ à¦Ńà¦Ļ
Ġà¦ķà¦° à¦ļ
à¦¡ à¦ĵ
à¦¹ à¦®à¦¯
à¦£ à¦¶
à¦Ń à¦®
à¦Ń à¦Ĺ
à¦ł à¦¬
Ġà¦ĵ à¦®à¦°
à¦°à¦£ à§Łà¦¨
Ġà¦Ł à¦²à¦¤
à¦°à¦® à¦§
Ġà¦ħà¦¸ à¦Ļ
à¦¤à¦® à¦¶
Ġà¦ĸà¦¬à¦° à¦¦
à¦ķà¦ķ à¦¥
Ġà¦¸à¦¹à¦ľ à¦Ń
Ġà¦ªà¦°à¦® à¦¸à¦¤
Ġà¦Ĩà¦ĩà¦¨ à¦¸
Ġà¦ľà¦Ĺ à¦¦
Ġw h
Ġà¦¨à§ľ à¦¬à§ľ
h e
Ġ H
à¦¨ à¦ĵà¦¯
à¦¨ à¦ĺà¦°
à¦¤ à§ľ
à¦² à¦ĵà¦¯
à¦¯ à¦°à¦¶
à¦¯ à¦®à¦£
Ġà¦ķ à¦®à¦¨
Ġà¦¸ à¦Ĺ
Ġà¦¸ à§İà¦ķ
à¦¸ à¦ł
à¦ĩ à¦ħà¦ķ
Ġà¦¨ à¦Ĺà¦¦
Ġà¦® à¦ĩ
Ġà¦ľ à¦®à¦ķ
Ġà¦ī à¦¯
Ġà¦ī à¦¸à¦ķ
Ġà¦ĵ à¦¬
à§ľ à¦Ļ
Ġà¦¬à¦²à¦² à¦ķ
à¦¬à¦¨ à¦¦à¦°
Ġà¦Ł à¦¨
Ġà¦¡ à¦ľà¦¨
Ġà¦®à¦¤ à¦¬
à¦ĺ à§ľ
Ġà¦Ĩà¦ľ à¦¬
à¦°à¦¸ à¦Ń
à¦¨à¦ĵ à¦®à¦¤
Ġà¦ľà¦² à¦ĸ
à¦®à¦² à¦Ĺ
Ġà¦ħà¦§ à¦¸
Ġà¦ľà¦® à¦Ľ
Ġà¦¬à¦ĩ à¦®
Ġà¦ĩà¦¨ à¦Ł
à¦ªà¦ķ à¦Ń
à¦°à¦ļ à¦²à¦¨
Ġà¦¶à¦¤ à¦¶
Ġà¦¶à¦¤ à¦ķà¦°
à¦Łà¦¤ à¦ĩ
à§§à§ Ń
à¦°à¦®à¦£ à¦¬
Ġà§§à§¯à§ ¬
à¦¾âĢĿ âĢĶ
Ġà¦°à¦£ à¦ľ
Ġà¦¦à¦Ĺ à¦¦à¦Ĺ
Ġà¦ķà¦¨à¦ķ à¦¨
. âĢĿ
c e
à¦¨ à¦ļà¦°
à¦¤ à¦§
à¦® à¦ªà¦¤
à§ĭ âĢĻà¥¤
Ġà¦¬ à¦¤
à¥ ĩ
à¦Ł à¦§à¦°
Ġà¦¤ à¦°à¦¬
à§Ģ :
Ġà¦ħ à¦ķà¦°
à¦ļ à¦¤à¦°
à¦¥ à¦ĵ
à¦¥ à¦¬à¦¹
Ġà¦ľ à¦ŀ
Ġà¦Ń à¦¸
à¦®à¦¨ à¦ķ
Ġà¦ıà¦ĩ à¦ļ
à¦« à§ľ
à¦Ŀ à¦ŀ
ĠâĢĺ âĢĺ
à¦°à¦¬ à¦¸
à¦Ĩ à¦°à¦ľ
Ġà¦ĩ à¦¡
Ġà¦ĩ à¦¨à¦ķ
à§Ī -
Ġà¦Ŀ à¦ª
à¦·à¦£ à¦ĵ
à¦¬à¦¤ à¦®
à¦ħ à¦¬à¦¸
Ġà¦¸à¦¨ à§İ
à¦ªà¦¦ à¦¸
à¦¾âĢĶ âĢĺ
à¦¸à¦¨ à¦ķ
Ġà¦ĵà¦ĩ à¦¸à¦¬
Ġà¦ĵà¦ĩ à¦°à¦ķà¦®
à¦·à¦ķ à¦ķ
Ġà¦ĩà¦¨ à¦Ń
Ġà¦Ĩà¦¦ à¦®
à¦¾âĢĻ âĢĶ
Ġà¦ļà¦®à¦ķ à¦ª
à¦¾à¦ĥ !
es t
à¦ķà¦ľ à¦®à¦ķ
ÂŃÂŃ ÂŃÂŃ
r om
Ġ W
à¦¨ à¦®à¦¤
Ġà¦¬ à¦Ĺ
Ġà¦¸ à¦°à¦¤
Ġà¦Ĩ à¦ľà¦¨
à¦Ł à¦¯
à¦Ł à¦¡
à¦Ľ à¦¸
à¦· à¦ķà¦¤
Ġà¦¬à¦² à¦Ł
Ġà¦« à¦²à¦ķ
Ġà¦ªà¦° à¦®à¦¹
Ġà¦¸à¦® à¦¬à¦¯
à¦« à¦ª
Ġà¦Ŀ à¦ŀ
à¦°à¦® à¦ķ
Ġà¦¢ à¦Ļ
à¦ĥ âĢĶ
à¦Ĺà¦² à¦¬
à¦¿à¦Ĥ âĢĻ
à¦ıà¦ĩ à¦°à¦ķà¦®
à¦¯à¦¤ à¦ķ
Ġà¦ķà¦¤ à¦ķà¦Ł
à¦°à¦ª à¦¥
à¦¬à¦¸ à¦¤
à§§ à§§
à¦¬à¦ķ à¦ķ
à§įâĢĮ -
Ġà¦¦à¦² à¦Ĺà¦¤
Ġà¦¬à§ľ à¦¦
Ġà§ ¯
à¦¬à¦® à¦Ļ
Ġà¦Ķ à¦¦
a b
u p
à ¸
Ġ F
à¦¨ à¦ľà¦°
à¦¤ à¦ªà¦¸
à¦ķ à¦ı
Ġà¦¸ à¦¦à¦¯
Ġà¦ª à¦ļà¦¨
à¦¸ à¦ĵà¦¯
Ġà¦Ĩ à§Łà¦¤
Ġà¦¨ à¦¬à¦¯
Ġà¦® à¦ł
Ġà¦¹ à¦ĩà¦¨
à¦ľ à¦ľ
à¦¶ à¦¤à¦ķ
Ġà¦¶ à§Łà¦¤
Ġà¦° à¦¸à¦¬
Ġà¦Ľ à¦®
à¦Ļ à¦ļ
Ġà¦ħà¦¨ à¦Ń
âĢĻ ;
à¦¤à¦° à¦ĩ
à¦¤à¦° à¦ĵ
Ġà¦Ĩà¦ľ à¦®à¦²
à¦¸à¦¬ à¦ľ
à¦²à¦ķ à¦ķ
à¦Ĺà¦² à¦Ĺà¦ŀ
à¦ħ à¦°à¦£
Ġà¦ıà¦¤ à¦ĸ
à¦¨à¦¬ à¦ķà¦²
Ġà¦Ĩà¦§ à¦Ł
Ġà¦¬à¦Ł à¦¤à¦²
à¦ķà¦¶ à¦ª
Ġà¦Ĩà¦¹ à¦¬
à¦·à§Ł à¦Ĺ
er e
en d
à¦¿âĢĿ à¥¤
à¦ĭ à¦¤
el l
it y
Ġà¦Ŀà¦Ł à¦ªà¦Ł
Ġà¦Ķà¦°à¦¸ à¦ľ
ha k
i f
i th
o h
s t
t u
Ġ O
Ġ r
Ġ ì
à¦° à¦Ĩà¦¨
à¦¨ à¦®à§Ł
à¦¯ à¦¨à¦¤
à¦¯ à¦¦à¦²
à¦¬ à¦¦à¦°
à¦¼ âĢĿ
à¦® à¦¤à¦¨
à¦® à¦«à¦²
à¥¤ âĢ¦
Ġà¦¸ à¦²à¦ľ
Ġà¦ª à§Ł
à¦¦ à¦ļ
à¦ĩ à¦ĵà¦¯
Ġà¦® à¦ķà¦°à¦¨
Ġà¦¤ à¦¤à¦¬
à¦¶ à¦®à¦£
à¦¶ à¦¤à¦²
Ġà¦¯ à¦®à¦ľ
Ġà¦Ĺ à¦ª
à¦¥ à¦Ł
Ġà¦ľ à¦¬à¦°
Ġà¦Ń à¦°à¦²
Ġà¦ıà¦ķ à¦ķà¦¥
à¦ł à¦Ĺ
Ġà¦ī à¦¥
à§ĥ -
Ġà¦ĸ à¦¨à¦¨
Ġà¦ªà¦° à¦°
Ġà¦¸à¦® à¦¦
à¦ī à¦Ń
Ġà¦¸à¦¬ à¦¶
à¦Ĩ à¦Ļ
Ġà¦ĩ à¦Ń
Ġà¦Ĩà¦Ĺ à¦¤
Ġà¦¢ à¦ķ
à¦²à¦¬ à¦¶à¦¤
à¦§à¦¨ à¦ĩ
à¦¤à¦¤ à¦®
à§įâĢĮ ,
à¦¨à¦¸ à¦ªà¦Ł
à¦ľà¦² à¦¦
Ġà¦Ĩà¦ª à¦²
à¦¾à¦ģ, âĢĿ
Ġà§§à§¯à§ ®
h ar
Ġ K
Ġ it
à§ĩ ...
à¦¨ à¦ĺ
à¦¨ à¦ķà¦²
à¦¼ )
à¦® à¦°à¦¤
à§ĭ âĢĻ,
Ġà¦¸ à§Ł
Ġà¦Ĩ à¦ī
à¦ĩ à¦¸à¦²
Ġà¦¦ à¦²à¦¨
à¦ª à¦¬à¦¤
à§Ģ âĢĻ,
Ġà¦¹ à¦ª
Ġà¦¹ à¦ĩà¦¯
à¦¡ à¦¦
à¦§ à¦¬à¦¦
à¦¹ à¦Ĺ
à§Ł à¦Ł
à¦£ à¦¶à¦ķ
à¦¥ à¦°à¦Ĺ
Ġà¦¶ à¦°à¦¤
Ġà¦° à¦Ĺ
à¦ł à¦Ń
à¦¼à¦¿ ?
à¦¬à¦¨ à¦¬à¦¤
à¦¬à¦¨ à¦¸à¦Ļ
à¦ľà¦¨ à¦ĵ
à¦¤à¦° à¦«
à¦·à¦£ à¦¸
à¦¬à¦² à¦ķ
Ġà¦īà¦¦ à§Ł
à¦ħ à¦¥à¦¬
à¦¤à¦¬ à¦¬
à¦®à¦¤ à¦²
à¦²à¦¤ à¦²
à¦°à¦¦ à¦ķ
à¦ĩà¦¨ à¦«
Ġà¦Ĩà¦¤ à¦¤
Ġà¦¬à¦ĩ à¦ªà¦¤
Ġà¦īà§İ à¦«
à¦ıà¦ķ à¦¦à¦®
à§§à§ «
à¦ľà¦¬ à¦īà¦¦
Ġà¦¦à¦² à¦¬à¦²
Ġà¦Ĺà§ľ à¦¬
Ġà¦§à¦¨ à¦¸à¦®
à¦ķà¦¸ à¦ľ
Ġà¦¦à¦® à¦¦à¦®
à§ĭ! âĢĻ
Ġà¦ķà§Ł à¦²
à¦¥à¦² à¦ľ
Ġà¦Ĭ à¦·
Ġà¦Ķ à¦·à¦§
Ð ¾
Ø ±
Ġ k
à§į âĢį
à¦¬ à¦ŀ
à¦® à¦¥
à¦® à¦¸à¦¨
à¦¦ à¦°à¦ķ
Ġà¦¤ à¦¨à¦¯
à¦¶ à¦ľà¦¨
à¦Ĺ à¦§
Ġà¦ħ à¦¹à¦®
à¦§ à¦ªà¦°
Ġà¦Ĺ à¦®à¦¨
Ġà¦Ĺ à¦¤à¦°
à¦¹ à¦°à¦ķ
à¦¹ à§Łà¦¤
à§Ł à¦ªà¦°
à¦¥ à¦¶
à¦Ń à¦Ĺà¦¬
à¦ł à¦ķà¦¦
Ġà¦Ĩà¦° à¦¶
Ġà¦² à¦ĩà¦¯
Ġà¦§ à§°
à¦ªà¦° à¦¶
Ġà¦®à¦¨ à¦ĸ
à¦¬à¦¨ à¦¡
à¦Ŀ à§ľ
à¦ı à¦¤à¦ķ
à¦ı à¦¤à¦¦
à¦ı à¦¸à¦¸
à¦ī à§İà¦¸
Ġà¦Ĺà¦² à¦Ĺà¦²
à¦¿à¦Ĥ âĢĶ
Ġà¦ħà¦Ń à¦¯
à¦ĩà¦¨ à¦®
Ġà¦ķà¦¤ à¦°à¦ķà¦®
âĢĮ à§į
Ġà¦Ĩà¦¦ à¦¤
Ġà¦ĭ à¦ľ
Ġà¦ĺà¦¨ à¦ĺà¦¨
Ġà¦Ńà§Ł à¦ķ
Ġà¦¸à¦°à¦² à¦Ń
à¦Ĩà¦ľ à¦ĩ
Ġà¦Ĩà§ľ à¦®
Ġà¦ĵà¦· à¦§
Ġà¦ľà¦¨à¦ªà¦¦ à¦¬
ig h
Ġà¦ķà¦¨à¦ķ à¦¦
Ġà¦§à§ľ à¦«à§ľ
Ġy ou
Ġ Ù
à§į âĢĶ
à¦¿ ...
à¦¤ à¦ķà¦¤
à¦² à¦ķà¦°
à¦² à¦ļà¦°
à¦¬ à¦ªà¦°
à¦® à¦®à¦¯
à¦® à¦¶à¦²
à¥ Ģ
à¥¤ à¥¤
Ġà¦¨ à¦²à¦ķ
à¦¡ à¦ļ
Ġà¦¬à¦² à¦¯
Ġà¦ĸ à¦Ĺ
Ġà¦ĺ à¦·à¦¤
à¦ŀ à¦¸
à§İ à¦ªà¦¤
à¦ı à¦°à¦ĩ
à¦°à¦ķ à¦¯
Ġà¦¹à¦² à¦ĺà¦°
Ġà¦ĩ à¦¤à¦°
Ġà¦ĩ à¦®à¦ª
à¦ķà¦Ł à¦¬à¦°
Ġà¦¹à¦¤ à¦ļà¦ķ
à¦ħ à¦®à¦¨
Ġà¦īà¦ª à¦¶
à¦®à¦ķ à¦¥
à¦¨à¦¬ à¦ķ
Ġà¦ħà¦ª à¦ļà§Ł
à¦¤à¦ķ à¦°à¦£
Ġà¦īà¦² à¦Ļ
Ġà§§à§ ©
Ġà¦ļà¦Ł à¦ķà¦²
à§« à§¦
Ġc on
à¦Ĺà¦ª à§İ
Ġà¦¸à¦«à¦Ł à¦ĵà§Ł
e a
o is
» ¿
ï »¿
Ġ E
à§ĩ .
à¦¨ à¦¤à¦°
à¦¨ à¦ĩà¦²
à¦¤ à§İ
à¦ķ à¦ªà¦ķ
à¦¯ à¦§à¦°
à¦¬ à¦ī
à¦® à¦¶à¦ķ
Ġà¦¸ à¦¶
Ġà¦¸ à¦¶à¦¬
Ġà¦¸ à¦ĩà¦¬
à¦Ł à¦Ĩà¦ª
à¦¦ à¦ľ
à¦¦ à¦¯à¦¨
à¦ĩ à¦ªà¦°
à¦ĩ à¦¸à¦Ļ
à¦Ľ à¦Ľ
Ġà¦¦ à¦¦
Ġà¦¤ à¦Ľà¦¨
à¦ĸ à¦ľ
Ġà¦ħ à¦¢
à¦§ à¦ļ
à¦ļ à¦²à¦¬
Ġà¦¶ à¦¶à¦¬
Ġà¦Ń à¦°à¦£
Ġà¦ıà¦ķ à¦¹
à¦Ń à¦¤
à¦Ń à¦²à¦¬
à§ľ à¦¯à¦¨
Ġà¦®à¦¨ à¦®
à¦« à¦²à¦ķ
Ġà¦¬à¦²à¦² à¦®
à¦Ŀ à¦¬à¦¯
à¦ı à¦ĵ
à¦ı à¦®à¦¨à¦ĩ
à¦°à¦ķ à¦£
Ġà¦Ł à¦¯
à¦¤à¦° à¦ŀ
à¦°à¦® à¦¯
à¦¯à¦¬ à¦¯
à¦¤à¦¨ à¦ķ
à¦¶à¦¨ à¦²
Ġà¦ľà¦² à¦Ń
à¦°à¦¶ à¦®
Ġà¦ħà¦ª à¦ķ
Ġà¦¸à¦¹ à¦¬
à¦ļà¦² à¦Ł
ĠĠ ĠĠĊ
Ġà¦ªà¦¤ à¦Ļ
Ġà¦¦à¦² à¦ªà¦¤
Ġà¦¤à¦¤ à¦ĸ
à¦ľà¦¸ à¦ľ
Ġà¦§à¦¨ à¦ŀ
à¦Ĩà¦ľ à¦ĵ
à¤ ²
à§« à§¬
Ġà¦Ĺà¦ľ à¦Ĺà¦ľ
Ġà¦Ĩà¦ĩ à¦¶
Ġà¦ĸà¦Ł à¦ĸà¦Ł
Ġà¦¸à¦«à¦Ł à¦ĵà¦¯
Ġà¦¬à¦Ľ à¦°à¦ĩ
Ġà¦¤à¦Ľà¦¨ à¦Ľ
a p
r y
u m
Ġ v
Ġ on
à¦¤ à¦®à¦¨
à¦² à¦§
à¦¯ à¦ªà¦¥
à§ģ ?âĢĻ
à§ģ ?âĢĿ
Ġà¦¬ à¦°à¦¬
Ġà¦¸ à¦¸à¦®
à¦¦ à¦¶à¦Ł
à¦ĩ à¦·
Ġà¦¤ à¦Łà¦¸
Ġà¦¹ à¦ĩà¦Ľ
à¦ľ à¦²à¦¬
à¦¼à§ĩ âĢ¦
à¦· à¦¡
à¦· à¦¸à¦¦
Ġà¦ħ à¦¤à¦°
Ġà¦¯ à¦¶à¦¸
Ġà¦Ĺ à¦ŀ
à¦¹ à¦ĵ
Ġà¦ľ à¦°à¦Ĺ
à§ĩà¥¤ âĢ¦
ĠâĢ Ļ
à§ľ à¦Ŀ
âĢĻ !
à¦¬à¦¨ à¦ĵ
à¦ī à¦Ńà§Ł
Ġà¦ĩ à¦£
à§Ī à¥¤
Ġà¦Ĺà¦² à¦¤
à¦²à¦ķ à¦¨
à¦²à¦ķ à¦Ń
à¦Ľà¦¨ à¦¦
à§İà¦ķ à¦®
à¦¼à§ĩà¥¤ âĢĻ
à¦¶à¦ķ à¦¦
Ġà¦ıà¦ķà¦¦ à¦®à¦ĩ
à§Łà¦¨ à¦¯
à¦Ĺà¦ľ à¦ĸ
à¦¬à¦¶ à¦Ļ
à§§à§ ª
à¦¦à§Ł à¦ķ
Ġà¦¬à¦ķ à¦¶
Ġà¦¶à¦¹ à¦°à¦ķ
à¤ ¹
à¤ Ĥ
à¤ ķ
à¦¬à¦Ń à¦Ļ
Ġà¦¹à¦¨ à¦¹à¦¨
Ġà¦· à§ľà¦¯à¦¨
à¦·à§Ł à¦Ł
à¦¾âĢĿ âĢĵ
à¦ıà¦¸ à¦ıà¦¸
Ġà¦®à¦Ĺ à¦§à¦°
el a
Ġà§© à§¦
le c
Ġà¦ıà¦« à¦ıà¦®à¦ľ
à¦°à¦¹à¦¸ à¦¨
à¦Ĺà¦ł à¦¨à¦Ĺ
æŃĵæŃĵæŃĵæŃĵ æŃĵæŃĵæŃĵæŃĵ
ru th
o p
Ġ 1
à¦° à¦§à¦°
Ġà¦ķ à¦ĩà¦°
Ġà¦¸ à¦Ĺà¦°
Ġà¦Ĩ à¦ĩà¦²
Ġà¦Ĩ à¦ĩà¦Ľ
à¦ĩ à¦¸à¦Ł
Ġà¦ı à¦§
Ġà¦¤ à¦ĸ
Ġà¦¤ à¦¹à¦¬
à¦¶ à¦ĸ
à¦¶ à¦²à¦¤
à¦ĸ à¦®à¦£
à¦¡ à¦¹
à¦ļ à¦£
à¦¹ à¦ľ
à¦£ à¦ķà¦°
à¦¥ à¦¦
Ġà¦ļ à¦°à¦ķ
Ġà¦ľ à¦ľ
Ġà¦ľ à¦²à¦ķà¦£
à¦ĵ à¦Ľ
à¦Ń à¦°à¦¯
à¦ł à¦®
Ġà¦ī à¦¸
Ġà¦Ĩà¦° à¦¨
Ġà¦ªà¦° à¦ĸ
Ġà¦§ à¦®à¦¨
Ġà¦¸à¦® à¦Ń
à¦¼à¦¿ !
à¦Ĩ à§Ł
Ġà¦ıà¦¬ à¦¡
Ġà¦Ĩà¦² à¦¬
Ġà¦¡ à¦°
Ġà¦¡ à¦¬à¦²
Ġà¦ķà¦°à¦¤ à¦²
Ġà¦ıà¦¸ à¦®
Ġà¦Ŀ à¦°à¦¤
Ġà¦ħà¦¬ à¦Ĺ
à¦°à¦® à¦ª
Ġà¦Ĩà¦ľ à¦Ĺ
Ġà¦¬à¦¨ à¦ľ
Ġà¦Ĺà¦² à¦¨
à¦ħ à¦¸à¦®
Ġà¦Ĩà¦¨ à¦¸
à¦ĩà¦² à¦¸
Ġà¦ĵà¦ł à¦¬
Ġà¦¬à¦Ľà¦° à¦ĸ
Ġà¦¨à§Ł à¦¨
à¦¿âĢĶ âĢĺ
Ġà¦ħà¦ļ à¦ŀ
à¦ıà¦ķ à¦¸à¦®à¦¯
Ġà¦ħà¦ķ à¦¥
Ġà¦ĸà¦¬à¦° à¦ĵ
à¦¸à¦¹ à¦ľ
à¦ĩà¦ľ à¦¡
Ġà¦¸à§İ à¦¤
à§Ģ! âĢĻ
Ġà¦ĸà¦¸ à§ľ
à¦¿âĢĿ âĢĶ
Ġs t
à¦¡à¦Ń à¦£
Ġn e
Ġà¦ĸà¦ļ à¦ĸà¦ļ
hak h
ois hakh
c i
i on
n d
q u
à¦° à§İ
à§į ?
à¦¨ à¦Ĩà¦®
à¦¤ à¦¤à¦²
à¦² à¦ŀ
à¦² à¦ªà¦¥
à¦ķ à¦°à¦¤
à¦ķ à¦ļà¦ķ
à¦ķ à§°
à¦¬ à¦ľà¦Ĺà§İ
Ġà¦ķ à¦¸à¦®
Ġà¦¸ à¦°à¦¬
Ġà¦¸ à¦¶à¦°
Ġà¦® à¦²à¦®
Ġà¦¦ à¦¨
à¦ª à¦ªà¦¤
Ġà¦ı à¦°à¦®à¦§
Ġà¦¤ à¦°à¦¤à¦°
à¦Ĺ à¦°à¦¦
à¦· à¦°à¦£
Ġà¦ħ à§°
Ġà¦¯ à¦ľà¦¨
à¦¹ à¦¶
à§Ł à¦ļ
à§Ł à¦£à¦¤
à¦£ à¦«
à¦£ à¦¸à¦Ļ
Ġà¦Ń à¦ľà¦¨
Ġà¦° à¦®à¦²
à¦ĵ à¦®
à¦ĵ à¦Ń
à¦¼à¦¾ à¥¤âĢĻ
à¦Ļ à¦ķ
à¦ªà¦° à¦¬
Ġà¦¬à¦²à¦² à¦¬
à¦ŀ à¦ķ
âĢĿ !
à¦ľà¦¨ à¦®
à¦ī à¦¥
à¦¬à¦° à¦¦
à¦°à¦¬ à¦²à¦Ń
Ġà¦ĩ à¦®à¦¨
Ġà¦Ĩà¦ľ à¦®
à¦¯à¦¬ à¦¶à¦¤
à¦°à¦¸ à¦¤
à¦ħ à¦Ļ
Ġà¦ĵà¦ªà¦° à¦ĩ
à¦ĩà¦¨ à¦°
à¦Ĺà¦ľ à¦Ĺ
à§§à§ ¯
Ġà¦ıà¦ķà¦ĩ à¦°à¦ķà¦®
à§ĭâĢĶ âĢĺ
à§ĩâĢ¦ à¥¤
à¦²à¦ļ à¦²à¦¨
in d
à§© à§ª
on g
Ġà¦īà§ľ à¦¤
Ġà¦ıà¦ķà¦ª à¦²à¦ķ
à§¬ à§¦
Ġà¦ıà¦ĩà¦°à¦ķà¦® à¦ĩ
Ġw ith
ou s
Ġà¦¦à¦« à¦¤à¦°
ĠB oishakh
Ġà§§à§¯à§ª à§Ń
ut y
Ġà¦ļà¦Łà¦ķ à¦¦
T E
e p
à¦¾ .
à¦¨ à¦¥
à¦¨ à¦ķà¦°
à¦¤ à¦¬à¦¨
à¦¬ à¦ļà¦ķ
à¦¬ à¦ĩà¦¯
Ġà¦ķ à¦ŀ
à§ĭ à§ĩ
Ġà¦¬ à¦°à¦®
Ġà¦¬ à¦ĩà¦²
Ġà¦Ĩ à¦Łà¦ª
à¦¦ à¦¬à¦°
Ġà¦® à¦ļ
à¦Ľ à§ľ
Ġà¦¤ à§ľ
à¦ľ à¦ļ
Ġà¦ħ à¦Ľ
Ġà¦ķà¦° à¦¨
à¦¡ à¦ĵà¦¯
Ġà¦Ĺ à¦¤à¦¬
à¦¹ à¦¹
à¦¹ à¦¬à¦§
à¦£ à¦¤à¦°
Ġà¦ļ à¦·
Ġà¦ļ à¦ªà¦²
Ġà¦° à¦¸à¦¨
Ġà¦ıà¦ķ à¦§à¦°à¦¨
à¦ł à¦¤à¦®
Ġà¦ĵ à§ľ
à¦¼à¦¿ âĢĵ
Ġà¦ĺ à¦¨à¦¤
à¦¬à¦° à¦ª
à¦¤à¦° à¦®
à¦¤à¦° à¦Ĺ
à¦°à¦¬ à¦®à§Ł
à¦°à¦¬ à¦¸à¦Ń
Ġà¦Ĩà¦² à¦Ł
Ġà¦Ŀ à¦°à¦²
Ġà¦¬à¦¸ à¦¤à¦¬
à¦ķà¦Ł à¦°
Ġà¦Ĺà¦² à¦Ľ
à¦¿à¦Ĥ !
à¦¶à¦¨ à¦ķ
Ġà¦ľà¦² à¦Ł
Ġà¦ľà¦² à¦°à¦Ļ
à¦°à¦¹ à¦°à¦£
à¦§à¦¨ à¦Ĺ
Ġà¦ħà¦ľ à¦ª
Ġà¦ħà¦® à¦°à¦¤
à¦ıà¦ķ à¦®
à§įâĢĮ !
Ġà§§à§ ª
à¦®à¦Ĺ à¦ŀ
Ġà¦¶à¦¹ à¦°à¦¬
à¦ľà¦® à¦¹à¦²
,âĢĿ âĢĶ
à¦¿âĢĻ âĢĶ
à¦¤à¦¸ à¦Ń
Ġà¦Ĭ à¦¨à¦¬
Ġà¤ ¸
Ġt ruth
Ġà¦¸à¦¬à¦¸à¦®à§Ł à¦ĩ
il l
à¦Ĭ à¦°
o g
y a
à ª
Ġ as
à¦¨ à¦ł
à¦¨ à¦°à¦ķà¦®
à¦¯ à¦Ĺà¦¨
à¦® à¦¬à¦¨
Ġà¦ª à¦¸
Ġà¦Ĩ à¦ĵà¦¡
à¦Ł à¦ľ
Ġà¦¨ à¦ª
Ġà¦® à¦°à¦ļ
à¦ª à¦ľà¦¨
Ġà¦¹ à¦Łà¦¤
à¦ĸ à¦¶
à¦ĸ à¦°à¦ļ
à¦· à¦°à¦ķ
à¦ļ à¦Ń
Ġà¦Ĺ à¦°à¦ľ
à¦¥ à¦¡
Ġà¦ļ à¦ĵà§ľ
Ġà¦¬à¦² à¦¦
Ġà¦ī à¦ĩà¦ķ
Ġà¦² à¦Ń
à§ľ à¦®
Ġà¦ĩ à¦¸à¦°
Ġà¦Ĩà¦² à¦«
à¦ĺ à¦Ľ
à¦¸à¦¬ à¦®
à¦¤à¦¨ à¦ĩ
à¦¹à¦¸ à¦ĩ
à¦°à¦¹ à¦¨
à¦¦à¦¨ à¦Ĺ
âĢ¦ .
Ġà¦¨à§Ł à¦¤
à§° à¦ľà¦°
Ġà¦Ĺà¦¨ à¦Ĺà¦¨
à¦°à¦ļ à¦°
à¦¢ à¦²
Ġà¦Ī à¦ª
à¦ľà¦¬ à¦§
à¦°à¦®à¦£ à¦ª
à§ĩ?âĢĿ âĢĶ
à¦¦à¦Ĺ à¦¦
à§ĩâĢĻ âĢĶ
Ġà§¨ à§¨
Ġà¦Ķ à¦ľ
Ġà¦ªà¦Ļ à¦ķ
Ġp H
Ġà¦°à¦¹ à¦®à¦¤
à§ĩà§Ĺ à¦ģ
oh ela
Ġà¦ľà¦¬à¦° à¦¦à¦¸
! )
Ð µ
Ġ !
Ġ an
Ġ ar
à¦¨ à¦§
à¦¨ à¦§à¦°
à¦¤ à¦¤à¦ķ
Ġà¦ķ à§°
à§ĭ à¦ĥ
Ġà¦¬ à¦ª
Ġà¦¸ à¦ªà¦°
à¦Ł à¦°à¦ķ
à¦¦ à¦ĺ
Ġà¦¨ à¦ļ
Ġà¦¨ à¦Ĺà¦£
Ġà¦® à§Łà¦¨
Ġà¦¤ à¦Ł
à¦ľ à¦¬à¦¨
à¦ľ à¦ķà¦¤
à¦ľ à¦ªà¦¤
à¦· à¦¤à¦¬
à¦ļ à¦²à¦¨
Ġà¦Ĺ à¦¦à¦Ĺà¦¦
à¦¹ à¦Ļ
à§Ł à¦ĵ
à¦£ à¦Ńà¦°
Ġà¦Ń à¦¡
Ġà¦ī à¦¥à¦²
Ġà¦¥ à¦ĩ
Ġà¦ĵ à¦Ŀ
Ġà¦ĵ à¦¤à¦ª
Ġà¦« à¦¯
Ġà¦« à¦¸à¦«
Ġà¦« à¦ĸà¦°
Ġà¦ªà¦° à¦ª
Ġà¦®à¦¨ à¦ĵ
âĢĻ !âĢĿ
à¦¬à¦¨ à¦¸
à¦¬à¦¨ à¦Ńà¦°
à¦ı à¦¯
Ġà¦Ł à¦ªà¦Łà¦ª
à¦¤à¦° à¦¦
à¦°à¦¬ à¦Ĺ
à¦ĺ à¦Łà¦ķ
à¦·à¦£ à¦Ń
Ġà¦Ĩà¦¬ à¦¹à¦®
à§ģà¦ģ à¥¤âĢĻ
Ġà¦Ĩà¦ªà¦¨ à¦®à¦¨
à¦Ĺà¦² à¦ª
Ġà¦ªà¦¥ à¦Ĺ
à¦ħ à¦®à¦²
Ġà¦īà¦ª à¦Ĺ
à¦°à¦¶ à¦¬
Ġà¦¸à¦° à¦·
Ġà¦ħà¦² à¦°
à§§à§ ©
Ġà¦ĭ à¦Ĺ
Ġà§§à§ ¬
Ġà¦ıà¦¸à¦¬ à¦ĩ
Ġà¦¬à¦ī à§Ł
à¦¦à¦® à§Ł
Ġà§ ¯à§
Ġà¦°à¦¸ à¦¦
à¦®à¦¦ à¦ķ
à§¨ à§¨
Ġà¦¸à§İ à¦Ń
Ġà¦Ĩà¦« à¦Ł
Ġà¦Ĩà¦« à¦Ĺ
Ġà¦ħà¦¹ à¦°à¦¹
à¦ıà¦®à¦¨ à¦Ł
Ġà¦Ńà¦Ĺ à¦¬à¦¤
Ġà¦°à¦® à¦°à¦®
Ġà¦¸à¦°à¦¸ à¦°
Ġw as
Ġh a
Ġà¦ľà¦¨à¦Ĺ à¦£à¦ķ
Ġà§§à§¯à§ª à§ª
Ġà¦ķà¦ªà¦Ł à¦¤
ay a
e g
Å ĵ
Ñ Ģ
Ù Ħ
à¦ Ķ
à¦¤ à¦¤à¦°
à¦¤ à¦®à¦¯
à¦² à¦¬à¦°
à¦¯ à¦ªà¦¨
à¦¯ à¦®à¦¤
à¦¯ à¦Ńà¦°
à¦® à¦®à¦¨
à¦® à§İà¦¸
Ġà¦¬ à¦¬
Ġà¦¸ à¦ªà¦¤
Ġà¦ª à¦Łà¦ķ
à¦¸ à¦®à¦¨
Ġà¦Ĩ à¦ĩà¦°
Ġà¦¨ à¦°à¦¨
Ġà¦® à¦ľà¦²
à¦ª à¦§
Ġà¦¤ à¦¬à¦²
Ġà¦¤ à¦ªà¦¤
Ġà¦¹ à¦°à¦ª
Ġà¦¹ à¦īà¦ķ
à¦ľ à§ľ
à¦Ĺ à¦¶
Ġà¦ħ à¦ĩ
à¦§ à¦ľà¦¯
à¦ļ à¦ĵà¦¡
à§Ł à¦¹
à¦£ à¦¬à¦°
à¦Ń à¦ĩ
à¦Ń à¦§
à¦¼à¦¾ ;
Ġà¦Ĩà¦® à¦¸
Ġà¦ī à¦ĩà¦¸
Ġà¦ĵ à¦°à¦ĩ
Ġà¦ĵ à¦ħà¦°
à¦¾à¥¤ âĢĺ
Ġà¦®à¦¨ à¦¨à¦ķ
à¦ı à¦«
à¦ī à¦¨à¦²
à¦ī à¦Łà¦°
à¦ī à¦Ńà¦¯
Ġà¦¸à¦¬ à¦ķà¦Ł
Ġà¦¹à¦² à¦«
Ġà¦Ĩà¦¸ à¦ļ
à¦Ĩ à¦°à¦£
à¦Ĩ à¦¸à¦Ľ
Ġà¦Ĩà¦² à¦ĸ
à¦ĺ à¦¸à¦®à¦¯
Ġà¦Ĩà¦Ĺ à¦¸
à§ĭ, âĢĻ
à¦Ĺà¦² à¦Ľ
Ġà¦īà¦¦ à¦°
Ġà¦ªà¦¥ à¦ĵ
à¦ħ à¦¯
à¦¦à¦° à¦Ł
Ġà¦ķà¦² à¦®à¦Ł
à¦®à¦ķ à¦Ń
à¦ªà¦¦ à¦ª
Ġà¦ħà¦ª à¦ķà¦°
à¦²à¦¨ à¦ĩ
à¦ĩà¦¨ à¦ķ
Ġà¦īà¦¤ à¦²
âĢ¦ à¥¤âĢĻ
Ġà¦ħà¦ľ à¦®
Ġà¦¶à¦¹à¦° à¦Ĺ
à¦¤à¦ķ à¦£
à¦ļà¦ķ à¦ķ
à¦°à¦ķà¦® à¦ĩ
à§° à¦¯
à§° à¦¦
Ġà¦ħà¦² à¦¸à¦¤
à¦¨à¦¸ à¦ĩ
à¦°à¦Ĺ à¦®
Ġà¦¦à¦° à¦ĸ
Ġà¦¨à¦¬ à¦®
Ġà¦®à¦¶ à¦Ĺ
à¦¿?âĢĿ âĢĶ
al i
à§ª à§©
ĠP ohela
à§§à§¯à§ «à§¨
ĠM aya
ºçľºçľ ºçľºçľ
âĢĵâĢĵâĢĵâĢĵ âĢĵâĢĵâĢĵâĢĵ
·çľ·çľ ·çľ·çľ
) âĢĵ
a in
t or
v ik
Ð »
Ð ½
Ñ ģ
Û Į
Ċ Ċ
Ġ ×
à§ĩ à§ĩ
à¦° à¦Ĺà¦²
à¦¿ à¦¾
à¦¿ à§ĩ
à¦¨ à¦Ĩà¦ªà¦¨
à¦¤ à¦ĺà¦¡
à¦² à¦Ńà¦°
à¦¯ à¦Łà¦¨
à§ģ âĢĿ
à¦® à¦¬à¦°
Ġà¦¬ à¦Ń
à¦¸ à¦¹à¦¸
Ġà¦¨ à¦¬à¦°
à¦Ľ à¦ĵ
Ġà¦ı à¦·
à¦¶ à¦®à¦¨
à¦· à¦«
à¦· à¦§à¦°
Ġà¦ķà¦° à¦®
Ġà¦¯ à¦¬
à¦§ à¦¨à¦ĵ
à¦§ à¦ļà¦¨
à¦§ à¦¶à¦¤
à¦ļ à¦¬à¦°
à¦¹ à§Ł
à¦£ à¦¸à¦®
Ġà¦° à¦®à¦¨
à¦ĵ à¦¸à¦¬
à§ĩà¥¤ âĢĺ
Ġà¦ıà¦ķ à¦ıà¦ķà¦Ł
à¦¼à¦¾ à¦ĥ
à¦ł à¦¹
Ġà¦ªà¦° à¦Ĺà¦¨
à¦ªà¦° à¦¸
à¦ĺ à¦¬à¦¦
à§ģà¦ģ ,
Ġà¦ħà¦¸ à¦¦
Ġà¦¨à¦¤ à¦ľ
à¦°à¦¸ à¦Ĺ
à¦Ĺà¦² à¦¦
à¦¿à¦Ĥ âĢĿ
à¦°à¦² à¦¸
Ġà¦ħà¦¤ à¦¬à¦¡
Ġà¦ľà¦² à¦Ľ
à¦°à¦¹ à¦ķ
à¦¯à¦¤ à¦¦
à¦Ńà¦¬ à§İ
Ġà¦ħà¦ľ à¦Ĺà¦°
Ġà¦īà§İ à¦ķà¦Ł
Ġà¦«à¦² à¦®
Ġà¦ªà¦¦ à¦¸
à¦¯à¦¸ à¦Ļ
à¦¬à¦ķ à¦£
à§įâĢĮ âĢĶ
Ġà¦ĭ à¦ķ
Ġà¦¬à¦ķ à¦Ľ
Ġà¦¦à¦° à¦¦à¦°
Ġà¦¬à§ľ à¦ĩ
Ġà¦¬à¦ī à¦°
Ġà¦¸à¦Ń à¦¯
à¤ ¯
à§¨ à§¦
Ġà¦¹à¦ĩ à¦¹à¦ĩ
Ġà§¨ à§¬
Ġà¦īà§ľ à¦Ľ
à¦Ĳ à¦¶
ou r
ou t
Ġm an
Ġà¦ªà¦°à¦ªà¦° à¦ĩ
Ġà§« à§¦
Ġà§§à§¦ à§¦
ow n
Ġà¦ķà¦ļà¦ķ à¦ļ
= =
d vik
e ar
f or
i p
m a
p er
s el
Ġ ë
à§ĩ ...âĢĿ
à¦¨ à¦°à¦®
à¦¨ à¦¦à¦¯
à¦¤ à¦ļà¦ķ
à¦¤ à§°
à¦¤ à¦Ŀà¦°
à¦² à¦§à¦¨
à¦² à¦ľà¦¯
à§ģ à§ģ
à§ģ !âĢĻ
à¦® à¦Ĺà¦¤
à¥ ĭ
Ġà¦ª à¦¨à¦Ł
Ġà¦ª à§Łà¦²
à¦¸ à¦®à¦¤
Ġà¦Ĩ à¦Łà¦²
Ġà¦Ĩ à¦īà¦²
à¦Ł à¦ķà¦Ł
à¦¦ à¦®à¦¤
à¦ĩ à¦ī
Ġà¦¨ à¦¬à¦¨
Ġà¦¨ à¦¬à¦¦
Ġà¦® à¦«
Ġà¦® à¦°à¦¶
Ġà¦¦ à¦¶à¦¬
à¦ª à¦Łà¦²
Ġà¦¤ à¦²à¦¬
à§Ģ âĢ¦
à§Ģ !âĢĿ
Ġà¦¹ à¦Łà¦²
à¦ľ à¦®à¦£
à¦ľ à¦¶à¦ķ
à¦ľ à§Łà¦¨
à¦¡ à¦²à¦ķ
à¦§ à¦§à¦°
à¦¹ à¦ĸ
Ġà¦¶ à¦°à¦®
Ġà¦° à¦ļà¦¯
Ġà¦Ĩà¦® à§ľ
à¦ł à¦Ĺà¦¡
Ġà¦ī à¦Łà¦ķ
Ġà¦ªà¦° à¦ľà¦¨
Ġà¦§ à¦¨à¦ķ
Ġà¦ıà¦ĩ à¦Ĺ
Ġà¦¬à¦²à¦² à¦Ĩà¦ªà¦¨
à¦°à¦£ à¦®
à§İ à¦ľ
à§İ à¦¶
à¦ľà¦¨ à¦ªà¦¦à¦¬
à¦ī à¦¨à¦Ł
à¦°à¦ķ à¦¥
à¦¬à¦° à¦ļà¦¨
à¦¤à¦° à¦¬à¦Ļ
Ġà¦Ĩà¦¸ à¦¸
à¦°à¦¬ à¦ŀ
à¦Ĩ à¦ł
à¦Ĩ à¦ªà¦¦
à¦Ĩ à¦²à¦®
Ġà¦ľà¦¨ à¦¶
âĢĵ âĢľ
à¦°à¦® à¦ĩ
à¦·à¦£ à¦Ĺ
à¦ķà¦Ł à¦®à¦¯
à¦¤à¦¨ à¦¬
Ġà¦¬à¦° à¦¯
Ġà¦īà¦ª à¦®à¦¹
Ġà¦¸à¦¨ à¦¦
Ġà¦¸à¦° à¦Ľ
à¦°à¦¹ à¦¶
à¦¨à¦¬ à¦®à¦¨
Ġà¦ħà¦ª à¦Ń
Ġà¦¹à¦ł à¦ķ
à¦°à¦¦ à¦¤
à¦°à¦¦ à¦²
à¦ªà¦¤ à¦Ļ
Ġà¦ĵà¦ĩ à¦Ń
Ġà¦ķà¦¤ à¦ľà¦¨
Ġà¦¯à¦¤ à¦Ĺ
à¦¯à¦® à¦Ĺ
Ġà¦ĩà¦¨ à¦¶
Ġà¦ĩà¦¨ à¦¡
à¦ļà¦ķ à¦£
Ġà¦ıà¦ķà¦ľà¦¨ à¦ĩ
Ġà¦¶à¦° à§İà¦ķ
Ġà¦Ĳ à¦¤à¦°
à§ģâĢĻ -
à¦°à¦Ń à¦Ļ
Ġà¦Ĩà¦§ à¦ª
Ġà¦Ĩà¦¦ à¦ª
à¦¦à§Ł à¦Ł
Ġà¦¨à¦¬ à¦Ĺ
à¦¬à¦ĩ à§Ł
à¤ ®
Ġà¦Ĺà¦® à¦Ĺà¦®
à¦ķà¦Ľ à¦Ł
th er
à¦ľà¦Ĺà¦¤ à¦ķ
Ġà¦īà¦ªà¦ķ à¦£
Ġà¦Ĭ à¦¨
Ġà¦īà§ľ à¦¨
Ġth at
Ġà¦ľà¦Ĺà§İ à¦Ł
it er
ic h
Ġà¦ļà¦ª à¦²à¦¤
Ġà¦Ĩà¦ī à¦¸à¦¹
I N
d ig
g h
Ġ U
Ġ j
Ġ áĥ
Ġ un
à¦¾ )à¥¤
à§ĩ âĢĿà¥¤
à¦° à¦ªà¦¨
à¦° à¦ħ
à§į à§į
à¦¨ à¦ıà¦ĩ
à¦² à¦®à¦°
à¦² à¦ĺà¦°
à¦ķ à¦ĺà¦°
à¦ķ à¦Ńà¦°
à¦® à¦ł
à¦® à¦¬à¦²
Ġà¦ķ à¦ĩà¦¤
Ġà¦¬ à¦ĸ
à¦¸ à¦®à¦°
Ġà¦Ĩ à¦ĩà¦¬
à¦Ł à¦ľà¦¨
à¦Ł à¦¤à¦°
à¦ĩ à¦Ŀ
Ġà¦® à¦°à¦®
Ġà¦® à¦ĩà¦¨
Ġà¦® à¦°à¦Ľ
à¦Ľ à¦²à¦¤
Ġà¦¦ à¦ªà¦¦à¦ª
Ġà¦ı à¦¥
Ġà¦¤ à¦°à¦¤
Ġà¦¹ à¦°à¦²
âĢ ¨
à¦¶ à¦¨à¦ĵ
à¦ĸ à¦ķà¦ķ
à¦Ĺ à¦°à¦ķ
Ġà¦ħ à¦¶à¦¨
Ġà¦¯ à¦ľà¦®
à¦§ à¦¶à¦ķ
à¦£ à¦£
à¦£ à¦ł
Ġà¦ļ à¦¯
Ġà¦° à¦¥à¦¬
à¦ĵ à¦¬
Ġà¦ıà¦ķ à¦§
Ġà¦ıà¦ķ à¦®à¦¨
Ġà¦ıà¦ķ à¦¤à¦®
à¦¼à¦¾ à¥¤âĢĿ
à¦Ĥ âĢĶ
à¦ł à¦ļ
à¦ł à¦ĵ
à¦ł à¦ķà¦°
Ġà¦ī à¦Ł
à¦¾à¦ģ !
à¦¬à¦¨ à¦ļà¦ķ
à¦ŀ à¦¬à¦²
à§İ à¦ļ
à¦ī à¦·
Ġà¦¸à¦¬ à¦¦
Ġà¦¸à¦¬ à¦°à¦ķà¦®
à¦¬à¦° à¦Ĺ
à¦°à¦¬ à¦¬
à¦Ĩ à¦°à¦¬
à¦Ĩ à¦¸à¦¬
Ġà¦ĩ à¦¹à¦²
Ġà¦ľà¦¨ à¦¸à¦®
Ġà¦®à¦¤ à¦Ń
à¦·à¦£ à¦Ł
à¦¨à¦¤ à¦¨
Ġà¦¬à¦¨ à¦ľà¦Ļ
à¦¸à¦¬ à¦ļ
Ġà¦ħà¦¸ à¦ļ
Ġà¦ħà¦¸ à¦¤à¦¤
Ġà¦ħà¦¸ à¦¹à¦¯
à¦²à¦ķ à¦ª
à¦²à¦ķ à¦§
à¦°à¦¨ à¦Ĺà¦°
à¦ħ à¦¨à¦²
à¦¶à¦¨ à¦Ĺ
à¦ļà¦¨ à¦ķ
à¦§à¦¨ à¦Ł
Ġà¦ķà¦® à¦°
Ġà¦ķà¦® à¦£
à¦·à¦¤ à¦Ĺ
Ġà¦«à¦² à¦Ł
Ġà¦ħà¦¥ à¦°
Ġà¦ªà¦¦ à¦¯
à¦¤à¦¤ à¦¸
à§° à¦¨
à§° à¦¶
à§ģ, âĢĿ
Ġà¦Ĩà¦¦ à¦°à¦£
à¦°à¦®à¦£ à¦ĩ
à¦¼à¦¾, âĢĿ
Ġà§ ·
à¦¾âĢĻ âĢĵ
Ġà¦¶à¦¹ à¦°à¦ľ
Ġà¦īà§İà¦¸à¦¬ à¦Ĺ
à¤ µ
à§ĩâĢ¦ âĢĻ
à¦Łà¦¸ à¦ħ
an g
à¦¨à¦ľà¦¨ à¦ĩ
Ġà§¨ à§«
Ġà¦Ńà¦¬à¦¨ à¦Ł
à¦¯à¦ĸà¦¨ à¦ĩ
Ġà¦¨à¦Ł à¦¬à¦°
is h
ĠĠĊĠĠ ĠĠĠĠ
Ġà¦łà¦ķ à¦łà¦ķ
Ġà¤ ª
à§ĩâĢĿ âĢĵ
ĠA I
à¦ĩà¦°à¦ķà¦® à¦ĩ
os s
Ġe x
id e
Ġà¦Ľà§Ł à¦Ł
Ġà¦Łà¦¹à¦² à¦¦
Ġà¦ıà¦ķà¦Ŀ à¦²à¦ķ
éŁ¿éŁ¿éŁ¿éŁ¿éŁ¿éŁ¿éŁ¿éŁ¿éŁ¿éŁ¿éŁ¿éŁ¿éŁ¿éŁ¿éŁ¿éŁ¿ éŁ¿éŁ¿éŁ¿éŁ¿éŁ¿éŁ¿éŁ¿éŁ¿éŁ¿éŁ¿éŁ¿éŁ¿éŁ¿éŁ¿éŁ¿éŁ¿
Ġà¦¹à¦ľ à¦¸à¦¨
igh t
, âĢĶ
a h
e en
u re
Ġ #
Ġ or
à¦¾ /
à§ĩ à¦ĥà¥¤
à¦° à¦Ĺà¦°
à¦¨ à¦¬à¦ª
à¦¨ à¦ªà¦¦
à¦¨ à¦ªà¦¥
à¦¤ à¦¸à¦®
à¦² à¦ļà¦¨
à¦² à¦¸à¦®
à¦ķ à¦®à¦¯
à¦ķ à¦¢
à¦¯ à¦¯à¦¨
à¦¬ à§İà¦¸
à¦¼ âĢĻà¥¤
à¦¼ âĢĻ,
Ġà¦¬ à¦ķà¦°
Ġà¦¬ à¦ļà¦¸
Ġà¦¸ à¦ĵà¦¦
à¦¸ à¦ľà¦¨
Ġà¦Ĩ à¦ĵ
Ġà¦Ĩ à¦ĩà¦¯
à¦Ł à¦°à¦¸
à¦¦ à¦¬à¦ª
à¦ĩ à¦īà¦¨
Ġà¦® à¦Łà¦ķ
Ġà¦® à¦ĵà¦ķ
Ġà¦¦ à¦²à¦ķ
à¦ª à¦¬à¦°
Ġà¦ı à¦Ńà¦°
Ġà¦¹ à¦®
Ġà¦¹ à¦Łà¦¬
à¦ľ à¦®à¦¹
à¦ĸ à¦§
à¦ĸ à¦¢
à¦Ĺ à¦®à¦ķ
Ġà¦ħ à§Ł
à¦¡ à¦¬à¦ķ
à¦§ à¦ľ
à¦§ à¦¡
à¦ļ à¦ĸ
à¦ļ à¦ªà¦¦à¦¸
à¦¹ à¦ļ
à¦£ à§Ł
Ġà¦¶ à¦łà¦¤
Ġà¦ıà¦ķ à¦ĺà¦£
Ġà¦² à¦Łà¦ķ
Ġà¦ħà¦¨ à¦¤
Ġà¦¸à¦® à¦ķà¦ķ
à§ľ à¦Ĺ
Ġà¦®à¦¨ à¦Ń
à¦°à¦£ à§Ł
à¦Ŀ à¦®
à¦ŀ à¦¦
à¦ı à¦¨à¦ľ
à¦ī à¦ĩà¦¯
à¦ī à§İà¦ª
à¦Ĩ à¦Ń
à¦Ĩ à¦¬à¦°
à¦Ĩ à¦¸à¦¨
Ġà¦ĩ à¦ķà¦¬
à¦°à¦® à¦¸
à¦°à¦® à¦Ł
à¦ķà¦° à¦Ń
Ġà¦ħà¦¸ à¦¹à¦¨
à¦ķà¦¤ à¦¦
Ġà¦¶à¦¬ à¦¬
Ġà¦®à¦¹ à¦¡
Ġà¦ªà¦¥ à¦¨
Ġà¦ĺà¦° à¦ľ
Ġà¦ĺà¦° à¦ĸ
à¦ħ à¦®à¦°
à¦ħ à¦§à¦°
Ġà¦ħà¦Ń à§Ł
à¦¤à¦¬ à¦°à¦£
Ġà¦ķà¦² à¦Ł
Ġà¦ľà¦² à¦Ľà¦¬
Ġà¦ħà¦ª à¦ª
Ġà¦ħà¦ª à¦¹à¦°à¦£
à¦¯à¦¤ à¦ĩ
Ġà¦ıà¦Ĺ à¦ľ
à¦®à¦£ à¦¬
à¦¸à¦® à¦Ĺ
à¦¬à¦¦ à¦°à¦¬
à¦ıà¦ķ à¦¥
Ġà¦²à¦ķ à¦¡
Ġà¦Ĳ à¦¨
à¦¬à¦ķ à¦¥
à¦ªà¦¥ à¦Ĺ
Ġà¦¸à¦®à§Ł à¦Ł
Ġà¦ħà¦« à¦²
Ġà¦§à¦¨ à¦°à¦¤
à¦®à§Ł à¦¤
à§ĩâĢ¦ )
à§ĩâĢ¦ à¥¤âĢĿ
Ġà¦· à¦£
Ġà¦ľà§Ł à¦§
à¦¶à¦¦ à¦Ń
Ġà§¨ à§ª
à¦ľà§Ł à¦ķ
à¦¯à¦¶ à¦¸
Ġà¦¬à¦¶ à¦¬à¦°
Ġc ol
Ġm y
Ġà§§ à§§
Ġn ot
Ġà¦īà¦ĩ à¦¥
à¦ıà¦® à¦ıà¦¸
Ġà¦§à¦ª à¦§à¦ª
Ġbe a
Ø§ Ø
Ġà¦®à¦¦à¦¨ à¦¦
if e
Ġar e
! !
i a
l d
o c
t e
Ð ¸
à °
Ġ V
à§ ±
à¦¿ /
à¦¤ à¦®à¦£
à¦² à¦ķà¦²
à¦² à¦ľà¦²
à¦ķ à¦Ŀ
à¦¬ à¦ķà¦²
à¦¬ à¦ľà¦¯
à¦® à¦¦à¦°
à¦® à¦¹à¦¸
à¦® à¦²à¦¬
Ġà¦ķ à¦ĩà¦Ľ
à¥ ģ
à¥¤ )
Ġà¦ª à¦¶à¦²
à¦¸ à¦°à¦¤
à¦¦ à¦ĸ
à¦ĩ à¦īà¦°
Ġà¦¨ à¦¶
Ġà¦® à¦ĸ
à¦ª à¦¤à¦°
à¦ª à¦®à¦¯
Ġà¦¤ à¦ķà¦®
Ġà¦¹ à¦ĩà§Ł
à¦ľ à¦īà¦¦
à¦ĸ à§ľ
à¦ĸ à¦°à¦¬
Ġà¦ħ à¦®à¦¨à¦ĩ
Ġà¦ķà¦° à¦¦
Ġà¦¯ à¦¸
Ġà¦¯ à§İà¦¸
à¦§ à¦¬à¦¤
Ġà¦Ĺ à§Łà¦¨
à¦£ à¦²
à¦£ à¦ľ
Ġà¦¶ à¦¤à¦¬
Ġà¦° à¦Łà¦¨
à¦ĵ à¦ł
à¦Ń à¦¡
à¦Ń à¦ªà¦¤
à¦Ĥ âĢ¦
à¦ł à¦«
Ġà¦ī à¦Ń
Ġà¦ĵ à¦ľ
Ġà¦ĵ à¦ħ
à¦°à¦¤ à¦¬
à§ľ à¦¸
à¦®à¦¨ à¦¦
Ġà¦ıà¦ĩ à¦°
à¦« à¦°à¦ķ
âĢĻ ?
Ġà¦¬à¦²à¦² à¦¨
Ġà¦¬à¦²à¦² à¦¸
Ġà¦¬à¦²à¦² à¦¦
Ġà¦¬à¦²à¦² à¦ª
à¦°à¦£ à¦ļà¦¨
à¦°à¦£ à¦ªà¦¤
à¦¬à¦¨ à¦¶
à¦Ŀ à¦°à¦¨
à¦ī à¦ĩà¦¨
à¦ī à¦Łà¦¨
à¦¬à¦° à¦ĵ
à¦¤à¦° à¦Ń
à§Į -
Ġà¦ĩ à¦·
Ġà¦ĩ à¦®à¦°
Ġà¦ĩ à¦¤à¦°à¦¬
à§Ī ,
à¦°à¦® à§Ł
Ġà¦Ĺà¦² à¦¸
à§ĩâĢĶ âĢĻ
à¦Ĺà¦² à¦¸
à¦Ĺà¦² à¦®à¦¯
à¦¬à¦¤ à¦ķ
à¦ħ à¦·
Ġà¦Ĩà¦¨ à¦ķ
Ġà¦īà¦ª à¦¸à¦°
Ġà¦ıà¦®à¦¨ à¦¤à¦°
à¦¶à¦¨ à¦¸
Ġà¦ľà¦² à¦ĩ
Ġà¦ıà¦¤ à¦¸à¦¬
à¦ĩà¦¨ à¦²
Ġà¦ªà¦¦ à¦Ł
à¦ıà¦ķ à¦ľ
Ġà¦ħà¦ªà¦° à¦£
à¦ªà¦ķ à¦ķ
Ġà¦ħà¦Ĺ à¦Ń
Ġà¦ªà¦¤ à¦ŀ
à§§à§ ¬
Ġà¦Ĺà§ľ à¦Ĺà§ľ
Ġà¦¬à¦ī à¦²
Ġà¦Ĺà¦£ à¦ľ
à¤ ¦
Ġà§§à§¯à§ Ń
à§¨ à§«
à¦¬à¦Ł à¦Ĺ
Ġà¦¸à§İ à¦ļà¦°
à§Ń à§®
à¦Ĳ à¦ķ
Ġà¦ķà¦¬à¦° à¦¸
at a
at er
as s
om e
à§§à§¯à§ ª
à§§à§¯à§ Ńà§§
Ġà§§à§® à§«à§Ń
et ec
ĠR up
Ġà§§à§¨ à§¦à§¦
Ġà§§à§¯à§¦ à§«
ÂŃÂŃÂŃÂŃ ÂŃÂŃÂŃÂŃ
sel f
T he
a f
a k
b ut
i b
i e
i v
s h
t in
Ã ©
Ġ +
Ġà¦ £
à§ĩ )à¥¤
à¦° à¦ļà¦¯
à¦¨ à¦°à¦¤
à¦¨ à¦°à¦ķ
à¦¨ à¦¸à¦°
à¦¨ à¦®à¦¸
à¦¨ à¦®à¦¨à¦¸
à¦¨ à¦ķà¦¤à¦ķ
à¦¤ à¦¨à¦ĵ
à¦² à¦Ĺà¦²
à¦² à¦§à¦°
à¦ķ à¦°à¦ķà¦®
à¦¯ à§İà¦ķ
à¦¯ à¦ªà¦ķ
à¦¯ à§Łà¦¨
à¦¯ à¦Ĺà¦£
à§ģ à¥¥
à¦¬ à¦®à¦¨
à¦¬ à¦¹à¦¤
à¦¼ à§Ī
à¦® à¦ľà¦¨
à¦® à¦°à¦¸
à¦® à¦ĺà¦°
à¦® à¦ĺà¦Ł
Ġà¦ķ à¦ļà¦²
à¥¤ (
à¦¸ à¦¬à¦¨
à¦¸ à¦®à¦ķ
Ġà¦Ĩ à¦ĩà¦ľ
à¦Ł à¦®à¦¸
à¦¦ à¦§
Ġà¦® à§Ł
Ġà¦¦ à¦ĩà§Ł
Ġà¦¤ à¦ªà¦¶
à¦¶ à¦¡
à¦¶ à¦°à¦ķ
à¦ĸ à¦ĵà¦¯
à¦Ĺ à¦¯à¦ľ
Ġà¦ħ à¦°à¦ķ
à¦¡ à¦¤
à¦§ à¦®à¦¯
à¦ļ à¦Ļ
Ġà¦° à¦ĵà¦¯
Ġà¦ıà¦ķ à¦¤à¦°à¦«
à¦Ń à¦ª
à¦Ń à¦°à¦¸
à¦¼à¦¾ âĢĿ
à¦¼à¦¾ âĢ¦
Ġà¦Ĩà¦® à¦ļ
Ġà¦ī à¦¶
à¦¾à¦ģ âĢĶ
âĢĶ âĢĿ
Ġà¦« à§ľ
Ġà¦ĸ à¦¨à¦ķ
à¦¾à¥¤ à¥¤
ĠâĢ ŀ
Ġà¦§ à¦®
Ġà¦ħà¦¨ à¦§
Ġà¦¸à¦® à¦¦à¦°
à¦ľà¦¨ à¦ľ
à¦ľà¦¨ à¦ķà¦Ń
à¦ı à¦·
Ġà¦¹à¦² à¦Ł
Ġà¦ķà¦¥ à¦¨
Ġà¦ķà¦¥ à¦ķà¦ł
Ġà¦ľà¦¨ à¦¹
Ġà¦®à¦¤ à¦¨à¦ĩ
âĢĵ âĢĿ
Ġà¦Ŀ à¦°à¦¬
à¦·à¦£ à¦¤
à¦¬à¦² à¦¦
à¦ķà¦² à¦Ļ
à¦Ĺà¦² à¦ĩ
Ġà¦¶à¦¬ à¦¦
Ġà¦īà¦¦ à¦Ĺà¦¤
Ġà¦ªà¦¥ à¦¶
Ġà¦ªà¦¥ à¦ĺ
à¦®à¦¤ à¦¤
à¦ªà¦¦ à¦Ł
à¦ªà¦¦ à¦ĩ
Ġà¦ĵà¦ł à¦¤
à¦°à¦¹ à¦Ł
à¦°à¦ľ à¦²
Ġà¦ĵà¦ªà¦° à¦ĵ
Ġà¦¸à¦¹ à¦¨
à¦¦à¦¨ à¦ª
à¦§à¦ķ à¦°à¦£
à¦ıà¦ĩ à¦ĸ
à¦Ńà¦¬ à¦ĵ
à¦¨à¦ķ à¦¯
à¦¨à¦ķ à¦¶
à§Ģ, âĢĿ
à§İà¦ķ à¦ļ
Ġà¦Ńà¦° à¦Ľ
à¦ıà¦ķ à¦¸à¦®à§Ł
Ġà¦ıà¦ķà¦ľà¦¨ à¦ĵ
à¦¶à¦ķ à¦ķ
à¦ĩà¦Ł à¦Ł
à¦ĺà¦° à¦Ĺ
Ġà¦°à¦ķà¦® à¦Ł
Ġà¦ıà¦ķà¦ĩ à¦¸
Ġà¦¦à¦² à¦Ĺ
Ġà¦¤à¦² à¦ª
Ġà¦¦à¦¶ à¦°à¦¥
Ġà§ ¦
à¦¾âĢĻ -
à¦ķà¦¥ à¦ķ
à¦ķà¦°à¦£ à¦ª
Ġà¦ļà¦Ł à¦ľà¦²à¦¦
Ġà¦ıà¦°à¦ķà¦® à¦ĩ
Ġà¦Ĩà¦ĩà¦¨ à¦¶
Ġà¦ķà¦Ł à¦®à¦Ł
à¦¾à¦ĥ âĢĵ
à¦²à¦¦ à¦¹
à§ĩ,âĢĿ âĢĶ
à¦Ī à¦¯
Ġà¦¸à¦«à¦² à¦Ń
à¦Ĩà¦ļ à¦®à¦ķ
à¦ĩà¦ľà¦¨ à¦ĩ
or e
Ġc l
Ġà¦¨à§ľ à¦Ľ
ĠA dvik
us t
Ġà¦īà¦Ńà§Ł à¦ĩ
Ġà§ª à§¦à§¦
à¦ľà¦Ń à¦¬à¦¨
âĢķâĢķâĢķâĢķ âĢķâĢķâĢķâĢķ
ell ig
Ġà¦®à¦ļ à¦®à¦ļ
Ġha ve
Ġcol lec
Ġbea uty
, âĢĵ
f ul
f rom
u c
y an
Ù Ĩ
Ú ©
Ġ at
à¦¾ à¦¾
à¦¾ âĢĮ
à¦¾ ),
à§ĩ /
à§į âĢĵ
à¦¨ à¦ªà¦ķ
à¦¤ à¦£
à¦¤ à¦ªà¦¤
à¦¯ à¦ļà¦ķ
à¦¬ à¦ļà¦°
à¦¬ à§İà¦¸à¦°
à¦® à¦²à¦ķ
à¦® à¦ĵà§Ł
Ġà¦ķ à¦·à¦¤
Ġà¦¸ à¦Łà¦ķ
Ġà¦ª à¦¸à¦°
à¦¸ à¦¹à¦¯
Ġà¦Ĩ à¦Łà¦¬
Ġà¦Ĩ à¦ĸà¦°
à¦Ł à¦°à¦¬
à¦Ł à¦¤à¦®
à¦¦ à¦ķà¦°
à¦¦ à¦ĺà¦°
à¦Ľ à¦®
à¦ª à¦Łà¦ķ
à¦ª à¦ļà¦°
à¦ª à¦®à§Ł
à¦ª à§Łà¦¸
Ġà¦ı à¦¤à¦°
Ġà¦¤ à¦¦à¦¬
Ġà¦¹ à¦«
à¦ľ à¦ªà¦°
à¦· à¦ĸ
à¦· à¦·
à¦· à¦ļ
à¦· à¦¬à¦°à¦£
à¦§ à¦¬à¦¬
à¦ļ à¦®à¦ķ
Ġà¦Ĺ à¦¸
à¦¹ à¦ªà¦°
à¦¹ à¦¨à¦¤
Ġà¦¶ à¦ķà¦Ł
Ġà¦° à¦¦
à¦Ĥ âĢĵ
à¦ł à¦ĩ
Ġà¦¬à¦² à¦¬à¦¤
âĢĶ âĢĶ
à§ĩ, âĢĶ
Ġà¦ĸ à¦²à¦¨
ĠâĢ Ŀ
Ġà¦ħà¦¨ à¦®à¦¨
Ġà¦ĺ à¦°à¦ķ
Ġà¦¬à¦²à¦² à¦¶
à¦¬à¦¨ à¦ľ
à¦¬à¦¨ à¦²à¦¤
à¦ŀ à¦°
à¦°à¦ķ à¦¦
à¦°à¦ķ à¦°à¦£
Ġà¦Ł à¦Ļ
Ġà¦¹à¦² à¦ķ
à¦¬à¦° à¦°
Ġà¦ķà¦¥ à¦ķà¦¤
à¦¤à¦° à¦¹
à¦Ĩ à¦·
à¦Ĩ à¦²à¦¤
à¦Ĩ à§Łà¦¨
à¦Ĩ à¦ĩà¦¸
Ġà¦ĩ à¦Ĺ
Ġà¦ĩ à¦¥
Ġà¦ľà¦¨ à¦®à¦¤
Ġà¦¡ à¦Ł
Ġà¦ıà¦¸ à¦ª
Ġà¦ıà¦¸ à¦®à¦¯
à¦ķà¦° à¦ĵ
à¦ķà¦Ł à¦¸
à¦ķà¦Ł à¦¤à¦®
à¦ĥ ?
à¦²à¦ķ à¦ļ
Ġà¦ħà¦¤ à¦²à¦¸
Ġà¦Ĩà¦ķ à¦¨
à¦¶à¦¨ à¦ĩ
Ġà¦ľà¦² à¦Ńà¦°
Ġà¦ħà¦ª à¦¤
à¦°à¦¯ à¦¨
à¦¼à§ĭ âĢĻ
à¦°à¦ĵ à¦ĩ
Ġà¦ªà§ľ à¦¨
Ġà¦ĵà¦ĩ à¦¦
Ġà¦¬à¦Ľà¦° à¦Ĺ
à¦°à¦ª à¦ķ
à¦°à¦ª à¦ŀ
Ġà¦ıà¦° à¦ļ
à¦¬à¦¦ à¦¤
à¦·à¦¤ à¦ļ
à§° à¦Ń
à¦ıà¦ķ à¦¶
à¦¤à¦® à¦®
Ġà¦Ĳ à¦°
à§ģâĢĻ à¥¤
à¦¸à¦« à¦²
à¦¹à¦¨ à¦¦
Ġà¦īà¦ªà¦° à¦ĩ
à¦¸à¦ķ à¦¦
Ġà¦¸à¦®à§Ł à¦®à¦¤
à¦ıà¦¬ à¦®
à¦°à¦®à¦£ à¦Ł
à¦Łà¦¨ à¦Ĺà¦°
Ġà¦¦à¦¶ à¦¦
Ġà¦ļà¦ķ à¦®à¦ķ
à¦ķà¦°à¦£ à¦°à¦ļà¦¯
à¦°à¦« à¦°
Ġà¦°à¦¸ à¦¸
Ġà¦Ĩà¦ĩà¦¨ à¦ľ
à¦ļà¦°à¦£ à¦ķ
à¦¨à§Łà¦¨ à¦¶
th e
à¦®à¦® à¦Ń
à§ĭ?âĢĿ âĢĶ
Ġà¦Ĩà¦Ł à¦ĸ
en s
à¦¿âĢĿ âĢĵ
à¦¬à§Ł à¦¸
Ġà¦ıà¦® à¦ı
ou nt
Ġp r
Ġl ife
à§İà¦¸à¦ķ à¦¦
Ġà§§à§Ń à§ªà§©
Ġà¦¸à¦®à¦Ŀ à¦¦
Ġà¦®à¦Ł à¦°à¦¶
à¦·à¦² à¦§
Ġà¦¹à¦ľ à¦°à¦¤
ĠĠĠĠĠĠĠĠ ĠĠĠĠĠĠĠĠ
Ġà¦®à¦ĸ à¦®à¦²
etec tive
) -
, -
i es
o ve
t y
u d
× Ļ
Ø ´
Ù ħ
Ù Ī
à ®
â Ĥ
Ġ J
à¦° à¦°à¦ķ
à¦° à¦ĭà¦£
à¦¿ âĢĮ
à¦¨ à¦¸à¦¨
à¦¤ à§İà¦ķ
à¦² à¦£
à¦² à¦¤à¦°
à¦² à¦¦à¦°
à¦ķ à¦¸à¦¬
à¦¯ à¦°à¦ķ
à¦¯ à¦ªà¦¦
à¦¬ à¦ķà¦¬
à¦¬ à¦ĩà¦Ł
à¦® à¦¸à¦²
à¦® à¦§à¦°
à§ĭ âĢĿà¥¤
Ġà¦¬ à§°
Ġà¦¬ à¦ľà¦°
Ġà¦¸ à¦²à¦¤
à¦¸ à¦ªà¦¨
à¦¸ à¦ķà¦°
Ġà¦Ĩ à¦£à¦¬
à¦¦ à¦«
à¦ĩ à¦ı
à¦ĩ à¦īà¦ľ
Ġà¦¨ à¦¨à¦¦
Ġà¦® à¦°à¦¸
Ġà¦® à¦ļà¦ķ
Ġà¦¦ à¦ĩà¦¯
Ġà¦¦ à¦°à¦Ĺ
Ġà¦ı à¦°à¦ĵ
Ġà¦¤ à¦°à¦£
Ġà¦¹ à¦°à¦ķ
Ġà¦¹ à¦°à¦¨
Ġà¦¹ à¦Ĺà¦¸
à¦ľ à§İ
à¦ľ à¦ĺ
à¦¼à§ĩ )
à¦¼à§ĩ :
à¦¶ à¦ķà¦¤
à¦¶ à¦®à¦¤
à¦¶ à¦ªà¦°à¦®
à¦Ĺ à¦Ńà¦°
Ġà¦ħ à¦®à¦¤
à¦ļ à¦ķà¦¤
Ġà¦Ĺ à¦Ľ
à¦¹ à¦®à§Ł
à¦¥ à¦°à¦ķ
Ġà¦ļ à¦®à¦ļ
Ġà¦Ń à¦Ĺà¦°
Ġà¦° à¦ľà¦¸
à§ĩà¥¤ )
Ġà¦ıà¦ķ à¦ļà¦ķ
à¦ł à¦ļà¦ķ
à¦ł à¦¨à¦Ł
à§ĥ à¦Ĥ
Ġà¦¥ à¦ķà¦¥à¦ķ
Ġà¦² à¦ĩà§Ł
Ġà¦ĸ à§Ł
Ġà¦ªà¦° à¦ļ
Ġà¦ªà¦° à¦§à¦°
Ġà¦ħà¦¨ à§ľ
Ġà¦ĺ à¦·à¦Ł
Ġà¦®à¦¨ à¦ĩ
à¦®à¦¨ à¦°
Ġà¦ıà¦ĩ à¦ĩ
à¦« à¦²à¦¤
à¦« à¦¸à¦²
à¦Ŀ à¦Ł
à§İ à¦°
à¦ľà¦¨ à¦ª
à¦ī à¦ŀ
à¦°à¦ķ à¦ķ
Ġà¦¹à¦² à¦ĵà¦¯
à¦¬à¦° à¦§
à§Į ,
à¦Ĩ à¦¸à¦¤
Ġà¦ĩ à¦°à¦Ĺ
Ġà¦ľà¦¨ à¦¸à¦¨
Ġà¦ľà¦¨ à¦¶à¦ķ
Ġà¦¬à¦¨ à¦ªà¦¥
à¦ĥ -
à¦¸à¦¬ à¦¹
Ġà¦ħà¦¸ à¦¤à¦°
à¦¯à¦¬ à¦ĩà§Ł
à¦°à¦² à§Ł
Ġà¦ªà¦¥ à¦°
Ġà¦ªà¦¥ à¦ķ
à¦¦à¦° à¦Ń
à¦ĩà¦² à¦ĸ
Ġà¦īà¦ª à¦ķà¦¥
Ġà¦ľà¦² à¦¯
Ġà¦¸à¦° à¦Ĺà¦°à¦®
Ġà¦ĵà¦ł à¦Ľ
Ġà¦Ĩà¦¶ à¦°
à¦°à¦ľ à¦Ń
à¦²à¦¨ à¦¸
à¦°à¦¦ à¦®
à¦¦à¦¨ à¦®
à¦¦à¦¨ à¦ĩ
à¦¦à¦¨ à¦¨à¦Ĺà¦°
à¦§à¦¨ à¦¶
à¦§à¦ķ à¦¦
Ġà¦ĵà¦° à¦ĵ
à¦Ńà¦¬ à¦ĩ
Ġà¦ľà¦® à¦¬
Ġà¦¬à¦ĩ à¦¬
à¦¨à¦ķ à¦ķ
à¦¤à¦² à¦Ĺ
à¦°à¦ª à¦Ł
à¦·à¦¤ à¦Ł
Ġà¦«à¦² à¦ĵ
à§° à¦¥
à§° à¦ķà¦²
à¦ıà¦ķ à¦ĸ
à§ģâĢĻ ,
Ġà¦°à¦Ļ à¦¬
Ġà¦°à¦Ļ à¦Ł
à¦¸à¦« à¦²à¦¤
à¦Ĺà¦¨ à¦¸
à¦¢ à¦ķ
Ġà¦Ī à¦ľ
Ġà¦¶à¦¤ à¦¦à¦²
à¦¦à§Ł à¦¸
Ġà¦¸à¦®à§Ł à¦ķ
à¦ľà¦² à¦ľ
Ġà¦Ĺà¦£ à¦¸
à¤ Ł
à¦¤à¦¦ à¦¶
Ġà§§à§¯à§ «
à¦¬à¦¹ à¦£
Ġà¦®à¦¦ à¦¤
Ġà¦ľà§Ł à¦¯
in k
à¦¬à¦ľà¦¨ à¦¦
Ġà¦ľà¦Ĺ à§İà¦ķ
Ġà¦Ĩà§Ł à¦¤à¦¨
Ġà¦ıà¦ķà¦ĸ à¦£
Ġà§¨ à§Ń
Ġà¦°à¦¥ à¦¯
à¦¿âĢ¦ à¥¤
à¦ªà¦ľ à¦Ļ
at ed
à¦¼à¦¿à¦Ĥ -
Ġd is
à¦°à¦¬à¦£ à¦¶à¦ķ
ĠP ar
om p
ra v
Ġà¦Ĺà¦²à¦¦ à¦ĺà¦°
un g
Ġà§§à§¯à§¯à§ «
nt ellig
Ġit self
Ġcollec tive
Ġà¦¹à¦« à¦®
- -
1 0
A I
e k
g e
i al
m ent
n ing
p H
p r
Â ·
Ñ Ĥ
Ñ ĥ
Ġ à§ľ
Ġ im
à¦¾ ...âĢĿ
à¦° à¦ªà¦¦
à¦° à¦Ĺà¦¨
à¦¨ à¦ĩà¦¨
à¦¨ à¦®à¦Ĺ
à¦¤ à¦ªà¦¨
à¦ķ à¦¬à¦¨
à¦ķ à¦¸à¦®
à¦ķ à¦¸à¦¬à¦ľ
à¦¯ à¦ľà¦Ĺà¦¤
à§ģ )
à¦® à¦ªà¦¦
à¦® à¦ªà¦¥
Ġà¦¬ à¦°à¦ķ
à¥¤ âĢĶ
à¥¤ âĢĵ
Ġà¦¸ à¦ªà¦¨
Ġà¦¸ à¦ªà¦ķ
Ġà¦¸ à¦°à¦¬à¦¤
à¦¸ à¦¨à¦¬
Ġà¦Ĩ à¦¤à¦°
Ġà¦Ĩ à¦ĩà¦ķ
à¦Ł à¦¸à¦®
à¦¦ à¦¡
à¦¦ à¦ĸà¦²
à¦¦ à¦ĺà¦¨
à¦ĩ à¦Ļ
à¦ĩ à¦ķà¦Ł
à¦ĩ à¦®à¦²
à¦ĩ à¦ıà¦ķ
à¦Ľ à§Ł
à¦Ľ à¦ķà¦Ł
à¦ª à¦«
à¦ª à¦ķà¦¤
à¦ª à¦²à¦¬
à¦ª à¦¬à¦¦
Ġà¦ı à¦Ĺà¦¤
Ġà¦ı à¦¤à¦¬
Ġà¦ı à¦ĺà¦°
Ġà¦¤ à¦ķà¦¤à¦ķ
à§Ģ à¦ĥ
à§Ģ âĢĿà¥¤
Ġà¦¹ à¦°à¦Ĺ
à¦ľ à¦ķà¦²
âĢ Ĳ
à¦ĸ à¦ªà¦¤
à¦ĸ à¦Ńà¦°
à¦Ĺ à¦¤à¦°
à¦Ĺ à¦Ĺà¦¤
à¦Ĺ à¦®à¦¯
à¦Ĺ à¦ĺà¦¨
à¦· à¦Ľ
Ġà¦ħ à¦¹à¦°
à¦§ à¦¬à¦°
à¦ļ à¦¶à¦®
à¦¹ à¦¨à¦²
à¦¹ à¦Ńà¦°
à¦£ à¦ªà¦ķ
Ġà¦° à¦ĩà¦¬
à¦ĵ à¦ĵ
à§ĩà¥¤ à¥¤
à¦Ń à¦ĵ
Ġà¦Ĩà¦° à¦ª
à§Ĥ à¥¤
Ġà¦« à§Łà¦¸
à¦°à¦¤ à¦¯
Ġà¦ĺ à¦°à¦£
Ġà¦®à¦¨ à¦¯
Ġà¦®à¦¨ à¦ª
Ġà¦ıà¦ĩ à¦¸à¦®à¦¯
à¦« à¦¦
à¦¬à¦¨ à¦ªà¦¥
à§İ à¦¸à¦¨
à§İ à¦¸à¦®
à¦ľà¦¨ à¦Ł
à¦ľà¦¨ à¦®à¦¤
Ġà¦¸à¦¬ à¦¸
à¦¬à¦° à¦¸
Ġà¦Ĩà¦Ľ à¦®
à¦°à¦¬ à¦Ń
à¦°à¦¬ à¦ļà¦¨
Ġà¦ĩ à¦®à¦²
Ġà¦ĩ à¦¶à¦¤
Ġà¦Ĩà¦² à¦ª
Ġà¦ħà¦¬ à¦Ĺà¦¤
à¦ĺ à¦·
à¦¬à¦² à¦Ł
à¦¬à¦² à¦ª
Ġà¦¬à¦¨ à¦Ł
Ġà¦ħà¦° à¦«
Ġà¦Ĩà¦ªà¦¨ à¦ľà¦¨
à¦²à¦ķ à¦¬
à¦°à¦¥à¦® à¦ľà¦¨
à§ĩâĢĶ âĢĶ
à¦ķà¦¤ à¦Ł
à¦Ĺà¦² à¦¬à¦¨
à¦¿à¦Ĥ ?
Ġà¦ªà¦¥ à¦¯
Ġà¦ĺà¦° à¦Ľ
à¦ħ à¦°à¦¬
à¦ħ à¦¬à¦¤
à¦ħ à§Łà¦¨
Ġà¦Ĩà¦¨ à¦ľ
à¦ĩà¦² à¦¹
à¦ĩà¦² à¦«à¦²à¦ķ
Ġà¦īà¦ª à¦ªà¦¤
à¦Ĺà¦¤ à¦¦
à¦¤à¦¬ à¦®
à¦¶à¦¨ à¦ª
Ġà¦ľà¦² à¦®
Ġà¦ľà¦² à¦ļà¦°
à¦²à¦¤ à¦®
à¦ªà¦¦ à¦Ĺ
à¦°à¦¹ à¦Ĺ
à¦¨à¦¬ à¦ļ
Ġà¦¸à¦¹ à¦®à¦¤
Ġà¦¸à¦¹ à¦§à¦°
Ġà¦Ĩà¦¤ à¦¶à¦¬
à¦®à¦¯ à¦ľ
Ġà¦¬à¦ĩ à¦ĩ
Ġà¦¬à¦ĩ à¦ªà§ľ
Ġà¦ħà¦ľ à¦°
à¦°à¦ª à¦²
!âĢĿ ,
à¦¯à¦® à¦ĩ
Ġà¦ĩà¦¨ à¦¹
Ġà¦Ĺà¦° à¦Ĺà¦°
à§° à¦®à¦£
à§° à¦¥à¦®
à§° à¦ļà¦£
Ġà¦ıà¦ķà¦¬ à¦ļà¦¨
Ġà¦ħà¦¬à¦¸ à¦°à¦ª
à¦¯à¦¸ à¦Ń
à¦¸à¦« à¦°
à¦¬à¦ķ à¦¨
Ġà¦Ĩà¦¦ à¦¬
à¦ķà¦¨ à¦®
à¦¨à¦¸ à¦¹
à¦°à¦¹à¦£ à¦ķ
à¦®à¦¸ à¦ľ
à¦ķà¦¦ à¦®
Ġà¦¬à§ľ à¦°
Ġà¦Ĺà¦£ à¦¹à¦¤
à¤ ľ
à¦°à¦« à¦°à¦®
Ġà¦ļà¦Ł à¦ļà¦Ł
âĢ¦âĢĿ âĢĶ
à§Ŀ à¦Ń
Ġà¦Ĩà¦ĩà¦¨ à¦Ĺà¦¤
Ġà¦®à¦¦ à¦¨à¦¬
Ġà¦īà¦ªà¦¨ à¦¯
à§¨ à§ª
à¦ľà¦Ĺ à§İà¦ķ
in tu
Ġà¦¸à§İ à¦ļ
Ġà¦¸à§İ à¦ªà¦¥
à¦¾âĢĿ ,
an s
an t
à¦¬à¦°à¦£ à¦ķ
à¦¤à¦ĸà¦¨ à¦ĵ
Ġà§¨ à§¦à§¦
Ġà¦Ĩà¦ĩ à¦¨à¦¤
à§© à§¦
Ġà¦Ĩà¦Ł à¦¶
Ġà¦¢à¦² à¦¢à¦²
à§ª à§¦
à§ª à§«
à¦¾?âĢĿ âĢĶ
à¦¾,âĢĿ âĢĶ
à¦ĭ à¦¦
Ġs o
à§ĭâĢĻ âĢĶ
at e
Ġw or
Ġb y
Ġf rom
Ġp ro
Ġà¦ķà¦¸ à¦°à¦¤
Ġin dig
us e
æŃĵæŃĵæŃĵæŃĵæŃĵæŃĵæŃĵæŃĵ æŃĵæŃĵæŃĵæŃĵæŃĵæŃĵæŃĵæŃĵ
âĢ¨ Ċ
Ġà¦Ĩà¦ĵ à¦°à¦¤
Ġà¦ļà¦®à¦ļ à¦®
Ġindig o
? âĢĶ
I n
R E
a u
c le
d e
f f
h o
h ol
i ve
i ya
o k
o y
p h
p p
p or
t ed
v es
Ð ²
Ð ¼
á Ģ
Ġ le
à§ ²
à¦° à¦°à¦¥
à¦° à¦Ĩà¦®
à¦° à¦¡à¦¬
à¦° à¦¡à¦ķ
à§į âĢĻ
à§į âĢ¦
à¦¨ à¦ªà¦°
à¦¨ à¦ı
à¦¨ à¦¸à¦¬
à¦¤ à¦ŀ
à¦¤ à¦ĺ
à¦¤ à¦ķà¦²
à¦¤ à¦ļà¦²
à¦² à¦¨à¦ĵ
à¦² à¦Ĩà¦®
à¦ķ à¦ķà¦°
à¦ķ à¦ªà¦¤
à¦ķ à¦®à¦£
à¦¯ à¦¬à¦²
à§ģ âĢ¦âĢĿ
à¦¬ à¦¥
à¦¬ à¦ĵà¦¯
à¦¬ à¦®à¦¤
à¦¼ âĢĿà¥¤
à¦® à¦ªà¦¨
à¦® à¦ļà¦ķ
Ġà¦ķ à¦ķà¦Ł
Ġà¦¬ à¦Łà¦²
Ġà¦¸ à¦¨à¦¤
à¦Ł à¦°à¦¶
à¦¦ à¦¹à¦¨
à¦ĩ à¦¥
à¦ĩ à¦ķà¦²
à¦ĩ à¦ĵà§Ł
à¦ĩ à¦Ĺà¦ŀ
Ġà¦® à¦°à¦¹
à¦Ľ à¦Ń
Ġà¦¦ à¦¬
Ġà¦ı à¦®à¦ª
Ġà¦¤ à¦°à¦®
à¦ľ à¦²à¦ķ
à¦ľ à¦ªà¦¦
à¦ľ à¦¸à¦®
à¦¼à§ĩ âĢĻ
à¦¼à§ĩ ?âĢĻ
à¦¼à§ĩ ?âĢĿ
à¦¶ à¦°à¦¤
à¦¶ à¦°à¦®
à¦ĸ à¦¹
Ġà¦ħ à¦ªà¦¨
à¦¡ à¦ĵà§Ł
Ġà¦¯ à¦·
à¦§ à¦¬à¦¨
à¦ļ à¦¢
Ġà¦Ĺ à¦Ł
Ġà¦Ĺ à¦ľà¦°
Ġà¦Ĺ à¦ľà¦²
à¦¹ à¦¬à¦¨
à§Ł à¦¤à¦®
à¦£ à¦ĸ
à¦£ à¦ĺ
Ġà¦¶ à¦¬à¦°
Ġà¦¶ à¦¤à¦°à¦ŀ
Ġà¦ıà¦ķ à¦°à¦¤
à¦Ń à¦ķà¦°
à¦Ń à¦ľà¦¨à¦ķ
à¦¼à¦¾ âĢĻ,
Ġà¦Ľ à¦ª
Ġà¦Ĩà¦® à¦¡
Ġà¦Ĩà¦® à¦¹
Ġà¦Ĩà¦® à¦²à¦ķ
à¦ł à¦ĸ
Ġà¦¬à¦² à¦ª
Ġà¦¬à¦² à¦¶
Ġà¦ī à¦Ľà¦²
Ġà¦² à¦¬à¦Ļ
Ġà¦ĵ à¦®à¦²
Ġà¦ĵ à¦ľà¦°
Ġà¦ĵ à¦ĺà¦°
Ġà¦ĵ à§ľà¦¨
à§Ĥ ,
Ġà¦« à¦²à¦¬
Ġà¦ĸ à¦ĩ
Ġà¦ĸ à¦Ļ
à¦¾à¥¤ âĢ¦
ĠâĢ ¢
Ġà¦ħà¦¨ à¦Łà¦¨
à¦¬à¦¨ à¦°
à¦¬à¦¨ à¦Ĺ
à¦ŀ à¦¬
à§İ à¦¨
à§İ à¦²
à¦ľà¦¨ à¦Ĺ
à¦ī à§ľ
à¦ī à¦ĩà¦²
à¦ī à¦ªà¦ķ
à¦ī à¦łà¦¤
Ġà¦¸à¦¬ à¦®
à¦ªà¦¨ à¦Ł
à¦°à¦¬ à¦ªà¦ķ
à¦Ĩ à¦ķà¦¸
à¦Ĩ à¦Łà¦Ł
Ġà¦ĩ à¦īà¦ķ
Ġà¦ĩ à¦¶à¦°
Ġà¦ĩ à¦īà¦®
Ġà¦ĩ à¦¨à¦¬à¦ķ
Ġà¦Ĩà¦² à¦®à¦ķ
Ġà¦ł à¦ķà¦¬
Ġà¦Ŀ à¦Ĺà§ľ
à¦ĺ à¦¤à¦°
à¦·à¦£ à¦ľà¦¨
à¦¨à¦¤ à¦¤à¦°
à¦¸à¦¬ à¦Ł
à¦¯à¦¬ à¦ĩà¦¯
à¦°à¦¥à¦® à¦ľ
Ġà¦ıà¦² à¦ĩà¦¡
à§ĭà¦ģ ,
à¦ħ à§°
Ġà¦Ĩà¦¨ à¦ļ
à¦¦à¦° à¦¦
à¦ĩà¦² à¦Ĺ
Ġà¦īà¦ª à¦¶à¦®
à¦Ľà¦¨ à¦Ł
Ġà¦ľà¦² à¦¨
Ġà¦ľà¦² à¦Ľà¦Ł
Ġà¦¸à¦° à¦¦
à¦ªà¦¦ à¦ĵ
à¦²à¦¬ à¦¦
à¦°à¦ľ à¦°
à¦°à¦ľ à¦¤
à¦°à¦ľ à¦Ĺà¦¤
à¦¨à¦¬ à¦Ĺ
Ġà¦ħà¦ª à¦Ł
Ġà¦¸à¦¹ à¦®à¦°à¦£
à¦°à¦¦ à¦¯
à¦§à¦¨ à¦®
à¦¹à¦² à¦¦
Ġà¦¬à¦ĩ à¦¸
à¦®à¦£ à¦¤
à¦¸à¦° à¦Ĺ
à¦¿à¦ĥ !
à¦¦à¦² à¦¬à¦²
à§° à¦ĩ
à¦ıà¦ķ à¦ķ
à¦ıà¦ķ à¦ª
Ġà¦Ĳ à¦²
Ġà¦°à¦Ļ à¦ĵ
à¦Łà¦² à¦Ĺ
à§ĩ! )
Ġà¦ħà¦Ĺ à¦®
ĠĠ Ġ
à¦Ĺà¦¨ à¦°à¦ķ
Ġà¦Ńà¦¬ à¦ĺ
à¦ĩà¦Ł à¦¸
à¦ĩà¦Ł à¦Ĺ
à¦ķà¦¨ à¦¸
Ġà¦¶à¦¤ à¦Ĺ
à¦ªà¦¥ à¦Ł
à¦¼à§Ģ âĢĶ
Ġà¦ķà¦¨ à¦¡
Ġà¦ķà¦¨ à¦Ń
à¦²à¦® à¦§
à¦²à¦® à¦¹
à¦®à¦¹ à¦ķ
à¦£à¦ķ à¦£
à¦¦à¦¸ à¦ĩ
Ġà¦Ĺà¦£ à¦ªà¦¤
à¦ķà¦°à¦£ à¦¬
à¤ ļ
à§Ŀ à¦ļ
Ġà¦ĵà¦ª à¦°à¦¤à¦²
Ġà¦ıà¦°à¦ªà¦° à¦ĩ
à¦·à§Ł à¦¬à¦¸
in e
à¦ªà¦¯ à¦ľ
an k
er s
Ġà¦²à§ľ à¦¬
Ġà¦Ńà¦Ĺ à¦¬à¦¨
à§© à§¨
à¦Ī à¦¦
Ġà¦Ĩà¦Ł à¦ľà¦¨
à¦¾âĢ¦ à¥¤
en ti
on s
à¦¬à§Ł à¦¬
Ġà¦ĩà¦® à¦ªà¦¸
Ġà¦°à¦¤à¦¨ à¦²
Ġà¤ ¬
Ġm e
Ġa c
Ġà¦ĸà¦¨ à¦ĸà¦¨
à¦¯à¦ľà¦¨ à¦ķà¦Ń
ig n
áĥ ĺ
os t
ac k
ag e
Ġà¦¢à¦ķ à¦¢à¦ķ
Ġà¦Ńà¦°à¦£ à¦ª
Ġà¦ĵà¦ħ à¦°à¦¹
à§§à§¯à§ª à§Ń
T I
a z
b e
i z
l ow
p end
u e
à ´
â Ĩ
Ġ ,
Ġ Y
Ġ Z
Ġ Ã
Ġ ê
à§ĩ ..
à¦¨ à¦¬à¦²
à¦¨ à¦¸à¦¤
à¦¤ à¦¦à¦°
à¦¤ à¦®à¦ķ
à¦² à¦ĵà§Ł
à¦ķ à¦®à¦¨
à¦ķ à¦ªà¦¥
à¦¯ à¦£
à¦¯ à¦¸à¦¬
à¦¯ à¦¤à¦¨
à¦¯ à¦ķà¦¤
à¦¯ à¦ªà¦¤
à¦¯ à¦Ńà¦¬
à¦¯ à¦®à¦°
à¦® à¦Ĺà¦°
Ġà¦ķ à¦ĵ
Ġà¦ķ à¦ªà¦°
Ġà¦ķ à¦Łà¦¨
Ġà¦¬ hol
à¥ Ĥ
Ġà¦¸ à§ľ
Ġà¦¸ à¦°à¦£
Ġà¦¸ à¦ľà¦¨
Ġà¦¸ à¦ĩà¦Ľ
Ġà¦¸ à¦¦à¦Ĺ
Ġà¦ª à¦ªà¦ķà¦°
à¦¸ à§ľ
à¦¸ à¦¯à¦¨
à¦¸ à§İà¦ķ
à¦¸ à¦¯à¦ľ
Ġà¦Ĩ à¦ĩà¦¤
Ġà¦Ĩ à¦ĩà¦ª
Ġà¦Ĩ à¦ĵà§ľ
à¦Ł à¦ªà¦°
à¦Ł à¦ĺ
à¦Ł à¦¸à¦¨
à¦Ł à¦¸à¦¹
à¦Ł à¦ªà¦¤à¦Ļ
à¦¦ à¦Ļ
à¦¦ à¦¨à¦ĵ
à¦¦ à§°
à¦¦ à¦¬à¦ķ
à¦¦ à¦ķà¦ķ
à¦¦ à¦¶à¦®
à¦ĩ à¦£
à¦ĩ à¦¤à¦²
à¦ĩ à¦¡à¦²
à¦ĩ à¦¶à¦Ł
à¦ĩ à¦ıà¦ķà¦ľà¦¨
Ġà¦® à¦²à¦¤
Ġà¦¦ à¦ĸ
à¦ª à¦¸à¦®
Ġà¦ı à¦Ļ
Ġà¦¤ à¦¯
à§Ģ âĢ¦âĢĿ
à¦ľ à¦®à¦¨
à¦ľ à¦¤à¦¬
à¦ľ à¦¯à¦¨
à¦ľ à§Łà¦Ĺ
à¦ĸ à¦°à¦¤
à¦Ĺ à¦ªà¦°
Ġà¦ħ à¦ľà¦¨
Ġà¦ħ à¦¹à¦¨
à¦¡ à¦¬à¦ª
Ġà¦¯ à§İ
à¦§ à§°
à¦§ à¦¬à¦ķ
à¦ļ à¦¦à¦¶
Ġà¦Ĺ à¦Łà¦Ĺ
à¦¹ à¦ĵà¦¯
Ġà¦¶ à¦¬à¦¨à¦®
à¦ģ âĢĻ,
Ġà¦ļ à¦ıà¦°
Ġà¦° à¦¸à¦®
Ġà¦° à¦£à¦¨
à¦ĵ à¦¸
Ġà¦ıà¦ķ à¦Ľ
Ġà¦ıà¦ķ à¦ıà¦ķ
à¦Ń à¦°à¦£
à¦¼à¦¾ ?âĢĿ
Ġà¦Ľ à¦²à¦ķ
à¦ł à¦ľ
Ġà¦ī à¦«
Ġà¦ī à¦¤à¦°
à§ĥ à§į
à¦Ļ à¦Ł
Ġà¦² à¦Ľ
Ġà¦ĵ à¦°à¦®
Ġà¦ªà¦° à¦ªà¦ķ
ĠâĢ Į
Ġà¦§ à¦²
Ġà¦¸à¦® à¦ħà¦§
à¦¼à¦¿ âĢĻ
Ġà¦®à¦¨ à¦°
Ġà¦®à¦¨ à¦®à¦°
à¦®à¦¨ à¦Ń
Ġà¦¬à¦²à¦² à¦¹
Ġà¦¬à¦²à¦² à¦«
Ġà¦¬à¦²à¦² à¦ıà¦¬
à¦¬à¦¨ à¦ª
à¦¬à¦¨ à¦ļ
à¦¬à¦¨ à¦Ĺà¦°
à¦ī à¦²à¦ķ
à¦ī à¦ªà¦¯
Ġà¦Ł à§Łà¦²
Ġà¦ķà¦¥ à¦®
Ġà¦ĩ à¦®à¦¤
Ġà¦ľà¦¨ à¦¬
Ġà¦Ĩà¦² à¦ķ
Ġà¦Ĩà¦² à¦Ļ
Ġà¦¡ à¦¨
Ġà¦¡ à¦¬
Ġà¦¡ à¦²à¦«
Ġà¦®à¦¤ à¦Ł
Ġà¦Ŀ à¦²
à¦ĺ à¦ľ
à¦°à¦® à¦²
à¦¼, âĢĻ
Ġà¦¬à¦¨ à¦¨
Ġà¦¬à¦¨ à¦ļ
Ġà¦¬à¦¨ à¦²à¦¤
Ġà¦ıà¦² à¦Ĺ
à¦¤à¦¨ à¦Ĺ
à§ĩâĢĶ âĢĿ
à¦ķà¦¤ à¦®
Ġà¦¬à¦° à¦ĩ
Ġà¦¬à¦° à¦ªà¦ķ
à¦Ĺà¦² à¦Ĺ
à¦¬à¦¤ à¦¶
à¦ħ à¦«à¦²
Ġà¦ħà¦¤ à¦¶à¦¤
à¦¤à¦¬ à¦¯
Ġà¦ħà¦¦ à¦ķ
à¦®à¦¤ à¦®
à¦®à¦¤ à¦Ń
Ġà¦Ĩà¦ķ à¦Ľ
Ġà¦Ĩà¦ķ à¦£
Ġà¦ľà¦² à¦ļ
Ġà¦ľà¦² à¦®à¦Ĺ
à¦°à¦ªà¦° à¦¨
à¦¹à¦¸ à¦Ł
à¦°à¦¹ à¦ĵ
à¦¨à¦¬ à¦®
à¦¨à¦¬ à¦§à¦°
Ġà¦¸à¦¹ à¦ľà¦¬
à¦²à¦¨ à¦Ĺ
à¦²à¦¨ à¦ļ
à¦°à¦¦ à§Ł
à¦¦à¦¨ à¦¦
à¦§à¦¨ à¦¹
Ġà¦Ĩà¦¤ à¦ª
à¦Ńà¦¬ à¦ķ
Ġà¦īà§İ à¦°
Ġà¦īà§İ à¦ĸ
Ġà¦īà§İ à¦¸à¦¬à¦ĩ
à¦·à¦ķ à¦¥
à¦¿à¦ĥ ,
à§° à¦²
à§° à¦¬à¦²
à¦ıà¦ķ à¦ªà¦°
à¥¤âĢĻ âĢĿ
Ġà¦ħà¦Ĺ à¦¸
Ġ( âĢĺ
Ġà¦Ĩà¦¹ à¦®à¦¦
Ġà¦¬à¦ī à¦Ŀ
Ġà¦ªà¦¶ à¦®
à¤ ¶
âĢĻ, âĢĻ
à§¦ à§§
à¦®à¦¦ à¦¤
à¦ıà¦ĸà¦¨ à¦ķ
Ġà¦ıà¦°à¦ķà¦® à¦Ł
à¦ļà§Ł à¦ķ
Ġà¦ķà¦Ł à¦ķà¦Ł
à¦Ŀà¦° à¦Ŀà¦°
Ġà¦Ĩà¦ļà¦°à¦£ à¦ĩ
Ġà¦ļà¦°à¦® à¦Ń
à¦¨à¦ª à¦ŀ
in t
Ġà¦ıà¦¡ à¦Ń
Ġà¦ıà¦¡ à¦®à¦¨
Ġà¦¸à§İ à¦ķà¦°
an a
Ġà¦ľà¦Ĺ à¦¬à¦¨
à¦ľà¦¦ à¦£
Ġà§¨ à§©
Ġà¦Ķ à§İà¦¸
Ġà¦¨à¦° à¦ĵà¦¯
Ġà¦¦à¦ĸà¦² à¦¦
à¦ļà¦® à§İà¦ķ
à¦īà¦¡ à¦¸
à¦ķà¦ĵ à¦¦
ar t
is m
Ġà¦ľà¦Ĺà§İ à¦¬
Ġb et
Ġà¦ĩà¦ī à¦ıà¦¸
as e
ou ld
Ġà§© à§¦à§¦
Ġà¤ Ĩ
à¦Łà¦ĵ à¦ħà¦°
à¦Ĩà¦¤ à¦Ļ
Ġh er
à¦ĸà¦¬à¦° à¦¦
ĠP r
à§°à¦¹ à¦£
ra h
à¦£à¦Ĺà¦¤ à¦®
Ġin t
Ġà§§à§® à§¬à§¦
Ġà§« à§¦à§¦
Ġà¦ıà¦ķà¦¨ à¦ľà¦°
ĠI n
Ġà§ª à§«
Ġà¦īà¦ĩ à¦Ļ
Ġà§§à§Ń à§«à§¬
ĠR iya
ĠD etective
Ġà¦Ĺà¦Ĺà¦¨ à¦ļ
ĠT he
Ġà¦ħà¦ªà¦¦ à¦¸
ac e
Ġà¦ĵà¦²à¦Ł à¦ª
à§¯à§ ®
ik e
Ġà§§à§¯à§¨ à§§
Ġwh ich
ab le
Ġà¦°à¦¸à¦¬ à¦¤
Ġà¦Ĺà¦Łà¦Ĺ à¦Ł
; -
A R
G O
L E
a th
a ch
b er
d er
d en
e v
e y
h in
h at
l l
o T
p ec
t le
u hin
v en
y m
Ø ¯
à ¨
à «
ã ģ
ä ¸
å ĵ
Ġ ĠĠĊ
Ġ ti
Ġà¦ Ļ
à§ĩ à§Ģ
à¦¨ à¦Ĺà¦¤
à¦¨ à¦ļà¦¨
à¦¨ à¦ļà¦ķ
à¦¨ à¦ıà¦ķà¦Ł
à¦¨ à¦ĸà¦ļ
à¦¤ à¦¬à¦²
à¦¤ à¦ĸà¦¤
à¦¤ à¦¸à¦¹
à¦² à¦®à¦¤
à¦² à¦Łà¦¨
à¦² à¦ªà¦®
à¦ķ à¦¸à¦¨
à¦ķ à¦¦à¦²
à¦ķ à¦ªà¦Ł
à¦ķ à¦¥à¦¨
à¦¯ à§°
à§ģ .
à§ģ à§ĩ
à¦¬ à¦ĺ
à¦® à¦ļà¦¤
Ġà¦ķ à¦ĸ
Ġà¦ķ à¦ĩà¦²
Ġà¦ķ à¦ķà¦ª
Ġà¦¬ à¦ķà¦²
Ġà¦¬ à¦ķà¦¤
Ġà¦¸ à¦¶à¦Ļ
Ġà¦¸ à¦¦à¦²à¦¬à¦²
Ġà¦ª à¦®
à¦¸ à¦ĸà¦¨
à¦¸ à¦¤à¦°
à¦¸ à¦°à¦¸
à¦¸ à¦¨à¦ĵ
à¦¸ à¦°à¦¶
à¦¸ à¦ľà¦²
Ġà¦Ĩ à¦¦à¦¨
Ġà¦Ĩ à§°
Ġà¦Ĩ à¦Łà¦¦
Ġà¦Ĩ à¦īà¦¡
à¦Ł à¦®à¦¨
à¦Ł à¦ķà¦²
à¦Ł à¦°à¦Ł
à¦Ł à¦ĺà¦°
à¦ĩ à¦ªà¦®
à¦ĩ à¦«à¦¸
Ġà¦¨ à¦¬à¦ª
Ġà¦¨ à¦²à¦Ł
Ġà¦¨ à¦°à¦¬à¦²
Ġà¦® à¦²à¦¯
à¦Ľ à¦ļ
Ġà¦¦ à§°
à¦ª à¦¬à¦¨
à¦ª à¦ĺ
à§Ģ )
Ġà¦¹ à¦ķà¦¸
Ġà¦¹ à¦ĵà¦¨
à¦ľ à¦¤à¦¤
à¦ľ à¦ķà¦¦
à¦¼à§ĩ âĢĶâĢľ
à¦ĸ à¦®à§Ł
à¦· à¦°à¦ľ
à¦· à¦¸à¦ķ
à¦· à¦ªà¦²
Ġà¦ħ à¦¹à¦²
Ġà¦ķà¦° à¦ª
à¦¡ à¦¡
à¦¡ à¦¬à¦ªà¦ķ
Ġà¦¯ à¦®à¦²
Ġà¦¯ à¦®à¦¦
à¦§ à¦¤à¦®
à¦ļ à¦ļ
à¦ļ à¦ĵ
à¦ļ à¦ĵà¦¯
à¦ļ à¦°à¦®
à¦ļ à¦Ĺà¦¤
Ġà¦Ĺ à¦°à¦¬
à¦¹ à¦«
à¦£ à¦ªà¦¨
à¦£ à¦ªà¦¤
à¦£ à¦ļà¦°
à¦£ à¦¬à¦¯
Ġà¦¶ à¦ĸà¦Ł
à¦ģ ,
Ġà¦° à¦ĵ
Ġà¦° à¦Ĺà¦°
Ġà¦ıà¦ķ à¦ªà¦°
Ġà¦ıà¦ķ à¦ĺà¦°
à¦¼à¦¾ à¦ģ
à¦¼à¦¾ âĢĻà¥¤
Ġà¦Ľ à¦Ĺà¦¨
Ġà¦Ľ à¦²à¦ļ
Ġà¦¬à¦² à§Ł
à¦¾à¦ģ âĢĻ
Ġà¦ĵ à¦®à¦¨
à§ĩ, âĢĵ
Ġà¦ĸ à§ľà¦ķ
à¦¾à¥¤ âĢĶ
Ġà¦ªà¦° à¦Ľ
Ġà¦§ à¦¬à¦²
à¦°à¦¤ à¦Ł
Ġà¦ħà¦¨ à¦Ĺ
à¦¼à¦¿ ;
à§ľ à¦Ł
à§ľ à¦Ń
à§İ à¦«
à§İ à¦¸à¦¤
à¦ľà¦¨ à¦°
à¦ı à¦¡
à¦ı à¦¤à¦Ł
à¦ı à¦Ĩà¦ĩ
à¦ī à¦ĸ
à¦ī à¦ľà¦°
à¦ī à¦²à¦Ĺ
à¦ªà¦¨ à¦ķ
Ġà¦Ł à¦¨à¦ķ
à¦¬à¦° à¦ŀ
à¦¬à¦° à¦¬à¦°
à¦¤à¦° à¦¯
à¦°à¦¬ à¦ĩ
à¦°à¦¬ à§İ
à¦°à¦¬ à¦£à¦ķ
à¦Ĩ à¦ĸ
à¦Ĩ à¦°à¦¤
à¦Ĩ à¦ªà¦¡
à¦Ĩ à¦¶à¦¯
Ġà¦ĩ à¦Ĺà¦²
Ġà¦ĩ à¦«à¦¤
Ġà¦ĩ à¦ķà¦¨à¦®
Ġà¦ľà¦¨ à¦¸à¦Ń
Ġà¦ľà¦¨ à¦¬à¦¸à¦¤
Ġà¦Ĩà¦² à¦¬à§İ
Ġà¦¡ à¦ľ
Ġà¦¡ à¦Ĺà¦®
Ġà¦Ŀ à¦®
Ġà¦Ŀ à¦Ŀ
à¦ĺ à¦ļ
à¦°à¦® à¦¥
à¦·à¦£ à¦ª
à¦¨à¦¤ à¦¤
Ġà¦Ĩà¦Ĺ à¦®à¦£
à¦¬à¦² à¦°
à¦ķà¦° à¦Ľ
Ġà¦¬à¦¨ à¦°
Ġà¦¬à¦¨ à¦¶
Ġà¦¬à¦¨ à¦ªà¦°
Ġà¦Ĺà¦² à¦²
Ġà¦ħà¦¸ à¦®à¦°
à¦²à¦ķ à¦Ĺ
à¦¨à¦ĵ à¦ĩ
à§ĩà¦ģ ,
à¦¿à¦Ĥ âĢĵ
à¦¿à¦Ĥ !âĢĿ
à¦¬à¦¤ à¦¸
Ġà¦®à¦¹ à¦®
Ġà¦®à¦¹ à¦¸
Ġà¦ªà¦¥ à¦Ń
Ġà¦ĺà¦° à¦¦
à¦ħ à¦¹à¦®
Ġà¦ħà¦¤ à¦ķ
Ġà¦ħà¦¤ à¦¦
Ġà¦ħà¦¤ à¦ĸ
Ġà¦¸à¦¨ à¦¦à¦ªà¦¤
à¦¤à¦¬ à§Łà¦¸
à¦ĸà¦² à¦¤
Ġà¦ľà¦² à¦¹
Ġà¦ľà¦² à¦ĵ
Ġà¦ľà¦² à¦¢
à¦¹à¦¸ à¦ķ
Ġà¦Ĩà¦¶ à¦¯
à¦°à¦¹ à¦ĩ
âĢ¦ à¥¤âĢĿ
à¦ļà¦² à¦Ĺ
à¦®à¦£ à¦ĩ
Ġà¦¨à§Ł à¦Ł
Ġà¦¬à¦¹ à¦¨à¦ķ
Ġà¦¬à¦¹ à¦°à¦®à¦ª
à¦¯à¦® à¦ŀ
à¦¤à¦ķ à§ľ
à¦ļà¦ķ à¦¦
Ġà¦ªà¦¦ à¦®à¦°
à§° à¦§
à¦ıà¦ķ à¦Ĺ
à¦ıà¦ķ à¦¦à¦²
à¦ıà¦ķ à¦ľà¦¨à¦ķ
à¦¤à¦® à§Ł
Ġà¦Ĳ à¦¹
Ġà¦°à¦Ļ à¦ļà¦Ļ
à¦°à¦Ń à¦ķ
Ġà¦Ĩà¦§ à¦¬
Ġà¦Ĩà¦§ à¦®à¦°
à§Łà¦¨ à¦¶
Ġà¦ħà¦² à¦®
à§įâĢĮ âĢĻ
à¦¯à¦¦ à¦¸
?âĢĻ âĢĶ
Ġà¦Ĺà¦¤ à¦¯
Ġà¦Ī à¦®
Ġà¦¶à¦¤ à¦ª
Ġà¦ĸà¦¬à¦° à¦ĩ
à¦¨à¦¸ à¦¹à¦ķ
à¦§à¦¤ à§İà¦¸à¦®
Ġà¦°à¦ķà¦® à¦«
à¦¬à¦¶ à¦°
à¦°à¦ľà¦¨ à¦ķ
Ġà¦ıà¦¨ à¦Ĺ
à¦ľà¦² à¦ª
Ġà¦ķà¦¨ à¦ľ
à¦¹à¦¤ à¦Ń
Ġà¦Ĩà¦Ļ à¦Ł
Ġà¦ķà¦· à¦²
à¦®à¦Ł à¦®
à¦¯à¦¥ à¦Ń
Ġà¦¨à¦¬ à¦ľà¦¨
Ġà¦¨à¦¬ à¦Ľà¦°
à¦£à¦ķ à¦®à¦²
à¦īà¦² à¦¦
à¦ķà¦ľà¦¨ à¦¦
à¤ ¸
à¦¨à¦Ń à¦Ļ
Ġà¦ľà§Ł à¦ľà§Łà¦ķ
à¦¤à¦¸ à¦ĩ
Ġà¦Ĩà¦ļà¦°à¦£ à¦ķ
à¦¼! âĢĻ
à¦²à¦ľ à§Ł
Ġà¦ªà¦°à¦¶ à¦®à¦£
Ġà¦Ĩà§Ł à¦¶
à§ĩâĢĻ âĢĵ
à¦¤à¦ĸà¦¨ à¦ķ
Ġà¦²à§ľ à¦Ľ
Ġà¦Ĩà¦ĩ à¦ĵà¦Ł
à§© à§©
Ġà¦Ĩà¦Ł à¦ļ
en ce
à§Ń à§¨
à§Ń à§¬
Ġà¦īà§ľ à¦²
Ġà¦Ŀà¦ķ à¦®à¦ķ
ar d
à¦£à¦¦ à¦£
Ġà¦¶à¦¨ à¦¶à¦¨
Ġs u
Ġs ti
à§ģà¦Ĥ -
à§ĢâĢĻ âĢĶ
Ġthe ir
Ġw ere
Ġà¦ĩà¦ī à¦ª
Ġà¦ĩà¦ī à¦ıà¦¸à¦¬
as t
à¦£à¦Ń à¦Ł
à¦¤à¦ļ à¦°à¦¬
à¦®à¦Ŀ à¦®
Ġh e
Ġh is
Ġh im
re t
Ġa m
Ġt r
à¦ħà¦ªà¦° à¦¦
ĠP intu
ĠB ea
Ġà¦ķà¦¤à¦¬ à¦¡
Ġà¦¨à¦ĸ à¦¦à¦°
Ġà§§à§® à§¬
ĠI ntellig
Ġà¦Ĩà¦īà¦Ł à¦ª
Ġà¦¹à¦°à¦« à¦Ĺ
Ġà¦¦à¦¹ à¦°à¦®
ĠN GO
Ġre al
Ġwh o
Ġà¦«à¦¸à¦« à¦¸
ºçľºçľºçľºçľ ºçľºçľºçľºçľ
âĢĵâĢĵâĢĵâĢĵâĢĵâĢĵâĢĵâĢĵ âĢĵâĢĵâĢĵâĢĵâĢĵâĢĵâĢĵâĢĵ
·çľ·çľ·çľ·çľ ·çľ·çľ·çľ·çľ
×Ļ ×
åĵ į
Ġà¦°à¦Ĺà¦° à¦Ĺ
Ġà¦Ľà¦Ĺà¦¨ à¦²
0 0
F i
b i
j a
s ha
u al
w ay
¿ ½
Â ¤
Ñ Ī
Ù Ĭ
ï ¿½
Ġ ra
Ġ Ñģ
à¦¾ ...
à§ĩ à¦¾-
à§ĩ ),
à¦° à¦²à¦ķ
à¦° à¦ĵà§Ł
à¦° à¦§à¦¨
à¦° à¦īà¦ĩà¦¨
à§į âĢĻ,
à¦¿ à§Ģ
à¦¿ )à¥¤
à¦¿ ÂŃ
à¦¿ ...âĢĿ
à¦¨ à¦Ŀ
à¦¨ à¦ªà¦¨
à¦¨ à¦®à¦£
à¦¤ à¦ªà¦°
à¦¤ à¦¸à¦ķ
à¦¤ à¦¹à¦¤
à¦¤ à¦Ĺà¦£
à¦² à¦īà¦¦
à¦ķ à¦Ĺà¦¤
à¦¯ à¦·
à¦¯ à¦®à¦ķ
à¦¯ à¦Ĺà¦°
à¦¬ à¦¬à¦¤
à¦¬ à¦īà§Ł
à¦® à¦ķà¦²
à¦® à¦ħà¦¨
à¦® à¦Ĺà¦¤à¦Ń
Ġà¦ķ à¦ĵà¦¯
Ġà¦¬ à¦ķà¦¬
Ġà¦ª à¦ĩ
Ġà¦ª à§°
à¦¸ à¦ĵà§Ł
à¦¸ à¦¹à¦¨
à¦¸ à¦¸à¦¹
Ġà¦Ĩ à¦£
Ġà¦Ĩ à¦Łà¦¤
à¦Ł à¦¬à¦¸
à¦¦ à¦¬à¦¨
à¦¦ à¦¸à¦®
à¦ĩ à¦¨à¦ĵ
à¦ĩ à¦ıà¦ķà¦Ł
à¦ĩ à¦ļà¦Ł
à¦ĩ à¦īà¦Ń
Ġà¦¨ à¦¨à¦¸
Ġà¦¨ à¦°à¦¹à¦°
Ġà¦® à¦°à¦¨
à¦Ľ à¦ªà¦Ł
à¦Ľ à¦ķà¦ĩ
Ġà¦¦ à¦§
à¦ª à¦Ľà¦¨
à¦ª à¦¸à¦¤
Ġà¦ı à¦¨à¦ĵ
Ġà¦ı à¦®à¦¬
Ġà¦¤ à¦£
à¦¼à§ĩ !âĢĿ
à¦¶ à¦°à¦£
à¦¶ à¦¬à¦¤
à¦¶ à¦¬à¦¦
à¦ĸ à¦«
à¦Ĺ à¦¸à¦¨
à¦Ĺ à¦°à¦ª
à¦· à¦¤à¦¨
à¦· à¦ªà¦¤
à¦· à¦¤à¦²
Ġà¦ķà¦° à¦ľ
à¦¡ à¦§
à¦¡ à¦²à¦Ł
à¦§ à¦°à¦¦
à¦§ à¦¸à¦®
à¦ļ à¦«
à¦ļ à¦ªà¦¦
à¦ļ à¦¤à¦®
Ġà¦Ĺ à¦Ĺ
Ġà¦Ĺ à¦Ĺà¦²à¦¸
à¦¹ à¦§
à¦¹ à¦²à¦¬à¦¶à¦¤
à§Ł à¦¤à¦¨
à¦£ à¦Ľ
à¦£ à¦²à¦¤
à¦£ à¦¤à¦®
à¦£ à¦®à§Ł
à¦¥ à¦ķà¦Ń
Ġà¦¶ à¦ľ
Ġà¦¶ à¦ł
Ġà¦¶ à¦°à¦¶
Ġà¦ļ à¦®à¦¤
Ġà¦ļ à¦°à¦Ľ
Ġà¦Ń à¦ŀ
Ġà¦° à¦Ĺà¦¡
Ġà¦° à¦¸à¦ķà¦·
à¦ĵ à¦·
à¦ĵ à¦«
à¦ĵ à¦¸à¦®
à¦ĵ à¦ĺà¦°
à¦Ń à¦²à¦ķ
à¦¼à¦¾ :
à¦¼à¦¾ à¦ĥà¥¤
Ġà¦Ĩà¦® à¦ľà¦¨à¦¤
à¦Ĥ !
à¦Ĥ /
Ġà¦¬à¦² à¦¦à¦°
Ġà¦ī à¦ŀ
Ġà¦ī à¦®à¦°
Ġà¦ī à¦ľà¦²
Ġà¦ī à¦ĩà¦¦
Ġà¦Ĩà¦° à¦¬à¦°
Ġà¦Ĩà¦° à¦¨à¦²
Ġà¦² à¦ķà¦Ł
Ġà¦« à§Ł
Ġà¦« à¦Łà¦«à¦Ł
Ġà¦« à¦¨à¦Łà¦¨
Ġà¦ĸ à¦ķ
Ġà¦¸à¦® à¦°à¦ķ
à¦¼à¦¿ ?âĢĻ
Ġà¦ĺ à¦°à¦®
Ġà¦ıà¦ĩ à¦¡à¦¸
à¦« à¦ĵ
à¦¬à¦¨ à¦Ń
à¦Ŀ à¦Ĺà¦¡
à§İ à¦ªà¦¨
à¦ľà¦¨ à¦¯
à¦ľà¦¨ à¦¬à¦°
à¦ľà¦¨ à¦Ĺà¦£
à¦ı à¦ľ
à¦ī à¦«
à¦¬à¦° à¦®
à¦¬à¦° à¦ľ
à¦¬à¦° à¦ļ
ĠâĢľ âĢ¦
Ġà¦Ĩà¦Ľ à¦²
Ġà¦Ĩà¦¸ à¦¨à¦Ł
à¦°à¦¬ à¦ĵ
à¦Ĩ à¦«
à¦Ĩ à¦ĩà¦°
Ġà¦ĩ à¦īà¦¸
Ġà¦ĩ à¦īà¦¡
Ġà¦ł à¦¨
Ġà¦ł à¦Ĺ
Ġà¦ıà¦¸ à¦ıà¦®à¦ıà¦¸
Ġà¦Ŀ à¦®à¦Ŀà¦®
Ġà¦ħà¦¬ à¦¦à¦®
à¦ĺ à¦ª
à¦ĺ à¦¦à¦²
à¦°à¦® à¦¦
à¦°à¦® à¦ĵ
Ġà¦Ĩà¦Ĺ à¦®
à¦¬à¦² à¦Ń
à¦ķà¦² à¦¬
à¦ķà¦² à¦¸
à¦ķà¦Ł à¦²
à¦ķà¦Ł à¦Ĺ
Ġà¦¬à¦¨ à¦Ĺ
Ġà¦¬à¦¨ à¦¬à¦¨
à¦ĥ âĢ¦
Ġà¦Ĺà¦² à¦Ĺ
Ġà¦ħà¦¸ à¦¬à¦°
à§ĩ? âĢ¦
à¦¾à¦Ĥ !
à¦¾à¦Ĥ -
à¦Ĺà¦² à¦ªà¦¥
à¦¿à¦Ĥ âĢ¦
à¦°à¦² à¦®
à¦¬à¦¤ à¦¬
Ġà¦®à¦¹ à¦¦
Ġà¦ĺà¦° à¦ĩ
à¦ħ à¦ªà¦®
Ġà¦Ĩà¦¨ à¦²à¦ķ
à¦Ĩà¦® à¦¤
à¦Ĩà¦® à¦²
Ġà¦īà¦ª à¦¢
Ġà¦ħà¦¤ à¦Ĺ
à¦¤à¦¬ à¦¸
à¦¤à¦¬ à¦¸à¦®
à¦¯à¦ķ à¦Ń
Ġà¦¯à¦ĸà¦¨ à¦¤à¦ĸà¦¨
à¦¶à¦¨ à¦®
Ġà¦ľà¦² à¦ľà¦¨
Ġà¦ľà¦² à¦ļà¦ķ
Ġà¦ľà¦² à¦ªà¦¥
à¦®à¦ķ à¦¹
à¦°à¦¶ à¦¤
à¦°à¦¶ à¦®à¦¨
Ġà¦¸à¦° à¦ĸ
à¦ªà¦¦ à¦ľà¦¨à¦ķ
à¦¹à¦¸ à¦ĵ
à¦°à¦¹ à¦¤
à¦²à¦¬ à¦¦à¦²
à¦°à¦ľ à¦ķ
à¦¨à¦¬ à¦¸à¦¤
Ġà¦ĵà¦ªà¦° à¦¦
Ġà¦ħà¦ª à¦¹
Ġà¦ħà¦ª à¦ĺ
à¦²à¦¨ à¦ª
à¦°à¦¦ à¦£
à¦ĩà¦¨ à¦ľ
à¦ĩà¦¨ à¦¡
à¦°à¦¯ à¦ľ
à¦¼à§ĭ âĢĶ
à¦§à¦¨ à¦¸
Ġà¦īà¦¤ à¦¥
à¦ķà¦¬ à¦ĩ
à¦¹à¦² à¦Ł
à¦¸à¦¨ à¦¦
Ġà¦¬à¦ĩ à¦ª
à¦®à¦£ à¦¸
à¦®à¦£ à¦Ń
Ġà¦¯à¦¤ à¦¸à¦¬
Ġà¦¶à¦¹à¦° à¦ĵ
à¦·à¦¤ à¦ķ
Ġà¦«à¦² à¦¦
Ġà¦«à¦² à¦Ń
à¦¯à¦® à¦¹
Ġà¦ĩà¦¨ à¦ª
Ġà¦Ńà¦° à¦Ĺ
à§° à¦ļ
Ġà¦ıà¦ķà¦¬ à¦Ľà¦°
à¦ªà¦ķ à¦¨
à¦°à¦Ń à¦°
Ġà¦ħà¦² à¦¸à¦Ń
à¦¨à¦² à¦ľ
Ġà¦Ī à¦Ļ
Ġà¦¶à¦¤ à¦Ń
à¦°à¦Ĺ à¦®à¦¨
à¦ªà¦¥ à¦ļ
à¦¦à§Ł à¦¬
Ġà¦¸à¦®à§Ł à¦¸
à¦°à¦®à¦£ à¦Ń
à¦Łà¦¬ à¦¡
Ġà¦Ĩà¦ª à¦Ĺ
Ġà¦¦à¦¶ à¦¤à¦²
à¦¥à¦° à¦ĸà¦£
Ġà¦ļà¦ķ à¦®
Ġà¦¬à§ľ à¦²
Ġà¦¬à§ľ à¦¸à§ľ
Ġà¦¬à¦ī à¦¬
Ġà¦¬à¦ī à¦ĵ
à¦Ĺà¦® à§Ł
Ġà¦¨à¦¬ à¦¤à¦°
Ġà¦Ĩà¦Ń à¦°à¦£
à¦®à§Ł à¦²
Ġà¦ªà¦°à¦® à¦ª
à¦ķà¦ľà¦¨ à¦ĵ
à¦ķà¦°à¦£ à¦¯
à¤ £
à¤ ·
à¤ Ĺ
à¤ Ń
à¦°à¦° à¦Ļ
à¦°à¦° à¦ŀ
Ġà¦®à¦¶ à¦ķà¦°
Ġà¦Ĩà¦ĩà¦¨ à¦ķ
à¦¸à¦¹ à¦¬
Ġà¦ľà§Ł à¦²
Ġà¦ľà§Ł à¦ķ
à¦¿âĢĻ âĢĵ
à§¨ à§§
à¦¬à¦Ł à¦¦
à¦Ĩà¦Ĺ à¦¸
Ġà¦ıà¦°à¦ªà¦° à¦ĵ
à¦·à§Ł à¦Ń
in al
Ġà¦¹à¦ĩ à¦ĵ
à¦¬à¦ľà¦¨ à¦¹
an ce
à¦¶à¦° à§İ
à§« à§¨
à¦¸à¦Ń à¦¬à¦¨
à¦¾!âĢĿ âĢĶ
à¦ľà¦¦ à¦°à¦¬
Ġà§¨ à§®
Ġà¦Ĩà¦ĩ à¦ļ
al f
à¦ªà¦¬ à§Łà¦¸
à§© à§§
à¦Ī à¦®
Ġà¦ĩà¦Ł à¦Ń
Ġà¦ķà¦¦ à§°
Ġà¦ķà¦¦ à¦®à¦¤à¦²
en g
ti s
or y
ar ning
à¦£à¦Ĺ à¦ŀ
is t
is ter
à¦īà¦¬ à¦ĵà¦¯
ed ic
at ure
à¦¸à¦ķà¦² à¦ķ
à¦¬à§İ à¦¸à¦²
Ġw e
Ġà¦¨à§ľ à¦²
Ġb ec
Ġà¦¨à¦°à¦ķ à¦ķ
Ġà§© à§Ń
Ġà¤ ī
à§ĭâĢ¦ âĢĻ
à¦¨à§Ł à¦¨à¦ķ
à¦¤à¦ļ à¦°à¦¦
Ġh alf
à¦ĸà¦¬à¦° à¦Ł
Ġa pp
Ġà¦¨à¦Ĺ à¦°à¦¬
à¦ħà¦ª à¦Ľà¦¨
Ġà¦Ĩà¦ĸ à¦¡
à¦ħà¦¬ à¦¸à¦°
Ġà¦¨à¦ĵ à¦¶
à¦®à¦« à¦²à¦ķ
ic e
all y
Ġà¦Ńà¦Ł à¦ļ
à§§à§¯à§ ¬
à§§à§¯à§ Ń
áĥ Ĳ
à¦īà¦ª à¦¹
Ġl iter
Ġl ove
Ġà§§à§¯à§ª à§«
Ġà§§à§¯à§ª à§©
os e
Ġà¦§à¦ķ à¦§à¦ķ
à¦ıà¦® à¦¡à¦¬
Ġà§§à§¯à§¯à§ ¨
Ġg od
am e
à¦¶à¦§ à¦°à¦¦
ul t
Ġà¦¤à§İ à¦¸à¦®
Ø§ Ø±
Ġre f
Ġà§§à§¯à§© à§¨
Ġà§§à§¯à§© à§©
Ġà¦ªà¦ļà¦¨ à¦¶
Ġr es
à¦¤à¦°à¦« à¦¦
ea th
Ġà¦¬à¦°à¦¬ à§°
TE M
Ġà¦«à¦¸à¦« à¦°
tor y
Ġman y
== ==
ĠRup sha
Ġà¦Ĩà¦ĩà¦ķ à¦¨
à¦£à¦¬à¦¯ à¦ľ
Ġà¦¡à¦Ĺà¦® à¦Ĺ
Ġà¦ıà¦¨à¦ĵ à¦¸
) ;
. âĢĻ
? )
I oT
O N
O de
a v
b or
c y
h i
m s
n ess
n own
p l
s e
t a
t ing
u ja
v ed
w een
Â °
Ñ ĭ
Ù ģ
Ù ĩ
Ġ '
Ġ 3
Ġ Î
Ġ Õ
Ġ all
Ġ âĨ
à¦¾ ..
à§ĩ à§į
à§ĩ âĢĮ
à¦° à¦Ŀà¦°
à§į âĢĻà¥¤
à§į !âĢĻ
à¦¨ à¦¶à¦ķ
à¦¨ à¦Ĩà¦°
à¦¤ à§Ł
à¦¤ à¦ĵà¦¯
à¦¤ à¦¯à¦¶
à¦² à¦ªà¦°
à¦² à¦¬à¦²
à¦² à¦¸à¦¨
à¦² à¦ĸà¦£
à¦ķ à¦ĵà¦¯
à¦ķ à¦ķà¦²
à¦ķ à¦¨à¦ķ
à¦ķ à¦¶à¦ķ
à¦ķ à¦¸à¦ª
à¦ķ à¦¨à¦²à¦ľ
à¦¯ à¦ĸà¦£
à§ģ '
à¦¬ à¦¤à¦°
à¦¬ à¦ķà¦¤
à¦¬ à¦¹à¦°
à¦¬ à¦Ńà¦°
à¦¬ à¦®à¦¹
à¦¬ à¦ľà¦¨à¦ķ
à¦¬ à¦Ĺà¦¤à¦Ń
à¦¼ âĢĿâĢĶ
à¦® à¦ªà¦ķ
à¦® à¦Ĺà¦¨
Ġà¦ķ à¦ľ
à§ĭ ...
Ġà¦¬ à¦ªà¦£
Ġà¦¬ à¦¶à¦¤
à¥¤ -
Ġà¦¸ à¦ķà¦°
Ġà¦¸ à¦¦à¦¨
Ġà¦¸ à§°
Ġà¦¸ à¦¦à§Ł
Ġà¦¸ à¦¸à¦ª
à¦¸ à¦¥
à¦¸ à¦®à¦£
à¦¸ à¦ĺà¦°
à¦¸ à¦Łà¦¨
Ġà¦Ĩ à¦§à¦ķ
Ġà¦Ĩ à¦īà¦°
à¦ĩ à¦§
à¦ĩ à¦²à¦ķ
Ġà¦¨ à¦°à¦¸
Ġà¦¨ à¦¦à¦¨à¦¦
Ġà¦® à§ľ
Ġà¦® à¦Ĺà¦ľà¦Ł
Ġà¦® à¦°à¦®à¦°
Ġà¦¦ à¦Ļ
à¦ª à¦°à¦¤
à¦ª à§İ
à¦ª à§°
à¦ª à¦¢
Ġà¦ı à§Ł
Ġà¦ı à¦¨à¦²
Ġà¦ı à¦¨à¦¸
Ġà¦ı à¦§à¦°à¦¨
Ġà¦¤ à¦¸à¦¬
Ġà¦¹ à¦Ĺ
Ġà¦¹ à¦¸à¦ª
Ġà¦¹ à¦Ļà¦ķ
à¦ľ à¦¬à¦°
à¦ľ à¦ĺà¦¨
à¦ľ à¦ĸà¦®
à¦¼à§ĩ âĢĿ
à¦¶ à¦ªà¦¤
à¦¶ à¦²à¦Ł
à¦ĸ à¦®à¦¨
à¦ĸ à¦¬à¦¨
à¦Ĺ à¦¦à¦¤
Ġà¦ķà¦° à¦¸
Ġà¦ķà¦° à¦®à¦°
à¦ļ à¦ķà¦²
à¦ļ à¦°à¦¨
à¦ļ à¦®à¦¤
à¦ļ à¦°à¦ķà¦®
à¦ļ à¦ľà¦¨à¦ķ
Ġà¦Ĺ à¦ľà¦¬
à¦¹ à¦®à¦¨
à¦¹ à¦°à¦¬
à¦¹ à¦¬à¦²
à¦¹ à¦ľà¦®
à§Ł à¦ª
à§Ł à¦®à¦Ĺ
à¦£ à¦ªà¦¦
à¦£ à¦¬à¦¦
à¦¥ à¦Ľ
à¦¥ à¦°à¦¬
à¦ģ âĢĻ
Ġà¦ļ à¦ļ
Ġà¦Ń à¦¨
Ġà¦Ń à¦°à¦¬
Ġà¦° à¦ĩ
Ġà¦° à¦®à¦ľ
Ġà¦° à¦£à¦¬
Ġà¦° à¦¡à¦Ł
Ġà¦° à¦£à¦Ń
Ġà¦ıà¦ķ à¦¬à¦°
Ġà¦ıà¦ķ à¦¶à¦Ł
à¦Ń à¦£
à¦Ń à¦²à¦Ĺ
à¦Ń à§Łà¦ķ
Ġà¦Ľ à¦ĩà¦¯
à¦ł à¦¤à¦°
Ġà¦¬à¦² à¦Ĺ
Ġà¦ī à¦¶à¦ĸ
Ġà¦Ĩà¦° à¦¸
Ġà¦¥ à¦ķ
à¦Ļ à¦¡
Ġà¦² à¦ĵ
Ġà¦« à¦ľà¦°
Ġà¦« à¦°à¦«à¦°
Ġà¦ªà¦° à¦£
Ġà¦§ à¦¨à¦¬
Ġà¦§ à¦ĩà¦°
à¦°à¦¤ à¦ĵ
à¦°à¦¤ à¦ķà¦°
à¦°à¦¤ à¦ªà¦ķ
à¦¼à¦¿ à¥¤âĢĿ
à¦ĸà¦¨ à¦ķ
Ġà¦ĺ à¦°à¦ķà¦¨
à§ľ à¦¶
à§ľ à¦¬à§ľ
à¦ªà¦° à¦¨
à¦ªà¦° à¦®à¦£
Ġà¦®à¦¨ à¦Ĺ
à¦¿à¥¤ à¥¤
à¦¿à¥¤ âĢĺ
à¦« à¦¥
à¦« à¦°à¦®
âĢĻ à¥¤âĢĿ
à¦°à¦£ à¦¸
à¦¬à¦¨ à¦¤
à¦Ŀ à¦²à¦ķ
à¦Ŀ à¦¨à¦¦
à¦ŀ à¦ĩ
à§İ à¦Ł
à§İ à¦Ĺà¦¤
à¦ľà¦¨ à¦¸
à¦ľà¦¨ à¦§
à¦ı à¦ª
à¦ı à¦°à¦ĵ
à¦ı à¦¤à¦ĩ
à¦ī à¦¶
à¦ī à¦¬à¦²
à¦ī à¦²à¦Ł
à¦°à¦ķ à¦¬
à¦ªà¦¨ à¦¬
à¦ªà¦¨ à¦¦
Ġà¦Ł à¦®à¦Łà¦®
Ġà¦¹à¦² à¦®
Ġà¦¹à¦² à¦ĵ
à¦¬à¦° à¦¸à¦Ń
à¦¤à¦° à¦ľ
à¦°à¦¬ à¦ª
à¦Ĩ à¦°à¦ķ
à¦Ĩ à¦Łà¦ķ
à¦Ĩ à¦ĩà¦¯
à¦Ĩ à¦¨à¦Ĺ
à¦Ĩ à¦¬à¦¹
Ġà¦ĩ à¦«
Ġà¦ĩ à¦Ĺà¦¨
Ġà¦ĩ à¦Łà¦¸
Ġà¦ĩ à¦Ńà¦¨
Ġà¦ľà¦¨ à¦°
Ġà¦ľà¦¨ à¦ĩ
Ġà¦ľà¦¨ à¦¬à¦¹
à§Ī âĢĵ
âĢĵ âĢĻ
Ġà¦ıà¦¸ à¦ĩà¦īà¦Ń
Ġà¦Ŀ à¦°à¦£
Ġà¦Ĩà¦Ĺ à¦°à¦¬
à¦¬à¦² à¦¸
à¦ķà¦² à¦Ĺ
à¦ķà¦Ł à¦®
à¦ķà¦Ł à¦®à§Ł
Ġà¦¬à¦¨ à¦ķ
Ġà¦¬à¦¨ à¦ª
à¦¸à¦¬ à¦¸à¦®à¦¯
Ġà¦ıà¦ĸà¦¨ à¦¤
à¦¯à¦¬ à§Łà¦¸
à¦°à¦¸ à¦¦
à¦°à¦¸ à§İ
à¦²à¦ķ à¦¥
à¦¾à¦Ĥ âĢĶ
à¦¨à¦ĵ à¦°
Ġà¦¹à¦¤ à¦ĩ
Ġà¦¹à¦¤ à¦¦à¦°
à¦¤à¦¨ à¦Ł
à§ĭà¦ģ -
Ġà¦¬à¦° à¦ĸ
Ġà¦¬à¦° à¦·
à¦°à¦¨ à¦¬
à¦¬à¦ª à¦¦
à¦¬à¦ª à¦£
à¦¬à¦¤ à¦¤
Ġà¦īà¦¦ à¦Ń
Ġà¦ķà¦°à¦¬ à¦ĩ
à¦ħ à¦£
à¦ħ à¦¸à¦¹
Ġà¦ħà¦Ń à¦¬
à¦ĩà¦² à¦¨
à¦ĩà¦² à¦ĩ
à¦Ĺà¦¤ à¦ĩ
Ġà¦ķà¦² à¦°
Ġà¦ķà¦² à¦ĺà¦°
à¦ĸà¦² à¦¨
Ġà¦ħà¦¦ à¦²à¦¬à¦¦à¦²
à¦®à¦¤ à¦ĵ
à¦¯à¦ķ à¦¬
à¦¯à¦ķ à¦¥
Ġà¦ľà¦² à¦¦à¦¸
à¦ªà¦¦ à¦ļ
Ġà¦ıà¦¤ à¦°à¦ķà¦®
à¦°à¦¹ à¦°à¦Ĺ
à¦²à¦¬ à¦£
à¦²à¦¬ à¦¸à¦¨
à¦¨à¦¬ à¦¹
à¦¨à¦¬ à¦Ľà¦°
à¦®à¦² à¦Ń
Ġà¦¸à¦¹ à¦®
à¦¦à¦¨ à¦Ł
à¦¦à¦¨ à¦ªà¦¤
à¦ĩà¦¨ à¦ĩ
à¦ĩà¦¨ à¦·
à¦°à¦¯ à¦¤
à¦¼à§ĭ ?
à¦§à¦¨ à¦ª
à¦ķà¦¬ à¦ļ
à¦ıà¦ĩ à¦ĩ
à¦¹à¦² à¦ĩ
à¦¹à¦² à¦ĵ
âĢ¦ )
à¦¸à¦¨ à¦ļ
à¦°à¦ĵ à¦°à¦ĩ
Ġà¦¬à¦Ľà¦° à¦ĵ
Ġà¦¬à¦ĩ à¦ĵ
à¦ļà¦² à¦®
à¦ļà¦² à¦Ń
à¦®à¦£ à¦ª
à¦®à¦£ à¦ĵ
Ġà¦īà§İ à¦¸à¦®
à¦°à¦ª à¦¶
à¦°à¦ª à¦Ļ
à¦¸à¦° à§İ
à¦ļà¦ķ à¦¡
Ġà¦ªà¦¦ à¦¤
Ġà¦²à¦ķ à¦ª
à¦¬à¦¸ à¦Ń
Ġà¦Ĳ à¦Ł
à¥¤âĢĻ âĢĻ
ĠâĢĶ âĢĺ
à¦¬à¦¬ à¦¶
à¦¯à¦¦ à¦¶
à¦ĩà¦Ł à¦®
?âĢĿ âĢĵ
à¦Ĺà¦ľ à¦ĩ
Ġà¦Ī à¦·
à¦ªà¦¸ à¦ĩ
à¦¨à¦¸ à¦ķ
à¦°à¦Ĺ à¦ŀ
à¦¸à¦ķ à¦Ĺ
Ġà¦°à¦ķà¦® à¦Ń
à¦ľà¦² à¦ļà¦ķ
Ġà¦¦à¦² à¦ĵ
à¦°à¦®à¦£ à¦ªà¦¥
Ġà¦ķà¦¨ à¦Ńà¦¯
à¦¯à¦° à¦ļà¦¨
à¦Ĺà¦¬ à¦§
Ġà¦ĺà¦¨ à¦¶
Ġà¦ĺà¦¨ à¦ĺà¦Ł
Ġà¦ľà¦° à§İà¦ķ
à¦®à¦¸ à¦ļ
à¦®à¦¸ à¦Ń
Ġà¦ķà¦²à¦ķ à¦¬
à§İà¦¸ à¦¹
à¦ªà¦£ à¦ķ
à¦¶à¦² à¦ĩ
à¦£à¦ķ à¦¥
à¦¡à¦² à¦«
à¦¹à¦°à¦£ à¦ĩ
à¦®à¦°à¦£ à¦¶à¦ķ
Ġà¦Ĺà¦°à¦® à¦ķ
Ġà¦Ĺà¦°à¦® à¦Ł
à¤ §
à¤ ª
à¦¡à¦¬ à¦¡
à§ĩâĢ¦ .
à¦®à¦¶ à¦°à¦£
à¦¤à¦ª à¦ŀ
à¦®à¦¦ à¦ª
Ġà¦ħà¦Ł à¦²à¦¤
à§ĩ!âĢĿ âĢĶ
Ġà¦°à¦« à¦¤
à¦¿âĢĻ -
Ġà¦ľà¦Ĺà¦¤ à¦ķ
à§¨ à§©
à¦°à¦¬à¦² à¦¤à¦°
à¦¦à¦ķ à¦ĵ
Ġà¦Ĩà¦ļà¦°à¦£ à¦¬
Ġà¦Ĩà¦ļà¦°à¦£ à¦Ĺ
à¦¬à¦ľà¦¨ à¦¸à¦®à¦ķ
Ġà¦ĸà¦°à¦ļ à¦Ł
Ġà¦ĸà¦°à¦ļ à¦ĵ
à¦¶à¦¤ à¦§à¦¨
à§« à§«
er n
à¦¿?âĢĻ âĢĶ
Ġà¦Ĩà§ľ à¦·
al e
al ity
à¦¾âĢ¦ âĢĻ
on e
à¦¿âĢ¦ ?âĢĿ
à¦¿. -
à¦¬à§Ł à¦ĩ
Ġà¦Ńà¦°à¦¤ à¦®
Ġth es
Ġth ere
es c
Ġà¦¬à¦ĩà¦Ł à¦ĩ
or a
ar k
ar y
Ġs k
Ġs m
à§¬ à§«
is s
à¦¸à¦ķà¦² à¦ĩ
à§· à§·
Ġc an
it al
ou nd
ou gh
Ġà¤ µ
Ġà¤ ľ
à§® à§®
à¦¼à¦¿à¦Ĥ à¥¤
Ġf l
Ġp l
Ġà¦ĺà¦· à¦Ľ
ĠA n
ĠA yan
Ġà¦®à¦°à¦£ à¦ķ
Ġd eath
ĠP uja
Ġà¦¨à¦ĵ à¦ľ
ol d
ol ar
áĥ Ķ
Ġl ong
ĠâĢ¦ âĢĿ
Ġà§§à§¯à§ª à§¨
us in
Ġà¦¶à¦¶ à¦§à¦°
Ġà§§à§¦ à§¦à§¦
ĠR e
ĠR ah
Ġe qu
à¦°à¦¡ à¦ĵà¦¯
Ġà¦īà¦ĩà¦¨ à¦ļ
Ġà¦¬à¦Ĺà¦² à¦¦
ĠT h
Ġà¦¤à§İ à¦¸à¦¤
Ġbe en
Ø§ ÙĦ
à¦£à¦§ à¦°à¦ķ
Ġà§§à§¯ à§§à§ª
à§¯à§ «
ag ore
Ġà¦ªà¦łà¦¨ à¦ª
Ð° Ð
ĠW i
ĠÙ Ĩ
Ġcon tin
à¦¤à§İ à¦¸à¦®
Ġà¦Ĩà¦ĩà¦Ľ à¦¸
Ġà¦ķà¦°à¦¤à¦² à¦Ĺà¦¤
Ġne ver
à¦°à¦Ĺà¦² à¦Ń
Ġà¦īà¦Ń à§Łà¦ķ
ÂŃÂŃÂŃÂŃÂŃÂŃÂŃÂŃ ÂŃÂŃÂŃÂŃÂŃÂŃÂŃÂŃ
âĤ Ĥ
pend s
Ġbet ween
Ġà¦°à¦ĵ à¦¶à¦¨
Ġsti pends
ĠBea uty
áĥĲ áĥ
Ġà¦¹à¦Ļà¦ķ à¦Ļ
Ġthes e
, à¥¤
C T
D I
I I
S I
a j
c ount
g a
l and
l ab
o th
o le
o ver
o od
s ter
y n
£ áĥ
Ð ´
à ¯
Ġ &
Ġ )
Ġ /
Ġ |
Ġ à§Ł
Ġ al
Ġ en
Ġ ec
Ġ qu
Ġ out
à§ĩ à¦¾à¥¤
à¦° à¦Ĩà¦°
à¦¿ ),
à¦¿ Â¤
à¦¨ à¦ŀ
à¦¨ à¦¦à¦°
à¦¨ à¦ľà¦²
à¦¨ à¦ĺà¦¨
à¦¤ à¦ł
à¦¤ à¦ļà¦¨
à¦¤ à¦ªà¦¦
à¦¤ à¦¶à¦¤
à¦² à¦¬à¦ª
à¦² à¦°à¦ķà¦®
à¦ķ à¦°à¦®
à¦ķ à¦¬à¦²
à¦ķ à¦ļà¦°
à¦¯ à¦°à¦¤
à¦¯ à¦ĺ
à¦¯ à¦¶à¦ķ
à§ģ âĢĮ
à¦¬ à¦¬à¦²
à¦¬ à¦Ĺà¦²
à¦¬ à¦¹à¦¸
à¦¬ à¦§à¦¨
à¦¬ à¦®à¦£
à¦¬ à¦ľà¦°
à¦¬ à¦®à¦¸
à¦¬ à¦®à§Ł
à¦¬ à¦Łà¦Ł
à¦¼ âĢ¦âĢĿ
à¦¼ âĢĻ-
à¦® à¦°à¦¨
à¦® à¦®à¦£
à¦® à§°
à¦® à¦¸à¦¤
à¦® à¦¸à¦Ļ
à¦® à¦īà¦¨
à¦® à¦ľà¦²
à¦® à¦·à¦ª
Ġà¦ķ à¦¸à¦¬
Ġà¦¬ à¦¶à¦®
à¥¤ "
Ġà¦¸ à¦ĵà§Ł
Ġà¦¸ à§İà¦¸
Ġà¦ª à¦²à¦¤
Ġà¦ª à¦ĩà¦¸
à¦¸ à¦°à¦¦
à¦¸ à§°
à¦¸ à¦Ńà¦°
à¦¸ à§ľà¦ķ
Ġà¦Ĩ à¦¹à¦°
Ġà¦Ĩ à¦¹à¦²
à¦Ł à§Ł
à¦Ł à¦ªà¦¤
à¦Ł à¦¸à¦ķ
à¦¦ à¦ķà¦¤
à¦¦ à¦°à¦²
à¦¦ à¦®à¦ķ
à¦¦ à¦ļà¦¯
à¦¦ à¦¶à¦ķ
à¦¦ à¦ķà¦¦
à¦ĩ à¦°à¦¨
à¦ĩ à¦¶à¦¨
à¦ĩ à¦¸à¦®
à¦ĩ à¦¸à¦ķ
à¦ĩ à¦īà¦Ł
à¦ĩ à¦īà¦¡
Ġà¦¨ à§ľà¦¤
Ġà¦¨ à¦¬à¦¤à¦®
Ġà¦® à¦¬
Ġà¦® à¦°à¦ľ
à¦ª à¦®à¦£
à¦ª à¦¶à¦¬
à¦ª à¦£à¦¤
à¦ª à¦¹à¦¤
Ġà¦¤ à¦¸à¦²
à§Ģ âĢĶâĢľ
Ġà¦¹ à¦°à¦®
Ġà¦¹ à¦Łà¦ķ
à¦ľ à¦ŀ
à¦ľ à¦ĵà¦¯
à¦ľ à¦¬à¦²
à¦ľ à¦¸à¦¤
à¦ľ à¦Ĺà¦¨
à¦ľ à¦¬à¦ªà¦£
à¦¶ à¦²à¦Ĺ
à¦ĸ à¦ľà¦¨à¦ķ
à¦Ĺ à¦«
à¦Ĺ à¦ªà¦¤
à¦Ĺ à¦¢
à¦Ĺ à¦®à¦¸
à¦Ĺ à¦łà¦ķ
à¦Ĺ à¦£à¦¨
à¦Ĺ à¦ľà¦¨à¦ķ
à¦Ĺ à¦¸à¦¹
à¦· à¦¦à¦°
à¦· à¦ļà¦¨
à¦· à¦®à¦¯
à¦· à¦¸à¦Ł
Ġà¦ħ à¦°à¦¤
Ġà¦ķà¦° à¦Ĺ
à¦¡ à¦²à¦¸
Ġà¦¯ à¦ĸ
Ġà¦¯ à§İà¦ªà¦°
à¦§ à¦§
à¦§ à§ľ
à¦§ à¦®à¦¨
à¦§ à¦Ĺà¦²
à¦§ à¦ªà¦¥
à¦ļ à¦¶à¦¬
Ġà¦Ĺ à¦Ĺà¦²
à¦¹ à¦²à¦ķ
à¦¹ à¦Ĺà¦¨
à§Ł à¦ľ
à§Ł à¦®à¦ķ
à¦£ à¦¬à¦ķ
à¦£ à¦¸à¦¹
à¦£ à¦ªà¦¦à¦ķ
à¦¥ à¦ļ
à¦¥ à¦²à¦¨
à¦¥ à¦¸à¦®
à¦¥ à¦Łà¦¬
Ġà¦¶ à¦¤à¦°
Ġà¦¶ à¦Łà¦Ĺ
Ġà¦ļ à¦ĸ
Ġà¦ľ à¦¹à¦°
Ġà¦ľ à¦Ĺà¦ľ
Ġà¦ľ à¦łà¦°
Ġà¦Ń à¦²à¦ķ
Ġà¦Ń à¦ľà¦®
Ġà¦Ń à¦īà¦ľ
Ġà¦° à¦ľà¦¬
Ġà¦° à¦ĩà¦ļ
Ġà¦° à¦¨à¦ľ
à§ĩà¥¤ "
Ġà¦ıà¦ķ à¦ļà¦²
à¦Ń à¦Ń
à¦Ń à¦ŀ
à¦Ń à¦£à¦ĩ
à¦¼à¦¾ ?âĢĻ
à¦¼à¦¾ âĢ¦âĢĿ
Ġà¦Ľ à¦ľà¦¨
Ġà¦Ĩà¦® à¦¤à¦²
Ġà¦Ĩà¦® à¦¸à¦¤
à¦ł à¦Ŀ
Ġà¦¬à¦² à¦¨
Ġà¦ī à¦Ĺà¦°
Ġà¦ī à¦ľà¦¬
Ġà¦ī à¦¸à¦ĸ
Ġà¦Ĩà¦° à¦Ń
Ġà¦Ĩà¦° à¦¨à¦¬
à¦¾à¦ģ ;
Ġà¦² à¦ĩà¦²
Ġà¦² à¦ķà¦¬à¦ķ
Ġà¦ĵ à¦ľà¦¸
âĢĶ "
à§ĩ, -
Ġà¦ĸ à¦°à¦¸
Ġà¦ĸ à¦¸à¦²
Ġà¦ĸ à¦°à¦ĸà¦°
Ġà¦ªà¦° à¦®à¦¬
à¦°à¦¤ à¦ĩ
à¦°à¦¤ à¦Ń
Ġà¦ħà¦¨ à¦¬
Ġà¦ħà¦¨ à¦®
Ġà¦¸à¦® à¦ªà¦¦
à¦¼à¦¿ âĢ¦
Ġà¦ĺ à¦°à¦¸
Ġà¦ĺ à¦¨à¦ķ
à§ľ à¦ľ
à¦ªà¦° à¦ĩ
à¦®à¦¨ à¦¤
à¦®à¦¨ à¦Ĺà¦°
Ġà¦ıà¦ĩ à¦¦
à¦¿à¥¤ "
Ġà¦¬à¦²à¦² à¦°
Ġà¦¬à¦²à¦² à¦¯
Ġà¦¬à¦²à¦² à¦ıà¦ĩ
Ġà¦¬à¦²à¦² à¦Ĩà¦®à¦°
à¦°à¦£ à¦ľ
à¦°à¦£ à¦¹
à¦¬à¦¨ à¦¹
à¦¬à¦¨ à¦ķà¦¥
à¦Ŀ à¦ª
à§İ à¦¦
à¦ľà¦¨ à¦ªà¦¦
à¦ı à¦¹
à¦ı à¦ķà¦²
à¦ı à¦°à¦ªà¦°à¦ĩ
à¦ī à¦¤à¦°
à¦ī à¦ªà¦ļ
à¦ī à¦ªà¦Ĺ
à¦ī à¦¥à¦ª
à¦ªà¦¨ à¦ĵ
à¦¤à¦° à¦¶
à¦¿, âĢĶ
Ġà¦Ĩà¦¸ à¦Ļ
à¦°à¦¬ à¦¯
à¦°à¦¬ à¦¶
à¦Ĩ à§ľ
à¦Ĩ à¦ªà¦¤
à¦Ĩ à¦¸à¦®
à¦Ĩ à¦¬à¦Ľ
à¦Ĩ à¦ĩà¦¡
à¦Ĩ à¦«à¦¸
Ġà¦ĩ à¦īà¦ľ
Ġà¦ĩ à¦¹à¦ķ
à¦¼à¥¤ âĢ¦
Ġà¦ľà¦¨ à¦¯
Ġà¦ľà¦¨ à¦®à¦¨
Ġà¦ķà¦°à¦¤ à¦ĵ
Ġà¦ıà¦¸ à¦ıà¦¸à¦¸
Ġà¦Ŀ à¦ķà¦®
à¦ĺ à¦ĩ
à¦ĺ à¦¦à¦°
à¦·à¦£ à¦¬
Ġà¦ļà¦² à¦ķ
Ġà¦Ĩà¦¬ à¦¡
à¦ķà¦° à¦²
à¦ķà¦° à¦¸
à¦ķà¦² à¦ľ
à¦ķà¦Ł à¦ĩ
à¦ķà¦Ł à¦ĵ
à¦ķà¦Ł à¦ľà¦¨à¦ķ
à§ģà¦ģ -
Ġà¦¹à§Ł à¦°
Ġà¦ħà¦° à¦¸
à¦¸à¦¬ à¦¦
Ġà¦ħà¦¸ à¦®à¦¤
à¦¯à¦¬ à¦ļ
Ġà¦¨à¦¤ à¦®
à§ĩ? âĢĵ
à¦²à¦ķ à¦®à¦²
à¦°à¦¥à¦® à¦Ń
à¦¨à¦ĵ à¦¨
à¦¨à¦ĵ à¦ĸ
à¦ķà¦¤ à¦¬
à¦¿à¦Ĥ )
à¦°à¦¨ à¦®
à¦°à¦¨ à¦Ł
à¦°à¦² à¦¤
à¦°à¦² à¦¬
à¦°à¦² à¦¸à¦Ń
à¦¬à¦¤ à¦ĵ
à¦¬à¦¤ à¦°à¦£
Ġà¦®à¦¹ à¦ķ
Ġà¦®à¦¹ à¦¬
Ġà¦ªà¦¥ à¦¹
Ġà¦ĺà¦° à¦¬à¦¨
à¦ħ à¦²à¦ķ
à¦ħ à¦ªà¦¬
Ġà¦Ĩà¦¨ à¦ª
Ġà¦ħà¦Ń à¦ķ
Ġà¦ķà¦² à¦ľ
Ġà¦ķà¦² à¦¶
à¦¯à¦ķ à¦°à¦£
à¦¶à¦¨ à¦¶
Ġà¦ľà¦² à¦¶
Ġà¦ľà¦² à¦Ĺ
à¦ļà¦¨ à¦ľà¦Ļ
à¦ªà¦¦ à¦¶
à¦°à¦¹ à¦¬
à¦²à¦¬ à¦ķ
à¦²à¦¬ à¦¶
à¦°à¦ľ à¦®
à¦°à¦ľ à¦¦
à¦¨à¦¬ à¦¶
Ġà¦ħà¦ª à¦²
Ġà¦ħà¦ª à¦ļ
Ġà¦ħà¦ª à¦¶à¦¨
Ġà¦ħà¦ª à¦¸à¦°
Ġà¦ħà¦ª à¦¶à¦ķ
à¦¾âĢĶ âĢĿ
à¦¼à§ĭ !
à¦ıà¦ĩ à¦¤
à¦ıà¦ĩ à¦®
à¦ıà¦ĩ à¦ľà¦¨
à¦Łà¦ķ à¦¥
Ġà¦ķà¦¬ à¦·à¦®
Ġà¦ķà¦® à¦ľ
âĢ¦ âĢĻà¥¤
à¦¸à¦¨ à¦Ń
à¦°à¦ĵ à¦ªà¦°
Ġà¦ľà¦® à¦¦à¦Ĺ
à¦ļà¦² à¦ļ
à¦®à¦£ à¦ķà¦¨
Ġà¦¯à¦¤ Åĵ
à¦·à¦ķ à¦ĵ
à¦·à¦ķ à¦Ĺà¦£
Ġà¦«à¦² à¦ĩ
Ġà¦«à¦² à¦Ĺ
à¦¯à¦® à¦ª
à¦¯à¦® à¦ĵ
à¦¤à¦ķ à¦®
à¦¦à¦² à¦Ł
à¦ļà¦ķ à¦ļà¦ķ
Ġà¦ħà¦® à¦²à¦ķ
à¦¤à¦¤ à¦¤
à§° à¦£
à¦ıà¦ķ à¦¯
à¦¤à¦® à¦ľ
à¦¤à¦® à¦Ń
Ġà¦ħà¦ªà¦° à¦ľà¦¨
à¦¬à¦¸ à¦®à¦ķ
à¦¯à¦¸ à¦¹
à¦¸à¦« à¦¡
Ġà¦Ĩà¦ļ à¦®
à§ĩâĢĵ âĢĵ
Ġà¦¶à¦¤ à¦¶à¦¤
Ġà¦¸à¦ķà¦² à¦ĩ
à¦Ŀà¦² à¦¸
à¦¸à¦ķ à¦¦à¦²
à¦ªà¦¥ à¦¯
à¦¦à§Ł à¦Ĺ
Ġà¦ıà¦¨ à¦Ń
à¦ľà¦² à¦¸
à¦ľà¦² à¦ĸ
Ġà¦īà§İà¦¸ à¦Ł
Ġà¦Ĩà¦ª à¦¶
à§İà¦¸ à¦ĩ
Ġà¦¹à¦° à¦°
à¦¼âĢĶ âĢĺ
à¦ķà¦¶ à¦Ł
Ġà¦§à¦°à¦¨ à¦§
à¦²à¦Ĺ à¦ŀ
à¦łà¦ķ à¦¯
à¦ªà¦£ à¦¨
à¦¦à¦® à¦Ĺ
à¦¶à¦² à¦Ĺà¦¤
à¦®à¦¹ à¦°à¦®
à¦¼à¦Ĥ ,
Ġà¦¨à¦ľà¦° à¦¬à¦¨
Ġà¦Ĺà¦£ à¦¬
à¦ĩà¦¡ à¦¬
à¦¹à¦°à¦£ à¦Ł
Ġà¦¶à¦¹ à¦°à¦ĩ
à¦¿âĢĵ âĢĵ
Ġà¦¸à¦°à¦² à¦°
à¦ħà¦° à¦«
à¤ ¼
à¤ ł
à¦¶à¦® à¦¶
à¦¤à¦ª à¦²
Ġà¦¦à¦® à¦ķà¦²
Ġà¦¸à¦¦ à¦Ĺà¦¤
à¦Łà¦® à¦¡
Ġà¦Ĩà¦ĩà¦¨ à¦¸à¦Ļ
à¦¿âĢĻ ;
Ġà¦ľà¦Ĺà¦¤ à¦Ł
Ġà¦Ĩà¦ļà¦°à¦£ à¦Ł
Ġà¦Ĩà¦ļà¦°à¦£ à¦ĵ
à¦¨à¦ª à¦¤à¦¨
à¦¯à¦ķà¦° à¦Ń
à¦¬à¦ľà¦¨ à¦¬
Ġà¦ıà¦¡ à¦®
à¦¾âĢĿ -
Ġà¦²à§ľ à¦¤
Ġà¦Ĩà¦Ł à¦ļà¦²
à¦¯à¦Ĺ à¦łà¦¨
Ġà¦¬à¦¦ à¦Ń
on tu
Ġà¦Ńà¦¬à¦¨ à¦Ĺ
à¦¿âĢ¦ âĢĻ
Ġà¦ªà¦²à¦ķ à¦¹
à§ª à§¨
à§ª à§Ń
à§İà¦ª à§°
es ent
Ġs h
Ġs p
Ġs am
Ġà¦°à¦¤à¦¨ à¦¦
Ġà¦ıà¦® à¦Ĩà¦°
à¦¬à¦Ľà¦° à¦ĸ
Ġà¦ľà¦¨à¦¸ à¦®à¦°
à¦ħà¦² à¦Ļ
Ġà¦ħà¦¬à¦¨ à¦®à¦¨
Ġc h
Ġc r
Ġc ur
à§ĭ!âĢĿ âĢĶ
Ġà¦ıà¦°à¦ĩ à¦®à¦§
Ġb l
Ġb ut
Ġà§© à§§
Ġà¤ ®
Ġà¦ıà¦« à¦¬
Ġh and
Ġh ere
Ġà¦¸à¦² à¦®à¦¨
ĠA r
Ġd e
om es
Ġà¦¨à¦ĵ à¦Ĺ
Ġà¦®à¦¤à¦²à¦¬ à¦Ł
à§§à§¯à§ ©
ĠB eng
à¦¦à¦¬à¦¦ à¦²
ĠâĢ¦ .
Ġà§§à§® à§¦à§§
Ġà§« à§¬
ĠI s
ĠI nd
us ed
Ġà§ª à§¦
ur u
ur y
Ġà§§à§Ń à§Ńà§®
à¦ıà¦¨ à¦ı
Ġà¦ĩà¦¨à¦« à¦°à¦®
Ġà§Ń à§«
ĠT agore
à¦¯à¦Łà¦ķ à¦¦
ri tic
Ġà¦¬à¦Ľ à¦°à¦ķ
Ġà§® à§¦
à§¯à§ Ń
ad y
ĠÐ ¿
Ġà§§à§¯à§¨ à§¯
Ġà¦ıà¦ĩà¦ļ à¦ıà¦®à¦ıà¦¸
Ġà¦ĵà¦ĩà¦°à¦ķà¦® à¦ĩ
à¦ķà¦ľà¦®à¦ķ à¦ª
Ġyou r
à¦ĩà¦· à¦·
à¤¹ à¤°
Ġne w
Ġà¦¥à¦ĩ à¦¥à¦ĩ
Ġà§¯à§ «
Ġà¦Ĩà¦īà¦² à¦¦
ĠU n
ight ing
Ġà¦ħà§Ł à¦¨à¦ķ
ĠRup ali
ak e
sh ip
Ġà§ªà§¦à§¦ à§ª
à¦¦à¦« à¦¤à¦°
ĠY ou
rah m
Ġà¦¶à¦°à¦¶ à¦¯
; âĢĶ
A C
A L
E D
E N
E R
M y
N A
O O
T h
a w
b o
c l
e x
e al
e ver
h r
i x
i le
i tion
i ous
j ec
k ing
l ed
n a
n e
n g
p e
p le
r it
r ul
r ough
t s
t em
u g
v el
v as
w e
x x
Ã ¡
Ä ±
Î µ
Ð º
Ñ ĩ
Ñ Į
× ¢
Ø Ń
á ŀ
Ġ X
Ġ à§İà¦ķ
Ġ à§İà¦ªà¦°
Ġ ĠĠĊĠĠ
Ġ ri
Ġ ro
Ġ ill
Ġ Ú©
à§ĩ ]
à§ĩ ÂŃ
à¦° à¦ĩà¦²
à¦¤ à¦²à¦¬
à¦¤ à¦¸à¦¨
à¦¤ à¦¸à¦Ļ
à¦¤ à¦ªà¦¥
à¦¤ à§İà¦ªà¦°
à¦² à¦ªà¦¨
à¦² à¦ıà¦ĩ
à¦² à¦®à¦¯
à¦² à¦ªà¦ķ
à¦² à¦ıà¦ķà¦Ł
à¦² à¦¸à¦Ł
à¦² à§İà¦ľ
à¦ķ à¦ªà¦°
à¦ķ à§İ
à¦ķ à¦ªà¦¨
à¦ķ à¦¸à¦²
à¦¯ à¦¡
à¦¯ à¦¦à¦°
à¦¯ à¦§à¦¨
à¦¯ à¦ľà¦¯
à¦¯ à¦¹à¦®
à¦¬ à¦ĩà¦¤
à¦¬ à¦ĸà¦°
à¦¬ à¦Ĺà¦£
à¦¬ à¦īà¦¯
à¦¼ ...
à¦® à¦¢
Ġà¦ķ à¦Łà¦ķ
Ġà¦ķ à¦¸à¦°à§İ
à§ĭ )
à§ĭ à¦¾
à§ĭ âĢĿâĢĶ
à§ĭ ...âĢĿ
Ġà¦¸ à¦ĩà¦¯
Ġà¦ª à¦ł
à¦¸ à¦¬à¦²
à¦¸ à¦¦à¦¨
à¦¸ à¦°à¦Ł
à¦¸ à¦ļà¦°
Ġà¦Ĩ à¦ļà¦²
à¦Ł à¦¬à¦¨
à¦Ł à¦°à¦¦
à¦Ł à¦®à¦°
à¦Ł à¦Ńà¦°
à¦¦ à¦°à¦¤
à¦¦ à¦Ĺà¦²
à¦¦ à¦¨à¦¬
à¦¦ à¦ľà¦Ĺà¦¤
à¦ĩ à¦ľà¦Ł
à¦ĩ à¦¶à¦¤
à¦ĩ à¦·à¦Ĺ
à¦ĩ à¦ıà¦ķà¦¬
Ġà¦¨ à¦ľà¦¨
Ġà¦¨ à¦°à¦¬
Ġà¦¨ à¦°à¦ª
Ġà¦¨ à¦¬à¦¸
Ġà¦¨ à¦§à¦°
Ġà¦¨ à¦ĸà¦°
Ġà¦® à¦ķà¦¬
Ġà¦® à¦Ĺà¦¨
Ġà¦® à¦Ĺà¦Ł
Ġà¦® à¦¸à¦¨à¦¦
à¦Ľ à¦ľ
à¦Ľ à¦ĸ
à¦Ľ à¦§à¦°
Ġà¦¦ à¦®à¦Ł
à¦ª à§Ł
à¦ª à¦®à¦¨
à¦ª à¦Ĺà¦¨
à¦ª à¦²à¦¸
Ġà¦ı à¦¨à¦Ł
Ġà¦¤ à¦ļ
Ġà¦¤ à¦ŀ
Ġà¦¤ à¦Ľà¦°
Ġà¦¤ à¦®à¦¸
à§Ģ âĢĿâĢĶ
Ġà¦¹ à¦°à¦¤
Ġà¦¹ à¦°à¦¬
Ġà¦¹ à¦¦à¦¯
Ġà¦¹ à¦īà¦¨
à¦ľ à¦°à¦£
à¦ľ à¦¬à¦¦
à¦¼à§ĩ à¦¾
âĢ ĭ
à¦¶ à¦¬à¦°
à¦¶ à¦ķà¦Ł
à¦¶ à¦°à¦ķà¦°
à¦ĸ à¦ķà¦ĩ
à¦Ĺ à¦°à¦¤
à¦Ĺ à§İ
à¦Ĺ à¦ľà¦¨
à¦Ĺ à¦°à¦¸
à¦Ĺ à¦ķà¦¨
à¦Ĺ à¦ªà¦¥
à¦Ĺ à¦«à¦²
à¦Ĺ à¦£à¦ķ
à¦· à¦¨à¦ĵ
à¦· à¦¸à¦®
Ġà¦ħ à¦ĸà¦¨
à¦¡ à¦¬à¦¸
à¦¡ à¦¬à¦¬
à¦¡ à¦ķà¦Ń
à¦¡ à¦¸à¦ĵ
Ġà¦¯ à¦¡
Ġà¦¯ à¦¤à¦¨
à¦§ à¦ĸ
à¦§ à¦°à¦ķ
à¦§ à¦°à¦¬
à¦§ à¦¬à¦ª
à¦§ à¦Ĺà¦¤
à¦§ à¦ªà¦¤
à¦§ à¦¸à¦¤
à¦ļ à¦ŀ
à¦ļ à¦°à¦ķ
à¦ļ à¦ĺ
à¦ļ à¦¨à¦ĵ
Ġà¦Ĺ à¦ľà¦¸
à¦¹ à¦¡
à§Ł à¦ĸ
à¦£ à¦ľà¦¯
à¦¥ à¦ĸ
à¦¥ à¦£
à¦¥ à¦²à¦Ĺ
Ġà¦¶ à¦·
Ġà¦¶ à§Ł
Ġà¦¶ à¦£
Ġà¦¶ à¦®à¦¶
Ġà¦¶ à¦°à¦¸à¦¨
à¦ģ !
à¦ģ à¦¾
Ġà¦ļ à§ľà¦¤
Ġà¦ļ à§ľà¦ķ
Ġà¦Ń à¦£à¦ĩ
Ġà¦Ń à§İà¦°
Ġà¦° à¦ĵà§Ł
Ġà¦° à¦¨à¦ķ
Ġà¦° à¦¶à¦®
Ġà¦° à¦¦à¦¬à¦¦à¦²
à¦ĵ à¦ªà¦°
à¦ĵ à¦ĩà¦Ł
Ġà¦ıà¦ķ à¦ķà¦Ń
Ġà¦ıà¦ķ à¦ıà¦ķà¦¦
Ġà¦ıà¦ķ à¦ıà¦ķà¦¬
à¦Ń à¦ļ
à¦Ń à§İà¦¸à¦¤
à¦¼à¦¾ à¦¾
à¦¼à¦¾ !âĢĿ
Ġà¦Ľ à¦¶
Ġà¦Ĩà¦® à¦Ł
Ġà¦Ĩà¦® à¦°à¦£
à¦ł à¦ł
Ġà¦¬à¦² à¦ķ
Ġà¦ī à¦¶à¦ķ
Ġà¦ī à¦ĩà¦¶
Ġà¦Ĩà¦° à¦«
Ġà¦Ĩà¦° à¦¬à¦¦
à§ĥ .
à¦¾à¦ģ âĢĵ
à¦Ļ à¦Ĺ
Ġà¦² à¦¹
Ġà¦² à¦¬à¦¨
Ġà¦² à¦ķà¦²à¦ķ
âĢĶ -
âĢĶ âĢĵ
Ġà¦« à¦·
Ġà¦ĸ à¦¸à¦¤
Ġà¦ĸ à§İà¦¨
ĠâĢ į
Ġà¦§ à¦¨à¦²
à¦°à¦¤ à¦¸
Ġà¦ħà¦¨ à¦Ļ
Ġà¦¸à¦® à¦®
Ġà¦ĺ à¦°à¦®à¦¯
à¦ªà¦° à¦ªà¦°
Ġà¦®à¦¨ à¦ľ
Ġà¦®à¦¨ à¦®à¦¤
à¦« à¦°à¦¸
âĢĻ :
à¦°à¦£ à¦¶
à¦¬à¦¨ à¦°à¦ķ
à¦Ŀ à¦¸
à¦ŀ à¦ķà¦°
à¦ı à¦¸à¦ª
à¦ī à¦ĺ
à¦ī à¦ªà¦¤
à¦ī à¦¦à¦¯
à¦ī à¦¬à¦¯
à¦ī à¦ľà¦ª
Ġà¦¸à¦¬ à¦ĵ
Ġà¦¸à¦¬ à¦ķà¦¥
à¦ªà¦¨ à¦ĩ
Ġà¦¹à¦² à¦°
Ġà¦¹à¦² à¦ĩ
à¦¿, -
ĠâĢľ âĢĺ
Ġà¦Ĩà¦Ľ à¦¨
à¦Ĩ à¦ĺ
à¦Ĩ à¦°à¦¨
à¦Ĩ à¦¨à¦ķ
à¦Ĩ à¦ªà¦Ł
à¦Ĩ à¦ĩà¦¶
Ġà¦ĩ à¦Ľ
Ġà¦ĩ à¦¬à¦¨
Ġà¦ıà¦¬ à¦®
à¦¼à¥¤ (
Ġà¦ľà¦¨ à¦¬à¦²
Ġà¦®à¦¤ à¦ķ
Ġà¦§à¦° à¦¨à¦Ł
âĢĵ à¥¤
à¦ĺ à¦®à¦¯
à¦·à¦£ à¦¨
à¦·à¦£ à¦¹
à¦·à¦£ à¦¸à¦¹
Ġà¦Ĩà¦Ĺ à¦°à¦¤à¦²
à¦¬à¦² à¦ļ
à¦¬à¦² à¦ĵ
à¦¬à¦² à¦¤à¦°
à¦ķà¦° à¦°
Ġà¦¢ à¦ª
à¦ķà¦Ł à¦¬à¦¤
à§ģà¦ģ âĢĻ
Ġà¦¬à¦¨ à¦Ľ
Ġà¦Ĺà¦² à¦¬
à¦¸à¦¬ à¦ķà¦Ł
Ġà¦ħà¦¸ à¦«à¦²
à§ĩ? "
à¦°à¦¸ à¦Ł
à¦¨à¦ĵ à¦ª
Ġà¦¹à¦¤ à¦ļ
à¦¤à¦¨ à¦¯
à¦ķà¦¤ à¦²
Ġà¦¬à¦° à¦ª
Ġà¦¬à¦° à¦Ĺ
Ġà¦¬à¦° à¦¬à¦°
à¦Ĺà¦² à¦®
à¦Ĺà¦² à¦ĵ
à¦Ĺà¦² à¦ķà¦°
à¦¿à¦Ĥ !âĢĻ
à¦¬à¦¤ à¦²
Ġà¦®à¦¹ à¦°à¦®
à¦ħ à¦ªà¦¤
à¦ħ à¦Łà¦²
à¦ħ à¦ľà¦¸
à¦ħ à¦¸à¦®à¦¯
à¦ħ à¦¬à¦ľ
à¦ħ à¦§à¦®
à¦¦à¦° à¦ĩ
à¦ĩà¦² à¦Łà¦°
Ġà¦īà¦ª à§ľ
à¦Ĺà¦¤ à¦¬
à¦Ĺà¦¤ à¦¸
Ġà¦ķà¦² à¦¨
à¦®à¦¤ à¦ĩ
à¦¯à¦ķ à¦ķ
à¦¶à¦¨ à¦°
Ġà¦ľà¦² à¦ĺ
Ġà¦ľà¦² à¦§à¦°
Ġà¦¸à¦° à¦ªà¦ŀ
à¦²à¦¬ à¦¸
à¦¨à¦¬ à¦¯
à¦¨à¦¬ à¦¬
à¦¨à¦¬ à¦¦à¦¨
Ġà¦ħà¦ª à¦¯
Ġà¦¸à¦¹ à¦¶
à¦²à¦¨ à¦¦
à¦°à¦¦ à¦¦
à¦¦à¦¨ à¦ķà¦ķ
à¦§à¦¨ à¦¦
à¦ªà¦¤ à¦®
à¦ıà¦ĩ à¦¸à¦¬à¦ĩ
à¦¯à¦¤ à¦¤
à¦¯à¦¤ à¦ĵ
à¦Łà¦ķ à¦¯
à¦Łà¦ķ à¦ĵ
Ġà¦ķà¦® à¦¬à¦¯
à¦¹à¦² à¦ª
âĢ¦ âĢ¦
à¦¨à¦¨ à¦ķ
à¦¸à¦¨ à¦ªà¦¤
à¦°à¦ĵ à¦°
à¦°à¦ĵ à¦¨
à¦¾? âĢĶ
Ġà¦¬à¦ĩ à¦ªà¦¡
à¦¤à¦² à¦®
à¦¤à¦² à¦§
à¦°à¦ª à¦¤à¦¨
à¦¸à¦® à¦¬
Ġà¦ħà¦ļ à¦²à¦¤
à¦·à¦ķ à¦¶
à¦¬à¦¦ à¦®
Ġà¦«à¦² à¦²
à¦¯à¦® à§Łà¦¤
à¦¤à¦ķ à¦¦
à¦¤à¦ķ à¦¥
à¦¿à¦ĥ âĢĵ
à¦¦à¦² à¦ª
Ġà¦ªà¦¦ à¦ªà¦²
à§° à¦ª
à§° à¦¬à¦¨
à§° à¦¯à¦ľ
Ġà¦ıà¦ķà¦¬ à¦¸
à¦¿à¦ģ -
à¦¬à¦¸ à¦²
Ġà¦Ĳ à¦¯
Ġà¦Ĳ à¦¦
à§ģâĢĻ âĢĵ
Ġà¦°à¦Ļ à¦ļà¦Ł
Ġà¦ıà¦ķà¦¦ à¦«
à¦Łà¦² à¦Ł
Ġà¦Ĩà¦§ à¦¶
Ġà¦Ĩà¦§ à¦¹
Ġà¦Ĩà¦§ à¦®à¦¯
ĠâĢĶ âĢľ
ĠâĢĶ âĢĶâĢĶ
Ġà¦ħà¦Ĺ à¦£à¦¨
Ġà¦ħà¦² à¦Ł
à§ģà¦ĥ !
Ġà¦Ńà¦¬ à¦Ń
à¦ĸà¦¬ à¦ĩ
à¦¹à¦¨ à¦Ĺà¦ŀ
à¦ĩà¦Ł à¦ª
à¦ĩà¦Ł à¦Ń
?âĢĿ ,
?âĢĿ à¥¤
à¦ķà¦¨ à¦«
Ġà¦Ī à¦²à¦ķ
à§ĩâĢĵ âĢľ
à¦ªà¦¸ à¦¹
à¦¨à¦¸ à¦ª
à¦°à¦Ĺ à¦Ł
à¦¬à¦¶ à¦¤à¦ĩ
Ġà¦īà¦² à¦«
à¦¦à§Ł à¦ĩ
Ġà¦¸à¦®à§Ł à¦ĵ
Ġà¦¦à¦°à¦ķ à¦·
Ġ( !)
Ġà¦ıà¦¨ à¦¡
Ġà¦¦à¦² à¦ĩ
à¦°à¦®à¦£ à¦¸
à¦°à¦®à¦£ à¦¸à¦Ļ
à¦¼à§Ģ -
à¦¼à§Ģ ?
à¦«à¦² à¦ĩ
à¦Łà¦¬ à¦ĩà¦¯
à¦Łà¦¬ à¦ĩà§Ł
Ġà¦¸à¦¹à¦ľ à¦¤à¦°
à¦°à¦¹à¦£ à¦ĩ
Ġà¦Ĩà¦ª à§İà¦ķ
à¦ľà¦ķ à¦¸
à§İà¦¸ à¦ķà¦°
à¦·à¦® à¦Ń
Ġà¦¦à¦¶ à¦Ĺ
Ġà¦ķà¦· à¦Ľ
Ġà¦ľà¦¬ à¦ľà¦¬
à¦łà¦ķ à¦ĩ
à¦ªà¦£ à¦ĵ
à¦®à¦¹ à¦¦
Ġà¦¨à¦°à¦® à¦Ń
à¦ĩà¦Ń à¦ĵà¦¯
Ġà¦Ĺà¦£ à¦ª
à¦¬à¦Ľ à¦°à¦ĩ
à¦¾à¥¤âĢĻ âĢĻ
à¦¾âĢĻ !
Ġà¦¸à¦°à¦² à¦®à¦¤
à¦ķà¦ľà¦¨ à¦ĩ
à¦ķà¦°à¦£ à¦Ł
à¦¯à¦Ń à¦Ļ
à¤ ¡
à¤ ¬
à¦°à¦° à¦ļà¦¨
à¦¡à¦¬ à¦ľ
à¦¡à¦¬ à¦ľà¦¨à¦¨
Ġà¦ļà¦¨ à¦®à¦¨
à¦°à¦« à§İ
à§ĩâĢ¦ à¥¤âĢĻ
à§ĩâĢ¦ ?âĢĿ
à¦ķà¦Ĺ à¦®à¦¨
à¦£à¦¬ à¦§
à¦®à¦ª à¦ŀ
à¦¿à¥¤âĢĻ âĢĿ
Ġà¦ıà¦°à¦ķà¦® à¦Ń
à¦ļà§Ł à¦ªà¦¤
Ġà¦«à¦° à¦ĵà¦¯
à§Ŀ à¦ª
Ġà¦· à¦Ł
Ġà¦ľà§Ł à¦¦
à¦¿âĢĻ !
à§¨ à§Ń
.. à¥¤
Ġà¦Ĩà¦ļà¦°à¦£ à¦Ĺà¦¤
à¦²à¦ª à§ľ
Ġà¦Ĳà¦ķ à¦®à¦¤
in s
in at
in ation
Ġà¦¹à¦ĩ à¦ļ
à¦¬à¦ľà¦¨ à¦°
à¦¬à¦ľà¦¨ à¦Ĺ
à¦Łà¦¸ à¦¸
à¦ĩà¦ª à¦Ĺ
Ġà¦Ĩà¦« à¦°
Ġà¦Ĩà¦« à¦¨
Ġà¦«à¦Ł à¦ķà¦Ł
à¦¬à¦°à¦¤ à¦¤
à¦¬à¦¨à¦ķ à¦£
Ġà§¨ à§¯
Ġà¦Ķ à¦ļ
Ġà¦Ĩà¦Ł à¦¤à¦²
à¦ıà¦¸ à¦ıà¦¸à¦¸
à¦ĺà¦Łà¦¨ à¦ªà¦Ł
Ġà¦¬à¦¦ à¦¹à¦ľà¦®
on d
à§Ń à§¦
à¦¿âĢ¦ à¥¤âĢĻ
à¦¯à§Ł à¦ķ
Ġà¦īà§ľ à¦¬
à¦¯à¦°à¦ķà¦® à¦Ń
à¦¿âĢĿ !
à¦¿!âĢĿ âĢĶ
Ġà¦Ĩà¦°à¦¬ à¦¸à¦®
à¦Ĩà¦ķ à¦¬à¦°
Ġà¦Ńà¦°à¦¤ à¦Ĺ
Ġth an
es ti
à¦Ŀà¦ķ à¦Ŀà¦ķ
or d
Ġà¦Ĺà¦łà¦¨ à¦®
Ġs un
Ġs ome
à§¬ à§©
is e
Ġà¦ķà¦¬à¦° à¦Ł
à¦īà¦¬ à¦ĵà§Ł
Ġà¦®à§İà¦¸ à¦ľ
Ġthe m
Ġà¦ħà¦¬à¦¨ à¦®
Ġc all
Ġc ould
Ġà¦¨à§ľ à¦ļà§ľ
Ġb ir
Ġà¦ĩà¦ī à¦¥
and a
Ġà§© à§«à§¦
Ġà¤ °
à§ĭâĢ¦ à¥¤
Ġh all
Ġa b
Ġà¦¨à¦Ĺ à¦°à¦ª
Ġà¦ľà¦¨à¦Ĺà¦£ à¦®à¦¨
Ġà¦¨à¦ķà¦² à¦ķ
à¦¶à¦¶ à¦§à¦°
ĠA c
Ġof f
à¦®à¦« à¦²à¦¤
ic ation
ĠS t
Ġà¦ķà¦¦à¦® à¦Ľ
Ġà¦ķà¦¦à¦® à¦Ĺ
ol og
à§§à§¯à§ ¨
áĥ ķ
ĠB har
Ġl ike
Ġin ter
Ġà§§à§¯à§ª à§®
Ġà¦ªà¦¥à¦ļ à¦²à¦¤
ĠM y
os a
ur ga
Ġà¦īà¦ĩ à¦²à¦ķ
Ġà§§à§Ń à§«à§Ń
ĠD urga
Ġe y
Ġà¦Ĺà¦Ĺà¦¨ à¦®à¦£
id enti
Ġà§§à§¨ à§¦
Ġà§¨à§¦ à§Ń
Ġà§¨à§¦ à§§à§¦
Ġà§¨à§¦ à§«à§¦
ĠN az
ĠN ighting
im ent
ir st
Ġre g
Ġà¦ĸà§ľ à¦ĸà§ľ
Ġà¦ħà¦ĺà¦Łà¦¨ à¦ĺà¦Łà¦¨à¦ªà¦Ł
ĠÐ ·
ĠØ ª
Ġà§§à§¯à§¦ à§Ń
à§§à§Ń à§«à§¬
Ġà§§à§¯à§¬ à§Ń
Ġà§§à§¯à§¬ à§®
Ġr el
à¦¦à¦ļ à§Łà¦¨
Ġà§§à§¯à§® à§§
har ma
Ġit s
Ġà¦°à¦Ĺ à¦ļà¦Ł
à¦ĩà¦¨à¦« à¦°à¦®
Ð¾ Ð»
ĠÙ ħ
Ġcon s
à§ĩ. à¥¤
à¦īà¦Ńà§Ł à¦ĩ
Ġne igh
TE D
Ġà§¯à§ ¦
ÑĢ Ð°
ali z
ear s
Ġà¦Ĭà¦¨ à¦ļà¦²
dig ital
à§įà§į à§įà§į
éŁ¿éŁ¿éŁ¿éŁ¿éŁ¿éŁ¿éŁ¿éŁ¿éŁ¿éŁ¿éŁ¿éŁ¿éŁ¿éŁ¿éŁ¿éŁ¿éŁ¿éŁ¿éŁ¿éŁ¿éŁ¿éŁ¿éŁ¿éŁ¿éŁ¿éŁ¿éŁ¿éŁ¿éŁ¿éŁ¿éŁ¿éŁ¿ éŁ¿éŁ¿éŁ¿éŁ¿éŁ¿éŁ¿éŁ¿éŁ¿éŁ¿éŁ¿éŁ¿éŁ¿éŁ¿éŁ¿éŁ¿éŁ¿éŁ¿éŁ¿éŁ¿éŁ¿éŁ¿éŁ¿éŁ¿éŁ¿éŁ¿éŁ¿éŁ¿éŁ¿éŁ¿éŁ¿éŁ¿éŁ¿
Ġor ig
à¦ķà¦Ŀ à¦²à¦ķ
af i
ĠPar g
Â· Â·
æŃĵæŃĵæŃĵæŃĵæŃĵæŃĵæŃĵæŃĵæŃĵæŃĵæŃĵæŃĵæŃĵæŃĵæŃĵæŃĵ æŃĵæŃĵæŃĵæŃĵæŃĵæŃĵæŃĵæŃĵæŃĵæŃĵæŃĵæŃĵæŃĵæŃĵæŃĵæŃĵ
au gh
Ġle arning
Ġà¦¸à§ľ à¦ķà¦Ł
Ġà¦²à¦Ľ à¦®à¦¨
Ġtr ans
Ġgod s
áĥĶ áĥ
ĠRah im
Ġcontin u
Ġà¦ªà¦ĩà¦¸ à¦ĩ
Ġsam osa
à¦¡à¦¸à¦ĵ à¦ħà§°
ĠNaz rul
ĠNighting ale
) !
, "
- âĢĶ
- âĢľ
? "
? .
? à¥¤
? âĢĵ
A B
A M
B oss
C O
C U
O R
P r
R I
R U
S P
S TEM
V R
a il
a ther
b r
c o
c ol
c ra
e b
e at
k s
k nown
l s
m in
m ur
n ung
o b
o at
o ol
p en
r on
r es
r ic
r ish
s o
t o
t en
u ch
v a
y th
Ã ¤
Ã ¼
Ï ĥ
Ð ·
Õ ½
Ø ³
à ±
â ģ
å ķ
æ ĭ
ê °
ì Ŀ
Ġ 2
Ġ 6
Ġ x
Ġ z
Ġ à§°
Ġ ver
Ġ ess
Ġ if
Ġ our
Ġ identi
ĭ ľ
ķ ×
Ġà¦ ģ
à¦¾ ï»¿
à§ĩ à¦¾,
à§ĩ à¥¥
à¦° à¦ł
à¦° à¦°à¦¶
à¦° à¦ļà¦ķ
à¦° à¦Ĩà¦ļà¦°à¦£
à¦¨ à¦Ĺà¦²
à¦¨ à¦®à¦²
à¦¨ à¦°à¦¦
à¦¨ à¦®à¦°
à¦¨ à¦¶à¦Ł
à¦¤ à¦Ŀ
à¦¤ à¦²à¦ķ
à¦¤ à¦¹à¦¸
à¦¤ à¦®à¦°
à¦¤ à¦¸à¦°
à¦¤ à¦§à¦°
à¦¤ à¦·à¦Ł
à¦¤ à¦¸à¦®à¦¸
à¦¤ à¦Ĩà¦Ł
à¦² à¦·
à¦² à¦Ĺà¦¤
à¦² à¦¨à¦¬
à¦² à¦ļà¦ķ
à¦² à¦¸à¦«
à¦² à§Łà¦Ĺ
à¦² à¦ĺà¦¡
à¦² à¦°à¦¤à¦¨
à¦ķ à¦Ļ
à¦ķ à¦·à¦£
à¦ķ à¦Ĩà¦®
à¦ķ à¦®à¦°
à¦ķ à¦¨à¦Ł
à¦ķ à¦ľà¦®
à¦ķ à¦Ĩà¦īà¦Ł
à¦¯ à¦¶à¦¬
à¦¯ à¦«à¦²
à¦¯ à¦²à¦Ĺ
à¦¯ à¦ľà¦®
à¦¬ à¦¬à¦¨
à¦¬ à¦Łà¦°
à¦¬ à¦īà¦Ł
à¦¼ âĢĿ-
à¦® à¦¬à¦¤
à¦® à¦¸à¦°
à¦® à¦®à¦Ĺ
à¦® à¦®à§Ł
à¦® à¦ļà¦Ł
à¦® à¦Ńà¦Ļ
à¦® à¦łà¦¤
à§ĭ âĢĿ,
Ġà¦¬ à¦¨à¦¤
Ġà¦¬ à¦°à¦¸
Ġà¦¬ à¦īà¦¨
Ġà¦¬ à¦ĸà¦°
Ġà¦¬ à¦¦à¦¤
Ġà¦¬ ab
à¥ ĥ
à¥¤ .
Ġà¦¸ à¦ĸà¦¨
Ġà¦¸ à¦°à¦®
Ġà¦¸ à¦ĩà¦²
Ġà¦¸ à¦¸à¦Ļ
Ġà¦¸ à¦§à¦¬
Ġà¦¸ à¦²à¦Ń
Ġà¦¸ à¦ĵà¦Ĺ
Ġà¦ª à¦Ĺ
Ġà¦ª à¦¨à¦°
à¦¸ à¦ªà¦°
à¦¸ à¦ħ
à¦¸ à¦¦à¦°
à¦Ł à¦¥
à¦Ł à¦Ļ
à¦Ł à¦Ĩ
à¦Ł à¦ªà¦¦
à¦Ł à¦°à¦ĵ
à¦Ł à¦¬à¦ķ
à¦¦ à¦ªà¦¦
à¦¦ à¦²à¦¬à¦¦
à¦ĩ à¦ķà¦°
à¦ĩ à¦®à¦°
à¦ĩ à¦ªà¦Ł
à¦ĩ à¦«à¦²
à¦ĩ à¦®à¦¸
à¦ĩ à¦ľà¦¯
à¦ĩ à¦ľà¦®
à¦ĩ à¦ľà¦¨à¦ķ
à¦ĩ à¦ĵà¦¨
Ġà¦¨ à¦¬à¦ķ
Ġà¦¨ à¦ĵà¦°
Ġà¦¨ esc
Ġà¦® à¦°à¦ķ
Ġà¦® à¦ķà¦°
Ġà¦® à¦Łà¦°
Ġà¦® à¦Ľà¦²
Ġà¦® à§ľà¦ķ
à¦Ľ à¦®à¦Ľà¦®
Ġà¦¦ à¦ľ
Ġà¦¦ à¦¦à¦°
Ġà¦¦ à¦¶à¦¨
Ġà¦¦ à¦°à¦ĵ
à¦ª à¦ķà¦Ł
à¦ª à¦¸à¦¬
à¦ª à¦Ĺà¦¤
à¦ª à¦¸à¦¨
à¦ª à¦¸à¦°
à¦ª ank
Ġà¦ı à¦Ĺà¦²
Ġà¦ı à¦®à¦¤
Ġà¦¤ à¦°à¦¸
Ġà¦¤ à¦Łà¦°
à§Ģ à§ĩ
Ġà¦¹ à¦°à¦¹
à¦ľ à¦°à¦ķ
à¦ľ à¦®à¦¤
à¦ľ à¦¹à¦°
à¦ľ à¦®à¦°
à¦ľ à¦°à¦Ł
à¦¼à§ĩ à¦ĥà¥¤
à¦¶ à¦ªà¦°
à¦¶ à¦Ĺà¦²
à¦¶ à¦¦à¦°
à¦¶ à¦¸à¦®
à¦ĸ à¦Ŀ
à¦ĸ à¦Ńà¦Ļ
à¦Ĺ à¦°à¦¬
à¦Ĺ à¦¬à¦²
à¦Ĺ à¦¹à¦°
à¦Ĺ à¦¸à¦®
à¦Ĺ à¦¬à¦¦
à¦Ĺ à§°
à¦Ĺ à¦ļà¦°
à¦· à¦²à¦¤
à¦· à¦°à¦ĩ
à¦· à¦®à¦£
à¦· à¦ľà¦¨à¦ķ
à¦· à¦¸à¦¹
Ġà¦ħ à¦ĵ
Ġà¦ħ à¦°à¦®
Ġà¦ħ à¦ķà¦Ł
Ġà¦ħ à¦¦à¦°
Ġà¦ħ à¦ķà¦¬
Ġà¦ħ à¦¯à¦¯
à¦¡ à¦¯
à¦¡ à¦ľà¦¨
à¦¡ à¦¬à¦²
Ġà¦¯ à¦ļ
Ġà¦¯ à¦£
Ġà¦¯ à¦®à¦¸
à¦§ à¦°à¦£
à¦§ à¦°à¦¥
à¦§ à¦®à¦ķ
à¦§ à¦¹à¦¸
à¦§ à¦Ńà¦°
à¦ļ à¦ľ
à¦ļ à¦°à¦¤
à¦ļ à¦²à¦ķ
à¦ļ à§Łà¦¨
à¦ļ à¦ĺà¦°
Ġà¦Ĺ à¦ĺ
Ġà¦Ĺ à¦ľà¦Ĺ
Ġà¦Ĺ à¦ªà¦Ĺ
à¦¹ à¦ķà¦¤
à¦¹ à¦§à¦¨
à¦¹ à¦ķà¦¦
à¦£ à¦ªà¦°
à¦£ à¦ķà¦²
à¦£ à¦¬à¦¤
à¦£ à¦®à¦¤
à¦£ à¦ļà¦¨
à¦£ à¦¢
à¦¥ à¦°à¦ĩ
à¦¥ à¦¨à¦ķ
à¦¥ à¦²à¦Ń
Ġà¦¶ à¦ķà¦²
à¦ģ à¥¤
à¦ģ âĢ¦
Ġà¦ļ à¦°à¦¨
Ġà¦ļ à¦ĩà¦²
Ġà¦ļ à¦¬à§İ
Ġà¦ľ à¦ĸ
Ġà¦ľ à¦ªà¦¤
Ġà¦ľ à¦īà¦¨
Ġà¦ľ à¦ľà¦¸
Ġà¦ľ à¦ªà¦®
Ġà¦ľ à¦°à¦ľà¦°
Ġà¦° à¦¸à¦°
Ġà¦° à¦Łà¦²
Ġà¦° à§Łà¦¨
à¦ĵ à¦¥
à¦ĵ à¦²à¦ľ
à§ĩà¥¤ -
Ġà¦ıà¦ķ à¦¶à¦¬
Ġà¦ıà¦ķ à¦¸à¦ª
Ġà¦ıà¦ķ à¦ıà¦ķà¦¸à¦®à¦¯
à¦Ń à¦¶
à¦Ń à¦¶à¦ķ
Ġà¦Ľ à¦ĩ
Ġà¦Ĩà¦® à¦Ŀ
à¦Ĥ ?
à¦ł à¦¨à¦ķ
à¦ł à¦Ńà¦°
à¦ł à¦Ĺà§ľ
Ġà¦¬à¦² à¦ĩ
Ġà¦ī à¦ĩà¦¡
Ġà¦Ĩà¦° à¦°
Ġà¦Ĩà¦° à¦Ł
Ġà¦Ĩà¦° à¦¦
Ġà¦Ĩà¦° à¦ªà¦¨
à¦¾à¦ģ à¦¾
à¦¾à¦ģ âĢ¦
Ġà¦² à¦ĩ
Ġà¦² à¦ĸà¦¨
Ġà¦² à¦Ĩ
Ġà¦² à¦²à¦¨
Ġà¦² à¦¸à¦¸
Ġà¦² à¤¹à¤°
âĢĶ à¥¤
Ġà¦ĸ à¦°à¦¤
Ġà¦ĸ à¦Ĺà¦®
à¦¾à¥¤ âĢĵ
Ġà¦ªà¦° à¦ľ
Ġà¦§ à¦¨à¦¦
à¦°à¦¤ à¦ª
Ġà¦ħà¦¨ à¦ªà¦¨
Ġà¦¸à¦® à¦²
Ġà¦¸à¦® à¦ª
Ġà¦¸à¦® à¦ªà¦°
Ġà¦¸à¦® à¦°à¦¸
Ġà¦¸à¦® à¦®à¦°
à¦¾, âĢĶ
Ġà¦ĺ à¦¸
à§ľ à¦°
à§ľ à¦ĩ
à¦ªà¦° à¦²
Ġà¦®à¦¨ à¦¬
Ġà¦®à¦¨ à¦¶
Ġà¦®à¦¨ à¦Ĺà¦¡
à¦®à¦¨ à¦§
Ġà¦ıà¦ĩ à¦¤
Ġà¦ıà¦ĩ à¦ľ
Ġà¦ıà¦ĩ à¦¡
Ġà¦ıà¦ĩ à¦ıà¦ĩ
à¦¿à¥¤ âĢ¦
à¦« à¦¬
à¦« à¦¹
à¦« à¦Ŀ
à¦« à¦ĵà¦¯
à¦« à¦ľà¦²
à¦« à¦Ŀà¦®
âĢĻ )
Ġà¦¬à¦²à¦² à¦ľ
Ġà¦¬à¦²à¦² à¦ļ
Ġà¦¬à¦²à¦² à¦ĵ
Ġà¦¬à¦²à¦² à¦Ń
Ġà¦¬à¦²à¦² à¦¸à¦¬
à¦°à¦£ à¦¦
à¦°à¦£ à¦ª
à¦°à¦£ à¦ľà¦¨
à¦°à¦£ à¦¸à¦®
à¦¬à¦¨ à¦ļà¦°
à¦¬à¦¨ à¦®à¦°à¦£
à¦ŀ à¦Ĺ
à§İ à¦®
à§İ à¦¹
à§İ à¦ªà¦¦
à¦ľà¦¨ à¦°à¦¸
à¦ľà¦¨ à¦¤à¦²
à¦ı à¦¨à¦ķ
à¦ī à¦ĵ
à¦ī à¦Ŀ
à¦ī à¦°à¦¨
à¦ī à¦ĩà¦Ł
à¦ī à¦ľà¦Ł
à¦ī à¦ªà¦¬
à¦°à¦ķ à¦ĩ
à¦ªà¦¨ à¦ļ
à¦ªà¦¨ à¦¸à¦°
à¦ªà¦¨ à¦Ĺà¦°
à¦ªà¦¨ à¦ķà¦¥
Ġà¦Ł à¦¬à¦Ĺ
Ġà¦Ł à¦ĩà¦Łà¦®
Ġà¦¹à¦² à¦ª
Ġà¦¹à¦² à¦§à¦°
Ġà¦ķà¦¥ à¦¯
à¦¤à¦° à¦²
à¦¿, âĢĵ
à¦°à¦¬ à¦°à¦¤
à¦°à¦¬ à¦¦à¦¨
à¦°à¦¬ à¦¹à¦®
à¦Ĩ à¦ĵà¦¯
à¦Ĩ à¦Ĺà¦¤
à¦Ĩ à¦²à¦Ĺ
à¦Ĩ à¦ĩà¦ľ
à¦Ĩ à¦¦à¦¬
à¦Ĩ à¦ĩà¦ª
Ġà¦ĩ à¦¸à¦®
Ġà¦ĩ à¦®à¦ªà¦°
à¦¼à¥¤ à¥¤
Ġà¦ľà¦¨ à¦ķà¦²
Ġà¦Ĩà¦² à¦ľ
Ġà¦Ĩà¦² à¦®à¦Ĺ
Ġà¦Ĩà¦² à¦®à¦¦
Ġà¦¡ à¦²à¦¤
Ġà¦¡ à¦Łà¦ª
à§Ī !
à§Ī à¦Ĥ
Ġà¦ķà¦°à¦² à¦ķ
Ġà¦ķà¦°à¦² à¦®
Ġà¦ķà¦°à¦² à¦¸
Ġà¦ıà¦¸ à¦¤
Ġà¦ıà¦¸ à¦¡
Ġà¦ħà¦¬ à§Ł
à¦ĺ à¦¯
à¦ĺ à¦Ń
à¦ĺ à¦°à¦£
à¦ĺ à¦¢
à¦ĺ à¦ªà¦¥
à¦°à¦® à¦®
à¦°à¦® à¦ªà¦¦
à¦°à¦® à¦§à¦°
à¦·à¦£ à¦ªà¦¦
Ġà¦¬à¦¸ à¦°
Ġà¦¬à¦¸ à¦ķ
à¦¨à¦¤ à¦ĩ
à¦¬à¦² à¦Ĺ
à¦¬à¦² à¦¹
à¦¬à¦² à§Ł
Ġà¦Ĩà¦¬ à¦ķ
à¦ķà¦° à¦ª
à¦ķà¦² à¦¤
à¦ķà¦² à¦¹
à¦ķà¦² à¦¨à¦Ĺ
à¦ķà¦Ł à¦ª
à¦ķà¦Ł à¦¤à¦°
à§ģà¦ģ !
à§ģà¦ģ à¦ģ
Ġà¦¬à¦¨ à¦«
à¦¯à¦¬ à§İ
à§ĩ? -
à¦°à¦¥à¦® à¦ĩ
à¦¾à¦Ĥ âĢ¦
Ġà¦ıà¦² à¦¸
Ġà¦¹à¦¤ à¦¶
à§ĭà¦ģ âĢĻ,
à¦ķà¦¤ à¦ĩ
à§ĩà¦ģ à¥¤
Ġà¦¬à¦° à¦²
Ġà¦¬à¦° à¦ĵ
à¦Ĺà¦² à¦¨
à¦Ĺà¦² à¦¤
à¦Ĺà¦² à¦ļ
à¦Ĺà¦² à¦Ń
à¦Ĺà¦² à¦ľà¦¨à¦ķ
à¦¿à¦Ĥ à¥¤âĢĻ
à¦°à¦¨ à¦ķ
à¦¾- âĢĶ
à¦°à¦² à¦Ļ
Ġà¦ĺà¦° à¦Ńà¦°
à¦ħ à¦ĩ
à¦ħ à¦ĵ
à¦ħ à¦¤à¦²
à¦ħ à¦¥à¦°
à¦ħ à¦ľà¦¯
à¦ħ à¦ķà¦¸
à¦ħ à¦ľà§Ł
à¦ħ à¦¨à¦Łà¦¨
Ġà¦Ĩà¦¨ à¦°
Ġà¦Ĩà¦¨ à¦¯
Ġà¦Ĩà¦¨ à¦¹
à¦ĩà¦² à¦ĵ
Ġà¦īà¦ª à¦²
Ġà¦īà¦ª à¦Ľ
Ġà¦īà¦ª à¦Ĺà¦¤
Ġà¦ħà¦¤ à¦ĩ
Ġà¦¸à¦¨ à¦ķ
Ġà¦ıà¦®à¦¨ à¦¤
Ġà¦ıà¦®à¦¨ à¦¸à¦®à¦¯
à¦¤à¦¬ à§İ
Ġà¦ķà¦² à¦ª
à¦ĸà¦² à¦Ń
à¦®à¦¤ à¦²à¦¬
à¦¯à¦ķ à¦¶
Ġà¦ľà¦² à¦Łà¦²
Ġà¦ľà¦² à¦¤à¦°à¦Ļ
à¦ļà¦¨ à¦ļ
à¦ļà¦¨ à¦Ńà¦Ļ
à¦ªà¦¦ à¦¸à¦Ļ
à¦¹à¦¸ à¦®
Ġà¦ıà¦¤ à¦ľà¦¨
à¦°à¦¹ à¦®à¦¤
à¦°à¦¹ à¦¨à¦ķ
à¦°à¦¹ à¦Ńà¦°
à¦²à¦¬ à¦¦à¦¨
à¦°à¦ľ à¦¯
à¦°à¦ľ à¦¡
à¦°à¦ľ à¦Ĺà§İ
Ġà¦ĵà¦ªà¦° à¦Ł
à¦²à¦¨ à¦Ł
Ġà¦¹à¦ł à¦¤
à¦°à¦¦ à¦¸
à¦°à¦¦ à¦Ł
à¦¦à¦¨ à¦§
à¦ĩà¦¨ à¦ĵà¦¯
à¦¾âĢĶ âĢĻ
à¦§à¦¨ à¦°
Ġà¦īà¦¤ à¦·
à¦ıà¦ĩ à¦Ĺ
à¦ıà¦ĩ à¦ļà¦¡
à¦Łà¦ķ à¦®
à¦Łà¦ķ à¦ĩ
à¦Łà¦ķ à¦ļ
Ġà¦ķà¦¬ à¦Ľà¦°
Ġà¦ķà¦® à¦ĵ
à¦¹à¦² à¦¹
âĢ¦ ?
à¦¸à¦¨ à¦Ł
à¦¸à¦¨ à¦ĩ
à¦Ńà¦¬ à¦Ł
à¦Ńà¦¬ à¦ªà¦°
Ġà¦ķà¦¤ à¦¶à¦¤
Ġà¦¬à¦Ľà¦° à¦Ł
Ġà¦ľà¦® à¦ľ
à¦ļà¦² à¦Ľ
Ġà¦īà¦¨ à¦ļà¦²
à¦®à¦£ à¦Ł
à¦¨à¦ķ à¦£
à¦¨à¦ķ à¦°à¦£
à¦¤à¦² à¦ĵà¦¯
Ġà¦¬à¦¹ à¦ĩ
à§Ģ, âĢĻ
à¦¿âĢĶ âĢĻ
à¦°à¦Ł à¦²
à¦·à¦ķ à¦®à¦£
à¦·à¦¤ à¦®
à¦·à¦¤ à¦¸
à¦¯à¦® à¦¶
Ġà¦ħà¦¥ à¦ĩ
Ġà¦ĩà¦¨ à¦Ńà¦²à¦Ń
à¦¸à¦° à¦°
à¦¸à¦° à¦ŀ
à¦¸à¦° à¦ĺà¦°
à¦¿à¦ĥ âĢĶ
Ġà¦ħà¦® à¦²à¦¬
Ġà¦ªà¦¦ à¦®
Ġà¦ªà¦¦ à¦¤à¦²
à¦Ĺà¦° à¦°
à§° à¦Ĺ
à§° à§Ł
à§° à¦ªà¦°
Ġà¦Ľà¦¬ à¦Ľà¦°
à¦ıà¦ķ à¦°à¦ķà¦®
à¦¤à¦® à¦¬
Ġà¦ħà¦ªà¦° à¦ªà¦ķ
Ġà¦¶à¦° à¦¬à¦°
à¦®à¦¬ à¦§
Ġà¦Ĳ à¦ļ
Ġà¦°à¦Ļ à¦Ĺ
à¦¶à¦ķ à¦ĵ
Ġà¦ıà¦ķà¦¦ à¦£
à¦Łà¦² à¦®
Ġà¦Ĩà¦§ à¦¸
Ġà¦Ĩà¦§ à¦ĺà¦¨
à§Łà¦¨ à¦¹
à§ĩ! âĢĶ
à¦¶à¦¬ à¦ķ
Ġà¦ħà¦Ĺ à¦¨
âĢĮ âĢĮ
Ġà¦ħà¦² à¦ª
à¦¬à¦¬ à§İ
à¦¬à¦¬ à¦¶à¦¤
à¦¯à¦¸ à¦¦
à¦¬à¦ķ à¦ĵ
Ġà¦¬à¦¦à¦² à¦Ł
à¦ľà¦° à¦Ĺ
Ġà¦¬à¦²à¦¬ à§İ
à¦ĩà¦Ł à¦¹
Ġà¦īà¦ªà¦° à¦Ł
Ġà¦¶à¦¤ à¦ĸ
Ġà¦¶à¦¤ à¦§à¦®
Ġà¦Ĩà¦¡ à¦®
à¦¨à¦¸ à¦ªà¦Łà¦ķ
à¦°à¦Ĺ à¦łà¦¨
à¦ªà¦¥ à¦ĩ
Ġà¦īà¦² à¦Łà¦ª
à¦ľà¦² à¦§
à¦°à¦®à¦£ à¦¯
Ġà¦¤à¦² à¦¸
Ġà¦¤à¦² à¦ĵà¦¯
Ġà¦ĭ à¦®à¦¨
Ġà¦¸à¦¹à¦ľ à¦¸
Ġà¦¸à¦¹à¦ľ à¦¸à¦°à¦²
Ġà¦īà§İà¦¸ à¦Ĺ
Ġà¦ĺà¦¨ à¦ĺ
à¦²à¦® à§Ł
Ġà¦¬à¦ķ à¦ļ
Ġà¦¦à¦¶ à¦¹
à¦¥à¦° à¦Ĺà¦¤
Ġà¦ļà¦ķ à¦°à¦¬à¦°à¦¤
Ġà¦Ĺà§ľ à¦¨
Ġà¦Ĺà§ľ à¦Ľ
Ġà¦Ńà§Ł à¦Ł
Ġà¦ıà¦¸à¦¬ à¦ĵ
Ġà¦¬à¦ī à¦Ń
Ġà¦§à¦¨ à¦Ń
à¦²à¦Ĺ à¦¡
à¦łà¦ķ à¦ª
à¦¦à¦® à¦ł
à¦¶à¦² à¦ĵ
Ġà§ Ńà§§
à¦¼à¦Ĥ à¥¤
à¦¦à¦¸ à¦¹
Ġà¦ĵà¦ķ à¦¥
à¦ĩà¦Ń à¦¨
Ġà¦Ĺà¦£ à¦²
Ġà¦Ĺà¦£ à¦ħà¦Ń
à¦®à¦Ĺ à¦£
à¦¾à¥¤âĢĻ âĢĿ
à¦ĩà¦¡ à¦ķ
à¦ĩà¦¡ à¦Ł
à¦¹à¦°à¦£ à¦Ĺ
à¦¹à¦°à¦£ à¦ĵ
Ġà¦īà§İà¦¸à¦¬ à¦ķ
Ġà¦īà§İà¦¸à¦¬ à¦ļ
à¦¶à¦ª à¦ŀ
à¦ķà¦¸ à¦®à¦¯
à¦Ĩà¦ľ à¦Ĺ
à¦Ĩà¦ľ à¦¹
à¤ ģ
à¤ Ľ
Ġà¦°à¦¸ à¦¶
à¦ķà¦Ĺ à¦£
à¦®à¦¶ à¦ķà¦°
à¦¬à¦Ń à¦¬à¦¨
Ġà¦ķà§Ł à¦Ł
à¦¥à¦² à¦ªà¦¥
à¦¥à¦ķ à¦·
à¦¿à¥¤âĢĻ âĢĻ
à§Ŀ à¦¸
à¦ªà¦² à¦ĵà¦¯
Ġà¦®à¦¦ à¦¦
Ġà¦ľà§Ł à¦¬
à§¨ à§¬
à¦¤à¦¸ à¦ŀ
à¦ļà¦°à¦£ à¦¶
à¦ľà¦Ĺ à¦£
à¦·à§Ł à¦ĩ
in ess
à¦¬à¦ľà¦¨ à¦¨
à¦¬à¦ľà¦¨ à¦ª
Ġà¦ıà¦¡ à¦ĵà¦¯
à¦ĩà¦¦ à¦¹
an c
an y
an an
an ch
an ya
à¦īà¦¦ à¦ĺ
Ġà¦ªà¦Ł à¦ªà¦Ł
Ġà¦ķà¦ļ à¦ĵ
Ġà¦¬à¦¸à¦¨ à¦ĸ
à¦¬à¦ľ à§Ł
Ġà¦®à¦¨à¦¨ à¦¶à¦ķ
al ue
à§© à§«
à§© à§¯
Ġà¦Ķ à¦°à§İ
à¦Ī à¦¸
Ġà¦Ĩà¦Ł à¦ĺ
Ġà¦°à¦¥ à¦ļ
à¦ıà¦¤ à¦¸à¦¬
Ġà¦¶à¦ªà¦¥ à¦ĩ
à¦¿âĢĿ ,
à¦¿âĢĿ -
à¦ķà¦¶à¦¨ à¦Ł
à§ª à§§
à¦¿. à¥¤
Ġà¦Ńà¦°à¦¤ à¦°
à¦Ĺà¦¸ à¦ĩ
Ġth rough
or iz
ar s
à¦¦à¦ª à¦¤à¦¨
Ġs e
Ġs up
Ġs low
à§¬ à§§
à§¬ à§Ń
à¦Ĩà¦¶ à¦Ļ
... âĢĻ
Ġà¦ľà¦Ĺà§İ à¦¦
à¦¿,âĢĿ âĢĶ
à§Ģà¦Ĥ à¥¤
à¦Ĩà¦ĩ à¦ı
à¦Ńà¦¸ à¦ŀ
at tle
Ġc omp
Ġw ill
it a
Ġà¦¨à¦°à¦ķ à¦¬
Ġà¦¶à¦°à§İ à¦¬
à¦ķà¦ĸà¦¨ à¦ĩ
and ita
Ġà§© à§®
Ġà¤ ķ
Ġà¤ ĸ
à§® à§«
Ġm ur
Ġm ore
Ġà¦²à¦Ļ à¦ĺà¦¨
à¦Ńà¦°à¦¤ à¦¬
re cy
à§ĩâĢĿ ,
Ġà¦¨à¦Ĺ à¦°à¦ķ
à¦®à¦ķà¦° à¦¨
à¦ħà¦ª à¦¹à¦°à¦£
Ġp o
Ġà¦¸à¦² à¦Ļ
Ġà¦ĺà¦· à¦²
Ġt ri
Ġo ther
ĠA nd
Ġd r
Ġd ow
Ġd iv
Ġà§§ à§§à§Ń
ĠP H
ĠP ro
ĠP au
om m
Ġà¦®à¦¤à¦²à¦¬ à¦¬
ic k
ic al
ĠS E
ĠS h
ĠS in
Ġà¦ķà¦¦à¦® à¦«
à¦ıà¦ķà¦ĩ à¦¸à¦Ļ
ra d
à¦£à¦¸ à¦ŀ
à§§à§¯à§ ®
ĠB rahm
à¦īà¦ª à¦²à¦¬
à¦¼âĢ¦ âĢĻ
à¦¤à¦ĸ à¦°à¦ļ
Ġin d
à§ĩ) :
Ġà§§à§¯à§ª à§§
Ġà¦ĵà¦°à¦ķà¦® à¦Ł
us h
ec k
et y
Ġà¦ļà¦°à¦£ à¦¸
Ġà¦ļà¦°à¦£ à¦§
Ġà¦Ĩà¦īà¦Ł à¦¸
ĠR oh
ĠD J
ĠD harma
Ġe ater
ow s
id ual
à¦¸à¦°à¦² à¦¤
Ġg l
Ġà§Ń à§¦
ĠT ra
ul ar
ha p
ĠN andita
à¦¬à¦°à¦² à¦¹à¦°
ac tory
ĠC omp
ĠC hr
Ġà¦¹à¦ľà¦® à¦¶à¦ķ
Ġà¦ľà¦²à¦ķ à¦·
Ġà¦®à¦Ł à¦°à¦¦
ter n
ter s
Ġre c
ĠL ED
Ġà¦®à¦¦à¦¨ à¦®
à¦®à§İ à¦²
em ent
Ġà¦ĸà§ľ à¦Ĺ
Ġà¦¯à¦¬à¦¨ à¦°
Ġà§§à§¯ à§§à§§
Ġà§§à§¯ à§§à§«
Ġà§§à§« à§¦
tic k
Ġà¦Ĩà¦ĩà¦¸ à¦¸
ĠÐ º
Ġà§§à§¯à§¨ à§Ń
Ġà§§à§¯à§¨ à§¬
Ġà§§à§¯à§© à§¦
Ġà§§à§¯à§© à§¯
ĠØ ´
à¦¸à§İ à¦¤
Ġà¦Ńà¦Ĺà¦¬à¦¦ à¦Ĺ
Ð° Ñģ
Ġwh en
Ġà¦®à¦ĩ à¦§
Ġà§§à§¯à§¬ à§¬
tu re
Ġr h
Ġà¦ĸà¦¨à¦¨ à¦ķ
Ġà§§à§¯à§® à§¬
Ġà§§à§¯à§® à§¯
har e
Ġà¦Ĩà¦ī à¦Łà¦²
Ġà¦Ĩà¦ī à¦Łà¦¬
Ġà§§à§© à§«à§¦
à¦Ķ à¦¦
à¦Ķ à¦·à¦§
per s
Ġà¦¨à¦¬à¦¦ à¦®
ish ed
Ø§Ø ª
af Ã©
Ġcl ass
âĢķâĢķâĢķâĢķâĢķâĢķâĢķâĢķ âĢķâĢķâĢķâĢķâĢķâĢķâĢķâĢķ
uc inat
ĠĠĠĠĠĠĠĠĠĠĠĠĠĠĠĠ ĠĠĠĠĠĠĠĠĠĠĠĠĠĠĠĠ
Ġdis c
rav as
Ġà¦¬à¦°à¦ķ à¦¤
Ġà¦ıà¦¤à¦¬ à¦Ľà¦°
Ġwor d
áĥĺ áĥ
ĠÃ Ĺ
ĠPr ide
ä¸ Ģ
Ġti m
à¦¸à¦ĸà¦¨ à¦ĵ
Ġam ong
ĠIntellig ent
à¦¸à¦¹à¦¨ à¦¶
ĠâĨ Ĵ
Ġequ ality
SI ON
Ġà¦ıà¦®à¦Ĩà¦° à¦Ĩà¦ĩ
ĠBeng ali
ritic al
Ġill usin
ĠBhar ata
Ġey es
ĠParg iter
Ġà¦¬ab u
Ġà¦¨esc afÃ©
à¦ªank ar
Ġà¦Ĺà¦ªà¦Ĺ à¦ª
Ġmur mur
Ġdow ry
ĠRoh it
ucinat in
! "
! âĢĶ
% -
' s
' à¥¤
) :
) âĢĶ
. )
. -
. âĢĺ
1 2
? âĢ¦
A T
A dvik
B l
H O
I V
I ntellig
J oy
P S
P ro
Q R
S B
S h
S p
S olar
T u
T RU
V IN
] ,
a ve
a use
b ed
c on
c ess
c ap
d ing
f ic
g es
g ed
g ain
h n
h is
h il
i o
i ra
i os
k a
l es
m p
m er
m le
n ey
o es
o ot
o ther
p t
p id
r ot
r vas
s er
v ol
v ir
w ater
w ise
x t
y st
Â ¦
Ã ¦
Ã Ĺ
Î ±
Ï ģ
Ï Ħ
Ï ħ
Ð ¿
Õ ¡
Õ ¥
Õ ¸
Õ ¿
× ĵ
Ø ¨
Ø ª
Ù Ĥ
Ú Ĩ
à ©
Ċ ĠĠ
Ġ *
Ġ 0
Ġ 7
Ġ ..
Ġ er
Ġ à§İà¦ª
Ġ ed
Ġ el
Ġ up
Ġ QR
Ŀ áĥ
Ġà¦ ŀ
à¦¾ ]
à¦¾ à§į
à¦¾ à¦¿
à¦¾ âĢį
à¦¾ âĢķ
à§ĩ (
à¦° à¦°à¦¤
à¦° à¦ı
à¦° à¦ıà¦ĩ
à¦° à¦ıà¦ķ
à¦° à¦«à¦²
à¦° à¦Ĩà¦ªà¦¨
à¦° à¦īà¦¦
à¦° à¦īà§İà¦¸à¦¬
à¦° Ã¦
à¦¿ ..
à¦¨ à§ľ
à¦¨ à¦°à¦¸
à¦¨ à¦ķà¦¤
à¦¨ à¦°à¦ª
à¦¨ à¦¹à¦¤
à¦¨ à¦ıà¦Ł
à¦¨ à¦Ŀà¦°
à¦¨ à¦ľà§Ł
à¦¨ à¦ıà¦¤
à¦¨ à¦ıà¦ĸà¦¨à¦ĵ
à¦¨ à¦°à¦ķà¦£
à¦¤ à¦ķà¦Ł
à¦¤ à¦¤à¦¨
à¦¤ à¦¦à¦²
à¦¤ à¦ľà¦²
à¦¤ à¦¦à¦¸
à¦¤ à¦ľà¦¨à¦ķ
à¦² à¦ı
à¦² à¦¸à¦¬
à¦² à¦¹à¦°
à¦ķ à¦ļà¦¨
à¦ķ à¦ıà¦°
à¦ķ à¦®à¦ª
à¦¯ à¦²à¦ķ
à¦¯ à¦¤à¦¬
à¦¯ à¦°à¦ľà¦¨
à¦¯ à¦¹à¦¤
à¦¯ à¦¶à¦°
à¦¬ à¦ĸà¦¨
à¦¬ à¦«
à¦¬ à¦Łà¦ķ
à¦¬ à§İà¦ķ
à¦¬ à¦¸à¦°
à¦¬ à¦Ĺà¦¨
à¦¬ à¦īà¦ķ
à¦¬ à¦®à¦¶
à¦¬ à§İà¦ª
à¦® à¦Łà¦°
à¦® à¦ľà¦®
Ġà¦ķ à¦Ľ
Ġà¦ķ à¦ĵà§Ł
Ġà¦ķ à¦¦à¦²
Ġà¦ķ à¦ĩà¦¸
Ġà¦ķ à¦®à¦¨à¦¸
à§ĭ à§ĭ
à§ĭ à¦¾à¦ģ
Ġà¦¬ à¦ĵà¦¯
Ġà¦¬ à¦ķà¦¨
Ġà¦¬ à¦¦à¦¸
Ġà¦¬ à¦°à¦¬à¦£
Ġà¦¬ ung
à¥ Į
à¥¤ [
Ġà¦¸ à¦¶à¦ķ
Ġà¦¸ à¦ªà¦¥
Ġà¦¸ à¦¦à¦®
Ġà¦ª à¦¹à¦°
Ġà¦ª à¦²à¦²
Ġà¦ª à¦ĩà¦¡
à¦¸ à¦§
à¦¸ à¦°à¦®
à¦¸ à¦¸à¦¬
à¦¸ à¦Ĺà¦¤
à¦¸ à¦°à¦ĵ
à¦¸ à¦ļà¦²
à¦¸ à¦Łà¦¬
à¦¸ à¦īà¦¦
à¦¸ à¦Ńà¦Ļ
à¦¸ à¦¨à¦¤à¦¨
Ġà¦Ĩ à¦ĸà¦¨
Ġà¦Ĩ à¦ħ
Ġà¦Ĩ à¦ļà¦ķ
Ġà¦Ĩ à¦ħà¦°
Ġà¦Ĩ à¦ĩà§Ł
Ġà¦Ĩ à¦Łà¦Ĺ
Ġà¦Ĩ à¦ĸà¦ĸ
à¦Ł à¦§
à¦Ł à¦Ŀ
à¦Ł à¦ŀ
à¦Ł à¦®à¦£
à¦Ł à¦¬à¦¦
à¦Ł à¦ļà¦ķ
à¦Ł à¦¨à¦Ł
à¦Ł à¦¨à¦¦
à¦Ł à¦ķà¦Łà¦ķ
à¦Ł à¦Ŀà¦¨
à¦Ł à¦ħà¦«
à¦Ł à¦Ĩà¦īà¦Ł
à¦¦ à¦ľà¦¨
à¦¦ à¦¦à¦°
à¦¦ à¦¤à¦²
à¦¦ à¦ªà¦Ł
à¦¦ à¦ĩà§Ł
à¦¦ à¦Ńà¦Ļ
à¦¦ à¦¨à¦¤à¦¤
à¦ĩ à¦¬à¦¨
à¦ĩ à¦Łà¦ķ
à¦ĩ à¦Łà¦²
à¦ĩ à¦ĺà¦°
à¦ĩ à¦ªà¦¥
à¦ĩ à¦ªà¦¡
à¦ĩ à¦¥à¦¨
à¦ĩ à¦®à¦ª
à¦ĩ à¦ªà¦²
Ġà¦¨ à¦ĵà¦¯
Ġà¦¨ à¦°à¦²
Ġà¦¨ à¦¬à¦¤
Ġà¦¨ à¦Łà¦°
Ġà¦¨ à¦²à¦Ľ
Ġà¦¨ à¦Łà¦¬
Ġà¦¨ à¦ĩà¦¬
Ġà¦¨ à¦¬à¦²à¦¬
Ġà¦¨ à¦ŀà¦°
Ġà¦¨ à¦°à¦¹à¦¤
Ġà¦® à§°
Ġà¦® à¦Łà¦¨
à¦Ľ à¦ĵà¦¯
à¦Ľ à¦²à¦¨
Ġà¦¦ à¦®à¦²
Ġà¦¦ à¦®à¦¬
à¦ª à¦ł
à¦ª à¦ªà¦°
à¦ª à¦ªà¦¨
à¦ª à¦ļà¦¨
à¦ª à§İà¦ķ
à¦ª à¦¸à¦²
à¦ª à¦Ĩà¦²
Ġà¦ı à¦ªà¦°
Ġà¦ı à¦²à¦ķ
Ġà¦ı à¦®à¦ķ
Ġà¦ı à¦ľà¦°
Ġà¦ı à¦®à¦¡
Ġà¦¤ à¦ľ
Ġà¦¤ à¦¸à¦°
Ġà¦¤ à§İà¦ª
à§Ģ /
à§Ģ âĢĿâĢĵ
Ġà¦¹ à¦¸à¦¨
Ġà¦¹ à¦Łà¦¨
à¦ľ à¦Ŀ
à¦ľ à¦®à¦¯
à¦ľ à¦²à¦Ľ
à¦ľ à¦ªà¦°à¦®
âĢ Ĭ
à¦¶ à¦ŀ
à¦¶ à¦¬à¦²
à¦¶ à¦°à¦¦
à¦¶ à¦®à¦¯
à¦¶ à¦®à¦°
à¦¶ à¦¤à¦®
à¦¶ à¦ľà¦²
à¦¶ à¦Ńà¦°
à¦¶ à¦Ĺà¦¡
à¦¶ à¦¸à¦¹
à¦ĸ à¦°à¦ķ
à¦ĸ à¦¸à¦®
à¦Ĺ à¦®à¦¤
à¦Ĺ à¦¹à¦¨
à¦Ĺ à¦§à¦°
à¦Ĺ à¦¦à¦ķ
à¦Ĺ à¦§à¦¦
à¦· à¦°à¦¶
à¦· à¦°à¦¹
à¦· à¦ķà¦¬
à¦· à¦°à¦ĵ
à¦· à¦Ĺà¦£
Ġà¦ħ à¦°à¦¥
Ġà¦ħ à¦Łà¦ķ
Ġà¦ħ à¦¶à¦ķ
Ġà¦ħ à¦£à¦¨
Ġà¦ħ à¦Ŀà¦°
Ġà¦ķà¦° à¦°
Ġà¦ķà¦° à¦ķà¦°
à¦¡ à¦ªà¦¤
à¦¡ à§Łà¦¨
à¦¡ à¦¨à¦®
à¦¡ à¦ħà¦«
Ġà¦¯ à¦®à¦°
Ġà¦¯ à§İà¦ķ
à¦§ à¦¨à¦¤
à¦§ à¦°à¦²
à¦§ à¦°à¦ª
à¦§ à¦®à§Ł
à¦§ à¦¶à¦°
à¦§ à¦Ńà¦ķ
à¦ļ à¦·
à¦ļ à¦¬à¦¨
à¦ļ à§İ
à¦ļ à§°
à¦ļ à¦Ľà¦Ł
Ġà¦Ĺ à¦¬à¦°
Ġà¦Ĺ à¦°à¦¦
Ġà¦Ĺ à¦£à¦ķ
à¦¹ à¦¬à¦°
à¦¹ à¦°à¦¸
à¦¹ à¦ªà¦¤
à¦¹ à¦ķà¦ķ
à¦¹ à¦®à¦§
à¦¹ à¦Ńà¦Ļ
à¦¹ à¦¬à¦¶à¦¤
à¦¹ à¦ľà¦¨à¦ķà¦Ń
à¦¹ à¦²à¦¬à¦¶
à§Ł à¦¶
à§Ł à¦ķà¦°
à§Ł à¦¨à¦ĵ
à§Ł à¦¨à¦ķ
à§Ł à¦¸à¦Ļ
à§Ł à¦ķà¦¦
à§Ł à¦¡à¦«
à¦£ à¦Ŀ
à¦£ à¦°à¦ķ
à¦£ à¦£à¦ķ
à¦¥ à¦·
à¦¥ à¦ķà¦°
à¦¥ à¦¨à¦ĵ
à¦¥ à¦®à¦¯
à¦¥ à¦ķà¦¦
à¦¥ à¦¬à¦§
Ġà¦¶ à¦ĵ
Ġà¦¶ à¦°à¦ķ
Ġà¦¶ à¦ķà¦¤
Ġà¦¶ à§°
à¦ģ à¦ģ
à¦ģ âĢĻà¥¤
Ġà¦ļ à¦ĩ
Ġà¦ļ à¦Ļ
Ġà¦ļ à¦°à¦¤
Ġà¦ļ à¦°à¦ª
Ġà¦ļ à§°
Ġà¦ļ à¦°à¦Ĺ
Ġà¦ļ à§ľà¦Ľ
Ġà¦ľ à¦¦
Ġà¦ľ à¦£
Ġà¦Ń à¦ĩà¦²
Ġà¦Ń à¦¬à¦¦
Ġà¦Ń à¦ľà¦¤
Ġà¦Ń à¦Ĺà¦®
Ġà¦Ń à¦Łà¦Ń
Ġà¦° à¦¸à¦¤
Ġà¦° à¦ĩà¦Ľ
à¦ĵ à¦ľ
à¦ĵ à¦ľà¦¨
à§ĩà¥¤ (
Ġà¦ıà¦ķ à¦ĺà¦¨
à¦¼à¦¾ à¦Ĥ,
Ġà¦Ľ à¦«
Ġà¦Ľ à¦°à¦ķ
Ġà¦Ľ à¦ĵà¦¯
Ġà¦Ľ à¦ķà¦Ł
à¦ł à¦Ľ
à¦ł à¦§
à¦ł à¦¬à¦¨
à¦ł à¦ĺ
à¦ł à¦ķà¦¬
à¦ł à¦ļà¦°
à¦ł à¦²à¦Ĺ
à¦ł à¦ĸà¦¡
Ġà¦¬à¦² à¦¸
Ġà¦¬à¦² à¦¬à¦¨
Ġà¦ī à¦®à¦¦
Ġà¦ī à¦ĩà¦ª
Ġà¦Ĩà¦° à¦Ĩà¦°
Ġà¦ĵ à¦«
Ġà¦ĵ à¦¨à¦²
à§Ĥ à§į
âĢĶ ?
Ġà¦« à¦°à¦ļ
Ġà¦« à¦Łà¦°
Ġà¦ĸ à¦¶
Ġà¦ĸ à¦¸à¦Ľ
Ġà¦ĸ à¦ĩà§Ł
Ġà¦ªà¦° à¦Ń
Ġà¦ªà¦° à¦®à¦°
Ġà¦¹à¦¯ à¦°à¦¤
à¦°à¦¤ à¦ļ
Ġà¦ħà¦¨ à¦¶à¦¨
Ġà¦¸à¦® à¦®à¦¨
à¦¼à¦¿ ?âĢĿ
à¦¼à¦¿ âĢĻà¥¤
Ġà¦ĺ à¦ª
Ġà¦ĺ à¦¨à¦¬à¦¸à¦¤
à§ľ à¦¦
à§ľ à¦¹
à¦ªà¦° à¦¯
Ġà¦®à¦¨ à¦¨à¦ļ
à¦®à¦¨ à¦®
à¦®à¦¨ à¦¤à¦°
à¦¿à¥¤ )
à¦« à¦ĩ
à¦« à¦ľ
à¦« à¦ļ
à¦« à¦«
âĢĻ .
âĢĻ ]
âĢĻ âĢĻ
âĢĻ âĢ¦
Ġà¦¬à¦²à¦² à¦ł
Ġà¦¬à¦²à¦² à¦ļà¦²
Ġà¦¬à¦²à¦² à¦Ĩà¦°
Ġà¦¬à¦²à¦² à¦ıà¦Ł
Ġà¦¬à¦²à¦² à¦ıà¦ĸà¦¨
Ġà¦¬à¦²à¦² à¦Ĩà¦ļ
à¦°à¦£ à¦ķà¦ķ
à¦¬à¦¨ à¦¨
à¦Ŀ à¦¦
à¦Ŀ à¦Ļ
à¦Ŀ à¦Ĺà¦Ļ
âĢĿ à§ĩ
à§İ à¦¤
à§İ à¦Ń
à§İ à¦¶à¦ķ
à§İ à¦«à¦¨
à¦ľà¦¨ à¦¹
à¦ľà¦¨ à¦Ĺà¦¨
à¦ı à¦ļ
à¦ı à¦¥
à¦ı à¦ľà¦¨
à¦ı à¦®à¦¤
à¦ı à¦«à¦¸
à¦ī à¦¦à¦°
à¦ī à¦ªà¦¦
à¦ī à§İà¦ķ
à¦ī à¦¦à§Ł
à¦ī à¦ªà¦®
à¦ī à¦¬à¦Ł
à¦ī à§ľà¦¨
à¦ī à§İà¦°
à¦°à¦ķ à¦¤à¦ķ
à¦°à¦ķ à¦Łà¦Ń
Ġà¦¸à¦¬ à¦¤
Ġà¦¸à¦¬ à¦§à¦°à¦¨
à¦ªà¦¨ à¦°
à¦ªà¦¨ à¦¤
à¦ªà¦¨ à¦¸à¦°à¦¶
Ġà¦Ł à¦Ĺ
Ġà¦Ł à§Ł
Ġà¦Ł à¦ªà¦¨
Ġà¦Ł à¦²à¦ķ
Ġà¦Ł à¦Ĺà¦°
Ġà¦Ł à¦¸à¦Ł
Ġà¦Ł uhin
Ġà¦¹à¦² à¦¬
à¦¬à¦° à¦¯
à¦¬à¦° à¦Ŀ
à¦¬à¦° à¦®à¦¯
à¦¤à¦° à¦¨
à¦¤à¦° à¦§
à¦¤à¦° à¦¥
à¦¤à¦° à¦ľà¦¨
à¦¤à¦° à¦ĸà¦£
Ġà¦Ĩà¦Ľ à¦°
Ġà¦Ĩà¦¸ à¦¹
Ġà¦Ĩà¦¸ à¦°à¦ĩ
Ġà¦īà¦ł à¦¨
à¦°à¦¬ à¦®
à¦°à¦¬ à¦¹
à¦°à¦¬ à¦°à¦£
à¦°à¦¬ à¦²à¦¤
à¦°à¦¬ à¦¸à¦¨
à¦°à¦¬ à¦ľà¦¨à¦ķ
à¦°à¦¬ à¦£à¦®
à¦Ĩ à¦ŀ
à¦Ĩ à¦°à¦®
à¦Ĩ à¦²à¦¬
à¦Ĩ à¦ĵà§Ł
à¦Ĩ à¦¬à¦¦
à¦Ĩ à¦ªà¦¸
à¦Ĩ à¦¸à¦ķ
à¦Ĩ à¦Ĺà¦®
à¦Ĩ à¦²à¦¸
à¦Ĩ à¦ªà¦²
Ġà¦ĩ à¦īà¦²
Ġà¦ĩ à¦Łà¦Ĺ
à¦¼à¥¤ [
Ġà¦ªà¦¡ à¦ķ
Ġà¦ľà¦¨ à¦ļ
Ġà¦ķà¦°à¦² à¦¤
Ġà¦ıà¦¸ à¦¸
Ġà¦ıà¦¸ à¦ıà¦°
Ġà¦Ŀ à¦¨à¦ķ
à¦ĺ à¦¤
à¦ĺ à¦Ĺà¦²
à¦ĺ à¦¬à¦¤
à¦ĺ à¦°à¦¦
à¦°à¦® à¦ŀ
à¦°à¦® à¦«à¦²
à¦°à¦® à¦¦à¦¤
à¦·à¦£ à¦¯
Ġà¦¬à¦¸ à¦¨à¦Ĺ
à¦¼, âĢĶ
Ġà¦ļà¦² à¦¨à¦¸à¦ĩ
à¦¬à¦² à¦¯
à¦ķà¦° à¦ĩ
à¦ķà¦° à¦¦à¦°
à¦ķà¦² à¦Ł
à¦ķà¦² à¦ĩ
à¦ķà¦² à¦¬à¦¨
à¦ķà¦² à¦¬à¦¦
à§ģà¦ģ âĢĻ,
Ġà¦¬à¦¨ à¦¦
Ġà¦¬à¦¨ à¦¹
à¦ĥ )
à¦ĥ âĢĻ
Ġà¦ħà¦° à¦ľ
à¦¸à¦¬ à¦¸
à¦¸à¦¬ à¦Ĺ
à¦¯à¦¬ à§°
Ġà¦¨à¦¤ à¦¶
à¦°à¦¸ à¦ª
à¦²à¦ķ à¦¤
à¦²à¦ķ à¦®
à¦¾à¦Ĥ âĢĮ
Ġà¦ıà¦² à¦¬
Ġà¦ıà¦² à¦Ĺà¦°
à¦¤à¦¨ à¦°
à¦¤à¦¨ à¦®
à§ĩâĢĶ -
à¦ķà¦¤ à¦¤
à§ĩà¦ģ âĢĻà¥¤
à§ĩà¦ģ âĢĻ,
Ġà¦¬à¦° à¦°
Ġà¦¬à¦° à¦¨
à¦Ĺà¦² à¦ļà¦ķ
à¦Ĺà¦² à¦®à§Ł
à¦Ĺà¦² à¦¬à¦Ł
Ġà¦īà¦łà¦² à¦ı
Ġà¦īà¦łà¦² à¦Ĩà¦ĩà¦¯
à¦¿à¦Ĥ ?âĢĿ
à¦°à¦¨ à¦ľ
à¦¬à¦ª à¦Ł
à¦¬à¦¤ à¦ª
Ġà¦®à¦¹ à¦¨
Ġà¦īà¦¦ à¦ķ
Ġà¦īà¦¦ à¦°à¦ª
Ġà¦ªà¦¥ à¦ľ
Ġà¦ĺà¦° à¦ĺà¦°
à¦ħ à¦¨à¦¬
à¦ħ à¦¸à¦¤
à¦ħ à¦¬à¦ķ
à¦ħ à¦ľà¦°
à¦ħ à¦ªà¦¸
à¦ħ à¦²à¦¸
Ġà¦Ĩà¦¨ à¦«
à¦¦à¦° à¦ĵà¦¯
à¦ĩà¦² à¦ª
à¦ĩà¦² à¦¬à¦ķ
à¦ĩà¦² à¦Łà¦¦
Ġà¦īà¦ª à¦ª
à¦Ĺà¦¤ à¦ĵ
à¦¤à¦¬ à¦¦
à¦¤à¦¬ à¦ĩ
à¦¤à¦¬ à¦¦à¦²
Ġà¦ķà¦² à¦®à¦ª
Ġà¦ķà¦² à¦®à¦ĩ
à¦®à¦¤ à¦ķ
Ġà¦Ĩà¦ķ à¦ļ
à¦¶à¦¨ à¦¹
Ġà¦ľà¦² à¦¤
Ġà¦ľà¦² à¦ªà¦°
Ġà¦ľà¦² à¦ķà¦²
Ġà¦ľà¦² à¦Ŀà§ľ
à¦®à¦ķ à¦®à¦²
à¦ļà¦¨ à¦ĩ
Ġà¦¸à¦° à¦¹à¦ª
à¦ªà¦¦ à¦®
à¦ªà¦¦ à¦¹
à¦ªà¦¦ à¦Ĩà¦ªà¦¦
Ġà¦ıà¦¤ à§İ
Ġà¦Ĩà¦¶ à¦ķ
à¦°à¦¹ à¦®
à¦°à¦¹ à¦Ļ
à¦°à¦¹ à¦°à¦¤
à¦°à¦¹ à¦°à¦ķ
à¦°à¦¹ à¦¨à¦¯
à¦²à¦¬ à¦Ł
à¦²à¦¬ à¦ĵ
à¦²à¦¬ à¦¹à¦¨à¦ķ
à¦°à¦ľ à¦°à¦®à¦£
à¦¨à¦¬ à¦Ł
à¦¨à¦¬ à¦§
à¦¨à¦¬ à¦¬à¦¨
à¦¨à¦¬ à§İ
à¦¨à¦¬ à¦¬à¦°
à¦¨à¦¬ à¦¦à¦²
à¦¨à¦¬ à¦¸à¦¦
à¦®à¦² à¦¯
Ġà¦¸à¦¹ à¦¤
Ġà¦¸à¦¹ à¦Ĺ
à¦²à¦¨ à¦¨
à¦¦à¦¨ à¦¹
à¦¦à¦¨ à¦°à¦¤
à¦¦à¦¨ à¦ļà¦ķ
à¦°à¦ĩ à¦¨
à¦¼à§ĭ ;
à¦¼à§ĭ âĢĵ
à¦¼à§ĭ âĢĻ,
à¦§à¦¨ à¦²
à¦§à¦¨ à¦Ń
à¦§à¦¨ à¦ŀ
à¦ķà¦¬ à¦¸à¦¤
ĠĠĊ ĠĊ
à¦¯à¦¤ à¦Ł
à¦¯à¦¤ à¦ļ
à¦¯à¦¤ à¦¦à¦£
à¦Łà¦ķ à¦°à¦£
Ġà¦ķà¦¬ à¦·
Ġà¦ıà¦Ĺ à¦¬
Ġà¦ıà¦Ĺ à¦ļ
à¦¹à¦² à¦®
à¦¹à¦² à¦®à¦¯
à¦¹à¦² à¦®à§Ł
âĢ¦ ?âĢĿ
à¦¸à¦¨ à¦¸
à¦¸à¦¨ à¦¶
à¦¿? âĢĶ
Ġà¦¬à¦ĩ à¦°
à¦®à¦° à¦¹à¦¸
à¥¤âĢĿ âĢĶ
à¦®à¦£ à¦Ĺ
à¦®à¦£ à¦¸à¦®
à¦¨à¦ķ à¦·
à¦¤à¦² à¦ª
à¦¤à¦² à¦ĸ
à¦¤à¦² à¦ĵ
Ġà¦īà§İ à¦ķà¦²
à¦°à¦ª à¦°à¦¤
Ġà¦ıà¦° à¦«
!âĢĿ à¥¤
!âĢĿ âĢĵ
à¦¿âĢĶ âĢĿ
à¦¸à¦® à¦·
à¦°à¦Ł à¦°
Ġà¦¶à¦¹à¦° à¦ª
à¦¬à¦¦ à¦®à¦¨
à¦·à¦¤ à¦ĩ
Ġà¦«à¦² à¦ľ
Ġà¦«à¦² à¦¬à¦¤
Ġà¦ĩà¦¨ à¦ķà¦°
Ġà¦ĩà¦¨ à¦¸à¦ª
à¦¸à¦° à¦·
à¦¸à¦° à¦¬à¦°
à¦¤à¦ķ à¦ķ
à¦¤à¦ķ à¦ļ
à¦¤à¦ķ à¦ĵ
à¦ļà¦ķ à¦®
à¦ļà¦ķ à¦Ń
Ġà¦ħà¦® à¦°à¦ķ
Ġà¦ħà¦® à¦°à¦¨
Ġà¦ªà¦¦ à¦¦
Ġà¦ªà¦¦ à¦ª
à¦¤à¦¤ à¦ªà¦ķ
à§° à¦ľà¦ĩ
à¦ıà¦ķ à¦«
à¦ıà¦ķ à¦ķà¦¥
à¦ıà¦ķ à¦§à¦°à¦¨
à¦¤à¦® à¦¸
à¦¤à¦® à¦ª
Ġà¦²à¦ķ à¦Ĺ
à¦®à¦¬ à¦¸
à¦®à¦¬ à¦¡
à¦®à¦¬ à¦ĩà¦Ĺ
à¦¬à¦¸ à¦Ļ
Ġà¦Ĩà¦¸à¦² à¦Ł
Ġà¦Ĳ à¦ķà¦¤
Ġà¦ħà¦ķ à¦¶à¦¨
à¦ªà¦ķ à¦®
Ġà¦°à¦Ļ à¦§à¦¨
Ġà¦Ĺà¦¡ à¦¸
à¦¸à¦² à¦ĸ
à¦¸à¦² à¦ĵ
à¦¸à¦² à¦¡à¦°
à¦¶à¦ķ à¦°à¦ķ
à¦°à¦Ń à¦¬à¦¨
à¦°à¦Ń à¦ŀ
Ġà¦Ĩà¦§ à¦®
Ġà¦Ĩà¦§ à¦¬à¦¯
à¥¤âĢĻ âĢĶ
à¦¶à¦¬ à¦¬
Ġà¦ħà¦Ĺ à¦ª
à¦¬à¦ķ à¦ª
à¦¢ à¦Ļ
à§įâĢĮ ?
à¦¹à¦¨ à¦ª
à¦¹à¦¨ à¦Ĺ
à¦¹à¦¨ à¦ľà¦²
à¦ĩà¦Ł à¦ĩ
à¦ĩà¦Ł à¦ľ
à¦¾! âĢ¦
Ġà¦Ĺà¦¤ à¦ķà¦²
Ġà¦īà¦ªà¦° à¦ķ
Ġà¦Ĩà¦¦ à¦¬à¦ķ
Ġà¦ªà¦¤ à¦¯
à¦ķà¦¨ à¦Ĺ
Ġà¦¶à¦¤ à¦¯
Ġà¦¶à¦¤ à¦¦
à¦ªà¦¸ à¦¦
à¦ªà¦¸ à¦ª
Ġà¦¬à¦Ł à¦¨
Ġà¦¬à¦Ł à¦®
Ġà¦¬à¦Ł à¦ª
Ġà¦ĸà¦¬à¦° à¦Ĺ
à¦¨à¦¸ à¦Ń
à¦°à¦Ĺ à¦¡
à¦°à¦Ĺ à¦Ń
à¦ªà¦¥ à¦ķ
à¦ªà¦¥ à¦ª
à¦ªà¦¥ à¦ļà¦²
à¦°à¦ľà¦¨ à¦ĩ
à¦°à¦ľà¦¨ à¦¨à¦ķ
à¦ķà¦ķ à¦£
à¦Łà¦° à¦°
Ġà¦¸à¦®à§Ł à¦Ĺ
à¦²à¦Ľ à¦¬
Ġà¦ıà¦ķà¦ĩ à¦¸à¦®à¦¯
à¦°à¦®à¦£ à¦¨
à¦°à¦®à¦£ à¦ĵ
à¦¼à§Ģ ;
à¦¼à§Ģ âĢĻ
à¦¼à§ģ âĢĶ
à¦¨à¦Ĺ à¦¦
à¦¨à¦Ĺ à¦ŀ
à¦«à¦² à¦ª
Ġà¦ĭ à¦¤à¦¨
Ġà¦ĭ à¦£à¦Ĺ
Ġà¦ĭ à¦£à¦®
à¦¯à¦° à¦Ļ
à¦Ĺà¦¬ à§İà¦¸
à¦²à¦® à¦¸à¦®
Ġà¦¬à¦ķ à¦¸
Ġà¦ķà¦²à¦ķ à¦£
Ġà¦ķà¦²à¦ķ à¦¬à¦ľ
à¦Łà¦¨ à¦®
à¦¾; -
Ġà¦¦à¦¶ à¦ĸ
Ġà¦¦à¦¶ à¦ľà¦¨à¦ķ
Ġà¦ªà¦² à¦¸
à¦¨à¦¯ à¦ľ
à¦ľà¦¸ à¦°à¦ķ
à¦ķà¦¶ à¦¤
Ġà¦Ńà§Ł à¦ĩ
Ġà¦Ńà§Ł à¦ĵ
à¦¿! )
à¦²à¦Ł à¦¨à¦Ĺà¦ŀ
Ġà¦§à¦¨ à¦®
à¦Ĺà¦® à¦ĵ
à¦Łà¦« à¦°à¦®
à¦łà¦ķ à¦¸à¦®
à¦¦à¦® à¦¬à¦¨
Ġà¦¨à¦°à¦® à¦¸
à§ĩà¥¤âĢĻ âĢĻ
à§ĩà¥¤âĢĻ âĢĿ
à¦ĩà¦Ń à¦Ł
à¦¡à¦² à¦ª
Ġà¦Ĺà¦£ à¦¶
Ġà¦Ĺà¦£ à¦§à¦°
Ġà¦Ĺà¦£ à¦Ĩà¦¨
à¦®à§Ł à¦¦
à¦ĩà¦¡ à¦¸à¦¹
Ġà¦ªà¦°à¦® à¦®
à¦īà¦² à¦ĩ
à¦¾âĢĻ )
à¦¾âĢĻ ;
à¦¾âĢĻ ?
à¦¾âĢĻ !âĢĿ
Ġà¦¬à§Ł à¦²
Ġà¦Ĩà¦¦à¦° à¦ĵ
Ġà¦Ĩà¦¦à¦° à¦¯à¦¤
Ġà¦¸à¦°à¦² à¦ļ
Ġà¦ķà¦ª à¦ļ
à§Łà¦¤ à¦ĩ
Ġà¦īà§İà¦¸à¦¬ à¦®à¦£
à§ĩ?âĢĿ ,
à¦ķà¦¸ à¦¹
à¦ķà¦¸ à¦ĩà¦¤
à¦ıà¦¸à¦¬ à¦ķ
à¦ıà¦¸à¦¬ à¦ĵ
à¦¨à¦Ń à¦¨
à§ĩâĢ¦ âĢĿà¥¤
à§ĩâĢ¦ âĢĿâĢĶ
à¦£à¦¨ à¦Ĺà¦°
à¦®à¦¶ à¦¤
à¦®à¦ľ à¦Ĺà¦¤
Ġà¦¦à¦® à¦Ľ
à¦®à¦ª à¦²
à¦¼; âĢĵ
Ġà¦ħà¦®à¦² à¦ª
Ġ: -
à¦¥à¦² à¦ļ
à¦¤à¦Ń à¦Ļ
Ġà¦¸à¦¦ à¦Ń
Ġà¦ıà¦°à¦ķà¦® à¦ĵ
à¦¨à¦¶ à¦°
Ġà¦Ĩà¦ĩà¦¨ à¦ª
à¦¸à¦¹ à¦ķà¦°
Ġà¦®à¦¦ à¦ķ
Ġà¦®à¦¦ à¦ĵ
Ġà¦īà¦ªà¦¨ à¦¦
à§¨ à§¦à§¦
à§¨ à§®
à¦ĵà¦° à¦Ļ
.. âĢĿ
à¦¦à¦ķ à¦®à¦£
éŁ¿ åĵį
Ġà¦ħà¦¸à¦¹ à¦ľ
Ġà¦ļà¦® à¦ķà¦Ł
à¦¯à¦Ł à¦ķà¦°
à¦ļà¦°à¦£ à¦¬
à¦¨à§Łà¦¨ à¦®
à¦¨à§Łà¦¨ à¦ĩ
Ġà¦ħà¦Łà¦² à¦Ń
à¦Ĺà¦£ à¦¤à¦¨
à¦¾: -
à¦¦à¦¶ à¦ľà¦¨
à¦¬à¦ľà¦¨ à¦¹à¦¤
Ġà¦ıà¦¡ à¦ĵà§Ł
Ġà¦¸à§İ à¦®
Ġà¦¸à§İ à¦ª
Ġà¦ĸà¦°à¦ļ à¦ªà¦¤
à¦¾âĢĿ !
an tern
à¦¨à¦® à¦ŀ
à¦²à§Ł à¦¬
à¦¼! )
Ġà¦Ĩà¦« à¦¤
à¦Ŀà¦¬ à§Łà¦¸
à¦¶à¦° à¦ŀ
Ġà¦ľà¦Ĺ à§İà¦¸
Ġà¦ľà¦Ĺ à¦¦à¦²à¦ª
à¦ªà§ľ à¦¶
à¦¸à¦¦ à¦¦
Ġà¦Ĩà¦ĩ à¦¨à¦¬
Ġà¦Ĩà¦ĩ à¦ĵà¦¨
Ġà¦Ĭ à¦§
Ġà¦Ĭ à¦¨à¦®
Ġà¦Ĭ à¦¨à¦ªà¦ŀ
al on
Ġà¦Ńà¦Ĺ à¦ĵà¦¯
à§© à§Ń
à¦ľà§Ł à¦¦
Ġà¦Ķ à¦°
Ġà¦Ķ à¦¡
Ġà¦Ķ à¦¦à¦°
à¦¤à¦Ĺ à¦Ļ
à¦Ī à¦°
Ġà¦¨à¦° à¦ªà¦¤
Ġà¦°à¦¥ à¦ļà¦ķ
Ġà¦¬à¦¦ à¦ħà¦Ń
on y
on aliz
à§Ń à§§
à§Ń à§¯
Ġà¦¶à¦ªà¦¥ à¦¬
Ġà¦¶à¦ªà¦¥ à¦Ĺ
à¦¿âĢ¦ ?
à¦¿âĢ¦ à¥¤âĢĿ
à¦¯à¦°à¦ķà¦® à¦ĵ
à§ª à§¯
Ġà¦Ńà¦°à¦¤ à¦ķ
Ġà¦Ńà¦°à¦¤ à¦¸
Ġà¦Ńà¦°à¦¤ à¦ª
Ġth is
Ġth ink
ti g
or al
à¦Ĺà¦°à¦£ à¦ĩ
éŁ¿éŁ¿éŁ¿éŁ¿ éŁ¿éŁ¿
ar th
ar as
ar ri
Ġà¦¸à¦ĸ à¦¬à¦²
Ġà¦¤à¦¦ à¦¬à¦¸
Ġs er
Ġs il
Ġs ay
Ġs end
à§¬ à§®
à§¬ à§¯
à¦Ĩà¦§ à¦ĸ
Ġà¦¬à¦°à¦« à¦ª
Ġà¦¬à¦°à¦« à¦Ŀà¦°
à¦ĩà¦« à§Ł
à¦ĩà¦« à¦°à¦®
à¦¶à¦¸ à¦ľ
à¦¼à¦¾âĢĶ âĢĻ
Ġà¦¸à¦« à¦°à¦¸à¦Ļ
ĠĠĊĠĠ ĠĠĠĠĠĠĠĠ
ĠĠĊĠĠ ĠĠĠ
at or
at ri
Ġc har
Ġc ount
Ġc ult
à¦¬à§İ à¦¸à¦®
Ġà¦Ĩà¦¹à¦¤ à¦¦
Ġw ay
Ġw ear
it e
it s
Ġà¦¨à§ľ à¦¬
Ġb el
Ġb oth
Ġb attle
and har
Ġà§© à§¨
Ġà§© à§«
Ġà¤ ¨
Ġà¤ ¹
Ġà¤ Ĺ
à§Īà¦ĥ âĢĶ
à§Īà¦ĥ âĢĵ
à¦ıà¦ķà¦¬ à¦Ľà¦°
à§® à§Ń
Ġm ay
Ġm ad
Ġm od
à§ĭâĢ¦ à¥¤âĢĿ
le x
Ġh ol
Ġh ear
re e
re ady
Ġà¦ĸà¦Ł à¦®à¦Ł
Ġà¦Ŀà§ľ à¦Ŀà¦ŀ
Ġa d
Ġf er
Ġf ut
Ġf ret
Ġf ound
Ġf ever
ing s
Ġp e
Ġp it
Ġp ain
Ġt ry
Ġo ld
à¦¶à¦Ĺà¦¤ à¦Ń
Ġd ra
Ġd id
Ġd em
à¦£à¦° à¦ļà¦¯
Ġà¦ĵà¦ľà¦¨ à¦¹
Ġà¦ļà§ľ à¦ķà¦Ĺ
Ġà¦°à¦£ à¦¸
ĠP M
à¦īà§İà¦¸à¦¬ à¦®
om en
Ġà¦ķà§ľ à¦ķà§ľ
à¦Ĺà¦ł à¦¨à¦ķ
ĠS m
ĠS y
ĠS am
ĠS TEM
à¦¯à¦² à¦¹à¦°
Ġà¦¦à¦®à¦¨ à¦¨
à§§à§¯à§ ¦
áĥ Ŀáĥ
à¦¿âĢ¦âĢĿ à¥¤
ĠB eg
Ġl o
Ġl ul
Ġl antern
à§ĩ!âĢĻ âĢĻ
à§ĩ) ;
Ġà¦¥à¦² à¦¥à¦²
Ġà§§à§® à§¦à§¦
Ġà§« à§«
Ġà§« à§ª
Ġà§§à§¯à§ª à§¦
ĠI N
Ġn ow
à¦¶à¦¹ à¦°à¦¤à¦²
Ġà¦Ĺà¦²à¦¦ à¦ĺà¦¨
ec hn
Ġà¦®à¦Ĺà¦ľ à¦ķ
à¦Ĩà¦ĩà¦¨ à¦¸
ĠM r
ĠM ontu
ut e
ur ing
Ġà¦Ĩà¦īà¦Ł à¦¡
Ġà¦Ĩà¦īà¦Ł à¦¬à¦ķ
Ġà¦īà¦ĩ à¦ŀ
Ġà¦īà¦ĩ à¦ķà¦²
ĠR ec
Ġà¦ĸà¦² à¦ĸà¦²
il d
il o
un t
à¦£à¦ļ à¦ŀ
Ġà§§à§¯à§¯à§ ª
ĠD E
ĠD NA
Ġe ves
Ġe ase
ow er
Ġ[ âĢĺ
ch es
à¦īà¦ł à¦¬
Ġà§¬ à§¦
Ġà¦Ĩà¦ªà¦¸ à¦¹
à§ģâĢ¦ .
Ġg old
Ġà¦¬à¦Ĺà¦² à¦¸à¦ĵ
am a
am es
ĠT ur
à¦¶à¦§ à¦°à¦ķ
ul y
ĠN ot
ac y
Ġà¦¸à§ľà¦ķ à¦ªà¦¥
Ġà¦Ĺà¦ł à¦¨à¦ķ
à§§à§¨ à§©à§ª
Ġre m
à¦ħà¦¹ à¦Ļ
à¦ħà¦¹ à¦ŀ
ĠL O
ĠL alon
Ġà¦¸à¦®à¦¤à¦² à¦Ń
Ġà¦¶à¦¤à¦ªà¦¥ à¦¬
Ġà§§à§¯ à§§à§®
Ġà§§à§¯ à§§à§¯
à§¯à§ ©
à§¯à§ ¯
Ġà§§à§« à§§
Ġà§§à§« à§¦à§¦
tic e
à¦ľà¦ĸ à¦®à¦ĵ
à¦Ĩà¦īà¦Ł à¦¡
ag ra
à¦¯à¦¬à¦¨ à¦ª
ĠÐ ½
Ġà§§à§¯à§¨ à§¨
Ġà§§à§¯à§© à§§
Ġfor g
ĠG od
ĠG andhar
Ġy et
ĠØ ±
ĠØ Ń
Ġà§§à§¯à§¦ à§©
Ġà§§à§¯à§¦ à§¯
Ġà¦Ĩà¦ªà¦¦ à¦Ł
ĠH ow
Ġà¦¡à¦ľà¦¨ à¦ĸ
Ġà§§à§¯à§¬ à§«
Ġà§§à§¯à§¬ à§ª
Ġà§§à§¯à§¬ à§¯
Ġà¦ıà¦ĩà¦ļ à¦ıà¦¸à¦¸
est ry
ĠW hat
à¸ ±
à¸ ģ
à¸ Ļ
ĠF actory
ĠO ri
ĠO ff
Ġì ł
Ġì ĭľ
Ġà¦ľà¦¬à¦° à¦¦à¦ĸà¦²
Ġà§§à§¯à§® à§¦
Ġà§§à§¯à§® à§¨
ĠK h
Ð¾ Ð²
Ġk n
Ġk ing
ĠÙ ¾
ĠÙ Ħ
Ġcon tem
ĠE SP
à¤² à¦¤
um mer
Ġv ill
Ġv alue
Ġon e
Ġon ly
à§§à§ª à§«
Ġ1 0
Ġ1 9
Ġst ep
ci al
ion s
Ġà¦¸à¦°à¦¬ à§İ
ind u
Ġwith out
Ġà¦Ĺà¦¤à¦¬ à¦Ľà¦°
àª °
Ġà¦īà¦ĩà¦ķ à¦ıà¦¨
Ðµ Ñģ
Ġan y
Ġà§§à§¬ à§«à§¬
Ġà§¯à§ ®
Ġha unt
eg nung
ĊĊ Ċ
Ġ× ¨
for e
per iment
à§ģà§ģ à§ģà§ģ
ĠU SB
Ġj ust
Ġun der
Ġà§· à§·
ish es
Ġex periment
Ġmy ster
oc k
Ġà¦ĵà¦ħ à§°
Ġà§§à§¯à§Ń à§¦
Ġà§§à§¯à§Ń à§¨
ib anan
ie f
ful ly
Ġà¦¶à¦ķà¦Ł à¦¬
the y
à® ¤
âĤ Ĩ
ĠJ ibanan
rav a
pr ess
pr esent
à¦ĵà¦ĵ à¦ĵ
Ġwor ship
Ġpro jec
por t
ĠZ ia
Ġà¤Ĩ à¤¨
Ġher o
Ġint o
ev el
à« į
Ġà§§à§®à§¬ à§¯
ºçľºçľºçľºçľºçľºçľºçľºçľ ºçľºçľºçľºçľºçľºçľºçľºçľ
âĢĵâĢĵâĢĵâĢĵâĢĵâĢĵâĢĵâĢĵâĢĵâĢĵâĢĵâĢĵâĢĵâĢĵâĢĵâĢĵ âĢĵâĢĵâĢĵâĢĵâĢĵâĢĵâĢĵâĢĵâĢĵâĢĵâĢĵâĢĵâĢĵâĢĵâĢĵâĢĵ
·çľ·çľ·çľ·çľ·çľ·çľ·çľ·çľ ·çľ·çľ·çľ·çľ·çľ·çľ·çľ·çľ
Ġà¦°à¦¸à¦ķà¦· à¦¹
tis m
Ġbec omes
Ġà¤ī à¤ł
à§§à§¯à§Ń à§¦
à§§à§¯à§Ń à§«
Ġliter ature
Ġref lec
==== ====
Ġfl ies
lab y
à¯ į
Ġec ho
à¤¼ à§ĩ
uru ravas
Ġà§¯à§« à§¦
ĠYou Tu
ix ed
Ġri ver
Ġhall ucinatin
ĠMy ra
Ġneigh bor
Ġorig inal
âģ ł
æĭ Ń
Ġess ay
Ġidenti ty
Ġà¦ħà¦ĵ à¦°à¦¤
Ġà¦ľà¦ĸ à¦®à¦Ł
Ġdiv ide
ĠPau rava
pers onaliz
Ġequality à¦¯
Ġmurmur ous
Intellig ent
mle t
rvas i
yst em
Ġà¦¬ung al
Ġà¦Ńà¦Łà¦Ń à¦Ł
Ġà¦Łà¦¸à¦Ł à¦¸
Ġwear iness
Ġhol o
Ġhear t
Ġfut ure
ĠBeg egnung
Ġlul laby
Ġease ful
ĠOff ice
ĠJibanan anda
ĠYouTu be
! âĢĵ
! âĢ¦
" âĢĶ
' ll
) âĢĻ
- ,
- âĢĺ
1 7
1 10
3 1
3 7
5 6
5 7
6 7
: -
; âĢĵ
? -
? !âĢĿ
A l
A nd
C A
C E
C TED
E Y
E n
F I
G est
G EN
H AT
H EY
I F
I nt
I TI
L M
M O
M ontu
M uch
P I
P M
P ar
P yth
R ed
S T
S een
S hare
T A
T ok
U n
W hat
Y AB
_ ,
a i
a used
b id
c tion
c ult
c ury
d s
d ed
d el
d ay
d own
d ata
e w
e am
f i
f ter
f ie
h er
h as
h ana
i ti
i ent
i ans
k ind
l a
l u
l ing
l am
l ess
l ich
m an
m al
m en
m or
n er
n or
n ec
n Ä±
o o
o on
o om
o cial
p u
p ed
p ic
p tion
p tic
p ear
r b
r ed
r ush
r ilo
s a
s pec
s cap
s atri
t d
t al
t as
t ain
u v
u es
u el
u tion
u ce
v ing
w o
w er
w or
w ith
x im
y cle
¦ ģ
° ë
Ã ª
Å ¡
Ð ³
Ñ Ĩ
Ñ ĸ
Ò ¯
Õ «
Ö Ģ
× ¨
× Ĳ
× ľ
Ø ¹
Ú ¯
Û ģ
Û Ĵ
à ²
à ¶
à ·
â ¦ģ
æ Ĺ
ì Ĩ
í ķ
ï ¼
Ċ Ġ
Ġ 4
Ġ ]
Ġ {
Ġ }
Ġ â
Ġ ing
Ġ us
Ġ à°
Ġ à®
Ġ ÑĤ
Ġ enti
Ġ à¨
Ġ ÑĪ
Ġ Ø§ÙĦ
Ġ Ïĥ
Ġ ÚĨ
Ī ľ
Ĳ âĨ
Ļ Ķ
ŀ Ĳ
Ġà¦ Ĥ
à¦¾ (
à¦¾ _
à¦¾ à§ĭ
à¦¾ à§ĩ,
à¦¾ à§ĩ?
à¦¾ à§ĩà¦ģ
à¦¾ à¦¾à¦ģ?
à§ĩ _
à§ĩ ï»¿
à¦° à¦°à¦¸
à¦° à¦¶à¦¨
à¦° à¦ħà¦¨
à¦° à¦·à¦¦
à¦° afi
à§į à¦¾
à§į âĢĿ
à¦¿ à¦¼
à¦¿ âĢį
à¦¨ à¦®à¦ķ
à¦¨ à¦ļà¦²
à¦¨ à¦ıà¦ķ
à¦¨ à¦¶à¦¬
à¦¨ à¦¸à¦Ļ
à¦¨ à¦ıà¦¬
à¦¨ à¦ªà¦¡
à¦¨ à¦ıà¦°
à¦¨ à¦«à¦²
à¦¨ à¦ĩà¦¤
à¦¨ à¦¸à¦¬à¦ĩ
à¦¨ à¦®à¦§
à¦¨ à¦®à¦ľ
à¦¨ à¦Ĩà¦Ĺ
à¦¨ à¦ĺà¦£
à¦¨ à§ľà¦¬à§ľ
à¦¤ à¦ı
à¦¤ à¦®à¦¤
à¦¤ à¦¸à¦¤
à¦¤ à¦ľà¦®
à¦¤ à¦¸à¦®à¦¯
à¦¤ à¦Ľà¦¬
à¦¤ à§İà¦ª
à¦¤ à¦°à¦¤à¦®
à¦¤ à¦ľà¦¨à¦¨
à¦¤ à¦ĺà§ľ
à¦² à§ľ
à¦² à§İ
à¦² à¦°à¦¬
à¦² à¦¤à¦¨
à¦² à¦¬à¦¤
à¦² à¦ħ
à¦² à¦¤à¦¬
à¦² à¦¶à¦¨
à¦² à¦ªà¦¦
à¦² à¦¦à¦¨
à¦² à¦Ĺà¦¨
à¦² à¦¸à¦Ļ
à¦² à¦ªà¦¡
à¦² à¦ħà¦¨
à¦² à¦Ĩà¦ªà¦¨
à¦² à¦¦à¦¸
à¦² à¦ļà¦¡
à¦² à¦¶à¦¯
à¦² à¦Ŀà¦°
à¦² à¦°à¦Ļ
à¦² à¦Ĺà¦¤à¦Ń
à¦ķ à¦¤à¦¨
à¦ķ à¦¦à¦°
à¦ķ à¦§à¦°
à¦ķ à¦¸à¦Ł
à¦ķ à¦ĵà¦°
à¦¯ à¦Ľ
à¦¯ à¦¹à¦¸
à¦¯ à¦¦à¦¯
à¦¯ à¦¸à¦¤
à¦¯ à¦ĺà¦°
à¦¯ à¦ľà¦²
à¦¯ à¦ªà¦£
à¦¯ à¦Ŀà¦²à¦®à¦²
à§ģ /
à§ģ ]
à§ģ à¦¿
à§ģ à§ĥ
à§ģ âĢĶâĢľ
à§ģ âĢĿà¥¤
à§ģ ...
à§ģ âĢĿ-
à¦¬ à¦·
à¦¬ à¦¸à¦¬
à¦¬ à¦¯à¦¨
à¦¬ à¦ħà¦¨
à¦¬ à¦īà¦°
à¦¬ à¦īà¦®
à¦¬ à¦īà¦¬
à¦¼ /
à¦¼ à§Į
à¦¼ à§įâĢĮ
à¦¼ à§ĭà¥¤âĢĿ
à¦¼ âĢĻâĢĶ
à¦¼ )à¥¤
à¦¼ âĢĿâĢĵ
à¦¼ ...âĢĿ
à¦¼ âĢĿ,
à¦® à¦¤à¦°
à¦® à¦°à¦¬
à¦® à¦°à¦®
à¦® à¦¦à¦²
à¦® à¦¹à¦¨
à¦® à¦ıà¦°
à¦® à¦ĩà¦¤
à¦® à§Ŀ
à¦® à¦ªà¦¦à¦ķ
à¦® à¦Īà¦¨
Ġà¦ķ à¦Łà¦²
Ġà¦ķ à¦¨à¦Ĺ
à§ĭ .
à§ĭ à¦ĥà¥¤
à§ĭ ),
à§ĭ âĢĿâĢĵ
Ġà¦¬ à¦¢
Ġà¦¬ à¦ķà¦²à¦®
Ġà¦¬ à¦ĸà¦¶
à¥¤ ]
Ġà¦¸ à¦·
Ġà¦¸ à¦£
Ġà¦¸ à¦¥
Ġà¦¸ à¦Ĺà¦¨
Ġà¦¸ à¦ĩà¦Ł
Ġà¦¸ à¦²à¦«
Ġà¦¸ à§Łà¦²
Ġà¦ª à§İ
Ġà¦ª à¦ĩà¦°
Ġà¦ª à¦¦à¦²
Ġà¦ª à¦Ĺà¦¡
Ġà¦ª à¦ªà¦²
Ġà¦ª à¦ĩà¦ª
Ġà¦ª à¦¬à¦¨à¦ķ
à¦¸ à¦¬à¦°
à¦¸ à¦¤à¦¨
à¦¸ à¦Łà¦ķ
à¦¸ à¦¸à¦®
à¦¸ à¦Łà¦²
à¦¸ à¦ıà¦°
à¦¸ à¦¦à¦¸
Ġà¦Ĩ à¦¥
Ġà¦Ĩ à¦ķà¦²
à¦Ł à¦£
à¦Ł à¦°à¦ľ
à¦Ł à¦ıà¦ĩ
à¦Ł à¦ªà¦Ł
à¦Ł à¦ıà¦°
à¦Ł à¦®à¦¹
à¦Ł à¦Ĺà¦£
à¦Ł à¦īà¦¡
à¦Ł à¦£à¦ª
à¦¦ à§İ
à¦¦ à¦ķà¦²
à¦¦ à¦²à¦ķ
à¦¦ à¦¶à¦¨
à¦¦ à¦¤à¦¤
à¦¦ à¦ĩà¦¯
à¦¦ à¦Ńà¦°
à¦¦ à¦Ĺà¦®
à¦¦ à¦¬à¦§
à¦¦ à¦°à¦¤à¦®
à¦¦ à¦ľà¦Ĺà§İ
à¦¦ à¦°à¦¨à¦Ĺà¦°
à¦ĩ à§ľ
à¦ĩ à¦®à¦¤
à¦ĩ à¦ķà¦¬
à¦ĩ à¦¯à¦¨
à¦ĩ à¦¤à¦®
à¦ĩ à¦¢
à¦ĩ à¦¯à¦¦
à¦ĩ à¦ıà¦°
à¦ĩ à¦Ĩà¦°
à¦ĩ à¦®à¦Ł
à¦ĩ à¦Ńà¦°
Ġà¦¨ à¦°à¦¶
Ġà¦¨ à¦ĵà§Ł
Ġà¦¨ à¦°à¦¦
Ġà¦¨ à¦¸à¦°
Ġà¦¨ à¦Łà¦¨
Ġà¦¨ à¦°à¦ĸ
Ġà¦¨ à¦Łà¦¸
Ġà¦¨ à¦Ńà¦¨
Ġà¦¨ à¦Ńà¦¸
Ġà¦¨ à¦ĸà¦Ĺ
Ġà¦® à¦ĩà¦¯
Ġà¦® à¦¦à¦Ł
Ġà¦® à¦Ĺà¦¡
à¦Ľ à¦Ļ
à¦Ľ à¦«
à¦Ľ à¦ľà¦¨
à¦Ľ à¦¤à¦°
à¦Ľ à¦¤à¦®
à¦Ľ à¦¦à¦ĵ
Ġà¦¦ à¦²à¦¤
Ġà¦¦ à¦²à¦Ľ
à¦ª à¦ĵà¦¯
à¦ª à¦®à¦¤
à¦ª à¦§à¦¨
à¦ª à¦ļà¦ķ
à¦ª à¦Ĺà¦°
à¦ª à¦ıà¦ķ
à¦ª à¦¶à¦ķ
à¦ª à§İà¦¸
à¦ª à¦Ńà¦°
à¦ª à¦¶à¦Ł
à¦ª à¦ªà¦²
à¦ª à¦īà¦¤
à¦ª à¦ľà¦Ĺà§İ
à¦ª à¦¬à¦¦à¦²
à¦ª à¦īà¦ªà¦¨
Ġà¦ı à¦£
Ġà¦ı à¦¹à¦¨
Ġà¦¤ à§İà¦¸
Ġà¦¤ à¦Łà¦Ń
Ġà¦¤ uhin
à§Ģ à¦¾
à§Ģ à§Ģ
à§Ģ )à¥¤
Ġà¦¹ à¦¬à¦¨
Ġà¦¹ à¦ķà¦°
Ġà¦¹ à¦¸à¦¤
Ġà¦¹ à¦ķà¦¦
Ġà¦¹ à¦Łà¦Ľ
Ġà¦¹ à§ľà¦¬à§ľ
à¦ľ à¦«
à¦ľ à¦°à¦¸
à¦ľ à¦¦à¦°
à¦ľ à¦®à¦ķ
à¦ľ à¦ĵà§Ł
à¦ľ à¦°à¦¦
à¦ľ à¦ļà¦ķ
à¦ľ à¦Łà¦²
à¦ľ à¦¬à¦ķ
à¦ľ à¦®à¦Ł
à¦ľ à¦Ńà¦°
à¦¼à§ĩ à§ĩ
à¦¼à§ĩ âĢ¦âĢĿ
à¦¼à§ĩ !âĢĻ
à¦¼à§ĩ âĢ¦âĢĻ
âĢ ŀ
à¦¶ à¦£
à¦¶ à¦ĺ
à¦¶ à¦¨à¦¤
à¦¶ à¦ķà¦²
à¦¶ à¦²à¦ķ
à¦¶ à¦ķà¦¬
à¦¶ à¦ıà¦ĩ
à¦¶ à¦ļà¦°
à¦¶ à¦ªà¦Ł
à¦¶ à¦®à¦¸
à¦¶ à¦Ńà¦Ļ
à¦¶ à§Łà¦ķ
à¦ĸ à¦°à¦¸
à¦ĸ à¦®à¦¤
à¦ĸ à¦°à¦Ĺ
à¦ĸ à¦¶à¦¯
à¦Ĺ à§Ł
à¦Ĺ à¦ªà¦¨
à¦Ĺ à¦ĵà¦¯
à¦Ĺ à¦ķà¦°
à¦Ĺ à¦°à¦¨
à¦Ĺ à¦®à¦£
à¦Ĺ à¦¶à¦ķ
à¦Ĺ à¦Ĺà¦¨
à¦Ĺ à¦Ĺà¦ľ
à¦Ĺ à¦¶à¦¯
à¦Ĺ à¦¸à¦¦
à¦Ĺ à¦°à¦¬à§İ
à¦· à¦¤à¦°
à¦· à¦¬à¦²
à¦· à¦°à¦Ł
à¦· à¦ļà¦°
à¦· à¦«à¦²
Ġà¦ħ à¦¶à¦¬
Ġà¦ħ à¦¯à¦¶à¦¸
à¦¡ à¦¹à¦°
à¦¡ à¦¬à¦ĩ
à¦¡ à¦ľà¦Ł
à¦¡ à¦¸à¦¹
à¦¡ à¦Ńà¦¨
à¦¡ à¦Ĩà¦ª
à¦§ à¦£
à¦§ à¦°à¦¤
à¦§ à¦Ŀ
à¦§ à¦¬à¦²
à¦§ à¦®à¦¤
à¦ļ à¦¹
à¦ļ à¦ªà¦°
à¦ļ à¦ķà¦Ł
à¦ļ à¦°à¦¸
à¦ļ à¦¤à¦¨
à¦ļ à¦°à¦¦
à¦ļ à¦®à¦¯
à¦ļ à¦¬à¦ķ
à¦ļ à¦¶à¦¤
à¦ļ à¦¶à¦°
à¦ļ à¦ľà¦¨à¦ĩ
Ġà¦Ĺ à¦°à¦¹
Ġà¦Ĺ à§°
Ġà¦Ĺ à¦¢
à¦¹ à¦ĺ
à¦¹ à¦ķà¦²
à¦¹ à¦¨à¦¨
à¦¹ à¦ĩà¦¬
à¦¹ à¦ĺà¦¨
à§Ł à¦ľà¦¨
à§Ł à¦¨à¦¤
à§Ł à¦®à¦®
à§Ł à¦¶à¦ĩ
à§Ł à¦°à¦¨à¦®
à¦£ à¦°à¦¸
à¦£ à¦®à¦£
à¦£ à¦ļà¦ķ
à¦£ à¦®à¦§
à¦£ à¦Ńà¦¯
à¦£ à¦Ńà¦ķ
à¦£ à¦°à¦Ļ
à¦£ Åĵ
à¦£ à¦ľà§Łà¦¨
à¦¥ à¦¥
à¦¥ à¦°à¦¤
à¦¥ à¦ľà¦¨
à¦¥ à¦¬à¦°
à¦¥ à¦Ĺà¦¤
à¦¥ à¦¸à¦¨
à¦¥ à¦°à¦ĵ
à¦¥ à¦°à¦ª
à¦¥ à¦°à¦Ń
à¦¥ à¦§à¦°
à¦¥ à¦¦à¦£
Ġà¦¶ à¦¦
Ġà¦¶ à¦ĩà¦²
Ġà¦¶ à¦¤à¦®
Ġà¦¶ à¦®à¦¸
Ġà¦¶ à¦¤à¦°à¦Ļ
Ġà¦ļ à¦¸
Ġà¦ļ à¦ķà¦°
Ġà¦ļ à¦°à¦¦
Ġà¦ļ à¦ķà¦¬
Ġà¦ļ à¦ªà¦Ł
Ġà¦ļ à¦Łà¦Ľ
Ġà¦ľ à¦®à¦¨
Ġà¦ľ à¦Ĺà¦²
Ġà¦ľ à¦ĵà§Ł
Ġà¦ľ à§°
Ġà¦ľ à¦ĵà¦¹
Ġà¦Ń à¦²à¦¤
Ġà¦Ń à¦ĩà¦·
Ġà¦Ń à¦¨à¦Ńà¦¨
Ġà¦° à¦²
Ġà¦° à¦¦à¦¨
Ġà¦° à¦®à¦¸
Ġà¦° à¦¸à¦ª
Ġà¦° à¦®à¦ª
Ġà¦° à¦£à¦¦
Ġà¦° afi
à¦ĵ à¦ķà¦²
à¦ĵ à¦Ĩà¦®
à¦ĵ à¦°à¦ķà¦®
à§ĩà¥¤ ]
à§ĩà¥¤ âĢĶ
à§ĩà¥¤ âĢľ
Ġà¦ıà¦ķ à¦ł
Ġà¦ıà¦ķ à¦Ľà¦¤
Ġà¦ıà¦ķ à¦¶à¦¤
Ġà¦ıà¦ķ à¦°à¦Ļ
Ġà¦ıà¦ķ à¦ķà¦£
Ġà¦ıà¦ķ à¦Ĩà¦§
à¦Ń à¦¹
à¦Ń à¦¨à¦¤
à¦Ń à¦¬à¦ª
à¦Ń à¦°à¦¦
à¦Ń à¦¨à¦ķ
à¦Ń à¦Ńà¦°
à¦Ń à¦²à¦ª
à¦Ń à¦°à¦£à¦Ń
à¦¼à¦¾ )
à¦¼à¦¾ /
à¦¼à¦¾ à§ĩ
à¦¼à¦¾ !âĢĻ
à¦¼à¦¾ âĢĻâĢĶ
à¦¼à¦¾ ),
à¦¼à¦¾ âĢ¦à¥¤âĢĻ
Ġà¦Ľ à¦°
Ġà¦Ľ à¦¸
Ġà¦Ľ à¦¤à¦²
Ġà¦Ľ à¦ĩà¦Ł
Ġà¦Ľ à¦°à¦°
à¦Ĥ ;
à¦Ĥ âĢĻ
à¦ł à¦²
à¦ł à¦¯
à¦ł à¦°à¦¤
à¦ł à¦¬à¦°
à¦ł à¦¬à¦¦
à¦ł à¦¶à¦¬
à¦ł à¦ķà¦¨
à¦ł à¦¨à¦ĩ
à¦ł à¦ĸà¦£
Ġà¦¬à¦² à¦ľ
Ġà¦¬à¦² à¦¡
Ġà¦¬à¦² à¦¹
Ġà¦ī à¦Ľ
Ġà¦ī à¦ķà¦Ł
Ġà¦ī à¦°à¦¸
Ġà¦ī à¦¨à¦¬
Ġà¦ī à§°
Ġà¦ī à¦®à¦®
Ġà¦Ĩà¦° à¦ıà¦¸
Ġà¦¥ à¦ª
Ġà¦¥ à¦ªà¦¥à¦ª
à¦¾à¦ģ à¦¿
à¦¾à¦ģ à§ģ
à¦¾à¦ģ !âĢĿ
à¦¾à¦ģ ?âĢĻ
à¦¾à¦ģ ?âĢĿ
à¦¾à¦ģ ...
à¦Ļ à¦ĩ
à¦Ļ à¦¶
à¦Ļ à§ľ
à¦Ļ à¦°à¦¹
Ġà¦² à¦ĸ
Ġà¦² à¦ļ
Ġà¦² à¦¬à¦¸
Ġà¦² à¦ĩà¦¤
Ġà¦² à¦Ńà¦¤
Ġà¦ĵ à¦¶
Ġà¦ĵ à¦ĵ
Ġà¦ĵ à§İ
Ġà¦ĵ à¦²à¦¨
Ġà¦ĵ à¦¨à¦¨
à§Ĥ )
à§Ĥ âĢĶ
à§Ĥ âĢĵ
à§Ĥ à¦ĥ
âĢĶ (
Ġà¦« à¦°à¦Ĺ
Ġà¦ĸ à¦¬
Ġà¦ĸ à¦ŀ
à¦¾à¥¤ (
à¦¾à¥¤ )
Ġà¦ªà¦° à¦Ĺ
Ġà¦ªà¦° à¦¹
Ġà¦ªà¦° à¦¤à¦¨
Ġà¦ªà¦° à¦Ĺà¦£
Ġà¦¹à¦¯ à¦¬à¦°à¦²
ĠâĢ ¨
à¦°à¦¤ à¦®à¦£
à¦°à¦¤ à§°
à¦°à¦¤ à¦°à¦Ń
à¦°à¦¤ à¦Ńà¦Ļ
Ġà¦ħà¦¨ à¦¯
Ġà¦ħà¦¨ à¦ª
Ġà¦ħà¦¨ à¦¬à¦¹
Ġà¦¸à¦® à¦ľ
Ġà¦¸à¦® à¦§
Ġà¦¸à¦® à¦°à¦¨
Ġà¦¸à¦® à§°
Ġà¦¸à¦® à§Łà¦¨
à¦¼à¦¿ )
à¦¼à¦¿ âĢĿ
à¦¼à¦¿ !âĢĿ
à¦¼à¦¿ à¥¤âĢĻ
à¦ĸà¦¨ à¦¨
à¦ĸà¦¨ à¦¶
à¦ĸà¦¨ à¦ļ
Ġà¦ĺ à¦°à¦¨
à§ľ à¦ª
à§ľ à¦¤à¦°
à§ľ à¦¨à¦ķ
à¦ªà¦° à¦°
Ġà¦®à¦¨ à¦¡
Ġà¦®à¦¨ à¦¶à¦¨
Ġà¦®à¦¨ à¦Ńà¦°
Ġà¦®à¦¨ à¦¨à¦®
Ġà¦®à¦¨ à¦Ĺà§ľ
à¦®à¦¨ à¦ª
à¦®à¦¨ à¦¶
à¦®à¦¨ à¦ĵ
à¦®à¦¨ à¦¬à¦¤
à¦®à¦¨ à¦¨à¦ķ
Ġà¦ıà¦ĩ à¦¸
Ġà¦ıà¦ĩ à¦Łà¦Ł
à¦¿à¥¤ (
à¦¿à¥¤ âĢĶ
à¦« à¦¶
à¦« à¦Ĺ
à¦« à¦£
à¦« à§Łà¦¸
âĢĻ ?âĢĿ
âĢĻ âĢĶâĢĺ
âĢĻ )à¥¤
Ġà¦¬à¦²à¦² à¦ĸ
Ġà¦¬à¦²à¦² à¦Ĺ
Ġà¦¬à¦²à¦² à¦ıà¦ķ
Ġà¦¬à¦²à¦² à¦¸à¦¤
Ġà¦¬à¦²à¦² à¦¯à¦¦
Ġà¦¬à¦²à¦² à¦ıà¦ķà¦Ł
Ġà¦¬à¦²à¦² à¦ıà¦¤
Ġà¦¬à¦²à¦² à¦ıà¦ĸà¦¨à¦ĵ
à¦°à¦£ à¦°
à¦°à¦£ à¦ļ
à¦¬à¦¨ à¦²
à¦¬à¦¨ à¦®à¦¨
à¦¬à¦¨ à¦°à¦¸
à¦¬à¦¨ à¦Ĺà¦¤
à¦¬à¦¨ à¦ļà¦¨
à¦¬à¦¨ à¦¸à¦¹
à¦ŀ à¦ĵ
à¦ŀ à¦Ń
âĢĿ ?
âĢĿ âĢĶâĢľ
à§İ à¦ªà¦Ł
à§İ à¦¸à¦Ļ
à¦ľà¦¨ à¦Ń
à¦ľà¦¨ à¦°à¦¤
à¦ľà¦¨ à¦ªà¦°
à¦ľà¦¨ à¦®à¦¨
à¦ı à¦¶
à¦ı à¦ķà¦°
à¦ı à¦¨à¦Ł
à¦ı à¦¨à¦¸
à¦ī à¦¤à¦²
à¦ī à¦ĩà¦ķ
à¦ī à¦ªà¦¡
à¦ī à¦ıà¦°
à¦ī à¦¸à¦Ł
à¦ī à¦ľà¦®
à¦ī à¦®à¦ª
à¦ī à¦¡à¦¨
à¦ī à¦ªà¦ľ
à¦ī à¦¬à¦Ĺ
à¦ī à§İà¦¸à¦°
à¦ī à§İà¦ªà¦¤
à¦°à¦ķ à¦ļ
à¦°à¦ķ à¦ĵ
Ġà¦¸à¦¬ à¦°
à¦ªà¦¨ à¦®
à¦ªà¦¨ à¦Ĺ
à¦ªà¦¨ à¦¤à¦®
à¦ªà¦¨ à¦ĺà¦°
Ġà¦Ł à¦¸
Ġà¦Ł à¦Ł
Ġà¦Ł à¦²à¦Ľ
Ġà¦Ł à¦²à¦¸
Ġà¦¹à¦² à¦¤
Ġà¦¹à¦² à¦Ĺ
Ġà¦¹à¦² à¦ĺà¦°à¦Ł
à¦¬à¦° à¦«
à¦¬à¦° à¦¯à¦¨
à¦¬à¦° à¦®à¦£
à¦¤à¦° à¦ªà¦°
à¦¤à¦° à¦ªà¦¤
à¦¤à¦° à¦®à¦£
à¦¤à¦° à¦ªà¦¥
à¦¤à¦° à¦ľà¦Ĺà¦¤
Ġà¦Ĩà¦Ľ à§Ł
Ġà¦Ĩà¦¸ à¦¨à¦ª
Ġà¦īà¦ł à¦²à¦ķ
à¦°à¦¬ à¦¤à¦®
à§Į ?
à§Į âĢĵ
à§Į âĢ¦
à¦Ĩ à¦ķà¦°
à¦Ĩ à¦ĩà¦²
à¦Ĩ à¦¹à¦¸
à¦Ĩ à¦²à¦¨
à¦Ĩ à¦¦à¦¨
à¦Ĩ à¦°à¦ª
à¦Ĩ à¦°à¦Ł
à¦Ĩ à¦ĩà¦ķ
à¦Ĩ à¦Ĺà¦¨
à¦Ĩ à¦¹à¦¤
à¦Ĩ à¦§à¦¬
à¦Ĩ à¦²à¦Ł
à¦Ĩ à¦¹à¦°à¦£
à¦Ĩ à¦¬à¦¡
à¦Ĩ à¦ĩà§Ł
à¦Ĩ à¦¦à¦¤
à¦Ĩ à§ľà¦®
Ġà¦ĩ à¦§
Ġà¦ĩ à¦¬à¦°
Ġà¦ĩ à¦¬à¦²
Ġà¦ĩ à¦²à¦¤
Ġà¦ĩ à¦ľà¦°
Ġà¦ĩ à¦Łà¦ª
Ġà¦ĩ à¦«à¦°
Ġà¦ıà¦¬ à§ľ
à¦¼à¥¤ )
à¦¼à¥¤ âĢĺ
Ġà¦ľà¦¨ à¦¦
Ġà¦ľà¦¨ à¦ªà¦°
Ġà¦ľà¦¨ à¦¦à¦°à¦¦
Ġà¦Ĩà¦² à¦¯
Ġà¦¡ à¦²à¦Ľ
Ġà¦®à¦¤ à¦¤
Ġà¦§à¦° à¦®
Ġà¦§à¦° à¦¨à¦ĵ
Ġà¦ķà¦°à¦² à¦Ł
Ġà¦ł à¦Ł
Ġà¦ł à¦ķà¦²
Ġà¦ıà¦¸ à¦Ł
Ġà¦Ŀ à¦¤
Ġà¦Ŀ à¦Ĺà¦¬
Ġà¦ħà¦¬ à¦¬
à¦ĺ à¦ĵ
à¦ĺ à¦«
à¦ĺ à¦Ŀ
à¦ĺ à¦°à¦ĩ
à¦ĺ à¦Ĺà¦°
à¦ĺ à¦Ńà¦°
à¦ĺ à¦²à¦ª
à¦ĺ à¦ķà¦£
à¦°à¦® à¦Ĺ
à¦°à¦® à¦ķà¦°
à¦·à¦£ à¦¤à¦°
à¦·à¦£ à¦¯à¦¨
à¦¼, âĢĿâĢĶ
Ġà¦ļà¦² à¦¨à¦¦
à¦¨à¦¤ à¦¬
Ġà¦Ĩà¦Ĺ à¦¡
Ġà¦Ĩà¦Ĺ à¦ļ
Ġà¦Ĩà¦Ĺ à¦°à¦ĵà¦¯
à¦¬à¦² à¦¶
à¦¬à¦² à¦¤à¦®
à¦¬à¦² à¦Ŀà¦²
à¦¬à¦² à¦Ŀà¦²à¦ķ
Ġà¦Ĩà¦¬ à¦ľ
Ġà¦Ĩà¦¬ à§°
à¦ķà¦° à¦ĸ
à¦ķà¦° à¦Ĺ
à¦ķà¦² à¦¶
Ġà¦¢ à¦¨
à¦ķà¦Ł à¦¨
à¦ķà¦Ł à¦°à¦¦
à§ģà¦ģ âĢ¦âĢĻ
Ġà¦¬à¦¨ à¦²
Ġà¦¬à¦¨ à¦¯
Ġà¦¬à¦¨ à¦ľà¦¨
Ġà¦¬à¦¨ à¦ĺ
Ġà¦¬à¦¨ à¦Ĺà¦®à¦¨
à¦ĥ !âĢĻ
à¦°à¦¥ à¦ª
Ġà¦Ĺà¦² à¦«
à¦¸à¦¬ à¦¯
à¦¸à¦¬ à¦¶à¦¤
Ġà¦ħà¦¸ à¦®à§Ł
Ġà¦ħà¦¸ à¦«à¦²à¦¤
à§ĭà¥¤ âĢ¦
à§ĭà¥¤ âĢĺ
Ġà¦Ĩà¦ªà¦¨ à¦ľà¦¨à¦¦
à¦¯à¦¬ à¦¶
à¦¯à¦¬ à¦¦à¦²
à¦°à¦¸ à¦¡
à¦°à¦¸ à¦«
à¦°à¦¸ à¦°à¦®
à¦°à¦¸ à¦®à¦¯
à¦²à¦ķ à¦ĩ
à¦²à¦ķ à¦¡
à¦°à¦¥à¦® à¦¤à¦®
à¦¾à¦Ĥ !âĢĿ
à¦¾à¦Ĥ âĢĻ-
Ġà¦ıà¦² à¦ıà¦¸
à¦¨à¦ĵ à§Ł
à¦¨à¦ĵ à¦¸à¦¬
à¦¨à¦ĵ à¦Ĺà¦¤
Ġà¦¹à¦¤ à¦ķ
Ġà¦¹à¦¤ à¦ıà¦ĩ
à¦¤à¦¨ à¦ª
à¦¤à¦¨ à¦ŀ
à¦¤à¦¨ à¦¤à¦°
à§ĩâĢĶ à¥¤âĢĻ
à¦ķà¦¤ à¦Ĺ
à¦ķà¦¤ à¦ĵ
à¦ķà¦¤ à¦ķà¦Ĺ
à§ĩà¦ģ à¥¤âĢĻ
à§ĭ, -
à§ĭ, âĢĵ
à§ĭ, âĢĿâĢĶ
Ġà¦¬à¦° à¦¦à¦¨
Ġà¦¬à¦° à¦Ĺà¦¦
à¦Ĺà¦² à¦ĸ
à¦Ĺà¦² à¦ĺ
à¦Ĺà¦² à¦Ĩà¦®
à¦Ĺà¦² à¦ľà¦®
à¦Ĺà¦² à¦®à¦¹à¦²
Ġà¦īà¦łà¦² à¦°
Ġà¦īà¦łà¦² à¦¦
à¦¿à¦Ĥ à¥¤âĢĿ
à¦¿à¦Ĥ âĢĿà¥¤
à¦¿à¦Ĥ ),
à¦°à¦¨ à¦¦
à¦¬à¦ª à¦¶
Ġà¦¶à¦¬ à¦ľ
à¦¬à¦¤ à¦Ĺ
à¦¬à¦¤ à¦ķà¦¨
Ġà¦®à¦¹ à§İà¦¸
Ġà¦īà¦¦ à¦Ļ
Ġà¦īà¦¦ à¦°à¦¸
Ġà¦ĺà¦° à¦°
Ġà¦ĺà¦° à¦ĵà¦¯
Ġà¦ĺà¦° à¦ĸà¦°à¦ļ
à¦ħ à¦¡
à¦ħ à¦¬à¦²
à¦ħ à¦ķà¦°
à¦ħ à¦ķà¦²
à¦ħ à¦¤à¦¨
à¦ħ à¦°à¦¯
à¦ħ à¦ļà¦²
à¦ħ à¦ªà¦Ł
à¦ħ à¦¯à¦¥
à¦ħ à¦¦à¦®
à¦ħ à¦Ĺà¦£
à¦ħ à¦¸à¦°à¦ķ
à¦ħ à¦ĸà¦£
Ġà¦Ĩà¦¨ à¦®
à¦Ĩà¦® à¦¦
à¦¦à¦° à¦ĵ
à¦ĩà¦² à¦°
à¦ĩà¦² à¦ļ
Ġà¦īà¦ª à¦§
Ġà¦īà¦ª à¦®à¦¨
Ġà¦īà¦ª à¦¬à¦¨
Ġà¦ħà¦¤ à¦ªà¦°
Ġà¦ħà¦¤ à¦¬à§ľ
Ġà¦¸à¦¨ à¦¨
à¦Ĺà¦¤ à¦¤
à¦Ĺà¦¤ à¦ª
à¦¤à¦¬ à¦Ł
à¦¤à¦¬ à¦¶
à¦¤à¦¬ à¦Ĺ
à¦¤à¦¬ à¦ļ
à¦¤à¦¬ à¦Ń
à¦¤à¦¬ à¦¸à¦¨
Ġà¦ķà¦² à¦Ĺ
Ġà¦ķà¦² à¦¹à¦ª
à¦®à¦¤ à¦ª
à¦®à¦¤ à§İà¦ªà¦°à¦¤
à¦Ľà¦¨ à¦ª
à¦¯à¦ķ à¦£
à¦¯à¦ķ à¦ĵ
Ġà¦Ĩà¦ķ à¦¶
Ġà¦¯à¦ĸà¦¨ à¦ķ
à¦¶à¦¨ à¦Ĺà¦°
Ġà¦ľà¦² à¦®à¦£
Ġà¦ľà¦² à¦¸à¦®
Ġà¦ľà¦² à¦Ľà¦¡
à¦²à¦¤ à¦ĩ
à¦²à¦¤ à¦ª
Ġà¦°à¦ķ à¦¸
à¦®à¦ķ à¦®
à¦®à¦ķ à¦°à¦£à¦ĵ
à¦ļà¦¨ à¦®
à¦ļà¦¨ à¦¸
à¦ļà¦¨ à¦¦
Ġà¦¸à¦° à¦¯
à¦ªà¦¦ à¦¸à¦Ń
Ġà¦ıà¦¤ à¦²
Ġà¦Ĩà¦¶ à¦ķà¦¥
à¦°à¦¹ à¦°à¦Ł
à¦²à¦¬ à¦ĩ
à¦°à¦ľ à¦¸
à¦°à¦ľ à¦ľ
à¦¨à¦¬ à¦ľà¦Ĺà¦¤
à¦¨à¦¬ à¦¦à¦°à¦¦
Ġà¦ĵà¦ªà¦° à¦®à¦¹à¦²
Ġà¦ħà¦ª à¦¥
Ġà¦ħà¦ª à¦ķà¦²
Ġà¦ħà¦ª à¦Ĺà¦¤
Ġà¦ħà¦ª à¦ļà¦¨
Ġà¦ħà¦ª à¦¯à¦¶
à¦®à¦² à¦¤à¦°
Ġà¦¸à¦¹ à¦¬à¦¤
Ġà¦¸à¦¹ à¦ħà¦¬à¦¸
à¦²à¦¨ à¦¶
à¦²à¦¨ à¦ĸ
à¦²à¦¨ à¦Ń
à¦²à¦¨ à¦ķà¦°
à¦²à¦¨ à¦Ĺà¦°
à¦²à¦¨ à¦®à§Ł
à¦¦à¦¨ à¦¨
à¦¦à¦¨ à¦Ĺà¦°
à¦¦à¦¨ à¦¸à¦¹
à¦ĩà¦¨ à¦¦
à¦ĩà¦¨ à¦ª
à¦ĩà¦¨ à¦¶
à¦ĩà¦¨ à¦ļ
à¦ĩà¦¨ à¦Ń
à¦ĩà¦¨ à¦¬à¦¨
à¦¾âĢĶ âĢĵ
à¦°à¦¯ à¦¯
à¦¼à§ĭ à¦ĥ
à¦¼à§ĭ ?âĢĿ
Ġà¦Ĩà¦¤ à¦¶
Ġà¦ĺà¦Ł à¦ķ
Ġà¦ĺà¦Ł à¦®
Ġà¦ĺà¦Ł à¦ľ
Ġà¦ĺà¦Ł à¦ĺà¦Ł
à¦ķà¦¬ à¦¦à¦²
à¦§à¦ķ à¦£
à¦§à¦ķ à§°
Ġà¦ıà¦ĸ à¦ĸ
Ġà¦ıà¦ĸ à¦¬à¦°
à¦ıà¦ĩ à¦¦
à¦¯à¦¤ à¦ª
à¦¹à¦° à¦ª
à¦Łà¦ķ à¦ķ
à¦Łà¦ķ à¦¶
à¦Łà¦ķ à¦¹
Ġà¦ķà¦¬ à¦¯
Ġà¦ķà¦® à¦¸
Ġà¦ķà¦® à¦¦
Ġà¦ıà¦Ĺ à¦¨
âĢ¦ "
âĢ¦ !âĢĿ
âĢ¦ âĢ¦.
à¦¨à¦¨ à¦¸
à¦¨à¦¨ à¦¦
à¦¸à¦¨ à¦°
à¦¸à¦¨ à¦Ĺ
à¦¸à¦¨ à¦ªà¦°
à¦¸à¦¨ à§İ
à¦¸à¦¨ à¦ķà¦°
à¦Ńà¦¬ à¦¸
à¦Ńà¦¬ à¦¶à¦ķ
Ġà¦ªà§ľ à¦¶
Ġà¦ĵà¦ĩ à¦Ĺ
à¦¿? âĢĵ
à¦¿? ï»¿
Ġà¦Ĩà¦°à¦ĵ à¦ĩ
Ġà¦ķà¦¤ à¦Ń
Ġà¦ķà¦¤ à¦ľà¦¨à¦ķ
Ġà¦¬à¦Ľà¦° à¦Ńà¦°
Ġà¦¬à¦ĩ à¦ļ
Ġà¦¬à¦ĩ à¦ıà¦°
Ġà¦¬à¦ĩ à¦Ńà¦°
à¦®à¦° à¦Ĺ
à¦ļà¦² à¦ĵ
à¦®à¦£ à¦¶
à¦¤à¦² à¦¦
à¦¤à¦² à¦Ń
Ġà¦ħà¦ľ à¦²
Ġà¦īà§İ à¦ĸà¦¨à¦¨
Ġà¦¬à¦¹ à¦ķ
Ġà¦¬à¦¹ à¦°à¦ķ
Ġà¦¬à¦¹ à¦¨à¦¯
à§Ģ, -
à¦¸à¦® à¦ŀ
Ġà¦ħà¦ļ à¦ķ
à¦·à¦ķ à¦ľ
à¦·à¦ķ à¦¦à¦²
à¦¬à¦¦ à¦¶
à¦¬à¦¦ à¦®à¦¨à¦ķ
à¦²à¦² à¦ĵà¦¹
à¦¯à¦® à¦¬
à¦¯à¦® à¦Ł
à¦¯à¦® à¦¦
à¦¯à¦® à¦§
Ġà¦ĩà¦¨ à¦ļ
Ġà¦ĩà¦¨ à¦¸à¦²
Ġà¦ĩà¦¨ à¦«à¦°
à¦¸à¦° à¦Ļ
à¦¤à¦ķ à¦ĩ
à¦¤à¦ķ à¦ª
Ġà¦Ĺà¦° à¦°
à¦¦à¦² à¦Ĺà¦¤
à¦ļà¦ķ à¦ĵ
Ġà¦ħà¦® à¦¸
Ġà¦ħà¦® à¦²à¦¤
Ġà¦ªà¦¦ à¦ĩ
Ġà¦ªà¦¦ à¦Ĺ
Ġà¦ªà¦¦ à¦¦à¦²
Ġà¦ªà¦¦ à¦¶à¦¬
Ġà¦ªà¦¦ à¦ªà¦¥
à¦¼à§ĩà¥¤ âĢ¦
à¦Ĺà¦° à¦ĸ
à¦¨à¦Ł à¦Ł
à¦¤à¦¤ à¦¦
à§° à¦Ĺà¦¤
à§° à¦¸à¦®
à¦ıà¦ķ à¦ļ
à¦ıà¦ķ à¦Ń
à¦ıà¦ķ à¦Ŀ
à¦ıà¦ķ à¦ĩà¦Ń
à¦ıà¦ķ à¦ĺà¦£
à¦¤à¦® à¦¦
à¦¤à¦® à¦§
à¦¤à¦® à¦¹à¦²
Ġà¦ħà¦ªà¦° à¦ª
Ġà¦¶à¦° à¦Ĺ
Ġà¦¶à¦° à¦¬à¦¨
Ġà¦Ĺà¦¨ à§İà¦ķ
Ġà¦Ĳ à¦ĸ
Ġà¦Ĳ à¦¸à¦¬
Ġà¦Ĳ à¦®à§Ŀ
à¦°à¦Ľ à¦¡
à¦ªà¦ķ à¦ĩ
à¦ªà¦ķ à¦¤à¦°
Ġà¦°à¦Ļ à¦¤
Ġà¦°à¦Ļ à¦ĩ
Ġà¦°à¦Ļ à¦ª
Ġà¦°à¦Ļ à¦®à¦ŀ
Ġà¦°à¦Ļ à¦®à¦¹à¦²
à§ģ, âĢĻ
à§ģ, âĢĿâĢĶ
à¦°à¦ļ à¦ĵ
à¦¶à¦ķ à¦ĩ
à¦¶à¦ķ à¦¹
à¦¶à¦ķ à¦¥
à¦°à¦Ń à¦¨
à¦ĩà¦ķ à¦ª
à¦Łà¦² à¦ĩ
à¦Łà¦² à¦ĵ
Ġà¦Ĩà¦§ à¦°
Ġà¦Ĩà¦§ à¦²
à¥¤âĢĻ [
à¦¼à§ĩ, âĢĻ
à¦¼à§ĩ, âĢĿ
à§ĩ! âĢĻâĢĶ
à§ĩà¥¤âĢĿ âĢĶ
à¦¶à¦¬ à¦ļà¦°à¦£
âĢĮ ,
âĢĮ âĢĶ
Ġà¦ħà¦² à¦Ĺ
à¦¬à¦¬ à¦¹
Ġà¦ħà¦¬à¦¶ à¦ĩ
à¦¯à¦¸ à¦®à¦¯
à¦¸à¦« à¦°à¦®
à§ģà¥¤ âĢĺ
à§ģà¦ĥ âĢĶ
Ġà¦Ńà¦¬ à§İ
à§įâĢĮ âĢĵ
à§įâĢĮ à¥¤âĢĻ
à§įâĢĮ !âĢĻ
à¦¯à¦¦ à§Ł
à¦¹à¦¨ à¦°
à¦¹à¦¨ à¦Ń
à¦ĩà¦Ł à¦¬
à¦ĩà¦Ł à¦ĵ
à¦ĸà¦Ľ à¦ĩ
à¦¾! !
à¦¾! )
à¦¾! âĢĶ
Ġà¦īà¦ªà¦° à¦¸
à¦ķà¦¨ à¦ª
à¦ķà¦¨ à¦ļà¦¨
à¦Ĺà¦ľ à¦¸
à¦Ĺà¦ľ à¦Ń
Ġà¦Ī à¦Ĺà¦²
Ġà¦Ī à¦¦à¦Ĺ
Ġà¦Ī à¦·à¦¦
Ġà¦¶à¦¤ à¦§
Ġà¦¶à¦¤ à¦¸à¦¹à¦¸
Ġà¦Ĩà¦¡ à¦²à¦«
Ġà¦°à¦ĩà¦² à¦¬
Ġà¦°à¦ĩà¦² à¦ĩ
à¦¨à¦¦ à¦¶
à¦ªà¦¸ à¦ľ
Ġà¦ĸà¦¬à¦° à¦ªà¦¤
à§ĩ; âĢĶ
à¦¨à¦¸ à¦¦
à¦¨à¦¸ à¦¡
à¦¨à¦¸ à¦ŀ
à¦¨à¦¸ à¦ķà¦¨
à¦°à¦Ĺ à¦ķ
à¦°à¦Ĺ à¦£à¦ķ
à¦¸à¦ķ à¦¯
à¦¸à¦ķ à¦®
à¦¸à¦ķ à¦Ń
à¦§à¦¤ à¦Ń
à¦¦à§Ł à¦ĵ
à¦ıà¦¬ à¦®à¦¸
à¦ľà¦¬ à¦ľ
Ġ( âĢľ
Ġ( ?)
Ġà¦ıà¦¨ à¦ľà¦¯
à¦ľà¦² à¦®
à¦ľà¦² à¦¬à¦¨
à§ĭâĢĶ âĢĻ
à¦°à¦®à¦£ à¦²
à¦°à¦®à¦£ à¦®
à¦°à¦®à¦£ à¦Ĺà¦²
à¦¼à§Ģ à¥¤âĢĿ
à¦¼à§ģ âĢĵ
à¦¨à¦Ĺ à¦®
à¦«à¦² à¦¸
à¦Łà¦¬ à§ľ
à¦Łà¦¬ à¦ī
Ġà¦ĭ à§Ł
Ġà¦ĭ à¦ķà¦¬
Ġà¦¸à¦¹à¦ľ à¦ĵ
Ġà¦īà§İà¦¸ à¦ĩ
à¦ªà¦· à¦ľ
à¦Ĺà¦¬ à¦Ĺà¦Ł
Ġà¦ĺà¦¨ à¦ľà¦Ļ
Ġà¦Ĩà¦ª à¦£
à¦²à¦® à¦Ł
à¦²à¦® à¦¦
à¦²à¦® à¦¶à¦²
à¦®à¦¸ à¦¹
Ġà¦¬à¦ķ à¦ª
à¦¹à¦¤ à¦ĩ
Ġà¦ķà¦²à¦ķ à¦ľ
à¦¾âĢĵ âĢĵ
à¦ľà¦ķ à¦®
à§İà¦¸ à¦¯
à¦·à¦® à¦®
Ġà¦¤à¦¤ à¦¸
à¦¨à¦° à¦Ļ
Ġà¦¦à¦¶ à¦Ń
à§ĭ? "
Ġà¦Ĺà§ľ à¦ªà§ľ
à¦¼âĢĶ )
à¦ľà¦¸ à¦ªà¦¤
Ġà¦¬à§ľ à¦¬
Ġà¦¬à§ľ à¦ľ
Ġà¦¬à§ľ à¦ķà¦°
à¦ķà¦¶ à¦¨à¦ĵ
à¦¿! âĢĶ
à¦¼? )
Ġà¦¬à¦ī à¦Ľ
Ġà¦¬à¦ī à¦Ĺ
Ġà¦¬à¦ī à¦¡
Ġà¦¬à¦ī à¦ł
à¦²à¦Ĺ à¦Ł
à¦²à¦Ĺ à¦Ļ
à¦ķà¦¡ à¦ĩà¦¨
à¦ªà¦£ à¦ĩ
à¦²à¦¸ à¦ĵ
à¦²à¦¸ à¦ıà¦°
à¦¦à¦® à¦§
Ġà¦¨à¦¬ à¦Ĺà¦¡
à¦¶à¦² à¦¯
à¦®à¦¹ à¦®
à¦®à¦¹ à§İ
Ġà§ «à§¨
à¦¬à¦ĩ à¦Ĺ
Ġà¦¨à¦°à¦® à¦¤
Ġà¦®à¦ľ à¦¦
à¦ĩà¦Ń à¦¸
à¦¡à¦² à¦°
Ġà¦Ĺà¦£ à¦¦
Ġà¦Ĺà¦£ à¦¶à¦ķ
à¦®à§Ł à¦ķ
à¦°à§Ł à¦¸
à¦ĩà¦¡ à¦¸
à¦ĩà¦¡ à¦¶
à¦ĩà¦¡ à¦Ĺ
à¦ĩà¦¡ à¦¬à¦ĩ
Ġà¦ªà¦°à¦® à¦§à¦°
à¦¹à¦°à¦£ à¦ķ
à¦¯à¦ª à¦²
Ġà¦¶à¦¹ à¦°à¦®à¦¯
Ġà¦Ĩà¦¦à¦° à¦Ł
à¦®à¦°à¦£ à¦¬
à¦ķà¦¥ à¦¯
à¦ķà¦¥ à¦®
à¦ķà¦¥ à¦ŀ
Ġà¦¸à¦°à¦² à¦ª
Ġà¦¸à¦°à¦² à¦¤à¦®
à¦°à¦ĸ à¦£
Ġà¦Ĺà¦°à¦® à¦ĵ
Ġà¦īà§İà¦¸à¦¬ à¦ª
à¦ķà¦°à¦£ à¦ķ
à¦ķà¦°à¦£ à¦Ĺ
à¦ķà¦°à¦£ à¦¹
à§ĩ?âĢĿ à¥¤
à¦ķà¦¸ à¦¦
à¦ķà¦¸ à¦Ń
à¤ ¢
à¤ ¥
à¤ ĺ
âĢĻ, -
à¦ľà¦® à¦ľà¦®
à¦¡à¦¬ à¦¬à¦¨
à¦°à¦« à¦¤à¦ĩ
Ġà¦°à¦¸ à¦ĩ
Ġà¦°à¦¸ à¦Ń
Ġà¦°à¦¸ à¦®à¦¯
Ġà¦®à¦² à¦®à¦²
à§ĩâĢ¦ âĢĻà¥¤
à§ĩ?âĢĻ âĢĶ
à¦ķà¦Ĺ à¦ŀ
à§¦ à§«
à¦®à¦¶ à¦¤à¦¬
à¦®à¦¶ à¦°à¦£à¦ķ
,âĢĿ âĢĵ
à¦Ľà¦² à¦ĩ
à¦Ľà¦² à¦Ń
à¦®à¦¦ à¦¨à¦¬
à¦²à¦Ń à¦¸
Ġà¦ķà§Ł à¦¦
Ġà¦ķà§Ł à¦ľà¦¨
à¦Łà¦Ľ à¦¡
à¦¥à¦² à¦ªà¦¦
à¦¬à¦¹ à¦¬
à¦¬à¦¹ à¦®
à§ĩ: -
à¦¯à§İ à¦®
Ġà¦ħà¦Ł à¦²à¦ķ
Ġà¦ħà¦Ł à¦ªà¦Ł
âĢ¦âĢĿ à¥¤
à¦ļà§Ł à¦¹
Ġà¦Ĩà¦ĩà¦¨ à¦¸à¦®
à¦¸à¦¹ à¦ļà¦°
Ġà¦®à¦¦ à¦¬
Ġà¦®à¦¦ à¦®à¦¤
à¦Ĩà¦² à¦ĸ
à¦ĩà¦ľ à¦ĵ
Ġà¦ľà§Ł à¦Ł
Ġà¦ľà§Ł à¦ª
Ġà¦ľà§Ł à¦ĵ
à¦¿âĢĻ !âĢĿ
à¦¡à¦¬à¦¦ à¦¹à¦¨
à¦¾à¦ĥ /
à¦¾à¦ĥ ?
à¦¾à¦ĥ âĢĶ
à¦¾à¦ĥ âĢ¦
à¦¾à¦ĥ !âĢĻ
à¦¯à¦Ł à¦¨à¦ķ
à¦ļà¦°à¦£ à¦ĵ
à¦ľà¦Ĺ à¦¦
à¦ľà¦Ĺ à¦¬à¦¨
à¦·à§Ł à¦°
à¦·à§Ł à¦ª
à¦·à§Ł à¦ĵ
à¦·à§Ł à¦Ĺà¦¤
in ce
in ci
Ġà¦īà¦· à¦¸
Ġà¦¹à¦ĩ à¦¹à¦Ł
à¦¦à¦¶ à¦¦
à¦¯à¦ķà¦° à¦ĵ
Ġà¦ıà¦¡ à¦¸
th es
à¦ĩà¦¦ à¦ŀ
Ġà¦¸à§İ à¦¬
Ġà¦¸à§İ à¦ªà¦°
Ġà¦¸à§İ à¦¸à¦Ļ
à¦¯à¦¤à¦® à¦ĵ
Ġà¦ĸà¦°à¦ļ à¦ĩ
an i
à¦¶à¦Ĺ à¦Ļ
Ġà¦Ĩà¦« à¦¶
à¦²à¦ľ à¦«
à¦®à¦® à¦ŀ
à¦ķà¦ª à§Ł
à§« à§®
er o
er ed
er cury
à¦¬à¦°à¦£ à¦ĵ
à§ĩâĢĻ -
Ġà¦ķà¦ļ à¦¸
Ġà¦Ĺà¦¹ à¦¬à¦°
à¦¾!âĢĿ ,
à¦ªà§ľ à¦Ł
Ġà¦ķà¦²à¦® à¦ĵ
à§ĭ?âĢĿ ,
Ġà¦Ĩà§ľ à¦ļ
Ġà§¨ à§¦à§¦à§¦
Ġà§¨ à§§à§«
Ġà¦Ĩà¦ĩ à¦¸à¦²
Ġà¦Ĩà¦ĩ à¦¡à¦²
Ġà¦Ĩà¦ĩ à¦ıà¦¸
à¦ªà¦Ĺ à¦ŀ
Ġà¦®à¦¨à¦¨ à¦§
Ġà¦®à¦¨à¦¨ à¦ļà¦°
al a
al s
al t
al y
Ġà¦Ńà¦Ĺ à¦ķ
à§© à§«à§Ń
à§© à§¯à§®
à¦ľà§Ł à¦ĩ
à¦ľà§Ł à¦ª
Ġà¦Ķ à¦·
Ġà¦Ķ à¦°à¦Ļ
à¦Ī à¦ķ
Ġà¦Ĩà¦Ł à¦·à¦Ł
Ġà¦Ĩà¦Ł à¦¦à¦¶
à¦¯à¦Ĺ à¦ļ
à¦¯à¦Ĺ à§ľ
à¦ķà¦£ à¦¹
Ġà¦¨à¦° à¦ļà¦¨
à¦īà¦ĩ à¦ļ
Ġà¦°à¦¥ à¦Ł
Ġà¦¤à¦¨ à¦ŀ
à¦¸à¦°à¦£ à¦ķ
Ġà¦¬à¦¦ à¦ĸ
à¦¾âĢ¦ .
à¦¾âĢ¦ à¥¤âĢĿ
à¦¾âĢ¦ à¥¤âĢĻ
Ġà¦Ńà¦Ĺà¦¬ à§İ
en o
en us
on t
on ment
à¦ĵà¦ĩ à¦°à¦ķà¦®
à§Ń à§©
à¦Ĺà¦¦ à¦ĸà¦²
Ġà¦¶à¦ªà¦¥ à¦ªà¦¤
à¦¸à¦®à§Ł à¦¸
à¦¯à§Ł à¦¹
Ġà¦ªà¦²à¦ķ à¦¬
à¦¯à¦°à¦ķà¦® à¦ĩ
à¦·à¦¸ à¦ĵ
âĢĻ- âĢĺ
Ġà¦Ńà¦°à¦¤ à¦¨
Ġà¦Ĩà¦¬à¦¹ à¦¬
à¦ĸà¦¸ à¦ĸà¦¸
Ġà¦Ŀà¦ķ à¦Ŀ
Ġth y
Ġth ou
Ġà¦ľà§ľ à¦¤
ti v
ti tion
or n
or s
ar a
ar b
ar e
ar g
à¦ĭ à¦ķ
à¦ĭ à¦ľ
à¦ĭ à§Ł
à¦ĭ à¦Ĺà¦¬
Ġà¦¤à¦¦ à¦ª
à¦¶à¦¹à¦° à¦Ł
Ġà¦Ĺà¦łà¦¨ à¦¶
Ġs ing
Ġs ec
Ġs ong
Ġs ens
Ġs ud
Ġs ign
Ġs ister
à¦£à¦Ĺ à¦¹
à¦Ĩà¦¶ à¦«
... à¥¤âĢĿ
à¦¬à¦Ĺ à¦ŀ
Ġà¦®à¦Ĺ à¦§à¦¦
à¦ħà¦¸ à¦¬à¦°
Ġà¦ıà¦® à¦ıà¦®
à¦Ĳ à¦¨
à¦ĩà¦¶ à¦ľà¦¨
à¦Ńà§Ł à¦Ļ
Ġà¦ħà¦®à¦° à¦ª
Ġà¦¬à¦°à¦« à¦¶
is ed
à¦¬à¦Ľà¦° à¦Ĺ
à¦ĩà¦« à¦¤
à¦ĩà¦« à¦¯
Ġà¦ľà¦¨à¦¸ à¦®à¦ķ
à¦¤à¦¹ à¦¬
Ġà¦ľà¦Ĺà§İ à¦Ĺ
à§ĢâĢĻ !
ed ia
Ġthe y
Ġà¦¸à¦« à¦°à¦ķ
Ġà¦¸à¦« à¦°à¦Ł
à¦ļà¦¸ à¦ľ
at es
at ing
à¦·à¦Ĺ à¦¹
à¦¼à¥¤âĢĻ [
Ġà¦ĩà¦¹ à¦ľ
Ġc u
Ġc le
Ġc re
Ġc he
Ġc omes
Ġc aused
el o
el y
el et
el fie
Ġw al
Ġw ell
Ġw ould
it ch
Ġà¦¬à¦ªà¦¨ à¦ķ
Ġb re
Ġb ell
Ġb ack
Ġb orn
Ġà¦ĩà¦ī à¦ıà¦«
as tic
Ġà§© à§©
Ġà§© à§ªà§¦
Ġà§© à§¬à§«
Ġà¤ ¤
Ġà¤ ¦
Ġà¤ ħ
Ġà¤ Ľ
Ġà¤ Ŀ
Ġà¤ Ń
à§Īà¦ĥ !
Ġà¦¶à¦® à¦¦à¦®
Ġà¦īà¦ĩà¦² à¦¸à¦¨
à§® à§¦
à¦¼à¦¿à¦Ĥ ,
à¦¼à¦¿à¦Ĥ âĢĶ
Ġm ap
Ġm ust
Ġm ons
Ġm iss
Ġm ake
Ġm arri
Ġm ixed
à§ĭâĢ¦ âĢĻà¥¤
à¦¨à§Ł à¦ļà¦¨
Ġh as
Ġh igh
Ġh ap
Ġh ym
Ġh oriz
re use
à§ĩâĢĿ !
à¦ļà¦ľà¦¨ à¦ĵ
Ġa ge
Ġa way
Ġa gain
Ġf ar
Ġf low
Ġà¦ĵà¦¹ à¦¹
à¦¶à¦Ŀ à¦¡
à¦ħà¦ª à¦ķà¦°
Ġp er
Ġp ri
Ġp rom
Ġp oss
Ġp art
Ġt rav
Ġo b
ĠA R
ĠA b
ĠA y
ĠA RE
ĠA VIN
Ġà¦®à¦°à¦£ à¦¦à¦¶
Ġd el
Ġd re
Ġd own
Ġd esc
Ġd yn
Ġd augh
ĠĠĠĠ ĠĠ
à¦°à¦¬à¦£ à¦¯
à¦¨à¦¶à¦¨ à¦Ł
Ġà¦ĵà¦ľà¦¨ à¦Ł
ĠP l
ĠP o
ĠP IN
à¦Ĺà¦ł à¦¨à¦Ł
à¦ªà¦¶à¦¨ à¦Ł
Ġà¦®à¦¤à¦²à¦¬ à¦ĵ
ĠS out
ĠS te
à¦¾âĢ¦âĢĿ à¥¤
à¦¾âĢ¦âĢĿ âĢĶ
all er
ol ve
ol ation
à¦Ĺà¦¬à¦¤ à¦ª
ig o
ra c
à§§à§¯à§ «
áĥ £áĥ
à¦¿âĢ¦âĢĿ âĢĶ
ĠB ut
ĠB ang
à¦īà¦ª à¦Ń
à¦īà¦ª à¦²à¦ķ
Ġl ater
à¦¼âĢ¦ à¥¤âĢĻ
à§ĭâĢ¦âĢĿ âĢĶ
à§ĩ!âĢĻ âĢĿ
Ġin s
à¦®à¦²à¦¤ à¦²
Ġà§§à§® à§¦
Ġà§§à§® à§©à§©
Ġà§« à§®
ĠI D
ĠI X
ĠI ron
Ġn o
Ġn um
Ġn ames
à¦ħà¦ľ à¦Ĺà¦°
us tice
Ġà¦ĺà§ľ à¦ĺà§ľ
Ġà¦Ĺà¦²à¦¦ à¦ĺ
ec tor
Ġà¦¨à¦ľ à¦°à¦Ł
ent rilo
ut um
à¦¤à¦ļà¦° à¦°
ur n
ur an
ur al
tion s
à¦°à¦Ŀ à¦¡
Ġà¦īà¦ĩ à¦ł
ĠR ain
ĠR ama
à¦ıà¦ĩà¦ļ à¦ıà¦¸à¦¸
à§ĩâĢĻ, âĢĻ
à§ĩ,âĢĻ âĢĻ
ĠD ata
Ġe ver
Ġe ach
Ġe arth
âĢ¦à¥¤ âĢĺ
Ġà¦¬à¦ļà¦¨ à¦®à¦¬
Ġà¦Ĺà¦Ĺà¦¨ à¦Ľ
Ġà¦°à¦ľà¦¤ à¦ĵ
à¤¾ à¤Ĥ
à¤¾ à¤ģ
ch e
ch à¦²
à§Ģ?âĢĿ âĢĶ
Ġà§¬ à§ª
Ġà§¬ à§«à§¦
Ġà¦ľà¦¹ à¦°à¦¤
à§ģâĢ¦ à¥¤âĢĿ
à¦·à¦ľà¦¨ à¦ĵ
Ġg en
Ġg ent
Ġg ood
Ġà¦¬à¦Ĺà¦² à¦¸
Ġà¦¦à¦°à¦¦ à¦¸
à¦Ĩà¦ļà¦°à¦£ à¦ķ
à¦Ĩà¦ļà¦°à¦£ à¦ĩ
Ġà§Ń à§¨
Ġà§Ń à§¦à§¦
Ġà§¨à§¦ à§¨à§¦
ĠT ruth
ĠT HEY
Ġà¦²à¦¬ à¦£à¦ķ
ĠN O
à¦Ĩà¦Ł à¦ľà¦¨
ac t
ac ed
ac ter
ot ol
ot oc
ĠC A
ĠC O
ĠC ass
ĠC aller
Ġà¦ªà¦Łà¦² à¦Ĺ
à¦¶à¦§à¦° à¦°
à§§à§¦ à§§
Ġà¦®à¦Ł à¦®à¦Ł
Ġbe fore
ir it
à¦¯à¦Łà¦ķ à¦ķ
à¦ľà¦¹ à¦°à¦¤
à¦Ĺà¦²à¦ķ à¦¬
à§§à§¨ à§«
Ø§ ÛĮ
Ø§ Ùħ
Ø§ Ùĩ
Ġà¦§à§ľ à¦ķà¦¨
Ġà¦§à§ľ à¦®à§ľ
à¦®à§Łà¦ķà¦° à¦Ń
ĠL a
ĠL ike
ĠL td
Ġto o
à¦Ĭ à¦¨à¦¬
à¦¡à¦īà¦ĩ à¦¥
à¦¡à¦īà¦ĩ à¦ļà¦Ĺ
Ġis olation
Ġà¦¬à¦Ľ à¦°à¦¤
Ġà¦¬à¦Ľ à¦°à¦¬
Ġà¦¤à¦ªà¦¨ à¦¸
em p
em y
à¦ĩà¦®à¦¨ à¦ķ
éŁ¿éŁ¿éŁ¿éŁ¿éŁ¿éŁ¿éŁ¿éŁ¿éŁ¿éŁ¿éŁ¿éŁ¿éŁ¿éŁ¿éŁ¿éŁ¿ éŁ¿éŁ¿éŁ¿éŁ¿éŁ¿éŁ¿éŁ¿éŁ¿
à§ĩà¦ĥ !
Ġà§§à§¯ à§§à§¦
à§¯à§ ¨
Ġà§§à§« à§«à§«
ad e
à¤¤ à¤°
Ġà¦«à¦²à¦¨ à¦¶
ĠÐ ±
ĠÐ ²
ĠÐ ´
ĠÐ ¼
Ġà§§à§¯à§¨ à§«
Ġà§§à§¯à§© à§®
ĠG os
ĠG ang
ĠG IF
ĠØ ¨
ĠØ ¬
Ġwh ose
ĠH ar
Ġà¦ķà¦®à¦¨ à¦ĵà¦¯
à§§à§Ń à§«à§Ń
Ġà¦ıà¦ĩà¦ļ à¦Ĩà¦°
à¦ħà¦¬à¦¸ à¦°à¦ª
Ġà¦«à¦²à¦ķ à¦Ĺ
Ġà§¯ à§§
à¸ ²
à¸ ¸
ĠF ar
ĠF irst
if ication
st r
st agra
Ġì Ŀ
Ġì ŀĲ
Ġà¦ªà§Ł à¦ľà¦¨
Ġà§§à§¯à§® à§«
Ġà§§à§¯à§® à§©
Ð¾ Ð½
Ġk nown
à¥Ģ à¤Ĥ
à¦ıà¦°à¦ĩ à¦®à¦§
ĠE id
ĠE ng
um an
um ent
Ġv edic
Ġv entrilo
Ġà§©à§¦ à§ª
lec tin
op e
op s
op le
à¦¹à¦ľ à¦¸à¦¨
Ġst at
Ġst ory
Ġne xt
ci ous
ci ety
qu ism
TE CTED
ep end
Ġà¤¸ à¤¤
og n
âĢ¦. à¥¤
Ðµ Ð
Ðµ ÑĢ
Ðµ Ð½
eg r
ÑĢ Ñĭ
à¦Ķ à¦ªà¦¨
à¦Ķ à¦°à¦Ļ
à¦Ķ à¦ªà¦§
Ġà¦¤à¦¬à¦² à¦ļ
Ġà¦ĵà¦ħà¦° à¦«
à¦ıà¦« à¦ĩ
ÛĮ Ø±
Ġ× Ķ
à¦¯à¦Łà¦¨ à¦¶
Ġà¦¨à¦¬à¦° à¦¸
sel ves
Ġë °
à¥ĭ à¤Ĥ
Ġà¦Ĭà¦¨ à¦Ĩà¦¶
IN TRU
gh t
ĠU rvasi
Ġáĥ ©
Ġáĥ Ľ
Ġun ion
Ġà¦ıà¦ķà¦§ à¦°à¦£
Ġà¤ª à¤°
oss ip
Ġex ec
Ø§Ø ¯
Ø§Ø ²
!! !
à° ¨
à° ¾
ĠV is
Ġà§§à§¯à§Ń à§©
ib le
iv idual
Ġà¦®à§Ł à¦®à¦¨à¦¸
Ġcl lectin
yan i
Ġat ms
à¦Ĩà¦ĩà¦¸ à¦¸
Ø´ ÙĨ
Ø´ Ø§Ø±
à¦°à¦²à§Ł à¦Ļ
Ġà§§à§¯à§« à§§
Ġà§§à§¯à§« à§¦
Ġà§§à§¯à§« à§«
Ġà§§à§¯à§« à§ª
ĠPar tition
-- -
Ñĥ Ð»
à¤ľ à¤¨
Ġà§¨à§¦à§¦ à§®
Ġso il
Ġso ciety
à¦īà¦ªà¦ķ à¦°à¦£
Ġme an
az i
Ġê °
Ġà¦¸à§ľ à¦ķà¦Ĺ
ĠIn spec
ĠIn stagra
LE D
pec ial
ym e
Ġà¦¯à¦®à¦¦ à¦£
Ġsu it
Ġsu ch
Ġà§§à§®à§¬ à§Ń
ĠIntellig ence
00 0
way s
ï¿½ ï¿½
ĠÑģ Ð»
Ġà¦Ĺà¦Ĺ à¦¨à¦¬
à¦ľà¦¨à¦Ĺà¦£ à¦®à¦¨
Ġà¦łà¦¨ à¦łà¦¨
Ġà¤ī à¤ľ
Ġapp ro
Ġapp ears
à§§à§¯à§¬ à§«
à§§à§¯à§¬ à§©
Ġliter acy
Ġref lex
ĠâĨ ĲâĨ
Ġà¦¸à¦¦à§Ł à¦¤
à¤ª à¤Ł
Ġsk elet
iss ion
Ġà¤µ à¤¹
Ġà¤ľ à¤¹
Ġpl ace
ĠRe use
ĠRe hana
ÂŃÂŃÂŃÂŃÂŃÂŃÂŃÂŃÂŃÂŃÂŃÂŃÂŃÂŃÂŃÂŃ ÂŃÂŃÂŃÂŃÂŃÂŃÂŃÂŃÂŃÂŃÂŃÂŃÂŃÂŃÂŃÂŃ
áĥĲáĥ Ľ
DI TI
yn c
Ġal so
Ġsp irit
Ġcr oss
Ġcur ios
à§§à§¯à§© à§¯
ĠIs lam
ĠUn cle
OO T
cl ing
we et
à¦ķà¦¸à¦² à¦¸
à¦¡à¦¬à¦¬ à¦§
ĠâĢĶâĢĶâĢĶ âĢĶ
esti m
Ġthem selves
Ġbir d
Ġoff end
áĥķ áĥĶáĥ
Ġinter est
Ġà§¨à§¦à§Ń à§«
Ġà§¨à§¦à§Ń à§§à§ªà§«
Ġreg ion
Ġcons cious
ÑĢÐ° Ð¼
Â·Â· Â·
Ġtrans it
Ġcontinu ous
cra p
rish na
Õ½ Õ¿
à± ĩ
åķ ı
ê° Ħ
ìĿ ĺ
Ġver y
Ġsup er
recy cling
Ġpo et
omm un
rad ition
Ġind ividual
Ġgl itch
ĠTra ged
ĠComp any
ĠChr data
Ġrh yme
Ġdisc ern
Ġtim e
vir onment
Â¦ à¦¾
Ïħ Î
ÙĤ Ø¯
à¦°Ã¦ à¦¤
Ġà¦¶à¦ĵ à¦ķà¦¤
à¦ħà¦¨à¦¬ à¦°à¦¤
Ġthink ing
Ġsend ing
ĠĠĊĠĠĠĠĠĠĠĠĠĠ Ġ
Ġcult ural
Ġpe ople
Ġpit ri
ĠSm art
à§§à§¯à§¦ à§©
ĠRec ycle
ĠDE TECTED
ĠTur k
ĠGandhar va
ĠHow rah
ĠOri on
Ġkn ow
Ġcontem por
Ġvill age
Ġmyster ious
Ġprojec tor
Ġhero ic
personaliz ed
Ġà¦¬ungal ow
ĠOffice Boss
Gest alt
HAT TA
ITI A
LM S
Red uce
Un known
YAB HATTA
nÄ± n
Ġà¦ªà¦ĩà¦ª à¦ĩ
Ġà¦ľà¦ĵà¦¹ à¦°à¦²
Ġà¦ıà¦²à¦ıà¦¸ à¦¡
inci ple
Ġsud den
Ġà¦ĩà¦īà¦ıà¦« à¦ĵ
Ġhym n
ĠSte el
utum n
ĠRain water
otoc ol
ĠCass io
ĠLike wise
Ġventrilo quism
INTRU SION
ĠInspec tor
ĠInstagra m
ĠâĨĲâĨ Ĵ
Ġskelet on
Ġcurios ity
ĠTraged y
vironment al
! /
! ?
! âĢĺ
" à¥¤
% à¥¤
% âĢĵ
% à¥¤âĢĿ
' âĢĶ
, /
, âĢ¦
, âĢĶâĢĺ
- à¦¾,
- âĢĻ
- âĢĵ
. ,
. /
. ?
/ âĢĻ
0 6
1 6
1 9
= {
? !
? à¥¤âĢĻ
A D
A K
A c
A n
A r
A the
A pp
B ig
B ea
B AC
C K
C s
C or
C all
C ow
C ool
C HO
D G
D ance
E T
E m
E x
E ff
E co
E BAC
E CHO
F it
F ade
H en
H is
H el
H ive
H CO
I f
J up
L O
L et
L ink
M e
M ars
M ercury
N o
N CT
O D
O T
O ER
O mlet
O MO
O ops
P A
P P
P R
P T
P U
P er
P hil
R A
R AC
S S
S Y
S at
S ak
S ens
S elfie
S crap
S DG
T y
U p
U RE
U LE
V is
V enus
W e
W ho
W AK
X J
X II
Z ia
] :
^ ^
_ _
a an
a ti
a it
a ut
a ur
a un
a id
a ul
a im
a tic
a ith
a ves
a Cor
a HCO
a Link
b a
b w
b el
b ra
b us
b ur
b ab
b our
b ack
b ness
c k
c r
c u
c end
c ome
c omp
c use
c ase
c ritical
d is
d om
d uc
d ney
e o
f l
f t
f in
f er
f for
f ather
f ron
g o
g in
g an
g ing
g ate
g ling
h y
h à¦¶
h el
h and
h ere
h ya
h ons
i j
i an
i ar
i et
i ver
i od
j un
k an
k er
k en
k ed
l o
l in
l an
l ish
l ine
l ished
m es
m at
m as
m os
n ic
n ot
n ight
o x
o og
o ff
o int
o ven
o ard
o bi
o als
p el
p ohela
p art
r d
r en
r ing
r ous
r ich
r oss
r ater
r iment
s p
s ion
s ister
s olve
s App
t z
t et
t ation
t end
t ap
t ator
t echn
u ti
u ra
u ght
v i
v al
v il
v id
v am
v est
w a
w ar
w it
w as
w ink
w ard
y ster
¤ ï
¥ ı
¦ ¬
¦ ÙĨ
¨ ì
¨ à¦¤
¯ à¤¹
° Ø±
± ĭ
³ µ
µ į
¶ à¦°
¼ Îµ
Â ²
Ã ³
Ã ¶
Ã Ł
Å Ł
É Ļ
Ê ¼
Î ³
Î ´
Î Ķ
Î ¶à¦°
Ñ Ħ
Ñ İ
Ò ·
Ò ĵ
Ò Ľ
Ö ¾
Ö Ĥ
× ¦
× Ĵ
× ĸ
× Ł
× ķ×
Ø ©
Ø ¬
Ø ®
Ø ·
Ø ¸
Ù ı
Ú ¾
à ¬
à µį
á ¹
ã Ģ
ã Ĥ
å ¿
å Ĭ
å ı
å ¥ı
å ±ĭ
æ ĥ
æ Ĭ
æ ł
é ĩ
ê ·
ë ĭ
ì ĭ
ì ļ
ì ł
í ĻĶ
ð Ŀ
Ġ ?
Ġ ç
Ġ à§ĩ
Ġ à§į
Ġ à§İà¦¸
Ġ et
Ġ ĠĠĊĠĠĠ
Ġ à§İà¦ķà¦°
Ġ est
Ġ áĢ
Ġ ign
Ġ à´
Ġ Ò¯
Ġ ðĿ
ģ âĢĿ
ģ Ø±
ģ âĤĤ
Ĥ Ċ
ī Ĥ
Ĭ ¥
į ãģ
ĳ ĺ
Ĵ ¤
Ķ °ë
ķ ë
ķ Į
ĸ ´
Ľ º
Ŀ ¼
Ŀ à¦ªà¦Ł
Ŀ ¤ï
ŀ ĭ
ŀ ×Ł
ł ×Ļ×
ł ìĿĺ
Ġà¦ ¾
à¦¾ à¦¼
à¦¾ à¦¾à¦ģ
à¦¾ à¥¥
à¦¾ ÂŃ
à¦¾ âĢĲ
à¦¾ âģł
à§ĩ à¦¿
à§ĩ à§ģ
à§ĩ à§ĩà¦ģ
à§ĩ à¦¾âĢĶ
à§ĩ .âĢĿ
à§ĩ ï¿½
à¦° ç
à¦° à¦°à¦¬
à¦° à¦Ĩ
à¦° à¦°à¦®
à¦° à¦·à¦£
à¦° à¦§à¦ķ
à¦° à¦Łà¦ķ
à¦° à¦Ńà¦¬
à¦° à§Łà¦¨
à¦° à¦¢
à¦° à¦īà¦¨
à¦° à¦ıà¦°
à¦° à¦°à¦®à¦£
à¦° à¦ĺà¦¨
à¦° à¦ıà¦Ń
à¦° à¦īà¦¡
à¦° à¦ħà¦²
à¦° à¦Ĩà¦ĩ
à¦° Ð´
à§į )
à§į ;
à§į !âĢĿ
à§į à¥¤âĢĻ
à§į ?âĢĻ
à§į âĢ¦âĢĿ
à§į âĢĻ-
à§į âĢĻâĢĶ
à§į ,âĢĻ
à§į âĢĻ;
à§į ï¿½
à¦¿ (
à¦¿ *
à¦¿ >
à¦¿ â
à¦¿ à§į
à¦¿ à¦¿
à¦¿ à¦¾à¦ģ
à¦¿ à¦¾à¥¤
à¦¿ à¥¥
à¦¿ ï»¿
à¦¿ âĢĲ
à¦¨ à¦ī
à¦¨ à¦¨à¦ĵ
à¦¨ à¦²à¦¬
à¦¨ à¦ķà¦¬
à¦¨ à¦¯à¦¨
à¦¨ à¦¹à¦²
à¦¨ à¦°à¦Ł
à¦¨ à¦·à¦ķ
à¦¨ à¦¸à¦²
à¦¨ à¦ªà¦Ł
à¦¨ à¦¹à¦¨
à¦¨ à¦ħà¦¨
à¦¨ à¦ĩà¦¬
à¦¨ à¦ľà¦¯
à¦¨ à¦ħà¦°
à¦¨ à¦ıà¦¸à¦¬
à¦¨ à¦®à¦ª
à¦¨ à¦ªà¦²
à¦¨ à¦ĸà¦°
à¦¨ à¦«à¦°
à¦¨ à¦¬à¦²à¦Ľ
à¦¨ à¦Ī
à¦¨ à¦¡à¦°
à¦¨ à¦¹à¦ķ
à¦¨ à¦ĸà¦£
à¦¨ à¦Ĩà¦¶
à¦¨ à¦ħà¦²
à¦¨ à¦Ĩà¦ĩ
à¦¨ à¦Ĩà¦¨
à¦¨ à¦īà¦¤
à¦¨ à¦ıà¦ķà¦¬
à¦¨ à¦Ĩà¦¤
à¦¨ à¦ĺà¦¡
à¦¨ à¦ıà¦ĩà¦Ł
à¦¨ à¦Ŀà¦²à¦®à¦²
à¦¨ à¦ķà¦°à¦¨
à¦¨ à¦ıà¦ķà¦¦à¦®
à¦¤ à¦Ĩ
à¦¤ à¦Ľà¦¨
à¦¤ à¦®à¦²
à¦¤ à¦²à¦¨
à¦¤ à¦Ńà¦¬
à¦¤ à¦°à¦ķà¦®
à¦¤ à¦¸à¦²
à¦¤ à¦¶à¦¬
à¦¤ à¦ªà¦Ł
à¦¤ à¦Łà¦°
à¦¤ à¦ıà¦ķà¦Ł
à¦¤ à¦Ĺà¦®
à¦¤ à¦¦à¦®
à¦¤ à¦Ľà¦¤
à¦¤ à¦¯à¦ľ
à¦¤ à¦ĺà¦Łà¦¨
à¦¤ à¦¶à¦¸
à¦¤ à¦¦à¦°à¦ľ
à¦¤ à¦°à¦¤à¦²
à¦¤ à§İà¦ªà¦°à¦¤
à¦² à¦ł
à¦² à¦ľà¦¨
à¦² à¦Ĩ
à¦² à¦ĩà¦²
à¦² à¦²à¦¤
à¦² à¦Łà¦²
à¦² à¦¸à¦¤
à¦² à¦ªà¦Ł
à¦² à¦¯à¦¦
à¦² à¦«à¦²
à¦² à¦Ĩà¦®à¦°
à¦² à¦ļà¦Ł
à¦² à¦ªà¦²
à¦² à¦ĵà¦°
à¦² à¦¹à¦®
à¦² à¦ĸà¦Ł
à¦² à¦¡à¦°
à¦² à¦Ĩà¦¬
à¦² à¦Ŀà¦²à¦®à¦²
à¦² à¦Ĩà¦īà¦Ł
à¦² à¦Ĩà¦Ļ
à¦² à¦ªà¦°à¦¶
à¦² Ð¼
à¦² à¦Ĩà¦¤à¦Ļ
à¦² ä¸
à¦² à¦ıà¦°à¦ĵ
à¦² å±ĭ
à¦ķ à¦Ĺà¦²
à¦ķ à¦¬à¦¤
à¦ķ à¦¹à¦¸
à¦ķ à¦ĵà§Ł
à¦ķ à¦¦à¦¨
à¦ķ à¦ıà¦ĩ
à¦ķ à¦¯à¦¨
à¦ķ à¦ļà¦²
à¦ķ à¦¸à¦°
à¦ķ à¦ıà¦ķ
à¦ķ à¦Ĺà¦¨
à¦ķ à¦ĩà¦¯
à¦ķ à¦łà¦ķ
à¦ķ à¦®à§Ł
à¦ķ à¦ıà¦Ł
à¦ķ à¦®à¦ľ
à¦ķ à¦ĺà¦¨
à¦ķ à¦¹à¦®
à¦ķ à¦ªà¦¯
à¦ķ à¦¬à¦²à¦¤
à¦ķ à¦īà¦¡
à¦ķ à¦ħà¦²
à¦ķ à¦Ĩà¦¦
à¦ķ à¦ªà¦°à¦®
à¦ķ à¦Ĳà¦¤
à¦ķ à¦°à¦¤à¦²
à¦ķ à¦ıà¦ĩà¦Ń
à¦¯ à¦ļà¦¨
à¦¯ à¦²à¦¬
à¦¯ à¦®à¦²
à¦¯ à¦¦à¦¨
à¦¯ à¦°à¦ĩ
à¦¯ à¦°à¦ļ
à¦¯ à¦ªà¦¸
à¦¯ à¦ħà¦¨
à¦¯ à¦Ĺà¦¬
à¦¯ à¦ľà¦¸
à¦¯ à¦ľà¦¤
à¦¯ à¦¹à¦°à¦£
à¦¯ à¦Ĩà¦²
à¦¯ à¦Ŀà¦°
à¦¯ à¦ĺà¦¨
à¦¯ à¦ªà¦¦à¦ķ
à§ģ à¦¼
à§ģ à§ĭ
à§ģ à§įâĢĮ
à§ģ âĢĺ
à§ģ âĢĿâĢĶ
à§ģ ),
à§ģ âĢ¦à¥¤
à§ģ ...âĢĿ
à§ģ à¤Ĥ
à¦¬ à¦Ŀ
à¦¬ à¦ħ
à¦¬ à¦ĩà¦¨
à¦¬ à¦®à¦°
à¦¬ à¦¶à¦¬
à¦¬ à¦¢
à¦¬ à¦ĺà¦°
à¦¬ à¦ľà¦²
à¦¬ à¦ĩà¦¬
à¦¬ à¦Ĺà¦®
à¦¬ à¦£à¦ķ
à¦¬ à¦®à¦Ĺ
à¦¬ à¦®à¦ª
à¦¬ à¦ıà¦®à¦¨
à¦¬ à¦ľà¦¦
à¦¬ à¦Ĺà¦Ń
à¦¬ à¦ħà¦¸
à¦¬ à¦ķà¦¬à¦ķ
à¦¬ Ð»
à¦¬ à¦ľà¦Ĺà§İà¦ķ
à¦¬ à¦ıà¦¡
à¦¬ à¦ħà¦¨à¦Łà¦¨
à¦¼ (
à¦¼ à¦ģ
à¦¼ à§ĭà¦ģ
à¦¼ à§ģâĢĻ
à¦¼ ),
à¦¼ à§Īà¦ĥ
à¦¼ à¥¥
à¦® à¦ı
à¦® à¦Ĩ
à¦® à¦°à¦¥
à¦® à¦ķà¦¤
à¦® à¦Ĩà¦®
à¦® à¦¶à¦¨
à¦® à¦°à¦¦
à¦® à¦¯à¦¨
à¦® à¦¯à¦¤
à¦® à¦¬à¦¦
à¦® à§İà¦ķ
à¦® à§Łà¦¨
à¦® à¦¶à¦¬
à¦® à¦Ĺà¦ľ
à¦® à¦¸à¦ķ
à¦® à¦Ĩà¦°
à¦® à¦Ńà¦°
à¦® à¦ľà¦¯
à¦® à¦¦à¦¸
à¦® à¦¦à¦Ĺ
à¦® à¦ıà¦Ń
à¦® à¦Ńà¦ķ
à¦® à¦ıà¦¤
à¦® à¦«à¦¸
à¦® à¦ħà¦²
à¦® à¦§à¦¨à¦ķ
à¦® à¦ħà¦¦
à¦® à¦¥à¦¸
Ġà¦ķ à¦Ĺ
Ġà¦ķ à¦¬à¦¨
Ġà¦ķ à¦¬à¦¤
Ġà¦ķ à¦·à¦ķ
Ġà¦ķ à¦Ĺà¦¨
Ġà¦ķ à¦Łà¦°
Ġà¦ķ à¦ľà¦¨à¦ķ
Ġà¦ķ à¦ĩà¦®
Ġà¦ķ à¦¦à¦¬
Ġà¦ķ à¦¹à¦ķ
Ġà¦ķ à¦ĵà¦®
Ġà¦ķ Ø§Ø
Ġà¦ķ à¦Ĩà¦°à¦¤
à§ĭ à§į
à§ĭ âĢĮ
à§ĭ à¦ĥ,
à§ĭ à¦ĥ!
à§ĭ 'à¥¤
Ġà¦¬ à¦®à¦¨
Ġà¦¬ à¦ľà¦¨
Ġà¦¬ à¦¤à¦°
Ġà¦¬ à¦¹à¦¸
Ġà¦¬ à¦Łà¦ķ
Ġà¦¬ à¦®à¦¬
Ġà¦¬ à¦ķà¦ķ
Ġà¦¬ à¦®à¦¶
Ġà¦¬ à¦¨à¦¤à¦²
Ġà¦¬ à¦°à¦ķà¦¨
Ġà¦¬ à§İà¦¸à¦²
à¥ Ī
à¥¤ ,
à¥¤ /
à¥¤ ?
à¥¤ âĢľ
à¥¤ à¥¤âĢĿ
à¥¤ âĢĶâĢĺ
à¥¤ ï»¿
Ġà¦¸ à¦Ĺà¦²
Ġà¦¸ à¦¸à¦°
Ġà¦¸ à¦ªà¦Ł
Ġà¦¸ à¦¸à¦¸
Ġà¦¸ à¦¡à¦°
Ġà¦¸ à¦ªà¦¸à¦ª
Ġà¦ª à¦Ľ
Ġà¦ª à¦·
Ġà¦ª à¦ļà¦²
Ġà¦ª à¦²à¦®
Ġà¦ª à¦ļà¦¤
Ġà¦ª à¦ļà¦¬
Ġà¦ª à¦®à¦«
Ġà¦ª à¦ĵà¦¹
Ġà¦ª Ã©
à¦¸ à¦·
à¦¸ à§Ł
à¦¸ à¦Ŀ
à¦¸ à¦°à¦¬
à¦¸ à¦ķà¦¤
à¦¸ à¦Ĺà¦²
à¦¸ à¦ķà¦¬
à¦¸ à¦ıà¦ĩ
à¦¸ à¦¹à¦°
à¦¸ à¦²à¦²
à¦¸ à¦¤à¦ķ
à¦¸ à¦ļà¦ķ
à¦¸ à¦ıà¦ķ
à¦¸ à¦¦à§Ł
à¦¸ à¦°à¦¬à¦¤
à¦¸ à¦ĩà¦¬
à¦¸ à¦¦à¦®
à¦¸ à¦ħà¦°
à¦¸ à¦¦à¦Ĺ
à¦¸ à¦Ńà¦¯
à¦¸ à¦Ĺà¦£
à¦¸ à¦ĵà¦ĩ
à¦¸ à¦ħà¦²
à¦¸ à¦Ĺà¦¤à¦Ń
à¦¸ à¦°à¦¸à¦¤
Ġà¦Ĩ à¦§à¦¨
Ġà¦Ĩ à¦ªà¦ķ
Ġà¦Ĩ à¦īà¦¨
Ġà¦Ĩ à¦Łà¦¨
Ġà¦Ĩ à¦łà¦ķ
Ġà¦Ĩ à¦Łà¦¸
Ġà¦Ĩ à¦ªà¦¦à¦ķ
Ġà¦Ĩ à¦ĵà¦°à¦Ļ
à¦Ł à¦ł
à¦Ł à¦ī
à¦Ł à¦ªà¦¨
à¦Ł à¦¬à¦°
à¦Ł à¦²à¦ķ
à¦Ł à¦¬à¦¤
à¦Ł à¦®à¦¤
à¦Ł à¦¶à¦¨
à¦Ł à¦ĩà¦¨
à¦Ł à¦°à¦¯
à¦Ł à¦ķà¦¬
à¦Ł à¦¨à¦ķ
à¦Ł à¦ªà¦ķ
à¦Ł à¦°à¦ļ
à¦Ł à¦°à¦Ń
à¦Ł à¦¨à¦²
à¦Ł à¦¬à¦¯
à¦Ł à¦¹à¦¨
à¦Ł à¦¨à¦Ĺ
à¦Ł à¦®à¦ª
à¦Ł à¦ıà¦®à¦¨
à¦Ł à¦ĺà¦¡
à¦Ł à¦®à¦Łà¦®
à¦Ł Omlet
à¦¦ à¦¥
à¦¦ à§ľ
à¦¦ à¦ī
à¦¦ à¦¬à¦²
à¦¦ à¦ķà¦Ł
à¦¦ à¦°à¦¸
à¦¦ à¦Ľà¦¨
à¦¦ à¦²à¦¤
à¦¦ à¦¬à¦¸
à¦¦ à¦¶à¦¬
à¦¦ à¦ľà¦¬
à¦¦ à¦Łà¦¬
à¦¦ à¦Ńà¦¯
à¦¦ à¦°à¦¤à¦°
à¦¦ à¦Ńà¦¦
à¦¦ ol
à¦¦ à¦ľà¦¡
à¦¦ à¦Ŀà¦²à¦®à¦²
à¦¦ à¦ıà¦¹
à¦ĩ à¦°à¦ķ
à¦ĩ à¦ªà¦¨
à¦ĩ à¦¤à¦°
à¦ĩ à¦Ĩ
à¦ĩ à¦¨à¦¤
à¦ĩ à¦Ĩà¦®
à¦ĩ à¦¦à¦¨
à¦ĩ à¦°à¦ĩ
à¦ĩ à¦ıà¦ĩ
à¦ĩ à¦ļà¦²
à¦ĩ à¦®à¦£
à¦ĩ à¦¤à¦ķ
à¦ĩ à¦¦à¦²
à¦ĩ à¦¬à¦¸
à¦ĩ à¦Ĺà¦¨
à¦ĩ à¦ĩà¦¯
à¦ĩ à¦ªà¦¸
à¦ĩ à¦¹à¦ł
à¦ĩ à¦Ĩà¦ªà¦¨
à¦ĩ à¦¦à¦®
à¦ĩ à¦ļà¦¡
à¦ĩ à¦·à¦Ł
à¦ĩ à¦ªà¦¯
à¦ĩ à¦¶à¦°
à¦ĩ à¦¶à¦¦
à¦ĩ à¦«à¦Ł
à¦ĩ à¦ļà¦¬
à¦ĩ à¦¸à¦®à§Ł
à¦ĩ à¦ħà¦¸
à¦ĩ à¦īà¦ª
à¦ĩ åķı
Ġà¦¨ à¦ł
Ġà¦¨ à¦«
Ġà¦¨ à¦¦à¦¨
Ġà¦¨ à¦ĩà¦¨
Ġà¦¨ à¦¹à¦²
Ġà¦¨ à¦¨à¦ķ
Ġà¦¨ à¦ĩà¦ķ
Ġà¦¨ à¦«à¦²
Ġà¦¨ à¦¨à¦ĩ
Ġà¦¨ à¦ķà¦¸
Ġà¦¨ à¦°à¦°
Ġà¦¨ à¦²à¦ļ
Ġà¦¨ à¦²à¦°
Ġà¦¨ à¦²à¦ĸ
Ġà¦¨ à¦ĸà¦ļ
Ġà¦¨ à¦ĺà¦¸
Ġà¦¨ à¦ħà¦¬à¦²
Ġà¦® à¦·
Ġà¦® à¦Ń
Ġà¦® à¦Ŀ
Ġà¦® à¦ľà¦¨
Ġà¦® à§İà¦ķ
Ġà¦® à¦®à¦¬
Ġà¦® à¦«à¦²
Ġà¦® à¦ĩà¦¤
Ġà¦® à¦ķà¦¦
Ġà¦® à¦Ī
Ġà¦® à¦ĺà¦¬
Ġà¦® à§İà¦¸à¦®
à¦Ľ à¦¬à¦¨
à¦Ľ à¦Łà¦«à¦Ł
à¦Ľ à¦ľà¦Ļ
Ġà¦¦ à¦ĸà¦¨
Ġà¦¦ à¦¹à¦¤
Ġà¦¦ à¦ĩà¦Ń
Ġà¦¦ à¦ĩà¦®
Ġà¦¦ à¦¦à¦¤
Ġà¦¦ à¦ĩà¦ļ
à¦ª à¦Ĺà¦²
à¦ª à¦®à¦²
à¦ª à¦ķà¦¬
à¦ª à¦¯à¦¨
à¦ª à¦§à¦°
à¦ª à¦ľà¦²
à¦ª à¦²à¦Ł
à¦ª à¦®à¦¦
à¦ª à¦¬à¦§
à¦ª à¦¶à¦¯
à¦ª à¦Ľà¦¬
à¦ª à¦Ńà¦¯
à¦ª à¦ľà¦Ĺ
à¦ª à¦¬à¦²à¦¤
à¦ª à¦ľà¦Ĺà¦¤
à¦ª à¦Ńà¦ķ
à¦ª à¦°à¦¤à¦¨
à¦ª à¦ľà¦¨à¦¦
à¦ª à¦Ŀà¦²à¦®à¦²
à¦ª à¦®à§Łà¦¤
Ġà¦ı à¦¬à¦¨
Ġà¦ı à¦ľà¦²
Ġà¦ı à¦Ĩà¦°
Ġà¦ı à¦®à¦¸
Ġà¦ı à¦Ĩà¦¶
Ġà¦ı à¦Ĩà¦ĩà§Ł
Ġà¦¤ à¦Ļ
Ġà¦¤ à¦ķà¦²
Ġà¦¤ à¦ĸà¦¤
Ġà¦¤ à¦°à¦ľ
Ġà¦¤ à¦Łà¦ķ
Ġà¦¤ à¦Łà¦¬
Ġà¦¤ à¦ķà¦¦
Ġà¦¤ à¦¦à¦¸
Ġà¦¤ à¦¹à¦®
Ġà¦¤ à¦Łà¦¦
Ġà¦¤ à¦Ĺà¦¦
Ġà¦¤ à¦«à¦¸
Ġà¦¤ à§İà¦¸à¦¬
Ġà¦¤ à¦¤à¦¬à¦¡
Ġà¦¤ à¦²à¦¤à¦²
Ġà¦¤ à¦°à¦ľà¦®
à§Ģ ]
à§Ģ à§ģ
à§Ģ à¦ĥà¥¤
à§Ģ ),
à§Ģ !âĢĿâĢĶ
à§Ģ ï»¿
Ġà¦¹ à¦ŀ
Ġà¦¹ à¦Ĩ
Ġà¦¹ à¦°à¦¸
Ġà¦¹ à¦°à¦¦
Ġà¦¹ à¦¨à¦ķ
Ġà¦¹ à§°
Ġà¦¹ à¦Łà¦¸
Ġà¦¹ Ø§ÙĦ
Ġà¦¹ à¦¨à¦ĵà¦¨
Ġà¦¹ olog
à¦ľ à¦°à¦¤
à¦ľ à¦°à¦¬
à¦ľ à¦°à¦¨
à¦ľ à¦²à¦¤
à¦ľ à¦°à¦ĩ
à¦ľ à¦¸à¦¨
à¦ľ à¦Ĺà¦°
à¦ľ à§°
à¦ľ à¦¬à¦¸
à¦ľ à¦ĺà¦°
à¦ľ à¦§à¦¬
à¦ľ à¦Ńà¦ķ
à¦ľ à¦Ĩà¦ª
à¦ľ à¦®à¦¨à¦¸
à¦ľ à¦ªà¦¦à¦¬
à¦ľ à¦¸à¦°à¦ŀ
à¦¼à§ĩ à¦ģ
à¦¼à§ĩ âĢĻà¥¤
à¦¼à§ĩ âĢĻ,
âĢ ²
âĢ ³
âĢ ļ
à¦¶ à¦¥
à¦¶ à¦ł
à¦¶ à§İ
à¦¶ à¦ªà¦¨
à¦¶ à¦ĵà¦¯
à¦¶ à¦¤à¦¨
à¦¶ à¦°à¦¨
à¦¶ à¦Ĩà¦®
à¦¶ à¦°à¦ķà¦®
à¦¶ à¦¤à¦¤
à¦¶ à¦ªà¦ķ
à¦¶ à¦ľà¦°
à¦¶ à¦ıà¦°
à¦¶ à¦²à¦®
à¦¶ à¦®à§Ł
à¦¶ à§Łà¦¤
à¦¶ à¦ľà¦®
à¦¶ à¦ĵà¦°
à¦¶ à¦¤à¦¸
à¦¶ à§Łà¦Ĺ
à¦¶ à¦ľà§Ł
à¦¶ à¦ľà¦¨à¦ĩ
à¦¶ à¦Ĩà¦ĩà¦¨
à¦¶ à¦®à¦¨à¦ķ
à¦¶ à¦ıà¦¤à¦¦
à¦¶ à¦¬à¦°à¦¦
à¦¶ à¦¦à¦²à¦Ł
à¦ĸ à¦ł
à¦ĸ à¦ŀ
à¦ĸ à¦¤à¦°
à¦ĸ à¦ĺ
à¦ĸ à¦ķà¦Ł
à¦ĸ à¦²à¦ķ
à¦ĸ à¦Ľà¦¨
à¦ĸ à¦°à¦ª
à¦ĸ à¦¬à¦¸
à¦ĸ à¦¸à¦Ļ
à¦ĸ à§Łà¦°
à¦ĸ à¦°à¦¸à¦®
à¦ĸ à¦ľà¦¨à¦ķà¦Ń
à¦ĸ à§İà¦¨
à¦ĸ à¦°à¦Ĺà¦ŀ
à¦Ĺ à¦¬à¦°
à¦Ĺ à¦ĺ
à¦Ĺ à¦ķà¦²
à¦Ĺ à¦ħ
à¦Ĺ à¦¦à¦°
à¦Ĺ à¦®à¦²
à¦Ĺ à¦°à¦ĵ
à¦Ĺ à¦¸à¦Ļ
à¦Ĺ à¦£à¦¤
à¦Ĺ à¦¶à¦¤
à¦Ĺ à¦¹à¦ķ
à¦Ĺ à¦°à¦¬à¦¦
à¦Ĺ à¦ĸà¦ļ
à¦Ĺ à¦¬à¦¸à¦¤
à¦Ĺ à¦«à¦²à¦ķ
à¦Ĺ à¦ľà¦¨à¦ķà¦Ń
à¦· à¦ł
à¦· à§ľ
à¦· à¦®à¦¨
à¦· à¦¬à¦¨
à¦· à¦Ŀ
à¦· à¦ĺ
à¦· à¦ķà¦²
à¦· à¦°à¦¸
à¦· à¦°à¦ªà¦°
à¦· à¦ıà¦ĩ
à¦· à¦¸à¦°
à¦· à¦°à¦ļ
à¦· à¦Ńà¦°
à¦· à¦¨à¦ĩ
à¦· à¦ªà¦£
à¦· à¦ľà¦®
à¦· à¦¦à¦Ĺ
à¦· à¦¬à¦¹
à¦· à¦²à¦ª
à¦· à¦ľà¦Ĺà¦¤
à¦· à¦ľà¦¨à¦ĩ
Ġà¦ħ à¦Ľà¦²
Ġà¦ħ à¦ĭà¦£
Ġà¦ħ à¤ķ
Ġà¦ħ à¦ĵà¦°à¦Ļ
Ġà¦ķà¦° à¦Ł
Ġà¦ķà¦° à¦¹
Ġà¦ķà¦° à¦®à¦ļ
Ġà¦ķà¦° à¦ķà¦®
à¦¡ à¦ĸ
à¦¡ à¦²à¦¬
à¦¡ à¦®à¦¯
à¦¡ à¦¸à¦¨
à¦¡ à¦¨à¦ķ
à¦¡ à¦¨à¦Ł
à¦¡ à¦¤à¦®
à¦¡ à¦¬à¦¯
à¦¡ à¦¬à¦¶
à¦¡ à¦ľà¦²
à¦¡ à¦ĸà¦£
à¦¡ à¦ĩà¦Ńà¦¨
Ġà¦¯ à¦®à¦ķ
Ġà¦¯ à¦®à¦¯
Ġà¦¯ à¦¬à¦¦
Ġà¦¯ à¦ľà¦¤
Ġà¦¯ à¦¶à¦®
Ġà¦¯ à¦¶à¦ĩ
Ġà¦¯ à¦¬à¦¨à¦¦
à¦§ à¦·
à¦§ à¦¸à¦¬
à¦§ à¦Ĩà¦®
à¦§ à¦°à¦ĩ
à¦§ à¦°à¦ĵ
à¦§ à¦ªà¦ķ
à¦§ à¦¹à¦¤
à¦§ à¦ľà¦®
à¦§ à¦ľà¦¨à¦ķ
à¦§ à¦¸à¦¹
à¦§ à¦°à¦ªà¦²
à¦ļ à¦§
à¦ļ à¦Ŀ
à¦ļ à¦¨à¦¤
à¦ļ à¦ħ
à¦ļ à¦ªà¦¤
à¦ļ à¦ķà¦¬
à¦ļ à¦Łà¦ķ
à¦ļ à¦®à¦°
à¦ļ à¦¤à¦¤
à¦ļ à¦®à¦¬
à¦ļ à¦¶à¦ķ
à¦ļ à¦ªà¦Ł
à¦ļ à¦¬à¦ĩ
à¦ļ à¦®à§Ł
à¦ļ à¦Ĺà¦¡
à¦ļ à¦¸à¦¹
à¦ļ à¦ªà¦²
à¦ļ al
à¦ļ à¦ĸà¦£
Ġà¦Ĺ à¦ķ
Ġà¦Ĺ à¦§
Ġà¦Ĺ à¦¥
Ġà¦Ĺ à§İ
Ġà¦Ĺ à¦ľà¦¨
Ġà¦Ĺ à¦°à¦²
Ġà¦Ĺ à¦®à¦ķ
Ġà¦Ĺ à¦¤à¦®
Ġà¦Ĺ à§Łà¦²
Ġà¦Ĺ à¦¬à¦¨à¦°
à¦¹ à¦ŀ
à¦¹ à¦°à¦®
à¦¹ à¦ĩà¦²
à¦¹ à¦¤à¦¬
à¦¹ à¦®à¦ķ
à¦¹ à¦²à¦¬
à¦¹ à¦¯à¦¨
à¦¹ à¦¹à¦°
à¦¹ à¦¤à¦²
à¦¹ à¦®à¦¬
à¦¹ à¦¶à¦ķ
à¦¹ à¦ªà¦¥
à¦¹ à¦®à¦¸
à¦¹ à¦®à¦¶
à¦¹ à¦®à¦¦
à¦¹ à¦¦à¦¶
à§Ł à¦¡
à§Ł à¦®à¦¨
à§Ł à¦ķà¦¤
à§Ł à¦°à¦¨
à§Ł à¦¨à¦¬
à§Ł à¦ķà¦°à¦£
à§Ł à¦®à¦ª
à§Ł à¦£à¦Ĺà¦ŀ
à¦£ à¦¡
à¦£ à¦°à¦¤
à¦£ à¦®à¦¨
à¦£ à¦ľà¦¨
à¦£ à¦¤à¦¨
à¦£ à¦°à¦¶
à¦£ à¦¨à¦¬
à¦£ à¦§à¦¨
à¦£ à¦¯à¦¨
à¦£ à¦¸à¦¤
à¦£ à¦®à¦¹
à¦£ à¦ļà¦¤
à¦£ à¦¶à¦¯
à¦£ à¦ľà¦Ĺà¦¤
à¦£ à¦Ńà¦Ļ
à¦£ à¦¯à¦ľ
à¦£ à¦ħà¦²
à¦£ à¦¤à¦°à¦Ļ
à¦¥ à¦ľ
à¦¥ à¦§
à¦¥ à¦Ļ
à¦¥ à¦®à¦¨
à¦¥ à¦ŀ
à¦¥ à¦ĺ
à¦¥ à¦ķà¦²
à¦¥ à¦°à¦¥
à¦¥ à¦¬à¦¤
à¦¥ à¦¦à¦°
à¦¥ à¦ĵà§Ł
à¦¥ à¦¬à¦¦
à¦¥ à¦¤à¦¤
à¦¥ à§°
à¦¥ à¦°à¦ļ
à¦¥ à¦ļà¦°
à¦¥ à¦ķà¦¨
à¦¥ à¦ĺà¦°
à¦¥ à¦ªà¦¥
à¦¥ à¦²à¦Ł
à¦¥ à¦°à¦¹à¦°
à¦¥ à¦ĺà¦Ł
Ġà¦¶ à¦®à¦¨
Ġà¦¶ à¦®à¦°
Ġà¦¶ à¦°à¦ª
Ġà¦¶ à¦¶à¦ķ
Ġà¦¶ à¦ªà¦Ł
Ġà¦¶ à¦®à¦ª
Ġà¦¶ à¦°à¦®à¦ķ
Ġà¦¶ à¦¬à¦°à¦¦
Ġà¦¶ à¦¬à¦°à¦ª
Ġà¦¶ à¦°à¦¬à§İ
à¦ģ -
à¦ģ /
à¦ģ âĢĵ
Ġà¦ļ à¦°à¦¸
Ġà¦ļ à¦ªà¦ķ
Ġà¦ļ à¦Łà¦²
Ġà¦ļ à¦Łà¦¤
Ġà¦ļ à¦ªà¦¸
Ġà¦ļ à¦ªà¦¡
Ġà¦ļ à¦Łà¦¬
Ġà¦ļ à¦®à¦¶
Ġà¦ļ à¦ªà¦ļ
Ġà¦ļ à¤¶
Ġà¦ľ à¦ķ
Ġà¦ľ à¦ªà¦¨
Ġà¦ľ à¦°à¦¦
Ġà¦ľ à¦Ĺà¦¬
Ġà¦ľ à¦ľà¦®
Ġà¦Ń à¦°à¦ķ
Ġà¦Ń à¦¬à¦²
Ġà¦Ń à¦°à¦¨
Ġà¦Ń à¦ĩà¦°
Ġà¦Ń à§°
Ġà¦Ń à¦ľà¦¸
Ġà¦Ń à¦²à¦Ł
Ġà¦Ń à¦²à¦Ĺ
Ġà¦Ń à¦£à¦¨
Ġà¦° à¦ĸ
Ġà¦° à§ľ
Ġà¦° à¦¬à¦°
Ġà¦° à¦®à¦ķ
Ġà¦° à¦Łà¦¤
Ġà¦° à¦¸à¦ķ
Ġà¦° à¦¸à¦Ł
Ġà¦° à¦¥à¦ķ
Ġà¦° à¦ļà§Ł
Ġà¦° à¦¥à¦®
Ġà¦° à¦ľà¦Ĺ
Ġà¦° à¦®à¦®
Ġà¦° à¦¸à¦®à§Ł
Ġà¦° à¦¡à¦°
Ġà¦° à¦£à¦®
Ġà¦° à¦īà¦«
à¦ĵ à¦§
à¦ĵ à¦¬à¦¨
à¦ĵ à¦ī
à¦ĵ à¦®à¦°
à¦ĵ à¦°à¦ª
à¦ĵ à¦ļà¦Ł
à¦ĵ à¦ıà¦¸
à¦ĵ à¦ĵà¦¤
à§ĩà¥¤ !
à§ĩà¥¤ .
à§ĩà¥¤ âĢĵ
Ġà¦ıà¦ķ à¦¤à¦°
Ġà¦ıà¦ķ à¦ªà¦ķ
Ġà¦ıà¦ķ à¦¸à¦¤
Ġà¦ıà¦ķ à¦®à¦§
Ġà¦ıà¦ķ à¦²à¦«
Ġà¦ıà¦ķ à¦ıà¦ķà¦ľà¦¨
Ġà¦ıà¦ķ à¦ħà¦ªà¦°
Ġà¦ıà¦ķ à¦Ĩà¦§à¦Ł
à¦Ń à¦Ĺà¦¤
à¦Ń à¦¶à¦¨
à¦Ń à¦¸à¦¨
à¦Ń à¦°à¦Ł
à¦Ń à¦Łà¦¤
à¦Ń à¦ľà¦¸
à¦Ń à§Łà¦¤
à¦Ń à¦ľà¦®
à¦Ń à¦¶à¦¯
à¦Ń à¦Ĺà¦¬à¦¨
à¦Ń à§İà¦¸à¦¨
à¦¼à¦¾ âĢĶâĢľ
à¦¼à¦¾ âĢĻ-
à¦¼à¦¾ âĢĿà¥¤
à¦¼à¦¾ âĢĿâĢĶ
à¦¼à¦¾ ...âĢĿ
Ġà¦Ľ à¦ľ
Ġà¦Ľ à¦ķà¦¤
Ġà¦Ľ à¦ªà¦Ł
Ġà¦Ľ à¦¦à¦ķ
Ġà¦Ľ à¦ķà¦ļ
Ġà¦Ĩà¦® à¦ª
Ġà¦Ĩà¦® à¦ĵ
Ġà¦Ĩà¦® à¦°à¦¤
Ġà¦Ĩà¦® à¦«à¦²
Ġà¦Ĩà¦® à¦²à¦¦
à¦Ĥ )
à¦Ĥ à¥¤âĢĿ
à¦Ĥ !âĢĻ
à¦Ĥ âĢ¦à¥¤
à¦Ĥ âĢĻâĢĵ
à¦ł à¦ªà¦°
à¦ł à¦°à¦¸
à¦ł à¦®à¦¤
à¦ł à¦®à§Ł
Ġà¦¬à¦² à¦¬à¦¦
Ġà¦ī à¦ĸ
Ġà¦ī à§Ł
Ġà¦ī à¦Ļ
Ġà¦ī à¦²à¦ķ
Ġà¦ī à¦¸à¦®
Ġà¦ī à¦ĩà¦¯
Ġà¦ī à¦Ĺà¦¡
Ġà¦ī à¦ĩà¦ļ
Ġà¦ī à¦¬à¦Ĺ
Ġà¦ī à¦ĩà¦«
Ġà¦ī à¦ĵà¦®
Ġà¦Ĩà¦° à¦¥
Ġà¦Ĩà¦° à¦ıà¦ĩ
Ġà¦Ĩà¦° à¦¬à¦ķ
Ġà¦Ĩà¦° à¦ıà¦ķà¦Ł
Ġà¦Ĩà¦° à¦¬à¦Ń
Ġà¦Ĩà¦° à¦ıà¦²
Ġà¦Ĩà¦° Ð¸
à§ĥ ?
à§ĥ âĢĻ
à§ĥ âĢĵ
à§ĥ à¦ĥ
à§ĥ âĢ¦
à§ĥ âĢĮ
Ġà¦¥ à¦¬
Ġà¦¥ à¦¸
Ġà¦¥ à¦Łà¦²
Ġà¦¥ à¦¥à¦®
à¦¾à¦ģ à¦ģ
à¦¾à¦ģ à¥¤âĢĿ
à¦¾à¦ģ âĢĻ,
à¦Ļ à¦¨à¦ĩ
Ġà¦² à¦¦
Ġà¦² à¦¥
Ġà¦² à¦«
Ġà¦² à¦ªà¦ķ
Ġà¦² à¦¸à¦²
Ġà¦² à¦¬à¦ķ
Ġà¦² à¦Łà¦¬
Ġà¦² à¦Ĺà¦¬
Ġà¦² à¦ĩà¦®
Ġà¦² à¦¬à¦ľ
Ġà¦² à§Łà¦¬à¦¦
Ġà¦² à¦Ĺà¦¬à¦Ĺ
Ġà¦² à¦°à¦ļà¦°
Ġà¦² à¦łà¦ķà¦¨
Ġà¦ĵ à¦Ļ
Ġà¦ĵ à¦ªà¦¨
Ġà¦ĵ à¦ķà¦Ł
Ġà¦ĵ à¦¦à¦¨
Ġà¦ĵ à¦¸à¦ķ
Ġà¦ĵ à¦īà¦¨
Ġà¦ĵ à¦²à¦®
Ġà¦ĵ à¦īà¦ľ
Ġà¦ĵ à¦¨à¦¨à¦ķ
à§Ĥ :
à§Ĥ à¦ĥà¥¤
âĢĶ #
âĢĶ '
âĢĶ /
âĢĶ ..
Ġà¦« à¦ľ
Ġà¦« à¦°à¦ľ
Ġà¦« à¦Ĺà¦¹à¦°
Ġà¦ĸ à¦®
Ġà¦ĸ à¦ľ
Ġà¦ĸ à¦ĩà¦¨
Ġà¦ĸ à¦¸à¦®
Ġà¦ĸ à¦¸à¦°
Ġà¦ĸ à¦Ĺà¦°
Ġà¦ĸ à¦ĩà¦¯
Ġà¦ĸ à¦ªà¦¡
Ġà¦ĸ à¦²à¦¸
Ġà¦ĸ à¦ĩà¦Ń
Ġà¦ĸ à¦ļà¦¡
Ġà¦ĸ à¦°à¦¤à¦°
Ġà¦ĸ à§Łà¦°
Ġà¦ĸ à¦·à¦ĸ
à¦¾à¥¤ "
à¦¾à¥¤ .
Ġà¦ªà¦° à¦·
Ġà¦ªà¦° à¦¶à¦¨
Ġà¦ªà¦° à¦¬à¦¶
Ġà¦ªà¦° à¦ıà¦ĸà¦¨
Ġà¦ªà¦° à¦¶à¦Ł
Ġà¦ªà¦° à¦¬à¦Ł
Ġà¦¹à¦¯ à¦¤
ĠâĢ ĭ
ĠâĢ ĤĊ
Ġà¦§ à¦·
Ġà¦§ à¦°à¦ķ
Ġà¦§ à¦¨à¦°
Ġà¦§ à¦²à¦Ń
Ġà¦§ à¦ĩà§Ł
Ġà¦§ à§ľà¦ķ
Ġà¦§ à¦¬à¦²à¦ķ
à¦°à¦¤ à¦§
à¦°à¦¤ à¦ªà¦°
à¦°à¦¤ à¦°à¦ķ
à¦°à¦¤ à¦ļà¦¨
à¦°à¦¤ à¦¨à¦¦
à¦°à¦¤ à¦¬à¦¡
Ġà¦ħà¦¨ à¦¶
Ġà¦ħà¦¨ à¦ļ
Ġà¦ħà¦¨ à¦¬à¦§
Ġà¦ħà¦¨ à¦¬à¦Ĺ
Ġà¦¸à¦® à¦¬à¦¨
Ġà¦¸à¦® à¦ı
Ġà¦¸à¦® à¦°à¦¬
Ġà¦¸à¦® à¦°à¦ķà¦¨
à¦¼à¦¿ :
à¦¼à¦¿ à¦ģ
à¦¼à¦¿ âĢĶâĢľ
à¦¼à¦¿ âĢĻ,
à¦¼à¦¿ ,âĢĿ
à¦ĸà¦¨ à¦²
à¦ĸà¦¨ à¦¦
à¦ĸà¦¨ à¦ª
à¦ĸà¦¨ à¦ĸ
à¦ĸà¦¨ à¦Ĺ
à¦¾, "
Ġà¦ĺ à¦²
Ġà¦ĺ à§°
Ġà¦ĺ à¦¨à¦¸
Ġà¦ĺ à¦¸à¦Ľ
Ġà¦ĺ à¦·à¦¬
à§ľ à¦ĸ
à§ľ à¦ļ
à§ľ à¦«
à§ľ à¦¨à¦ĵ
à§ľ à¦§à¦°
à¦ªà¦° à¦¬à¦¶
à¦ªà¦° à¦®à¦¹
à¦ªà¦° à¦¬à¦¶à¦¤
Ġà¦®à¦¨ à¦®à¦¨
Ġà¦®à¦¨ à¦¨à¦¯
Ġà¦®à¦¨ à¦¨à¦ĩ
Ġà¦®à¦¨ à¦¨à¦Ń
à¦®à¦¨ à¦ļ
Ġà¦ıà¦ĩ à¦ķà¦¥
Ġà¦ıà¦ĩ à¦ıà¦®à¦¨
Ġà¦ıà¦ĩ à¦¸à¦®à§Ł
à¦¿à¥¤ âĢĵ
à¦¿à¥¤ ?âĢĻ
à¦¿à¥¤ âĢĻ,
à¦« à¦°à¦ĩ
à¦« à¦Łà¦ķ
à¦« à¦°à¦Ĺ
à¦« à¦Łà¦°
à¦« à¦¸à¦¹
âĢĻ âĢĻâĢĶ
âĢĻ /âĢĻ
Ġà¦¬à¦²à¦² à¦²
Ġà¦¬à¦²à¦² à¦ĩ
Ġà¦¬à¦²à¦² à¦®à¦¨
Ġà¦¬à¦²à¦² à¦ı
Ġà¦¬à¦²à¦² à¦¬à¦²
Ġà¦¬à¦²à¦² à¦ĩà¦¨
Ġà¦¬à¦²à¦² à¦ħà¦¨
Ġà¦¬à¦²à¦² à¦ľà¦¯
Ġà¦¬à¦²à¦² à¦ķà¦¥
Ġà¦¬à¦²à¦² à¦ıà¦¸à¦¬
Ġà¦¬à¦²à¦² à¦ĩà¦¸
Ġà¦¬à¦²à¦² à¦Ńà¦¯
Ġà¦¬à¦²à¦² à¦ħà¦¤
Ġà¦¬à¦²à¦² à¦°à¦Ļ
Ġà¦¬à¦²à¦² à¦ıà¦¸
Ġà¦¬à¦²à¦² à¦ĵà¦ĩ
Ġà¦¬à¦²à¦² à¦ıà¦ķà¦ľà¦¨
Ġà¦¬à¦²à¦² à¦Ĩà¦¬
Ġà¦¬à¦²à¦² à¦ıà¦¦
Ġà¦¬à¦²à¦² à¦ħà¦ªà¦°
Ġà¦¬à¦²à¦² à¦ĸà¦¦
à¦°à¦£ à¦·
à¦°à¦£ à§Łà¦Ĺ
à¦°à¦£ à¦¶à¦¶
à¦°à¦£ à¦¬à¦¶à¦¤
à¦¬à¦¨ à¦ķà¦²
à¦¬à¦¨ à¦ªà¦¦
à¦¬à¦¨ à¦¯à¦¨
à¦¬à¦¨ à¦®à¦¯
à¦¬à¦¨ à¦¶à¦ķ
à¦¬à¦¨ à¦ľà¦¯
à¦¬à¦¨ à¦ĺà¦¨
à¦¬à¦¨ à¦ľà§Ł
à¦¬à¦¨ à¦°à¦¹à¦¸
à¦¬à¦¨ à¦ľà¦¨à¦®à¦¨
à¦Ŀ à¦ĩ
à¦Ŀ à¦ļ
à¦Ŀ à¦Ń
à¦Ŀ à¦¬à¦°
à¦Ŀ à¦®à¦§
à¦Ŀ à¦Ĩà¦ķ
à¦ŀ à¦¨
à¦ŀ à¦Ł
à¦ŀ à¦¹
à¦ŀ à¦¬à¦¨
à¦ŀ à¦ľà¦¨
âĢĿ .
âĢĿ ;
âĢĿ âĢĵâĢĵ
à§İ à¦Ĺ
à§İ à¦ĵ
à§İ à¦ķà¦²
à§İ à¦ªà¦²
à§İ à¦¬à¦°à¦£
à§İ à¦Ľà¦Ł
à¦ľà¦¨ à¦ķà¦°
à¦ľà¦¨ à¦Ĺà¦°
à¦ľà¦¨ à¦Ńà¦°
à¦ľà¦¨ à¦¸à¦¹
à¦ı à¦Ļ
à¦ı à¦¤à¦°
à¦ı à¦°à¦¬
à¦ı à¦·à¦£
à¦ı à¦¬à¦²
à¦ı à¦¤à¦¨
à¦ı à¦²à¦¬
à¦ı à¦®à¦¬
à¦ı à¦¬à¦ķ
à¦ı à¦¸à¦ķ
à¦ı à¦Ĩà¦°
à¦ı à¦®à¦¸
à¦ı à¦¨à¦ĩ
à¦ı à¦²à¦Ł
à¦ı à¦¸à¦Ł
à¦ı à¦®à¦¦
à¦ı à¦®à¦ª
à¦ı à¦¤à¦Ĺ
à¦ı à¦®à¦Ń
à¦ı à¦²à¦ĵ
à¦ı à¦¤à¦¬à¦¡
à¦ı à¦ıà¦¸à¦ıà¦¸
à¦ī à¦§
à¦ī à¦¬à¦¨
à¦ī à¦ľà¦¨
à¦ī à¦¨à¦¤
à¦ī à¦Ĺà¦²
à¦ī à¦Łà¦²
à¦ī à¦¸à¦ķ
à¦ī à¦Ĩà¦°
à¦ī à¦¦à¦Ĺ
à¦ī à¦łà¦¨
à¦ī à¦ĩà§Ł
à¦ī à¦¦à¦ķ
à¦ī à¦ıà¦Ń
à¦ī à¦®à¦ĵ
à¦ī à¦ªà¦¶
à¦ī à¦īà¦¬
à¦ī à¦ªà¦ķà¦¥
à¦ī à§ľà¦Ľ
à¦ī à¦Ŀà¦¡
à¦ī à§İà¦ķà¦°
à¦ī à¦¶à¦¨à¦ĵ
à¦ī à¦ıà¦¬à¦²
à¦°à¦ķ à¦Ĺ
à¦°à¦ķ à¦ªà¦°
à¦°à¦ķ à¦°à¦²
à¦°à¦ķ à¦Łà¦°
à¦°à¦ķ à¦ĸà¦£
à¦°à¦ķ à¦¨à¦¡
Ġà¦¸à¦¬ à¦¬
Ġà¦¸à¦¬ à¦Ń
Ġà¦¸à¦¬ à¦ļà¦¯
à¦ªà¦¨ à¦¸
à¦ªà¦¨ à¦Ń
à¦ªà¦¨ à¦¸à¦¨
Ġà¦Ł à¦¨à¦ĵ
Ġà¦Ł à¦Ĺà¦²
Ġà¦Ł à¦Łà¦ķ
Ġà¦Ł à¦ªà¦Ł
Ġà¦Ł à¦ªà¦¸
Ġà¦Ł à¦ķà¦¦
Ġà¦Ł à¦ķà¦¶
Ġà¦Ł à¦ĩà¦Łà¦ĩ
Ġà¦¹à¦² à¦¨
Ġà¦¹à¦² à¦¸
Ġà¦¹à¦² à¦ĸ
Ġà¦¹à¦² à¦Ĩà¦®
Ġà¦¹à¦² à¦ıà¦ĩ
Ġà¦¹à¦² à¦®à¦¸
Ġà¦¹à¦² à¦Ĩà¦ªà¦¨
Ġà¦¹à¦² à¦ĸà¦¬à¦°
à¦¬à¦° à¦¨
à¦¬à¦° à¦Ľ
à¦¬à¦° à¦·
à¦¬à¦° à¦¶à¦¨
à¦¬à¦° à¦¦à¦¸
à¦¬à¦° à¦®à§Ł
Ġà¦ķà¦¥ à¦®à¦¸
à¦¤à¦° à¦°
à¦¤à¦° à¦ĸ
à¦¤à¦° à¦ļ
à¦¤à¦° à¦ĺ
à¦¤à¦° à¦¸à¦®
à¦¤à¦° à¦ļà¦¯
à¦¤à¦° à¦®à¦ľ
à¦¤à¦° à¦ªà¦¶
à¦¤à¦° à¦ľà¦Ĺà§İ
à¦¤à¦° à¦ľà¦Ĺà§İà¦ķ
Ġà¦Ĩà¦Ľ à¦¯
Ġà¦Ĩà¦¸ à¦°à¦Ł
Ġà¦Ĩà¦¸ à¦°à¦Ĺ
Ġà¦Ĩà¦¸ à¦¨à¦Ĺ
Ġà¦īà¦ł à¦ļ
à¦°à¦¬ à¦Ł
à¦°à¦¬ à¦²à¦¬
à¦°à¦¬ à¦¹à¦¨
à¦°à¦¬ à¦£à¦¬
à¦°à¦¬ à§Łà¦¬
à¦°à¦¬ à¦¶à¦¶
à§Į à¦ĥ
à¦Ĩ à¦®à¦¨
à¦Ĩ à¦ľà¦¨
à¦Ĩ à¦ķà¦²
à¦Ĩ à¦°à¦¸
à¦Ĩ à¦°à¦¶
à¦Ĩ à¦°à¦ĩ
à¦Ĩ à¦¹à¦²
à¦Ĩ à¦ªà¦ķ
à¦Ĩ à¦Łà¦²
à¦Ĩ à¦ĩà¦Ł
à¦Ĩ à¦¬à¦¶
à¦Ĩ à¦§à¦°
à¦Ĩ à¦ľà¦²
à¦Ĩ à¦Łà¦¬
à¦Ĩ à¦ĩà¦¤
à¦Ĩ à¦ľà¦¤
à¦Ĩ à¦¦à¦®
à¦Ĩ à¦Łà¦ª
à¦Ĩ à¦Łà¦ĵ
à¦Ĩ à¦ıà¦²
Ġà¦ĩ à¦Ĩ
Ġà¦ĩ à¦¤à¦¨
Ġà¦ĩ à¦¹à¦¸
Ġà¦ĩ à¦Łà¦ķ
Ġà¦ĩ à¦¦à¦²
Ġà¦ĩ à¦¸à¦ķ
Ġà¦ĩ à¦ľà¦¤
Ġà¦ĩ à¦¡à¦²
Ġà¦ĩ à¦¸à¦ª
Ġà¦ĩ à¦ľà¦®
Ġà¦ĩ à¦Łà¦Ł
Ġà¦ĩ à¦¸à¦¹
Ġà¦ĩ à§Łà¦°
Ġà¦¹à¦¬ à¦ĩ
Ġà¦ľà¦¨ à¦¡
Ġà¦ľà¦¨ à¦ķà¦¦
Ġà¦ľà¦¨ à¦ķà¦¤à¦ķ
Ġà¦ľà¦¨ à¦¸à¦¨à¦ķ
Ġà¦Ĩà¦² à¦¦
Ġà¦Ĩà¦² à§Ł
Ġà¦Ĩà¦² à¦ĵà¦¯
Ġà¦Ĩà¦² à¦¬à¦¤
Ġà¦Ĩà¦² à¦°à¦¶
Ġà¦Ĩà¦² à¦Ĺà¦°
Ġà¦Ĩà¦² à¦®à¦¬
Ġà¦Ĩà¦² à¦ªà¦¥
Ġà¦¡ à¦¸
Ġà¦¡ à¦«
Ġà¦¡ à¦°à¦ª
Ġà¦¡ à¦Ĺà¦°
Ġà¦¡ à¦īà¦¯
Ġà¦¡ à¦Ĺà¦¦
Ġà¦®à¦¤ à¦Ĺ
Ġà¦®à¦¤ à¦ĵ
à§Ī âĢĶ
Ġà¦§à¦° à¦ª
Ġà¦§à¦° à¦ļ
Ġà¦§à¦° à¦®à¦ª
Ġà¦§à¦° à¦®à¦¤à¦²
Ġà¦ķà¦°à¦² à¦ĩ
Ġà¦ķà¦°à¦² à¦ª
Ġà¦ķà¦°à¦² à¦¹
Ġà¦ķà¦°à¦² à¦ķà¦¤à¦¦
âĢĵ âĢĺ
Ġà¦ł à¦ĩ
Ġà¦ł à¦®à¦ķ
Ġà¦ıà¦¸ à¦ķ
Ġà¦ıà¦¸ à¦Ľ
Ġà¦ıà¦¸ à¦ıà¦¸
Ġà¦ıà¦¸ à¦ĵà¦ıà¦¸
Ġà¦Ŀ à¦£
Ġà¦Ŀ à¦°à¦ª
Ġà¦Ŀ à¦ªà¦ķ
Ġà¦Ŀ à¦ķà¦¡
Ġà¦Ŀ à¦Łà¦¸
Ġà¦ħà¦¬ à¦¥
Ġà¦ħà¦¬ à¦Ń
à¦ĺ à¦°à¦ķ
à¦ĺ à¦°à¦¬
à¦ĺ à¦°à¦¨
à¦ĺ à¦²à¦¤
à¦ĺ à¦®à¦£
à¦ĺ à¦°à¦Ľ
à¦ĺ à¦ĺà¦¨
à¦ĺ à¦¦à¦¶
à¦ĺ à¦Ŀà¦¡
à¦ĺ à¦°à¦¸à¦¹
à¦ĺ à¦²à¦Ĺà¦¡
à¦°à¦® à¦ªà¦°
à¦°à¦® à¦Ĩà¦®
à¦°à¦® à¦®à¦¯
à¦°à¦® à¦°à¦Ł
à¦°à¦® à¦Ĺà¦¨
à¦°à¦® à¦Ŀà¦®
à¦·à¦£ à¦ľ
à¦·à¦£ à¦¸à¦®
à¦·à¦£ à¦¶à¦ķ
Ġà¦¬à¦¸ à¦²à¦²
Ġà¦ļà¦² à¦²à¦¤
Ġà¦ļà¦² à¦ĺà¦°
Ġà¦Ĩà¦Ĺ à¦°
Ġà¦Ĩà¦Ĺ à¦¬
Ġà¦Ĩà¦ľ à¦¤
Ġà¦Ĩà¦ľ à¦Ł
à¦¬à¦² à¦¬à¦¨
à¦¬à¦² à¦ľà¦²
à¦¬à¦² à¦¸à¦ĸ
Ġà¦Ĩà¦¬ à¦¸
Ġà¦Ĩà¦¬ à¦§
à¦ķà¦° à¦ľ
à¦ķà¦° à¦¬à¦°
à¦ķà¦² à¦ļ
à¦ķà¦² à¦«
à¦ķà¦² à¦ķà¦²
à¦ķà¦² à¦¸à¦¬
à¦ķà¦² à¦¸à¦¨
à¦ķà¦² à¦¤à¦²
à¦ķà¦² à¦¨à¦Ł
Ġà¦¢ à¦²à¦Ľ
Ġà¦¢ à¦²à¦ª
à¦ķà¦Ł à¦Ł
à¦ķà¦Ł à¦Ń
à¦ķà¦Ł à¦ľà¦¨
à§ģà¦ģ âĢĶ
à§ģà¦ģ âĢ¦
à§ģà¦ģ à¦ĥà¥¤
à§ģà¦ģ à¦ĥ!
Ġà¦¬à¦¨ à¦°à¦ķ
Ġà¦¬à¦¨ à¦ķà¦°
Ġà¦¬à¦¨ à¦ļà¦°
Ġà¦¹à§Ł à¦ĩ
à¦ĥ /
à¦ĥ âĢ¦à¥¤
à¦°à¦¥ à¦¯
à¦°à¦¥ à¦¸
à¦°à¦¥ à¦ĩ
à¦°à¦¥ à¦ĵ
Ġà¦ħà¦° à¦²
Ġà¦Ĺà¦² à¦Ł
Ġà¦Ĺà¦² à¦§
Ġà¦Ĺà¦² à¦ĺ
à¦¸à¦¬ à¦¤
à¦¸à¦¬ à¦§
à¦¸à¦¬ à¦¥
à¦¸à¦¬ à¦°à¦ķà¦®
à¦¸à¦¬ à¦¸à¦®à§Ł
Ġà¦ħà¦¸ à¦²
Ġà¦ħà¦¸ à¦¸
Ġà¦ħà¦¸ à¦®à¦¤à¦²
Ġà¦ıà¦ĸà¦¨ à¦¨
à¦¯à¦¬ à¦°à¦£
à¦¯à¦¬ à¦ļà¦¨
à¦¯à¦¬ à¦¸à¦°
à¦¯à¦¬ à¦ĩà¦¤
Ġà¦¨à¦¤ à¦®à¦¸
à§ĩ? )
à§ĩ? ?
à§ĩ? âĢĶ
à§ĩ? âĢľ
à§ĩ? !âĢĿ
à§ĩ? ï»¿
à¦°à¦¸ à¦ķ
à¦°à¦¸ à¦ľ
à¦°à¦¸ à¦ŀ
à¦°à¦¸ à¦ĵà¦¯
à¦°à¦¸ à¦ĺ
à¦°à¦¸ à¦ķà¦²
à¦°à¦¸ à¦®à¦¸
Ġà¦¤à¦ĸà¦¨ à¦¤
à¦²à¦ķ à¦ĵ
à¦²à¦ķ à¦ĵà¦¯
à¦²à¦ķ à¦ĺà¦¡
à¦°à¦¥à¦® à¦ķ
à¦¾à¦Ĥ /
à¦¾à¦Ĥ âĢĻ
à¦¾à¦Ĥ âĢĵ
à¦¾à¦Ĥ !âĢĻ
Ġà¦ıà¦² à¦ĵà¦°
à¦¤à¦¨ à¦¸
à¦¤à¦¨ à¦ļ
à¦¤à¦¨ à¦ľà¦¨
à¦¤à¦¨ à¦ªà¦¨
à¦¤à¦¨ à¦ıà¦¬
à¦¤à¦¨ à¦¸à¦¹
à§ĭà¦ģ âĢĻ
à§ĭà¦ģ !âĢĿ
à§ĩâĢĶ '
à§ĩâĢĶ )
à§ĩâĢĶ âĢĵ
à¦ķà¦¤ à¦ĸ
à¦ķà¦¤ à¦Ń
à¦ķà¦¤ à¦°à¦ķà¦®
à§ĩà¦ģ âĢĻ
à§ĩà¦ģ à§Į
Ġà¦¬à¦° à¦Ł
Ġà¦¬à¦° à¦ľ
Ġà¦¬à¦° à¦¨à¦¬
Ġà¦¬à¦° à¦¦à¦²
Ġà¦¬à¦° à¦ĩà¦¯
Ġà¦¬à¦° à¦ĩà§Ł
à¦Ĺà¦² à¦°
à¦Ĺà¦² à¦¸à¦°
à¦Ĺà¦² à¦ĺà¦°
ĠĊ Ċ
Ġà¦īà¦łà¦² à¦¨
Ġà¦īà¦łà¦² à¦¸
Ġà¦īà¦łà¦² à¦Ľ
Ġà¦īà¦łà¦² à¦¸à¦¬
Ġà¦īà¦łà¦² à¦Ĩà¦®
Ġà¦īà¦łà¦² à¦ĵà¦ĩ
Ġà¦īà¦łà¦² à¦ĵà¦¹
à¦¿à¦Ĥ :
à¦¿à¦Ĥ ;
à¦¿à¦Ĥ âĢĶâĢľ
à¦¿à¦Ĥ ,âĢĿ
à¦¿à¦Ĥ âĢ¦âĢĿ
à¦¿à¦Ĥ âĢĻ-
à¦¿à¦Ĥ âĢĻâĢĶ
à¦°à¦¨ à¦ĩ
à¦°à¦¨ à¦Ĺ
à¦°à¦¨ à¦Łà¦¦
Ġà¦¸à¦¤ à§İ
Ġà¦¸à¦¤ à¦¤à¦®
Ġà¦¶à¦¬ à¦¯
Ġà¦¶à¦¬ à¦Ł
Ġà¦¯à¦¦ à¦¬
Ġà¦¯à¦¦ à¦¨à¦¨
à¦°à¦² à¦·
à¦°à¦² à¦Ń
à¦°à¦² à¦ĸà¦£
à¦¬à¦¤ à¦¯
Ġà¦®à¦¹ à¦ľà¦Ĺà¦¤
Ġà¦®à¦¹ à¦¬à¦¬à¦¤
Ġà¦ªà¦¥ à¦®
Ġà¦ªà¦¥ à¦ĸ
Ġà¦ªà¦¥ à¦¸à¦Ļ
Ġà¦ĺà¦° à¦ĵ
Ġà¦ĺà¦° à¦Ń
à¦ħ à§Ł
à¦ħ à¦ľà¦¨
à¦ħ à¦¨à¦¤
à¦ħ à¦°à¦¥
à¦ħ à¦°à¦¨
à¦ħ à¦Ĺà¦¤
à¦ħ à¦¶à¦¨
à¦ħ à¦¹à¦²
à¦ħ à¦Ńà¦¬
à¦ħ à¦¨à¦ķ
à¦ħ à¦¶à¦ķ
à¦ħ à¦¨à¦¸
à¦ħ à¦¸à¦ķ
à¦ħ à¦ªà¦¥
à¦ħ à¦ľà¦®
à¦ħ à¦¬à¦¹
à¦ħ à¦Ńà¦¯
à¦ħ à¦«à¦¸
à¦ħ à¦Ńà¦¦
à¦ħ à¦¨à¦¬à¦¦
Ġà¦Ĩà¦¨ à¦¡
Ġà¦Ĩà¦¨ à¦ħà¦«
à¦Ĩà¦® à¦¡
à¦Ĩà¦® à¦°à¦£
à¦Ĩà¦® à¦²à¦ķ
Ġà¦ħà¦Ń à¦°
Ġà¦ħà¦Ń à¦Ļ
à¦¦à¦° à¦ª
à¦¦à¦° à¦Ĺ
à¦¦à¦° à¦¦à¦¸
à¦ĩà¦² à¦®
à¦ĩà¦² à¦ªà¦¤
à¦ĩà¦² à¦Łà¦ķ
Ġà¦īà¦ª à¦¦à¦²
Ġà¦īà¦ª à¦ļà¦°
Ġà¦īà¦ª à¦¹à¦¤
Ġà¦ħà¦¤ à¦¤
Ġà¦ħà¦¤ à¦¸à¦¤
Ġà¦ħà¦¤ à¦ıà¦¬à¦ķ
Ġà¦¸à¦¨ à§İà¦ķ
à¦Ĺà¦¤ à¦¯
à¦Ĺà¦¤ à¦¬à¦Ľà¦°
à¦¤à¦¬ à¦¹
à¦¤à¦¬ à¦ī
à¦¤à¦¬ à¦¦à¦¨
Ġà¦ķà¦² à¦²
Ġà¦ķà¦² à¦¯
Ġà¦ķà¦² à¦¡
Ġà¦ķà¦² à¦ļ
Ġà¦ķà¦² à¦¤à¦²
Ġà¦ķà¦² à¦®à¦¬
Ġà¦ķà¦² à¦®à¦ļ
Ġà¦ķà¦² à¦¹à¦ķ
Ġà¦ķà¦² à¦ıà¦²
à¦ĸà¦² à¦¯
à¦ĸà¦² à¦®
à¦ĸà¦² à¦¦
à¦ĸà¦² à¦¬à¦¦
à¦ĸà¦² à¦ıà¦ķ
à¦ĸà¦² à¦ıà¦ķà¦Ł
à¦ĸà¦² à¦Ĩà¦¨à¦Ĺ
à¦Ľà¦¨ à¦Ń
à¦¯à¦ķ à§°
à¦¯à¦ķ à¦°à¦£à¦¬
à¦¶à¦¨ à¦¨
à¦¶à¦¨ à¦¬
à¦¶à¦¨ à¦¦
à¦¶à¦¨ à¦®à¦¯
à¦¶à¦¨ à¦¸à¦®
Ġà¦ľà¦² à¦²
Ġà¦ľà¦² à¦¬à¦¨
Ġà¦ľà¦² à¦¹à¦¸
Ġà¦ľà¦² à¦¸à¦¨
Ġà¦ľà¦² à¦¬à¦¦
Ġà¦ľà¦² à¦¶à¦ķ
Ġà¦ľà¦² à¦¸à¦Ļ
Ġà¦ľà¦² à¦®à¦¹
Ġà¦ľà¦² à¦ľà¦®
Ġà¦ľà¦² à¦¸à¦¹
Ġà¦ľà¦² à¦®à¦¹à¦²
Ġà¦ľà¦² Ø´Ø§Ø±
à¦²à¦¤ à¦ķ
Ġà¦°à¦ķ à¦¬
à¦®à¦ķ à¦¦
à¦®à¦ķ à¦£
à¦®à¦ķ à¦ĵ
à¦®à¦ķ à§°
à¦®à¦ķ à¦¥à¦¨
à¦°à¦¶ à¦¬à¦¤
à¦ļà¦¨ à¦°
à¦ļà¦¨ à¦Ł
à¦ļà¦¨ à¦¶
Ġà¦¸à¦° à¦ª
Ġà¦¸à¦° à¦«
à¦¹à¦¸ à¦¨
à¦¹à¦¸ à¦ª
à¦¹à¦¸ à¦ľ
à¦¹à¦¸ à¦¹
Ġà¦ıà¦¤ à¦ĵ
Ġà¦ĵà¦ł à¦¨
Ġà¦Ĩà¦¶ à¦®
Ġà¦Ĩà¦¶ à¦°à¦«
à¦°à¦¹ à¦²
à¦°à¦¹ à¦¯
à¦°à¦¹ à¦ľ
à¦°à¦¹ à¦°à¦¨
à¦°à¦¹ à¦ľà¦¨à¦ķ
à¦²à¦¬ à¦®
à¦°à¦ľ à§Ł
à¦°à¦ľ à§Łà¦¨
à¦°à¦ľ à¦¬à¦°à¦¦à¦¸
à¦¨à¦¬ à¦ĩ
à¦¨à¦¬ à¦¡
à¦¨à¦¬ à¦ľà¦¨
à¦¨à¦¬ à¦¹à¦¨
à¦¨à¦¬ à¦®à¦¸
à¦¨à¦¬ à¦¸à¦¹
à¦¨à¦¬ à¦Ĺà¦ł
à¦¨à¦¬ à¦®à¦¨à¦ķ
Ġà¦ĵà¦ªà¦° à¦ĵà¦¯
Ġà¦ĵà¦ªà¦° à¦Ĩà¦²
Ġà¦ĵà¦ªà¦° à¦ĵà¦²
Ġà¦ħà¦ª à¦¶
Ġà¦ħà¦ª à¦Ĺ
Ġà¦ħà¦ª à¦ł
Ġà¦ħà¦ª à¦¤à¦¨
Ġà¦ħà¦ª à¦¶à¦¬
Ġà¦ħà¦ª à¦ķà¦®
à¦®à¦² à¦Ļ
Ġà¦¸à¦¹ à¦°
Ġà¦¸à¦¹ à¦ļ
Ġà¦¸à¦¹ à¦¨à¦¯
à¦²à¦¨ à¦²
à¦²à¦¨ à¦¯
à¦²à¦¨ à¦°à¦¤
à¦²à¦¨ à¦ķà¦²
à¦²à¦¨ à¦®à¦¯
à¦²à¦¨ à¦ħà¦¬à¦¶
à¦²à¦¨ à¦¸à¦ĩ
à¦²à¦¨ à¦«à¦ķ
à¦°à¦¦ à¦¨
à¦°à¦¦ à¦¶
à¦°à¦¦ à¦ĵ
à¦¦à¦¨ à¦¸
à¦¦à¦¨ à¦ļ
à¦¦à¦¨ à¦ªà¦°
à¦¦à¦¨ à¦¬à¦¨
à¦°à¦ĩ à¦¸
à¦ĩà¦¨ à¦¹
à¦ĩà¦¨ à¦ıà¦ĩ
à¦ĩà¦¨ à¦«à¦°
à¦¾âĢĶ ,
à¦¾âĢĶ à¥¤
à¦¾âĢĶ âĢĶ
à¦¾âĢĶ ?âĢĻ
à¦°à¦¯ à¦ª
à¦°à¦¯ à¦ļ
à¦°à¦¯ à¦¤à¦ķ
à¦¼à§ĭ à§ĩ
à¦¼à§ĭ âĢ¦
à¦¼à§ĭ âĢĻà¥¤
à¦¼à§ĭ à¦ĥà¥¤
à¦§à¦¨ à¦ľ
à¦§à¦¨ à¦§
à¦§à¦¨ à¦°à¦¤
à¦§à¦¨ à¦ªà¦Ł
à¦§à¦¨ à¦ĸà¦ļ
à¦ªà¦¤ à¦¯
Ġà¦īà¦¤ à¦®
Ġà¦īà¦¤ à¦¸
Ġà¦ħà¦§ à¦®à¦ķ
Ġà¦ħà¦§ à¦®à¦°
Ġà¦ħà¦§ à§°
Ġà¦Ĩà¦¤ à¦¸
Ġà¦Ĩà¦¤ à¦¸à¦¬
Ġà¦Ĩà¦¤ à¦¸à¦ķ
à¦ķà¦¬ à¦¯
à¦ķà¦¬ à¦¹
à¦ķà¦¬ à¦Ľà¦°
à¦§à¦ķ à¦ķ
à¦§à¦ķ à¦¸
à¦§à¦ķ à¦¥
ĠĠĊ Ċ
à¦¯à¦¨ à¦¨
à¦¯à¦¨ à¦¦
Ġà¦¶à¦ķ à¦¡
Ġà¦¶à¦ķ à¦ļ
Ġà¦¶à¦ķ à¦ĵà¦¯
à¦¯à¦¤ à¦²
à¦¯à¦¤ à¦¸à¦¬
à¦¹à¦° à¦ĵ
à¦¹à¦° à¦ı
à¦¹à¦° à¦Ńà¦°
à¦Łà¦ķ à¦ĸ
à¦Łà¦ķ à¦Ĺ
à¦Łà¦ķ à¦£
Ġà¦ķà¦¬ à¦·à¦ķ
Ġà¦ķà¦® à¦ªà¦ľ
Ġà¦ĵà¦° à¦Ł
à¦¹à¦² à¦Ńà¦°
à¦¹à¦² à¦ľà¦¨à¦ķ
âĢ¦ !
âĢ¦ ?âĢĻ
âĢ¦ âĢĺ
âĢ¦ ..
âĢ¦ !âĢĻ
à¦¸à¦¨ à¦ĸ
à¦¸à¦¨ à¦¹
à¦¸à¦¨ à§İà¦ķ
à¦¸à¦¨ à§İà¦¬
Ġà¦ıà¦Ł à¦°
à¦°à¦ĵ à¦ķ
à¦°à¦ĵ à¦§
à¦°à¦ĵ à¦¶à¦¨
à¦Ńà¦¬ à¦¬
à¦Ńà¦¬ à¦¦
à¦Ńà¦¬ à¦®à§Ł
à¦Ńà¦¬ à¦ħà¦¸à¦®
à¦¾? -
à¦¾? âĢĵ
à¦¾? âĢ¦
à¦¾? !âĢĿ
Ġà¦ĵà¦ĩ à¦°
Ġà¦ĵà¦ĩ à¦¤
à¦¿? .
à¦¿? âĢ¦
à¦¿? !âĢĿ
à¦¿? )âĢĶ
Ġà¦ķà¦¤ à¦ľ
Ġà¦ķà¦¤ à¦ľà¦¨à¦ĩ
Ġà¦¬à¦Ľà¦° à¦ª
Ġà¦¬à¦Ľà¦° à¦¡
Ġà¦¬à¦ĩ à¦¦
Ġà¦¬à¦ĩ à¦§à¦°
Ġà¦¬à¦ĩ à¦«à¦°
Ġà¦ķà¦£ à¦¤
à¦®à¦° à¦Ł
à¦®à¦° à¦§
à¦®à¦° à¦ļ
à¦®à¦° à¦«
à¦®à¦° à¦¬à¦¨
à¦ļà¦² à¦°
à¦ļà¦² à¦²
à¦ļà¦² à¦¸
à¦ļà¦² à¦ª
à¦ļà¦² à¦°à¦¤
à¦ļà¦² à¦¨à¦ĵ
à¦ļà¦² à¦Ĺà¦¤
à¦ļà¦² à¦¸à¦®
à¦®à¦£ à¦®
à¦®à¦£ à¦¹
à¦®à¦£ à¦¤à¦¨
à¦®à¦£ à¦®à¦£
à¦®à¦£ à¦ªà¦£
à¦®à¦£ à¦¸à¦Ń
à¦®à¦£ à¦ıà¦ĸà¦¨à¦ĵ
Ġà¦¯à¦¤ à¦ľà¦¨
à¦¨à¦ķ à¦¦
à¦¨à¦ķ à¦¡
à¦¨à¦ķ à§Ł
à¦¨à¦ķ à¦Ń
Ġà¦¨à§Ł à¦ĩ
Ġà¦¨à§Ł à¦¨à¦ļ
à¦¤à¦² à¦¯
Ġà¦īà§İ à¦ķà¦¨
Ġà¦īà§İ à¦¸à¦ķ
Ġà¦īà§İ à¦ªà¦²
Ġà¦¬à¦¹ à¦¤
Ġà¦¬à¦¹ à¦¬
à¦°à¦ª à¦¸
à¦°à¦ª à§ľ
Ġà¦ıà¦° à¦Ł
!âĢĿ âĢĵâĢĵ
à§Ģ, âĢĶ
à¦¿âĢĶ (
à¦¿âĢĶ âĢĶ
à¦¸à¦® à¦¶
à¦¸à¦® à¦ļ
Ġà¦¶à¦¹à¦° à¦¬à¦¨
à¦·à¦ķ à¦¨
à¦·à¦ķ à¦Ĺ
à¦·à¦ķ à¦¸à¦®
Ġà¦īà¦ļ à¦ķ
à¦¬à¦¦ à¦ķ
à¦¬à¦¦ à¦¬
à¦¬à¦¦ à¦²à¦ĵ
à¦·à¦¤ à¦Ń
Ġà¦«à¦² à¦Ľ
Ġà¦«à¦² à¦«
Ġà¦«à¦² à¦ķà¦Ł
Ġà¦«à¦² à¦¨à¦ĵ
Ġà¦«à¦² à¦Łà¦²
à¦²à¦² à¦®
à¦¯à¦® à¦ľ
à¦¯à¦® à§°
Ġà¦ħà¦¥ à¦¬à¦¤
Ġà¦ĩà¦¨ à¦Ńà¦¯
à§İà¦ķ à¦·
à¦¸à¦° à¦ļ
à¦¤à¦ķ à¦ĸ
à¦¤à¦ķ à¦Ĺ
à¦¤à¦ķ à¦Ń
à¦¤à¦ķ à¦°à¦¬
à¦¿à¦ĥ à¥¤âĢĻ
à¦¿à¦ĥ âĢĻà¥¤
Ġà¦Ńà¦° à¦°à¦°
à¦¦à¦² à¦®
à¦ļà¦ķ à¦¥
Ġà¦ħà¦® à§ľ
Ġà¦ħà¦® à¦°à¦¬
Ġà¦ħà¦® à¦°à¦²
à§Ģà¥¤ âĢ¦
Ġà¦ªà¦¦ à¦¯à¦¨
Ġà¦ªà¦¦ à¦¯à¦ľ
à¦¼à§ĩà¥¤ à¥¤
à¦°à¦ķà¦® à¦Ł
à¦°à¦ķà¦® à¦ĵ
à¦°à¦ķà¦® à¦Ń
à¦¤à¦¤ à¦ĩ
à§° à¦Ľ
à§° à¦¹à¦°
à§° à¦Ńà¦¬
à§° à¦®à¦¬
à§° à¦¬à¦ķ
à§° à¦§à¦°
à§° à¦ľà¦¬
à§° à¦¬à¦ļ
à§° à¦¸à¦¹
à§° à¦¤à¦¹
à§° à¦¬à§°
à§° à¦ªà¦ŀ
à§° à§Łà¦ĩ
à§° à¦ªà§°
à¦ıà¦ķ à¦§
à¦ıà¦ķ à¦¸à¦°
à¦ıà¦ķ à¦ªà¦ķ
à¦ıà¦ķ à¦ķà¦ķ
à¦ıà¦ķ à¦¸à¦ª
à¦ıà¦ķ à¦ĸà¦£
à¦ıà¦ķ à¦ªà¦²à¦ķ
à¦¤à¦® à¦¹
à¦¤à¦® à¦ŀ
Ġà¦ıà¦ķà¦ľà¦¨ à¦¦
Ġà¦²à¦ķ à¦ķ
Ġà¦²à¦ķ à¦¸
Ġà¦ħà¦ªà¦° à¦Ł
Ġà¦ħà¦ªà¦° à¦ľà¦¨à¦ķ
Ġà¦ıà¦ķà¦¬ à¦¸à¦¨
Ġà¦ıà¦ķà¦¬ à¦ļà¦¨à¦¤
Ġà¦¶à¦° à¦ļ
à¦®à¦¬ à¦ĸ
à¦®à¦¬ à¦¶à¦¤
à¦®à¦¬ à§İà¦ª
à¦¿à¦ģ !
à¦¿à¦ģ à¥¤
à¦¿à¦ģ âĢ¦
à¦¬à¦¸ à¦Ł
à¦¬à¦¸ à¦ĸ
à¦¬à¦¸ à¦¹
à¦¬à¦¸ à¦ĵ
à¦¬à¦¸ à¦®à¦¯
à¦¬à¦¸ à¦ķà¦¨
à¦¬à¦¸ à¦¹à¦ķ
Ġà¦Ĳ à¦®à¦¢
à§ģâĢĻ !
à§ģâĢĻ âĢĶ
Ġà¦ħà¦ķ à¦®
Ġà¦ħà¦ķ à¦¶
Ġà¦ħà¦ķ à¦£
à¦ªà¦ķ à¦ª
à¦ªà¦ķ à¦Ĺ
à¦ªà¦ķ à¦ĵ
à¦ªà¦ķ à¦°à¦£
Ġà¦ħà¦¬à¦¸ à¦°à¦ķ
Ġà¦°à¦Ļ à¦¹
Ġà¦°à¦Ļ à¦ķà¦°
Ġà¦°à¦Ļ à¦¢à¦Ļ
à¦¸à¦² à¦Ń
à¦¯à¦¬à¦¸ à¦¤
à¦¶à¦ķ à¦®
à¦¶à¦ķ à¦ľà¦¨
à¦°à¦Ń à¦®à¦¯
Ġà¦ıà¦ķà¦¦ à¦²à¦ķ
à¦ĩà¦ķ à¦¸
à¦ĩà¦ķ à¦¡
Ġà¦Ĩà¦§ à¦ĺ
Ġà¦Ĩà¦§ à¦®à¦£
Ġà¦Ĩà¦§ à¦¢
Ġà¦Ĩà¦§ à¦ªà¦¯
Ġà¦Ĩà¦§ à¦«à¦°
Ġà¦Ĩà¦§ à¦¶à¦¤à¦ķ
à§Łà¦¨ à¦®
à§Łà¦¨ à¦ĩ
à§Łà¦¨ à¦Ĺ
à¥¤âĢĻ (
ĠâĢĶ -
ĠâĢĶ âĢĵ
à§ĩ! ?
Ġà¦°à¦¬ à¦ķ
à¦¶à¦¬ à¦ĩ
Ġà¦ħà¦Ĺ à¦®à¦ļ
à¦¸à¦¤ à¦ĵ
âĢĮ à§ĩ
âĢĮ âĢĵ
âĢĮ à¦ĥ
à¦¯à¦¸ à¦ļ
à¦¸à¦« à¦Ł
à¦¸à¦« à¦°à¦Ł
à¦Ĺà¦¨ à¦¯
à¦Ĺà¦¨ à¦¦
à¦Ĺà¦¨ à¦ĩ
à¦Ĺà¦¨ à¦Ĺ
à¦Ĺà¦¨ à¦ļ
à¦Ĺà¦¨ à¦¹
à¦Ĺà¦¨ à¦ľà¦¯
à¦¬à¦ķ à¦®
à¦¬à¦ķ à¦ľ
à¦¬à¦ķ à¦¨à¦¸
à¦¬à¦ķ à¦¸à¦¹
à¦¬à¦ķ à¦¸à¦Ń
à¦¨à¦² à¦¡
à§ģà¦ĥ ,
à§ģà¦ĥ -
à§ģà¦ĥ âĢĵ
à§ģà¦ĥ !âĢĻ
Ġà¦Ńà¦¬ à¦¬à¦²
Ġà¦ħà¦¶ à¦ĸà¦Ĺ
à¦¢ à¦ª
à¦ªà¦Ł à¦°
à¦ªà¦Ł à¦ļ
à¦ªà¦Ł à¦ªà¦Ł
à§įâĢĮ à§į
à§įâĢĮ âĢ¦
à§įâĢĮ âĢĻ,
à§įâĢĮ Â·Â·Â·
à¦¯à¦¦ à¦£
à¦ĸà¦¬ à¦ĵ
à¦¹à¦¨ à¦®
à¦¹à¦¨ à¦¸
à¦¹à¦¨ à¦ĩ
à¦¹à¦¨ à¦ļà¦¨
Ġà¦¬à¦²à¦¬ à¦ĩ
à¦ĩà¦Ł à¦¨
à¦ĩà¦Ł à¦«
à¦ĩà¦Ł à¦ĵà¦¯
?âĢĻ âĢĿ
à¦¾! âĢĻâĢĶ
?âĢĿ .
Ġà¦Ĩà¦ļ à¦®à¦¨
à§ģ- à§ĩ
Ġà¦īà¦ªà¦° à¦®
Ġà¦īà¦ªà¦° à¦ĵ
Ġà¦Ĩà¦¦ à¦°à¦®
Ġà¦Ĩà¦¦ à¦²à¦¤
Ġà¦Ĩà¦¦ à¦®à¦¶
Ġà¦Ĩà¦¦ à¦®à¦ª
Ġà¦ªà¦¤ à¦ªà¦¤
à¦ķà¦¨ à¦°
à¦ķà¦¨ à¦ĩ
à¦ķà¦¨ à¦¶
à¦ķà¦¨ à¦Ń
à¦Ĺà¦ľ à¦ķ
à¦Ĺà¦ľ à¦¦
à¦Ĺà¦ľ à¦ĵà¦¯
à¦Ĺà¦ľ à¦ĸà¦£
à¦Ĺà¦ľ à¦ĵà¦²
à¦Ĺà¦ľ à¦ķà¦²à¦®
Ġà¦Ī à¦¨
Ġà¦Ī à¦¸
à§ĩâĢĵ à¥¤
à§ĩâĢĵ âĢĻ
Ġà¦¶à¦¤ à¦¸
Ġà¦¶à¦¤ à¦Ľ
Ġà¦¶à¦¤ à¦°à¦ķà¦®
Ġà¦°à¦ĩà¦² à¦°à¦ĩà¦²
à¦¨à¦¦ à¦ķ
à¦ªà¦¸ à¦®à¦¨
à¦ªà¦¸ à§°
Ġà¦¬à¦Ł à¦¬à¦¨
Ġà¦¬à¦Ł à¦¨à¦Ł
Ġà¦¬à¦Ł à¦ĩà§Ł
à§ĩ; -
à¦¨à¦¸ à¦ļ
à¦°à¦Ĺ à¦ĵ
à¦°à¦Ĺ à¦°à¦®
à¦¸à¦ķ à¦ķ
à¦¸à¦ķ à¦ªà¦ķ
à¦Ļà¦² à¦§à¦°
Ġà¦°à¦ķà¦® à¦ĵ
à¦¬à¦¶ à¦¸
à¦°à¦ľà¦¨ à¦®
à¦īà¦¨ à¦¶
à¦īà¦¨ à¦«
à¦¦à§Ł à¦¤
à¦¦à§Ł à¦ª
Ġà¦¸à¦®à§Ł à¦Ľ
Ġà¦¸à¦®à§Ł à¦ª
Ġà¦ħà¦« à¦¬
Ġà¦ħà¦« à¦¹
à¦²à¦Ľ à§ľ
à¦ľà¦¬ à§İ
à¦ľà¦¬ à¦ªà¦¨
à¦ľà¦¬ à¦īà¦®
à¦ľà¦¬ à§İà¦¸à¦²
Ġ( âĢĶ
Ġà¦ıà¦¨ à¦®
Ġà¦ıà¦¨ à¦ıà¦Ń
à¦ľà¦² à¦°
à¦ľà¦² à¦Ł
à¦ľà¦² à¦ĵ
à¦ľà¦² à¦Ńà¦°
à¦¯à¦ĩ à¦¤
à¦¯à¦ĩ à¦ª
à§ĭâĢĶ "
à§ĭâĢĶ âĢĿ
Ġà¦¦à¦² à¦ª
Ġà¦¦à¦² à¦ľ
Ġà¦¦à¦² à¦®à¦¤
Ġà¦¦à¦² à¦®à¦²
Ġà¦¦à¦² à¦¦à¦²
à¦°à¦®à¦£ à¦ľ
à¦°à¦®à¦£ à¦Ĺ
à¦°à¦®à¦£ à¦°à¦¸
à¦°à¦®à¦£ à¦ªà¦¤
à¦°à¦®à¦£ à¦¸à¦¹
Ġà¦Ĩà¦Łà¦ķ à¦Ľ
à¦¼à§Ģ !
à¦¼à§ģ !
à¦¼à§ģ ?âĢĻ
à¦¨à¦Ĺ à¦Ĺ
à¦¨à¦Ĺ à¦°à¦®
à¦°à¦§ à¦²
à¦«à¦² à¦Ł
à¦Łà¦¬ à¦ĩà¦Ł
à¦Łà¦¬ à¦īà¦¦
Ġà¦ĭ à¦¯
Ġà¦ĭ à¦·à¦¯
Ġà¦¤à¦¥ à¦¨
Ġà¦ķà¦¨ à¦¶
Ġà¦ķà¦¨ à¦ªà¦Ł
Ġà¦ķà¦¨ à¦¡à¦®
Ġà¦¸à¦¹à¦ľ à¦ª
Ġà¦¸à¦¹à¦ľ à¦¤à¦®
à¦°à¦¹à¦£ à¦®
à¦°à¦¹à¦£ à¦ĵ
Ġà¦īà§İà¦¸ à¦¸
Ġà¦īà§İà¦¸ à¦ĵ
à¦ĩà¦¤ à¦¸
à¦ĩà¦¤ à¦Ł
à¦ħà¦¨ à¦¯
à¦ħà¦¨ à¦Ļ
à¦Ĺà¦¬ à¦¹
à¦Ĺà¦¬ à§İ
Ġà¦ĺà¦¨ à¦®
Ġà¦Ĩà¦ª à¦¹
Ġà¦Ĩà¦ª à§İà¦¸
à¦Ĩà¦° à¦«
à¦²à¦® à¦¸
à¦²à¦® à¦¶
à¦²à¦® à¦¸à¦²
Ġà¦¬à¦ķ à¦ĸ
à¦¹à¦¤ à¦¦
à¦¾âĢĵ âĢĿ
à¦¾âĢĵ âĢľ
à¦ľà¦ķ à¦®à¦²
à§İà¦¸ à§°
à§İà¦¸ à¦ıà¦°
à¦¾; âĢĵ
à¦§à¦¬ à¦ļ
à¦§à¦¬ à¦¹
à¦§à¦¬ à¦ĵ
à¦·à¦° à¦¹à¦¸
Ġà¦¦à¦¶ à¦¶
Ġà¦¦à¦¶ à¦¬à¦°
à§ĭ? âĢĶ
à¦¥à¦° à¦ĸ
à¦¥à¦° à¦ļà¦¨
Ġà¦¦à¦° à¦¶à¦¨
Ġà¦Ĺà§ľ à¦²
à¦¼âĢĶ âĢĻ
Ġà¦ªà¦² à¦Ļ
à¦ķà¦¶ à¦°
Ġà¦Ńà§Ł à¦¬
Ġà¦Ńà§Ł à¦Ĺ
Ġà¦Ńà§Ł à¦Ń
à¦¿! !
à¦¨à¦ĩ à¦ľ
Ġà¦Ĩà¦¹ à¦ķ
Ġà¦Ĩà¦¹ à¦¹
Ġà¦ľà¦¬ à¦¡
Ġà¦¨à¦® à¦Ľà¦ķ
à¦¼? âĢ¦
à§Ģ- âĢĶ
Ġà¦¬à¦ī à¦¹
Ġà¦¬à¦ī à¦¬à¦²
Ġà¦¬à¦ī à¦ĩà§Ł
à¦ĩà¦Ľ à¦¸
à¦·à¦®à¦¤ à¦®
Ġà¦§à¦¨ à¦§
à¦²à¦Ĺ à¦®
à¦²à¦Ĺ à¦ª
à¦²à¦Ĺ à¦£
ĠâĢĵ âĢĵ
à¦ķà¦¡ à¦¨
à¦Ĺà¦® à¦ĩ
à¦Ĺà¦® à§İ
à¦łà¦ķ à¦®
à¦łà¦ķ à¦¸
à¦łà¦ķ à¦Ĺ
à¦łà¦ķ à¦¬à¦°
à¦łà¦ķ à¦ĺà¦°
à¦²à¦¸ à¦¦
à¦²à¦¸ à¦ĸ
à¦²à¦¸ à¦Ĺ
à¦²à¦¸ à¦¹
à¦¦à¦® à¦ª
à¦¦à¦® à¦¦à¦®
à¦¦à¦® à¦¦à¦Ĺ
Ġà¦¨à¦¬ à¦ļ
Ġà¦¨à¦¬ à¦°à¦¤
Ġà¦¨à¦¬ à¦ī
à¦®à¦¹ à¦¨à¦¨
à¦£à¦ķ à¦®
à¦¼à¦Ĥ -
à¦¼à¦Ĥ âĢĵ
à¦¬à¦ĩ à¦¸
à¦¬à¦ĩ à¦ªà§ľ
à¦¼- âĢĶ
Ġà¦Ŀà¦° à¦ı
à§Ģ? âĢĵ
à¦ĩà¦Ń à¦¦
Ġà¦ıà¦ķà¦® à¦ŀ
¯à§ ¯
Ġà¦Ĺà¦£ à¦¯
Ġà¦Ĺà¦£ à¦¹
Ġà¦Ĺà¦£ à¦¸à¦ļ
Ġà¦Ĺà¦£ à¦ħà¦Ĺ
à¦®à¦Ĺ à¦¯
à¦®à¦Ĺ à¦§
à¦®à§Ł à¦¹
à¦®à§Ł à¦®à¦¨à¦¸
à¦®à§Ł à¦ķà¦°à¦¤
à¦¯à¦¯ à¦ľ
à¦ĩà¦¡ à¦ĩ
à¦ĩà¦¡ à¦ª
à¦ĩà¦¡ à¦ĵ
Ġà¦ªà¦°à¦® à¦¶
Ġà¦ªà¦°à¦® à¦ļ
Ġà¦ªà¦°à¦® à¦ŀ
Ġà¦ªà¦°à¦® à¦²à¦¤
à¦¹à¦°à¦£ à¦ľ
à¦¹à¦°à¦£ à¦¸à¦®
à¦īà¦² à¦ĵ
à¦īà¦² à¦«
à¦¾âĢĻ âĢĻ
à¦¾âĢĻ );
à¦¯à¦ª à¦¶
à¦¯à¦ª à¦Łà¦ķ
Ġà¦¶à¦¹ à¦°à¦¸
Ġà¦¶à¦¹ à¦°à¦®à§Ł
Ġà¦¬à§Ł à¦·
Ġà¦¬à§Ł à¦ķà¦Ł
Ġà¦Ĩà¦¦à¦° à¦ĩ
Ġà¦Ĩà¦¦à¦° à¦Ńà¦°
à¦¿âĢĵ -
à¦¿âĢĵ à¥¤
à¦¿âĢĵ âĢĿ
à¦®à¦°à¦£ à¦ĩ
à¦®à¦°à¦£ à¦ļ
à¦®à¦°à¦£ à¦¹
à¦®à¦°à¦£ à¦¬à¦°
Ġà¦¸à¦°à¦² à¦¸
Ġà¦¸à¦°à¦² à¦ĩ
Ġà¦¸à¦°à¦² à¦Ĺ
Ġà¦¸à¦°à¦² à¦®à¦¨
Ġà¦ķà¦ª à¦²
Ġà¦Ĺà¦°à¦® à¦¤
Ġà¦Ĺà¦°à¦® à¦ĩ
à¦ķà¦ľà¦¨ à¦¸à¦¹
Ġà¦īà§İà¦¸à¦¬ à¦¸
Ġà¦īà§İà¦¸à¦¬ à¦¹
à¦ķà¦°à¦£ à¦®
à¦ķà¦°à¦£ à¦§
à¦ķà¦°à¦£ à¦Ĺà¦¤
à¦ķà¦°à¦£ à¦¤à¦¤
Ġà¦ªà¦¶ à¦¤
à¦ļà¦¡ à¦Ĺ
à¦ħà¦° à¦°à¦°
à¦ķà¦¸ à¦ļ
à¦ķà¦¸ à¦ŀ
à¦ķà¦¸ à¦ı
Ġà¦ļà¦®à¦ķ à¦¦
à¤ «
à¤ ī
à¤ Ŀ
âĢĻ, âĢĶ
à¦¶à¦® à¦¹à¦²
à¦°à¦° à¦«
Ġà¦®à¦¸ à¦ķà¦°
à¦¡à¦¬ à¦®
à¦¡à¦¬ à§İ
à¦¡à¦¬ à¦ĺà¦°à¦£
Ġà¦Ĺà¦® à¦ĸ
Ġà¦ļà¦¨ à¦ļà¦¨
Ġà¦°à¦¸ à¦ľ
Ġà¦°à¦¸ à¦Ńà¦Ļ
Ġà¦°à¦¸ à¦¸à¦ŀ
Ġà¦®à¦² à¦¦
Ġà¦®à¦² à§Ł
Ġà¦®à¦² à¦ļà¦¤
à§ĩâĢ¦ ?
à§ĩâĢ¦ !âĢĿ
Ġà¦®à¦£ à¦ĵ
à¦¦à¦Ĺ à¦ļ
à¦¦à¦Ĺ à¦£
à§ĩ?âĢĻ âĢĻ
à¦¤à¦¦ à¦¦
à¦¤à¦¦ à¦§
à§¦ à§©
à§¦ à§Ń
à§¦ à§¯
à¦ļà¦Ł à¦ªà¦Ł
à¦®à¦ľ à¦¡
à¦®à¦ľ à§Ł
à¦¤à¦ª à¦¬
à¦¤à¦ª à¦Ļ
Ġà¦¦à¦® à¦ª
Ġà¦¦à¦® à¦Ńà¦°
à¦®à¦¦ à¦®à¦¨
à¦£à¦¬ à¦Ļ
à¦£à¦¬ à§İ
à¦£à¦¬ à¦ľà¦ª
à¦¬à¦ļ à¦¨à¦¤
à¦®à¦ª à¦¯
à¦¬à¦§ à¦®
à¦²à¦Ń à¦ķ
à¦²à¦Ń à¦¦
à¦²à¦Ń à¦ª
à¦²à¦Ń à§Ł
à¦²à¦Ń à¦®à¦ª
à§ĭ! )
à§ĭ! âĢĻâĢĶ
à§ĭ! ï»¿
Ġà¦ħà¦®à¦² à¦¦
Ġà¦ħà¦®à¦² à¦§
à¦ľà¦¨à¦ķ à¦ĵ
à¦ıà¦ĸà¦¨ à¦¤
à¦¥à¦² à¦ĩ
à¦¥à¦² à¦¬à¦ª
à¦¥à¦² à¦®à¦£
à¦ĩà¦¸ à¦°à¦ķà¦®
à¦¬à¦¹ à¦°à¦¸à¦¹
à¦¿; âĢĶ
à¦¤à¦Ń à¦ķ
à¦¤à¦Ń à¦Ł
à¦¤à¦Ń à¦¬à¦¨
à¦ĸà¦ķ à¦·
à¦ĸà¦ķ à¦ĵ
à¦¯à§İ à¦Ł
à¦¯à§İ à¦ĩ
à¦ªà¦® à¦²à¦¤
Ġà¦¸à¦¦ à¦¬
âĢ¦âĢĿ ,
âĢ¦âĢĿ âĢĵâĢĵ
à¦Ĺà¦¡ à¦Ĺ
Ġà¦¬à¦ľ à¦¦
Ġà¦¬à¦ľ à¦ª
à¦®à¦ļ à¦°à¦£
à¦®à¦ļ à¦ŀ
à¦®à¦ļ à¦²à¦¨à¦¸à¦ĩ
Ġà¦ıà¦°à¦ķà¦® à¦§
à¦ļà§Ł à¦Ł
à¦Łà¦® à¦ĵ
à¦Łà¦® à¦¹à¦²
à§ĩ!âĢĿ âĢĵ
à§Ŀ à¦¸à¦Ļ
Ġà¦Ĩà¦ĩà¦¨ à¦Ł
Ġà¦Ĩà¦ĩà¦¨ à¦Ĺ
Ġà¦Ĩà¦ĩà¦¨ à¦®à¦¤
Ġà¦Ĩà¦ĩà¦¨ à¦Ńà¦Ļ
à¦¸à¦¹ à¦ķ
à¦¸à¦¹ à¦ª
à¦¸à¦¹ à¦®à¦°
à¦ªà¦² à¦ľ
Ġà¦®à¦¦ à¦ĵà§Ł
Ġà¦īà¦ªà¦¨ à¦Ĺà¦°
à¦Ĩà¦² à¦¹
à¦Ĩà¦² à¦Ļ
Ġà¦ľà§Ł à¦ĩ
à¦¨à¦Ľ à¦¸à¦¨
à¦ĩà¦® à¦ªà¦¸
à§¨ à§§à§¨à§«
à¦¼à¦¿à¥¤ ï»¿
à¦¬à¦Ł à¦¤à¦²
Ġà¦ıà¦ķà¦¤ à¦®à¦ķ
à¦°à¦¬à¦² à¦°
à¦¦à¦ķ à¦®
à¦¦à¦ķ à¦£
à¦¤à¦¸ à¦Īà¦°
à¦Ĩà¦Ĺ à¦®à¦¨
à¦Ĩà¦Ĺ à¦°à¦¤à¦²
à¦¾à¦ĥ -
Ġà¦ĩà¦² à¦¶
à¦ļà¦°à¦£ à¦°à¦¤
à¦ľà¦Ĺ à¦ŀ
à¦ľà¦Ĺ à¦¦à¦²à¦ª
Ġà¦ĵà¦ª à§ľ
Ġà¦ļà¦°à¦® à¦°
Ġà¦ļà¦°à¦® à¦¤à¦®
à¦²à¦ª à¦Ļ
à¦²à¦ª à¦ŀ
à¦¾?âĢĻ âĢĶ
à¦·à§Ł à¦¬
à¦¨à¦ª à¦¯
in ed
in ing
in os
in ary
in ishes
à¦¬à¦® à¦Ń
à¦¬à¦® à¦¹à¦²
à¦¦à¦¬ à¦¦à¦¨
à¦¦à¦¬ à¦§à¦ķ
Ġà¦¨à¦Ĺà¦° à¦°à¦ķ
Ġà¦¬à¦¸à¦¤ à¦ĺà¦°
à¦¼âĢĵ âĢĵ
à¦¼âĢĵ âĢľ
à¦¨à¦ļ à¦£
à¦¬à¦ľà¦¨ à¦®
à¦Łà¦¸ à¦Ĺ
Ġà¦ĩà¦¸ à¦¥
Ġà¦ĩà¦¸ à¦ķà¦¨
th r
th s
th at
th us
th ful
Ġà¦¸à¦¤à¦° à¦ŀ
à¦¾âĢĿ ?
à¦¾âĢĿ âĢ¦
an e
an tic
an ie
à¦¶à¦¤ à¦¶
à¦¶à¦¤ à¦ªà¦¥
à¦¥à¦¬ à§İ
à¦¼! !
à¦²à¦ľ à¦ĺ
à§Ģ! âĢĺ
Ġà¦ħà¦¹ à¦®à¦¦
Ġà¦ªà¦Ł à¦ªà¦°
à¦¶à¦° à¦Ļ
à¦¶à¦° à§İà¦¬
à§« à§¯
à§« à§¨à§¦
à¦¿?âĢĿ ,
à¦¿?âĢĿ âĢĵ
Ġà¦ľà¦Ĺ à¦ľà¦¨
Ġà¦ľà¦Ĺ à§İà¦ª
Ġà¦ľà¦Ĺ à¦Ŀà¦®
er ing
er ci
er ving
à¦ıà¦®à¦¨ à¦Ń
à¦¬à¦°à¦£ à¦Ł
à¦¬à¦°à¦£ à¦ĩ
à¦¬à¦°à¦£ à¦¡
à§Łà¦® à¦ĩ
Ġà¦Ĺà¦¦ à¦ĸ
à¦ľà¦ª à§ľ
Ġà¦Ĩà§Ł à¦ķà¦°
Ġà¦Ĩà§Ł à¦°à¦¨
à¦¨à¦ľà¦¨ à¦ĵ
à§ĩâĢĻ ;
à§ĩâĢĻ ?
à§ĩâĢĻ à¥¤âĢĿ
Ġà¦Ĺà¦¹ à¦£
Ġà¦Ĺà¦¹ à¦¨à¦¤
à¦ªà§ľ à¦¨
à¦ªà§ľ à¦ĩ
à¦ķà§ľ à¦Ĺ
à¦īà¦ľ à¦«
à¦²à¦« à¦®
Ġà¦ķà¦²à¦® à¦ĸ
à¦¸à¦¸ à¦¹à¦°
à¦Łà¦¦ à¦·
à§ĭ?âĢĿ âĢĵ
Ġà¦Ĩà§ľ à¦²
Ġà¦Ĩà§ľ à¦ķ
Ġà¦ķà¦®à¦² à¦ķà¦²
Ġà¦Ĺà¦ľ à¦®à¦¤
à¦īà¦¸ à¦Ĺ
Ġà§¨ à§ªà§©
Ġà¦Ĩà¦ĩ à¦¸à¦¬
Ġà¦Ĩà¦ĩ à¦¬à¦ķ
Ġà¦Ĩà¦ĩ à¦¹à¦¨
Ġà¦Ĩà¦ĩ à¦¹à¦¨à¦ķ
Ġà¦ħà¦¬à¦¦ à¦®à¦¨
Ġà¦Ĭ à¦ķ
Ġà¦Ĭ à¦ļ
Ġà¦Ĭ à¦¨à¦¤
Ġà¦Ĭ à¦·à¦°
à¦¬à¦ľ à¦Ńà¦Ļ
Ġà¦¨à¦ĩ à¦ıà¦¬
Ġà¦®à¦¨à¦¨ à¦Ĺà¦°
al m
al ification
al thful
à§© à§¦à§¦
à§© à§¬à§«
à¦Ī à§Ł
Ġà¦«à¦¸à¦² à¦Ĺ
à¦ıà¦¸ à¦ĩ
Ġà¦°à¦¥ à¦¸
Ġà¦¬à¦¦ à¦«
Ġà¦¬à¦¦ à¦°à¦¸
Ġà¦¬à¦¦ à¦²à¦¬
Ġà¦¬à¦¦ à¦ĩà¦Ł
à¦¾âĢ¦ ?
à¦¾âĢ¦ ?âĢĿ
à¦¾âĢ¦ âĢĻà¥¤
à¦¾âĢ¦ .âĢĿ
en j
on ed
on om
on ey
à§ģâĢĶ âĢĻ
Ġà¦Ńà¦¬à¦¨ à¦¦
à¦ĵà¦ĩ à¦¸à¦¬
à¦ıà¦¤ à¦ĸ
à§Ń à§«
à§Ń à§Ń
Ġà¦¶à¦ªà¦¥ à¦ª
Ġà¦¶à¦ªà¦¥ à¦¬à¦¦
à¦¸à¦®à§Ł à¦Ł
à¦¸à¦®à§Ł à¦ĵ
à¦¿âĢ¦ .
à¦¯à§Ł à¦¸
à¦¯à§Ł à¦ĵ
Ġà¦ªà¦²à¦ķ à¦ķ
Ġà¦ªà¦²à¦ķ à¦Ŀ
à¦ķà¦¶à¦¨ à¦ķ
Ġà¦¸à¦«à¦² à¦ĵ
à¦ļà§ľ à¦Ĺ
à§ª à§®
Ġà¦ľà¦²à¦¬ à§İ
Ġà¦Ńà¦°à¦¤ à¦¶
Ġà¦Ńà¦°à¦¤ à¦Ń
Ġà¦Ńà¦°à¦¤ à§°
Ġà¦Ńà¦°à¦¤ à¦·à¦Ń
Ġà¦¸à¦°à¦¸ à¦Ń
à¦¾?âĢĿ ,
!âĢĻ âĢĿ
à¦ĸà¦¸ à¦¡
Ġà¦Ŀà¦ķ à¦ľà¦ķ
à¦Ĺà¦¸ à¦ľ
à¦Ĺà¦Ń à¦¬à¦¨
Ġth ing
Ġth ir
Ġth ose
à¦¹à¦ķ à¦ľ
à¦¹à¦ķ à¦ĵ
es ide
es pear
Ġà¦§à¦®à¦ķ à¦ĩ
ti an
ti es
ti sh
ti vel
à¦¨à¦¹ à¦«
Ġà¦¨à¦¹ à¦·
Ġà¦¨à¦¹ à¦·à¦ķ
or m
or ed
or ch
or ity
or ge
à¦ªà¦ľ à¦²à¦¬
à¦ķà¦ĵ à¦²
à¦Ĺà¦°à¦£ à¦®
éŁ¿éŁ¿éŁ¿éŁ¿ åĵį
ar re
ar ly
ar ies
à¦ĭ à¦·à¦¯
à¦¡à¦ķ à¦«
Ġà¦Ĺà¦łà¦¨ à¦Ĺà¦¤
à¦ĩà¦ļ à¦£
Ġà¦ķà¦ĩ à¦¤à¦°
Ġà¦ķà¦ĩ à¦²à¦ķ
à¦¦à¦ª à¦¹
Ġs us
Ġs ch
Ġs ea
Ġs ci
Ġs ep
Ġs ym
Ġs ix
Ġs ummer
Ġs ince
Ġs weet
à§¬ à§¨
à§¬ à§ª
à¦²à¦° à¦¹à¦¸
à¦£à¦Ĺ à¦Ļ
à¦¯à¦¹ à¦ĩ
à¦Ĩà¦§ à¦ª
à¦Ĩà¦§ à¦ľà¦¨
Ġà¦¬à¦§ à¦²
Ġà¦°à¦¤à¦¨ à¦ķ
Ġà¦°à¦¤à¦¨ à¦ª
à¦¬à¦Ĺ à¦Ļ
à¦¬à¦Ĺ à¦łà¦¨
Ġà¦®à¦Ĺ à¦Ńà¦°
Ġà¦ıà¦ĩà¦°à¦ķà¦® à¦Ł
Ġà¦ıà¦ĩà¦°à¦ķà¦® à¦Ń
à¦ħà¦¸ à§İ
à¦¯à¦®à§Ł à¦Ń
Ġà¦¥à¦® à§Ŀ
à§ĭâĢĻ ?
à§ĭâĢĻ âĢĵ
à¦Ĳ à¦²
à¦Ĳ à¦¯
Ġà¦ħà¦®à¦° à¦ļà¦¨
Ġà¦¬à¦°à¦« à¦ķ
Ġà¦¬à¦°à¦« à¦ĩ
Ġà¦¬à¦°à¦« à¦ľ
Ġà¦¬à¦°à¦« à¦ľà¦²
Ġà¦¬à¦°à¦« à¦Ĺà¦²à¦¨
is i
is ch
à¦¬à¦Ľà¦° à¦ĵ
à¦ĩà¦« à¦ľ
à¦·à¦ª à¦ŀ
Ġà¦§à¦°à¦¬ à¦ĩ
Ġà¦ĵà¦Ĺ à¦¯
à§İà¦¸à¦¬ à¦®
Ġà¦ħà¦ļà¦² à¦ª
Ġà¦ľà¦Ĺà§İ à¦®à§Ł
à¦«à¦²à¦¨ à¦ĩ
à¦«à¦²à¦¨ à¦¶
Ġà¦ķà¦¬à¦° à¦Ĺ
Ġà¦ķà¦¬à¦° à¦ĵ
à¦ļà¦Ľ à¦ĸ
à¦ļà¦Ľ à¦ľà¦¨à¦ķ
à§ĭ?âĢĻ à¥¤
à§ĢâĢĻ ;
à¦²à¦ĵ à¦¹
à¦¬à¦¤à¦¨ à¦°
à¦¬à¦¤à¦¨ à¦¦
à¦Ĩà¦ĩ à¦ĵà¦Ł
Ġà¦ħà¦¬à¦° à¦¨
Ġthe e
Ġà¦®à¦¹à¦° à¦°à¦®
Ġà¦Ĩà¦Ĺà¦®à¦¨ à¦ķ
Ġà¦Ĩà¦Ĺà¦®à¦¨ à¦¬
Ġà¦¸à¦« à¦²à¦ķ
Ġà¦¸à¦« à¦¦à¦°
à¦ªà¦ķà¦¥à¦¨ à¦ĩ
at as
à¦¼à¥¤âĢĻ âĢĿ
à§ĭâĢĵ âĢĵ
à§ĭâĢĵ âĢľ
à¦Ĺà¦łà¦¨ à¦®
à¦¸à¦ķà¦² à¦ĸ
Ġà¦ĩà¦¹ à¦ľà¦Ĺà¦¤
Ġà¦¸à¦¦à¦¸ à§İ
Ġc ar
Ġc ou
Ġc ent
Ġc os
Ġc ir
Ġc ry
Ġc ome
Ġc ase
Ġc hap
Ġc ommun
à§ĭ!âĢĿ âĢĵ
Ġà¦īà¦Ĺ à§ľ
à¦°à¦ļà¦² à¦®
el e
el le
el ong
Ġw r
Ġw ar
Ġw id
Ġw ind
Ġw ine
Ġw omen
Ġw ild
Ġw oo
Ġw ait
it ra
it ation
it ry
it tle
it ual
Ġb en
Ġb ro
Ġb ad
Ġb rahm
Ġb oard
Ġb eside
à¦¥à¦ª à¦ŀ
Ġà¦¨à¦°à¦ķ à¦ĩ
Ġà¦ĩà¦ī à¦Ĺ
Ġà¦ĩà¦ī à¦Ń
Ġà¦¹à¦Ł à¦ªà¦Ł
Ġà¦¹à¦Ł à¦¡à¦Ĺ
as a
as ic
as tin
as ty
as eno
Ġà¦ľà¦¨à¦® à¦Ńà¦°
Ġà¦¶à¦°à§İ à¦¸à¦¨
ou d
and scap
Ġà§© à§¯
Ġà¤ §
Ġà¤ ļ
Ġà¤ Ł
Ġà¤ ¯à¤¹
Ġà¦¨à¦¥ à¦Ł
à¦īà¦¤ à¦¥
à¦¬à§ľ à¦¦
à§Īà¦ĥ âĢ¦
Ġà¦īà¦ĩà¦² à¦¸
à§® à§¬
à§® à§§à§ª
à¦¡à¦¸ à¦ĵà¦¯
à¦¼à¦¿à¦Ĥ !âĢĿ
Ġm g
Ġm en
Ġm ic
Ġm il
Ġm ir
Ġm em
Ġm ount
Ġm ost
Ġm edic
Ġm ark
Ġm ood
Ġm used
Ġm ail
Ġm uch
Ġm other
Ġm oney
Ġà¦ĭà¦£ à¦¶
à§ĭâĢ¦ à¥¤âĢĻ
à§ĭâĢ¦ ?âĢĿ
Ġà¦ķà¦°à¦£ à¦ĵ
Ġà¦ķà¦°à¦£ à¦ªà¦¦
Ġà¦¥à¦°à¦¥ à¤°
à¦£à¦Ń à¦Ĺ
à¦¨à§Ł à¦¦
le ich
le ase
le arning
à¦Ĺà¦®à¦¨ à¦ķ
Ġà¦ķà¦²à¦°à¦¬ à¦ķ
Ġà¦ĩà¦¨à¦¸ à¦®à¦¨
à¦Ńà¦°à¦¤ à¦ª
Ġh ad
Ġh ast
Ġh uman
Ġh ope
Ġh yster
Ġà¦ľà¦²à¦ľ à¦ľ
re f
re k
re at
re as
re ad
re tism
Ġà¦Ŀà§ľ à¦ķ
Ġà¦Ŀà§ľ à¦ĩ
Ġa u
Ġa ches
Ġa fter
Ġf ol
Ġf un
Ġf am
Ġf ot
Ġf ru
Ġf ind
Ġf inal
Ġf ather
Ġf eat
Ġf res
Ġf ree
Ġà¦¨à¦Ĺ à¦°à¦ľ
Ġà¦ıà¦ķà¦°à¦ķà¦® à¦ĩ
à¦ħà¦ª à¦¹
Ġp ar
Ġp ic
Ġp ois
Ġp ass
Ġp ers
Ġp ath
Ġp ower
Ġp ururavas
Ġp fi
Ġp alm
à¦ĸà¦Ĺ à¦¹
à§Ģ; âĢĵ
Ġà¦ĺà¦· à¦ĺà¦·
Ġt ol
Ġt ru
Ġt ap
Ġt ake
Ġt eam
Ġt wo
Ġt radition
Ġà¦Ĩà¦ĸ à¦°à¦Ĺ
à¦Ŀà¦¨ à¦Ŀà¦¨
Ġo ver
à§¯ à§§
ĠA C
ĠA M
ĠA d
ĠA ry
ĠA sh
ĠA chà¦²
ĠA DITI
ĠA utumn
ĠA WAK
Ġà¦®à¦°à¦£ à¦®
Ġà¦®à¦°à¦£ à¦ĩ
Ġà¦®à¦°à¦£ à¦ª
Ġà¦®à¦°à¦£ à¦¶
Ġà¦®à¦°à¦£ à¦ĵ
Ġà¦®à¦°à¦£ à¦ªà¦£
Ġà¦®à¦°à¦£ à¦¯à¦ľ
Ġd o
Ġd er
Ġd ar
Ġd om
Ġd am
Ġd im
Ġd ro
Ġd ik
Ġd est
Ġd if
Ġd eg
Ġd oes
Ġd uring
Ġà¦ĸà¦¨ à¦ķà¦Ł
à¦·à¦Ń à¦®
Ġà¦ħà¦²à¦ķ à¦ª
Ġà§§ à§§à§¨
Ġà§§ à§§à§ª
Ġà¦Ĩà¦ĩà¦¡ à¦²à¦ķ
Ġà¦ľà¦¨à¦ªà¦¦ à¦¬à¦§
à¦ħà¦ªà¦° à¦ķ
à¦ħà¦ªà¦° à¦®
à¦ħà¦ªà¦° à¦£
ÂŃ à§į
à¦ªà¦Ŀ à¦¡
Ġà¦Ŀà¦Ł à¤ªà¤Ł
à§ĭ,âĢĿ âĢĵ
Ġà¦®à¦¹à§İ à¦¦
Ġà¦ļà§ľ à¦²
Ġà¦ļà§ľ à¦Ł
Ġà¦°à¦£ à¦ķà¦²
Ġà¦°à¦£ à¦¯à¦ľ
Ġà¦°à¦£ à¦ľà§Ł
ĠP ut
ĠP ururavas
ĠP otol
à¦§à¦¸ à¦ľ
om an
om et
om os
om ment
om ination
Ġà¦ķà§ľ à¦ļ
à¦Ĺà¦ł à¦¨à¦¦
à¦Ĺà¦ł à¦ķà¦¦
à¦ªà¦°à¦® à¦²à¦¤
à¦ªà¦°à¦® à¦¸à¦¤
à¦¬à¦°à¦ķ à¦£
ic s
ic y
Ġà¦¸à¦¦à¦° à¦ĺ
à¦īà¦¶à¦¨ à¦Ł
ĠS K
ĠS k
ĠS on
ĠS is
ĠS at
ĠS hak
ĠS TE
ĠS our
ĠS een
ĠS olar
ĠS aras
ĠS ummer
ĠS ocial
ĠS pecial
ĠS ync
à¦¯à¦ľà¦¨ à¦ĵ
Ġà¦²à¦¬à¦£ à¦®
Ġà¦²à¦¬à¦£ à¦Ł
Ġà¦²à¦¬à¦£ à¦ĩ
Ġà¦²à¦¬à¦£ à¦ļ
à§°à¦¹ à¦īà¦ªà¦Ĺ
ol es
Ġà¦¸à¦¯à¦¤ Åĵ
ig ital
ig gling
ra k
ra in
Ġà¦¦à¦®à¦¨ à¦¶
à¦£à¦¸ à¦ĸ
à¦£à¦¸ à¦®à¦¨
áĥ ®
ĠB r
ĠB ig
ĠB ri
ĠB elle
à¦ªà¦Ļ à¦ķ
à¦īà¦ª à¦§
à¦īà¦ª à¦¬à¦¨
Ġl at
Ġl ust
Ġl ate
Ġl ive
Ġl andscap
à¦¼âĢ¦ à¥¤
à¦®à¦¸à¦® à§°
à§ĭâĢ¦âĢĿ à¥¤
à¦ıà¦² à¦¡
Ġà¦¨à¦ĸ à¦°à¦ļ
Ġin st
Ġin vol
à§ĩ) ?
à§ĩ) âĢĵ
à¦¼?âĢĿ âĢĶ
Ġà§§à§® à§©à§ª
Ġà§§à§® à§¨à§¦
Ġà§§à§® à§Ńà§¨
Ġà§§à§® à§Ńà§¬
Ġà§§à§® à§«à§®
Ġà§§à§® à§Ńà§©
Ġà§§à§® à§¯à§¨
Ġà§« à§Ń
Ġà§« à§¦à§¦à§¦
Ġà§§à§¯à§ª à§¬
Ġà§§à§¯à§ª à§¯
Ġà¦Ĩà¦¬à¦°à¦£ à¦ķ
à§İà¦¸à¦ķ à¦ķ
ĠI nt
ĠI oT
à¦¿âĢĻ, âĢĻ
Ġn on
Ġn or
Ġn ut
Ġn od
Ġn ight
Ġn ame
Ġn eck
Ġn isi
Ġà¦²à¦Ĺ à¦ĩà¦¨
Ġà¦²à¦Ĺ à¦Ĩà¦īà¦Ł
us a
us c
à¦¶à¦¹ à¦°à¦¬
à¦¶à¦¹ à¦°à¦ľ
Ġà¥¥ /
Ġà¦«à¦¡ à¦«à¦¡
Ġà¦Ĺà¦²à¦¦ à¦Ĺà¦²
ec em
et ing
et tle
à¦¼?âĢĻ âĢĶ
Ġà¦¸à¦ĩ à¦Ĩ
Ġà¦ªà¦¤à¦¨ à¦ķ
Ġà¦ªà¦¤à¦¨ à¦¶
Ġà¦ļà¦°à¦£ à¦®
Ġà¦ķà¦²à¦ķà¦² à¦¨
Ġà¦ķà¦²à¦ķà¦² à¦§
Ġà¦¨à¦ľ à¦°à¦ķ
Ġà¦¨à¦ľ à¦°à¦ĩ
à¦Ĩà¦ĩà¦¨ à¦ľ
Ġà§ª à§©
Ġà§ª à§©à§¦
Ġà§ª à§ªà§¯
ĠM an
ĠM over
ĠM edia
ĠM obi
ĠM erci
ĠM omos
ent e
ent aur
ÂŃÂŃ ÂŃ
ut down
os h
os hi
ur es
Ġà¦¹à¦°à¦£ à¦ķ
Ġà¦īà¦ªà¦ķà¦°à¦£ à¦Ĺ
Ġà§§à§Ń à§¬à§¦
Ġà§§à§Ń à§®à§®
Ġà§§à§Ń à§ªà§¨
Ġà§§à§Ń à§¯à§Ń
Ġà§§à§Ń à§¬à§©
Ġà§§à§Ń à§¯à§©
Ġà§§à§Ń à§¦à§«
ĠR E
ĠR AM
ĠR oot
Ġà¦ĸà¦² à¦¬à¦²
à§į, à§ĩ
il a
il y
il ter
il ity
il oy
il sa
un c
un cle
ĠD I
ĠD P
ĠD i
ĠD r
ĠD ay
ĠD ru
ĠD over
ĠD evel
ĠD anie
ĠD ecem
Ġe ven
Ġe mp
Ġe pic
Ġe vil
Ġ[ *
à¦¾) ;
Ġà¦Ĺà¦Ĺà¦¨ à¦Ń
Ġà¦ļà¦²à¦¨ à¦ªà¦¥
ch ed
ch af
à¦¾!âĢĻ âĢĿ
id a
id ent
id ge
id ered
à¦īà¦ł à¦²
à¦īà¦ªà¦° à¦¨
Ġà¦¹à¦°à¦« à¦ĵ
Ġà§¬ à§§
Ġà§¬ à§Ń
Ġà§¬ à§¬
Ġà§¬ à§®
Ġà§¬ à§«à§¬
à¦ľà¦Ĺà§İ à¦¬
à¦ĩà¦ĵ à¦¸à¦¬
à¦¶à¦ªà¦¥ à¦Ł
à¦¼à¦ĥ âĢĵ
à¦ĸà¦ķà¦° à¦°
Ġà¦ľà¦¹ à¦°à¦²
Ġà¦īà¦ĩà¦¨ à¦¸
à¦¿) âĢĶ
à¦¸à¦°à¦² à¦Ń
Ġà§§à§¨ à§©à§ª
à§ģâĢ¦ âĢĻ
à§ģâĢ¦ à¥¤âĢĻ
Ġà¦Ľà§Ł à¦ľà¦¨
Ġà¦Łà¦¹à¦² à¦¦à¦²
Ġg u
Ġg in
Ġg et
Ġg ot
Ġg em
Ġg ap
Ġg ive
Ġg one
Ġg eb
Ġg ave
Ġg iggling
à¦¨à¦¬à¦¨ à¦¨
Ġà¦¦à¦°à¦¦ à¦Ńà¦°
Ġà¦ľà¦¨à¦ķ à¦¨à¦¨
Ġà§Ń à§ª
Ġà§Ń à§¬
Ġà§¨à§¦ à§¬
Ġà§¨à§¦ à§©à§¦
Ġà§¨à§¦ à§ªà§«
am i
am in
ĠT o
ĠT er
ĠT im
ĠT ik
ĠT rich
Ġà¦ķà¦¦à¦° à¦ĵ
à¤° à¦¬
à¤° à¦£
à¤° à¤ķ
Ġà¦ªà¦¬à¦¨ à¦ĵ
Ġà¦ªà¦¬à¦¨ à¦¨à¦¨
à¦¶à¦§ à¦°à¦ĩ
Ġà¦²à¦¬ à¦£à¦¬
ul ation
à¦¿!âĢĻ âĢĿ
ĠN o
ĠN ag
ĠN ature
ĠN ew
ĠN aHCO
ĠN iloy
à¦®à¦īà¦¦ à¦¦
à¦Ĩà¦Ł à¦ķà¦²
ac count
ot ten
ĠC l
ĠC on
ĠC hak
ĠC har
ĠC op
ĠC our
ĠC CT
ĠC PU
ĠC rater
ĠC entaur
im um
à¦¯à¦¸à¦¨ à¦ľ
Ġà¦ªà¦Łà¦² à¦ª
Ġà¦ªà¦Łà¦² à¦Ń
à§§à§¦ à§¦à§¦
à§§à§¦ à§«à§Ń
Ġà¦®à¦Ł à¦°à¦¸
Ġbe ings
Ġbe gin
ir es
à¦¯à¦ªà¦Ł à¦Ł
Ġà¦Ĺà¦ł à¦¨à¦ĩ
à§§à§¨ à§Ń
à¦ľà¦ĸà¦¬à¦° à¦ĵ
Ġà¦ıà¦ķà¦Ŀ à¦Łà¦ķ
Ø§ Ùģ
Ġre pl
Ġre ady
Ġre present
à¦¬à¦ªà¦¨ à¦¬
Ġà¦§à§ľ à¦§à§ľ
à¦ħà¦¹ à¦¹
ĠL et
ĠL iter
ĠL een
ĠL ove
ĠL aw
ĠL IV
ĠL ittle
à§ģ!âĢĿ à¥¤
Ġà¦®à¦¦à¦¨ à¦ĸ
Ġà¦®à¦¦à¦¨ à¦Ĺ
Ġà¦®à¦¦à¦¨ à¦¹
à¦ĵà¦ª à¦Ľà¦¨
Ġà¦«à¦°à¦® à¦Ł
à§§à§® à§¬
à§§à§® à§¦à§¦
à§§à§® à§«à§Ń
à§§à§® à§¨à§¨
à§§à§® à§Ńà§¨
à§§à§® à§©à§§
à§§à§® à§®à§®
à§§à§® à§¬à§©
à§§à§® à§Ńà§¯
à§§à§® à§¬à§¯
à§§à§® à§¯à§¯
à§§à§® à§¦à§¯
à¦Ĭ à¦¨à¦¸à¦¤
ri AI
Ġà¦¬à¦Ľ à¦°à¦ľ
Ġà¦¬à¦Ľ à¦°à¦ķà¦¯
Ġà¦¤à¦ªà¦¨ à¦¦
ation s
em per
Ġà¦®à¦°à¦¦ à¦ķ
Ġà¦®à¦°à¦¦ à¦¦
Ġà¦®à¦°à¦¦ à¦Ĺ
Ġà¦¬à§İà¦¸ à¦¦
Ġà¦¬à§İà¦¸ à¦Ĺ
Ġà¦®à¦Īà¦¨ à¦Ĩà¦®
Ġà§® à§§
Ġà§® à§¨
Ġà§® à§«
Ġà§® à§¦à§¦
Ġà§§à§¯ à§§à§Ń
Ġà§§à§¯ à§§à§¬
à§¯à§ ¦
à§¯à§ ª
à§¯à§ ¬
à§¯à§ ¯à§¯
tic les
ad a
ad ing
ad har
ad emy
à¤¤ à¤¨
à¤¤ à¤®
ru g
Ġà¦ħà¦ķà¦² à¦Ļ
Ġà¦ħà¦ĺà¦Łà¦¨ à¦ĩ
à¦Ńà¦² à¦ªà¦®
à¦Ĩà¦īà¦Ł à¦ª
Ġà¦ķà¦²à¦¹ à¦¶
à¦°à¦ľà¦¨à¦¨ à¦¶à¦ķ
Ġà¦¬à¦īà¦Ł à¦ī
ag es
od hya
à¦²à¦¥ à¦°à¦¹à¦°
à§ĭâĢĿ !
à§ĭâĢĿ ;
à¦ıà¦ķà¦¤ à¦²
ĠÐ §
ĠÐ ³
Ġà¦ªà¦ª à¦Ĩà¦ª
Ġà¦®à¦«à¦¸ à¦¸à¦²
Ġà§§à§¯à§¨ à§¦
Ġà§§à§¯à§¨ à§©
Ġà§§à§¯à§© à§ª
Ġfor mal
Ġfor ward
ĠG r
ĠG oat
Ġy ears
ĠØ ¢
ĠØ ·
ĠØ °Ø±
à¦¸à§İ à¦ļà¦°
à¦ıà¦°à¦ķà¦® à¦Ł
Ġà§§à§¯à§¦ à§§
Ġà§§à§¯à§¦ à§¦
Ġà§§à§¯à§¦ à§¨
âĢķâĢķâĢķâĢķ âĢķâĢķ
Ð° Ð»
Ð° Ð½
Ð° ÑĪ
Ġà¦Ĩà¦ªà¦¦ à¦Ĺ
à¦Ńà¦Ĺ à¦¬à¦¦
Ġwh ile
ĠH AL
ĠH eat
ĠH indu
ĠH astin
ĠH ilsa
à¦°à¦ļà¦²à¦¨ à¦Ł
Ġà§§à§¯à§¬ à§§
Ġà§§à§¯à§¬ à§¨
Ġà§§à§¯à§¬ à§©
ce ption
à¥ĩ ,
Ġà¦ĩà¦¨à¦ķ à¦¨à¦¸
Ġà¦¸à¦¨à§İ à¦¦
à¦¾à¦ĥ! âĢĶ
est s
est ly
est aCor
ĠW e
ĠW ind
ĠW HO
ĠW omen
ĠW oman
ab omination
à¸ ¡
à¸ Ĺ
ĠF ool
Ġà¦®à¦ł à¦ĺ
end e
hak i
if elong
oh i
ĠO f
ĠO n
ĠO ld
ĠO mlet
ĠO LED
Ġr is
Ġr un
Ġr est
Ġì Īľ
à¦¯à¦¦à¦² à¦Ĺ
à¦®à¦«à¦² à¦Ł
à¦īà¦Ń à§Łà¦ķ
Ġà§§à§¯à§® à§ª
ĠK am
ĠK ali
ĠK ars
ĠK PI
ĠK satri
ĠK azi
ĠK rishna
à§ĩ... âĢĻ
à§ĩ... ?âĢĿ
à§§à§« à§¯
Ġà¦¦à¦²à¦¬à¦² à¦ĵ
Ð¾ ÑĢ
Ð¾ Ð¼
Ð¾ Ð·
Ø± ÙĬ
Ġk ey
Ġk anya
Ġk ettle
Ġyou th
ĠÙ Ĥ
ĠÙ Ī
ĠÙ ģØ±
à¦¿... âĢĻ
à¦¿... âĢĻà¥¤
à¥Ģ à¥¤
Ġà¦ĩà¦¤à¦° à¦Ń
Ġà§§à§© à§«
Ġà§§à§© à§©à§¯
Ġà¦ļà¦Łà¦ķà¦² à¦Ĺ
Ġcon t
Ġcon qu
Ġcon nec
ea u
à¦Ľà¦Ľ à§ľ
à¤² à¦Ľ
ap ura
um ed
Ġv ine
à¤ķ à¦²
Ġà§©à§¦ à§©à§Ń
op ment
Ġ1 000
Ġà¦Ĩà¦ĩà¦Ľ à¦¸à¦°
Ġst r
ci ent
qu ires
à¦¬à¦ľà¦Ĺà§İ à¦ĵ
à§§à§¯ à§§à§¦
à§§à§¯ à§§à§¬
ind er
ind ing
à§©à§ª à§¨
TE R
ep ing
ep tic
Ġà¦Ŀà¦°à¦² à¦¤
Ġà§§à§ª à§¦à§¦
Ġà§§à§ª à§¨à§¦
Ġà¤¸ à¤®
Ġtruth fully
ill s
og y
og en
àª §
àª ¿
àª Ĺ
àª ĺ
Ġas s
Ġà§¨à§¨ à§®à§Ń
Ġan cient
à¦ĺà¦Łà¦ķ à¦®
à§§à§© à§§à§¬
Ġà§§à§¬ à§¯à§®
Ġà§¯à§ ©
Ġà§¯à§ ¬
Ġà§¯à§ ¯
à§¨à§¨ à§¨à§¨
Ġwas t
Ġha th
Åĵ à¦¬
ÑĢ Ð¾
ÙĦ Ø§
à§ªà§© à§¯
Ð» Ðµ
Ð½ Ð¾
Ð½ ÑĥÐ»
ÛĮ Ø¯
Ġ× Ľ
Ġ× ľ
à¦°à¦Ĺà¦² à¦Ńà¦¤
Ġà¦¨à¦¬à¦° à¦Ļ
à§¨à§¦ à§¨à§«
Ġà§¨à§¬ à§¨
our ney
Ġman kind
for ce
ma tic
per ial
Ġë Ī
Ġë ĭ
Ġë Ĵ¤
Ġë Ķ°ë
à¦²à¦§à¦¨ à¦·
à§ĢâĢ¦ à¥¤âĢĿ
IN G
Ġj ud
Ġj oy
Ġj ob
Ġj ourney
Ġáĥ ¡
Ġáĥ ŀ
Ġáĥ £áĥ
Ġun ity
Ġun known
Ġun read
à§İà¦ļ à¦®à¦ķ
Ġà¦¸à¦¬à¦°à¦ķà¦® à¦Ń
Ġà¦ľà¦¨à¦¸à¦® à¦·
ang a
ang e
ang u
Ġà§¨à§« à§¦à§¦à§¦
Ġà¤ª à¤²
ĠAI den
Ġex pl
Ġex press
ah usa
Ġor der
à¦°à¦£à§Ł à¦¨à¦ķ
à¦Ĩà¦Ń à¦°à¦£
à¦Ĩà¦¸à¦¨ à¦¸
Ġà¦ħà¦ªà¦¹à¦°à¦£ à¦ķ
Ġà§¨à§ª à§¨à§¨à§¨à§¨
Ġbea uti
Ø§Ø ³
oc al
Ð¸ Ð²
à° °
ĠV int
ĠV edic
à§± à¦¨
à¦¿/ (
à¥¤) âĢĶ
Ġà¦īà¦Ń à¦ļà¦°
à¤¦ à¤¯
Ġà§§à§¯à§Ń à§«
Ġà§§à§¯à§Ń à§¯
à§Ńà§® à§¦
ass ion
à§§à§¯à§ª à§«
à§§à§¯à§ª à§©
etec ted
ib r
ib ly
ib ility
iv es
sh utdown
à¦®à¦ľà¦¨ à¦ªà¦¦
Ġà¦ĸà¦¨à¦ķ à¦ķ
Ġà§¦ à§§à§Ń
Ġcl own
ellig ent
Ġcollec tivel
uc cess
ÙĨ Ø§Ø±
Ú© ÙĦ
à¦®à¦²à¦ķ à¦¬à§İ
à¦ļà¦®à¦ķ à¦ª
Ġà¦ĺà¦°à¦ķ à¦°à¦¨
the in
ens ch
Ġpr es
Ġpr ank
Ġpr ose
Ġpr esent
Ġpr inciple
ud his
ud itry
ÙĪ ÙĨ
ÙĪ Ø´
à® £
âĤ ģâĤĤ
ĠJ uly
Ġà¦¬à¦ľà¦° à¦Ļ
à¦¼à§ĩ) :
à¦Ŀà¦Ł à¦ªà¦Ł
à¦¦à¦¨à¦¨à¦Ĺà¦° à¦¸à¦¬
Ġà§¨à§Ń à§¬
Ġdis t
Ġdis own
Ġdis solve
-- --
ment ation
pr int
ÑĤ Ð°
Ñĥ Ñĩ
Ġim ag
Ġim port
Ġim mor
Ġim perial
Ġà¦®à¦¨à¦ª à¦¸à¦¨
ant s
Ġà§¨à§¦à§¦ à§©
Ġso ft
Ġwor k
Ġpro cl
Ġpro bab
Ġà¦Ĩà¦ĵà¦°à¦¤ à¦Ł
ph ic
Ð² Ð¾Ð½
áĢ º
Ġle g
Ġle aves
à§² à¥¤
à§² âĢĮ
à¦¨à¦ı à¦ľ
ank s
Ġac c
Ġac count
Ġac ross
TI ON
iz ed
iz arre
à´ ¿
ĠZ à¦¨à¦¤
ĠZ oom
à¦Łà¦¸à¦¨ à¦¸
Ġà¦ħà¦¹à¦¨ à¦¹à¦¨
à¦¼à¦¾?âĢĿ à¥¤
ĠâĢĮ âĢĶ
Ġbet a
Ġà¤Ĩ à¤Ĺ
Ġint egr
Ġint elligent
ace bo
ace fully
AR YABHATTA
ath y
ven eal
à« Ĥ
à« ĩ
ãģ ¨
ãģ ®
ãģ Ħ
ä¸ ĸ
à¦ķà¦ªà¦Ł à¦¤
Ġà¦§à¦¬à¦² à¦Ĺ
à§©à§© à§©
à§Ńà§¬ à§¨
ard s
Ġsu b
Ġhe althful
ret ched
Ġtr uly
ĠBea ch
ĠIntellig en
Ġà¦¦à¦¹à¦°à¦® à¦®à¦¹à¦°à¦®
Ġreal m
Ġreal ms
Ġwho le
×Ļ× Ł
åĵį éŁ¿éŁ¿éŁ¿éŁ¿éŁ¿éŁ¿éŁ¿éŁ¿éŁ¿éŁ¿éŁ¿éŁ¿éŁ¿éŁ¿éŁ¿éŁ¿éŁ¿éŁ¿éŁ¿éŁ¿éŁ¿éŁ¿éŁ¿éŁ¿
bi o
ÙĬ Ø¹
Ġra w
Ġra ther
Ġra pid
à¦¦à¦¬à¦¨ à¦¨
Ġà¦°à¦¸à¦ķà¦· à¦¶
à¦Ĩà¦« à¦Ĺ
Ġà¦łà¦¨ à§İà¦ķ
à¤Ń à¤°
ister ed
Ġbec ome
Ġbec ause
Ġapp l
à§§à§¯à§¬ à§¨
Ġres ist
Ġres idual
av a
bor n
ting u
ved a
ĠÎ ¼Îµ
ĠÕ ¾
à¦¤à§Ł à¦Ńà¦¸
à¦¼à§ĩâĢĿ âĢ¦
à¦Ńà¦£ à¦¥
à¦Ĩà¦¬à¦¹ à¦®
à¤§ à¤°
ora tive
Ġsk eptic
Ġsm all
Ġsm ell
Ġsm ok
Ġfl ick
ĠRah mat
ĠTh an
Ð°Ð ·
Ð°Ð ¹
Ð°Ð ¿
áĥĲáĥ Ĺ
aj u
lab orative
£áĥ ļ
à¯ Ģ
Ġal ready
Ġal ways
Ġen er
Ġen vironmental
Ġqu ite
Ġqu alification
à¦¦à¦®à¦ķ à¦·
à¦£à¦¸à¦¹ à¦ĩ
Ġà¦ľà¦¹à¦° à§İ
Ġà¦¯à¦¤Åĵ à¦¬
Ġch ild
Ġcr ow
Ġcur ious
ĠAr c
ĠAr ch
Ġde ep
à§§à§¯à§© à§®
ĠBeng al
ĠIs land
ĠInd ra
ĠInd igo
à§¯à§Ń à§©
ĠÐ¿ Ð¸
My ra
OO Cs
Th is
Th ou
Th ere
bo ot
ex aLink
jec t
pe acefully
ug leich
xx xx
Ðº Ð°
×¢ ×ĵ
áŀ Ħ
ĠX Z
Ġro om
Ġro ot
ĠÚ© ÙĨØ§Ø±
Ġà¦¹à¦°à¦¬ à¦ķà¦¤
à¦Ĺà¦°à¦¤ à¦°à¦Ļ
âĢ¦âĢ¦ âĢ¦
ĠâĢĶâĢĶâĢĶ âĢĵ
Ġà¦¹à¦ĩà¦ļ à¦ĩà¦¤
Ġsun bur
Ġbir yani
Ġab out
ĠAc ademy
Ġoff ice
ĠSt ates
olog y
à§§à§¯à§¨ à§ª
Ġà§§à§¨à§¦ à§¨
ĠÐ· Ð²Ð¾Ð½
Ġrel ation
Ġrel ief
Ġcons idered
Ġneigh bour
Ġà§¯à§¦ à§¦
à§įà§įà§įà§į à§įà§įà§įà§į
éŁ¿éŁ¿éŁ¿éŁ¿éŁ¿éŁ¿éŁ¿éŁ¿éŁ¿éŁ¿éŁ¿éŁ¿éŁ¿éŁ¿éŁ¿éŁ¿éŁ¿éŁ¿éŁ¿éŁ¿éŁ¿éŁ¿éŁ¿éŁ¿éŁ¿éŁ¿éŁ¿éŁ¿éŁ¿éŁ¿éŁ¿éŁ¿éŁ¿éŁ¿éŁ¿éŁ¿éŁ¿éŁ¿éŁ¿éŁ¿éŁ¿éŁ¿éŁ¿éŁ¿éŁ¿éŁ¿éŁ¿éŁ¿éŁ¿éŁ¿éŁ¿éŁ¿éŁ¿éŁ¿éŁ¿éŁ¿éŁ¿éŁ¿éŁ¿éŁ¿éŁ¿éŁ¿éŁ¿éŁ¿ éŁ¿éŁ¿éŁ¿éŁ¿éŁ¿éŁ¿éŁ¿éŁ¿éŁ¿éŁ¿éŁ¿éŁ¿éŁ¿éŁ¿éŁ¿éŁ¿
Ġorig in
æŃĵæŃĵæŃĵæŃĵæŃĵæŃĵæŃĵæŃĵæŃĵæŃĵæŃĵæŃĵæŃĵæŃĵæŃĵæŃĵæŃĵæŃĵæŃĵæŃĵæŃĵæŃĵæŃĵæŃĵæŃĵæŃĵæŃĵæŃĵæŃĵæŃĵæŃĵæŃĵ æŃĵæŃĵæŃĵæŃĵæŃĵæŃĵæŃĵæŃĵæŃĵæŃĵæŃĵæŃĵæŃĵæŃĵæŃĵæŃĵæŃĵæŃĵæŃĵæŃĵæŃĵæŃĵæŃĵæŃĵæŃĵæŃĵæŃĵæŃĵæŃĵæŃĵæŃĵæŃĵ
augh t
Ġcontinu ed
CU RE
Pr imum
br anch
co al
col laborative
min thes
pen ed
va ti
yth m
Ġz ugleich
Ġà¦¸à¦ĸà¦¨ à¦ĵ
Ġà¦¸à¦²à¦Ń à¦¡
à¦Łà¦Ĩ à¦ªà¦Ĺ
Ġà¦®à¦ķà¦° à¦§
Ġà¦²à¦ĸà¦¨ à¦ī
Ġà¦¹à¦²à¦§à¦° à¦ļà¦¨
Ġà¦ħà¦¬à§Ł à¦¬à¦ķ
Ġà¦ħà¦¬à§Ł à¦¬à¦¹
anc ing
Ġslow ly
Ġcomp assion
recy cle
Ġpo int
Ġdr ink
Ġdr ows
ĠPro veneal
rad ation
à§§à§¯à§® à§Ń
ĠBrahm an
Ġeater à¦°
ular ity
hap s
Ġrec ord
tick et
ĠØ´ Ø§Ø
Ġrh ythm
Ġclass ical
âĢķâĢķâĢķâĢķâĢķâĢķâĢķâĢķâĢķâĢķâĢķâĢķâĢķâĢķâĢķâĢķ âĢķâĢķâĢķâĢķâĢķâĢķ
Ġdisc us
Ġtim es
12 3
Bl ack
PS ULE
Pro ject
Sp ace
fic ial
pid em
ser a
vol ution
Õ¡ Õ
Õ¥ Õ
Õ¥ ÖĢ
Õ¸ ÖĤ
Ġ7 06
Ġer up
Ġed X
à¦°à¦ı à¦£
Ġà¦ķà¦ĩà¦¸ à¦£
à¦īà§İà¦ķ à¦£
Ġà¦Łà¦Ĺ à¦Łà¦Ĺ
à¦Ĩà¦²à¦¬ à§İ
Ġà¦Ĩà¦¨à¦« à¦°à¦ļ
à¦§à¦¨à¦Ń à¦ľà¦¨
Ġà¦ªà¦¦à¦¦ à¦²à¦¨
éŁ¿éŁ¿éŁ¿éŁ¿éŁ¿éŁ¿ éŁ¿åĵį
Ġchar coal
Ġbel ie
Ġà§©à§« à§¦à§¦
Ġà¤¹ à¤®
Ġmay be
Ġmod el
Ġfer mentation
Ġpain s
Ġold er
Ġdra ught
Ġdem ons
ĠSam ark
Ġlo v
ĠIN ITIA
ĠNot ai
ĠLO ST
Ġforg et
ĠWhat sApp
Ġìĭľ ë
ĠKh an
Ġking dom
ÐµÑģ ÑĤ
Ġ×¨ ×Ĵ
Ġ×¨ ×¢×ĵ
à§ģà§ģà§ģà§ģ âĢ¦âĢĿ
Ġunder estim
Ġà¤īà¤ł à¦²
Ġreflec t
Ġriver s
110 10
67 31
Al ready
Pyth o
bid den
del ved
pu thein
wor k
xim a
Ãª n
ÑĨ Ð¸
Õ« Õ
Ûģ Ùħ
à¶ »
à· Ĵ
æĹ ¥
ìĨ į
ï¼ ģâĢĿ
Ġâ Ŀ¤ï
ĠÏĥ ÏħÎ
à¦¨à¦®à¦ķ à¦¬à¦°
à¦²à¦ħ à¦¬à¦ļ
Ġà¦¨à¦Łà¦¸ à¦ľ
Ġà¦®à¦¦à¦Ł à¦¦
Ġà¦ľà¦ĵà§Ł à¦¹à¦°
à¦Ńà¦¬à¦ª à¦°à¦¤
Ġà¦īà¦®à¦® à¦®
Ġà¦Ĩà¦°à¦ıà¦¸ à¦ıà¦ıà¦¸à¦ıà¦¸
Ġà¦¢à¦¨ à§İà¦ķ
à¦®à¦°à¦Ĺ à¦°à¦²à¦ĸà¦£
à¦Ĺà¦¬à¦Ĺà¦Ł à¦Ĺà¦¬à¦Ĺà¦Ł
Ġà¦Ĺà§ľà¦ªà§ľ à¦¤
arb ar
Ġsing ularity
Ġsens e
Ġsign s
Ġche ek
Ġwal ks
Ġmons oon
Ġmarri age
Ġhigh er
Ġhap pened
Ġhoriz on
Ġposs ibly
Ġtrav ell
ĠAy odhya
Ġdre ar
Ġdyn asty
Ġdaugh ter
ĠĠĠĠĠĠ ĠĠĊĠĠĠĠĠĠĠĠĠĠĠ
ĠPo ila
Ġins ide
Ġnum bness
Ġgen eal
Ġgent le
Ġgood ly
ĠCA PSULE
ĠGos pel
ĠGang es
ĠØ¬ Ø´ÙĨ
ĠHar vest
Ġà§¯à§§ à§§à§¨
ĠFar ce
ĠìĿ ´
ĠìŀĲ ìĭ
ĠEng lish
Ġstat ue
epend ence
ogn ition
Ġë° ĺ
ĠVis vam
Ġmean ing
Ġê° Ģ
Ġsuit case
ĠÑģÐ» Ð¾Ð²
Ġappro x
Ġcross ed
Ġconscious ness
ĠSmart Hive
ĠTurk ey
Ġcontempor ary
Ġsudden ly
Athe ism
Bea uty
EBAC K
Fit r
Jup iter
NCT B
Phil ip
RAC EBACK
SY STEM
Sat urn
Sak i
SDG s
Ty p
XII I
dis own
night ed
tap ada
wink le
ãĤ ĭ
æĥ ĳ
æł ¹
Ġign or
ĠÒ¯ Ð½
ĠðĿ Ľº
à¦¤à¦Ĩ à¦Łà¦®
à¦²ä¸ Ŀà¦ªà¦Ł
Ġà¦ķà¦¹à¦ķ à¦¹
Ġà¦ķØ§Ø ¦ÙĨ
à¦¦ol at
à¦ĩà¦°à¦ĩ à¦Ľ
à¦ĩåķı ãģĦ
Ġà¦®à¦Ī à¦¨à¦ĵ
à¦ļal ela
à¦¥à¦°à¦¥ à¦°
Ġà¦ļà¦ªà¦ļ à¦ª
Ġà¦²à¦Łà¦¬ à¦¹à¦°
Ġà¦ĸà¦·à¦ĸ à¦·
à¦īà¦ĩà§Ł à¦°
Ġà¦¡à¦Ĺà¦¦ à¦°à¦¬
à¦ĩà¦¨à¦ıà¦ĩ à¦Łà¦Ł
à¦ħà¦°à¦°à¦° à¦°
inos is
thus i
Ġthir d
espear e
Ġsci ence
Ġcent ury
Ġwid ow
Ġbro ther
aseno i
Ġmir th
Ġmem ory
Ġfru its
Ġfres h
Ġpic ture
Ġpass age
Ġpers on
Ġtol ls
Ġtru e
Ġtap estry
Ġteam work
ĠAsh tapada
ĠAWAK E
Ġdim inishes
ĠShak espeare
ĠSTE AM
ĠSour asenoi
ĠSaras vati
ĠSync retism
ĠBri tish
Ġlust rous
Ġinvol ved
Ġnut riment
Ġnod ded
ĠMobi le
uncle an
ĠDru hy
ĠDevel opment
ĠDecem ber
Ġà§§à§¨à§©à§ª à§«à§¬
ĠTik Tok
ĠTrich inosis
ĠChak riAI
ĠChar acter
ĠCCT V
ĠCentaur i
Ġbegin ning
Ġrepl aced
ĠLeen a
ĠLIV GEN
emper or
ĠHAL O
ĠHastin apura
estaCor p
ĠOmlet te
ĠìĪľ ê°Ħ
ĠëĶ°ë Ŀ¼
Ġjud ges
Ġbeauti ful
ĠVint age
Ġcollectivel y
uccess ful
udhis th
Ġimmor tal
Ġprocl aim
Ġprobab ly
acebo ok
Ġflick er
Ġsunbur nt
Ġdrows y
Ġkingdom s
Ġ×¨×Ĵ ×¢
Ġunderestim ated
ĠâĿ¤ï ¸
ĠHarvest ing
ĠìŀĲìĭ łìĿĺ
ĠVisvam ah
