{"[PAD]":0,"[UNK]":1,"[CLS]":2,"[SEP]":3,"!":4,"\"":5,"#":6,"$":7,"%":8,"&":9,"'":10,"(":11,")":12,"*":13,"+":14,",":15,"-":16,".":17,"/":18,"0":19,"1":20,"2":21,"3":22,"4":23,"5":24,"6":25,"7":26,"8":27,"9":28,":":29,";":30,"<":31,"=":32,">":33,"?":34,"@":35,"A":36,"B":37,"C":38,"D":39,"E":40,"F":41,"G":42,"H":43,"I":44,"J":45,"K":46,"L":47,"M":48,"N":49,"O":50,"P":51,"Q":52,"R":53,"S":54,"T":55,"U":56,"V":57,"W":58,"X":59,"Y":60,"Z":61,"[":62,"\\":63,"]":64,"^":65,"_":66,"`":67,"a":68,"b":69,"c":70,"d":71,"e":72,"f":73,"g":74,"h":75,"i":76,"j":77,"k":78,"l":79,"m":80,"n":81,"o":82,"p":83,"q":84,"r":85,"s":86,"t":87,"u":88,"v":89,"w":90,"x":91,"y":92,"z":93,"{":94,"|":95,"}":96,"~":97,"¡":98,"¢":99,"£":100,"¤":101,"¥":102,"¦":103,"§":104,"¨":105,"©":106,"ª":107,"«":108,"¬":109,"®":110,"¯":111,"°":112,"±":113,"²":114,"³":115,"´":116,"µ":117,"¶":118,"·":119,"¸":120,"¹":121,"º":122,"»":123,"¼":124,"½":125,"¾":126,"¿":127,"À":128,"Á":129,"Â":130,"Ã":131,"Ä":132,"Å":133,"Æ":134,"Ç":135,"È":136,"É":137,"Ê":138,"Ë":139,"Ì":140,"Í":141,"Î":142,"Ï":143,"Ð":144,"Ñ":145,"Ò":146,"Ó":147,"Ô":148,"Õ":149,"Ö":150,"×":151,"Ø":152,"Ù":153,"Ú":154,"Û":155,"Ü":156,"Ý":157,"Þ":158,"ß":159,"à":160,"á":161,"â":162,"ã":163,"ä":164,"å":165,"æ":166,"ç":167,"è":168,"é":169,"ê":170,"ë":171,"ì":172,"í":173,"î":174,"ï":175,"ð":176,"ñ":177,"ò":178,"ó":179,"ô":180,"õ":181,"ö":182,"÷":183,"ø":184,"ù":185,"ú":186,"û":187,"ü":188,"ý":189,"þ":190,"ÿ":191,"Ā":192,"ā":193,"Ă":194,"ă":195,"Ą":196,"ą":197,"Ć":198,"ć":199,"Ĉ":200,"ĉ":201,"Ċ":202,"ċ":203,"Č":204,"č":205,"Ď":206,"ď":207,"Đ":208,"đ":209,"Ē":210,"ē":211,"Ĕ":212,"ĕ":213,"Ė":214,"ė":215,"Ę":216,"ę":217,"Ě":218,"ě":219,"Ĝ":220,"ĝ":221,"Ğ":222,"ğ":223,"Ġ":224,"ġ":225,"Ģ":226,"ģ":227,"Ĥ":228,"ĥ":229,"Ħ":230,"ħ":231,"Ĩ":232,"ĩ":233,"Ī":234,"ī":235,"Ĭ":236,"ĭ":237,"Į":238,"į":239,"İ":240,"ı":241,"Ĳ":242,"ĳ":243,"Ĵ":244,"ĵ":245,"Ķ":246,"ķ":247,"ĸ":248,"Ĺ":249,"ĺ":250,"Ļ":251,"ļ":252,"Ľ":253,"ľ":254,"Ŀ":255,"ŀ":256,"Ł":257,"ł":258,"Ń":259,"à¦":260,"à§":261,"Ġà¦":262,"à¦¾":263,"à§ĩ":264,"à¦°":265,"à§į":266,"à¦¿":267,"à¦¨":268,"à¦¤":269,"à¦²":270,"à¦ķ":271,"à¦¯":272,"à§ģ":273,"à¦¬":274,"à¦¼":275,"à¦®":276,"Ġà¦ķ":277,"à§ĭ":278,"Ġà¦¬":279,"à¥":280,"à¥¤":281,"Ġà¦¸":282,"Ġà¦ª":283,"à¦¸":284,"Ġà¦Ĩ":285,"à¦Ł":286,"à¦¦":287,"à¦ĩ":288,"Ġà¦¨":289,"Ġà¦®":290,"à¦Ľ":291,"Ġà¦¦":292,"à¦ª":293,"Ġà¦ı":294,"Ġà¦¤":295,"à§Ģ":296,"Ġà¦¹":297,"à¦ľ":298,"à¦¼à§ĩ":299,"âĢ":300,"à¦¶":301,"à¦ĸ":302,"à¦Ĺ":303,"à¦·":304,"Ġà¦ħ":305,"Ġà¦ķà¦°":306,"à¦¡":307,"Ġà¦¯":308,"à¦§":309,"à¦ļ":310,"Ġà¦Ĺ":311,"à¦¹":312,"à§Ł":313,"à¦£":314,"à¦¥":315,"Ġà¦¶":316,"à¦ģ":317,"Ġà¦ļ":318,"Ġà¦ľ":319,"Ġà¦Ń":320,"Ġà¦°":321,"à¦ĵ":322,"à§ĩà¥¤":323,"Ġà¦ıà¦ķ":324,"à¦Ń":325,"à¦¼à¦¾":326,"Ġà¦Ľ":327,"Ġà¦Ĩà¦®":328,"à¦Ĥ":329,"à¦ł":330,"Ġà¦¬à¦²":331,"Ġà¦ī":332,"Ġà¦Ĩà¦°":333,"à§ĥ":334,"Ġà¦¥":335,"à¦¾à¦ģ":336,"à¦Ļ":337,"Ġà¦²":338,"Ġà¦ĵ":339,"à§Ĥ":340,"âĢĶ":341,"à§ĩ,":342,"Ġà¦«":343,"Ġà¦ĸ":344,"à¦¾à¥¤":345,"Ġà¦ªà¦°":346,"Ġà¦¹à¦¯":347,"ĠâĢ":348,"Ġà¦§":349,"à¦°à¦¤":350,"Ġà¦ħà¦¨":351,"Ġà¦¸à¦®":352,"à¦¼à¦¿":353,"à¦ĸà¦¨":354,"à¦¾,":355,"Ġà¦ıà¦ķà¦Ł":356,"Ġà¦ĺ":357,"à§ľ":358,"à¦ªà¦°":359,"Ġà¦®à¦¨":360,"à¦®à¦¨":361,"Ġà¦ıà¦ĩ":362,"à¦¿à¥¤":363,"à¦«":364,"âĢĻ":365,"Ġà¦¬à¦²à¦²":366,"à¦°à¦£":367,"à¦¬à¦¨":368,"à¦Ŀ":369,"à¦ŀ":370,"âĢĿ":371,"à§İ":372,"à¦ľà¦¨":373,"à¦ı":374,"à¦ī":375,"à¦°à¦ķ":376,"Ġà¦¸à¦¬":377,"à¦ªà¦¨":378,"Ġà¦Ł":379,"Ġà¦¹à¦²":380,"à¦¬à¦°":381,"Ġà¦ķà¦¥":382,"à¦¤à¦°":383,"à¦¿,":384,"ĠâĢľ":385,"Ġà¦Ĩà¦Ľ":386,"Ġà¦Ĩà¦¸":387,"ĠâĢĺ":388,"Ġà¦īà¦ł":389,"à¦°à¦¬":390,"à§Į":391,"à¦Ĩ":392,"Ġà¦ĩ":393,"Ġà¦ıà¦¬":394,"Ġà¦¹à¦¬":395,"à¦¼à¥¤":396,"Ġà¦ªà¦¡":397,"Ġà¦ľà¦¨":398,"Ġà¦¸à¦Ļ":399,"Ġà¦Ĩà¦²":400,"Ġà¦¡":401,"Ġà¦®à¦¤":402,"à§Ī":403,"Ġà¦ķà¦°à¦¤":404,"à¦ĵà¦¯":405,"Ġà¦§à¦°":406,"Ġà¦ķà¦°à¦²":407,"âĢĵ":408,"Ġà¦ł":409,"Ġà¦ıà¦¸":410,"Ġà¦Ŀ":411,"Ġà¦ħà¦¬":412,"à¦ĺ":413,"Ġà¦®à¦§":414,"à¦°à¦®":415,"à¦·à¦£":416,"Ġà¦¬à¦¸":417,"à¦¼,":418,"Ġà¦ļà¦²":419,"à¦¨à¦¤":420,"Ġà¦Ĩà¦Ĺ":421,"Ġà¦Ĩà¦ľ":422,"à¦¬à¦²":423,"Ġà¦Ĩà¦¬":424,"à¦ķà¦°":425,"à¦ķà¦²":426,"Ġà¦¢":427,"à¦ķà¦Ł":428,"à§ģà¦ģ":429,"Ġà¦¬à¦¨":430,"Ġà¦¹à§Ł":431,"Ġà¦Ĩà¦®à¦°":432,"Ġà¦¨à¦¯":433,"à¦ĥ":434,"à¦°à¦¥":435,"Ġà¦ħà¦°":436,"Ġà¦Ĺà¦²":437,"à¦¸à¦¬":438,"Ġà¦ħà¦¸":439,"Ġà¦ıà¦ĸà¦¨":440,"à§ĭà¥¤":441,"Ġà¦Ĩà¦ªà¦¨":442,"à¦¯à¦¬":443,"Ġà¦¨à¦¤":444,"Ġà¦¤à¦¬":445,"à§ĩ?":446,"Ġà¦ķà¦°à¦Ľ":447,"à¦°à¦¸":448,"Ġà¦¤à¦ĸà¦¨":449,"à¦²à¦ķ":450,"à¦°à¦¥à¦®":451,"à¦¾à¦Ĥ":452,"Ġà¦ıà¦²":453,"à¦¨à¦ĵ":454,"Ġà¦¹à¦¤":455,"à¦¤à¦¨":456,"à§ĭà¦ģ":457,"à§ĩâĢĶ":458,"à¦ķà¦¤":459,"à§ĩà¦ģ":460,"à§ĭ,":461,"Ġà¦¬à¦°":462,"à¦Ĺà¦²":463,"ĠĊ":464,"Ġà¦īà¦łà¦²":465,"à¦¿à¦Ĥ":466,"Ġà¦¸à¦®à¦¯":467,"à¦°à¦¨":468,"à¦¾-":469,"Ġà¦¸à¦¤":470,"à¦¬à¦ª":471,"Ġà¦¶à¦¬":472,"Ġà¦¯à¦¦":473,"à¦°à¦²":474,"à¦¬à¦¤":475,"Ġà¦®à¦¹":476,"Ġà¦īà¦¦":477,"Ġà¦ķà¦°à¦¬":478,"Ġà¦ªà¦¥":479,"Ġà¦ĺà¦°":480,"à¦ħ":481,"Ġà¦Ĩà¦¨":482,"à¦Ĩà¦®":483,"Ġà¦ħà¦Ń":484,"à¦¦à¦°":485,"à¦ĩà¦²":486,"à¦ĸà¦¤":487,"Ġà¦¬à¦¡":488,"Ġà¦īà¦ª":489,"Ġà¦ħà¦¤":490,"Ġà¦¸à¦¨":491,"à¦Ĺà¦¤":492,"Ġà¦ıà¦®à¦¨":493,"à¦¤à¦¬":494,"Ġà¦ķà¦²":495,"à¦ĸà¦²":496,"Ġà¦ħà¦¦":497,"à¦®à¦¤":498,"à¦Ľà¦¨":499,"à¦¯à¦ķ":500,"Ġà¦Ĩà¦ķ":501,"Ġà¦¯à¦ĸà¦¨":502,"à¦¶à¦¨":503,"Ġà¦ľà¦²":504,"à¦²à¦¤":505,"Ġà¦°à¦ķ":506,"à¦®à¦ķ":507,"à¦°à¦¶":508,"à¦ļà¦¨":509,"Ġà¦¹à¦ļ":510,"à¦°à¦ªà¦°":511,"Ġà¦¸à¦°":512,"à¦ªà¦¦":513,"à¦¹à¦¸":514,"Ġà¦ıà¦¤":515,"Ġà¦ĵà¦ł":516,"Ġà¦Ĩà¦¶":517,"à¦°à¦¹":518,"à¦²à¦¬":519,"à¦°à¦ľ":520,"à¦¨à¦¬":521,"Ġà¦ĵà¦ªà¦°":522,"Ġà¦ħà¦ª":523,"à¦®à¦²":524,"Ġà¦¸à¦¹":525,"à¦ĵà§Ł":526,"à¦²à¦¨":527,"Ġà¦¹à¦ł":528,"à¦°à¦¦":529,"à¦¦à¦¨":530,"Ġà¦¬à¦²à¦¤":531,"à¦°à¦ĩ":532,"à¦ĩà¦¨":533,"à¦¾âĢĶ":534,"à¦°à¦¯":535,"Ġà¦¨à¦¦":536,"à¦¼à§ĭ":537,"à¦§à¦¨":538,"à¦ªà¦¤":539,"Ġà¦īà¦¤":540,"Ġà¦ħà¦§":541,"Ġà¦Ĩà¦¤":542,"Ġà¦ķà¦ĸà¦¨":543,"Ġà¦ĺà¦Ł":544,"à¦ķà¦¬":545,"à¦§à¦ķ":546,"Ġà¦ıà¦ĸ":547,"ĠĠĊ":548,"à¦ıà¦ĩ":549,"à¦¯à¦¨":550,"Ġà¦¶à¦ķ":551,"à¦¯à¦¤":552,"à¦¹à¦°":553,"à¦®à¦¯":554,"à¦Łà¦ķ":555,"à¦Ľà¦°":556,"Ġà¦ķà¦¬":557,"Ġà¦ķà¦®":558,"Ġà¦ĵà¦°":559,"Ġà¦ıà¦Ĺ":560,"à¦¹à¦²":561,"âĢ¦":562,"à¦¨à¦¨":563,"à¦¸à¦¨":564,"Ġà¦ıà¦Ł":565,"à¦°à¦ĵ":566,"à¦Ńà¦¬":567,"Ġà¦ªà§ľ":568,"à¦¾?":569,"Ġà¦ĵà¦ĩ":570,"à¦¿?":571,"Ġà¦Ĩà¦°à¦ĵ":572,"âĢľ":573,"à§ĩ-":574,"Ġà¦ķà¦¤":575,"Ġà¦¬à¦Ľà¦°":576,"Ġà¦ľà¦®":577,"à¦¿-":578,"Ġà¦¬à¦ĩ":579,"Ġà¦ķà¦£":580,"à¦®à¦°":581,"Ġà¦¦à¦°à¦ľ":582,"à¦ļà¦²":583,"à¥¤âĢĿ":584,"Ġà¦ĩà¦¤":585,"Ġà¦īà¦¨":586,"à¦®à¦£":587,"Ġà¦Ńà¦¯":588,"Ġà¦¯à¦¤":589,"à¦Ŀà¦¤":590,"à¦¨à¦ķ":591,"Ġà¦¨à§Ł":592,"à¦¤à¦²":593,"Ġà¦ħà¦ľ":594,"Ġà¦īà§İ":595,"Ġà¦¬à¦¹":596,"à¦°à¦ª":597,"Ġà¦¸à¦®à¦¸":598,"Ġà¦¸à¦ķ":599,"Ġà¦ıà¦°":600,"!âĢĿ":601,"à§Ģ,":602,"à¦ĩà¦°":603,"à¦¿âĢĶ":604,"à¦¸à¦®":605,"à¦°à¦Ł":606,"Ġà¦¶à¦¹à¦°":607,"Ġà¦ħà¦ļ":608,"à¦·à¦ķ":609,"Ġà¦īà¦ļ":610,"à¦¬à¦¦":611,"à¦·à¦¤":612,"à¦ļà¦¯":613,"Ġà¦«à¦²":614,"à¦²à¦²":615,"à¦¯à¦®":616,"Ġà¦ħà¦¥":617,"Ġà¦¬à¦²à¦Ľ":618,"Ġà¦ĩà¦¨":619,"à§İà¦ķ":620,"à¦¸à¦°":621,"à¦¤à¦ķ":622,"Ġà¦Ĺà¦°":623,"à¦¿à¦ĥ":624,"Ġà¦Ńà¦°":625,"Ġà¦Ľà¦¡":626,"à¦¦à¦²":627,"à¦ļà¦ķ":628,"Ġà¦ħà¦®":629,"à§Ģà¥¤":630,"Ġà¦ªà¦¦":631,"à¦¼à§ĩà¥¤":632,"à¦°à¦ķà¦®":633,"à¦Ĺà¦°":634,"à¦¨à¦Ł":635,"à¦¯à¦¬à¦¹":636,"à¦¤à¦¤":637,"Ġà¦¬à¦¯":638,"à§°":639,"Ġà¦Ľà¦¬":640,"à¦ıà¦ķ":641,"à¦¤à¦®":642,"Ġà¦ıà¦ķà¦ľà¦¨":643,"Ġà¦²à¦ķ":644,"Ġà¦ħà¦ªà¦°":645,"Ġà¦ıà¦ķà¦¬":646,"Ġà¦Ĺà¦Ń":647,"Ġà¦¶à¦°":648,"à¦®à¦¬":649,"à¦¿à¦ģ":650,"à¦¬à¦¸":651,"Ġà¦Ĩà¦¸à¦²":652,"à¦¦à¦¯":653,"Ġà¦Ĺà¦¨":654,"Ġà¦Ĳ":655,"à¦°à¦Ľ":656,"à§ģâĢĻ":657,"Ġà¦ħà¦ķ":658,"à¦ªà¦ķ":659,"Ġà¦ħà¦¬à¦¸":660,"Ġà¦°à¦Ļ":661,"à§ģ,":662,"Ġà¦Ĺà¦¡":663,"à¦¸à¦²":664,"à¦¯à¦¬à¦¸":665,"à¦°à¦ļ":666,"à§§":667,"à¦¶à¦ķ":668,"à¦°à¦Ń":669,"Ġà¦ıà¦ķà¦¦":670,"Ġà¦ķà¦¯":671,"à¦ĩà¦ķ":672,"Ġà¦Ĩà¦¸à¦Ľ":673,"à¦Łà¦²":674,"Ġà¦Ĩà¦§":675,"à§Łà¦¨":676,"Ġà¦®à¦°":677,"à§Įà¦ģ":678,"à¥¤âĢĻ":679,"à¦¼à§ĩ,":680,"ĠâĢĶ":681,"à¦ļà¦°":682,"à§ĩ!":683,"Ġà¦°à¦¬":684,"Ġà¦¤à¦°":685,"à§ĩà¥¤âĢĿ":686,"Ġà¦Ĩà¦ľà¦ķ":687,"Ġà¦°à¦¹à¦¸":688,"à¦¶à¦¬":689,"Ġà¦ħà¦Ĺ":690,"à¦¸à¦¤":691,"âĢĮ":692,"Ġà¦ħà¦²":693,"à¦¬à¦¬":694,"Ġà¦ħà¦¬à¦¶":695,"ĠĠ":696,"à¦¯à¦¸":697,"à¦¸à¦«":698,"à¦Ĺà¦¨":699,"à¦¬à¦ķ":700,"Ġà¦ªà¦ķ":701,"à§ģà¥¤":702,"à¦¨à¦²":703,"à§ģà¦ĥ":704,"à¦·à¦¯":705,"Ġà¦Ńà¦¬":706,"à¦¬à¦¯":707,"Ġà¦ħà¦¶":708,"Ġà¦¬à¦¦à¦²":709,"à¦¢":710,"à¦ªà¦Ł":711,"à§įâĢĮ":712,"à¦¯à¦¦":713,"à¦ľà¦°":714,"à¦ĸà¦¬":715,"Ġà¦ĩà¦ļ":716,"à¦¹à¦¨":717,"Ġà¦Ĩà¦¨à¦¨":718,"Ġà¦¬à¦²à¦¬":719,"à¦ĩà¦Ł":720,"à¦ĸà¦Ľ":721,"?âĢĻ":722,"à¦¾!":723,"?âĢĿ":724,"Ġà¦Ĩà¦ļ":725,"à¦ĩà¦¯":726,"à§ģ-":727,"à¦¸à¦Ļ":728,"Ġà¦Ĺà¦¤":729,"Ġà¦īà¦ªà¦°":730,"Ġà¦Ĩà¦¦":731,"Ġà¦ªà¦¤":732,"Ġà¦ħà¦¥à¦ļ":733,"à¦ķà¦¨":734,"à¦Ĺà¦ľ":735,"Ġà¦Ī":736,"Ġà¦ĵà¦¦":737,"à§ĩâĢĵ":738,"Ġà¦¶à¦¤":739,"à¦£à¦¤":740,"Ġà¦¸à¦ķà¦²":741,"Ġà¦Ĩà¦¡":742,"Ġà¦ĺà¦Łà¦¨":743,"Ġà¦°à¦ĩà¦²":744,"à¦Łà¦¤":745,"à¦¨à¦¦":746,"à¦ªà¦¸":747,"Ġà¦¬à¦Ł":748,"à¦ĺà¦°":749,"à¦Ŀà¦²":750,"Ġà¦ĸà¦¬à¦°":751,"à§ĩ;":752,"à¦¨à¦¸":753,"Ġà¦¹à¦ĵà¦¯":754,"à¦°à¦Ĺ":755,"à¦¸à¦ķ":756,"à¦Ļà¦²":757,"à¦ªà¦¥":758,"à¦§à¦¤":759,"Ġà¦°à¦ķà¦®":760,"à¦¬à¦¶":761,"à¦°à¦ľà¦¨":762,"Ġà¦īà¦²":763,"à¦ķà¦ķ":764,"à¦īà¦¨":765,"à§§à§":766,"Ġà¦ıà¦ĸà¦¨à¦ĵ":767,"à¦¦à§Ł":768,"à¦Łà¦°":769,"Ġà¦¸à¦®à§Ł":770,"Ġà¦ħà¦«":771,"Ġà¦Ĩà¦¸à¦¬":772,"Ġà¦¦à¦°à¦ķ":773,"à¦§à¦°":774,"Ġà¦°à¦¯":775,"à¦ıà¦¬":776,"à¦²à¦Ľ":777,"à¦ľà¦¬":778,"Ġ(":779,"Ġà¦ıà¦¨":780,"à¦ľà¦²":781,"à¦¯à¦ĩ":782,"Ġà¦ıà¦ķà¦ĩ":783,"à¦ªà¦¡":784,"à§ĭâĢĶ":785,"à¦ıà¦°":786,"Ġà¦¦à¦²":787,"à¦°à¦®à¦£":788,"Ġà¦Ĩà¦Łà¦ķ":789,"Ġà¦Ńà¦¦":790,"à¦¼à§Ģ":791,"Ġà¦Ĩà¦¯":792,"Ġà¦ıà¦¦":793,"à¦¼à§ģ":794,"à¦¨à¦Ĺ":795,"Ġà¦¤à¦²":796,"Ġà¦¸à¦¬à¦ļ":797,"à¦°à¦§":798,"à¦«à¦²":799,"à¦Łà¦¬":800,"Ġà¦ħà¦Ļ":801,"Ġà¦ķà¦ł":802,"Ġà¦ĭ":803,"Ġà¦¤à¦¥":804,"à¦ıà¦ķà¦Ł":805,"à¦°à¦¬à¦¤":806,"Ġà¦ķà¦¨":807,"Ġà¦¤à¦ĸà¦¨à¦ĩ":808,"Ġà¦¸à¦¹à¦ľ":809,"Ġà¦Ĩà¦¸à¦¤":810,"à¦°à¦¹à¦£":811,"à¦¯à¦°":812,"Ġà¦īà§İà¦¸":813,"à¦¥à¦¨":814,"à¦ĩà¦¤":815,"à¦ªà¦·":816,"Ġà¦¯à¦¥":817,"à¦ħà¦¨":818,"à¦Ĺà¦¬":819,"Ġà¦ĺà¦¨":820,"Ġà¦ľà¦¯":821,"Ġà¦Ĩà¦ª":822,"Ġà¦ľà¦°":823,"à¦Ĩà¦°":824,"à¦²à¦®":825,"à¦®à¦¸":826,"à¦¼à¦¾,":827,"âĢĶâĢľ":828,"à¦ķà¦¦":829,"à¦¼à¦¾à¥¤":830,"Ġà¦¬à¦ķ":831,"à¦¹à¦¤":832,"Ġà¦ķà¦²à¦ķ":833,"à¦¾âĢĵ":834,"Ġà¦Ľà§ľ":835,"à¦ľà¦ķ":836,"à§İà¦¸":837,"à¦Łà¦¨":838,"Ġà¦ļà¦°":839,"Ġà¦¸à¦ļ":840,"à¦·à¦®":841,"Ġà¦¤à¦¤":842,"à¦¸à¦¬à¦ĩ":843,"à¦¨à¦°":844,"à¦¾;":845,"Ġà¦Ĩà¦Ļ":846,"à¦§à¦¬":847,"à¦·à¦°":848,"Ġà¦¦à¦¶":849,"à§ĭ?":850,"Ġà¦ķà¦·":851,"Ġà¦¹à¦°":852,"Ġà¦Īà¦¶":853,"Ġà¦ħà¦¨à¦¨":854,"à¦®à¦Ł":855,"à¦¥à¦°":856,"Ġà¦¦à¦°":857,"Ġà¦ķà¦ĸà¦¨à¦ĵ":858,"Ġà¦ļà¦ķ":859,"Ġà¦Ĺà§ľ":860,"à¦¼âĢĶ":861,"Ġà¦¸à¦°à¦ķ":862,"Ġà¦ªà¦²":863,"Ġà¦ľà¦¡":864,"Ġà§§à§":865,"à¦¨à¦¯":866,"à¦ĩà¦¬":867,"Ġà¦Ĳà¦¤":868,"à¦ľà¦¸":869,"Ġà¦¬à§ľ":870,"à¦Ńà¦°":871,"à¦ķà¦¶":872,"Ġà¦Ńà§Ł":873,"Ġà¦īà¦łà¦¤":874,"à¦¹à¦¯":875,"à¦ľà¦¤":876,"à¦¾à¥¤âĢĿ":877,"à¦¿!":878,"à¦¨à¦ĩ":879,"Ġà¦Ĩà¦¹":880,"Ġà¦§à¦°à¦¨":881,"Ġà¦ľà¦¬":882,"Ġà¦¨à¦®":883,"âĢĺ":884,"à¦¼?":885,"Ġà¦ıà¦¸à¦¬":886,"Ġà¦²à¦ľ":887,"Ġà¦ªà¦°à¦¬à¦°":888,"à§Ģ-":889,"à¦ľà¦¯":890,"à¦²à¦Ł":891,"Ġà¦īà¦ľ":892,"Ġà¦¬à¦ī":893,"à¦ĩà¦Ľ":894,"à¦·à¦®à¦¤":895,"à¦¯à¦¥":896,"âĢĻà¥¤":897,"à¦¹à¦ł":898,"Ġà¦§à¦¨":899,"à¦²à¦Ĺ":900,"ĠâĢĵ":901,"Ġà¦īà¦ªà¦¸":902,"à¦¸à¦Ł":903,"à¦Ĩà¦ªà¦¨":904,"à¦ķà¦¡":905,"à¦Ĩà¦®à¦°":906,"à¦Ĺà¦®":907,"à¦Łà¦«":908,"à§ĭ-":909,"à¦ŀà¦¤":910,"à¦łà¦ķ":911,"à¦ªà¦£":912,"à¦²à¦¸":913,"Ġà¦¯à¦¨":914,"à¦¦à¦®":915,"Ġà¦¸à¦Ń":916,"Ġà¦¨à¦¬":917,"à¦¾à¦ģ,":918,"Ġà¦Ĩà¦ĵà¦¯":919,"à¦ĥà¥¤":920,"Ġà¦§à¦°à¦²":921,"à¦¶à¦²":922,"à¦®à¦¹":923,"Ġà¦īà¦¡":924,"Ġà¦īà¦łà¦Ľ":925,"Ġà§":926,"Ġà¦ħà¦¥à¦¬":927,"à¦£à¦ķ":928,"à¦²à¦¯":929,"à¦¼à¦Ĥ":930,"à¦¦à¦¸":931,"Ġà¦ĵà¦ķ":932,"à¦¬à¦ĩ":933,"à¦¼-":934,"Ġà¦¨à¦°à¦®":935,"Ġà¦®à¦ľ":936,"Ġà¦Ŀà¦°":937,"Ġà¦ıà¦Ń":938,"à§Ģ?":939,"Ġà¦ıà¦ķà¦¸à¦Ļ":940,"à¦īà¦ķ":941,"à¦®à¦§":942,"Ġà¦Ĩà¦°à¦®":943,"à§ĩà¥¤âĢĻ":944,"Ġà¦¸à¦¬à¦ĩ":945,"à¦ĩà¦Ń":946,"Ġà¦¨à¦ľà¦°":947,"Ġà¦ĵà¦Ł":948,"à¦¡à¦²":949,"Ġà¦ıà¦ķà¦®":950,"¯à§":951,"Ġà¦¦à¦ķ":952,"Ġà¦Ĺà¦£":953,"Ġà¦¨à¦¨":954,"à¦®à¦Ĺ":955,"Ġà¦Ĩà¦Ń":956,"à¦®à§Ł":957,"à¦¬à¦Ľ":958,"à¦°à§Ł":959,"à¦¾à¥¤âĢĻ":960,"à¦¯à¦¯":961,"à¦ĩà¦¡":962,"Ġà¦ªà¦°à¦®":963,"à¦¹à¦°à¦£":964,"à¦īà¦²":965,"à¦¾âĢĻ":966,"à¦¯à¦ª":967,"à¦¸à¦ª":968,"Ġà¦¬à¦¸à¦²":969,"Ġà¦¶à¦¹":970,"Ġà¦¬à§Ł":971,"Ġà¦Ĩà¦¦à¦°":972,"Ġà¦Ĩà¦ľà¦ĵ":973,"à¦ıà¦Ł":974,"Ġà¦ļà¦²à¦Ľ":975,"à¦¿âĢĵ":976,"à¦®à¦°à¦£":977,"à¦¤à¦Ł":978,"à¦ķà¦¥":979,"Ġà¦¸à¦°à¦²":980,"à¦°à¦ĸ":981,"Ġà¦ħà¦¸à¦®":982,"Ġà¦ķà¦ª":983,"Ġà¦Ĺà¦°à¦®":984,"à¦§à¦¹à¦¯":985,"à§Łà¦¤":986,"à¦ķà¦ľà¦¨":987,"Ġà¦²à¦¡":988,"Ġà¦īà§İà¦¸à¦¬":989,"à¦ķà¦°à¦£":990,"Ġà¦ªà¦¶":991,"à§ĩ?âĢĿ":992,"à¦¶à¦ª":993,"à¦¯à¦Ń":994,"à¦ļà¦¡":995,"à¦ħà¦°":996,"à¦ķà¦¸":997,"Ġà¦ļà¦®à¦ķ":998,"Ġà¦¥à¦®à¦ķ":999,"à¦Ĺà¦Ľ":1000,"à¦ıà¦¸à¦¬":1001,"Ġà¦ĺà¦£":1002,"à¦Ĩà¦ľ":1003,"à¦ķà¦Ń":1004,"à¤":1005,"Ġà¦¸à¦ŀ":1006,"âĢĻ,":1007,"à¦ľà¦®":1008,"Ġà¦Ĺà¦¬":1009,"Ġà¦ªà§ľà¦²":1010,"Ġà¦²à¦²":1011,"Ġà¦°à¦®à¦£":1012,"à¦¶à¦®":1013,"à¦°à¦°":1014,"Ġà¦®à¦¸":1015,"Ġà¦¸à¦¤à¦¤":1016,"Ġà¦²à¦®":1017,"à¦¡à¦¬":1018,"Ġà¦ªà¦ŀ":1019,"Ġà¦Ĺà¦®":1020,"à¦¨à¦Ń":1021,"Ġà¦ļà¦¨":1022,"Ġà¦ıà¦®à¦¨à¦ķ":1023,"à¦°à¦«":1024,"Ġà¦°à¦¸":1025,"Ġà¦®à¦²":1026,"Ġà¦¹à¦¸":1027,"à¦Ŀà¦ĸ":1028,"à¦¿à¥¤âĢĿ":1029,"à§ĩâĢ¦":1030,"Ġà¦®à¦£":1031,"Ġà¦ĵà¦¯":1032,"à¦¦à¦Ĺ":1033,"Ġà¦ªà¦¦à¦ķ":1034,"à§ĩ?âĢĻ":1035,"à¦¤à¦¦":1036,"à¦ķà¦Ľ":1037,"à¦ķà¦Ĺ":1038,"à¦£à¦¨":1039,"à§¦":1040,"à¦®à¦¶":1041,"à¦¸à¦Ľ":1042,"à¦ķà¦ĩ":1043,"à¦ļà¦¤":1044,"Ġà¦ļà¦¡":1045,"Ġà¦ļà¦²à¦¤":1046,"à¦¬à¦Ń":1047,"Ġà¦¸à¦®à¦¨":1048,"à¦¸à¦®à¦¯":1049,"à¦ªà¦ļ":1050,"à¦¬à¦¡":1051,"à¦°à¦¬à¦¨":1052,"à¦ļà¦Ł":1053,"à¦ıà¦ĸ":1054,"Ġà¦Ĺà¦Ļ":1055,"à¦®à¦ľ":1056,"à¦·à¦Ł":1057,",âĢĿ":1058,"à¦¤à¦¨à¦¤":1059,"à¦¤à¦ª":1060,"Ġà¦ħà¦ŀ":1061,"Ġà¦¯à¦¤à¦ĩ":1062,"Ġà¦¦à¦®":1063,"Ġà¦ªà¦Ľà¦¨":1064,"à¦²à¦®à¦²":1065,"à¦Ľà¦²":1066,"à¦®à¦¦":1067,"à¦¦à¦Ł":1068,"Ġà¦°à¦ļà¦¨":1069,"à¦£à¦¬":1070,"Ġà¦®à¦ŀ":1071,"à¦łà¦¨":1072,"à¦ľà¦Ł":1073,"Ġà¦Ńà¦Ļ":1074,"Ġà¦ļà¦²à¦²":1075,"Ġà¦ªà¦£":1076,"à¦¬à¦ļ":1077,"à¦®à¦ª":1078,"Ġà¦¸à¦ª":1079,"Ġà§§à§¯à§":1080,"Ġà¦ħà¦¤à¦ıà¦¬":1081,"Ġà¦®à¦¶":1082,"à¦¬à¦§":1083,"Ġà¦¸à¦ł":1084,"à¦¼;":1085,"à¦²à¦Ń":1086,"à§ĭ!":1087,"à¦ľà¦Ľ":1088,"Ġà¦ķà§Ł":1089,"Ġà¦ħà¦®à¦²":1090,"à¦Łà¦Ľ":1091,"à¦ľà¦¨à¦ķ":1092,"Ġ:":1093,"à¦ıà¦ĸà¦¨":1094,"Ġà¦¸à¦¬à¦ķ":1095,"à¦¥à¦²":1096,"à¦ĩà¦¸":1097,"Ġà¦īà¦łà¦¬":1098,"à¦īà¦°":1099,"à¦¬à¦¹":1100,"à¦łà¦¸":1101,"Ġà¦ļà¦Ł":1102,"à§ĩ:":1103,"à¦¿;":1104,"à¦Łà¦Ł":1105,"Ġà¦īà¦°":1106,"à¦¥à¦ķ":1107,"à¦īà¦Ł":1108,"à¦¿à¥¤âĢĻ":1109,"à¦·à¦¦":1110,"Ġà¦¹à¦¨":1111,"à¦°à¦¸à¦Ļ":1112,"à¦¤à¦Ń":1113,"Ġà¦¨à¦·":1114,"Ġà¦ĵà¦ĸ":1115,"Ġà¦ľà¦Ł":1116,"à¦¶à¦¯":1117,"à¦ĸà¦ķ":1118,"Ġà¦Ŀà¦¨":1119,"à¦¯à§İ":1120,"à¦°à¦¦à¦°":1121,"Ġà¦ªà¦¯":1122,"Ġà¦ħà¦°à¦£":1123,"Ġà¦ľà¦Ļ":1124,"à¦ªà¦®":1125,"Ġà¦ħà¦Ł":1126,"à¦°à¦Ĺà¦¤":1127,"Ġà¦¸à¦¦":1128,"âĢ¦âĢĿ":1129,"à¦Ĺà¦¡":1130,"à¦®à¦¨à¦ĩ":1131,"Ġà¦Ŀà¦²à¦®à¦²":1132,"Ġà¦¬à¦ľ":1133,"à¦®à¦ļ":1134,"Ġà¦ıà¦°à¦ķà¦®":1135,"Ġà¦Ĩà¦¨à¦¤":1136,"à¦ļà§Ł":1137,"à¦¶à¦Ł":1138,"à¦Łà¦®":1139,"Ġà¦«à¦°":1140,"à§ĩ!âĢĿ":1141,"à¦Łà¦ª":1142,"Ġà¦ķà¦¤à¦Ł":1143,"à§Ŀ":1144,"à¦²à¦ĩ":1145,"à¦¨à¦¶":1146,"Ġà¦Ľà¦¨":1147,"à¦Ľà¦¬":1148,"Ġà¦Ĩà¦ĩà¦¨":1149,"Ġà¦¬à¦ĩà¦¯":1150,"à¦®à¦¡":1151,"Ġà¦¨à¦¡":1152,"à¦¸à¦¹":1153,"à¦ªà¦²":1154,"Ġà¦®à¦¦":1155,"Ġà¦°à¦«":1156,"Ġà¦°à§Ł":1157,"à¦ĩà§Ł":1158,"à¦²à¦ļ":1159,"à¦Ńà¦¯":1160,"Ġà¦īà¦ªà¦¨":1161,"Ġà¦·":1162,"à¦Ĩà¦²":1163,"à¦¤à¦ĩ":1164,"Ġà¦Ĩà¦ĺ":1165,"à¦ĩà¦ľ":1166,"Ġà¦ľà§Ł":1167,"à¦¨à¦Ľ":1168,"Ġà¦Ĩà¦ķà¦°":1169,"à¦¿âĢĻ":1170,"Ġà¦ľà¦Ĺà¦¤":1171,"Ġà¦ıà¦¤à¦ķ":1172,"à¦ĩà¦®":1173,"à§¨":1174,"à¦ªà¦Ľ":1175,"à¦ĸà¦°":1176,"à¦¡à¦¬à¦¦":1177,"à¦¼à¦¿à¥¤":1178,"à¦¸à¦¬à¦ķ":1179,"à¦¬à¦Ł":1180,"à¦ĵà¦°":1181,"Ġà¦ıà¦ķà¦¤":1182,"Ġà¦ĩà¦¯":1183,"..":1184,"à¦°à¦¬à¦²":1185,"Ġà¦Ŀà¦¡":1186,"Ġà¦ķà¦Ł":1187,"à¦¦à¦ķ":1188,"à¦¤à¦¸":1189,"à¦¯à¦®à¦¯":1190,"âĢĶâĢĺ":1191,"à¦¨à¦¬à¦¤":1192,"à¦¥à¦®":1193,"à¦Ĩà¦Ĺ":1194,"à¦Ŀà¦°":1195,"éŁ":1196,"Ġà¦¹à¦ĵà§Ł":1197,"éŁ¿":1198,"à¦¾à¦ĥ":1199,"à¦Ľà¦¤":1200,"Ġà¦ĩà¦²":1201,"Ġà¦ħà¦¸à¦¹":1202,"à§įà¥¤":1203,"Ġà¦¨à¦ķ":1204,"Ġà¦ļà¦®":1205,"à¦®à¦ªà¦°":1206,"à¦¯à¦Ł":1207,"à¦¼à¦¿,":1208,"Ġà¦§à¦°à¦¤":1209,"éŁ¿éŁ¿":1210,"à¦ĺà¦¨":1211,"à¦ļà¦°à¦£":1212,"à¦ľà¦Ĺ":1213,"Ġà¦ĵà¦ª":1214,"Ġà¦īà¦ªà¦²à¦¬":1215,"à¦¹à¦®":1216,"à¦ĵà¦¨":1217,"Ġà¦ħà¦¨à¦²":1218,"Ġà¦ħà¦ªà¦®":1219,"Ġà¦ħà¦¦à¦®":1220,"à¦¨à§Łà¦¨":1221,"à¦ķà¦®":1222,"Ġà¦ıà¦¤à¦Ł":1223,"Ġà¦ħà¦Łà¦²":1224,"à§ĩà¦¾":1225,"Ġà¦Ĩà¦ļà¦°à¦£":1226,"à¦°à¦¬à¦°":1227,"à¦Ĺà¦£":1228,"Ġà¦ļà¦°à¦®":1229,"Ġà¦ļà¦²à¦¬":1230,"Ġà¦°à¦ŀ":1231,"Ġà¦¹à§Łà¦¤":1232,"à¦²à¦ª":1233,"à¦°à¦¹à¦°":1234,"Ġà¦¶à¦Ļ":1235,"à¦¾?âĢĻ":1236,"à¦ķà¦ļ":1237,"Ġà¦ıà¦°à¦ªà¦°":1238,"à¦·à§Ł":1239,"à¦¨à¦ª":1240,"à¦ĺà¦²":1241,"Ġà¦Ĳà¦ķ":1242,"à¦¾:":1243,"Ġà¦ĭà¦·":1244,"in":1245,"à¦¬à¦®":1246,"Ġà¦īà¦·":1247,"Ġà¦¹à¦ĩ":1248,"à¦¦à¦¬":1249,"Ġà¦¨à¦Ĺà¦°":1250,"à¦¦à¦¶":1251,"Ġà¦¬à¦¸à¦¤":1252,"à¦¼âĢĵ":1253,"Ġà¦ļà¦¤":1254,"à§ĭà¥¤âĢĿ":1255,"Ġà¦ķà¦«":1256,"Ġà¦Łà¦°":1257,"à¦¨à¦ļ":1258,"à¦¯à¦ķà¦°":1259,"à¦¬à¦ľà¦¨":1260,"Ġà¦¤à¦ĸà¦¨à¦ĵ":1261,"Ġà¦Ńà¦ķ":1262,"à¦ªà¦¯":1263,"Ġà¦ıà¦¡":1264,"à¦Łà¦¸":1265,"à¦®à¦Ľ":1266,"Ġà¦¸à¦ľ":1267,"à¦¼à¦¾-":1268,"Ġà¦ĩà¦¸":1269,"à¦°à¦ķà¦²":1270,"Ġà¦Ĩà¦²à¦®":1271,"à¦Łà¦«à¦°":1272,"th":1273,"à¦ĩà¦¦":1274,"Ġà¦¸à§İ":1275,"à¦¯à¦¤à¦®":1276,"Ġà¦ħà¦ľà¦¸":1277,"à¦ĩà¦ª":1278,"Ġà¦®à¦¯":1279,"Ġà¦ĸà¦°à¦ļ":1280,"Ġà¦®à¦¡":1281,"à§Łà¦Ĺ":1282,"Ġà¦¸à¦¤à¦°":1283,"à¦¾âĢĿ":1284,"Ġà¦¸à¦®à¦°":1285,"an":1286,"Ġà¦ªà¦¨":1287,"à¦¦à¦¤":1288,"Ġà¦ļà¦¶à¦®":1289,"à¦¨à¦®":1290,"à¦²à§Ł":1291,"à¦°à¦¥à¦®à¦¬":1292,"à¦¶à¦¤":1293,"à¦¶à¦Ĺ":1294,"Ġà¦®à¦¤à¦¨":1295,"à¦¯à¦ĵ":1296,"Ġà¦¸à¦¹à¦®à¦°":1297,"à¦¥à¦¬":1298,"à¦¼!":1299,"Ġà¦ħà¦®à¦¨":1300,"à¦ħà¦¤":1301,"Ġà¦Ĩà¦«":1302,"à¦²à¦ľ":1303,"à§Ģ!":1304,"à¦¬à¦²à¦¤":1305,"Ġà¦ħà¦¹":1306,"à¦ľà¦Ĺà¦¤":1307,"Ġà¦ĸà¦¸":1308,"à¦īà¦¦":1309,"Ġà¦ħà¦¬à¦§":1310,"à¦®à¦®":1311,"Ġà¦ªà¦Ł":1312,"Ġà¦ĩà¦Ļ":1313,"Ġà¦ķà¦¡":1314,"à¦Ŀà¦¬":1315,"Ġà¦¬à¦¸à¦¬":1316,"à¦¶à¦°":1317,"à¦ķà¦ª":1318,"à§«":1319,"à§ĢâĢĶ":1320,"Ġà¦®à¦Ļ":1321,"à¦«à¦°":1322,"à¦¿?âĢĿ":1323,"Ġà¦ľà¦Ĺ":1324,"à§ĩâĢĶâĢľ":1325,"er":1326,"à¦ıà¦®à¦¨":1327,"Ġà¦ĺà¦¡":1328,"à¦ľà¦¨à¦¶":1329,"à¦ıà¦Ń":1330,"à¦¬à¦²à¦ľ":1331,"à¦¬à¦°à¦£":1332,"Ġà¦¯à¦ľ":1333,"Ġà¦ıà¦ķà¦¸":1334,"à¦Ńà¦Ļ":1335,"Ġà¦ıà¦¤à¦¦":1336,"à§Łà¦®":1337,"à¦¬à¦£":1338,"Ġà¦Ĺà¦¦":1339,"à¦¥à¦¤":1340,"à¦°à¦®à¦¶":1341,"à¦¸à¦Ń":1342,"à¦ľà¦ª":1343,"Ġà¦ªà¦°à¦¶":1344,"Ġà¦Ĩà§Ł":1345,"Ġà¦Ĩà¦¬à¦¦":1346,"Ġà¦Ĩà¦ĵà§Ł":1347,"à¦ĸà¦Ł":1348,"Ġà¦²à¦¤":1349,"Ġà¦¸à¦¹à¦¯":1350,"à¦¨à¦ľà¦¨":1351,"à¦®à¦ĩ":1352,"Ġà¦«à¦Ł":1353,"à§ĩâĢĻ":1354,"Ġà¦¬à¦ĩà§Ł":1355,"Ġà¦ªà¦°à¦¸":1356,"Ġà¦īà§İà¦ª":1357,"Ġà¦īà¦ªà¦ķ":1358,"à¦¤à¦ĸà¦¨":1359,"Ġà¦ķà¦ļ":1360,"Ġà¦®à¦¨à¦¸":1361,"à¦īà¦¯":1362,"à¦°à¦ļà¦£":1363,"Ġà¦ķà¦ķ":1364,"Ġà¦Ĺà¦¹":1365,"à¦¾!âĢĿ":1366,"Ġà¦¬à¦Ļ":1367,"Ġà¦Ĩà¦¤à¦Ļ":1368,"à¦ªà§ľ":1369,"à¦ķà§ľ":1370,"à¦īà¦ľ":1371,"à¦²à¦«":1372,"à¦¬à¦°à¦¤":1373,"à¦ľà¦¦":1374,"Ġà¦®à¦¨à¦Ł":1375,"Ġà¦ķà¦²à¦®":1376,"Ġà¦ļà¦®à§İà¦ķ":1377,"Ġà¦¨à¦ĩà¦²":1378,"à¦Ńà¦ķ":1379,"Ġà¦²à§ľ":1380,"à¦¸à¦¸":1381,"Ġà¦Ĩà¦ªà¦¤":1382,"à¦¬à¦¨à¦ķ":1383,"à¦¯à¦ľ":1384,"à¦Łà¦¦":1385,"Ġà¦¯à¦¤à¦Ł":1386,"à¦¸à¦¦":1387,"à¦°à¦Ļ":1388,"à¦¶à¦¦":1389,"Ġà¦¬à¦¸à¦¨":1390,"à¦¤à¦ľ":1391,"à¦¿?âĢĻ":1392,"à§ĭ?âĢĿ":1393,"Ġà¦Ĩà§ľ":1394,"à¦Łà¦Ĺ":1395,"Ġà¦ķà¦®à¦²":1396,"à¦²à¦¦":1397,"à¦¬à¦²à¦Ľ":1398,"Ġà¦Ĺà¦ľ":1399,"Ġà¦Ńà¦°à¦¸":1400,"à¦Ĩà¦ľà¦ķ":1401,"Ġà¦¦à¦¤":1402,"Ġà¦ıà¦ķà¦ĸ":1403,"à¦¼à¥¤âĢĿ":1404,"Ġà¦®à¦®à¦¤":1405,"à¦«à¦Ł":1406,"à¦īà¦¸":1407,"Ġà§¨":1408,"Ġà¦Ĩà¦ĩ":1409,"à¦Ľà¦Ł":1410,"à¦¬à¦¨à¦¯":1411,"Ġà¦¬à¦Łà¦Ĺ":1412,"Ġà¦ħà¦¬à¦¦":1413,"Ġà¦Ĩà¦¨à¦²":1414,"Ġà¦¤à¦ªà¦¸":1415,"Ġà¦īà¦ªà¦¹":1416,"Ġà¦Ĭ":1417,"Ġà¦Ĩà¦®à¦¨":1418,"Ġà¦ıà¦ĩà¦¸à¦¬":1419,"Ġà¦ĩà¦ŀ":1420,"à¦ıà¦¸à¦¬à¦ĩ":1421,"à¦¬à¦ľ":1422,"Ġà¦Ĩà¦¬à¦°":1423,"à¦ªà¦Ĺ":1424,"Ġà¦¨à¦ĩ":1425,"Ġà¦®à¦¨à¦¨":1426,"al":1427,"Ġà¦Ńà¦Ĺ":1428,"à¦ªà¦¬":1429,"à¦ļà¦¬":1430,"à§©":1431,"à¦ľà§Ł":1432,"Ġà¦¬à¦¹à¦¨":1433,"Ġà¦ĭà¦¦":1434,"Ġà¦Ķ":1435,"à¦¤à¦Ĺ":1436,"à§ĩ,âĢĿ":1437,"Ġà¦ĩà¦¶":1438,"à¦ıà¦ķà¦¦":1439,"à¦Ī":1440,"Ġà¦Ĩà¦Ł":1441,"à¦¯à¦Ĺ":1442,"Ġà¦«à¦¸à¦²":1443,"Ġà¦ĩà¦Ł":1444,"Ġà¦Ĩà¦°à¦ľ":1445,"à¦ħà¦¬à¦¶":1446,"à¦ķà¦£":1447,"Ġà¦ªà¦Ļ":1448,"Ġà¦¨à¦ķà¦¶":1449,"à¦ıà¦¸":1450,"à¦Ĺà¦Ł":1451,"Ġà¦ĵà¦·":1452,"Ġà¦¤à¦°à¦Ļ":1453,"Ġà¦¨à¦°":1454,"Ġà¦ıà¦ķà¦ķ":1455,"à¦īà¦ĩ":1456,"Ġà¦ľà¦¨à¦¨":1457,"Ġà¦īà¦ªà¦Ń":1458,"Ġà¦°à¦¥":1459,"à¦Ľà¦ª":1460,"à¦ĺà¦Łà¦¨":1461,"à¦Ńà¦¨":1462,"Ġà¦¤à¦¨":1463,"à¦¸à¦°à¦£":1464,"Ġà¦ªà¦°à¦¦":1465,"Ġà¦¬à¦¦":1466,"à¦¾âĢ¦":1467,"à¦Łà¦ĸ":1468,"Ġà¦ķà¦¦":1469,"Ġà¦Ńà¦Ĺà¦¬":1470,"à¦Ńà¦¬à¦¤":1471,"Ġà¦¸à¦®à¦Ĺ":1472,"Ġà¦īà¦²à¦Ł":1473,"en":1474,"on":1475,"à§ģâĢĶ":1476,"Ġà¦°à¦®":1477,"Ġà¦ĩà¦¸à¦²":1478,"Ġà¦Ŀà¦Ĺà¦¡":1479,"Ġà¦Ńà¦¬à¦¨":1480,"à¦ĵà¦ĩ":1481,"à§İà¦ĩ":1482,"à¦ıà¦¤":1483,"Ġà¦ĩà¦īà¦¨":1484,"à¦°à¦¥à¦®à¦¤":1485,"à¦°à¦·":1486,"Ġà¦ıà¦ķà¦¦à¦®":1487,"à§Ń":1488,"à¦Ĺà¦¦":1489,"à¦¯à¦¶":1490,"Ġà¦¶à¦ªà¦¥":1491,"à¦¸à¦®à§Ł":1492,"à¦¿âĢ¦":1493,"à¦¯à§Ł":1494,"Ġà¦ªà¦²à¦ķ":1495,"Ġà¦¦à¦¯":1496,"Ġà¦¦à¦ĸà¦²":1497,"à¦¡à¦¨":1498,"Ġà¦īà§ľ":1499,"Ġà¦ħà¦¬à¦¹":1500,"à¦¯à¦°à¦ķà¦®":1501,"Ġà¦¬à¦¶":1502,"Ġà¦¬à¦ŀ":1503,"à¦¡à¦°":1504,"Ġà¦Ĩà¦¸à¦¨":1505,"Ġà¦¬à§Łà¦¸":1506,"à¦¾à¦ģà¥¤":1507,"Ġà¦¢à¦²":1508,"Ġà¦ıà¦®à¦¨à¦ĩ":1509,"à¦¿âĢĿ":1510,"à¦ķà¦¶à¦¨":1511,"à¦¦à¦¦":1512,"Ġà¦¤à¦ķ":1513,"à¦§à¦®":1514,"Ġà¦¸à¦«à¦²":1515,"Ġà¦ıà¦ķà¦¶":1516,"à¦¿!âĢĿ":1517,"à¦ļà¦®":1518,"à¦ļà§ľ":1519,"à¦ĵà¦¡":1520,"Ġà¦Ĩà¦°à¦¬":1521,"à¦°à¦¤à¦¬à¦°":1522,"à¦Ĩà¦ķ":1523,"Ġà¦Ŀà¦²à¦ķ":1524,"à§ģ?":1525,"à¦·à¦¸":1526,"à§ª":1527,"à¦¿.":1528,"Ġà¦Ĩà¦ļà¦®à¦ķ":1529,"à¦¬à§Ł":1530,"âĢĻ-":1531,"Ġà¦ħà¦¬à¦ķ":1532,"Ġà¦¦à¦¡":1533,"à¦·à¦¬":1534,"à¦ĺà¦®":1535,"Ġà¦ĺà¦°à¦Ł":1536,"Ġà¦īà¦ªà¦¦":1537,"Ġà¦ľà¦²à¦¬":1538,"Ġà¦Ńà¦°à¦¤":1539,"Ġà¦®à¦¨à¦ķ":1540,"à¦īà¦¡":1541,"Ġà¦¸à¦°à¦¸":1542,"Ġà¦ıà¦ķà¦ª":1543,"Ġà¦ıà¦ĩà¦Ł":1544,"Ġà¦¸à¦¹à¦¸":1545,"à¦¸à¦°à¦ķ":1546,"à¦¾?âĢĿ":1547,"à¦¸à¦²à¦®":1548,"Ġà¦ĭà¦¤":1549,"!âĢĻ":1550,"Ġà¦Ĩà¦ľà¦ĩ":1551,"à§İà¦ª":1552,"Ġà¦Ĩà¦¬à¦¹":1553,"à¦¯à¦¬à¦¤":1554,"Ġà¦īà¦ªà¦¯":1555,"Ġà¦ħà¦¤à¦²":1556,"à¦ĸà¦¸":1557,"Ġà¦ıà¦ĩà¦Ń":1558,"à¦Ľà¦Ĺ":1559,"Ġà¦Ŀà¦ķ":1560,"à¦®à¦ĵ":1561,"à¦Ĺà¦¸":1562,"à¦Ĺà¦Ń":1563,"à¦ıà¦Ĺ":1564,"Ġà¦ĩà¦®":1565,"Ġà¦ıà¦ĸà¦¨à¦ĩ":1566,"Ġth":1567,"Ġà¦¯à¦¯":1568,"Ġà¦ļà¦ķà¦ļà¦ķ":1569,"à¦¹à¦ķ":1570,"Ġà¦¶à¦«":1571,"à¦Ĩà¦ļ":1572,"es":1573,"à¦ĩà¦ľà¦¨":1574,"Ġà¦ľà§ľ":1575,"à¦ĸà¦£":1576,"Ġà¦§à¦®à¦ķ":1577,"ti":1578,"Ġà¦¹à¦¤à¦Ń":1579,"à§İà¦ªà¦°":1580,"Ġà¦ıà¦¤à¦ĩ":1581,"à¦¨à¦¹":1582,"Ġà¦¨à¦¹":1583,"Ġà¦īà¦ķ":1584,"Ġà¦¯à¦®":1585,"à¦Ĩà¦ª":1586,"Ġà¦¤à¦¤à¦ķ":1587,"Ġà¦ĺà¦Łà¦²":1588,"à¦¿:":1589,"âĢį":1590,"à§Łà¦ķ":1591,"à¦Ŀà¦ķ":1592,"à¦¾,âĢĿ":1593,"à§ĭ;":1594,"à¦¼à§ĩ-":1595,"âĢĿà¥¤":1596,"à¦īà§Ł":1597,"Ġà¦¬à¦ĩà¦Ł":1598,"Ġà¦¹à¦ķ":1599,"or":1600,"à¦ķà¦ł":1601,"à¦°à¦¤à¦¤":1602,"à¦ªà¦ľ":1603,"Ġà¦Ĩà¦¨à¦¬":1604,"à¦ķà¦ĵ":1605,"Ġà¦ĸà¦£":1606,"à¦Ĺà¦°à¦£":1607,"éŁ¿éŁ¿éŁ¿éŁ¿":1608,"ar":1609,"Ġà¦ıà¦ķà¦²":1610,"Ġà¦Ĩà¦®à¦²":1611,"à¦°à¦¤à¦°":1612,"à¦ĭ":1613,"Ġà¦¸à¦ĸ":1614,"Ġà¦¤à¦¦":1615,"à¦¶à¦¹à¦°":1616,"à¦¡à¦ķ":1617,"Ġà¦Ĺà¦łà¦¨":1618,"à¦¯à¦ĸà¦¨":1619,"à¦ĩà¦ļ":1620,"Ġà¦°à¦ľ":1621,"Ġà¦Ĩà¦¶à¦Ļ":1622,"Ġà¦¨à¦Ł":1623,"Ġà¦ªà§ľà¦Ľ":1624,"Ġà¦ķà¦ĩ":1625,"à¦£à¦¦":1626,"Ġà¦¶à¦¨":1627,"Ġà¦°à¦ĵà¦¨":1628,"Ġà¦Ľà¦¯":1629,"à¦ıà¦ķà¦ľà¦¨":1630,"à¦¦à¦ª":1631,"à§ģ!":1632,"Ġs":1633,"à§¬":1634,"à¦²à¦°":1635,"à¦£à¦Ĺ":1636,"à¦Ĩà¦¶":1637,"Ġà¦ªà§ľà¦¤":1638,"Ġà¦¦à¦¶à¦Ł":1639,"à¦¯à¦¹":1640,"à¦¸à¦ĩ":1641,"à¦Ĺà¦Ĺ":1642,"à¦Ĩà¦§":1643,"à¦ķà¦ľà¦¬":1644,"Ġà¦Ĩà¦²à¦¤":1645,"à¦ĺà¦¶":1646,"à§ģà¦Ĥ":1647,"Ġà¦¬à¦§":1648,"Ġà¦°à¦¤à¦¨":1649,"...":1650,"à¦¬à¦Ĺ":1651,"Ġà¦ªà¦¬":1652,"Ġà¦®à¦Ĺ":1653,"à¦«à¦¸":1654,"Ġà¦¹à§Łà¦¨":1655,"à¦¤à¦¬à¦¤":1656,"à¦·à¦ĩ":1657,"Ġà¦ıà¦ĩà¦°à¦ķà¦®":1658,"Ġà¦ħà¦¬à¦¤":1659,"à¦ħà¦¸":1660,"Ġà¦Ŀà¦°à¦¨":1661,"à¦¬à¦²à¦¨":1662,"à¦ªà¦ĩ":1663,"à¦¯à¦®à§Ł":1664,"Ġà¦Ĭà¦°":1665,"Ġà¦¥à¦®":1666,"à¦¨à¦ĵà¦¦":1667,"à¦¨à¦¬à¦ľ":1668,"Ġà¦¦à¦£":1669,"Ġà¦ıà¦®":1670,"à¦ľà¦ĩ":1671,"Ġà¦ħà¦¯":1672,"à¦Ĩà¦¬":1673,"Ġà¦īà¦Ńà¦¯":1674,"Ġà¦Ĩà¦¸à¦°":1675,"Ġà¦ªà¦¥à¦ļà¦²":1676,"à§ĭâĢĻ":1677,"à¦ľà¦ķà¦°":1678,"Ġà¦ıà¦ķà¦¸à¦®à¦¯":1679,"à¦¿à¦Ĥ,":1680,"à¦Ĳ":1681,"à¦¤à¦ĵ":1682,"à¦ĩà¦¶":1683,"à¦Ńà§Ł":1684,"à¦¸à¦ĵ":1685,"Ġà¦ħà¦®à¦°":1686,"Ġà¦¬à¦°à¦«":1687,"à¦īà¦®":1688,"Ġà¦¬à¦īà¦¦":1689,"is":1690,"à¦¼à§į":1691,"Ġà¦¸à¦¬à¦¸à¦®à¦¯":1692,"à¦¬à¦Ľà¦°":1693,"Ġà¦¸à¦¸":1694,"Ġà¦¶à¦¤à¦ķ":1695,"Ġà¦Ŀà¦ķà¦Ŀà¦ķ":1696,"à¦ĩà¦«":1697,"à¦·à¦ª":1698,"Ġà¦¶à¦¸":1699,"Ġà¦ļà¦ŀ":1700,"Ġà¦§à¦°à¦¬":1701,"à¦¿à¦Ĥ-":1702,"à¦ķà¦¸à¦ĩ":1703,"à¦¤à¦Ľ":1704,"à¦¶à¦¸":1705,"à¦ĵà¦²":1706,"Ġà¦ľà¦¨à¦¸":1707,"à¦ĺà¦¦":1708,"à¦Łà¦«à¦Ł":1709,"Ġà¦ĵà¦Ĺ":1710,"à§¦à§¦":1711,"à¦¤à¦¹":1712,"à¦¼à¦¾âĢĶ":1713,"Ġà¦Ĩà¦¬à¦Ľ":1714,"Ġà¦ıà¦ķà¦°":1715,"Ġà¦Ĩà¦°à¦£":1716,"à§İà¦¸à¦¬":1717,"à¦¦à¦Ľ":1718,"Ġà¦ħà¦ļà¦²":1719,"à¦ħà¦²":1720,"Ġà¦¤à¦°à¦«":1721,"Ġà¦ľà¦Ĺà§İ":1722,"à¦²à¦¬à¦¨":1723,"à¦¶à¦ĩ":1724,"Ġà¦¸à¦®à¦¬":1725,"à§İà¦¸à¦°":1726,"à¦®à¦Ń":1727,"à¦ªà¦¶":1728,"Ġà¦°à¦ļ":1729,"à¦«à¦²à¦¨":1730,"Ġà¦Ĩà¦ķà¦¸":1731,"Ġà¦ķà¦¬à¦°":1732,"à¦ļà¦Ľ":1733,"à¦¼à¦¿-":1734,"Ġà¦¶à¦¯":1735,"à¦īà¦¬":1736,"à¦¾à¦ĥà¥¤":1737,"à¦¨à¦ľ":1738,"Ġà¦¦à¦¸":1739,"à¦ľà¦Ļ":1740,"Ġà¦¬à¦¨à¦¬":1741,"à§ĭ?âĢĻ":1742,"Ġà¦®à§İà¦¸":1743,"Ġà¦īà¦¦à¦¯":1744,"âĢįà§į":1745,"à¦¬à¦ĵ":1746,"Ġà¦Ĳà¦¶":1747,"à§ĢâĢĻ":1748,"Ġà¦Ľà¦Łà¦«à¦Ł":1749,"à¦²à¦ĵ":1750,"à¦Ĺà¦ĩ":1751,"à¦¿,âĢĿ":1752,"Ġà¦¡à¦ķ":1753,"à¦¦à¦ĩ":1754,"à¦§à¦¨à¦ķ":1755,"à¦¬à¦¤à¦¨":1756,"Ġà¦¥à¦®à¦¥à¦®":1757,"Ġà¦ªà¦¹":1758,"à§Ģà¦Ĥ":1759,"Ġà¦¹à¦ĵ":1760,"à¦¼à§ĩâĢĶ":1761,"Ġà¦°à¦¨":1762,"Ġà¦Ĩà¦¶à¦ª":1763,"Ġà¦ıà¦ķà¦¥":1764,"à¦Ļà¦¤":1765,"à¦Ĩà¦ĩ":1766,"Ġà¦ķà¦¤à¦ķ":1767,"ed":1768,"à¦ľà¦ĵ":1769,"à§Łà¦¬":1770,"à¦Ńà¦¸":1771,"Ġà¦Ĩà¦°à¦¤":1772,"âĢĿâĢĶ":1773,"Ġà¦¤à¦¤à¦ĩ":1774,"Ġà¦ħà¦¬à¦°":1775,"à¦łà¦¤":1776,"à¦Ĩà¦¸":1777,"Ġà¦ıà¦¯":1778,"âĢĿ-":1779,"Ġthe":1780,"à¦ªà¦ķà¦²":1781,"Ġà¦¤à§İà¦ķ":1782,"à¦Ĩà¦¹":1783,"Ġà¦®à¦¹à¦°":1784,"Ġà¦¹à¦¤à¦Ńà¦®":1785,"Ġà¦°à¦¤":1786,"Ġà¦ĵà§Ł":1787,"Ġà¦Ŀà¦²à¦¸":1788,"Ġà¦Ĩà¦Ĺà¦®à¦¨":1789,"à¦ķà¦«":1790,"Ġà¦¸à¦«":1791,"Ġà¦ħà¦¬à¦¨":1792,"à¦ļà¦¸":1793,"à¦£à¦®":1794,"à¦ĵà¦¤":1795,"ĠĠĊĠĠ":1796,"à¦ªà¦ķà¦¥à¦¨":1797,"at":1798,"Ńà§§":1799,"à¦·à¦Ĺ":1800,"à¦°à¦£à¦¯":1801,"à¦¤à¦°à¦Ļ":1802,"à¦¼à¥¤âĢĻ":1803,"Ġà¦ħà¦¬à¦²à¦®":1804,"à¦ªà¦ķà¦¥":1805,"à§ĭâĢĵ":1806,"Ġà¦®à¦¥":1807,"à¦Ĺà¦łà¦¨":1808,"Ġà¦Ľà¦¦":1809,"à¦¤à¦°à¦Ł":1810,"Ġà¦¯à¦¤à¦ķ":1811,"à¦¸à¦ķà¦²":1812,"à¦¦à¦£":1813,"à¦Ĺà¦ŀ":1814,"Ġà¦Ĺà¦¤à¦ķ":1815,"Ġà¦ĩà¦¹":1816,"à§·":1817,"à¦¤à¦°à¦£":1818,"Ġà¦¸à¦¦à¦¸":1819,"Ġà¦Ĩà¦ł":1820,"Ġà¦ıà¦ķà¦Ĺ":1821,"à§ľà¦¤":1822,"Ġc":1823,"à¦£à¦¬à¦¨":1824,"Ġà¦ıà¦®à¦¨à¦Ń":1825,"à¦¬à§İ":1826,"à§ĭ!âĢĿ":1827,"Ġà¦Ĩà§Łà¦¨":1828,"Ġà¦¦à¦¶à¦ķ":1829,"Ġà¦īà¦Ĺ":1830,"à¦®à¦¨à¦¸":1831,"Ġà¦ĺà¦Łà¦¬":1832,"à¦°à¦ļà¦²":1833,"Ġà¦ķà¦¤à¦¦":1834,"à§ĢâĢĵ":1835,"à¦ľà¦§":1836,"âĢĻâĢĶ":1837,"Ġà¦Ĩà¦Ľà¦¡":1838,"à¦°à¦¸à¦¨":1839,"Ġà¦Ĩà¦¹à¦¤":1840,"Ġà¦¯à¦¤à¦¦":1841,"Ġà¦Ľà¦Ł":1842,"el":1843,"Ġw":1844,"à¦Łà¦ĩ":1845,"à§Łà¦¸":1846,"Ġà¦ĵà¦¸à¦¬":1847,"Ġà¦ĩà¦ľ":1848,"à¦¯à¦¬à¦¦":1849,"),":1850,"it":1851,"à¦¤à¦¶":1852,"à¦²à¦ĸ":1853,"Ġà¦¬à¦ªà¦¨":1854,"Ġà¦¨à§ľ":1855,"à¦Ĺà¦ķ":1856,"Ġà¦Ĩà¦¶à¦«":1857,"à¦¯à¦Ļ":1858,"Ġà¦ıà¦°à¦ĩ":1859,"Ġà¦ĸà¦¡":1860,",âĢĻ":1861,"Ġb":1862,"à¦¯à¦ŀ":1863,"Ġà¦¦à¦ĩ":1864,"Ġà¦ıà¦Ľ":1865,"à¦¥à¦ª":1866,"Ġà¦ĵà¦¸":1867,"Ġà¦¨à¦°à¦ķ":1868,"Ġà¦ĩà¦ī":1869,"Ġà¦łà¦ķ":1870,"Ġà¦¹à¦Ł":1871,"à¦Ĺà¦ª":1872,"à¦īà¦ªà¦¸":1873,"Ġà¦Ĩà¦«à¦¸":1874,"Ġà¦¬à¦°à¦£":1875,"à¦°à¦¸à¦°":1876,"Ġà¦ªà¦¦à¦ļ":1877,"à¦ħà¦¤à¦ıà¦¬":1878,"à¦ļà¦¶":1879,"Ġà¦¸à¦®à¦¤":1880,"à¦Ĩà¦¨":1881,"à§ĭà¥¤âĢĻ":1882,")à¥¤":1883,"as":1884,"à¦·à¦°à¦Ĺ":1885,"Ġà¦°à¦¶":1886,"Ġà¦ľà¦¨à¦®":1887,"Ġà¦¶à¦°à§İ":1888,"ou":1889,"Ġà¦¬à¦¨à¦®":1890,"Ġà¦¤à¦°à¦«à¦¦":1891,"Ġà¦¨à¦®à¦¸":1892,"à¦°à¦£à¦¤":1893,"à¦°à¦ªà¦°à¦ĵ":1894,"à¦¹à¦°à¦£à¦¸":1895,"à¦ķà¦ĸà¦¨":1896,"à¦ĸà¦ĸ":1897,"à¦¬à¦¨à¦Ł":1898,"Ġà¦Īà¦¦":1899,"Ġà§§à§¯à§Ńà§§":1900,"and":1901,"à¦ķà¦ĸ":1902,"à¦¡à¦¬à¦°":1903,"Ġà¦¸à¦¬à¦Ł":1904,"Ġà¦ķà¦¤à¦Ĺ":1905,"Ġà§©":1906,"Ġà¤":1907,"à¦Ńà¦¦":1908,"à¦®à¦ŀ":1909,"à¦®à¦¹à¦¤":1910,"Ġà¦¨à¦¥":1911,"Ġà¦ıà¦ľ":1912,"Ġà¦ıà¦ķà¦¦à¦²":1913,"Ġà¦ªà¦°à¦ĩ":1914,"à¦īà¦¤":1915,"à¦ĺà¦£":1916,"Ġà¦ķà¦²à¦Ļ":1917,"à¦¾à§ĩ":1918,"à¦ķà¦ľ":1919,"à¦¬à§ľ":1920,"Ġà¦Ľà¦¤":1921,"Ġà¦ªà¦°à¦¨":1922,"à¦®à¦¨à¦Ł":1923,"à§Īà¦ĥ":1924,"ĠĠĊĠ":1925,"Ġà¦®à¦¸à¦ľ":1926,"à¦¸à¦¡":1927,"à¦¡à¦Ł":1928,"à¦¹à¦¨à¦¬":1929,"Ġà¦¶à¦®":1930,"Ġà¦īà¦ĩà¦²":1931,"Ġ.":1932,"à¦¦à¦ĵ":1933,"Ġà¦ħà¦·":1934,"Ġà¦ıà¦ĸà¦¨à¦ķ":1935,"à¦¾âĢĶâĢľ":1936,"Ġà¦¬à§İà¦¸à¦°":1937,"Ġà¦¶à¦ĸ":1938,"à¦ĵà¦¦":1939,"à¦ıà¦ķà¦¬":1940,"Ġà¦ħà¦§à¦°":1941,"à¦®à¦£à¦¦":1942,"à§®":1943,"à¦¸à¦¯":1944,"à¦¡à¦¸":1945,"Ġà¦ĵà¦Ń":1946,"à¦¼à¦¿à¦Ĥ":1947,"Ġm":1948,"à¦¨à¦Ĺà¦°":1949,"Ġà¦Ĩà¦Łà¦Ł":1950,"Ġà¦²à¦¨":1951,"Ġà¦ĵà¦¡":1952,"Ġà¦ľà¦²à¦°":1953,"Ġà¦ĭà¦£":1954,"Ġà¦¤à¦¤à¦Ł":1955,"à§ĭâĢ¦":1956,"Ġà¦ķà¦°à¦£":1957,"à¦§à¦Ł":1958,"Ġà¦¥à¦°à¦¥":1959,"à§ľà¦Ľ":1960,"à¦ľà¦¨à¦ĩ":1961,"à¦¼:":1962,"à§ĭà¦Ĥ":1963,"Ġà¦¨à¦²":1964,"à¦£à¦Ń":1965,"à¦°à¦¬à¦¦":1966,"Ġà¦Ĩà¦¨à¦Ľ":1967,"à¦ķà¦®à¦¤":1968,"à¦Łà¦Ń":1969,"Ġà¦ıà¦ķà¦ľ":1970,"Ġà¦§à¦¡":1971,"à¦¦à¦°à¦ľ":1972,"à¦¸à¦®à¦¸":1973,"à§įâĢĮà¥¤":1974,"à¦Īà¦¶":1975,"Ġà¦¥à¦°à¦¥à¦°":1976,"Ġà¦¦à¦«":1977,"Ġà¦¤à¦ª":1978,"à¦§à¦²":1979,"Ġà¦§à¦°à¦£":1980,"Ġà¦§à¦°à¦Ľ":1981,"Ġà¦·à¦¡":1982,"à¦¨à§Ł":1983,"à¦ĩà¦ĩ":1984,"Ġà¦¯à¦¶":1985,"Ġà¦ĸà¦°":1986,"à¦°à¦®à¦¹":1987,"le":1988,"Ġà¦ıà¦«":1989,"à¦Ĺà¦¯":1990,"à¦Ĺà¦®à¦¨":1991,"Ġà¦¡à¦Ĺ":1992,"Ġà¦ķà¦²à¦°à¦¬":1993,"Ġà¦¯à¦ĸà¦¨à¦ĩ":1994,"à¦¤à¦ļ":1995,"à¦¹à¦¬":1996,"à¦łà¦¶":1997,"Ġà¦²à¦Ļ":1998,"à¦®à¦Ŀ":1999,"Ġà¦®à¦®":2000,"à¦·à§İ":2001,"à§Łà¦¬à¦¦":2002,"à¦ħà¦Ń":2003,"Ġà¦ĩà¦¨à¦¸":2004,"Ġà¦¸à¦«à¦²à¦¤":2005,"à¦Łà¦ĵ":2006,"Ġà¦®à¦ľà¦¬":2007,"Ġà¦¤à¦«":2008,"à¦Ńà¦°à¦¤":2009,"à¦Ĩà¦¤":2010,"à¦¤à¦ĸà¦¨à¦ĩ":2011,"Ġh":2012,"à¦¸à¦ªà¦¤":2013,"Ġà¦ħà¦¨à¦¬à¦°à¦¤":2014,"Ġà¦ľà¦²à¦ľ":2015,"re":2016,"à¦ķà¦·":2017,"à¦ĸà¦¬à¦°":2018,"à¦Ĩà¦¸à¦²":2019,"Ġà¦ĸà¦¬à¦°à¦Ł":2020,"Ġà¦ªà¦Łà¦Ń":2021,"à§Ĥà¦ģ":2022,"Ġà¦¬à¦ĩà¦¤":2023,"à§ĩâĢĿ":2024,"Ġà¦ķà¦¨à¦¸":2025,"à¦¸à¦Ĺ":2026,"à¦¡à¦Ĺ":2027,"à¦ļà¦ľà¦¨":2028,"Ġà¦²à¦£":2029,"Ġà¦ĸà¦Ł":2030,"Ġà¦Ŀà§ľ":2031,"Ġa":2032,"Ġf":2033,"Ġà¦¨à¦Ĺ":2034,"Ġà¦ĵà¦¹":2035,"Ġà¦ªà¦°à¦ĵ":2036,"Ġà¦ıà¦ĩà¦ĸ":2037,"Ġà¦ľà¦¨à¦Ĺà¦£":2038,"Ġà¦ħà¦¬à¦²":2039,"Ġà¦ħà¦¬à¦¸à¦°":2040,"Ġà¦ĺà¦Łà¦¤":2041,"«à§¨":2042,"à¦®à¦ķà¦°":2043,"Ġà¦¨à¦ķà¦²":2044,"à¦¶à¦¶":2045,"à¦¶à¦Ŀ":2046,"à¦£à¦ĵ":2047,"Ġà¦ıà¦ķà¦°à¦ķà¦®":2048,"à¦°à¦¬à¦£à¦¤":2049,"à¦ħà¦ª":2050,"ing":2051,"Ġp":2052,"à¦¬à¦¹à¦¨":2053,"à§ĭ:":2054,"à¦ĸà¦Ĺ":2055,"à¦¡à¦ª":2056,"à¦¥à¦ķà¦¤":2057,"à¦łà¦ķà¦ķ":2058,"à¦ĺà¦ķ":2059,"à¦ķà¦Łà¦ķ":2060,"Ġà¦ıà¦ĵ":2061,"Ġà¦¥à¦°à¦¹à¦°":2062,"à¦ıà¦¦":2063,"Ġà¦¬à¦ĩà¦Ĺ":2064,"à¦ķà¦¬à¦°":2065,"Ġà¦¸à¦²":2066,"Ġà¦®à¦Ľ":2067,"à§Ģ;":2068,"à¦·à¦¨":2069,"à¦¹à¦Ł":2070,"à§Łà¦°":2071,"Ġà¦ĺà¦·":2072,"à¦¿à¦Ĥà¥¤":2073,"Ġà¦¸à¦¹à¦ķà¦°":2074,"Ġà¦Īà¦·à§İ":2075,"Ġà¦¬à¦īà¦¯":2076,"Ġà¦¸à¦°à¦²à¦¤":2077,"Ġt":2078,"à¦¯à¦°à¦¸":2079,"à¥¥":2080,"Ġà¦Ĩà¦ĸ":2081,"Ġà¦¤à¦¦à¦¨":2082,"à¦ĸà¦ļ":2083,"Ġà¦Ĺà¦¯":2084,"à¦Ŀà¦¨":2085,"Ġà¦ªà§ľà¦¬":2086,"Ġo":2087,"à§¯":2088,"à¦¤à¦²à¦¤":2089,"à¦§à¦¦":2090,"à¦£à¦®à¦¯":2091,"à§ľà¦ķ":2092,"à¦°à¦¶à¦¸":2093,"Ġà¦°à¦¹":2094,"Ġà¦īà¦§":2095,"à¦°à¦ķà¦Ł":2096,"Ġà¦ĩà¦¦":2097,"à¦ĺà¦Ł":2098,"Ġ-":2099,"ĠA":2100,"à¦ķà¦¯":2101,"Ġà¦®à¦°à¦£":2102,"à¦¶à¦Ĺà¦¤":2103,"Ġà¦ľà¦¨à¦Ĺ":2104,"Ġà¦ľà¦²à¦ª":2105,"Ġà¦¸à¦¹à¦¦":2106,"Ġd":2107,"à¦°à¦¹à¦¸":2108,"Ġà¦®à¦¶à¦²":2109,"à¦¡à¦®":2110,"Ġà¦ıà¦ĩà¦¬":2111,"Ġà¦¬à¦°à¦ŀ":2112,"à¦¤à¦°à¦ķ":2113,"Ġà¦ĸà¦¨":2114,"Ġà¦ªà¦°à¦²":2115,"Ġà¦ħà¦¬à¦ļ":2116,"à¦¬à¦²à¦²":2117,"Ġà¦¸à¦¡":2118,"Ġà¦Ĩà¦ŀ":2119,"à¦¼à§ĩ?":2120,"à¦ĸà¦®":2121,"à¦·à¦Ń":2122,"Ġà¦ħà¦²à¦ķ":2123,"à¦£à¦Ł":2124,"Ġà¦ªà¦¥à¦Ł":2125,"à¦ħà¦®":2126,"ĠĠĠĠ":2127,"Ġà§§":2128,"Ġà¦Ĩà¦ĩà¦¡":2129,"à¦¦à¦¹":2130,"à¦Ńà¦Ł":2131,"à¦°à¦¬à¦£":2132,"Ġà¦ľà¦¨à¦ªà¦¦":2133,"à¦ķà¦²à¦®":2134,"à¦ħà¦ªà¦°":2135,"à¦Ĺà¦ľà¦ªà¦¤":2136,"Ġà¦Ĩà¦¹à¦®":2137,"ÂŃ":2138,"à¦ªà¦Ŀ":2139,"à§Ģ?âĢĻ":2140,"à¦£à¦°":2141,"Ġà¦®à¦¤à¦ĩ":2142,"âĢĵâĢĵ":2143,"à¦ħà¦ļ":2144,"Ġà¦¨à¦¬à¦ľ":2145,"à¦¿âĢĻà¥¤":2146,"à¦¨à¦¶à¦¨":2147,"à¦¶à¦ķà¦°":2148,"Ġà¦ľà¦¨à¦ª":2149,"Ġà¦Ŀà¦Ł":2150,"Ġà¦ªà¦¥à¦ª":2151,"Ġà¦ĺà¦Łà¦Ľ":2152,"Ġà¦Ŀà¦°à¦Ŀà¦°":2153,"Ġà¦¤à¦°à¦²":2154,"à¦£à¦ª":2155,"Ġà¦ªà¦°à¦ķ":2156,"Ġà¦ħà¦¨à¦¬à¦¦":2157,"à¦ĺà¦¡":2158,"Ġà¦ļà¦²à¦®":2159,"à¦ĭà¦·":2160,"Ġà¦¬à¦®":2161,"à¦ļà§Łà¦¤":2162,"Ġà¦ĵà¦ľà¦¨":2163,"à¦ħà¦¬":2164,"Ġà¦īà§İà¦¸à¦°":2165,"à¦ªà¦Łà¦ª":2166,"Ġà¦¬à¦Łà¦¬":2167,"Ġà¦ıà¦ª":2168,"à¦¶à¦ĵ":2169,"à§ĭ,âĢĿ":2170,"Ġà¦®à¦¹à§İ":2171,"à¦ľà¦¸à¦Ń":2172,"à¦¾âĢĻà¥¤":2173,"à¦Łà¦ĵà¦¯":2174,"à¦ªà¦ª":2175,"à¦·à¦ªà¦°":2176,"à¦¡à¦Ń":2177,"Ġà¦¬à¦ĩà¦Ľ":2178,"Ġà¦ħà¦ªà¦°à¦ķ":2179,"Ġà¦ħà¦Ĺà¦£":2180,"à¦ĩà¦ĸ":2181,"à¦Ľà¦ķ":2182,"Ġà¦ļà§ľ":2183,"Ġà¦°à¦£":2184,"æŃ":2185,"ĠP":2186,"Ġà¦ªà¦ļ":2187,"à¦·à¦ĵ":2188,"à¦§à¦¸":2189,"à§ľà¦¨":2190,"à¦īà§İà¦¸à¦¬":2191,"à¦Ĩà¦¦":2192,"Ġà¦ľà¦¨à¦¤":2193,"à¦ħà¦§":2194,"æŃĵ":2195,"om":2196,"Ġà¦¹à¦¦":2197,"à¦Ĺà¦ĵ":2198,"à§Łà¦²":2199,"Ġà¦ķà¦¤à¦ķà¦Ĺ":2200,"Ġà¦ĩà¦¤à¦¸":2201,"Ġà¦¶à¦°à§İà¦ļà¦¨":2202,"æŃĵæŃĵ":2203,"Ġà¦¦à¦Ĺ":2204,"à§ľà¦²":2205,"Ġà¦¬à¦¨à¦Ń":2206,"Ġà¦ħà¦ªà¦¬":2207,"à¦¯à¦¬à¦°":2208,"à¦®à¦ļà¦¨":2209,"Ġà¦ķà¦¸":2210,"Ġà¦ķà§ľ":2211,"Ġà¦ħà¦£":2212,"à¦¹à§İ":2213,"Ġà¦¹à¦¤à¦¬":2214,"à§°à¦®":2215,"Ġà¦ħà¦²à¦¸":2216,"Ġà¦ħà¦²à¦Ļ":2217,"Ġof":2218,"à¦¨à¦®à¦¨":2219,"à¦ĩà¦°à¦ķà¦®":2220,"Ġà¦¨à¦¸":2221,"Ġà¦¨à¦ĵ":2222,"Ġà¦¤à¦¸":2223,"à§Łà¦¦":2224,"à¦ħà¦¦":2225,"Ġà¦¸à¦¹à¦ķ":2226,"à¦Łà¦¹":2227,"à¦Ĺà¦ł":2228,"à¦ªà¦°à¦®":2229,"à¦²à¦ķà¦£":2230,"à¦¬à¦°à¦ķ":2231,"à¦ªà¦¶à¦¨":2232,"Ġà¦ļà¦£":2233,"à¦ĵà¦Ł":2234,"Ġà¦®à¦¤à¦²à¦¬":2235,"à¦ħà¦ķ":2236,"à¦·à¦ķà¦¦":2237,"Ġà¦Īà¦°":2238,"à¦¬à¦ļà¦¨":2239,"à¦·à¦ķà¦°":2240,"Ġà¦Ĺà¦¹à¦¨":2241,"Ġà¦¶à¦ļ":2242,"Ġà¦ľà¦¨à¦ľ":2243,"Ġà§§à§¯à§«à§¨":2244,"éŁ¿éŁ¿éŁ¿éŁ¿éŁ¿éŁ¿éŁ¿éŁ¿":2245,"à¦Ĳà¦¤":2246,"à¦®à¦«":2247,"à¦ªà¦ĵ":2248,"à¦£à¦ĩ":2249,"Ġà¦ĸà¦¦":2250,"à¦°à¦¤à¦®":2251,"à¦ľà¦¨à¦¤":2252,"Ġà¦Łà¦²":2253,"Ġà¦Ĩà¦²à¦Ĺ":2254,"ic":2255,"à¦¬à¦Ļ":2256,"Ġà¦¸à¦¦à¦°":2257,"Ġà¦ħà§Łà¦¨":2258,"Ġà¦ıà¦ķà¦¯":2259,"Ġà¦ªà¦°à¦¤":2260,"Ġà¦ªà¦°à¦ªà¦°":2261,"à¦īà¦¶à¦¨":2262,"Ġà¦¸à¦ķà¦²à¦ķ":2263,"à¦¸à¦ķà¦·":2264,"à§ĩâĢ¦âĢĿ":2265,"ĠS":2266,"à¦ķà¦°à¦¬":2267,"à¦®à§ľ":2268,"à¦ĩà¦Ĺ":2269,"à¦§à¦ĩ":2270,"Ġà¦Ĩà¦°à¦ķ":2271,"à¦¾âĢ¦âĢĿ":2272,"à¦¬à§°":2273,"Ġà¦ķà¦¦à¦®":2274,"à¦°à¦¤à¦²":2275,"Ġà¦ıà¦ķà¦ľà¦¨à¦ķ":2276,"à¦¯à¦ľà¦¨":2277,"Ġà¦ķà¦Ļ":2278,"Ġà¦Ľà¦²":2279,"Ġà¦²à¦¬à¦£":2280,"à¦°à¦ķà¦°":2281,"à¦ĩà¦²à¦Ł":2282,"Ġà¦¸à¦¹à¦ª":2283,"à¦¦à¦¨à¦ķ":2284,"Ġà¦īà§İà¦ķà¦£":2285,"à§°à¦¹":2286,"à¦ıà¦ķà¦ĩ":2287,"all":2288,"ol":2289,"à¦¯à¦²":2290,"à¦Ĺà¦¬à¦¤":2291,"à¦·à¦ľ":2292,"Ġà¦ļà¦ĵà¦¡":2293,"à¦¬à¦²à¦®":2294,"Ġà¦ķà¦²à¦¤":2295,"Ġà¦ķà¦¨à¦°":2296,"Ġà¦¤à¦¤à¦¦":2297,"Ġà¦¸à¦¯à¦¤":2298,"à¦ĩà¦¸à¦¬":2299,"à¦Ľà¦¡":2300,"Ġà¦ıà¦ļ":2301,"Ġà¦Ńà¦Ł":2302,"Ġà¦Ľà¦²à¦Ľ":2303,"à¦īà¦ļ":2304,"à¦Ĺà¦¤à¦Ń":2305,"Ġà¦ķà¦ĸà¦¨à¦ĩ":2306,"Ġà¦ıà¦ķà¦ĩà¦Ń":2307,"ig":2308,"à¦Ĩà¦¯":2309,"ra":2310,"Ġà¦¦à¦ª":2311,"Ġà¦¦à¦®à¦¨":2312,"à¦£à¦¸":2313,"Ġà¦Ŀà¦°à¦Ľ":2314,"Ġà¦īà¦ªà¦®":2315,"Ġà¦ķà¦¤à¦ĸ":2316,"Ġà¦¶à¦¹à¦°à¦Ł":2317,"à¦¾à¦ĥ,":2318,"Ġà¦Ľà¦²à¦Ľà¦²":2319,"à¦²à¦¶":2320,"à¦ľà¦¡":2321,"à¦£à¦¯":2322,"Ġà¦Ķà¦°à¦¸":2323,"à¦¨à¦ĸ":2324,"âĢķ":2325,"à¦¹à¦¦":2326,"à¦°à¦£à¦Ł":2327,"Ġà¦¹à¦²à¦¦":2328,"à§§à§¯à§":2329,"áĥ":2330,"à¦¿âĢ¦âĢĿ":2331,"à¦¨à¦¡":2332,"à¦¨à¦¸à¦®":2333,"à§ģâĢĵ":2334,"à¦£à¦ªà¦£":2335,"Ġà¦Ńà¦°à¦ª":2336,"à¦ªà¦°à¦¦":2337,"à¦¬à¦²à¦ĩ":2338,"Ġà¦¤à¦ĸà¦¨à¦ķ":2339,"à¦¦à¦¨à¦¶":2340,"ve":2341,"ĠB":2342,"à¦°à¦ŀ":2343,"à¦ªà¦Ļ":2344,"à¦ĸà¦¡":2345,"à¦ĸà¦®à¦¯":2346,"Ġà¦ħà¦¡":2347,"à¦¡à¦¶":2348,"Ġà¦²à¦°":2349,"à¦Ĩà¦¨à¦¨":2350,"Ġà¦ħà¦¬à¦ľ":2351,"Ġà¦®à¦¹à¦¤":2352,"Ġà¦¯à¦¤à¦ĸ":2353,"à§ĭâĢĶâĢľ":2354,"Ġà¦ķà¦¤à¦¬":2355,"à¦Łà¦¬à¦²":2356,"Ġà¦¦à¦®à¦ķ":2357,"à¦łà¦Ł":2358,"à¦īà¦ª":2359,"à¦Ĺà¦²à¦Ł":2360,"à¦¬à¦¤à¦ĩ":2361,"Ġà¦ľà¦²à¦¦":2362,"Ġl":2363,"à¦¨à¦¬à¦°":2364,"à¦¼âĢ¦":2365,"à¦®à¦¸à¦®":2366,"à§ĭâĢ¦âĢĿ":2367,"à¦¦à¦¬à¦¦":2368,"Ġà¦¤à¦®":2369,"à¦ĸà¦ķà¦¦":2370,"à¦·à¦Ļ":2371,"à¦§à¦ĵ":2372,"à¦£à¦Ĺà¦¤":2373,"Ġà¦Ľà¦ķ":2374,"à¦Ŀà¦ªà¦¥":2375,"Ġà¦Łà¦²à¦®à¦²":2376,"çľ":2377,"à¦¤à¦ĸ":2378,"Ġà¦Ĩà¦ªà¦¡":2379,"à¦§à¦Ń":2380,"à¦¬à¦¨à¦¬":2381,"à¦ľà¦¨à¦¨":2382,"à¦ıà¦²":2383,"à§ĩ!âĢĻ":2384,"à¦Ĺà¦ľà¦Ł":2385,"Ġà¦¸à¦Ł":2386,"Ġà¦¨à¦ĸ":2387,"Ġà¦°à¦ľà¦¨":2388,"à¦łà¦°":2389,"Ġà¦¸à¦¬à¦¸à¦®à§Ł":2390,"à¦Ĩà¦¡":2391,"Ġà¦ķà¦¨à¦«":2392,"Ġin":2393,"à§ĩ)":2394,"à¦¨à¦·":2395,"à¦²à¦¹":2396,"à§ģ;":2397,"à¦¼?âĢĿ":2398,"à¦®à¦²à¦¤":2399,"à¦Ĺà§ľ":2400,"Ġà¦¯à¦ķ":2401,"à¦§à¦ķà¦¤":2402,"Ġà¦¥à¦²":2403,"ĠâĢ¦":2404,"Ġà¦ıà¦ĩà¦ľà¦¨":2405,"Ġà¦¡à¦²":2406,"à¦¨à¦ĵà¦Ń":2407,"Ġà¦®à¦¹à¦²":2408,"à¦ªà¦¦à¦ķ":2409,"Ġà§§à§®":2410,"Ġà§«":2411,"Ġà§§à§¯à§ª":2412,"Ġà¦®à¦°à¦¤":2413,"Ġà¦ħà¦°à¦¬":2414,"à¦ļà¦ĩ":2415,"Ġà¦ıà¦ķà¦¨":2416,"Ġà¦²à¦ŀ":2417,"à¦ªà¦°à¦¬à¦°":2418,"Ġà¦®à¦¨à¦¨à¦¶":2419,"Ġà¦Ĩà¦ľà¦¹":2420,"Ġà¦Ĩà¦¬à¦°à¦£":2421,"Ġà¦īà¦ªà¦²à¦ķ":2422,"Ġà¦ľà¦®à¦ľà¦®":2423,"à¦°à¦¸à¦¬":2424,"à§ģà¥¤âĢĿ":2425,"à¦¬à¦¬à¦°":2426,"à¦Ĺà¦ļ":2427,"à¦Ĺà¦Ļ":2428,"à¦§à¦¹":2429,"Ġà¦ĵà¦®":2430,"à§İà¦¸à¦ķ":2431,"à¦¦à¦°à¦¬à¦¨":2432,"à¦ªà¦ķà¦¦":2433,"ĠI":2434,"à¦¿âĢĻ,":2435,"à¦®à¦ĸ":2436,"à¦¸à¦ļ":2437,"Ġà¦¹à¦¨à¦¨":2438,"à¦°à¦¬à¦§":2439,"à§°à¦¬":2440,"Ġn":2441,"à¦¯à¦ļ":2442,"à¦¯à¦®à¦¨à¦¸":2443,"à¦¸à¦¤à¦¤":2444,"à¦Ĥ,":2445,"Ġà¦²à¦Ĺ":2446,"Ġà¦ĵà¦°à¦ķà¦®":2447,"à¦«à¦¡":2448,"Ġà¦¸à¦¬à¦ľ":2449,"Ġà¦Łà¦®":2450,"à¦¨à¦ĵà¦°à¦ķà¦®":2451,"à¦ħà¦ľ":2452,"à¦ħà¦«":2453,"Ġà¦īà§İà¦ķ":2454,"à¦¿à¦ĥà¥¤":2455,"à¦¾âĢĻ,":2456,"à¦ļà§Łà¦ĩ":2457,"us":2458,"Ġ;":2459,"à¦¸à¦ľ":2460,"à¦¸à¦ĸ":2461,"Ġà¦¤à¦°à¦ķ":2462,"Ġà¦¸à¦®à¦ķ":2463,"à§ľà¦¬":2464,"à¦¬à¦°à¦Ł":2465,"à§ĩâĢĶâĢĺ":2466,"à¦¿âĢĶâĢľ":2467,"Ġà¦Ŀà¦¨à¦Ŀà¦¨":2468,"Ġand":2469,"à¦¤à¦Ĺà¦¤":2470,"Ġà¦®à¦°à¦¬":2471,"à¦¶à¦¹":2472,"à¦Ļà¦¨":2473,"Ġà¦«à¦ľà¦²":2474,"Ġà¦Ĩà¦Ĺà¦²":2475,"à¦ķà¦²à¦ķ":2476,"Ġà¥¥":2477,"à¦¤à¦¥":2478,"Ġà¦ķà¦ªà¦Ł":2479,"Ġà¦¸à¦«à¦°":2480,"à¦§à¦Ľ":2481,"Ġà¦ĵà¦¸à¦®":2482,"Ġà¦«à¦¡":2483,"Ġà¦ĺà§ľ":2484,"Ġà¦ĩà¦īà¦°":2485,"Ġà¦Ĺà¦²à¦¦":2486,"à¦°à¦ªà¦°à¦ĩ":2487,"à¦ıà¦ĩà¦¸à¦¬":2488,"Ġà¦Ĺà¦£à¦®":2489,"ec":2490,"et":2491,"à¦¤à¦Ļ":2492,"Ġà¦¬à¦¦à¦®":2493,"Ġà¦Ĩà¦·":2494,"Ġà¦®à¦Ĺà¦ľ":2495,"Ġà¦īà¦Ńà§Ł":2496,"Ġà¦«à¦£":2497,"Ġà¦Łà¦ķ":2498,"à¦·à¦£à¦ķ":2499,"Ġà¦Ĩà¦Ĺà¦¨":2500,"ĠĠĊĠĠĠ":2501,"à§ĩà¦¾à¦ģ":2502,"à¦¼?âĢĻ":2503,"à¦Łà¦ĵà§Ł":2504,"à¦ªà¦ŀ":2505,"à¦¼à§ĩ!":2506,"à¦§à¦¶":2507,"Ġà¦ªà¦¥à¦ļ":2508,"à¦¤à¦¬à¦¡":2509,"Ġà¦¹à¦ķà¦ļà¦ķ":2510,"à§ĩâĢĻà¥¤":2511,"à¦¯à¦ķà¦²":2512,"Ġà¦¸à¦ĩ":2513,"Ġà¦ªà¦¤à¦¨":2514,"à¦¶à§Ł":2515,"Ġà¦ļà¦°à¦£":2516,"à¦«à¦¨":2517,"à¦¬à¦¨à¦§":2518,"Ġà¦ıà¦®à¦¨à¦Ł":2519,"Ġà¦ķà¦²à¦ķà¦²":2520,"Ġà¦ķà¦®à¦ª":2521,"Ġà¦īà§İà¦ķà¦°":2522,"Ġà¦Ĺà¦£à¦¤à¦¨":2523,"Ġà¦ħà¦¸à¦®à¦ŀ":2524,"Ġà¦¨à¦ľ":2525,"à¦¹à¦ĩ":2526,"à¦¥à¦¸":2527,"Ġà¦ıà¦ķà¦ļ":2528,"Ġà¦¸à¦®à¦·":2529,"à¦«à¦¤":2530,"âĢĿâĢĵ":2531,"à¦Ĩà¦ĩà¦¨":2532,"Ġà¦¨à¦¬à¦¬à¦°":2533,"Ġà§ª":2534,"Ġà¦Ķà¦ªà¦¨":2535,"ĠM":2536,"Ġà¦ķà¦¨à¦ķ":2537,"Ġà¦¬à¦£":2538,"Ġà¦¸à¦¯":2539,"à¦ªà¦¦à¦°":2540,"à¦¼à§ĩâĢĵ":2541,"à§Łà¦ĩ":2542,"à¦®à¦¨à¦¨":2543,"Ġà¦ĩà¦ķ":2544,"ent":2545,"Ġà¦ħà¦¬à¦¨à¦¤":2546,"ÂŃÂŃ":2547,"âĢķâĢķ":2548,"ut":2549,"Ġà¥¤":2550,"à¦¤à¦¯":2551,"à¦¤à¦ļà¦°":2552,"à¦®à¦¹à¦°":2553,"Ġà¦¨à¦Ń":2554,"à¦ĸà¦¯":2555,"Ġà¦ļà¦ª":2556,"à¦ĵà¦ķ":2557,"à¦Ńà¦²à¦Ń":2558,"Ġà¦²à¦Ł":2559,"Ġà¦¸à¦¬à¦Ĺ":2560,"Ġà¦Ĩà¦§à¦ĸ":2561,"Ġà¦Ĩà¦«à¦ľ":2562,"Ġà¦°à¦¤à¦¨à¦¬":2563,"os":2564,"ur":2565,"à¦²à¦®à¦¨":2566,"à¦¼!âĢĿ":2567,"Ġà¦¦à§Ł":2568,"à¦ªà¦ķà¦°":2569,"Ġà¦¹à¦°à¦£":2570,"à¦¶à¦Ļ":2571,"à¦¥à¦¹":2572,"Ġà¦¶à¦¶":2573,"Ġà¦°à¦¹à¦®":2574,"Ġà¦«à¦ķ":2575,"Ġà¦§à¦ķ":2576,"Ġà¦īà¦ªà¦ķà¦°à¦£":2577,"Ġà§§à§¦":2578,"Ġà¦Ńà§Łà¦Ļ":2579,"tion":2580,"à¦¶à¦¶à¦¤à¦ķ":2581,"à¦°à¦Ŀ":2582,"à¦¤à¦¡":2583,"Ġà¦Ĩà¦īà¦Ł":2584,"à¦¶à¦ļà¦¨":2585,"Ġà¦ľà¦®à¦¤":2586,"Ġà¦īà¦ĩ":2587,"Ġà¦²à¦ĺ":2588,"Ġà¦Łà¦ķà¦Łà¦ķ":2589,"à¦°à¦¹à¦£à¦¯":2590,"Ġà§§à§Ń":2591,"Ġà¦ħà¦¹à¦Ļ":2592,"ĠR":2593,"à¦²à¦ªà¦¤":2594,"à¦¯à¦®à¦¨":2595,"Ġà¦ıà¦ŀ":2596,"à§Łà¦£":2597,"à¦¼à¦¾à¦Ĥ":2598,"Ġà¦ĸà¦²":2599,"Ġà¦ĩà¦°":2600,"à¦ħà¦¶":2601,"à¦°à¦¶à¦ķ":2602,"Ġà¦¸à¦¹à¦¨à¦¶":2603,"à¦²à¦¨à¦®":2604,"à¦°à¦ĺ":2605,"à§į,":2606,"à¦ķà¦°à¦ķ":2607,"Ġà¦¸à¦ļà¦²":2608,"Ġà¦ªà§Łà¦¸":2609,"Ġà¦¶à¦²":2610,"Ġà¦ľà¦Ĺà¦¨":2611,"à¦·à¦£à¦ĩ":2612,"à¦ĩà¦¨à¦Ł":2613,"à¦ıà¦ĩà¦ļ":2614,"Ġà¦ĸà¦¸à¦ĸà¦¸":2615,"à¦¥à¦ªà¦°à¦¤":2616,"il":2617,"un":2618,"à§ĩâĢĻ,":2619,"à¦¤à¦Ńà¦°":2620,"à§ģà¥¤âĢĻ":2621,"à¥į":2622,"à¦ļà¦ª":2623,"à¦£à¦ļ":2624,"Ġà¦¶à¦°à¦£":2625,"à§ĩ,âĢĻ":2626,"à¦ıà¦®":2627,"à¦¨à¦¤à¦®":2628,"à¦ĥ,":2629,"Ġà¦Ĩà¦¨à¦®à¦¨":2630,"Ġà¦Ĩà¦ķà¦¬à¦°":2631,"Ġà§§à§¯à§¯à§":2632,"ĠD":2633,"Ġe":2634,"à¦¼à§ĭà¥¤":2635,"à¦Łà¦Ĺà¦²":2636,"à¦ªà¦¬à¦¯":2637,"à¦Ĺà¦¬à¦¨":2638,"Ġà¦¸à¦°à¦ŀ":2639,"âĢ¦à¥¤":2640,"à§°à¦¤":2641,"Ġà¦°à¦ķà¦®à¦ĩ":2642,"ow":2643,"Ġ[":2644,"à¦¾)":2645,"à¦°à¦ªà¦¤":2646,"à¦¤à¦¬à¦°":2647,"à¦¼à§ģ,":2648,"Ġà¦¬à¦ļà¦¨":2649,"à§Ģà¥¤âĢĿ":2650,"Ġà¦¹à¦ĩà¦²":2651,"Ġà¦Ĺà¦Ĺà¦¨":2652,"Ġà¦ľà¦¸":2653,"Ġà¦ľà¦®à¦²":2654,"Ġà¦Ńà¦£":2655,"Ġà¦°à¦ľà¦¤":2656,"Ġà¦ıà¦ķà¦¤à¦²":2657,"à¦Ĥ-":2658,"Ġà¦«à¦°à¦¸":2659,"à¦Ŀà¦¡":2660,"à¦¬à¦°à¦¬":2661,"à¦¬à¦°à¦ĩ":2662,"Ġà¦ļà¦²à¦¨":2663,"Ġà¦ļà¦²à¦ļ":2664,"à¦°à¦¥à¦®à¦Ł":2665,"Ġà¦ıà¦¤à¦Ĺ":2666,"Ġà¦¬à¦īà¦®":2667,"à¤¾":2668,"ch":2669,"à¦¯à¦§":2670,"à¦¦à¦ªà¦¤":2671,"Ġà¦ľà¦¤":2672,"à¦Ńà¦°à¦¶":2673,"Ġà¦Ĩà¦®à¦Ĺ":2674,"à¦Ļà¦¬":2675,"à¦°à¦£à¦ĵ":2676,"à¦ıà¦¨":2677,"Ġà¦ħà¦¬à§Łà¦¬":2678,"Ġà¦ĺà¦°à¦Ĺ":2679,"Ġà¦ĩà¦¨à¦«":2680,"à¦¾!âĢĻ":2681,"id":2682,"à¦²à¦¡":2683,"à¦ķà¦Ĩà¦ª":2684,"à§Ģ?âĢĿ":2685,"à¦ľà¦¶":2686,"à¦§à¦°à¦¨":2687,"Ġà¦Ńà¦°à¦¦":2688,"Ġà¦ĵà¦¤":2689,"à¦¾,âĢĻ":2690,"à¦īà¦ł":2691,"à¦īà¦ªà¦°":2692,"Ġà¦Łà¦ªà¦ķ":2693,"à¦ķà¦°à¦¦":2694,"à¦¨à¦ĵà¦Ł":2695,"Ġà¦¹à¦°à¦«":2696,"Ġà§¬":2697,"Ġà¦°à¦¸à¦Ĺ":2698,"à¦ľà¦Ĺà§İ":2699,"à§Ĺ":2700,"à¦°à¦¡":2701,"à¦®à¦®à¦¤":2702,"Ġà¦Ĩà¦ªà¦¸":2703,"à¦ĩà¦ĵ":2704,"Ġà¦®à¦ķ":2705,"Ġà¦¤à¦¡":2706,"à¦ľà¦Ń":2707,"à¦¶à¦Ľ":2708,"à¦¶à¦ªà¦¥":2709,"à¦£à¦¹":2710,"à¦¥à¦Ĺ":2711,"Ġà¦¶à¦ª":2712,"à¦¼à¦¾âĢĵ":2713,"à¦Ĥà¥¤":2714,"à¦Ļà¦°":2715,"Ġà¦¸à¦®à¦Ŀ":2716,"Ġà¦¡à¦¯":2717,"à¦¯à¦¬à¦§":2718,"Ġà¦ľà¦²à¦¸":2719,"Ġà¦ľà¦²à¦§":2720,"Ġà¦¸à¦°à¦¬à¦°":2721,"Ġà¦ħà¦ľà¦¯":2722,"à¦¬à¦¦à¦²":2723,"à¦¼à¦ĥ":2724,"à¦¼à§Ģà¥¤":2725,"Ġà¦¸à¦ĩà¦¤":2726,"à¦Ľà¦¤à¦²":2727,"à¦¶à¦«":2728,"à¦ĸà¦ķà¦°":2729,"à¦ĸà¦¬à¦¤":2730,"Ġà¦ľà¦¹":2731,"Ġà¦īà¦ĩà¦¨":2732,"Ġà¦ĸà¦ļ":2733,"Ġà¦īà¦ªà¦¤":2734,"à¦®à¦¸à¦®à¦°":2735,"à¦°à¦ĸà¦°":2736,"Ġà¦¦à¦®à¦¬à¦¨":2737,"à¦¿)":2738,"à¦¸à¦°à¦²":2739,"à¦¶à¦Ń":2740,"Ġà¦¯à¦¤à¦¬":2741,"à¦§à¦ķà¦°":2742,"Ġà¦ıà¦ķà¦¸à¦®à§Ł":2743,"Ġà¦«à¦Łà¦ķ":2744,"Ġà¦ĸà¦¤":2745,"à¦Ŀà¦Ľ":2746,"à¦°à¦¬à¦ķ":2747,"à¦ħà¦¥":2748,"Ġà¦ıà¦®à¦¨à¦ĵ":2749,"Ġà¦¸à¦®à§Łà¦ĩ":2750,"Ġà¦ĭà¦Ĺà¦¬":2751,"Ġà§§à§¨":2752,"à§Ŀà¦¤":2753,"Ġà¦ªà¦Łà¦ļ":2754,"...âĢĿ":2755,"à§ģâĢ¦":2756,"à¦®à¦¹à¦²":2757,"Ġà¦¸à¦«à¦Ł":2758,"à¦·à¦ľà¦¨":2759,"Ġà¦ħà¦Ŀ":2760,"à¦Ńà§İà¦¸":2761,"Ġà¦Ľà§Ł":2762,"Ġà¦Ľà¦²à¦¨":2763,"à¦łà¦ª":2764,"Ġà¦ĵà¦¨":2765,"Ġà¦§à¦¸":2766,"Ġà¦Łà¦¹à¦²":2767,"Ġà¦Ĩà¦¨à¦Ĺ":2768,"Ġà¦ķà¦®à¦¬":2769,"Ġg":2770,"à¦¨à¦¬à¦¨":2771,"à¦²à¦Ļ":2772,"à¦²à¦®à¦£":2773,"à¦ķà¦¸à¦Ļ":2774,"à¦¬à¦ķà¦°":2775,"Ġà¦¬à¦Ĺà¦²":2776,"Ġà¦¦à¦°à¦¦":2777,"Ġà¦ıà¦Ĩà¦ĩ":2778,"Ġà¦ļà¦Łà¦ķ":2779,"à¦ĵà¦¹":2780,"à¦Ĩà¦ļà¦°à¦£":2781,"Ġà¦ľà¦¨à¦ķ":2782,"à¦¤à¦¨à¦¦":2783,"Ġà¦¬à¦¹à¦®":2784,"à¦®à¦¬à¦Ļ":2785,"à¦łà¦ķà¦ĸ":2786,"Ġà§Ń":2787,"Ġà§¨à§¦":2788,"am":2789,"à§ĩà¦Ĥ":2790,"à¦¦à¦Ń":2791,"à¦ªà¦¹":2792,"à¦¥à¦ªà¦°":2793,"Ġà¦²à¦¹à¦°":2794,"Ġà¦§à¦ª":2795,"à¦ıà¦°à¦ªà¦°":2796,"à¦īà¦¹":2797,"à¦¨à¦¤à¦²":2798,"Ġà¦Ĩà¦¬à¦¶":2799,"Ġà¦ħà¦¸à§İ":2800,"Ġà¦ªà¦¦à¦¬":2801,"à¦¨à¦Łà¦¨":2802,"à¦¨à¦¦à¦£":2803,"ĠT":2804,"Ġà¦ķà¦¦à¦°":2805,"Ġà¦¦à¦¹":2806,"Ġà¦¦à¦°à¦¬":2807,"Ġà¦ħà¦¯à¦¥":2808,"Ġà¦«à¦¨":2809,"à¦«à¦ķ":2810,"à¦¬à¦¨à¦®":2811,"à¦°à¦ķà¦¨":2812,"Ġà¦īà¦ªà¦ļ":2813,"à¦ĩà¦¨à¦Ĺ":2814,"à¦ķà¦¬à¦ķ":2815,"Ġà¦«à¦²à¦¶":2816,"à§°à¦¸":2817,"à¦·à§Łà¦ķ":2818,"à¦®à¦Ľà¦®":2819,"ay":2820,"à§ĩà§Ĺ":2821,"Ġà¦Ĩà¦¦à¦²":2822,"à¦Ľà¦¯":2823,"Ġà¦ıà§ľ":2824,"à¦ľà¦ªà¦¥":2825,"à¦·à¦§":2826,"Ġà¦ħà¦ªà¦¦":2827,"à¦¬à¦¨à¦ĩ":2828,"Ġà¦Łà¦ª":2829,"à¦Ĩà¦°à¦ĵ":2830,"à¦¬à¦²à¦¬":2831,"Ġà¦īà¦¦à¦Ĺ":2832,"à¦Ĺà¦¤à¦ķ":2833,"Ġà¦ķà¦®à¦Ľ":2834,"à¦°à¦®à¦¶à¦ĩ":2835,"à¦Ĩà¦§à¦Ł":2836,"à¦¯à¦ļà¦°":2837,"à¦®à¦§à¦¨":2838,"à§ĢâĢĿ":2839,"Ġà¦¹à¦ĩà¦¬":2840,"Ġà¦ħà¦¯à¦¤":2841,"à¦¹à¦ª":2842,"à¦¹à¦Ń":2843,"Ġà¦ıà¦ķà¦«":2844,"à¦¼à¦¾?":2845,"Ġà¦ªà¦°à¦¬":2846,"Ġà¦ħà¦¨à¦°":2847,"Ġà¦ıà¦ĩà¦®":2848,"à¦¤à¦¨à¦Ń":2849,"Ġà¦īà¦¤à¦Ļ":2850,"Ġà¦ħà¦¶à¦°":2851,"Ġà¦¬à¦īà¦ķ":2852,"à¤°":2853,"à¦¬à¦®à¦ŀ":2854,"à¦ķà¦§":2855,"à¦®à¦®à¦°":2856,"Ġà¦ķà¦Ń":2857,"Ġà¦¸à¦¶à¦¸":2858,"Ġà¦ªà¦¬à¦¨":2859,"à¦ĩà¦¹":2860,"à¦ĩà¦¨à¦¬":2861,"Ġà¦¦à¦²à¦¬":2862,"à¦ªà¦¤à¦¨":2863,"à¦¶à¦§":2864,"à¦·à¦¬à¦°":2865,"Ġà¦ļà¦¬":2866,"à¦łà¦¦":2867,"Ġà¦²à¦¯":2868,"Ġà¦²à¦¬":2869,"à¦īà¦Ĺ":2870,"à¦ķà¦²à¦¨":2871,"Ġà¦ħà¦ķà¦¸":2872,"ul":2873,"à§į-":2874,"à¦¸à¦ĺ":2875,"Ġà¦¹à¦ĩà¦¤":2876,"à¦¶à¦ļ":2877,"à¦§à¦ª":2878,"Ġà¦Ńà¦²":2879,"Ġà¦ıà¦ķà¦ĺ":2880,"Ġà¦²à¦¹à¦®":2881,"à¦ªà¦°à¦ķ":2882,"Ġà¦¸à¦¬à¦ĸ":2883,"à¦°à¦®à¦°":2884,"Ġà¦ķà¦²à¦¸":2885,"à¦¨à¦¬à¦¦":2886,"à¦®à¦£à¦ķ":2887,"Ġà¦¶à¦¤à¦§à¦¨":2888,"à¦¿!âĢĻ":2889,"ha":2890,"ĠN":2891,"à¦¬à¦ķà¦Ł":2892,"à¦¼à§Ĥ":2893,"à¦¼à§Ģ,":2894,"à¦®à¦ĺ":2895,"à¦®à¦īà¦¦":2896,"à¦ĸà¦ĩ":2897,"à¦¹à¦£":2898,"Ġà¦°à¦¡":2899,"à¦ĵà§ľ":2900,"à¦¼à¦¿âĢĶ":2901,"à¦¬à¦°à¦²":2902,"à¦Ĩà¦Ł":2903,"Ġà¦ħà¦°à¦¨":2904,"à¦¸à¦¬à¦ĸ":2905,"Ġà¦īà¦ªà¦ľ":2906,"Ġà¦īà§İà¦ªà¦¤":2907,"Ġà¦ħà¦ķà¦ªà¦Ł":2908,"Ġà¦¦à¦¶à¦®":2909,"ac":2910,"ot":2911,"ĠC":2912,"à¦²à¦Ĺà¦°":2913,"à¦¬à¦ľà¦Ĺà¦¤":2914,"à¦®à¦°à¦ķ":2915,"Ġà¦¦à¦¹à¦¨":2916,"Ġà¦ıà¦ľà¦¨":2917,"à¦ĸà¦ĵ":2918,"à¦§à¦Ĺ":2919,"à¦ļà¦¤à¦²":2920,"Ġà¦Ľà¦®à¦Ľà¦®":2921,"Ġà¦Ĩà¦®à¦¦":2922,"Ġà¦ĺà¦°à¦¬":2923,"Ġà¦®à¦¨à¦¤":2924,"à¦īà¦ªà¦¨":2925,"Ġà¦Ŀà¦Łà¦ķ":2926,"à¦ħà¦¨à¦¨":2927,"à¦ıà¦ķà¦¸à¦Ļ":2928,"Ġà¦Ĩà¦¹à¦°à¦£":2929,"im":2930,"à¦¤à¦ķà¦°":2931,"à¦¯à¦¸à¦¨":2932,"à¦®à¦Ļ":2933,"Ġà¦ªà¦Łà¦²":2934,"à¦¦à¦¬à¦¤":2935,"à¦¶à¦§à¦°":2936,"Ġà¦ļà¦ķà¦²":2937,"Ġà¦²à¦¸":2938,"Ġà¦ĵà¦²":2939,"à§Ĥ-":2940,"à¦°à¦£à¦Ń":2941,"à§ģà¦ģà¥¤":2942,"à¦¨à¦¬à¦¸à¦®":2943,"à¦®à¦£à¦°":2944,"à§§à§¦":2945,"Ġà¦¶à¦¹à¦°à¦¤à¦²":2946,"æŃĵæŃĵæŃĵæŃĵ":2947,"à¦°à¦ĺà¦°":2948,"à¦¬à¦¸à¦¨":2949,"à¦®à¦ļà¦°":2950,"Ġà¦ķà¦®à¦¤":2951,"Ġà¦®à¦Ļà¦²":2952,"Ġà¦ıà¦¶":2953,"Ġà¦¤à§İ":2954,"Ġà¦¹à¦ľà¦®":2955,"à¦¼à§ĩà¥¤âĢĿ":2956,"à¦¹à¦ļà¦°":2957,"Ġà¦ľà¦²à¦ķ":2958,"Ġà¦ıà¦ķà¦Ń":2959,"Ġà¦ĸà¦¤à¦®":2960,"à¦¬à¦¨à¦¦":2961,"Ġà¦Ĩà¦Ľà§ľ":2962,"à¦ķà¦¤à¦ķ":2963,"Ġà¦ħà¦§à¦®":2964,"Ġà¦«à¦²à¦¸":2965,"Ġà¦Ĩà¦ĩà¦¸à¦ķ":2966,"à¦¯à¦¸à¦®":2967,"Ġà¦ķà¦¨à¦Ł":2968,"Ġà¦¸à¦ľà¦²":2969,"Ġà¦¸à§ľà¦ķ":2970,"à¦¦à¦®à¦¯":2971,"Ġà¦®à¦Ł":2972,"à¦Ľà¦¦":2973,"à¦¶à¦ľ":2974,"à¦§à¦¯":2975,"à¦§à¦¨à¦¬":2976,"à¦¼à¦¾!":2977,"Ġà¦¬à¦²à¦°":2978,"Ġà¦īà¦¬":2979,"Ġà¦ĸà¦Łà¦ķ":2980,"à¦°à¦£à¦ķ":2981,"à¦°à¦£à¦Ĺ":2982,"à¦¸à¦¬à¦¶":2983,"à¦¤à¦¨à¦¶":2984,"à¦ıà¦ĩà¦Ń":2985,"Ġà¦ķà¦¬à¦ļ":2986,"Ġà¦ĩà¦¨à¦ľ":2987,"Ġà¦ħà¦ªà¦°à¦¦":2988,"Ġà¦ıà¦¨à¦ľ":2989,"à¦°à¦®à¦£à¦ķ":2990,"Ġà¦Ĺà¦£à¦ªà¦°":2991,"Ġbe":2992,"ir":2993,"ter":2994,"à¦ķà¦¤à¦°":2995,"à¦¯à¦Łà¦ķ":2996,"à¦¯à¦ªà¦Ł":2997,"à¦¼à§ĭ,":2998,"à¦Łà¦ķà¦°":2999,"à¦ľà¦¹":3000,"à¦Ĺà¦²à¦ķ":3001,"Ġà¦Ĺà¦ł":3002,"Ġà¦¥à¦¤":3003,"Ġà¦«à¦²à¦¤":3004,"Ġà¦¬à¦²à¦²à¦¤":3005,"à§Įà¥¤":3006,"Ġà¦ħà¦¸à¦®à¦¯":3007,"à¦¬à¦ªà¦¤":3008,"à¦²à¦¨à¦ķ":3009,"Ġà¦Ĩà¦§à¦ĺà¦£":3010,"à¦¬à¦ķà¦¦":3011,"à§§à§¨":3012,"Ġà¦Ĺà§ľà¦¤":3013,"à¦¬à¦Ĺà¦¤":3014,"Ġà¦ķà¦¬à¦²":3015,"Ġà¦¸à¦ļà¦ķ":3016,"Ġà¦ıà¦¹":3017,"à¦ľà¦ĸà¦¬à¦°":3018,"à¦¼à§ĩ;":3019,"à¦Ĺà¦°à¦®":3020,"à¦·à¦²":3021,"à¦ļà¦¦":3022,"Ġà¦ıà¦ķà¦Ŀ":3023,"à¦°à¦£à¦¬":3024,"Ġà¦¸à¦¬à¦¥":3025,"Ġà¦Ĩà¦¸à¦®":3026,"Ġà¦ħà¦¤à¦Ł":3027,"Ġà¦·à¦·":3028,"à§İà¦ªà¦°à¦¤":3029,"Ø§":3030,"Ġre":3031,"à¦¬à¦ªà¦¨":3032,"à¦¦à¦°à¦®":3033,"Ġà¦¦à§ľ":3034,"à¦ªà¦Ń":3035,"à¦¥à¦°à¦Ł":3036,"Ġà¦¥à¦°":3037,"à¦¾à¦ģ?":3038,"Ġà¦§à§ľ":3039,"Ġà¦§à¦ķà¦²":3040,"à¦°à¦¤à¦¨":3041,"Ġà¦ħà¦¨à¦¸":3042,"à§İà¦¬":3043,"à¦¤à¦°à¦¬":3044,"à¦°à¦®à¦¤":3045,"à¦ķà¦°à¦¶":3046,"Ġà¦ħà¦¸à¦Ń":3047,"Ġà¦¬à¦°à¦¦":3048,"à¦ħà¦¹":3049,"à¦®à§Łà¦ķà¦°":3050,"à¦¸à¦¹à¦¦":3051,"à¦Īà¦¨":3052,"à¦ħà¦¥à¦ļ":3053,"Ġ=":3054,"ĠL":3055,"à§ģ!âĢĿ":3056,"à¦¼âĢĶâĢľ":3057,"Ġà¦¬à¦ķà¦¬à¦ķ":3058,"à¦¸à¦ŀ":3059,"à¦¦à¦®à¦¨":3060,"Ġà¦¨à¦®à¦¨":3061,"Ġà¦®à¦¦à¦¨":3062,"Ġà¦®à¦¸à¦²":3063,"Ġà¦ıà¦¨à¦ķ":3064,"à¦ļà¦Ĺ":3065,"Ġà¦Ĺà¦ļ":3066,"Ġà¦¸à¦®à¦¤à¦²":3067,"à¦¬à¦°à¦¹":3068,"à¦¿,âĢĻ":3069,"à¦°à¦¬à¦®à¦¯":3070,"Ġà¦ĵà¦łà¦²":3071,"à¦ıà¦ĩà¦Ł":3072,"Ġà¦¬à¦ĩà¦ķ":3073,"à¦Łà¦¬à¦ĩ":3074,"Ġto":3075,"à¦§à¦¹à§Ł":3076,"Ġ\"":3077,"à¦¤à¦ľà¦¨":3078,"à¦¼à¦ĥà¥¤":3079,"Ġà¦ķà¦¶":3080,"Ġà¦ķà¦¹":3081,"à¦£à¦§":3082,"Ġà¦¶à¦°à¦¬à¦¤":3083,"à¦ĵà¦ª":3084,"Ġà¦ıà¦ķà¦²à¦¬":3085,"à¦Ńà¦ľ":3086,"Ġà¦«à¦°à¦®":3087,"Ġà¦ħà¦¨à¦¡":3088,"âĢĿ,":3089,"Ġà¦Łà¦¨à¦Łà¦¨":3090,"Ġà¦Ĩà¦¸à¦ķ":3091,"à¦Ĩà¦¦à¦°":3092,"Ġà¦¬à¦¨à¦¸":3093,"à¦Ĺà¦¤à¦®":3094,"!âĢĿâĢĶ":3095,"Ġà¦ªà¦¦à¦§":3096,"à§§à§®":3097,"à¦¦à¦°à¦®à¦¹à¦²":3098,"à¦Ĭ":3099,"à¦¨à¦Ńà¦°":3100,"à¦²à¦ĺ":3101,"à¦¯à¦Ĺà¦¤":3102,"à¦¼âĢĻ":3103,"à¦¦à¦®à¦¸":3104,"Ġà¦®à§Łà¦²":3105,"âĢ¢":3106,"à¦¡à¦īà¦ĩ":3107,"Ġà¦Ĺà¦«":3108,"à¦£à¦§à¦°":3109,"âĢĶâĢĻ":3110,"à¦ĺà¦¸":3111,"à¦°à¦®à¦¬à¦°":3112,"à¦ħà¦ŀ":3113,"Ġà¦īà¦ªà¦¬":3114,"à¦°à¦ľà¦¬":3115,"Ġà¦ħà¦ªà¦Ľà¦¨":3116,"Ġà¦¸à¦¹à¦ļà¦°":3117,"Ġà¦ĵà¦ĩà¦Ł":3118,"à¦¤à¦²à¦Ł":3119,"Ġà¦¶à¦¤à¦¬à¦°":3120,"à¦°à¦Ĺà¦£":3121,"Ġà¦¦à¦²à¦Ł":3122,"Ġà¦ļà¦Łà¦ªà¦Ł":3123,"Ġà§¨à§§":3124,"Ġà¦Ńà¦°à¦¤à¦¬":3125,"ri":3126,"Ġis":3127,"à¦°à¦ļà¦¨":3128,"à¦®à§İ":3129,"Ġà¦ķà¦ľà¦¨":3130,"Ġà¦ķà¦ļà¦ķ":3131,"Ġà¦¬à¦Ľ":3132,"Ġà¦®à¦°à¦²":3133,"Ġà¦®à¦ĵà¦²":3134,"Ġà¦ıà¦¤à¦¬à¦¡":3135,"Ġà¦¤à¦ªà¦¨":3136,"à¦Ĺà¦¹":3137,"Ġà¦ħà¦ĸ":3138,"à§Łà¦Ń":3139,"Ġà¦Ĩà¦®à¦¤":3140,"à¦¾à¦ģ-":3141,"Ġà¦²à§Ł":3142,"Ġà¦«à¦¤":3143,"Ġà¦«à¦¸à¦ķ":3144,"à§İà¦¸à¦²":3145,"à¦ľà¦¨à¦¦":3146,"à¦īà¦£":3147,"Ġà¦ħà¦¬à¦¸à¦¨":3148,"Ġà¦ħà¦¸à¦¤":3149,"à¦¨à¦¬à¦¸":3150,"Ġà¦ķà¦®à¦ĩ":3151,"Ġà¦¬à¦ĩà¦ĸ":3152,"à§°à¦ľ":3153,"Ġà¦¹à¦ĩà¦ļà¦ĩ":3154,"Ġà¦ĸà¦¸à¦¡":3155,"ation":3156,"em":3157,"à¦¨à¦ªà¦¤":3158,"à§ģ:":3159,"à¦¬à¦¦à¦¨":3160,"à¦®à¦·":3161,"à¦ĩà¦®à¦¨":3162,"Ġà¦®à¦°à¦¦":3163,"Ġà¦®à§Łà¦¦":3164,"à¦¹à¦ľà¦¨à¦ķ":3165,"à¦¥à¦ĩ":3166,"Ġà¦¶à¦Ł":3167,"Ġà¦¬à¦²à¦ļ":3168,"Ġà¦ĵà¦²à¦Ł":3169,"Ġà¦ĸà§ľ":3170,"à¦°à¦¤à¦ķ":3171,"à¦ıà¦Ľ":3172,"Ġà¦ĩà¦īà¦Ł":3173,"Ġà¦ħà¦¬à¦¯":3174,"Ġà¦ħà¦¸à¦¨":3175,"à¦¾à¦Ĥ,":3176,"Ġà¦īà¦¦à¦ĺ":3177,"Ġà¦ªà¦¥à¦ĩ":3178,"Ġà¦ħà¦Ńà¦¦":3179,"à¦ªà¦¦à¦¬":3180,"âĢ¦âĢĻ":3181,"Ġà¦Ĺà¦£à¦¨":3182,"à¤¿":3183,"éŁ¿éŁ¿éŁ¿éŁ¿éŁ¿éŁ¿éŁ¿éŁ¿éŁ¿éŁ¿éŁ¿éŁ¿éŁ¿éŁ¿éŁ¿éŁ¿":3184,"ºçľ":3185,"à¦¨à¦«":3186,"à¦¤à¦ªà¦ķ":3187,"à¦¼à§ģà¥¤":3188,"Ġà¦¬à¦ļ":3189,"Ġà¦¬à¦¦à¦¨":3190,"Ġà¦¬à¦¹à¦°":3191,"Ġà¦¬à§İà¦¸":3192,"Ġà¦ªà¦ľ":3193,"Ġà¦¨à¦¬à¦¬":3194,"Ġà¦®à¦Īà¦¨":3195,"Ġà¦¤à§İà¦ªà¦°à¦¤":3196,"à¦ĸà¦¦":3197,"à¦·à¦¶":3198,"à¦ļà¦²à¦¤":3199,"Ġà¦Ĺà¦£à¦¤":3200,"Ġà¦ıà¦ķà¦®à¦¤":3201,"à¦ľà¦¨à¦¬":3202,"à¦°à¦¬à¦ļ":3203,"Ġà¦ĩà¦¬":3204,"à¦²à¦ķà¦¦":3205,"à¦°à¦²à¦¯":3206,"à¦¶à¦¨à¦Ł":3207,"à¦®à¦ķà¦°à¦£":3208,"Ġà¦ħà¦ľà§Ł":3209,"Ġà¦īà§İà¦ªà¦¨":3210,"Ġà§®":3211,"à¦ķà¦ľà¦¨à¦ķ":3212,"Ġà¦īà§İà¦¸à¦¬à¦®":3213,"ro":3214,"·çľ":3215,"à§ĩà¦ĥ":3216,"à¦¯à¦¤à¦°":3217,"à¦¬à¦¶à¦ķ":3218,"Ġà¦Ĩà¦¹à¦¸":3219,"Ġà¦¹à¦¡":3220,"à¦·à¦¹":3221,"à¦¡à¦ĩ":3222,"Ġà¦¯à¦¬à¦¨":3223,"Ġà¦ľà§Łà¦¨":3224,"Ġà¦Ńà¦¬à¦¤":3225,"à¦ĵà¦Ĺ":3226,"Ġà¦Ĩà¦®à¦ľ":3227,"à¦Ļà¦Ľ":3228,"Ġà¦§à¦¬":3229,"à¦¤à¦°à¦¸":3230,"à¦¼,âĢĿ":3231,"à¦ĥâĢĵ":3232,"Ġà¦Īà¦²":3233,"Ġà¦¶à¦¤à¦ªà¦¥":3234,"à¦ľà¦²à¦Ń":3235,"Ġà¦¤à¦²à¦¦":3236,"Ġà§§à§¯":3237,"Ġà§§à§¯à§¯à§¦":3238,"ºçľºçľ":3239,"ver":3240,"à§¯à§":3241,"à¦²à¦Ŀ":3242,"à¦¬à¦®à¦¯":3243,"à¦¶à¦¬à¦¨":3244,"à¦·à¦°à¦¤":3245,"à¦¡à¦ľ":3246,"à¦¹à¦ķà¦°":3247,"Ġà¦°à¦Ł":3248,"Ġà¦°à¦ª":3249,"Ġà¦īà¦¹":3250,"à¦°à¦£à¦ĩ":3251,"à¦Ĩà¦Ľ":3252,"Ġà¦ĩà¦ĵà¦°":3253,"Ġà¦Ĩà¦²à¦¸":3254,"Ġà¦Ĩà¦²à¦ªà¦¨":3255,"à¦°à¦¸à¦¹":3256,"Ġà¦īà¦ªà¦¡":3257,"à¦¤à¦¬à¦ķ":3258,"à¦¨à¦¬à¦¸à¦Ń":3259,"à¦¼à§ĭ-":3260,"Ġà¦«à¦²à¦ª":3261,"à§Ģà¥¤âĢĻ":3262,"à§°à¦ķ":3263,"à¦ıà¦ķà¦¸":3264,"Ġà§§à§«":3265,"à¦Ĺà¦®à¦ŀ":3266,"à¦ıà¦ĸà¦¨à¦ĩ":3267,"à¦ıà¦ĸà¦¨à¦ĵ":3268,"tic":3269,"à§¦à§¦à§¦":3270,"âĢĵâĢĵâĢĵâĢĵ":3271,"·çľ·çľ":3272,"ad":3273,"à¦¤à¦°à¦¤":3274,"à¦ķà§Ł":3275,"à¦¬à¦¸à¦®":3276,"à¦Łà¦¶":3277,"à¦ĩà¦ŀ":3278,"à¦·à¦ªà¦¥":3279,"Ġà¦ħà¦ĸà¦£":3280,"à¦¥à¦Ń":3281,"Ġà¦¶à¦°à¦¦":3282,"Ġà¦°à¦ĺ":3283,"Ġà¦ĸà¦¯":3284,"Ġà¦ĸà¦ª":3285,"Ġà¦¬à¦²à¦²à¦Ĩà¦®":3286,"Ġà¦ķà¦¥à¦ķ":3287,"à¦ĺà¦¬":3288,"à¦ĺà¦°à¦Ł":3289,"Ġà¦¬à¦¸à¦Ľ":3290,"à¦ķà¦°à¦Ł":3291,"à¦²à¦¬à¦§":3292,"à¦ĩà¦¨à¦¸":3293,"Ġà¦ħà¦®à¦Ļ":3294,"Ġà¦īà¦ªà¦°à¦¨":3295,"à¦Ŀà¦²à¦®à¦²":3296,"à¦Ĺà¦¬à¦Ĺ":3297,"à¤¤":3298,"Ġà¦¸à¦°à¦¸à¦¤":3299,"à¦ĭà¦£":3300,"Ġà¦Łà¦²à¦Łà¦²":3301,"à¦¡à¦īà¦ĩà¦ļ":3302,"ru":3303,"à¦°à¦®à¦¨":3304,"à¦®à¦ĵà¦¯":3305,"à¦¸à¦¶":3306,"à¦ªà¦²à¦ķ":3307,"Ġà¦¹à¦ľ":3308,"à¦ľà¦ĸ":3309,"Ġà¦ħà¦ķà¦²":3310,"Ġà¦ħà¦ĺà¦Łà¦¨":3311,"à¦§à¦Ĺà¦®":3312,"à¦¹à¦°à¦¨":3313,"Ġà¦ľà¦ĺà¦¨":3314,"à¦Ńà¦²":3315,"à¦¼à¦¾âĢĻ":3316,"Ġà¦ĵà¦§":3317,"Ġà¦«à¦²à¦¨":3318,"Ġà¦ĸà¦°à¦Ĺ":3319,"à¦°à¦£à¦¨":3320,"Ġà¦Łà¦¬":3321,"à¦Ĩà¦īà¦Ł":3322,"à¦°à¦®à¦¬":3323,"à¦·à¦£à¦®":3324,"à¦°à¦¥à¦ķ":3325,"à¦°à¦¸à¦®":3326,"Ġà¦ķà¦²à¦¹":3327,"Ġà¦¸à¦¹à¦ľà¦²à¦Ń":3328,"Ġà¦ķà¦¤à¦ĩ":3329,"Ġà¦ĩà¦¨à¦²":3330,"à¦¬à¦¬à¦Ļ":3331,"à¦°à¦ľà¦¨à¦¨":3332,"Ġà¦¦à¦¶à¦ľà¦¨":3333,"à¦¡à¦¬à¦Ń":3334,"Ġà¦ľà§Łà¦Ĺ":3335,"ĠĠĠĠĠĠĠĠ":3336,"Ġà¦¨à¦ľà¦°à¦¦":3337,"Ġà¦¥à¦¤à¦®à¦¤":3338,"ly":3339,"à¦°à¦ĵà¦¯":3340,"à§į!":3341,"à¦²à¦ķà¦Ł":3342,"à¦ķà¦¹":3343,"à¦¯à¦Ŀ":3344,"à¦¸à¦®à¦²":3345,"à¦Łà¦°à¦Ĺ":3346,"à§ĢâĢĻà¥¤":3347,"à¦ľà¦¤à¦¨":3348,"à¦ľà¦ķà¦¨":3349,"à¦ĸà¦Ń":3350,"à¦¡à¦«":3351,"à¦¹à¦¨à¦ķ":3352,"Ġà¦ľà¦Łà¦²":3353,"Ġà¦ľà¦ĸà¦®":3354,"Ġà¦Ńà¦ľ":3355,"à¦Ńà¦¬à¦¨":3356,"Ġà¦īà¦®":3357,"Ġà¦¸à¦¬à¦²":3358,"à¦·à¦£à¦¶":3359,"à¦¨à¦ĵà¦ķ":3360,"à¦ħà¦Ł":3361,"Ġà¦ĵà¦ĩà¦ĸ":3362,"Ġà¦Ĺà¦Ńà¦°":3363,"à¦¬à¦¶à¦¤":3364,"Ġà¦¬à¦īà¦Ł":3365,"à¦¾âĢĿà¥¤":3366,"ess":3367,"Ġà¦ħà¦¬à¦¤à¦°à¦£":3368,"Ġà¦ľà¦¨à¦¸à¦ļ":3369,"à¦¨à§Łà¦Ń":3370,"ag":3371,"od":3372,"à¦¨à¦ľà¦Ł":3373,"à¦¨à¦ľà¦¨à¦ķ":3374,"à¦²à¦¥":3375,"à¦¯à¦ĸ":3376,"à¦¯à¦ªà¦°":3377,"à¦¯à¦¬à¦¨":3378,"à§ĭâĢĿ":3379,"Ġà¦¸à¦ĵà¦¯":3380,"Ġà¦Ĩà¦ĩà¦¸":3381,"à¦¦à¦°à¦¬":3382,"Ġà¦ħà¦Ĺà¦¤":3383,"Ġà¦«à¦¸":3384,"à¦ŀà¦ª":3385,"à¦ıà¦ķà¦¤":3386,"Ġà¦ķà¦¥à¦ŀ":3387,"à¦¤à¦°à¦ª":3388,"Ġà¦Ĩà¦²à¦¨":3389,"à§Īà¦ĥà¥¤":3390,"Ġà¦Ŀà¦Ļ":3391,"Ġà¦ħà¦¬à¦®":3392,"à¦ĺà¦Ĺ":3393,"à¦°à¦¥à¦®à¦¦":3394,"à¦ħà¦Ĺ":3395,"Ġà¦ħà¦ªà¦¸":3396,"Ġà¦ħà¦ªà¦²à¦ķ":3397,"Ġà¦ķà¦¬à¦ľ":3398,"à§ģà¦ĥà¥¤":3399,"Ġà¦ıà¦ķà¦ĩà¦¸à¦Ļ":3400,"Ġà¦ķà¦ĸà¦¨à¦ĵà¦ĩ":3401,"Ġà¦¦à¦²à¦¬à¦¦":3402,"ik":3403,"ĠÐ":3404,"à¦¤à¦¦à¦¨":3405,"à¦¤à¦§à¦¨":3406,"à¦ķà¦®à¦²":3407,"à§ģà§į":3408,"à¦¬à¦īà¦¦":3409,"à¦¼à§ģ-":3410,"à¥¤âĢĺ":3411,"Ġà¦ªà¦ª":3412,"Ġà¦ªà¦łà¦¨":3413,"Ġà¦®à¦«à¦¸":3414,"à¦¶à¦Ńà¦ķ":3415,"Ġà¦ħà¦¤à¦¨":3416,"à¦ļà¦ķà¦°":3417,"à¦¥à¦¯":3418,"à¦¥à¦ªà¦¤":3419,"Ġà¦ľà¦ª":3420,"Ġà¦°à¦£à¦ķ":3421,"Ġà¦Ĩà¦®à¦¬":3422,"à¦¾à¦ģà¥¤âĢĻ":3423,"Ġà¦Łà¦Ĺà¦¬à¦Ĺ":3424,"à¦ĺà¦¤à¦®":3425,"à¦ķà¦°à¦¨":3426,"à¦¯à¦¬à¦ĩ":3427,"Ġà¦ħà¦ªà¦ļà¦¯":3428,"à¦ıà¦ĩà¦¬":3429,"Ġà¦ķà¦®à¦ªà¦ķ":3430,"Ġà¦ĵà¦°à¦«":3431,"?âĢĿâĢĶ":3432,"à¤¨":3433,"à¦°à¦«à¦¤":3434,"Ġà§§à§¯à§¨":3435,"Ġà§§à§¯à§©":3436,"à§«à§Ń":3437,"à¦ıà¦®à¦¨à¦ķ":3438,"tive":3439,"à¦ķà¦ĸà¦¨à¦ĵ":3440,"Ġfor":3441,"Ġà¦¨à¦¬à¦¬à¦§":3442,"nt":3443,"ĠG":3444,"Ġy":3445,"ĠØ":3446,"à§ĩâĢĿâĢĶ":3447,"à¦¨à¦®à¦¯":3448,"à¦¯à¦ľà¦¨à¦ķ":3449,"à¦¬à¦ĸ":3450,"à¦¬à¦§à¦°":3451,"Ġà¦¬à¦¦à¦°":3452,"Ġà¦¸à¦ļà¦°":3453,"à¦¸à§İ":3454,"Ġà¦Ĩà¦ĵà¦¤":3455,"à¦ªà¦ĸ":3456,"Ġà¦¤à§İà¦ªà¦°":3457,"à¦ĸà¦ª":3458,"Ġà¦ħà¦ĺ":3459,"à¦ĵà¦ĸ":3460,"âĢĻâĢĵ":3461,"à¦°à¦£à¦®à¦¯":3462,"à§İà¦ķà¦°":3463,"à¦ıà¦°à¦ķà¦®":3464,"à¦ıà¦®à¦ľ":3465,"Ġà¦ĩà§Ł":3466,"à¦°à¦®à¦ľ":3467,"à¦ĥ!":3468,"à¦¬à¦ªà¦ķ":3469,"à¦¤à¦ķà¦¡":3470,"Ġà§§à§¯à§¦":3471,"Ġà¦Ńà¦Ĺà¦¬à¦¦":3472,"Ġà¦®à¦Ĺà¦§":3473,"âĢķâĢķâĢķâĢķ":3474,"Ġà¦§à¦¬à¦§à¦¬":3475,"Ð°":3476,"à¦¤à¦«":3477,"Ġà¦Ĩà¦ªà¦¦":3478,"Ġà¦Ĩà¦ĩà¦Ł":3479,"à¦Łà¦ļ":3480,"à¦Ľà¦ĩ":3481,"à¦ľà¦§à¦°":3482,"âĢī":3483,"à¦Ĺà¦Ńà¦Ļ":3484,"Ġà¦ķà¦°à¦ļ":3485,"à¦¡à¦ĵ":3486,"à¦¹à¦®à¦¯":3487,"à¦£à¦¶":3488,"à¦Ńà¦®":3489,"à¦Ńà¦Ĺ":3490,"à¦łà¦¬":3491,"Ġà¦ĵà¦®à¦°":3492,"à¦°à¦£à§Łà¦¨":3493,"Ġà¦Łà¦²à¦¤":3494,"à¦°à¦®à¦§":3495,"Ġà¦ħà¦¸à¦Ļ":3496,"à¦¤à¦®à¦¶":3497,"Ġà¦ĸà¦¬à¦°à¦¦":3498,"à¦ķà¦ķà¦¥":3499,"Ġà¦¸à¦¹à¦ľà¦Ń":3500,"Ġà¦ªà¦°à¦®à¦¸à¦¤":3501,"Ġà¦Ĩà¦ĩà¦¨à¦¸":3502,"Ġà¦ľà¦Ĺà¦¦":3503,"Ġwh":3504,"Ġà¦¨à§ľà¦¬à§ľ":3505,"he":3506,"ĠH":3507,"à¦¨à¦ĵà¦¯":3508,"à¦¨à¦ĺà¦°":3509,"à¦¤à§ľ":3510,"à¦²à¦ĵà¦¯":3511,"à¦¯à¦°à¦¶":3512,"à¦¯à¦®à¦£":3513,"Ġà¦ķà¦®à¦¨":3514,"Ġà¦¸à¦Ĺ":3515,"Ġà¦¸à§İà¦ķ":3516,"à¦¸à¦ł":3517,"à¦ĩà¦ħà¦ķ":3518,"Ġà¦¨à¦Ĺà¦¦":3519,"Ġà¦®à¦ĩ":3520,"Ġà¦ľà¦®à¦ķ":3521,"Ġà¦īà¦¯":3522,"Ġà¦īà¦¸à¦ķ":3523,"Ġà¦ĵà¦¬":3524,"à§ľà¦Ļ":3525,"Ġà¦¬à¦²à¦²à¦ķ":3526,"à¦¬à¦¨à¦¦à¦°":3527,"Ġà¦Łà¦¨":3528,"Ġà¦¡à¦ľà¦¨":3529,"Ġà¦®à¦¤à¦¬":3530,"à¦ĺà§ľ":3531,"Ġà¦Ĩà¦ľà¦¬":3532,"à¦°à¦¸à¦Ń":3533,"à¦¨à¦ĵà¦®à¦¤":3534,"Ġà¦ľà¦²à¦ĸ":3535,"à¦®à¦²à¦Ĺ":3536,"Ġà¦ħà¦§à¦¸":3537,"Ġà¦ľà¦®à¦Ľ":3538,"Ġà¦¬à¦ĩà¦®":3539,"Ġà¦ĩà¦¨à¦Ł":3540,"à¦ªà¦ķà¦Ń":3541,"à¦°à¦ļà¦²à¦¨":3542,"Ġà¦¶à¦¤à¦¶":3543,"Ġà¦¶à¦¤à¦ķà¦°":3544,"à¦Łà¦¤à¦ĩ":3545,"à§§à§Ń":3546,"à¦°à¦®à¦£à¦¬":3547,"Ġà§§à§¯à§¬":3548,"à¦¾âĢĿâĢĶ":3549,"Ġà¦°à¦£à¦ľ":3550,"Ġà¦¦à¦Ĺà¦¦à¦Ĺ":3551,"Ġà¦ķà¦¨à¦ķà¦¨":3552,".âĢĿ":3553,"ce":3554,"à¦¨à¦ļà¦°":3555,"à¦¤à¦§":3556,"à¦®à¦ªà¦¤":3557,"à§ĭâĢĻà¥¤":3558,"Ġà¦¬à¦¤":3559,"à¥ĩ":3560,"à¦Łà¦§à¦°":3561,"Ġà¦¤à¦°à¦¬":3562,"à§Ģ:":3563,"Ġà¦ħà¦ķà¦°":3564,"à¦ļà¦¤à¦°":3565,"à¦¥à¦ĵ":3566,"à¦¥à¦¬à¦¹":3567,"Ġà¦ľà¦ŀ":3568,"Ġà¦Ńà¦¸":3569,"à¦®à¦¨à¦ķ":3570,"Ġà¦ıà¦ĩà¦ļ":3571,"à¦«à§ľ":3572,"à¦Ŀà¦ŀ":3573,"ĠâĢĺâĢĺ":3574,"à¦°à¦¬à¦¸":3575,"à¦Ĩà¦°à¦ľ":3576,"Ġà¦ĩà¦¡":3577,"Ġà¦ĩà¦¨à¦ķ":3578,"à§Ī-":3579,"Ġà¦Ŀà¦ª":3580,"à¦·à¦£à¦ĵ":3581,"à¦¬à¦¤à¦®":3582,"à¦ħà¦¬à¦¸":3583,"Ġà¦¸à¦¨à§İ":3584,"à¦ªà¦¦à¦¸":3585,"à¦¾âĢĶâĢĺ":3586,"à¦¸à¦¨à¦ķ":3587,"Ġà¦ĵà¦ĩà¦¸à¦¬":3588,"Ġà¦ĵà¦ĩà¦°à¦ķà¦®":3589,"à¦·à¦ķà¦ķ":3590,"Ġà¦ĩà¦¨à¦Ń":3591,"Ġà¦Ĩà¦¦à¦®":3592,"à¦¾âĢĻâĢĶ":3593,"Ġà¦ļà¦®à¦ķà¦ª":3594,"à¦¾à¦ĥ!":3595,"est":3596,"à¦ķà¦ľà¦®à¦ķ":3597,"ÂŃÂŃÂŃÂŃ":3598,"rom":3599,"ĠW":3600,"à¦¨à¦®à¦¤":3601,"Ġà¦¬à¦Ĺ":3602,"Ġà¦¸à¦°à¦¤":3603,"Ġà¦Ĩà¦ľà¦¨":3604,"à¦Łà¦¯":3605,"à¦Łà¦¡":3606,"à¦Ľà¦¸":3607,"à¦·à¦ķà¦¤":3608,"Ġà¦¬à¦²à¦Ł":3609,"Ġà¦«à¦²à¦ķ":3610,"Ġà¦ªà¦°à¦®à¦¹":3611,"Ġà¦¸à¦®à¦¬à¦¯":3612,"à¦«à¦ª":3613,"Ġà¦Ŀà¦ŀ":3614,"à¦°à¦®à¦ķ":3615,"Ġà¦¢à¦Ļ":3616,"à¦ĥâĢĶ":3617,"à¦Ĺà¦²à¦¬":3618,"à¦¿à¦ĤâĢĻ":3619,"à¦ıà¦ĩà¦°à¦ķà¦®":3620,"à¦¯à¦¤à¦ķ":3621,"Ġà¦ķà¦¤à¦ķà¦Ł":3622,"à¦°à¦ªà¦¥":3623,"à¦¬à¦¸à¦¤":3624,"à§§à§§":3625,"à¦¬à¦ķà¦ķ":3626,"à§įâĢĮ-":3627,"Ġà¦¦à¦²à¦Ĺà¦¤":3628,"Ġà¦¬à§ľà¦¦":3629,"Ġà§¯":3630,"à¦¬à¦®à¦Ļ":3631,"Ġà¦Ķà¦¦":3632,"ab":3633,"up":3634,"à¸":3635,"ĠF":3636,"à¦¨à¦ľà¦°":3637,"à¦¤à¦ªà¦¸":3638,"à¦ķà¦ı":3639,"Ġà¦¸à¦¦à¦¯":3640,"Ġà¦ªà¦ļà¦¨":3641,"à¦¸à¦ĵà¦¯":3642,"Ġà¦Ĩà§Łà¦¤":3643,"Ġà¦¨à¦¬à¦¯":3644,"Ġà¦®à¦ł":3645,"Ġà¦¹à¦ĩà¦¨":3646,"à¦ľà¦ľ":3647,"à¦¶à¦¤à¦ķ":3648,"Ġà¦¶à§Łà¦¤":3649,"Ġà¦°à¦¸à¦¬":3650,"Ġà¦Ľà¦®":3651,"à¦Ļà¦ļ":3652,"Ġà¦ħà¦¨à¦Ń":3653,"âĢĻ;":3654,"à¦¤à¦°à¦ĩ":3655,"à¦¤à¦°à¦ĵ":3656,"Ġà¦Ĩà¦ľà¦®à¦²":3657,"à¦¸à¦¬à¦ľ":3658,"à¦²à¦ķà¦ķ":3659,"à¦Ĺà¦²à¦Ĺà¦ŀ":3660,"à¦ħà¦°à¦£":3661,"Ġà¦ıà¦¤à¦ĸ":3662,"à¦¨à¦¬à¦ķà¦²":3663,"Ġà¦Ĩà¦§à¦Ł":3664,"Ġà¦¬à¦Łà¦¤à¦²":3665,"à¦ķà¦¶à¦ª":3666,"Ġà¦Ĩà¦¹à¦¬":3667,"à¦·à§Łà¦Ĺ":3668,"ere":3669,"end":3670,"à¦¿âĢĿà¥¤":3671,"à¦ĭà¦¤":3672,"ell":3673,"ity":3674,"Ġà¦Ŀà¦Łà¦ªà¦Ł":3675,"Ġà¦Ķà¦°à¦¸à¦ľ":3676,"hak":3677,"if":3678,"ith":3679,"oh":3680,"st":3681,"tu":3682,"ĠO":3683,"Ġr":3684,"Ġì":3685,"à¦°à¦Ĩà¦¨":3686,"à¦¨à¦®à§Ł":3687,"à¦¯à¦¨à¦¤":3688,"à¦¯à¦¦à¦²":3689,"à¦¬à¦¦à¦°":3690,"à¦¼âĢĿ":3691,"à¦®à¦¤à¦¨":3692,"à¦®à¦«à¦²":3693,"à¥¤âĢ¦":3694,"Ġà¦¸à¦²à¦ľ":3695,"Ġà¦ªà§Ł":3696,"à¦¦à¦ļ":3697,"à¦ĩà¦ĵà¦¯":3698,"Ġà¦®à¦ķà¦°à¦¨":3699,"Ġà¦¤à¦¤à¦¬":3700,"à¦¶à¦®à¦£":3701,"à¦¶à¦¤à¦²":3702,"Ġà¦¯à¦®à¦ľ":3703,"Ġà¦Ĺà¦ª":3704,"à¦¥à¦Ł":3705,"Ġà¦ľà¦¬à¦°":3706,"Ġà¦Ńà¦°à¦²":3707,"Ġà¦ıà¦ķà¦ķà¦¥":3708,"à¦łà¦Ĺ":3709,"Ġà¦īà¦¥":3710,"à§ĥ-":3711,"Ġà¦ĸà¦¨à¦¨":3712,"Ġà¦ªà¦°à¦°":3713,"Ġà¦¸à¦®à¦¦":3714,"à¦īà¦Ń":3715,"Ġà¦¸à¦¬à¦¶":3716,"à¦Ĩà¦Ļ":3717,"Ġà¦ĩà¦Ń":3718,"Ġà¦Ĩà¦Ĺà¦¤":3719,"Ġà¦¢à¦ķ":3720,"à¦²à¦¬à¦¶à¦¤":3721,"à¦§à¦¨à¦ĩ":3722,"à¦¤à¦¤à¦®":3723,"à§įâĢĮ,":3724,"à¦¨à¦¸à¦ªà¦Ł":3725,"à¦ľà¦²à¦¦":3726,"Ġà¦Ĩà¦ªà¦²":3727,"à¦¾à¦ģ,âĢĿ":3728,"Ġà§§à§¯à§®":3729,"har":3730,"ĠK":3731,"Ġit":3732,"à§ĩ...":3733,"à¦¨à¦ĺ":3734,"à¦¨à¦ķà¦²":3735,"à¦¼)":3736,"à¦®à¦°à¦¤":3737,"à§ĭâĢĻ,":3738,"Ġà¦¸à§Ł":3739,"Ġà¦Ĩà¦ī":3740,"à¦ĩà¦¸à¦²":3741,"Ġà¦¦à¦²à¦¨":3742,"à¦ªà¦¬à¦¤":3743,"à§ĢâĢĻ,":3744,"Ġà¦¹à¦ª":3745,"Ġà¦¹à¦ĩà¦¯":3746,"à¦¡à¦¦":3747,"à¦§à¦¬à¦¦":3748,"à¦¹à¦Ĺ":3749,"à§Łà¦Ł":3750,"à¦£à¦¶à¦ķ":3751,"à¦¥à¦°à¦Ĺ":3752,"Ġà¦¶à¦°à¦¤":3753,"Ġà¦°à¦Ĺ":3754,"à¦łà¦Ń":3755,"à¦¼à¦¿?":3756,"à¦¬à¦¨à¦¬à¦¤":3757,"à¦¬à¦¨à¦¸à¦Ļ":3758,"à¦ľà¦¨à¦ĵ":3759,"à¦¤à¦°à¦«":3760,"à¦·à¦£à¦¸":3761,"à¦¬à¦²à¦ķ":3762,"Ġà¦īà¦¦à§Ł":3763,"à¦ħà¦¥à¦¬":3764,"à¦¤à¦¬à¦¬":3765,"à¦®à¦¤à¦²":3766,"à¦²à¦¤à¦²":3767,"à¦°à¦¦à¦ķ":3768,"à¦ĩà¦¨à¦«":3769,"Ġà¦Ĩà¦¤à¦¤":3770,"Ġà¦¬à¦ĩà¦ªà¦¤":3771,"Ġà¦īà§İà¦«":3772,"à¦ıà¦ķà¦¦à¦®":3773,"à§§à§«":3774,"à¦ľà¦¬à¦īà¦¦":3775,"Ġà¦¦à¦²à¦¬à¦²":3776,"Ġà¦Ĺà§ľà¦¬":3777,"Ġà¦§à¦¨à¦¸à¦®":3778,"à¦ķà¦¸à¦ľ":3779,"Ġà¦¦à¦®à¦¦à¦®":3780,"à§ĭ!âĢĻ":3781,"Ġà¦ķà§Łà¦²":3782,"à¦¥à¦²à¦ľ":3783,"Ġà¦Ĭà¦·":3784,"Ġà¦Ķà¦·à¦§":3785,"Ð¾":3786,"Ø±":3787,"Ġk":3788,"à§įâĢį":3789,"à¦¬à¦ŀ":3790,"à¦®à¦¥":3791,"à¦®à¦¸à¦¨":3792,"à¦¦à¦°à¦ķ":3793,"Ġà¦¤à¦¨à¦¯":3794,"à¦¶à¦ľà¦¨":3795,"à¦Ĺà¦§":3796,"Ġà¦ħà¦¹à¦®":3797,"à¦§à¦ªà¦°":3798,"Ġà¦Ĺà¦®à¦¨":3799,"Ġà¦Ĺà¦¤à¦°":3800,"à¦¹à¦°à¦ķ":3801,"à¦¹à§Łà¦¤":3802,"à§Łà¦ªà¦°":3803,"à¦¥à¦¶":3804,"à¦Ńà¦Ĺà¦¬":3805,"à¦łà¦ķà¦¦":3806,"Ġà¦Ĩà¦°à¦¶":3807,"Ġà¦²à¦ĩà¦¯":3808,"Ġà¦§à§°":3809,"à¦ªà¦°à¦¶":3810,"Ġà¦®à¦¨à¦ĸ":3811,"à¦¬à¦¨à¦¡":3812,"à¦Ŀà§ľ":3813,"à¦ıà¦¤à¦ķ":3814,"à¦ıà¦¤à¦¦":3815,"à¦ıà¦¸à¦¸":3816,"à¦īà§İà¦¸":3817,"Ġà¦Ĺà¦²à¦Ĺà¦²":3818,"à¦¿à¦ĤâĢĶ":3819,"Ġà¦ħà¦Ńà¦¯":3820,"à¦ĩà¦¨à¦®":3821,"Ġà¦ķà¦¤à¦°à¦ķà¦®":3822,"âĢĮà§į":3823,"Ġà¦Ĩà¦¦à¦¤":3824,"Ġà¦ĭà¦ľ":3825,"Ġà¦ĺà¦¨à¦ĺà¦¨":3826,"Ġà¦Ńà§Łà¦ķ":3827,"Ġà¦¸à¦°à¦²à¦Ń":3828,"à¦Ĩà¦ľà¦ĩ":3829,"Ġà¦Ĩà§ľà¦®":3830,"Ġà¦ĵà¦·à¦§":3831,"Ġà¦ľà¦¨à¦ªà¦¦à¦¬":3832,"igh":3833,"Ġà¦ķà¦¨à¦ķà¦¦":3834,"Ġà¦§à§ľà¦«à§ľ":3835,"Ġyou":3836,"ĠÙ":3837,"à§įâĢĶ":3838,"à¦¿...":3839,"à¦¤à¦ķà¦¤":3840,"à¦²à¦ķà¦°":3841,"à¦²à¦ļà¦°":3842,"à¦¬à¦ªà¦°":3843,"à¦®à¦®à¦¯":3844,"à¦®à¦¶à¦²":3845,"à¥Ģ":3846,"à¥¤à¥¤":3847,"Ġà¦¨à¦²à¦ķ":3848,"à¦¡à¦ļ":3849,"Ġà¦¬à¦²à¦¯":3850,"Ġà¦ĸà¦Ĺ":3851,"Ġà¦ĺà¦·à¦¤":3852,"à¦ŀà¦¸":3853,"à§İà¦ªà¦¤":3854,"à¦ıà¦°à¦ĩ":3855,"à¦°à¦ķà¦¯":3856,"Ġà¦¹à¦²à¦ĺà¦°":3857,"Ġà¦ĩà¦¤à¦°":3858,"Ġà¦ĩà¦®à¦ª":3859,"à¦ķà¦Łà¦¬à¦°":3860,"Ġà¦¹à¦¤à¦ļà¦ķ":3861,"à¦ħà¦®à¦¨":3862,"Ġà¦īà¦ªà¦¶":3863,"à¦®à¦ķà¦¥":3864,"à¦¨à¦¬à¦ķ":3865,"Ġà¦ħà¦ªà¦ļà§Ł":3866,"à¦¤à¦ķà¦°à¦£":3867,"Ġà¦īà¦²à¦Ļ":3868,"Ġà§§à§©":3869,"Ġà¦ļà¦Łà¦ķà¦²":3870,"à§«à§¦":3871,"Ġcon":3872,"à¦Ĺà¦ªà§İ":3873,"Ġà¦¸à¦«à¦Łà¦ĵà§Ł":3874,"ea":3875,"ois":3876,"»¿":3877,"ï»¿":3878,"ĠE":3879,"à§ĩ.":3880,"à¦¨à¦¤à¦°":3881,"à¦¨à¦ĩà¦²":3882,"à¦¤à§İ":3883,"à¦ķà¦ªà¦ķ":3884,"à¦¯à¦§à¦°":3885,"à¦¬à¦ī":3886,"à¦®à¦¶à¦ķ":3887,"Ġà¦¸à¦¶":3888,"Ġà¦¸à¦¶à¦¬":3889,"Ġà¦¸à¦ĩà¦¬":3890,"à¦Łà¦Ĩà¦ª":3891,"à¦¦à¦ľ":3892,"à¦¦à¦¯à¦¨":3893,"à¦ĩà¦ªà¦°":3894,"à¦ĩà¦¸à¦Ļ":3895,"à¦Ľà¦Ľ":3896,"Ġà¦¦à¦¦":3897,"Ġà¦¤à¦Ľà¦¨":3898,"à¦ĸà¦ľ":3899,"Ġà¦ħà¦¢":3900,"à¦§à¦ļ":3901,"à¦ļà¦²à¦¬":3902,"Ġà¦¶à¦¶à¦¬":3903,"Ġà¦Ńà¦°à¦£":3904,"Ġà¦ıà¦ķà¦¹":3905,"à¦Ńà¦¤":3906,"à¦Ńà¦²à¦¬":3907,"à§ľà¦¯à¦¨":3908,"Ġà¦®à¦¨à¦®":3909,"à¦«à¦²à¦ķ":3910,"Ġà¦¬à¦²à¦²à¦®":3911,"à¦Ŀà¦¬à¦¯":3912,"à¦ıà¦ĵ":3913,"à¦ıà¦®à¦¨à¦ĩ":3914,"à¦°à¦ķà¦£":3915,"Ġà¦Łà¦¯":3916,"à¦¤à¦°à¦ŀ":3917,"à¦°à¦®à¦¯":3918,"à¦¯à¦¬à¦¯":3919,"à¦¤à¦¨à¦ķ":3920,"à¦¶à¦¨à¦²":3921,"Ġà¦ľà¦²à¦Ń":3922,"à¦°à¦¶à¦®":3923,"Ġà¦ħà¦ªà¦ķ":3924,"Ġà¦¸à¦¹à¦¬":3925,"à¦ļà¦²à¦Ł":3926,"ĠĠĠĠĊ":3927,"Ġà¦ªà¦¤à¦Ļ":3928,"Ġà¦¦à¦²à¦ªà¦¤":3929,"Ġà¦¤à¦¤à¦ĸ":3930,"à¦ľà¦¸à¦ľ":3931,"Ġà¦§à¦¨à¦ŀ":3932,"à¦Ĩà¦ľà¦ĵ":3933,"à¤²":3934,"à§«à§¬":3935,"Ġà¦Ĺà¦ľà¦Ĺà¦ľ":3936,"Ġà¦Ĩà¦ĩà¦¶":3937,"Ġà¦ĸà¦Łà¦ĸà¦Ł":3938,"Ġà¦¸à¦«à¦Łà¦ĵà¦¯":3939,"Ġà¦¬à¦Ľà¦°à¦ĩ":3940,"Ġà¦¤à¦Ľà¦¨à¦Ľ":3941,"ap":3942,"ry":3943,"um":3944,"Ġv":3945,"Ġon":3946,"à¦¤à¦®à¦¨":3947,"à¦²à¦§":3948,"à¦¯à¦ªà¦¥":3949,"à§ģ?âĢĻ":3950,"à§ģ?âĢĿ":3951,"Ġà¦¬à¦°à¦¬":3952,"Ġà¦¸à¦¸à¦®":3953,"à¦¦à¦¶à¦Ł":3954,"à¦ĩà¦·":3955,"Ġà¦¤à¦Łà¦¸":3956,"Ġà¦¹à¦ĩà¦Ľ":3957,"à¦ľà¦²à¦¬":3958,"à¦¼à§ĩâĢ¦":3959,"à¦·à¦¡":3960,"à¦·à¦¸à¦¦":3961,"Ġà¦ħà¦¤à¦°":3962,"Ġà¦¯à¦¶à¦¸":3963,"Ġà¦Ĺà¦ŀ":3964,"à¦¹à¦ĵ":3965,"Ġà¦ľà¦°à¦Ĺ":3966,"à§ĩà¥¤âĢ¦":3967,"ĠâĢĻ":3968,"à§ľà¦Ŀ":3969,"âĢĻ!":3970,"à¦¬à¦¨à¦ĵ":3971,"à¦īà¦Ńà§Ł":3972,"Ġà¦ĩà¦£":3973,"à§Īà¥¤":3974,"Ġà¦Ĺà¦²à¦¤":3975,"à¦²à¦ķà¦¨":3976,"à¦²à¦ķà¦Ń":3977,"à¦Ľà¦¨à¦¦":3978,"à§İà¦ķà¦®":3979,"à¦¼à§ĩà¥¤âĢĻ":3980,"à¦¶à¦ķà¦¦":3981,"Ġà¦ıà¦ķà¦¦à¦®à¦ĩ":3982,"à§Łà¦¨à¦¯":3983,"à¦Ĺà¦ľà¦ĸ":3984,"à¦¬à¦¶à¦Ļ":3985,"à§§à§ª":3986,"à¦¦à§Łà¦ķ":3987,"Ġà¦¬à¦ķà¦¶":3988,"Ġà¦¶à¦¹à¦°à¦ķ":3989,"à¤¹":3990,"à¤Ĥ":3991,"à¤ķ":3992,"à¦¬à¦Ńà¦Ļ":3993,"Ġà¦¹à¦¨à¦¹à¦¨":3994,"Ġà¦·à§ľà¦¯à¦¨":3995,"à¦·à§Łà¦Ł":3996,"à¦¾âĢĿâĢĵ":3997,"à¦ıà¦¸à¦ıà¦¸":3998,"Ġà¦®à¦Ĺà¦§à¦°":3999,"ela":4000,"Ġà§©à§¦":4001,"lec":4002,"Ġà¦ıà¦«à¦ıà¦®à¦ľ":4003,"à¦°à¦¹à¦¸à¦¨":4004,"à¦Ĺà¦łà¦¨à¦Ĺ":4005,"æŃĵæŃĵæŃĵæŃĵæŃĵæŃĵæŃĵæŃĵ":4006,"ruth":4007,"op":4008,"Ġ1":4009,"à¦°à¦§à¦°":4010,"Ġà¦ķà¦ĩà¦°":4011,"Ġà¦¸à¦Ĺà¦°":4012,"Ġà¦Ĩà¦ĩà¦²":4013,"Ġà¦Ĩà¦ĩà¦Ľ":4014,"à¦ĩà¦¸à¦Ł":4015,"Ġà¦ıà¦§":4016,"Ġà¦¤à¦ĸ":4017,"Ġà¦¤à¦¹à¦¬":4018,"à¦¶à¦ĸ":4019,"à¦¶à¦²à¦¤":4020,"à¦ĸà¦®à¦£":4021,"à¦¡à¦¹":4022,"à¦ļà¦£":4023,"à¦¹à¦ľ":4024,"à¦£à¦ķà¦°":4025,"à¦¥à¦¦":4026,"Ġà¦ļà¦°à¦ķ":4027,"Ġà¦ľà¦ľ":4028,"Ġà¦ľà¦²à¦ķà¦£":4029,"à¦ĵà¦Ľ":4030,"à¦Ńà¦°à¦¯":4031,"à¦łà¦®":4032,"Ġà¦īà¦¸":4033,"Ġà¦Ĩà¦°à¦¨":4034,"Ġà¦ªà¦°à¦ĸ":4035,"Ġà¦§à¦®à¦¨":4036,"Ġà¦¸à¦®à¦Ń":4037,"à¦¼à¦¿!":4038,"à¦Ĩà§Ł":4039,"Ġà¦ıà¦¬à¦¡":4040,"Ġà¦Ĩà¦²à¦¬":4041,"Ġà¦¡à¦°":4042,"Ġà¦¡à¦¬à¦²":4043,"Ġà¦ķà¦°à¦¤à¦²":4044,"Ġà¦ıà¦¸à¦®":4045,"Ġà¦Ŀà¦°à¦¤":4046,"Ġà¦ħà¦¬à¦Ĺ":4047,"à¦°à¦®à¦ª":4048,"Ġà¦Ĩà¦ľà¦Ĺ":4049,"Ġà¦¬à¦¨à¦ľ":4050,"Ġà¦Ĺà¦²à¦¨":4051,"à¦ħà¦¸à¦®":4052,"Ġà¦Ĩà¦¨à¦¸":4053,"à¦ĩà¦²à¦¸":4054,"Ġà¦ĵà¦łà¦¬":4055,"Ġà¦¬à¦Ľà¦°à¦ĸ":4056,"Ġà¦¨à§Łà¦¨":4057,"à¦¿âĢĶâĢĺ":4058,"Ġà¦ħà¦ļà¦ŀ":4059,"à¦ıà¦ķà¦¸à¦®à¦¯":4060,"Ġà¦ħà¦ķà¦¥":4061,"Ġà¦ĸà¦¬à¦°à¦ĵ":4062,"à¦¸à¦¹à¦ľ":4063,"à¦ĩà¦ľà¦¡":4064,"Ġà¦¸à§İà¦¤":4065,"à§Ģ!âĢĻ":4066,"Ġà¦ĸà¦¸à§ľ":4067,"à¦¿âĢĿâĢĶ":4068,"Ġst":4069,"à¦¡à¦Ńà¦£":4070,"Ġne":4071,"Ġà¦ĸà¦ļà¦ĸà¦ļ":4072,"hakh":4073,"oishakh":4074,"ci":4075,"ion":4076,"nd":4077,"qu":4078,"à¦°à§İ":4079,"à§į?":4080,"à¦¨à¦Ĩà¦®":4081,"à¦¤à¦¤à¦²":4082,"à¦²à¦ŀ":4083,"à¦²à¦ªà¦¥":4084,"à¦ķà¦°à¦¤":4085,"à¦ķà¦ļà¦ķ":4086,"à¦ķà§°":4087,"à¦¬à¦ľà¦Ĺà§İ":4088,"Ġà¦ķà¦¸à¦®":4089,"Ġà¦¸à¦°à¦¬":4090,"Ġà¦¸à¦¶à¦°":4091,"Ġà¦®à¦²à¦®":4092,"Ġà¦¦à¦¨":4093,"à¦ªà¦ªà¦¤":4094,"Ġà¦ıà¦°à¦®à¦§":4095,"Ġà¦¤à¦°à¦¤à¦°":4096,"à¦Ĺà¦°à¦¦":4097,"à¦·à¦°à¦£":4098,"Ġà¦ħà§°":4099,"Ġà¦¯à¦ľà¦¨":4100,"à¦¹à¦¶":4101,"à§Łà¦ļ":4102,"à§Łà¦£à¦¤":4103,"à¦£à¦«":4104,"à¦£à¦¸à¦Ļ":4105,"Ġà¦Ńà¦ľà¦¨":4106,"Ġà¦°à¦®à¦²":4107,"à¦ĵà¦®":4108,"à¦ĵà¦Ń":4109,"à¦¼à¦¾à¥¤âĢĻ":4110,"à¦Ļà¦ķ":4111,"à¦ªà¦°à¦¬":4112,"Ġà¦¬à¦²à¦²à¦¬":4113,"à¦ŀà¦ķ":4114,"âĢĿ!":4115,"à¦ľà¦¨à¦®":4116,"à¦īà¦¥":4117,"à¦¬à¦°à¦¦":4118,"à¦°à¦¬à¦²à¦Ń":4119,"Ġà¦ĩà¦®à¦¨":4120,"Ġà¦Ĩà¦ľà¦®":4121,"à¦¯à¦¬à¦¶à¦¤":4122,"à¦°à¦¸à¦¤":4123,"à¦ħà¦Ļ":4124,"Ġà¦ĵà¦ªà¦°à¦ĩ":4125,"à¦ĩà¦¨à¦°":4126,"à¦Ĺà¦ľà¦Ĺ":4127,"à§§à§¯":4128,"Ġà¦ıà¦ķà¦ĩà¦°à¦ķà¦®":4129,"à§ĭâĢĶâĢĺ":4130,"à§ĩâĢ¦à¥¤":4131,"à¦²à¦ļà¦²à¦¨":4132,"ind":4133,"à§©à§ª":4134,"ong":4135,"Ġà¦īà§ľà¦¤":4136,"Ġà¦ıà¦ķà¦ªà¦²à¦ķ":4137,"à§¬à§¦":4138,"Ġà¦ıà¦ĩà¦°à¦ķà¦®à¦ĩ":4139,"Ġwith":4140,"ous":4141,"Ġà¦¦à¦«à¦¤à¦°":4142,"ĠBoishakh":4143,"Ġà§§à§¯à§ªà§Ń":4144,"uty":4145,"Ġà¦ļà¦Łà¦ķà¦¦":4146,"TE":4147,"ep":4148,"à¦¾.":4149,"à¦¨à¦¥":4150,"à¦¨à¦ķà¦°":4151,"à¦¤à¦¬à¦¨":4152,"à¦¬à¦ļà¦ķ":4153,"à¦¬à¦ĩà¦¯":4154,"Ġà¦ķà¦ŀ":4155,"à§ĭà§ĩ":4156,"Ġà¦¬à¦°à¦®":4157,"Ġà¦¬à¦ĩà¦²":4158,"Ġà¦Ĩà¦Łà¦ª":4159,"à¦¦à¦¬à¦°":4160,"Ġà¦®à¦ļ":4161,"à¦Ľà§ľ":4162,"Ġà¦¤à§ľ":4163,"à¦ľà¦ļ":4164,"Ġà¦ħà¦Ľ":4165,"Ġà¦ķà¦°à¦¨":4166,"à¦¡à¦ĵà¦¯":4167,"Ġà¦Ĺà¦¤à¦¬":4168,"à¦¹à¦¹":4169,"à¦¹à¦¬à¦§":4170,"à¦£à¦¤à¦°":4171,"Ġà¦ļà¦·":4172,"Ġà¦ļà¦ªà¦²":4173,"Ġà¦°à¦¸à¦¨":4174,"Ġà¦ıà¦ķà¦§à¦°à¦¨":4175,"à¦łà¦¤à¦®":4176,"Ġà¦ĵà§ľ":4177,"à¦¼à¦¿âĢĵ":4178,"Ġà¦ĺà¦¨à¦¤":4179,"à¦¬à¦°à¦ª":4180,"à¦¤à¦°à¦®":4181,"à¦¤à¦°à¦Ĺ":4182,"à¦°à¦¬à¦®à§Ł":4183,"à¦°à¦¬à¦¸à¦Ń":4184,"Ġà¦Ĩà¦²à¦Ł":4185,"Ġà¦Ŀà¦°à¦²":4186,"Ġà¦¬à¦¸à¦¤à¦¬":4187,"à¦ķà¦Łà¦°":4188,"Ġà¦Ĺà¦²à¦Ľ":4189,"à¦¿à¦Ĥ!":4190,"à¦¶à¦¨à¦ķ":4191,"Ġà¦ľà¦²à¦Ł":4192,"Ġà¦ľà¦²à¦°à¦Ļ":4193,"à¦°à¦¹à¦°à¦£":4194,"à¦§à¦¨à¦Ĺ":4195,"Ġà¦ħà¦ľà¦ª":4196,"Ġà¦ħà¦®à¦°à¦¤":4197,"à¦ıà¦ķà¦®":4198,"à§įâĢĮ!":4199,"Ġà§§à§ª":4200,"à¦®à¦Ĺà¦ŀ":4201,"Ġà¦¶à¦¹à¦°à¦¬":4202,"à¦ľà¦®à¦¹à¦²":4203,",âĢĿâĢĶ":4204,"à¦¿âĢĻâĢĶ":4205,"à¦¤à¦¸à¦Ń":4206,"Ġà¦Ĭà¦¨à¦¬":4207,"Ġà¤¸":4208,"Ġtruth":4209,"Ġà¦¸à¦¬à¦¸à¦®à§Łà¦ĩ":4210,"ill":4211,"à¦Ĭà¦°":4212,"og":4213,"ya":4214,"àª":4215,"Ġas":4216,"à¦¨à¦ł":4217,"à¦¨à¦°à¦ķà¦®":4218,"à¦¯à¦Ĺà¦¨":4219,"à¦®à¦¬à¦¨":4220,"Ġà¦ªà¦¸":4221,"Ġà¦Ĩà¦ĵà¦¡":4222,"à¦Łà¦ľ":4223,"Ġà¦¨à¦ª":4224,"Ġà¦®à¦°à¦ļ":4225,"à¦ªà¦ľà¦¨":4226,"Ġà¦¹à¦Łà¦¤":4227,"à¦ĸà¦¶":4228,"à¦ĸà¦°à¦ļ":4229,"à¦·à¦°à¦ķ":4230,"à¦ļà¦Ń":4231,"Ġà¦Ĺà¦°à¦ľ":4232,"à¦¥à¦¡":4233,"Ġà¦ļà¦ĵà§ľ":4234,"Ġà¦¬à¦²à¦¦":4235,"Ġà¦īà¦ĩà¦ķ":4236,"Ġà¦²à¦Ń":4237,"à§ľà¦®":4238,"Ġà¦ĩà¦¸à¦°":4239,"Ġà¦Ĩà¦²à¦«":4240,"à¦ĺà¦Ľ":4241,"à¦¸à¦¬à¦®":4242,"à¦¤à¦¨à¦ĩ":4243,"à¦¹à¦¸à¦ĩ":4244,"à¦°à¦¹à¦¨":4245,"à¦¦à¦¨à¦Ĺ":4246,"âĢ¦.":4247,"Ġà¦¨à§Łà¦¤":4248,"à§°à¦ľà¦°":4249,"Ġà¦Ĺà¦¨à¦Ĺà¦¨":4250,"à¦°à¦ļà¦°":4251,"à¦¢à¦²":4252,"Ġà¦Īà¦ª":4253,"à¦ľà¦¬à¦§":4254,"à¦°à¦®à¦£à¦ª":4255,"à§ĩ?âĢĿâĢĶ":4256,"à¦¦à¦Ĺà¦¦":4257,"à§ĩâĢĻâĢĶ":4258,"Ġà§¨à§¨":4259,"Ġà¦Ķà¦ľ":4260,"Ġà¦ªà¦Ļà¦ķ":4261,"ĠpH":4262,"Ġà¦°à¦¹à¦®à¦¤":4263,"à§ĩà§Ĺà¦ģ":4264,"ohela":4265,"Ġà¦ľà¦¬à¦°à¦¦à¦¸":4266,"!)":4267,"Ðµ":4268,"Ġ!":4269,"Ġan":4270,"Ġar":4271,"à¦¨à¦§":4272,"à¦¨à¦§à¦°":4273,"à¦¤à¦¤à¦ķ":4274,"Ġà¦ķà§°":4275,"à§ĭà¦ĥ":4276,"Ġà¦¬à¦ª":4277,"Ġà¦¸à¦ªà¦°":4278,"à¦Łà¦°à¦ķ":4279,"à¦¦à¦ĺ":4280,"Ġà¦¨à¦ļ":4281,"Ġà¦¨à¦Ĺà¦£":4282,"Ġà¦®à§Łà¦¨":4283,"Ġà¦¤à¦Ł":4284,"à¦ľà¦¬à¦¨":4285,"à¦ľà¦ķà¦¤":4286,"à¦ľà¦ªà¦¤":4287,"à¦·à¦¤à¦¬":4288,"à¦ļà¦²à¦¨":4289,"Ġà¦Ĺà¦¦à¦Ĺà¦¦":4290,"à¦¹à¦Ļ":4291,"à§Łà¦ĵ":4292,"à¦£à¦Ńà¦°":4293,"Ġà¦Ńà¦¡":4294,"Ġà¦īà¦¥à¦²":4295,"Ġà¦¥à¦ĩ":4296,"Ġà¦ĵà¦Ŀ":4297,"Ġà¦ĵà¦¤à¦ª":4298,"Ġà¦«à¦¯":4299,"Ġà¦«à¦¸à¦«":4300,"Ġà¦«à¦ĸà¦°":4301,"Ġà¦ªà¦°à¦ª":4302,"Ġà¦®à¦¨à¦ĵ":4303,"âĢĻ!âĢĿ":4304,"à¦¬à¦¨à¦¸":4305,"à¦¬à¦¨à¦Ńà¦°":4306,"à¦ıà¦¯":4307,"Ġà¦Łà¦ªà¦Łà¦ª":4308,"à¦¤à¦°à¦¦":4309,"à¦°à¦¬à¦Ĺ":4310,"à¦ĺà¦Łà¦ķ":4311,"à¦·à¦£à¦Ń":4312,"Ġà¦Ĩà¦¬à¦¹à¦®":4313,"à§ģà¦ģà¥¤âĢĻ":4314,"Ġà¦Ĩà¦ªà¦¨à¦®à¦¨":4315,"à¦Ĺà¦²à¦ª":4316,"Ġà¦ªà¦¥à¦Ĺ":4317,"à¦ħà¦®à¦²":4318,"Ġà¦īà¦ªà¦Ĺ":4319,"à¦°à¦¶à¦¬":4320,"Ġà¦¸à¦°à¦·":4321,"Ġà¦ħà¦²à¦°":4322,"à§§à§©":4323,"Ġà¦ĭà¦Ĺ":4324,"Ġà§§à§¬":4325,"Ġà¦ıà¦¸à¦¬à¦ĩ":4326,"Ġà¦¬à¦īà§Ł":4327,"à¦¦à¦®à§Ł":4328,"Ġà§¯à§":4329,"Ġà¦°à¦¸à¦¦":4330,"à¦®à¦¦à¦ķ":4331,"à§¨à§¨":4332,"Ġà¦¸à§İà¦Ń":4333,"Ġà¦Ĩà¦«à¦Ł":4334,"Ġà¦Ĩà¦«à¦Ĺ":4335,"Ġà¦ħà¦¹à¦°à¦¹":4336,"à¦ıà¦®à¦¨à¦Ł":4337,"Ġà¦Ńà¦Ĺà¦¬à¦¤":4338,"Ġà¦°à¦®à¦°à¦®":4339,"Ġà¦¸à¦°à¦¸à¦°":4340,"Ġwas":4341,"Ġha":4342,"Ġà¦ľà¦¨à¦Ĺà¦£à¦ķ":4343,"Ġà§§à§¯à§ªà§ª":4344,"Ġà¦ķà¦ªà¦Łà¦¤":4345,"aya":4346,"eg":4347,"Åĵ":4348,"ÑĢ":4349,"ÙĦ":4350,"à¦Ķ":4351,"à¦¤à¦¤à¦°":4352,"à¦¤à¦®à¦¯":4353,"à¦²à¦¬à¦°":4354,"à¦¯à¦ªà¦¨":4355,"à¦¯à¦®à¦¤":4356,"à¦¯à¦Ńà¦°":4357,"à¦®à¦®à¦¨":4358,"à¦®à§İà¦¸":4359,"Ġà¦¬à¦¬":4360,"Ġà¦¸à¦ªà¦¤":4361,"Ġà¦ªà¦Łà¦ķ":4362,"à¦¸à¦®à¦¨":4363,"Ġà¦Ĩà¦ĩà¦°":4364,"Ġà¦¨à¦°à¦¨":4365,"Ġà¦®à¦ľà¦²":4366,"à¦ªà¦§":4367,"Ġà¦¤à¦¬à¦²":4368,"Ġà¦¤à¦ªà¦¤":4369,"Ġà¦¹à¦°à¦ª":4370,"Ġà¦¹à¦īà¦ķ":4371,"à¦ľà§ľ":4372,"à¦Ĺà¦¶":4373,"Ġà¦ħà¦ĩ":4374,"à¦§à¦ľà¦¯":4375,"à¦ļà¦ĵà¦¡":4376,"à§Łà¦¹":4377,"à¦£à¦¬à¦°":4378,"à¦Ńà¦ĩ":4379,"à¦Ńà¦§":4380,"à¦¼à¦¾;":4381,"Ġà¦Ĩà¦®à¦¸":4382,"Ġà¦īà¦ĩà¦¸":4383,"Ġà¦ĵà¦°à¦ĩ":4384,"Ġà¦ĵà¦ħà¦°":4385,"à¦¾à¥¤âĢĺ":4386,"Ġà¦®à¦¨à¦¨à¦ķ":4387,"à¦ıà¦«":4388,"à¦īà¦¨à¦²":4389,"à¦īà¦Łà¦°":4390,"à¦īà¦Ńà¦¯":4391,"Ġà¦¸à¦¬à¦ķà¦Ł":4392,"Ġà¦¹à¦²à¦«":4393,"Ġà¦Ĩà¦¸à¦ļ":4394,"à¦Ĩà¦°à¦£":4395,"à¦Ĩà¦¸à¦Ľ":4396,"Ġà¦Ĩà¦²à¦ĸ":4397,"à¦ĺà¦¸à¦®à¦¯":4398,"Ġà¦Ĩà¦Ĺà¦¸":4399,"à§ĭ,âĢĻ":4400,"à¦Ĺà¦²à¦Ľ":4401,"Ġà¦īà¦¦à¦°":4402,"Ġà¦ªà¦¥à¦ĵ":4403,"à¦ħà¦¯":4404,"à¦¦à¦°à¦Ł":4405,"Ġà¦ķà¦²à¦®à¦Ł":4406,"à¦®à¦ķà¦Ń":4407,"à¦ªà¦¦à¦ª":4408,"Ġà¦ħà¦ªà¦ķà¦°":4409,"à¦²à¦¨à¦ĩ":4410,"à¦ĩà¦¨à¦ķ":4411,"Ġà¦īà¦¤à¦²":4412,"âĢ¦à¥¤âĢĻ":4413,"Ġà¦ħà¦ľà¦®":4414,"Ġà¦¶à¦¹à¦°à¦Ĺ":4415,"à¦¤à¦ķà¦£":4416,"à¦ļà¦ķà¦ķ":4417,"à¦°à¦ķà¦®à¦ĩ":4418,"à§°à¦¯":4419,"à§°à¦¦":4420,"Ġà¦ħà¦²à¦¸à¦¤":4421,"à¦¨à¦¸à¦ĩ":4422,"à¦°à¦Ĺà¦®":4423,"Ġà¦¦à¦°à¦ĸ":4424,"Ġà¦¨à¦¬à¦®":4425,"Ġà¦®à¦¶à¦Ĺ":4426,"à¦¿?âĢĿâĢĶ":4427,"ali":4428,"à§ªà§©":4429,"ĠPohela":4430,"à§§à§¯à§«à§¨":4431,"ĠMaya":4432,"ºçľºçľºçľºçľ":4433,"âĢĵâĢĵâĢĵâĢĵâĢĵâĢĵâĢĵâĢĵ":4434,"·çľ·çľ·çľ·çľ":4435,")âĢĵ":4436,"ain":4437,"tor":4438,"vik":4439,"Ð»":4440,"Ð½":4441,"Ñģ":4442,"ÛĮ":4443,"ĊĊ":4444,"Ġ×":4445,"à§ĩà§ĩ":4446,"à¦°à¦Ĺà¦²":4447,"à¦¿à¦¾":4448,"à¦¿à§ĩ":4449,"à¦¨à¦Ĩà¦ªà¦¨":4450,"à¦¤à¦ĺà¦¡":4451,"à¦²à¦Ńà¦°":4452,"à¦¯à¦Łà¦¨":4453,"à§ģâĢĿ":4454,"à¦®à¦¬à¦°":4455,"Ġà¦¬à¦Ń":4456,"à¦¸à¦¹à¦¸":4457,"Ġà¦¨à¦¬à¦°":4458,"à¦Ľà¦ĵ":4459,"Ġà¦ıà¦·":4460,"à¦¶à¦®à¦¨":4461,"à¦·à¦«":4462,"à¦·à¦§à¦°":4463,"Ġà¦ķà¦°à¦®":4464,"Ġà¦¯à¦¬":4465,"à¦§à¦¨à¦ĵ":4466,"à¦§à¦ļà¦¨":4467,"à¦§à¦¶à¦¤":4468,"à¦ļà¦¬à¦°":4469,"à¦¹à§Ł":4470,"à¦£à¦¸à¦®":4471,"Ġà¦°à¦®à¦¨":4472,"à¦ĵà¦¸à¦¬":4473,"à§ĩà¥¤âĢĺ":4474,"Ġà¦ıà¦ķà¦ıà¦ķà¦Ł":4475,"à¦¼à¦¾à¦ĥ":4476,"à¦łà¦¹":4477,"Ġà¦ªà¦°à¦Ĺà¦¨":4478,"à¦ªà¦°à¦¸":4479,"à¦ĺà¦¬à¦¦":4480,"à§ģà¦ģ,":4481,"Ġà¦ħà¦¸à¦¦":4482,"Ġà¦¨à¦¤à¦ľ":4483,"à¦°à¦¸à¦Ĺ":4484,"à¦Ĺà¦²à¦¦":4485,"à¦¿à¦ĤâĢĿ":4486,"à¦°à¦²à¦¸":4487,"Ġà¦ħà¦¤à¦¬à¦¡":4488,"Ġà¦ľà¦²à¦Ľ":4489,"à¦°à¦¹à¦ķ":4490,"à¦¯à¦¤à¦¦":4491,"à¦Ńà¦¬à§İ":4492,"Ġà¦ħà¦ľà¦Ĺà¦°":4493,"Ġà¦īà§İà¦ķà¦Ł":4494,"Ġà¦«à¦²à¦®":4495,"Ġà¦ªà¦¦à¦¸":4496,"à¦¯à¦¸à¦Ļ":4497,"à¦¬à¦ķà¦£":4498,"à§įâĢĮâĢĶ":4499,"Ġà¦ĭà¦ķ":4500,"Ġà¦¬à¦ķà¦Ľ":4501,"Ġà¦¦à¦°à¦¦à¦°":4502,"Ġà¦¬à§ľà¦ĩ":4503,"Ġà¦¬à¦īà¦°":4504,"Ġà¦¸à¦Ńà¦¯":4505,"à¤¯":4506,"à§¨à§¦":4507,"Ġà¦¹à¦ĩà¦¹à¦ĩ":4508,"Ġà§¨à§¬":4509,"Ġà¦īà§ľà¦Ľ":4510,"à¦Ĳà¦¶":4511,"our":4512,"out":4513,"Ġman":4514,"Ġà¦ªà¦°à¦ªà¦°à¦ĩ":4515,"Ġà§«à§¦":4516,"Ġà§§à§¦à§¦":4517,"own":4518,"Ġà¦ķà¦ļà¦ķà¦ļ":4519,"==":4520,"dvik":4521,"ear":4522,"for":4523,"ip":4524,"ma":4525,"per":4526,"sel":4527,"Ġë":4528,"à§ĩ...âĢĿ":4529,"à¦¨à¦°à¦®":4530,"à¦¨à¦¦à¦¯":4531,"à¦¤à¦ļà¦ķ":4532,"à¦¤à§°":4533,"à¦¤à¦Ŀà¦°":4534,"à¦²à¦§à¦¨":4535,"à¦²à¦ľà¦¯":4536,"à§ģà§ģ":4537,"à§ģ!âĢĻ":4538,"à¦®à¦Ĺà¦¤":4539,"à¥ĭ":4540,"Ġà¦ªà¦¨à¦Ł":4541,"Ġà¦ªà§Łà¦²":4542,"à¦¸à¦®à¦¤":4543,"Ġà¦Ĩà¦Łà¦²":4544,"Ġà¦Ĩà¦īà¦²":4545,"à¦Łà¦ķà¦Ł":4546,"à¦¦à¦®à¦¤":4547,"à¦ĩà¦ī":4548,"Ġà¦¨à¦¬à¦¨":4549,"Ġà¦¨à¦¬à¦¦":4550,"Ġà¦®à¦«":4551,"Ġà¦®à¦°à¦¶":4552,"Ġà¦¦à¦¶à¦¬":4553,"à¦ªà¦Łà¦²":4554,"Ġà¦¤à¦²à¦¬":4555,"à§ĢâĢ¦":4556,"à§Ģ!âĢĿ":4557,"Ġà¦¹à¦Łà¦²":4558,"à¦ľà¦®à¦£":4559,"à¦ľà¦¶à¦ķ":4560,"à¦ľà§Łà¦¨":4561,"à¦¡à¦²à¦ķ":4562,"à¦§à¦§à¦°":4563,"à¦¹à¦ĸ":4564,"Ġà¦¶à¦°à¦®":4565,"Ġà¦°à¦ļà¦¯":4566,"Ġà¦Ĩà¦®à§ľ":4567,"à¦łà¦Ĺà¦¡":4568,"Ġà¦īà¦Łà¦ķ":4569,"Ġà¦ªà¦°à¦ľà¦¨":4570,"Ġà¦§à¦¨à¦ķ":4571,"Ġà¦ıà¦ĩà¦Ĺ":4572,"Ġà¦¬à¦²à¦²à¦Ĩà¦ªà¦¨":4573,"à¦°à¦£à¦®":4574,"à§İà¦ľ":4575,"à§İà¦¶":4576,"à¦ľà¦¨à¦ªà¦¦à¦¬":4577,"à¦īà¦¨à¦Ł":4578,"à¦°à¦ķà¦¥":4579,"à¦¬à¦°à¦ļà¦¨":4580,"à¦¤à¦°à¦¬à¦Ļ":4581,"Ġà¦Ĩà¦¸à¦¸":4582,"à¦°à¦¬à¦ŀ":4583,"à¦Ĩà¦ł":4584,"à¦Ĩà¦ªà¦¦":4585,"à¦Ĩà¦²à¦®":4586,"Ġà¦ľà¦¨à¦¶":4587,"âĢĵâĢľ":4588,"à¦°à¦®à¦ĩ":4589,"à¦·à¦£à¦Ĺ":4590,"à¦ķà¦Łà¦®à¦¯":4591,"à¦¤à¦¨à¦¬":4592,"Ġà¦¬à¦°à¦¯":4593,"Ġà¦īà¦ªà¦®à¦¹":4594,"Ġà¦¸à¦¨à¦¦":4595,"Ġà¦¸à¦°à¦Ľ":4596,"à¦°à¦¹à¦¶":4597,"à¦¨à¦¬à¦®à¦¨":4598,"Ġà¦ħà¦ªà¦Ń":4599,"Ġà¦¹à¦łà¦ķ":4600,"à¦°à¦¦à¦¤":4601,"à¦°à¦¦à¦²":4602,"à¦ªà¦¤à¦Ļ":4603,"Ġà¦ĵà¦ĩà¦Ń":4604,"Ġà¦ķà¦¤à¦ľà¦¨":4605,"Ġà¦¯à¦¤à¦Ĺ":4606,"à¦¯à¦®à¦Ĺ":4607,"Ġà¦ĩà¦¨à¦¶":4608,"Ġà¦ĩà¦¨à¦¡":4609,"à¦ļà¦ķà¦£":4610,"Ġà¦ıà¦ķà¦ľà¦¨à¦ĩ":4611,"Ġà¦¶à¦°à§İà¦ķ":4612,"Ġà¦Ĳà¦¤à¦°":4613,"à§ģâĢĻ-":4614,"à¦°à¦Ńà¦Ļ":4615,"Ġà¦Ĩà¦§à¦ª":4616,"Ġà¦Ĩà¦¦à¦ª":4617,"à¦¦à§Łà¦Ł":4618,"Ġà¦¨à¦¬à¦Ĺ":4619,"à¦¬à¦ĩà§Ł":4620,"à¤®":4621,"Ġà¦Ĺà¦®à¦Ĺà¦®":4622,"à¦ķà¦Ľà¦Ł":4623,"ther":4624,"à¦ľà¦Ĺà¦¤à¦ķ":4625,"Ġà¦īà¦ªà¦ķà¦£":4626,"Ġà¦Ĭà¦¨":4627,"Ġà¦īà§ľà¦¨":4628,"Ġthat":4629,"Ġà¦ľà¦Ĺà§İà¦Ł":4630,"iter":4631,"ich":4632,"Ġà¦ļà¦ªà¦²à¦¤":4633,"Ġà¦Ĩà¦īà¦¸à¦¹":4634,"IN":4635,"dig":4636,"gh":4637,"ĠU":4638,"Ġj":4639,"Ġáĥ":4640,"Ġun":4641,"à¦¾)à¥¤":4642,"à§ĩâĢĿà¥¤":4643,"à¦°à¦ªà¦¨":4644,"à¦°à¦ħ":4645,"à§įà§į":4646,"à¦¨à¦ıà¦ĩ":4647,"à¦²à¦®à¦°":4648,"à¦²à¦ĺà¦°":4649,"à¦ķà¦ĺà¦°":4650,"à¦ķà¦Ńà¦°":4651,"à¦®à¦ł":4652,"à¦®à¦¬à¦²":4653,"Ġà¦ķà¦ĩà¦¤":4654,"Ġà¦¬à¦ĸ":4655,"à¦¸à¦®à¦°":4656,"Ġà¦Ĩà¦ĩà¦¬":4657,"à¦Łà¦ľà¦¨":4658,"à¦Łà¦¤à¦°":4659,"à¦ĩà¦Ŀ":4660,"Ġà¦®à¦°à¦®":4661,"Ġà¦®à¦ĩà¦¨":4662,"Ġà¦®à¦°à¦Ľ":4663,"à¦Ľà¦²à¦¤":4664,"Ġà¦¦à¦ªà¦¦à¦ª":4665,"Ġà¦ıà¦¥":4666,"Ġà¦¤à¦°à¦¤":4667,"Ġà¦¹à¦°à¦²":4668,"âĢ¨":4669,"à¦¶à¦¨à¦ĵ":4670,"à¦ĸà¦ķà¦ķ":4671,"à¦Ĺà¦°à¦ķ":4672,"Ġà¦ħà¦¶à¦¨":4673,"Ġà¦¯à¦ľà¦®":4674,"à¦§à¦¶à¦ķ":4675,"à¦£à¦£":4676,"à¦£à¦ł":4677,"Ġà¦ļà¦¯":4678,"Ġà¦°à¦¥à¦¬":4679,"à¦ĵà¦¬":4680,"Ġà¦ıà¦ķà¦§":4681,"Ġà¦ıà¦ķà¦®à¦¨":4682,"Ġà¦ıà¦ķà¦¤à¦®":4683,"à¦¼à¦¾à¥¤âĢĿ":4684,"à¦ĤâĢĶ":4685,"à¦łà¦ļ":4686,"à¦łà¦ĵ":4687,"à¦łà¦ķà¦°":4688,"Ġà¦īà¦Ł":4689,"à¦¾à¦ģ!":4690,"à¦¬à¦¨à¦ļà¦ķ":4691,"à¦ŀà¦¬à¦²":4692,"à§İà¦ļ":4693,"à¦īà¦·":4694,"Ġà¦¸à¦¬à¦¦":4695,"Ġà¦¸à¦¬à¦°à¦ķà¦®":4696,"à¦¬à¦°à¦Ĺ":4697,"à¦°à¦¬à¦¬":4698,"à¦Ĩà¦°à¦¬":4699,"à¦Ĩà¦¸à¦¬":4700,"Ġà¦ĩà¦¹à¦²":4701,"Ġà¦ľà¦¨à¦¸à¦®":4702,"Ġà¦®à¦¤à¦Ń":4703,"à¦·à¦£à¦Ł":4704,"à¦¨à¦¤à¦¨":4705,"Ġà¦¬à¦¨à¦ľà¦Ļ":4706,"à¦¸à¦¬à¦ļ":4707,"Ġà¦ħà¦¸à¦ļ":4708,"Ġà¦ħà¦¸à¦¤à¦¤":4709,"Ġà¦ħà¦¸à¦¹à¦¯":4710,"à¦²à¦ķà¦ª":4711,"à¦²à¦ķà¦§":4712,"à¦°à¦¨à¦Ĺà¦°":4713,"à¦ħà¦¨à¦²":4714,"à¦¶à¦¨à¦Ĺ":4715,"à¦ļà¦¨à¦ķ":4716,"à¦§à¦¨à¦Ł":4717,"Ġà¦ķà¦®à¦°":4718,"Ġà¦ķà¦®à¦£":4719,"à¦·à¦¤à¦Ĺ":4720,"Ġà¦«à¦²à¦Ł":4721,"Ġà¦ħà¦¥à¦°":4722,"Ġà¦ªà¦¦à¦¯":4723,"à¦¤à¦¤à¦¸":4724,"à§°à¦¨":4725,"à§°à¦¶":4726,"à§ģ,âĢĿ":4727,"Ġà¦Ĩà¦¦à¦°à¦£":4728,"à¦°à¦®à¦£à¦ĩ":4729,"à¦¼à¦¾,âĢĿ":4730,"Ġà§·":4731,"à¦¾âĢĻâĢĵ":4732,"Ġà¦¶à¦¹à¦°à¦ľ":4733,"Ġà¦īà§İà¦¸à¦¬à¦Ĺ":4734,"à¤µ":4735,"à§ĩâĢ¦âĢĻ":4736,"à¦Łà¦¸à¦ħ":4737,"ang":4738,"à¦¨à¦ľà¦¨à¦ĩ":4739,"Ġà§¨à§«":4740,"Ġà¦Ńà¦¬à¦¨à¦Ł":4741,"à¦¯à¦ĸà¦¨à¦ĩ":4742,"Ġà¦¨à¦Łà¦¬à¦°":4743,"ish":4744,"ĠĠĊĠĠĠĠĠĠ":4745,"Ġà¦łà¦ķà¦łà¦ķ":4746,"Ġà¤ª":4747,"à§ĩâĢĿâĢĵ":4748,"ĠAI":4749,"à¦ĩà¦°à¦ķà¦®à¦ĩ":4750,"oss":4751,"Ġex":4752,"ide":4753,"Ġà¦Ľà§Łà¦Ł":4754,"Ġà¦Łà¦¹à¦²à¦¦":4755,"Ġà¦ıà¦ķà¦Ŀà¦²à¦ķ":4756,"éŁ¿éŁ¿éŁ¿éŁ¿éŁ¿éŁ¿éŁ¿éŁ¿éŁ¿éŁ¿éŁ¿éŁ¿éŁ¿éŁ¿éŁ¿éŁ¿éŁ¿éŁ¿éŁ¿éŁ¿éŁ¿éŁ¿éŁ¿éŁ¿éŁ¿éŁ¿éŁ¿éŁ¿éŁ¿éŁ¿éŁ¿éŁ¿":4757,"Ġà¦¹à¦ľà¦¸à¦¨":4758,"ight":4759,",âĢĶ":4760,"ah":4761,"een":4762,"ure":4763,"Ġ#":4764,"Ġor":4765,"à¦¾/":4766,"à§ĩà¦ĥà¥¤":4767,"à¦°à¦Ĺà¦°":4768,"à¦¨à¦¬à¦ª":4769,"à¦¨à¦ªà¦¦":4770,"à¦¨à¦ªà¦¥":4771,"à¦¤à¦¸à¦®":4772,"à¦²à¦ļà¦¨":4773,"à¦²à¦¸à¦®":4774,"à¦ķà¦®à¦¯":4775,"à¦ķà¦¢":4776,"à¦¯à¦¯à¦¨":4777,"à¦¬à§İà¦¸":4778,"à¦¼âĢĻà¥¤":4779,"à¦¼âĢĻ,":4780,"Ġà¦¬à¦ķà¦°":4781,"Ġà¦¬à¦ļà¦¸":4782,"Ġà¦¸à¦ĵà¦¦":4783,"à¦¸à¦ľà¦¨":4784,"Ġà¦Ĩà¦ĵ":4785,"Ġà¦Ĩà¦ĩà¦¯":4786,"à¦Łà¦°à¦¸":4787,"à¦¦à¦¬à¦ª":4788,"à¦ĩà¦īà¦¨":4789,"Ġà¦®à¦Łà¦ķ":4790,"Ġà¦®à¦ĵà¦ķ":4791,"Ġà¦¦à¦²à¦ķ":4792,"à¦ªà¦¬à¦°":4793,"Ġà¦ıà¦Ńà¦°":4794,"Ġà¦¹à¦®":4795,"Ġà¦¹à¦Łà¦¬":4796,"à¦ľà¦®à¦¹":4797,"à¦ĸà¦§":4798,"à¦ĸà¦¢":4799,"à¦Ĺà¦®à¦ķ":4800,"Ġà¦ħà§Ł":4801,"à¦¡à¦¬à¦ķ":4802,"à¦§à¦ľ":4803,"à¦§à¦¡":4804,"à¦ļà¦ĸ":4805,"à¦ļà¦ªà¦¦à¦¸":4806,"à¦¹à¦ļ":4807,"à¦£à§Ł":4808,"Ġà¦¶à¦łà¦¤":4809,"Ġà¦ıà¦ķà¦ĺà¦£":4810,"Ġà¦²à¦Łà¦ķ":4811,"Ġà¦ħà¦¨à¦¤":4812,"Ġà¦¸à¦®à¦ķà¦ķ":4813,"à§ľà¦Ĺ":4814,"Ġà¦®à¦¨à¦Ń":4815,"à¦°à¦£à§Ł":4816,"à¦Ŀà¦®":4817,"à¦ŀà¦¦":4818,"à¦ıà¦¨à¦ľ":4819,"à¦īà¦ĩà¦¯":4820,"à¦īà§İà¦ª":4821,"à¦Ĩà¦Ń":4822,"à¦Ĩà¦¬à¦°":4823,"à¦Ĩà¦¸à¦¨":4824,"Ġà¦ĩà¦ķà¦¬":4825,"à¦°à¦®à¦¸":4826,"à¦°à¦®à¦Ł":4827,"à¦ķà¦°à¦Ń":4828,"Ġà¦ħà¦¸à¦¹à¦¨":4829,"à¦ķà¦¤à¦¦":4830,"Ġà¦¶à¦¬à¦¬":4831,"Ġà¦®à¦¹à¦¡":4832,"Ġà¦ªà¦¥à¦¨":4833,"Ġà¦ĺà¦°à¦ľ":4834,"Ġà¦ĺà¦°à¦ĸ":4835,"à¦ħà¦®à¦°":4836,"à¦ħà¦§à¦°":4837,"Ġà¦ħà¦Ńà§Ł":4838,"à¦¤à¦¬à¦°à¦£":4839,"Ġà¦ķà¦²à¦Ł":4840,"Ġà¦ľà¦²à¦Ľà¦¬":4841,"Ġà¦ħà¦ªà¦ª":4842,"Ġà¦ħà¦ªà¦¹à¦°à¦£":4843,"à¦¯à¦¤à¦ĩ":4844,"Ġà¦ıà¦Ĺà¦ľ":4845,"à¦®à¦£à¦¬":4846,"à¦¸à¦®à¦Ĺ":4847,"à¦¬à¦¦à¦°à¦¬":4848,"à¦ıà¦ķà¦¥":4849,"Ġà¦²à¦ķà¦¡":4850,"Ġà¦Ĳà¦¨":4851,"à¦¬à¦ķà¦¥":4852,"à¦ªà¦¥à¦Ĺ":4853,"Ġà¦¸à¦®à§Łà¦Ł":4854,"Ġà¦ħà¦«à¦²":4855,"Ġà¦§à¦¨à¦°à¦¤":4856,"à¦®à§Łà¦¤":4857,"à§ĩâĢ¦)":4858,"à§ĩâĢ¦à¥¤âĢĿ":4859,"Ġà¦·à¦£":4860,"Ġà¦ľà§Łà¦§":4861,"à¦¶à¦¦à¦Ń":4862,"Ġà§¨à§ª":4863,"à¦ľà§Łà¦ķ":4864,"à¦¯à¦¶à¦¸":4865,"Ġà¦¬à¦¶à¦¬à¦°":4866,"Ġcol":4867,"Ġmy":4868,"Ġà§§à§§":4869,"Ġnot":4870,"Ġà¦īà¦ĩà¦¥":4871,"à¦ıà¦®à¦ıà¦¸":4872,"Ġà¦§à¦ªà¦§à¦ª":4873,"Ġbea":4874,"Ø§Ø":4875,"Ġà¦®à¦¦à¦¨à¦¦":4876,"ife":4877,"Ġare":4878,"!!":4879,"ia":4880,"ld":4881,"oc":4882,"te":4883,"Ð¸":4884,"à°":4885,"ĠV":4886,"à§±":4887,"à¦¿/":4888,"à¦¤à¦®à¦£":4889,"à¦²à¦ķà¦²":4890,"à¦²à¦ľà¦²":4891,"à¦ķà¦Ŀ":4892,"à¦¬à¦ķà¦²":4893,"à¦¬à¦ľà¦¯":4894,"à¦®à¦¦à¦°":4895,"à¦®à¦¹à¦¸":4896,"à¦®à¦²à¦¬":4897,"Ġà¦ķà¦ĩà¦Ľ":4898,"à¥ģ":4899,"à¥¤)":4900,"Ġà¦ªà¦¶à¦²":4901,"à¦¸à¦°à¦¤":4902,"à¦¦à¦ĸ":4903,"à¦ĩà¦īà¦°":4904,"Ġà¦¨à¦¶":4905,"Ġà¦®à¦ĸ":4906,"à¦ªà¦¤à¦°":4907,"à¦ªà¦®à¦¯":4908,"Ġà¦¤à¦ķà¦®":4909,"Ġà¦¹à¦ĩà§Ł":4910,"à¦ľà¦īà¦¦":4911,"à¦ĸà§ľ":4912,"à¦ĸà¦°à¦¬":4913,"Ġà¦ħà¦®à¦¨à¦ĩ":4914,"Ġà¦ķà¦°à¦¦":4915,"Ġà¦¯à¦¸":4916,"Ġà¦¯à§İà¦¸":4917,"à¦§à¦¬à¦¤":4918,"Ġà¦Ĺà§Łà¦¨":4919,"à¦£à¦²":4920,"à¦£à¦ľ":4921,"Ġà¦¶à¦¤à¦¬":4922,"Ġà¦°à¦Łà¦¨":4923,"à¦ĵà¦ł":4924,"à¦Ńà¦¡":4925,"à¦Ńà¦ªà¦¤":4926,"à¦ĤâĢ¦":4927,"à¦łà¦«":4928,"Ġà¦īà¦Ń":4929,"Ġà¦ĵà¦ľ":4930,"Ġà¦ĵà¦ħ":4931,"à¦°à¦¤à¦¬":4932,"à§ľà¦¸":4933,"à¦®à¦¨à¦¦":4934,"Ġà¦ıà¦ĩà¦°":4935,"à¦«à¦°à¦ķ":4936,"âĢĻ?":4937,"Ġà¦¬à¦²à¦²à¦¨":4938,"Ġà¦¬à¦²à¦²à¦¸":4939,"Ġà¦¬à¦²à¦²à¦¦":4940,"Ġà¦¬à¦²à¦²à¦ª":4941,"à¦°à¦£à¦ļà¦¨":4942,"à¦°à¦£à¦ªà¦¤":4943,"à¦¬à¦¨à¦¶":4944,"à¦Ŀà¦°à¦¨":4945,"à¦īà¦ĩà¦¨":4946,"à¦īà¦Łà¦¨":4947,"à¦¬à¦°à¦ĵ":4948,"à¦¤à¦°à¦Ń":4949,"à§Į-":4950,"Ġà¦ĩà¦·":4951,"Ġà¦ĩà¦®à¦°":4952,"Ġà¦ĩà¦¤à¦°à¦¬":4953,"à§Ī,":4954,"à¦°à¦®à§Ł":4955,"Ġà¦Ĺà¦²à¦¸":4956,"à§ĩâĢĶâĢĻ":4957,"à¦Ĺà¦²à¦¸":4958,"à¦Ĺà¦²à¦®à¦¯":4959,"à¦¬à¦¤à¦ķ":4960,"à¦ħà¦·":4961,"Ġà¦Ĩà¦¨à¦ķ":4962,"Ġà¦īà¦ªà¦¸à¦°":4963,"Ġà¦ıà¦®à¦¨à¦¤à¦°":4964,"à¦¶à¦¨à¦¸":4965,"Ġà¦ľà¦²à¦ĩ":4966,"Ġà¦ıà¦¤à¦¸à¦¬":4967,"à¦ĩà¦¨à¦²":4968,"Ġà¦ªà¦¦à¦Ł":4969,"à¦ıà¦ķà¦ľ":4970,"Ġà¦ħà¦ªà¦°à¦£":4971,"à¦ªà¦ķà¦ķ":4972,"Ġà¦ħà¦Ĺà¦Ń":4973,"Ġà¦ªà¦¤à¦ŀ":4974,"à§§à§¬":4975,"Ġà¦Ĺà§ľà¦Ĺà§ľ":4976,"Ġà¦¬à¦īà¦²":4977,"Ġà¦Ĺà¦£à¦ľ":4978,"à¤¦":4979,"Ġà§§à§¯à§Ń":4980,"à§¨à§«":4981,"à¦¬à¦Łà¦Ĺ":4982,"Ġà¦¸à§İà¦ļà¦°":4983,"à§Ńà§®":4984,"à¦Ĳà¦ķ":4985,"Ġà¦ķà¦¬à¦°à¦¸":4986,"ata":4987,"ater":4988,"ass":4989,"ome":4990,"à§§à§¯à§ª":4991,"à§§à§¯à§Ńà§§":4992,"Ġà§§à§®à§«à§Ń":4993,"etec":4994,"ĠRup":4995,"Ġà§§à§¨à§¦à§¦":4996,"Ġà§§à§¯à§¦à§«":4997,"ÂŃÂŃÂŃÂŃÂŃÂŃÂŃÂŃ":4998,"self":4999,"The":5000,"af":5001,"ak":5002,"but":5003,"ib":5004,"ie":5005,"iv":5006,"sh":5007,"tin":5008,"Ã©":5009,"Ġ+":5010,"Ġà¦£":5011,"à§ĩ)à¥¤":5012,"à¦°à¦ļà¦¯":5013,"à¦¨à¦°à¦¤":5014,"à¦¨à¦°à¦ķ":5015,"à¦¨à¦¸à¦°":5016,"à¦¨à¦®à¦¸":5017,"à¦¨à¦®à¦¨à¦¸":5018,"à¦¨à¦ķà¦¤à¦ķ":5019,"à¦¤à¦¨à¦ĵ":5020,"à¦²à¦Ĺà¦²":5021,"à¦²à¦§à¦°":5022,"à¦ķà¦°à¦ķà¦®":5023,"à¦¯à§İà¦ķ":5024,"à¦¯à¦ªà¦ķ":5025,"à¦¯à§Łà¦¨":5026,"à¦¯à¦Ĺà¦£":5027,"à§ģà¥¥":5028,"à¦¬à¦®à¦¨":5029,"à¦¬à¦¹à¦¤":5030,"à¦¼à§Ī":5031,"à¦®à¦ľà¦¨":5032,"à¦®à¦°à¦¸":5033,"à¦®à¦ĺà¦°":5034,"à¦®à¦ĺà¦Ł":5035,"Ġà¦ķà¦ļà¦²":5036,"à¥¤(":5037,"à¦¸à¦¬à¦¨":5038,"à¦¸à¦®à¦ķ":5039,"Ġà¦Ĩà¦ĩà¦ľ":5040,"à¦Łà¦®à¦¸":5041,"à¦¦à¦§":5042,"Ġà¦®à§Ł":5043,"Ġà¦¦à¦ĩà§Ł":5044,"Ġà¦¤à¦ªà¦¶":5045,"à¦¶à¦¡":5046,"à¦¶à¦°à¦ķ":5047,"à¦ĸà¦ĵà¦¯":5048,"à¦Ĺà¦¯à¦ľ":5049,"Ġà¦ħà¦°à¦ķ":5050,"à¦¡à¦¤":5051,"à¦§à¦®à¦¯":5052,"à¦ļà¦Ļ":5053,"Ġà¦°à¦ĵà¦¯":5054,"Ġà¦ıà¦ķà¦¤à¦°à¦«":5055,"à¦Ńà¦ª":5056,"à¦Ńà¦°à¦¸":5057,"à¦¼à¦¾âĢĿ":5058,"à¦¼à¦¾âĢ¦":5059,"Ġà¦Ĩà¦®à¦ļ":5060,"Ġà¦īà¦¶":5061,"à¦¾à¦ģâĢĶ":5062,"âĢĶâĢĿ":5063,"Ġà¦«à§ľ":5064,"Ġà¦ĸà¦¨à¦ķ":5065,"à¦¾à¥¤à¥¤":5066,"ĠâĢŀ":5067,"Ġà¦§à¦®":5068,"Ġà¦ħà¦¨à¦§":5069,"Ġà¦¸à¦®à¦¦à¦°":5070,"à¦ľà¦¨à¦ľ":5071,"à¦ľà¦¨à¦ķà¦Ń":5072,"à¦ıà¦·":5073,"Ġà¦¹à¦²à¦Ł":5074,"Ġà¦ķà¦¥à¦¨":5075,"Ġà¦ķà¦¥à¦ķà¦ł":5076,"Ġà¦ľà¦¨à¦¹":5077,"Ġà¦®à¦¤à¦¨à¦ĩ":5078,"âĢĵâĢĿ":5079,"Ġà¦Ŀà¦°à¦¬":5080,"à¦·à¦£à¦¤":5081,"à¦¬à¦²à¦¦":5082,"à¦ķà¦²à¦Ļ":5083,"à¦Ĺà¦²à¦ĩ":5084,"Ġà¦¶à¦¬à¦¦":5085,"Ġà¦īà¦¦à¦Ĺà¦¤":5086,"Ġà¦ªà¦¥à¦¶":5087,"Ġà¦ªà¦¥à¦ĺ":5088,"à¦®à¦¤à¦¤":5089,"à¦ªà¦¦à¦Ł":5090,"à¦ªà¦¦à¦ĩ":5091,"Ġà¦ĵà¦łà¦¤":5092,"à¦°à¦¹à¦Ł":5093,"à¦°à¦ľà¦²":5094,"Ġà¦ĵà¦ªà¦°à¦ĵ":5095,"Ġà¦¸à¦¹à¦¨":5096,"à¦¦à¦¨à¦ª":5097,"à¦§à¦ķà¦°à¦£":5098,"à¦ıà¦ĩà¦ĸ":5099,"à¦Ńà¦¬à¦ĵ":5100,"à¦¨à¦ķà¦¯":5101,"à¦¨à¦ķà¦¶":5102,"à§Ģ,âĢĿ":5103,"à§İà¦ķà¦ļ":5104,"Ġà¦Ńà¦°à¦Ľ":5105,"à¦ıà¦ķà¦¸à¦®à§Ł":5106,"Ġà¦ıà¦ķà¦ľà¦¨à¦ĵ":5107,"à¦¶à¦ķà¦ķ":5108,"à¦ĩà¦Łà¦Ł":5109,"à¦ĺà¦°à¦Ĺ":5110,"Ġà¦°à¦ķà¦®à¦Ł":5111,"Ġà¦ıà¦ķà¦ĩà¦¸":5112,"Ġà¦¦à¦²à¦Ĺ":5113,"Ġà¦¤à¦²à¦ª":5114,"Ġà¦¦à¦¶à¦°à¦¥":5115,"Ġà§¦":5116,"à¦¾âĢĻ-":5117,"à¦ķà¦¥à¦ķ":5118,"à¦ķà¦°à¦£à¦ª":5119,"Ġà¦ļà¦Łà¦ľà¦²à¦¦":5120,"Ġà¦ıà¦°à¦ķà¦®à¦ĩ":5121,"Ġà¦Ĩà¦ĩà¦¨à¦¶":5122,"Ġà¦ķà¦Łà¦®à¦Ł":5123,"à¦¾à¦ĥâĢĵ":5124,"à¦²à¦¦à¦¹":5125,"à§ĩ,âĢĿâĢĶ":5126,"à¦Īà¦¯":5127,"Ġà¦¸à¦«à¦²à¦Ń":5128,"à¦Ĩà¦ļà¦®à¦ķ":5129,"à¦ĩà¦ľà¦¨à¦ĩ":5130,"ore":5131,"Ġcl":5132,"Ġà¦¨à§ľà¦Ľ":5133,"ĠAdvik":5134,"ust":5135,"Ġà¦īà¦Ńà§Łà¦ĩ":5136,"Ġà§ªà§¦à§¦":5137,"à¦ľà¦Ńà¦¬à¦¨":5138,"âĢķâĢķâĢķâĢķâĢķâĢķâĢķâĢķ":5139,"ellig":5140,"Ġà¦®à¦ļà¦®à¦ļ":5141,"Ġhave":5142,"Ġcollec":5143,"Ġbeauty":5144,",âĢĵ":5145,"ful":5146,"from":5147,"uc":5148,"yan":5149,"ÙĨ":5150,"Ú©":5151,"Ġat":5152,"à¦¾à¦¾":5153,"à¦¾âĢĮ":5154,"à¦¾),":5155,"à§ĩ/":5156,"à§įâĢĵ":5157,"à¦¨à¦ªà¦ķ":5158,"à¦¤à¦£":5159,"à¦¤à¦ªà¦¤":5160,"à¦¯à¦ļà¦ķ":5161,"à¦¬à¦ļà¦°":5162,"à¦¬à§İà¦¸à¦°":5163,"à¦®à¦²à¦ķ":5164,"à¦®à¦ĵà§Ł":5165,"Ġà¦ķà¦·à¦¤":5166,"Ġà¦¸à¦Łà¦ķ":5167,"Ġà¦ªà¦¸à¦°":5168,"à¦¸à¦¹à¦¯":5169,"Ġà¦Ĩà¦Łà¦¬":5170,"Ġà¦Ĩà¦ĸà¦°":5171,"à¦Łà¦°à¦¬":5172,"à¦Łà¦¤à¦®":5173,"à¦¦à¦ķà¦°":5174,"à¦¦à¦ĺà¦°":5175,"à¦Ľà¦®":5176,"à¦ªà¦Łà¦ķ":5177,"à¦ªà¦ļà¦°":5178,"à¦ªà¦®à§Ł":5179,"à¦ªà§Łà¦¸":5180,"Ġà¦ıà¦¤à¦°":5181,"Ġà¦¤à¦¦à¦¬":5182,"Ġà¦¹à¦«":5183,"à¦ľà¦ªà¦°":5184,"à¦·à¦ĸ":5185,"à¦·à¦·":5186,"à¦·à¦ļ":5187,"à¦·à¦¬à¦°à¦£":5188,"à¦§à¦¬à¦¬":5189,"à¦ļà¦®à¦ķ":5190,"Ġà¦Ĺà¦¸":5191,"à¦¹à¦ªà¦°":5192,"à¦¹à¦¨à¦¤":5193,"Ġà¦¶à¦ķà¦Ł":5194,"Ġà¦°à¦¦":5195,"à¦ĤâĢĵ":5196,"à¦łà¦ĩ":5197,"Ġà¦¬à¦²à¦¬à¦¤":5198,"âĢĶâĢĶ":5199,"à§ĩ,âĢĶ":5200,"Ġà¦ĸà¦²à¦¨":5201,"ĠâĢĿ":5202,"Ġà¦ħà¦¨à¦®à¦¨":5203,"Ġà¦ĺà¦°à¦ķ":5204,"Ġà¦¬à¦²à¦²à¦¶":5205,"à¦¬à¦¨à¦ľ":5206,"à¦¬à¦¨à¦²à¦¤":5207,"à¦ŀà¦°":5208,"à¦°à¦ķà¦¦":5209,"à¦°à¦ķà¦°à¦£":5210,"Ġà¦Łà¦Ļ":5211,"Ġà¦¹à¦²à¦ķ":5212,"à¦¬à¦°à¦°":5213,"Ġà¦ķà¦¥à¦ķà¦¤":5214,"à¦¤à¦°à¦¹":5215,"à¦Ĩà¦·":5216,"à¦Ĩà¦²à¦¤":5217,"à¦Ĩà§Łà¦¨":5218,"à¦Ĩà¦ĩà¦¸":5219,"Ġà¦ĩà¦Ĺ":5220,"Ġà¦ĩà¦¥":5221,"Ġà¦ľà¦¨à¦®à¦¤":5222,"Ġà¦¡à¦Ł":5223,"Ġà¦ıà¦¸à¦ª":5224,"Ġà¦ıà¦¸à¦®à¦¯":5225,"à¦ķà¦°à¦ĵ":5226,"à¦ķà¦Łà¦¸":5227,"à¦ķà¦Łà¦¤à¦®":5228,"à¦ĥ?":5229,"à¦²à¦ķà¦ļ":5230,"Ġà¦ħà¦¤à¦²à¦¸":5231,"Ġà¦Ĩà¦ķà¦¨":5232,"à¦¶à¦¨à¦ĩ":5233,"Ġà¦ľà¦²à¦Ńà¦°":5234,"Ġà¦ħà¦ªà¦¤":5235,"à¦°à¦¯à¦¨":5236,"à¦¼à§ĭâĢĻ":5237,"à¦°à¦ĵà¦ĩ":5238,"Ġà¦ªà§ľà¦¨":5239,"Ġà¦ĵà¦ĩà¦¦":5240,"Ġà¦¬à¦Ľà¦°à¦Ĺ":5241,"à¦°à¦ªà¦ķ":5242,"à¦°à¦ªà¦ŀ":5243,"Ġà¦ıà¦°à¦ļ":5244,"à¦¬à¦¦à¦¤":5245,"à¦·à¦¤à¦ļ":5246,"à§°à¦Ń":5247,"à¦ıà¦ķà¦¶":5248,"à¦¤à¦®à¦®":5249,"Ġà¦Ĳà¦°":5250,"à§ģâĢĻà¥¤":5251,"à¦¸à¦«à¦²":5252,"à¦¹à¦¨à¦¦":5253,"Ġà¦īà¦ªà¦°à¦ĩ":5254,"à¦¸à¦ķà¦¦":5255,"Ġà¦¸à¦®à§Łà¦®à¦¤":5256,"à¦ıà¦¬à¦®":5257,"à¦°à¦®à¦£à¦Ł":5258,"à¦Łà¦¨à¦Ĺà¦°":5259,"Ġà¦¦à¦¶à¦¦":5260,"Ġà¦ļà¦ķà¦®à¦ķ":5261,"à¦ķà¦°à¦£à¦°à¦ļà¦¯":5262,"à¦°à¦«à¦°":5263,"Ġà¦°à¦¸à¦¸":5264,"Ġà¦Ĩà¦ĩà¦¨à¦ľ":5265,"à¦ļà¦°à¦£à¦ķ":5266,"à¦¨à§Łà¦¨à¦¶":5267,"the":5268,"à¦®à¦®à¦Ń":5269,"à§ĭ?âĢĿâĢĶ":5270,"Ġà¦Ĩà¦Łà¦ĸ":5271,"ens":5272,"à¦¿âĢĿâĢĵ":5273,"à¦¬à§Łà¦¸":5274,"Ġà¦ıà¦®à¦ı":5275,"ount":5276,"Ġpr":5277,"Ġlife":5278,"à§İà¦¸à¦ķà¦¦":5279,"Ġà§§à§Ńà§ªà§©":5280,"Ġà¦¸à¦®à¦Ŀà¦¦":5281,"Ġà¦®à¦Łà¦°à¦¶":5282,"à¦·à¦²à¦§":5283,"Ġà¦¹à¦ľà¦°à¦¤":5284,"ĠĠĠĠĠĠĠĠĠĠĠĠĠĠĠĠ":5285,"Ġà¦®à¦ĸà¦®à¦²":5286,"etective":5287,")-":5288,",-":5289,"ies":5290,"ove":5291,"ty":5292,"ud":5293,"×Ļ":5294,"Ø´":5295,"Ùħ":5296,"ÙĪ":5297,"à®":5298,"âĤ":5299,"ĠJ":5300,"à¦°à¦°à¦ķ":5301,"à¦°à¦ĭà¦£":5302,"à¦¿âĢĮ":5303,"à¦¨à¦¸à¦¨":5304,"à¦¤à§İà¦ķ":5305,"à¦²à¦£":5306,"à¦²à¦¤à¦°":5307,"à¦²à¦¦à¦°":5308,"à¦ķà¦¸à¦¬":5309,"à¦¯à¦°à¦ķ":5310,"à¦¯à¦ªà¦¦":5311,"à¦¬à¦ķà¦¬":5312,"à¦¬à¦ĩà¦Ł":5313,"à¦®à¦¸à¦²":5314,"à¦®à¦§à¦°":5315,"à§ĭâĢĿà¥¤":5316,"Ġà¦¬à§°":5317,"Ġà¦¬à¦ľà¦°":5318,"Ġà¦¸à¦²à¦¤":5319,"à¦¸à¦ªà¦¨":5320,"à¦¸à¦ķà¦°":5321,"Ġà¦Ĩà¦£à¦¬":5322,"à¦¦à¦«":5323,"à¦ĩà¦ı":5324,"à¦ĩà¦īà¦ľ":5325,"Ġà¦¨à¦¨à¦¦":5326,"Ġà¦®à¦°à¦¸":5327,"Ġà¦®à¦ļà¦ķ":5328,"Ġà¦¦à¦ĩà¦¯":5329,"Ġà¦¦à¦°à¦Ĺ":5330,"Ġà¦ıà¦°à¦ĵ":5331,"Ġà¦¤à¦°à¦£":5332,"Ġà¦¹à¦°à¦ķ":5333,"Ġà¦¹à¦°à¦¨":5334,"Ġà¦¹à¦Ĺà¦¸":5335,"à¦ľà§İ":5336,"à¦ľà¦ĺ":5337,"à¦¼à§ĩ)":5338,"à¦¼à§ĩ:":5339,"à¦¶à¦ķà¦¤":5340,"à¦¶à¦®à¦¤":5341,"à¦¶à¦ªà¦°à¦®":5342,"à¦Ĺà¦Ńà¦°":5343,"Ġà¦ħà¦®à¦¤":5344,"à¦ļà¦ķà¦¤":5345,"Ġà¦Ĺà¦Ľ":5346,"à¦¹à¦®à§Ł":5347,"à¦¥à¦°à¦ķ":5348,"Ġà¦ļà¦®à¦ļ":5349,"Ġà¦Ńà¦Ĺà¦°":5350,"Ġà¦°à¦ľà¦¸":5351,"à§ĩà¥¤)":5352,"Ġà¦ıà¦ķà¦ļà¦ķ":5353,"à¦łà¦ļà¦ķ":5354,"à¦łà¦¨à¦Ł":5355,"à§ĥà¦Ĥ":5356,"Ġà¦¥à¦ķà¦¥à¦ķ":5357,"Ġà¦²à¦ĩà§Ł":5358,"Ġà¦ĸà§Ł":5359,"Ġà¦ªà¦°à¦ļ":5360,"Ġà¦ªà¦°à¦§à¦°":5361,"Ġà¦ħà¦¨à§ľ":5362,"Ġà¦ĺà¦·à¦Ł":5363,"Ġà¦®à¦¨à¦ĩ":5364,"à¦®à¦¨à¦°":5365,"Ġà¦ıà¦ĩà¦ĩ":5366,"à¦«à¦²à¦¤":5367,"à¦«à¦¸à¦²":5368,"à¦Ŀà¦Ł":5369,"à§İà¦°":5370,"à¦ľà¦¨à¦ª":5371,"à¦īà¦ŀ":5372,"à¦°à¦ķà¦ķ":5373,"Ġà¦¹à¦²à¦ĵà¦¯":5374,"à¦¬à¦°à¦§":5375,"à§Į,":5376,"à¦Ĩà¦¸à¦¤":5377,"Ġà¦ĩà¦°à¦Ĺ":5378,"Ġà¦ľà¦¨à¦¸à¦¨":5379,"Ġà¦ľà¦¨à¦¶à¦ķ":5380,"Ġà¦¬à¦¨à¦ªà¦¥":5381,"à¦ĥ-":5382,"à¦¸à¦¬à¦¹":5383,"Ġà¦ħà¦¸à¦¤à¦°":5384,"à¦¯à¦¬à¦ĩà§Ł":5385,"à¦°à¦²à§Ł":5386,"Ġà¦ªà¦¥à¦°":5387,"Ġà¦ªà¦¥à¦ķ":5388,"à¦¦à¦°à¦Ń":5389,"à¦ĩà¦²à¦ĸ":5390,"Ġà¦īà¦ªà¦ķà¦¥":5391,"Ġà¦ľà¦²à¦¯":5392,"Ġà¦¸à¦°à¦Ĺà¦°à¦®":5393,"Ġà¦ĵà¦łà¦Ľ":5394,"Ġà¦Ĩà¦¶à¦°":5395,"à¦°à¦ľà¦Ń":5396,"à¦²à¦¨à¦¸":5397,"à¦°à¦¦à¦®":5398,"à¦¦à¦¨à¦®":5399,"à¦¦à¦¨à¦ĩ":5400,"à¦¦à¦¨à¦¨à¦Ĺà¦°":5401,"à¦§à¦¨à¦¶":5402,"à¦§à¦ķà¦¦":5403,"Ġà¦ĵà¦°à¦ĵ":5404,"à¦Ńà¦¬à¦ĩ":5405,"Ġà¦ľà¦®à¦¬":5406,"Ġà¦¬à¦ĩà¦¬":5407,"à¦¨à¦ķà¦ķ":5408,"à¦¤à¦²à¦Ĺ":5409,"à¦°à¦ªà¦Ł":5410,"à¦·à¦¤à¦Ł":5411,"Ġà¦«à¦²à¦ĵ":5412,"à§°à¦¥":5413,"à§°à¦ķà¦²":5414,"à¦ıà¦ķà¦ĸ":5415,"à§ģâĢĻ,":5416,"Ġà¦°à¦Ļà¦¬":5417,"Ġà¦°à¦Ļà¦Ł":5418,"à¦¸à¦«à¦²à¦¤":5419,"à¦Ĺà¦¨à¦¸":5420,"à¦¢à¦ķ":5421,"Ġà¦Īà¦ľ":5422,"Ġà¦¶à¦¤à¦¦à¦²":5423,"à¦¦à§Łà¦¸":5424,"Ġà¦¸à¦®à§Łà¦ķ":5425,"à¦ľà¦²à¦ľ":5426,"Ġà¦Ĺà¦£à¦¸":5427,"à¤Ł":5428,"à¦¤à¦¦à¦¶":5429,"Ġà§§à§¯à§«":5430,"à¦¬à¦¹à¦£":5431,"Ġà¦®à¦¦à¦¤":5432,"Ġà¦ľà§Łà¦¯":5433,"ink":5434,"à¦¬à¦ľà¦¨à¦¦":5435,"Ġà¦ľà¦Ĺà§İà¦ķ":5436,"Ġà¦Ĩà§Łà¦¤à¦¨":5437,"Ġà¦ıà¦ķà¦ĸà¦£":5438,"Ġà§¨à§Ń":5439,"Ġà¦°à¦¥à¦¯":5440,"à¦¿âĢ¦à¥¤":5441,"à¦ªà¦ľà¦Ļ":5442,"ated":5443,"à¦¼à¦¿à¦Ĥ-":5444,"Ġdis":5445,"à¦°à¦¬à¦£à¦¶à¦ķ":5446,"ĠPar":5447,"omp":5448,"rav":5449,"Ġà¦Ĺà¦²à¦¦à¦ĺà¦°":5450,"ung":5451,"Ġà§§à§¯à§¯à§«":5452,"ntellig":5453,"Ġitself":5454,"Ġcollective":5455,"Ġà¦¹à¦«à¦®":5456,"--":5457,"10":5458,"AI":5459,"ek":5460,"ge":5461,"ial":5462,"ment":5463,"ning":5464,"pH":5465,"pr":5466,"Â·":5467,"ÑĤ":5468,"Ñĥ":5469,"Ġà§ľ":5470,"Ġim":5471,"à¦¾...âĢĿ":5472,"à¦°à¦ªà¦¦":5473,"à¦°à¦Ĺà¦¨":5474,"à¦¨à¦ĩà¦¨":5475,"à¦¨à¦®à¦Ĺ":5476,"à¦¤à¦ªà¦¨":5477,"à¦ķà¦¬à¦¨":5478,"à¦ķà¦¸à¦®":5479,"à¦ķà¦¸à¦¬à¦ľ":5480,"à¦¯à¦ľà¦Ĺà¦¤":5481,"à§ģ)":5482,"à¦®à¦ªà¦¦":5483,"à¦®à¦ªà¦¥":5484,"Ġà¦¬à¦°à¦ķ":5485,"à¥¤âĢĶ":5486,"à¥¤âĢĵ":5487,"Ġà¦¸à¦ªà¦¨":5488,"Ġà¦¸à¦ªà¦ķ":5489,"Ġà¦¸à¦°à¦¬à¦¤":5490,"à¦¸à¦¨à¦¬":5491,"Ġà¦Ĩà¦¤à¦°":5492,"Ġà¦Ĩà¦ĩà¦ķ":5493,"à¦Łà¦¸à¦®":5494,"à¦¦à¦¡":5495,"à¦¦à¦ĸà¦²":5496,"à¦¦à¦ĺà¦¨":5497,"à¦ĩà¦Ļ":5498,"à¦ĩà¦ķà¦Ł":5499,"à¦ĩà¦®à¦²":5500,"à¦ĩà¦ıà¦ķ":5501,"à¦Ľà§Ł":5502,"à¦Ľà¦ķà¦Ł":5503,"à¦ªà¦«":5504,"à¦ªà¦ķà¦¤":5505,"à¦ªà¦²à¦¬":5506,"à¦ªà¦¬à¦¦":5507,"Ġà¦ıà¦Ĺà¦¤":5508,"Ġà¦ıà¦¤à¦¬":5509,"Ġà¦ıà¦ĺà¦°":5510,"Ġà¦¤à¦ķà¦¤à¦ķ":5511,"à§Ģà¦ĥ":5512,"à§ĢâĢĿà¥¤":5513,"Ġà¦¹à¦°à¦Ĺ":5514,"à¦ľà¦ķà¦²":5515,"âĢĲ":5516,"à¦ĸà¦ªà¦¤":5517,"à¦ĸà¦Ńà¦°":5518,"à¦Ĺà¦¤à¦°":5519,"à¦Ĺà¦Ĺà¦¤":5520,"à¦Ĺà¦®à¦¯":5521,"à¦Ĺà¦ĺà¦¨":5522,"à¦·à¦Ľ":5523,"Ġà¦ħà¦¹à¦°":5524,"à¦§à¦¬à¦°":5525,"à¦ļà¦¶à¦®":5526,"à¦¹à¦¨à¦²":5527,"à¦¹à¦Ńà¦°":5528,"à¦£à¦ªà¦ķ":5529,"Ġà¦°à¦ĩà¦¬":5530,"à¦ĵà¦ĵ":5531,"à§ĩà¥¤à¥¤":5532,"à¦Ńà¦ĵ":5533,"Ġà¦Ĩà¦°à¦ª":5534,"à§Ĥà¥¤":5535,"Ġà¦«à§Łà¦¸":5536,"à¦°à¦¤à¦¯":5537,"Ġà¦ĺà¦°à¦£":5538,"Ġà¦®à¦¨à¦¯":5539,"Ġà¦®à¦¨à¦ª":5540,"Ġà¦ıà¦ĩà¦¸à¦®à¦¯":5541,"à¦«à¦¦":5542,"à¦¬à¦¨à¦ªà¦¥":5543,"à§İà¦¸à¦¨":5544,"à§İà¦¸à¦®":5545,"à¦ľà¦¨à¦Ł":5546,"à¦ľà¦¨à¦®à¦¤":5547,"Ġà¦¸à¦¬à¦¸":5548,"à¦¬à¦°à¦¸":5549,"Ġà¦Ĩà¦Ľà¦®":5550,"à¦°à¦¬à¦Ń":5551,"à¦°à¦¬à¦ļà¦¨":5552,"Ġà¦ĩà¦®à¦²":5553,"Ġà¦ĩà¦¶à¦¤":5554,"Ġà¦Ĩà¦²à¦ª":5555,"Ġà¦ħà¦¬à¦Ĺà¦¤":5556,"à¦ĺà¦·":5557,"à¦¬à¦²à¦Ł":5558,"à¦¬à¦²à¦ª":5559,"Ġà¦¬à¦¨à¦Ł":5560,"Ġà¦ħà¦°à¦«":5561,"Ġà¦Ĩà¦ªà¦¨à¦ľà¦¨":5562,"à¦²à¦ķà¦¬":5563,"à¦°à¦¥à¦®à¦ľà¦¨":5564,"à§ĩâĢĶâĢĶ":5565,"à¦ķà¦¤à¦Ł":5566,"à¦Ĺà¦²à¦¬à¦¨":5567,"à¦¿à¦Ĥ?":5568,"Ġà¦ªà¦¥à¦¯":5569,"Ġà¦ĺà¦°à¦Ľ":5570,"à¦ħà¦°à¦¬":5571,"à¦ħà¦¬à¦¤":5572,"à¦ħà§Łà¦¨":5573,"Ġà¦Ĩà¦¨à¦ľ":5574,"à¦ĩà¦²à¦¹":5575,"à¦ĩà¦²à¦«à¦²à¦ķ":5576,"Ġà¦īà¦ªà¦ªà¦¤":5577,"à¦Ĺà¦¤à¦¦":5578,"à¦¤à¦¬à¦®":5579,"à¦¶à¦¨à¦ª":5580,"Ġà¦ľà¦²à¦®":5581,"Ġà¦ľà¦²à¦ļà¦°":5582,"à¦²à¦¤à¦®":5583,"à¦ªà¦¦à¦Ĺ":5584,"à¦°à¦¹à¦Ĺ":5585,"à¦¨à¦¬à¦ļ":5586,"Ġà¦¸à¦¹à¦®à¦¤":5587,"Ġà¦¸à¦¹à¦§à¦°":5588,"Ġà¦Ĩà¦¤à¦¶à¦¬":5589,"à¦®à¦¯à¦ľ":5590,"Ġà¦¬à¦ĩà¦ĩ":5591,"Ġà¦¬à¦ĩà¦ªà§ľ":5592,"Ġà¦ħà¦ľà¦°":5593,"à¦°à¦ªà¦²":5594,"!âĢĿ,":5595,"à¦¯à¦®à¦ĩ":5596,"Ġà¦ĩà¦¨à¦¹":5597,"Ġà¦Ĺà¦°à¦Ĺà¦°":5598,"à§°à¦®à¦£":5599,"à§°à¦¥à¦®":5600,"à§°à¦ļà¦£":5601,"Ġà¦ıà¦ķà¦¬à¦ļà¦¨":5602,"Ġà¦ħà¦¬à¦¸à¦°à¦ª":5603,"à¦¯à¦¸à¦Ń":5604,"à¦¸à¦«à¦°":5605,"à¦¬à¦ķà¦¨":5606,"Ġà¦Ĩà¦¦à¦¬":5607,"à¦ķà¦¨à¦®":5608,"à¦¨à¦¸à¦¹":5609,"à¦°à¦¹à¦£à¦ķ":5610,"à¦®à¦¸à¦ľ":5611,"à¦ķà¦¦à¦®":5612,"Ġà¦¬à§ľà¦°":5613,"Ġà¦Ĺà¦£à¦¹à¦¤":5614,"à¤ľ":5615,"à¦°à¦«à¦°à¦®":5616,"Ġà¦ļà¦Łà¦ļà¦Ł":5617,"âĢ¦âĢĿâĢĶ":5618,"à§Ŀà¦Ń":5619,"Ġà¦Ĩà¦ĩà¦¨à¦Ĺà¦¤":5620,"Ġà¦®à¦¦à¦¨à¦¬":5621,"Ġà¦īà¦ªà¦¨à¦¯":5622,"à§¨à§ª":5623,"à¦ľà¦Ĺà§İà¦ķ":5624,"intu":5625,"Ġà¦¸à§İà¦ļ":5626,"Ġà¦¸à§İà¦ªà¦¥":5627,"à¦¾âĢĿ,":5628,"ans":5629,"ant":5630,"à¦¬à¦°à¦£à¦ķ":5631,"à¦¤à¦ĸà¦¨à¦ĵ":5632,"Ġà§¨à§¦à§¦":5633,"Ġà¦Ĩà¦ĩà¦¨à¦¤":5634,"à§©à§¦":5635,"Ġà¦Ĩà¦Łà¦¶":5636,"Ġà¦¢à¦²à¦¢à¦²":5637,"à§ªà§¦":5638,"à§ªà§«":5639,"à¦¾?âĢĿâĢĶ":5640,"à¦¾,âĢĿâĢĶ":5641,"à¦ĭà¦¦":5642,"Ġso":5643,"à§ĭâĢĻâĢĶ":5644,"ate":5645,"Ġwor":5646,"Ġby":5647,"Ġfrom":5648,"Ġpro":5649,"Ġà¦ķà¦¸à¦°à¦¤":5650,"Ġindig":5651,"use":5652,"æŃĵæŃĵæŃĵæŃĵæŃĵæŃĵæŃĵæŃĵæŃĵæŃĵæŃĵæŃĵæŃĵæŃĵæŃĵæŃĵ":5653,"âĢ¨Ċ":5654,"Ġà¦Ĩà¦ĵà¦°à¦¤":5655,"Ġà¦ļà¦®à¦ļà¦®":5656,"Ġindigo":5657,"?âĢĶ":5658,"In":5659,"RE":5660,"au":5661,"cle":5662,"de":5663,"ff":5664,"ho":5665,"hol":5666,"ive":5667,"iya":5668,"ok":5669,"oy":5670,"ph":5671,"pp":5672,"por":5673,"ted":5674,"ves":5675,"Ð²":5676,"Ð¼":5677,"áĢ":5678,"Ġle":5679,"à§²":5680,"à¦°à¦°à¦¥":5681,"à¦°à¦Ĩà¦®":5682,"à¦°à¦¡à¦¬":5683,"à¦°à¦¡à¦ķ":5684,"à§įâĢĻ":5685,"à§įâĢ¦":5686,"à¦¨à¦ªà¦°":5687,"à¦¨à¦ı":5688,"à¦¨à¦¸à¦¬":5689,"à¦¤à¦ŀ":5690,"à¦¤à¦ĺ":5691,"à¦¤à¦ķà¦²":5692,"à¦¤à¦ļà¦²":5693,"à¦²à¦¨à¦ĵ":5694,"à¦²à¦Ĩà¦®":5695,"à¦ķà¦ķà¦°":5696,"à¦ķà¦ªà¦¤":5697,"à¦ķà¦®à¦£":5698,"à¦¯à¦¬à¦²":5699,"à§ģâĢ¦âĢĿ":5700,"à¦¬à¦¥":5701,"à¦¬à¦ĵà¦¯":5702,"à¦¬à¦®à¦¤":5703,"à¦¼âĢĿà¥¤":5704,"à¦®à¦ªà¦¨":5705,"à¦®à¦ļà¦ķ":5706,"Ġà¦ķà¦ķà¦Ł":5707,"Ġà¦¬à¦Łà¦²":5708,"Ġà¦¸à¦¨à¦¤":5709,"à¦Łà¦°à¦¶":5710,"à¦¦à¦¹à¦¨":5711,"à¦ĩà¦¥":5712,"à¦ĩà¦ķà¦²":5713,"à¦ĩà¦ĵà§Ł":5714,"à¦ĩà¦Ĺà¦ŀ":5715,"Ġà¦®à¦°à¦¹":5716,"à¦Ľà¦Ń":5717,"Ġà¦¦à¦¬":5718,"Ġà¦ıà¦®à¦ª":5719,"Ġà¦¤à¦°à¦®":5720,"à¦ľà¦²à¦ķ":5721,"à¦ľà¦ªà¦¦":5722,"à¦ľà¦¸à¦®":5723,"à¦¼à§ĩâĢĻ":5724,"à¦¼à§ĩ?âĢĻ":5725,"à¦¼à§ĩ?âĢĿ":5726,"à¦¶à¦°à¦¤":5727,"à¦¶à¦°à¦®":5728,"à¦ĸà¦¹":5729,"Ġà¦ħà¦ªà¦¨":5730,"à¦¡à¦ĵà§Ł":5731,"Ġà¦¯à¦·":5732,"à¦§à¦¬à¦¨":5733,"à¦ļà¦¢":5734,"Ġà¦Ĺà¦Ł":5735,"Ġà¦Ĺà¦ľà¦°":5736,"Ġà¦Ĺà¦ľà¦²":5737,"à¦¹à¦¬à¦¨":5738,"à§Łà¦¤à¦®":5739,"à¦£à¦ĸ":5740,"à¦£à¦ĺ":5741,"Ġà¦¶à¦¬à¦°":5742,"Ġà¦¶à¦¤à¦°à¦ŀ":5743,"Ġà¦ıà¦ķà¦°à¦¤":5744,"à¦Ńà¦ķà¦°":5745,"à¦Ńà¦ľà¦¨à¦ķ":5746,"à¦¼à¦¾âĢĻ,":5747,"Ġà¦Ľà¦ª":5748,"Ġà¦Ĩà¦®à¦¡":5749,"Ġà¦Ĩà¦®à¦¹":5750,"Ġà¦Ĩà¦®à¦²à¦ķ":5751,"à¦łà¦ĸ":5752,"Ġà¦¬à¦²à¦ª":5753,"Ġà¦¬à¦²à¦¶":5754,"Ġà¦īà¦Ľà¦²":5755,"Ġà¦²à¦¬à¦Ļ":5756,"Ġà¦ĵà¦®à¦²":5757,"Ġà¦ĵà¦ľà¦°":5758,"Ġà¦ĵà¦ĺà¦°":5759,"Ġà¦ĵà§ľà¦¨":5760,"à§Ĥ,":5761,"Ġà¦«à¦²à¦¬":5762,"Ġà¦ĸà¦ĩ":5763,"Ġà¦ĸà¦Ļ":5764,"à¦¾à¥¤âĢ¦":5765,"ĠâĢ¢":5766,"Ġà¦ħà¦¨à¦Łà¦¨":5767,"à¦¬à¦¨à¦°":5768,"à¦¬à¦¨à¦Ĺ":5769,"à¦ŀà¦¬":5770,"à§İà¦¨":5771,"à§İà¦²":5772,"à¦ľà¦¨à¦Ĺ":5773,"à¦īà§ľ":5774,"à¦īà¦ĩà¦²":5775,"à¦īà¦ªà¦ķ":5776,"à¦īà¦łà¦¤":5777,"Ġà¦¸à¦¬à¦®":5778,"à¦ªà¦¨à¦Ł":5779,"à¦°à¦¬à¦ªà¦ķ":5780,"à¦Ĩà¦ķà¦¸":5781,"à¦Ĩà¦Łà¦Ł":5782,"Ġà¦ĩà¦īà¦ķ":5783,"Ġà¦ĩà¦¶à¦°":5784,"Ġà¦ĩà¦īà¦®":5785,"Ġà¦ĩà¦¨à¦¬à¦ķ":5786,"Ġà¦Ĩà¦²à¦®à¦ķ":5787,"Ġà¦łà¦ķà¦¬":5788,"Ġà¦Ŀà¦Ĺà§ľ":5789,"à¦ĺà¦¤à¦°":5790,"à¦·à¦£à¦ľà¦¨":5791,"à¦¨à¦¤à¦¤à¦°":5792,"à¦¸à¦¬à¦Ł":5793,"à¦¯à¦¬à¦ĩà¦¯":5794,"à¦°à¦¥à¦®à¦ľ":5795,"Ġà¦ıà¦²à¦ĩà¦¡":5796,"à§ĭà¦ģ,":5797,"à¦ħà§°":5798,"Ġà¦Ĩà¦¨à¦ļ":5799,"à¦¦à¦°à¦¦":5800,"à¦ĩà¦²à¦Ĺ":5801,"Ġà¦īà¦ªà¦¶à¦®":5802,"à¦Ľà¦¨à¦Ł":5803,"Ġà¦ľà¦²à¦¨":5804,"Ġà¦ľà¦²à¦Ľà¦Ł":5805,"Ġà¦¸à¦°à¦¦":5806,"à¦ªà¦¦à¦ĵ":5807,"à¦²à¦¬à¦¦":5808,"à¦°à¦ľà¦°":5809,"à¦°à¦ľà¦¤":5810,"à¦°à¦ľà¦Ĺà¦¤":5811,"à¦¨à¦¬à¦Ĺ":5812,"Ġà¦ħà¦ªà¦Ł":5813,"Ġà¦¸à¦¹à¦®à¦°à¦£":5814,"à¦°à¦¦à¦¯":5815,"à¦§à¦¨à¦®":5816,"à¦¹à¦²à¦¦":5817,"Ġà¦¬à¦ĩà¦¸":5818,"à¦®à¦£à¦¤":5819,"à¦¸à¦°à¦Ĺ":5820,"à¦¿à¦ĥ!":5821,"à¦¦à¦²à¦¬à¦²":5822,"à§°à¦ĩ":5823,"à¦ıà¦ķà¦ķ":5824,"à¦ıà¦ķà¦ª":5825,"Ġà¦Ĳà¦²":5826,"Ġà¦°à¦Ļà¦ĵ":5827,"à¦Łà¦²à¦Ĺ":5828,"à§ĩ!)":5829,"Ġà¦ħà¦Ĺà¦®":5830,"ĠĠĠ":5831,"à¦Ĺà¦¨à¦°à¦ķ":5832,"Ġà¦Ńà¦¬à¦ĺ":5833,"à¦ĩà¦Łà¦¸":5834,"à¦ĩà¦Łà¦Ĺ":5835,"à¦ķà¦¨à¦¸":5836,"Ġà¦¶à¦¤à¦Ĺ":5837,"à¦ªà¦¥à¦Ł":5838,"à¦¼à§ĢâĢĶ":5839,"Ġà¦ķà¦¨à¦¡":5840,"Ġà¦ķà¦¨à¦Ń":5841,"à¦²à¦®à¦§":5842,"à¦²à¦®à¦¹":5843,"à¦®à¦¹à¦ķ":5844,"à¦£à¦ķà¦£":5845,"à¦¦à¦¸à¦ĩ":5846,"Ġà¦Ĺà¦£à¦ªà¦¤":5847,"à¦ķà¦°à¦£à¦¬":5848,"à¤ļ":5849,"à§Ŀà¦ļ":5850,"Ġà¦ĵà¦ªà¦°à¦¤à¦²":5851,"Ġà¦ıà¦°à¦ªà¦°à¦ĩ":5852,"à¦·à§Łà¦¬à¦¸":5853,"ine":5854,"à¦ªà¦¯à¦ľ":5855,"ank":5856,"ers":5857,"Ġà¦²à§ľà¦¬":5858,"Ġà¦Ńà¦Ĺà¦¬à¦¨":5859,"à§©à§¨":5860,"à¦Īà¦¦":5861,"Ġà¦Ĩà¦Łà¦ľà¦¨":5862,"à¦¾âĢ¦à¥¤":5863,"enti":5864,"ons":5865,"à¦¬à§Łà¦¬":5866,"Ġà¦ĩà¦®à¦ªà¦¸":5867,"Ġà¦°à¦¤à¦¨à¦²":5868,"Ġà¤¬":5869,"Ġme":5870,"Ġac":5871,"Ġà¦ĸà¦¨à¦ĸà¦¨":5872,"à¦¯à¦ľà¦¨à¦ķà¦Ń":5873,"ign":5874,"áĥĺ":5875,"ost":5876,"ack":5877,"age":5878,"Ġà¦¢à¦ķà¦¢à¦ķ":5879,"Ġà¦Ńà¦°à¦£à¦ª":5880,"Ġà¦ĵà¦ħà¦°à¦¹":5881,"à§§à§¯à§ªà§Ń":5882,"TI":5883,"az":5884,"be":5885,"iz":5886,"low":5887,"pend":5888,"ue":5889,"à´":5890,"âĨ":5891,"Ġ,":5892,"ĠY":5893,"ĠZ":5894,"ĠÃ":5895,"Ġê":5896,"à§ĩ..":5897,"à¦¨à¦¬à¦²":5898,"à¦¨à¦¸à¦¤":5899,"à¦¤à¦¦à¦°":5900,"à¦¤à¦®à¦ķ":5901,"à¦²à¦ĵà§Ł":5902,"à¦ķà¦®à¦¨":5903,"à¦ķà¦ªà¦¥":5904,"à¦¯à¦£":5905,"à¦¯à¦¸à¦¬":5906,"à¦¯à¦¤à¦¨":5907,"à¦¯à¦ķà¦¤":5908,"à¦¯à¦ªà¦¤":5909,"à¦¯à¦Ńà¦¬":5910,"à¦¯à¦®à¦°":5911,"à¦®à¦Ĺà¦°":5912,"Ġà¦ķà¦ĵ":5913,"Ġà¦ķà¦ªà¦°":5914,"Ġà¦ķà¦Łà¦¨":5915,"Ġà¦¬hol":5916,"à¥Ĥ":5917,"Ġà¦¸à§ľ":5918,"Ġà¦¸à¦°à¦£":5919,"Ġà¦¸à¦ľà¦¨":5920,"Ġà¦¸à¦ĩà¦Ľ":5921,"Ġà¦¸à¦¦à¦Ĺ":5922,"Ġà¦ªà¦ªà¦ķà¦°":5923,"à¦¸à§ľ":5924,"à¦¸à¦¯à¦¨":5925,"à¦¸à§İà¦ķ":5926,"à¦¸à¦¯à¦ľ":5927,"Ġà¦Ĩà¦ĩà¦¤":5928,"Ġà¦Ĩà¦ĩà¦ª":5929,"Ġà¦Ĩà¦ĵà§ľ":5930,"à¦Łà¦ªà¦°":5931,"à¦Łà¦ĺ":5932,"à¦Łà¦¸à¦¨":5933,"à¦Łà¦¸à¦¹":5934,"à¦Łà¦ªà¦¤à¦Ļ":5935,"à¦¦à¦Ļ":5936,"à¦¦à¦¨à¦ĵ":5937,"à¦¦à§°":5938,"à¦¦à¦¬à¦ķ":5939,"à¦¦à¦ķà¦ķ":5940,"à¦¦à¦¶à¦®":5941,"à¦ĩà¦£":5942,"à¦ĩà¦¤à¦²":5943,"à¦ĩà¦¡à¦²":5944,"à¦ĩà¦¶à¦Ł":5945,"à¦ĩà¦ıà¦ķà¦ľà¦¨":5946,"Ġà¦®à¦²à¦¤":5947,"Ġà¦¦à¦ĸ":5948,"à¦ªà¦¸à¦®":5949,"Ġà¦ıà¦Ļ":5950,"Ġà¦¤à¦¯":5951,"à§ĢâĢ¦âĢĿ":5952,"à¦ľà¦®à¦¨":5953,"à¦ľà¦¤à¦¬":5954,"à¦ľà¦¯à¦¨":5955,"à¦ľà§Łà¦Ĺ":5956,"à¦ĸà¦°à¦¤":5957,"à¦Ĺà¦ªà¦°":5958,"Ġà¦ħà¦ľà¦¨":5959,"Ġà¦ħà¦¹à¦¨":5960,"à¦¡à¦¬à¦ª":5961,"Ġà¦¯à§İ":5962,"à¦§à§°":5963,"à¦§à¦¬à¦ķ":5964,"à¦ļà¦¦à¦¶":5965,"Ġà¦Ĺà¦Łà¦Ĺ":5966,"à¦¹à¦ĵà¦¯":5967,"Ġà¦¶à¦¬à¦¨à¦®":5968,"à¦ģâĢĻ,":5969,"Ġà¦ļà¦ıà¦°":5970,"Ġà¦°à¦¸à¦®":5971,"Ġà¦°à¦£à¦¨":5972,"à¦ĵà¦¸":5973,"Ġà¦ıà¦ķà¦Ľ":5974,"Ġà¦ıà¦ķà¦ıà¦ķ":5975,"à¦Ńà¦°à¦£":5976,"à¦¼à¦¾?âĢĿ":5977,"Ġà¦Ľà¦²à¦ķ":5978,"à¦łà¦ľ":5979,"Ġà¦īà¦«":5980,"Ġà¦īà¦¤à¦°":5981,"à§ĥà§į":5982,"à¦Ļà¦Ł":5983,"Ġà¦²à¦Ľ":5984,"Ġà¦ĵà¦°à¦®":5985,"Ġà¦ªà¦°à¦ªà¦ķ":5986,"ĠâĢĮ":5987,"Ġà¦§à¦²":5988,"Ġà¦¸à¦®à¦ħà¦§":5989,"à¦¼à¦¿âĢĻ":5990,"Ġà¦®à¦¨à¦°":5991,"Ġà¦®à¦¨à¦®à¦°":5992,"à¦®à¦¨à¦Ń":5993,"Ġà¦¬à¦²à¦²à¦¹":5994,"Ġà¦¬à¦²à¦²à¦«":5995,"Ġà¦¬à¦²à¦²à¦ıà¦¬":5996,"à¦¬à¦¨à¦ª":5997,"à¦¬à¦¨à¦ļ":5998,"à¦¬à¦¨à¦Ĺà¦°":5999,"à¦īà¦²à¦ķ":6000,"à¦īà¦ªà¦¯":6001,"Ġà¦Łà§Łà¦²":6002,"Ġà¦ķà¦¥à¦®":6003,"Ġà¦ĩà¦®à¦¤":6004,"Ġà¦ľà¦¨à¦¬":6005,"Ġà¦Ĩà¦²à¦ķ":6006,"Ġà¦Ĩà¦²à¦Ļ":6007,"Ġà¦¡à¦¨":6008,"Ġà¦¡à¦¬":6009,"Ġà¦¡à¦²à¦«":6010,"Ġà¦®à¦¤à¦Ł":6011,"Ġà¦Ŀà¦²":6012,"à¦ĺà¦ľ":6013,"à¦°à¦®à¦²":6014,"à¦¼,âĢĻ":6015,"Ġà¦¬à¦¨à¦¨":6016,"Ġà¦¬à¦¨à¦ļ":6017,"Ġà¦¬à¦¨à¦²à¦¤":6018,"Ġà¦ıà¦²à¦Ĺ":6019,"à¦¤à¦¨à¦Ĺ":6020,"à§ĩâĢĶâĢĿ":6021,"à¦ķà¦¤à¦®":6022,"Ġà¦¬à¦°à¦ĩ":6023,"Ġà¦¬à¦°à¦ªà¦ķ":6024,"à¦Ĺà¦²à¦Ĺ":6025,"à¦¬à¦¤à¦¶":6026,"à¦ħà¦«à¦²":6027,"Ġà¦ħà¦¤à¦¶à¦¤":6028,"à¦¤à¦¬à¦¯":6029,"Ġà¦ħà¦¦à¦ķ":6030,"à¦®à¦¤à¦®":6031,"à¦®à¦¤à¦Ń":6032,"Ġà¦Ĩà¦ķà¦Ľ":6033,"Ġà¦Ĩà¦ķà¦£":6034,"Ġà¦ľà¦²à¦ļ":6035,"Ġà¦ľà¦²à¦®à¦Ĺ":6036,"à¦°à¦ªà¦°à¦¨":6037,"à¦¹à¦¸à¦Ł":6038,"à¦°à¦¹à¦ĵ":6039,"à¦¨à¦¬à¦®":6040,"à¦¨à¦¬à¦§à¦°":6041,"Ġà¦¸à¦¹à¦ľà¦¬":6042,"à¦²à¦¨à¦Ĺ":6043,"à¦²à¦¨à¦ļ":6044,"à¦°à¦¦à§Ł":6045,"à¦¦à¦¨à¦¦":6046,"à¦§à¦¨à¦¹":6047,"Ġà¦Ĩà¦¤à¦ª":6048,"à¦Ńà¦¬à¦ķ":6049,"Ġà¦īà§İà¦°":6050,"Ġà¦īà§İà¦ĸ":6051,"Ġà¦īà§İà¦¸à¦¬à¦ĩ":6052,"à¦·à¦ķà¦¥":6053,"à¦¿à¦ĥ,":6054,"à§°à¦²":6055,"à§°à¦¬à¦²":6056,"à¦ıà¦ķà¦ªà¦°":6057,"à¥¤âĢĻâĢĿ":6058,"Ġà¦ħà¦Ĺà¦¸":6059,"Ġ(âĢĺ":6060,"Ġà¦Ĩà¦¹à¦®à¦¦":6061,"Ġà¦¬à¦īà¦Ŀ":6062,"Ġà¦ªà¦¶à¦®":6063,"à¤¶":6064,"âĢĻ,âĢĻ":6065,"à§¦à§§":6066,"à¦®à¦¦à¦¤":6067,"à¦ıà¦ĸà¦¨à¦ķ":6068,"Ġà¦ıà¦°à¦ķà¦®à¦Ł":6069,"à¦ļà§Łà¦ķ":6070,"Ġà¦ķà¦Łà¦ķà¦Ł":6071,"à¦Ŀà¦°à¦Ŀà¦°":6072,"Ġà¦Ĩà¦ļà¦°à¦£à¦ĩ":6073,"Ġà¦ļà¦°à¦®à¦Ń":6074,"à¦¨à¦ªà¦ŀ":6075,"int":6076,"Ġà¦ıà¦¡à¦Ń":6077,"Ġà¦ıà¦¡à¦®à¦¨":6078,"Ġà¦¸à§İà¦ķà¦°":6079,"ana":6080,"Ġà¦ľà¦Ĺà¦¬à¦¨":6081,"à¦ľà¦¦à¦£":6082,"Ġà§¨à§©":6083,"Ġà¦Ķà§İà¦¸":6084,"Ġà¦¨à¦°à¦ĵà¦¯":6085,"Ġà¦¦à¦ĸà¦²à¦¦":6086,"à¦ļà¦®à§İà¦ķ":6087,"à¦īà¦¡à¦¸":6088,"à¦ķà¦ĵà¦¦":6089,"art":6090,"ism":6091,"Ġà¦ľà¦Ĺà§İà¦¬":6092,"Ġbet":6093,"Ġà¦ĩà¦īà¦ıà¦¸":6094,"ase":6095,"ould":6096,"Ġà§©à§¦à§¦":6097,"Ġà¤Ĩ":6098,"à¦Łà¦ĵà¦ħà¦°":6099,"à¦Ĩà¦¤à¦Ļ":6100,"Ġher":6101,"à¦ĸà¦¬à¦°à¦¦":6102,"ĠPr":6103,"à§°à¦¹à¦£":6104,"rah":6105,"à¦£à¦Ĺà¦¤à¦®":6106,"Ġint":6107,"Ġà§§à§®à§¬à§¦":6108,"Ġà§«à§¦à§¦":6109,"Ġà¦ıà¦ķà¦¨à¦ľà¦°":6110,"ĠIn":6111,"Ġà§ªà§«":6112,"Ġà¦īà¦ĩà¦Ļ":6113,"Ġà§§à§Ńà§«à§¬":6114,"ĠRiya":6115,"ĠDetective":6116,"Ġà¦Ĺà¦Ĺà¦¨à¦ļ":6117,"ĠThe":6118,"Ġà¦ħà¦ªà¦¦à¦¸":6119,"ace":6120,"Ġà¦ĵà¦²à¦Łà¦ª":6121,"à§¯à§®":6122,"ike":6123,"Ġà§§à§¯à§¨à§§":6124,"Ġwhich":6125,"able":6126,"Ġà¦°à¦¸à¦¬à¦¤":6127,"Ġà¦Ĺà¦Łà¦Ĺà¦Ł":6128,";-":6129,"AR":6130,"GO":6131,"LE":6132,"ath":6133,"ach":6134,"ber":6135,"der":6136,"den":6137,"ev":6138,"ey":6139,"hin":6140,"hat":6141,"ll":6142,"oT":6143,"pec":6144,"tle":6145,"uhin":6146,"ven":6147,"ym":6148,"Ø¯":6149,"à¨":6150,"à«":6151,"ãģ":6152,"ä¸":6153,"åĵ":6154,"ĠĠĠĊ":6155,"Ġti":6156,"Ġà¦Ļ":6157,"à§ĩà§Ģ":6158,"à¦¨à¦Ĺà¦¤":6159,"à¦¨à¦ļà¦¨":6160,"à¦¨à¦ļà¦ķ":6161,"à¦¨à¦ıà¦ķà¦Ł":6162,"à¦¨à¦ĸà¦ļ":6163,"à¦¤à¦¬à¦²":6164,"à¦¤à¦ĸà¦¤":6165,"à¦¤à¦¸à¦¹":6166,"à¦²à¦®à¦¤":6167,"à¦²à¦Łà¦¨":6168,"à¦²à¦ªà¦®":6169,"à¦ķà¦¸à¦¨":6170,"à¦ķà¦¦à¦²":6171,"à¦ķà¦ªà¦Ł":6172,"à¦ķà¦¥à¦¨":6173,"à¦¯à§°":6174,"à§ģ.":6175,"à§ģà§ĩ":6176,"à¦¬à¦ĺ":6177,"à¦®à¦ļà¦¤":6178,"Ġà¦ķà¦ĸ":6179,"Ġà¦ķà¦ĩà¦²":6180,"Ġà¦ķà¦ķà¦ª":6181,"Ġà¦¬à¦ķà¦²":6182,"Ġà¦¬à¦ķà¦¤":6183,"Ġà¦¸à¦¶à¦Ļ":6184,"Ġà¦¸à¦¦à¦²à¦¬à¦²":6185,"Ġà¦ªà¦®":6186,"à¦¸à¦ĸà¦¨":6187,"à¦¸à¦¤à¦°":6188,"à¦¸à¦°à¦¸":6189,"à¦¸à¦¨à¦ĵ":6190,"à¦¸à¦°à¦¶":6191,"à¦¸à¦ľà¦²":6192,"Ġà¦Ĩà¦¦à¦¨":6193,"Ġà¦Ĩà§°":6194,"Ġà¦Ĩà¦Łà¦¦":6195,"Ġà¦Ĩà¦īà¦¡":6196,"à¦Łà¦®à¦¨":6197,"à¦Łà¦ķà¦²":6198,"à¦Łà¦°à¦Ł":6199,"à¦Łà¦ĺà¦°":6200,"à¦ĩà¦ªà¦®":6201,"à¦ĩà¦«à¦¸":6202,"Ġà¦¨à¦¬à¦ª":6203,"Ġà¦¨à¦²à¦Ł":6204,"Ġà¦¨à¦°à¦¬à¦²":6205,"Ġà¦®à¦²à¦¯":6206,"à¦Ľà¦ļ":6207,"Ġà¦¦à§°":6208,"à¦ªà¦¬à¦¨":6209,"à¦ªà¦ĺ":6210,"à§Ģ)":6211,"Ġà¦¹à¦ķà¦¸":6212,"Ġà¦¹à¦ĵà¦¨":6213,"à¦ľà¦¤à¦¤":6214,"à¦ľà¦ķà¦¦":6215,"à¦¼à§ĩâĢĶâĢľ":6216,"à¦ĸà¦®à§Ł":6217,"à¦·à¦°à¦ľ":6218,"à¦·à¦¸à¦ķ":6219,"à¦·à¦ªà¦²":6220,"Ġà¦ħà¦¹à¦²":6221,"Ġà¦ķà¦°à¦ª":6222,"à¦¡à¦¡":6223,"à¦¡à¦¬à¦ªà¦ķ":6224,"Ġà¦¯à¦®à¦²":6225,"Ġà¦¯à¦®à¦¦":6226,"à¦§à¦¤à¦®":6227,"à¦ļà¦ļ":6228,"à¦ļà¦ĵ":6229,"à¦ļà¦ĵà¦¯":6230,"à¦ļà¦°à¦®":6231,"à¦ļà¦Ĺà¦¤":6232,"Ġà¦Ĺà¦°à¦¬":6233,"à¦¹à¦«":6234,"à¦£à¦ªà¦¨":6235,"à¦£à¦ªà¦¤":6236,"à¦£à¦ļà¦°":6237,"à¦£à¦¬à¦¯":6238,"Ġà¦¶à¦ĸà¦Ł":6239,"à¦ģ,":6240,"Ġà¦°à¦ĵ":6241,"Ġà¦°à¦Ĺà¦°":6242,"Ġà¦ıà¦ķà¦ªà¦°":6243,"Ġà¦ıà¦ķà¦ĺà¦°":6244,"à¦¼à¦¾à¦ģ":6245,"à¦¼à¦¾âĢĻà¥¤":6246,"Ġà¦Ľà¦Ĺà¦¨":6247,"Ġà¦Ľà¦²à¦ļ":6248,"Ġà¦¬à¦²à§Ł":6249,"à¦¾à¦ģâĢĻ":6250,"Ġà¦ĵà¦®à¦¨":6251,"à§ĩ,âĢĵ":6252,"Ġà¦ĸà§ľà¦ķ":6253,"à¦¾à¥¤âĢĶ":6254,"Ġà¦ªà¦°à¦Ľ":6255,"Ġà¦§à¦¬à¦²":6256,"à¦°à¦¤à¦Ł":6257,"Ġà¦ħà¦¨à¦Ĺ":6258,"à¦¼à¦¿;":6259,"à§ľà¦Ł":6260,"à§ľà¦Ń":6261,"à§İà¦«":6262,"à§İà¦¸à¦¤":6263,"à¦ľà¦¨à¦°":6264,"à¦ıà¦¡":6265,"à¦ıà¦¤à¦Ł":6266,"à¦ıà¦Ĩà¦ĩ":6267,"à¦īà¦ĸ":6268,"à¦īà¦ľà¦°":6269,"à¦īà¦²à¦Ĺ":6270,"à¦ªà¦¨à¦ķ":6271,"Ġà¦Łà¦¨à¦ķ":6272,"à¦¬à¦°à¦ŀ":6273,"à¦¬à¦°à¦¬à¦°":6274,"à¦¤à¦°à¦¯":6275,"à¦°à¦¬à¦ĩ":6276,"à¦°à¦¬à§İ":6277,"à¦°à¦¬à¦£à¦ķ":6278,"à¦Ĩà¦ĸ":6279,"à¦Ĩà¦°à¦¤":6280,"à¦Ĩà¦ªà¦¡":6281,"à¦Ĩà¦¶à¦¯":6282,"Ġà¦ĩà¦Ĺà¦²":6283,"Ġà¦ĩà¦«à¦¤":6284,"Ġà¦ĩà¦ķà¦¨à¦®":6285,"Ġà¦ľà¦¨à¦¸à¦Ń":6286,"Ġà¦ľà¦¨à¦¬à¦¸à¦¤":6287,"Ġà¦Ĩà¦²à¦¬à§İ":6288,"Ġà¦¡à¦ľ":6289,"Ġà¦¡à¦Ĺà¦®":6290,"Ġà¦Ŀà¦®":6291,"Ġà¦Ŀà¦Ŀ":6292,"à¦ĺà¦ļ":6293,"à¦°à¦®à¦¥":6294,"à¦·à¦£à¦ª":6295,"à¦¨à¦¤à¦¤":6296,"Ġà¦Ĩà¦Ĺà¦®à¦£":6297,"à¦¬à¦²à¦°":6298,"à¦ķà¦°à¦Ľ":6299,"Ġà¦¬à¦¨à¦°":6300,"Ġà¦¬à¦¨à¦¶":6301,"Ġà¦¬à¦¨à¦ªà¦°":6302,"Ġà¦Ĺà¦²à¦²":6303,"Ġà¦ħà¦¸à¦®à¦°":6304,"à¦²à¦ķà¦Ĺ":6305,"à¦¨à¦ĵà¦ĩ":6306,"à§ĩà¦ģ,":6307,"à¦¿à¦ĤâĢĵ":6308,"à¦¿à¦Ĥ!âĢĿ":6309,"à¦¬à¦¤à¦¸":6310,"Ġà¦®à¦¹à¦®":6311,"Ġà¦®à¦¹à¦¸":6312,"Ġà¦ªà¦¥à¦Ń":6313,"Ġà¦ĺà¦°à¦¦":6314,"à¦ħà¦¹à¦®":6315,"Ġà¦ħà¦¤à¦ķ":6316,"Ġà¦ħà¦¤à¦¦":6317,"Ġà¦ħà¦¤à¦ĸ":6318,"Ġà¦¸à¦¨à¦¦à¦ªà¦¤":6319,"à¦¤à¦¬à§Łà¦¸":6320,"à¦ĸà¦²à¦¤":6321,"Ġà¦ľà¦²à¦¹":6322,"Ġà¦ľà¦²à¦ĵ":6323,"Ġà¦ľà¦²à¦¢":6324,"à¦¹à¦¸à¦ķ":6325,"Ġà¦Ĩà¦¶à¦¯":6326,"à¦°à¦¹à¦ĩ":6327,"âĢ¦à¥¤âĢĿ":6328,"à¦ļà¦²à¦Ĺ":6329,"à¦®à¦£à¦ĩ":6330,"Ġà¦¨à§Łà¦Ł":6331,"Ġà¦¬à¦¹à¦¨à¦ķ":6332,"Ġà¦¬à¦¹à¦°à¦®à¦ª":6333,"à¦¯à¦®à¦ŀ":6334,"à¦¤à¦ķà§ľ":6335,"à¦ļà¦ķà¦¦":6336,"Ġà¦ªà¦¦à¦®à¦°":6337,"à§°à¦§":6338,"à¦ıà¦ķà¦Ĺ":6339,"à¦ıà¦ķà¦¦à¦²":6340,"à¦ıà¦ķà¦ľà¦¨à¦ķ":6341,"à¦¤à¦®à§Ł":6342,"Ġà¦Ĳà¦¹":6343,"Ġà¦°à¦Ļà¦ļà¦Ļ":6344,"à¦°à¦Ńà¦ķ":6345,"Ġà¦Ĩà¦§à¦¬":6346,"Ġà¦Ĩà¦§à¦®à¦°":6347,"à§Łà¦¨à¦¶":6348,"Ġà¦ħà¦²à¦®":6349,"à§įâĢĮâĢĻ":6350,"à¦¯à¦¦à¦¸":6351,"?âĢĻâĢĶ":6352,"Ġà¦Ĺà¦¤à¦¯":6353,"Ġà¦Īà¦®":6354,"Ġà¦¶à¦¤à¦ª":6355,"Ġà¦ĸà¦¬à¦°à¦ĩ":6356,"à¦¨à¦¸à¦¹à¦ķ":6357,"à¦§à¦¤à§İà¦¸à¦®":6358,"Ġà¦°à¦ķà¦®à¦«":6359,"à¦¬à¦¶à¦°":6360,"à¦°à¦ľà¦¨à¦ķ":6361,"Ġà¦ıà¦¨à¦Ĺ":6362,"à¦ľà¦²à¦ª":6363,"Ġà¦ķà¦¨à¦ľ":6364,"à¦¹à¦¤à¦Ń":6365,"Ġà¦Ĩà¦Ļà¦Ł":6366,"Ġà¦ķà¦·à¦²":6367,"à¦®à¦Łà¦®":6368,"à¦¯à¦¥à¦Ń":6369,"Ġà¦¨à¦¬à¦ľà¦¨":6370,"Ġà¦¨à¦¬à¦Ľà¦°":6371,"à¦£à¦ķà¦®à¦²":6372,"à¦īà¦²à¦¦":6373,"à¦ķà¦ľà¦¨à¦¦":6374,"à¤¸":6375,"à¦¨à¦Ńà¦Ļ":6376,"Ġà¦ľà§Łà¦ľà§Łà¦ķ":6377,"à¦¤à¦¸à¦ĩ":6378,"Ġà¦Ĩà¦ļà¦°à¦£à¦ķ":6379,"à¦¼!âĢĻ":6380,"à¦²à¦ľà§Ł":6381,"Ġà¦ªà¦°à¦¶à¦®à¦£":6382,"Ġà¦Ĩà§Łà¦¶":6383,"à§ĩâĢĻâĢĵ":6384,"à¦¤à¦ĸà¦¨à¦ķ":6385,"Ġà¦²à§ľà¦Ľ":6386,"Ġà¦Ĩà¦ĩà¦ĵà¦Ł":6387,"à§©à§©":6388,"Ġà¦Ĩà¦Łà¦ļ":6389,"ence":6390,"à§Ńà§¨":6391,"à§Ńà§¬":6392,"Ġà¦īà§ľà¦²":6393,"Ġà¦Ŀà¦ķà¦®à¦ķ":6394,"ard":6395,"à¦£à¦¦à¦£":6396,"Ġà¦¶à¦¨à¦¶à¦¨":6397,"Ġsu":6398,"Ġsti":6399,"à§ģà¦Ĥ-":6400,"à§ĢâĢĻâĢĶ":6401,"Ġtheir":6402,"Ġwere":6403,"Ġà¦ĩà¦īà¦ª":6404,"Ġà¦ĩà¦īà¦ıà¦¸à¦¬":6405,"ast":6406,"à¦£à¦Ńà¦Ł":6407,"à¦¤à¦ļà¦°à¦¬":6408,"à¦®à¦Ŀà¦®":6409,"Ġhe":6410,"Ġhis":6411,"Ġhim":6412,"ret":6413,"Ġam":6414,"Ġtr":6415,"à¦ħà¦ªà¦°à¦¦":6416,"ĠPintu":6417,"ĠBea":6418,"Ġà¦ķà¦¤à¦¬à¦¡":6419,"Ġà¦¨à¦ĸà¦¦à¦°":6420,"Ġà§§à§®à§¬":6421,"ĠIntellig":6422,"Ġà¦Ĩà¦īà¦Łà¦ª":6423,"Ġà¦¹à¦°à¦«à¦Ĺ":6424,"Ġà¦¦à¦¹à¦°à¦®":6425,"ĠNGO":6426,"Ġreal":6427,"Ġwho":6428,"Ġà¦«à¦¸à¦«à¦¸":6429,"ºçľºçľºçľºçľºçľºçľºçľºçľ":6430,"âĢĵâĢĵâĢĵâĢĵâĢĵâĢĵâĢĵâĢĵâĢĵâĢĵâĢĵâĢĵâĢĵâĢĵâĢĵâĢĵ":6431,"·çľ·çľ·çľ·çľ·çľ·çľ·çľ·çľ":6432,"×Ļ×":6433,"åĵį":6434,"Ġà¦°à¦Ĺà¦°à¦Ĺ":6435,"Ġà¦Ľà¦Ĺà¦¨à¦²":6436,"00":6437,"Fi":6438,"bi":6439,"ja":6440,"sha":6441,"ual":6442,"way":6443,"¿½":6444,"Â¤":6445,"ÑĪ":6446,"ÙĬ":6447,"ï¿½":6448,"Ġra":6449,"ĠÑģ":6450,"à¦¾...":6451,"à§ĩà¦¾-":6452,"à§ĩ),":6453,"à¦°à¦²à¦ķ":6454,"à¦°à¦ĵà§Ł":6455,"à¦°à¦§à¦¨":6456,"à¦°à¦īà¦ĩà¦¨":6457,"à§įâĢĻ,":6458,"à¦¿à§Ģ":6459,"à¦¿)à¥¤":6460,"à¦¿ÂŃ":6461,"à¦¿...âĢĿ":6462,"à¦¨à¦Ŀ":6463,"à¦¨à¦ªà¦¨":6464,"à¦¨à¦®à¦£":6465,"à¦¤à¦ªà¦°":6466,"à¦¤à¦¸à¦ķ":6467,"à¦¤à¦¹à¦¤":6468,"à¦¤à¦Ĺà¦£":6469,"à¦²à¦īà¦¦":6470,"à¦ķà¦Ĺà¦¤":6471,"à¦¯à¦·":6472,"à¦¯à¦®à¦ķ":6473,"à¦¯à¦Ĺà¦°":6474,"à¦¬à¦¬à¦¤":6475,"à¦¬à¦īà§Ł":6476,"à¦®à¦ķà¦²":6477,"à¦®à¦ħà¦¨":6478,"à¦®à¦Ĺà¦¤à¦Ń":6479,"Ġà¦ķà¦ĵà¦¯":6480,"Ġà¦¬à¦ķà¦¬":6481,"Ġà¦ªà¦ĩ":6482,"Ġà¦ªà§°":6483,"à¦¸à¦ĵà§Ł":6484,"à¦¸à¦¹à¦¨":6485,"à¦¸à¦¸à¦¹":6486,"Ġà¦Ĩà¦£":6487,"Ġà¦Ĩà¦Łà¦¤":6488,"à¦Łà¦¬à¦¸":6489,"à¦¦à¦¬à¦¨":6490,"à¦¦à¦¸à¦®":6491,"à¦ĩà¦¨à¦ĵ":6492,"à¦ĩà¦ıà¦ķà¦Ł":6493,"à¦ĩà¦ļà¦Ł":6494,"à¦ĩà¦īà¦Ń":6495,"Ġà¦¨à¦¨à¦¸":6496,"Ġà¦¨à¦°à¦¹à¦°":6497,"Ġà¦®à¦°à¦¨":6498,"à¦Ľà¦ªà¦Ł":6499,"à¦Ľà¦ķà¦ĩ":6500,"Ġà¦¦à¦§":6501,"à¦ªà¦Ľà¦¨":6502,"à¦ªà¦¸à¦¤":6503,"Ġà¦ıà¦¨à¦ĵ":6504,"Ġà¦ıà¦®à¦¬":6505,"Ġà¦¤à¦£":6506,"à¦¼à§ĩ!âĢĿ":6507,"à¦¶à¦°à¦£":6508,"à¦¶à¦¬à¦¤":6509,"à¦¶à¦¬à¦¦":6510,"à¦ĸà¦«":6511,"à¦Ĺà¦¸à¦¨":6512,"à¦Ĺà¦°à¦ª":6513,"à¦·à¦¤à¦¨":6514,"à¦·à¦ªà¦¤":6515,"à¦·à¦¤à¦²":6516,"Ġà¦ķà¦°à¦ľ":6517,"à¦¡à¦§":6518,"à¦¡à¦²à¦Ł":6519,"à¦§à¦°à¦¦":6520,"à¦§à¦¸à¦®":6521,"à¦ļà¦«":6522,"à¦ļà¦ªà¦¦":6523,"à¦ļà¦¤à¦®":6524,"Ġà¦Ĺà¦Ĺ":6525,"Ġà¦Ĺà¦Ĺà¦²à¦¸":6526,"à¦¹à¦§":6527,"à¦¹à¦²à¦¬à¦¶à¦¤":6528,"à§Łà¦¤à¦¨":6529,"à¦£à¦Ľ":6530,"à¦£à¦²à¦¤":6531,"à¦£à¦¤à¦®":6532,"à¦£à¦®à§Ł":6533,"à¦¥à¦ķà¦Ń":6534,"Ġà¦¶à¦ľ":6535,"Ġà¦¶à¦ł":6536,"Ġà¦¶à¦°à¦¶":6537,"Ġà¦ļà¦®à¦¤":6538,"Ġà¦ļà¦°à¦Ľ":6539,"Ġà¦Ńà¦ŀ":6540,"Ġà¦°à¦Ĺà¦¡":6541,"Ġà¦°à¦¸à¦ķà¦·":6542,"à¦ĵà¦·":6543,"à¦ĵà¦«":6544,"à¦ĵà¦¸à¦®":6545,"à¦ĵà¦ĺà¦°":6546,"à¦Ńà¦²à¦ķ":6547,"à¦¼à¦¾:":6548,"à¦¼à¦¾à¦ĥà¥¤":6549,"Ġà¦Ĩà¦®à¦ľà¦¨à¦¤":6550,"à¦Ĥ!":6551,"à¦Ĥ/":6552,"Ġà¦¬à¦²à¦¦à¦°":6553,"Ġà¦īà¦ŀ":6554,"Ġà¦īà¦®à¦°":6555,"Ġà¦īà¦ľà¦²":6556,"Ġà¦īà¦ĩà¦¦":6557,"Ġà¦Ĩà¦°à¦¬à¦°":6558,"Ġà¦Ĩà¦°à¦¨à¦²":6559,"Ġà¦²à¦ķà¦Ł":6560,"Ġà¦«à§Ł":6561,"Ġà¦«à¦Łà¦«à¦Ł":6562,"Ġà¦«à¦¨à¦Łà¦¨":6563,"Ġà¦ĸà¦ķ":6564,"Ġà¦¸à¦®à¦°à¦ķ":6565,"à¦¼à¦¿?âĢĻ":6566,"Ġà¦ĺà¦°à¦®":6567,"Ġà¦ıà¦ĩà¦¡à¦¸":6568,"à¦«à¦ĵ":6569,"à¦¬à¦¨à¦Ń":6570,"à¦Ŀà¦Ĺà¦¡":6571,"à§İà¦ªà¦¨":6572,"à¦ľà¦¨à¦¯":6573,"à¦ľà¦¨à¦¬à¦°":6574,"à¦ľà¦¨à¦Ĺà¦£":6575,"à¦ıà¦ľ":6576,"à¦īà¦«":6577,"à¦¬à¦°à¦®":6578,"à¦¬à¦°à¦ľ":6579,"à¦¬à¦°à¦ļ":6580,"ĠâĢľâĢ¦":6581,"Ġà¦Ĩà¦Ľà¦²":6582,"Ġà¦Ĩà¦¸à¦¨à¦Ł":6583,"à¦°à¦¬à¦ĵ":6584,"à¦Ĩà¦«":6585,"à¦Ĩà¦ĩà¦°":6586,"Ġà¦ĩà¦īà¦¸":6587,"Ġà¦ĩà¦īà¦¡":6588,"Ġà¦łà¦¨":6589,"Ġà¦łà¦Ĺ":6590,"Ġà¦ıà¦¸à¦ıà¦®à¦ıà¦¸":6591,"Ġà¦Ŀà¦®à¦Ŀà¦®":6592,"Ġà¦ħà¦¬à¦¦à¦®":6593,"à¦ĺà¦ª":6594,"à¦ĺà¦¦à¦²":6595,"à¦°à¦®à¦¦":6596,"à¦°à¦®à¦ĵ":6597,"Ġà¦Ĩà¦Ĺà¦®":6598,"à¦¬à¦²à¦Ń":6599,"à¦ķà¦²à¦¬":6600,"à¦ķà¦²à¦¸":6601,"à¦ķà¦Łà¦²":6602,"à¦ķà¦Łà¦Ĺ":6603,"Ġà¦¬à¦¨à¦Ĺ":6604,"Ġà¦¬à¦¨à¦¬à¦¨":6605,"à¦ĥâĢ¦":6606,"Ġà¦Ĺà¦²à¦Ĺ":6607,"Ġà¦ħà¦¸à¦¬à¦°":6608,"à§ĩ?âĢ¦":6609,"à¦¾à¦Ĥ!":6610,"à¦¾à¦Ĥ-":6611,"à¦Ĺà¦²à¦ªà¦¥":6612,"à¦¿à¦ĤâĢ¦":6613,"à¦°à¦²à¦®":6614,"à¦¬à¦¤à¦¬":6615,"Ġà¦®à¦¹à¦¦":6616,"Ġà¦ĺà¦°à¦ĩ":6617,"à¦ħà¦ªà¦®":6618,"Ġà¦Ĩà¦¨à¦²à¦ķ":6619,"à¦Ĩà¦®à¦¤":6620,"à¦Ĩà¦®à¦²":6621,"Ġà¦īà¦ªà¦¢":6622,"Ġà¦ħà¦¤à¦Ĺ":6623,"à¦¤à¦¬à¦¸":6624,"à¦¤à¦¬à¦¸à¦®":6625,"à¦¯à¦ķà¦Ń":6626,"Ġà¦¯à¦ĸà¦¨à¦¤à¦ĸà¦¨":6627,"à¦¶à¦¨à¦®":6628,"Ġà¦ľà¦²à¦ľà¦¨":6629,"Ġà¦ľà¦²à¦ļà¦ķ":6630,"Ġà¦ľà¦²à¦ªà¦¥":6631,"à¦®à¦ķà¦¹":6632,"à¦°à¦¶à¦¤":6633,"à¦°à¦¶à¦®à¦¨":6634,"Ġà¦¸à¦°à¦ĸ":6635,"à¦ªà¦¦à¦ľà¦¨à¦ķ":6636,"à¦¹à¦¸à¦ĵ":6637,"à¦°à¦¹à¦¤":6638,"à¦²à¦¬à¦¦à¦²":6639,"à¦°à¦ľà¦ķ":6640,"à¦¨à¦¬à¦¸à¦¤":6641,"Ġà¦ĵà¦ªà¦°à¦¦":6642,"Ġà¦ħà¦ªà¦¹":6643,"Ġà¦ħà¦ªà¦ĺ":6644,"à¦²à¦¨à¦ª":6645,"à¦°à¦¦à¦£":6646,"à¦ĩà¦¨à¦ľ":6647,"à¦ĩà¦¨à¦¡":6648,"à¦°à¦¯à¦ľ":6649,"à¦¼à§ĭâĢĶ":6650,"à¦§à¦¨à¦¸":6651,"Ġà¦īà¦¤à¦¥":6652,"à¦ķà¦¬à¦ĩ":6653,"à¦¹à¦²à¦Ł":6654,"à¦¸à¦¨à¦¦":6655,"Ġà¦¬à¦ĩà¦ª":6656,"à¦®à¦£à¦¸":6657,"à¦®à¦£à¦Ń":6658,"Ġà¦¯à¦¤à¦¸à¦¬":6659,"Ġà¦¶à¦¹à¦°à¦ĵ":6660,"à¦·à¦¤à¦ķ":6661,"Ġà¦«à¦²à¦¦":6662,"Ġà¦«à¦²à¦Ń":6663,"à¦¯à¦®à¦¹":6664,"Ġà¦ĩà¦¨à¦ª":6665,"Ġà¦Ńà¦°à¦Ĺ":6666,"à§°à¦ļ":6667,"Ġà¦ıà¦ķà¦¬à¦Ľà¦°":6668,"à¦ªà¦ķà¦¨":6669,"à¦°à¦Ńà¦°":6670,"Ġà¦ħà¦²à¦¸à¦Ń":6671,"à¦¨à¦²à¦ľ":6672,"Ġà¦Īà¦Ļ":6673,"Ġà¦¶à¦¤à¦Ń":6674,"à¦°à¦Ĺà¦®à¦¨":6675,"à¦ªà¦¥à¦ļ":6676,"à¦¦à§Łà¦¬":6677,"Ġà¦¸à¦®à§Łà¦¸":6678,"à¦°à¦®à¦£à¦Ń":6679,"à¦Łà¦¬à¦¡":6680,"Ġà¦Ĩà¦ªà¦Ĺ":6681,"Ġà¦¦à¦¶à¦¤à¦²":6682,"à¦¥à¦°à¦ĸà¦£":6683,"Ġà¦ļà¦ķà¦®":6684,"Ġà¦¬à§ľà¦²":6685,"Ġà¦¬à§ľà¦¸à§ľ":6686,"Ġà¦¬à¦īà¦¬":6687,"Ġà¦¬à¦īà¦ĵ":6688,"à¦Ĺà¦®à§Ł":6689,"Ġà¦¨à¦¬à¦¤à¦°":6690,"Ġà¦Ĩà¦Ńà¦°à¦£":6691,"à¦®à§Łà¦²":6692,"Ġà¦ªà¦°à¦®à¦ª":6693,"à¦ķà¦ľà¦¨à¦ĵ":6694,"à¦ķà¦°à¦£à¦¯":6695,"à¤£":6696,"à¤·":6697,"à¤Ĺ":6698,"à¤Ń":6699,"à¦°à¦°à¦Ļ":6700,"à¦°à¦°à¦ŀ":6701,"Ġà¦®à¦¶à¦ķà¦°":6702,"Ġà¦Ĩà¦ĩà¦¨à¦ķ":6703,"à¦¸à¦¹à¦¬":6704,"Ġà¦ľà§Łà¦²":6705,"Ġà¦ľà§Łà¦ķ":6706,"à¦¿âĢĻâĢĵ":6707,"à§¨à§§":6708,"à¦¬à¦Łà¦¦":6709,"à¦Ĩà¦Ĺà¦¸":6710,"Ġà¦ıà¦°à¦ªà¦°à¦ĵ":6711,"à¦·à§Łà¦Ń":6712,"inal":6713,"Ġà¦¹à¦ĩà¦ĵ":6714,"à¦¬à¦ľà¦¨à¦¹":6715,"ance":6716,"à¦¶à¦°à§İ":6717,"à§«à§¨":6718,"à¦¸à¦Ńà¦¬à¦¨":6719,"à¦¾!âĢĿâĢĶ":6720,"à¦ľà¦¦à¦°à¦¬":6721,"Ġà§¨à§®":6722,"Ġà¦Ĩà¦ĩà¦ļ":6723,"alf":6724,"à¦ªà¦¬à§Łà¦¸":6725,"à§©à§§":6726,"à¦Īà¦®":6727,"Ġà¦ĩà¦Łà¦Ń":6728,"Ġà¦ķà¦¦à§°":6729,"Ġà¦ķà¦¦à¦®à¦¤à¦²":6730,"eng":6731,"tis":6732,"ory":6733,"arning":6734,"à¦£à¦Ĺà¦ŀ":6735,"ist":6736,"ister":6737,"à¦īà¦¬à¦ĵà¦¯":6738,"edic":6739,"ature":6740,"à¦¸à¦ķà¦²à¦ķ":6741,"à¦¬à§İà¦¸à¦²":6742,"Ġwe":6743,"Ġà¦¨à§ľà¦²":6744,"Ġbec":6745,"Ġà¦¨à¦°à¦ķà¦ķ":6746,"Ġà§©à§Ń":6747,"Ġà¤ī":6748,"à§ĭâĢ¦âĢĻ":6749,"à¦¨à§Łà¦¨à¦ķ":6750,"à¦¤à¦ļà¦°à¦¦":6751,"Ġhalf":6752,"à¦ĸà¦¬à¦°à¦Ł":6753,"Ġapp":6754,"Ġà¦¨à¦Ĺà¦°à¦¬":6755,"à¦ħà¦ªà¦Ľà¦¨":6756,"Ġà¦Ĩà¦ĸà¦¡":6757,"à¦ħà¦¬à¦¸à¦°":6758,"Ġà¦¨à¦ĵà¦¶":6759,"à¦®à¦«à¦²à¦ķ":6760,"ice":6761,"ally":6762,"Ġà¦Ńà¦Łà¦ļ":6763,"à§§à§¯à§¬":6764,"à§§à§¯à§Ń":6765,"áĥĲ":6766,"à¦īà¦ªà¦¹":6767,"Ġliter":6768,"Ġlove":6769,"Ġà§§à§¯à§ªà§«":6770,"Ġà§§à§¯à§ªà§©":6771,"ose":6772,"Ġà¦§à¦ķà¦§à¦ķ":6773,"à¦ıà¦®à¦¡à¦¬":6774,"Ġà§§à§¯à§¯à§¨":6775,"Ġgod":6776,"ame":6777,"à¦¶à¦§à¦°à¦¦":6778,"ult":6779,"Ġà¦¤à§İà¦¸à¦®":6780,"Ø§Ø±":6781,"Ġref":6782,"Ġà§§à§¯à§©à§¨":6783,"Ġà§§à§¯à§©à§©":6784,"Ġà¦ªà¦ļà¦¨à¦¶":6785,"Ġres":6786,"à¦¤à¦°à¦«à¦¦":6787,"eath":6788,"Ġà¦¬à¦°à¦¬à§°":6789,"TEM":6790,"Ġà¦«à¦¸à¦«à¦°":6791,"tory":6792,"Ġmany":6793,"====":6794,"ĠRupsha":6795,"Ġà¦Ĩà¦ĩà¦ķà¦¨":6796,"à¦£à¦¬à¦¯à¦ľ":6797,"Ġà¦¡à¦Ĺà¦®à¦Ĺ":6798,"Ġà¦ıà¦¨à¦ĵà¦¸":6799,");":6800,".âĢĻ":6801,"?)":6802,"IoT":6803,"ON":6804,"Ode":6805,"av":6806,"bor":6807,"cy":6808,"hi":6809,"ms":6810,"ness":6811,"nown":6812,"pl":6813,"se":6814,"ta":6815,"ting":6816,"uja":6817,"ved":6818,"ween":6819,"Â°":6820,"Ñĭ":6821,"Ùģ":6822,"Ùĩ":6823,"Ġ'":6824,"Ġ3":6825,"ĠÎ":6826,"ĠÕ":6827,"Ġall":6828,"ĠâĨ":6829,"à¦¾..":6830,"à§ĩà§į":6831,"à§ĩâĢĮ":6832,"à¦°à¦Ŀà¦°":6833,"à§įâĢĻà¥¤":6834,"à§į!âĢĻ":6835,"à¦¨à¦¶à¦ķ":6836,"à¦¨à¦Ĩà¦°":6837,"à¦¤à§Ł":6838,"à¦¤à¦ĵà¦¯":6839,"à¦¤à¦¯à¦¶":6840,"à¦²à¦ªà¦°":6841,"à¦²à¦¬à¦²":6842,"à¦²à¦¸à¦¨":6843,"à¦²à¦ĸà¦£":6844,"à¦ķà¦ĵà¦¯":6845,"à¦ķà¦ķà¦²":6846,"à¦ķà¦¨à¦ķ":6847,"à¦ķà¦¶à¦ķ":6848,"à¦ķà¦¸à¦ª":6849,"à¦ķà¦¨à¦²à¦ľ":6850,"à¦¯à¦ĸà¦£":6851,"à§ģ'":6852,"à¦¬à¦¤à¦°":6853,"à¦¬à¦ķà¦¤":6854,"à¦¬à¦¹à¦°":6855,"à¦¬à¦Ńà¦°":6856,"à¦¬à¦®à¦¹":6857,"à¦¬à¦ľà¦¨à¦ķ":6858,"à¦¬à¦Ĺà¦¤à¦Ń":6859,"à¦¼âĢĿâĢĶ":6860,"à¦®à¦ªà¦ķ":6861,"à¦®à¦Ĺà¦¨":6862,"Ġà¦ķà¦ľ":6863,"à§ĭ...":6864,"Ġà¦¬à¦ªà¦£":6865,"Ġà¦¬à¦¶à¦¤":6866,"à¥¤-":6867,"Ġà¦¸à¦ķà¦°":6868,"Ġà¦¸à¦¦à¦¨":6869,"Ġà¦¸à§°":6870,"Ġà¦¸à¦¦à§Ł":6871,"Ġà¦¸à¦¸à¦ª":6872,"à¦¸à¦¥":6873,"à¦¸à¦®à¦£":6874,"à¦¸à¦ĺà¦°":6875,"à¦¸à¦Łà¦¨":6876,"Ġà¦Ĩà¦§à¦ķ":6877,"Ġà¦Ĩà¦īà¦°":6878,"à¦ĩà¦§":6879,"à¦ĩà¦²à¦ķ":6880,"Ġà¦¨à¦°à¦¸":6881,"Ġà¦¨à¦¦à¦¨à¦¦":6882,"Ġà¦®à§ľ":6883,"Ġà¦®à¦Ĺà¦ľà¦Ł":6884,"Ġà¦®à¦°à¦®à¦°":6885,"Ġà¦¦à¦Ļ":6886,"à¦ªà¦°à¦¤":6887,"à¦ªà§İ":6888,"à¦ªà§°":6889,"à¦ªà¦¢":6890,"Ġà¦ıà§Ł":6891,"Ġà¦ıà¦¨à¦²":6892,"Ġà¦ıà¦¨à¦¸":6893,"Ġà¦ıà¦§à¦°à¦¨":6894,"Ġà¦¤à¦¸à¦¬":6895,"Ġà¦¹à¦Ĺ":6896,"Ġà¦¹à¦¸à¦ª":6897,"Ġà¦¹à¦Ļà¦ķ":6898,"à¦ľà¦¬à¦°":6899,"à¦ľà¦ĺà¦¨":6900,"à¦ľà¦ĸà¦®":6901,"à¦¼à§ĩâĢĿ":6902,"à¦¶à¦ªà¦¤":6903,"à¦¶à¦²à¦Ł":6904,"à¦ĸà¦®à¦¨":6905,"à¦ĸà¦¬à¦¨":6906,"à¦Ĺà¦¦à¦¤":6907,"Ġà¦ķà¦°à¦¸":6908,"Ġà¦ķà¦°à¦®à¦°":6909,"à¦ļà¦ķà¦²":6910,"à¦ļà¦°à¦¨":6911,"à¦ļà¦®à¦¤":6912,"à¦ļà¦°à¦ķà¦®":6913,"à¦ļà¦ľà¦¨à¦ķ":6914,"Ġà¦Ĺà¦ľà¦¬":6915,"à¦¹à¦®à¦¨":6916,"à¦¹à¦°à¦¬":6917,"à¦¹à¦¬à¦²":6918,"à¦¹à¦ľà¦®":6919,"à§Łà¦ª":6920,"à§Łà¦®à¦Ĺ":6921,"à¦£à¦ªà¦¦":6922,"à¦£à¦¬à¦¦":6923,"à¦¥à¦Ľ":6924,"à¦¥à¦°à¦¬":6925,"à¦ģâĢĻ":6926,"Ġà¦ļà¦ļ":6927,"Ġà¦Ńà¦¨":6928,"Ġà¦Ńà¦°à¦¬":6929,"Ġà¦°à¦ĩ":6930,"Ġà¦°à¦®à¦ľ":6931,"Ġà¦°à¦£à¦¬":6932,"Ġà¦°à¦¡à¦Ł":6933,"Ġà¦°à¦£à¦Ń":6934,"Ġà¦ıà¦ķà¦¬à¦°":6935,"Ġà¦ıà¦ķà¦¶à¦Ł":6936,"à¦Ńà¦£":6937,"à¦Ńà¦²à¦Ĺ":6938,"à¦Ńà§Łà¦ķ":6939,"Ġà¦Ľà¦ĩà¦¯":6940,"à¦łà¦¤à¦°":6941,"Ġà¦¬à¦²à¦Ĺ":6942,"Ġà¦īà¦¶à¦ĸ":6943,"Ġà¦Ĩà¦°à¦¸":6944,"Ġà¦¥à¦ķ":6945,"à¦Ļà¦¡":6946,"Ġà¦²à¦ĵ":6947,"Ġà¦«à¦ľà¦°":6948,"Ġà¦«à¦°à¦«à¦°":6949,"Ġà¦ªà¦°à¦£":6950,"Ġà¦§à¦¨à¦¬":6951,"Ġà¦§à¦ĩà¦°":6952,"à¦°à¦¤à¦ĵ":6953,"à¦°à¦¤à¦ķà¦°":6954,"à¦°à¦¤à¦ªà¦ķ":6955,"à¦¼à¦¿à¥¤âĢĿ":6956,"à¦ĸà¦¨à¦ķ":6957,"Ġà¦ĺà¦°à¦ķà¦¨":6958,"à§ľà¦¶":6959,"à§ľà¦¬à§ľ":6960,"à¦ªà¦°à¦¨":6961,"à¦ªà¦°à¦®à¦£":6962,"Ġà¦®à¦¨à¦Ĺ":6963,"à¦¿à¥¤à¥¤":6964,"à¦¿à¥¤âĢĺ":6965,"à¦«à¦¥":6966,"à¦«à¦°à¦®":6967,"âĢĻà¥¤âĢĿ":6968,"à¦°à¦£à¦¸":6969,"à¦¬à¦¨à¦¤":6970,"à¦Ŀà¦²à¦ķ":6971,"à¦Ŀà¦¨à¦¦":6972,"à¦ŀà¦ĩ":6973,"à§İà¦Ł":6974,"à§İà¦Ĺà¦¤":6975,"à¦ľà¦¨à¦¸":6976,"à¦ľà¦¨à¦§":6977,"à¦ıà¦ª":6978,"à¦ıà¦°à¦ĵ":6979,"à¦ıà¦¤à¦ĩ":6980,"à¦īà¦¶":6981,"à¦īà¦¬à¦²":6982,"à¦īà¦²à¦Ł":6983,"à¦°à¦ķà¦¬":6984,"à¦ªà¦¨à¦¬":6985,"à¦ªà¦¨à¦¦":6986,"Ġà¦Łà¦®à¦Łà¦®":6987,"Ġà¦¹à¦²à¦®":6988,"Ġà¦¹à¦²à¦ĵ":6989,"à¦¬à¦°à¦¸à¦Ń":6990,"à¦¤à¦°à¦ľ":6991,"à¦°à¦¬à¦ª":6992,"à¦Ĩà¦°à¦ķ":6993,"à¦Ĩà¦Łà¦ķ":6994,"à¦Ĩà¦ĩà¦¯":6995,"à¦Ĩà¦¨à¦Ĺ":6996,"à¦Ĩà¦¬à¦¹":6997,"Ġà¦ĩà¦«":6998,"Ġà¦ĩà¦Ĺà¦¨":6999,"Ġà¦ĩà¦Łà¦¸":7000,"Ġà¦ĩà¦Ńà¦¨":7001,"Ġà¦ľà¦¨à¦°":7002,"Ġà¦ľà¦¨à¦ĩ":7003,"Ġà¦ľà¦¨à¦¬à¦¹":7004,"à§ĪâĢĵ":7005,"âĢĵâĢĻ":7006,"Ġà¦ıà¦¸à¦ĩà¦īà¦Ń":7007,"Ġà¦Ŀà¦°à¦£":7008,"Ġà¦Ĩà¦Ĺà¦°à¦¬":7009,"à¦¬à¦²à¦¸":7010,"à¦ķà¦²à¦Ĺ":7011,"à¦ķà¦Łà¦®":7012,"à¦ķà¦Łà¦®à§Ł":7013,"Ġà¦¬à¦¨à¦ķ":7014,"Ġà¦¬à¦¨à¦ª":7015,"à¦¸à¦¬à¦¸à¦®à¦¯":7016,"Ġà¦ıà¦ĸà¦¨à¦¤":7017,"à¦¯à¦¬à§Łà¦¸":7018,"à¦°à¦¸à¦¦":7019,"à¦°à¦¸à§İ":7020,"à¦²à¦ķà¦¥":7021,"à¦¾à¦ĤâĢĶ":7022,"à¦¨à¦ĵà¦°":7023,"Ġà¦¹à¦¤à¦ĩ":7024,"Ġà¦¹à¦¤à¦¦à¦°":7025,"à¦¤à¦¨à¦Ł":7026,"à§ĭà¦ģ-":7027,"Ġà¦¬à¦°à¦ĸ":7028,"Ġà¦¬à¦°à¦·":7029,"à¦°à¦¨à¦¬":7030,"à¦¬à¦ªà¦¦":7031,"à¦¬à¦ªà¦£":7032,"à¦¬à¦¤à¦¤":7033,"Ġà¦īà¦¦à¦Ń":7034,"Ġà¦ķà¦°à¦¬à¦ĩ":7035,"à¦ħà¦£":7036,"à¦ħà¦¸à¦¹":7037,"Ġà¦ħà¦Ńà¦¬":7038,"à¦ĩà¦²à¦¨":7039,"à¦ĩà¦²à¦ĩ":7040,"à¦Ĺà¦¤à¦ĩ":7041,"Ġà¦ķà¦²à¦°":7042,"Ġà¦ķà¦²à¦ĺà¦°":7043,"à¦ĸà¦²à¦¨":7044,"Ġà¦ħà¦¦à¦²à¦¬à¦¦à¦²":7045,"à¦®à¦¤à¦ĵ":7046,"à¦¯à¦ķà¦¬":7047,"à¦¯à¦ķà¦¥":7048,"Ġà¦ľà¦²à¦¦à¦¸":7049,"à¦ªà¦¦à¦ļ":7050,"Ġà¦ıà¦¤à¦°à¦ķà¦®":7051,"à¦°à¦¹à¦°à¦Ĺ":7052,"à¦²à¦¬à¦£":7053,"à¦²à¦¬à¦¸à¦¨":7054,"à¦¨à¦¬à¦¹":7055,"à¦¨à¦¬à¦Ľà¦°":7056,"à¦®à¦²à¦Ń":7057,"Ġà¦¸à¦¹à¦®":7058,"à¦¦à¦¨à¦Ł":7059,"à¦¦à¦¨à¦ªà¦¤":7060,"à¦ĩà¦¨à¦ĩ":7061,"à¦ĩà¦¨à¦·":7062,"à¦°à¦¯à¦¤":7063,"à¦¼à§ĭ?":7064,"à¦§à¦¨à¦ª":7065,"à¦ķà¦¬à¦ļ":7066,"à¦ıà¦ĩà¦ĩ":7067,"à¦¹à¦²à¦ĩ":7068,"à¦¹à¦²à¦ĵ":7069,"âĢ¦)":7070,"à¦¸à¦¨à¦ļ":7071,"à¦°à¦ĵà¦°à¦ĩ":7072,"Ġà¦¬à¦Ľà¦°à¦ĵ":7073,"Ġà¦¬à¦ĩà¦ĵ":7074,"à¦ļà¦²à¦®":7075,"à¦ļà¦²à¦Ń":7076,"à¦®à¦£à¦ª":7077,"à¦®à¦£à¦ĵ":7078,"Ġà¦īà§İà¦¸à¦®":7079,"à¦°à¦ªà¦¶":7080,"à¦°à¦ªà¦Ļ":7081,"à¦¸à¦°à§İ":7082,"à¦ļà¦ķà¦¡":7083,"Ġà¦ªà¦¦à¦¤":7084,"Ġà¦²à¦ķà¦ª":7085,"à¦¬à¦¸à¦Ń":7086,"Ġà¦Ĳà¦Ł":7087,"à¥¤âĢĻâĢĻ":7088,"ĠâĢĶâĢĺ":7089,"à¦¬à¦¬à¦¶":7090,"à¦¯à¦¦à¦¶":7091,"à¦ĩà¦Łà¦®":7092,"?âĢĿâĢĵ":7093,"à¦Ĺà¦ľà¦ĩ":7094,"Ġà¦Īà¦·":7095,"à¦ªà¦¸à¦ĩ":7096,"à¦¨à¦¸à¦ķ":7097,"à¦°à¦Ĺà¦ŀ":7098,"à¦¸à¦ķà¦Ĺ":7099,"Ġà¦°à¦ķà¦®à¦Ń":7100,"à¦ľà¦²à¦ļà¦ķ":7101,"Ġà¦¦à¦²à¦ĵ":7102,"à¦°à¦®à¦£à¦ªà¦¥":7103,"Ġà¦ķà¦¨à¦Ńà¦¯":7104,"à¦¯à¦°à¦ļà¦¨":7105,"à¦Ĺà¦¬à¦§":7106,"Ġà¦ĺà¦¨à¦¶":7107,"Ġà¦ĺà¦¨à¦ĺà¦Ł":7108,"Ġà¦ľà¦°à§İà¦ķ":7109,"à¦®à¦¸à¦ļ":7110,"à¦®à¦¸à¦Ń":7111,"Ġà¦ķà¦²à¦ķà¦¬":7112,"à§İà¦¸à¦¹":7113,"à¦ªà¦£à¦ķ":7114,"à¦¶à¦²à¦ĩ":7115,"à¦£à¦ķà¦¥":7116,"à¦¡à¦²à¦«":7117,"à¦¹à¦°à¦£à¦ĩ":7118,"à¦®à¦°à¦£à¦¶à¦ķ":7119,"Ġà¦Ĺà¦°à¦®à¦ķ":7120,"Ġà¦Ĺà¦°à¦®à¦Ł":7121,"à¤§":7122,"à¤ª":7123,"à¦¡à¦¬à¦¡":7124,"à§ĩâĢ¦.":7125,"à¦®à¦¶à¦°à¦£":7126,"à¦¤à¦ªà¦ŀ":7127,"à¦®à¦¦à¦ª":7128,"Ġà¦ħà¦Łà¦²à¦¤":7129,"à§ĩ!âĢĿâĢĶ":7130,"Ġà¦°à¦«à¦¤":7131,"à¦¿âĢĻ-":7132,"Ġà¦ľà¦Ĺà¦¤à¦ķ":7133,"à§¨à§©":7134,"à¦°à¦¬à¦²à¦¤à¦°":7135,"à¦¦à¦ķà¦ĵ":7136,"Ġà¦Ĩà¦ļà¦°à¦£à¦¬":7137,"Ġà¦Ĩà¦ļà¦°à¦£à¦Ĺ":7138,"à¦¬à¦ľà¦¨à¦¸à¦®à¦ķ":7139,"Ġà¦ĸà¦°à¦ļà¦Ł":7140,"Ġà¦ĸà¦°à¦ļà¦ĵ":7141,"à¦¶à¦¤à¦§à¦¨":7142,"à§«à§«":7143,"ern":7144,"à¦¿?âĢĻâĢĶ":7145,"Ġà¦Ĩà§ľà¦·":7146,"ale":7147,"ality":7148,"à¦¾âĢ¦âĢĻ":7149,"one":7150,"à¦¿âĢ¦?âĢĿ":7151,"à¦¿.-":7152,"à¦¬à§Łà¦ĩ":7153,"Ġà¦Ńà¦°à¦¤à¦®":7154,"Ġthes":7155,"Ġthere":7156,"esc":7157,"Ġà¦¬à¦ĩà¦Łà¦ĩ":7158,"ora":7159,"ark":7160,"ary":7161,"Ġsk":7162,"Ġsm":7163,"à§¬à§«":7164,"iss":7165,"à¦¸à¦ķà¦²à¦ĩ":7166,"à§·à§·":7167,"Ġcan":7168,"ital":7169,"ound":7170,"ough":7171,"Ġà¤µ":7172,"Ġà¤ľ":7173,"à§®à§®":7174,"à¦¼à¦¿à¦Ĥà¥¤":7175,"Ġfl":7176,"Ġpl":7177,"Ġà¦ĺà¦·à¦Ľ":7178,"ĠAn":7179,"ĠAyan":7180,"Ġà¦®à¦°à¦£à¦ķ":7181,"Ġdeath":7182,"ĠPuja":7183,"Ġà¦¨à¦ĵà¦ľ":7184,"old":7185,"olar":7186,"áĥĶ":7187,"Ġlong":7188,"ĠâĢ¦âĢĿ":7189,"Ġà§§à§¯à§ªà§¨":7190,"usin":7191,"Ġà¦¶à¦¶à¦§à¦°":7192,"Ġà§§à§¦à§¦à§¦":7193,"ĠRe":7194,"ĠRah":7195,"Ġequ":7196,"à¦°à¦¡à¦ĵà¦¯":7197,"Ġà¦īà¦ĩà¦¨à¦ļ":7198,"Ġà¦¬à¦Ĺà¦²à¦¦":7199,"ĠTh":7200,"Ġà¦¤à§İà¦¸à¦¤":7201,"Ġbeen":7202,"Ø§ÙĦ":7203,"à¦£à¦§à¦°à¦ķ":7204,"Ġà§§à§¯à§§à§ª":7205,"à§¯à§«":7206,"agore":7207,"Ġà¦ªà¦łà¦¨à¦ª":7208,"Ð°Ð":7209,"ĠWi":7210,"ĠÙĨ":7211,"Ġcontin":7212,"à¦¤à§İà¦¸à¦®":7213,"Ġà¦Ĩà¦ĩà¦Ľà¦¸":7214,"Ġà¦ķà¦°à¦¤à¦²à¦Ĺà¦¤":7215,"Ġnever":7216,"à¦°à¦Ĺà¦²à¦Ń":7217,"Ġà¦īà¦Ńà§Łà¦ķ":7218,"ÂŃÂŃÂŃÂŃÂŃÂŃÂŃÂŃÂŃÂŃÂŃÂŃÂŃÂŃÂŃÂŃ":7219,"âĤĤ":7220,"pends":7221,"Ġbetween":7222,"Ġà¦°à¦ĵà¦¶à¦¨":7223,"Ġstipends":7224,"ĠBeauty":7225,"áĥĲáĥ":7226,"Ġà¦¹à¦Ļà¦ķà¦Ļ":7227,"Ġthese":7228,",à¥¤":7229,"CT":7230,"DI":7231,"II":7232,"SI":7233,"aj":7234,"count":7235,"ga":7236,"land":7237,"lab":7238,"oth":7239,"ole":7240,"over":7241,"ood":7242,"ster":7243,"yn":7244,"£áĥ":7245,"Ð´":7246,"à¯":7247,"Ġ&":7248,"Ġ)":7249,"Ġ/":7250,"Ġ|":7251,"Ġà§Ł":7252,"Ġal":7253,"Ġen":7254,"Ġec":7255,"Ġqu":7256,"Ġout":7257,"à§ĩà¦¾à¥¤":7258,"à¦°à¦Ĩà¦°":7259,"à¦¿),":7260,"à¦¿Â¤":7261,"à¦¨à¦ŀ":7262,"à¦¨à¦¦à¦°":7263,"à¦¨à¦ľà¦²":7264,"à¦¨à¦ĺà¦¨":7265,"à¦¤à¦ł":7266,"à¦¤à¦ļà¦¨":7267,"à¦¤à¦ªà¦¦":7268,"à¦¤à¦¶à¦¤":7269,"à¦²à¦¬à¦ª":7270,"à¦²à¦°à¦ķà¦®":7271,"à¦ķà¦°à¦®":7272,"à¦ķà¦¬à¦²":7273,"à¦ķà¦ļà¦°":7274,"à¦¯à¦°à¦¤":7275,"à¦¯à¦ĺ":7276,"à¦¯à¦¶à¦ķ":7277,"à§ģâĢĮ":7278,"à¦¬à¦¬à¦²":7279,"à¦¬à¦Ĺà¦²":7280,"à¦¬à¦¹à¦¸":7281,"à¦¬à¦§à¦¨":7282,"à¦¬à¦®à¦£":7283,"à¦¬à¦ľà¦°":7284,"à¦¬à¦®à¦¸":7285,"à¦¬à¦®à§Ł":7286,"à¦¬à¦Łà¦Ł":7287,"à¦¼âĢ¦âĢĿ":7288,"à¦¼âĢĻ-":7289,"à¦®à¦°à¦¨":7290,"à¦®à¦®à¦£":7291,"à¦®à§°":7292,"à¦®à¦¸à¦¤":7293,"à¦®à¦¸à¦Ļ":7294,"à¦®à¦īà¦¨":7295,"à¦®à¦ľà¦²":7296,"à¦®à¦·à¦ª":7297,"Ġà¦ķà¦¸à¦¬":7298,"Ġà¦¬à¦¶à¦®":7299,"à¥¤\"":7300,"Ġà¦¸à¦ĵà§Ł":7301,"Ġà¦¸à§İà¦¸":7302,"Ġà¦ªà¦²à¦¤":7303,"Ġà¦ªà¦ĩà¦¸":7304,"à¦¸à¦°à¦¦":7305,"à¦¸à§°":7306,"à¦¸à¦Ńà¦°":7307,"à¦¸à§ľà¦ķ":7308,"Ġà¦Ĩà¦¹à¦°":7309,"Ġà¦Ĩà¦¹à¦²":7310,"à¦Łà§Ł":7311,"à¦Łà¦ªà¦¤":7312,"à¦Łà¦¸à¦ķ":7313,"à¦¦à¦ķà¦¤":7314,"à¦¦à¦°à¦²":7315,"à¦¦à¦®à¦ķ":7316,"à¦¦à¦ļà¦¯":7317,"à¦¦à¦¶à¦ķ":7318,"à¦¦à¦ķà¦¦":7319,"à¦ĩà¦°à¦¨":7320,"à¦ĩà¦¶à¦¨":7321,"à¦ĩà¦¸à¦®":7322,"à¦ĩà¦¸à¦ķ":7323,"à¦ĩà¦īà¦Ł":7324,"à¦ĩà¦īà¦¡":7325,"Ġà¦¨à§ľà¦¤":7326,"Ġà¦¨à¦¬à¦¤à¦®":7327,"Ġà¦®à¦¬":7328,"Ġà¦®à¦°à¦ľ":7329,"à¦ªà¦®à¦£":7330,"à¦ªà¦¶à¦¬":7331,"à¦ªà¦£à¦¤":7332,"à¦ªà¦¹à¦¤":7333,"Ġà¦¤à¦¸à¦²":7334,"à§ĢâĢĶâĢľ":7335,"Ġà¦¹à¦°à¦®":7336,"Ġà¦¹à¦Łà¦ķ":7337,"à¦ľà¦ŀ":7338,"à¦ľà¦ĵà¦¯":7339,"à¦ľà¦¬à¦²":7340,"à¦ľà¦¸à¦¤":7341,"à¦ľà¦Ĺà¦¨":7342,"à¦ľà¦¬à¦ªà¦£":7343,"à¦¶à¦²à¦Ĺ":7344,"à¦ĸà¦ľà¦¨à¦ķ":7345,"à¦Ĺà¦«":7346,"à¦Ĺà¦ªà¦¤":7347,"à¦Ĺà¦¢":7348,"à¦Ĺà¦®à¦¸":7349,"à¦Ĺà¦łà¦ķ":7350,"à¦Ĺà¦£à¦¨":7351,"à¦Ĺà¦ľà¦¨à¦ķ":7352,"à¦Ĺà¦¸à¦¹":7353,"à¦·à¦¦à¦°":7354,"à¦·à¦ļà¦¨":7355,"à¦·à¦®à¦¯":7356,"à¦·à¦¸à¦Ł":7357,"Ġà¦ħà¦°à¦¤":7358,"Ġà¦ķà¦°à¦Ĺ":7359,"à¦¡à¦²à¦¸":7360,"Ġà¦¯à¦ĸ":7361,"Ġà¦¯à§İà¦ªà¦°":7362,"à¦§à¦§":7363,"à¦§à§ľ":7364,"à¦§à¦®à¦¨":7365,"à¦§à¦Ĺà¦²":7366,"à¦§à¦ªà¦¥":7367,"à¦ļà¦¶à¦¬":7368,"Ġà¦Ĺà¦Ĺà¦²":7369,"à¦¹à¦²à¦ķ":7370,"à¦¹à¦Ĺà¦¨":7371,"à§Łà¦ľ":7372,"à§Łà¦®à¦ķ":7373,"à¦£à¦¬à¦ķ":7374,"à¦£à¦¸à¦¹":7375,"à¦£à¦ªà¦¦à¦ķ":7376,"à¦¥à¦ļ":7377,"à¦¥à¦²à¦¨":7378,"à¦¥à¦¸à¦®":7379,"à¦¥à¦Łà¦¬":7380,"Ġà¦¶à¦¤à¦°":7381,"Ġà¦¶à¦Łà¦Ĺ":7382,"Ġà¦ļà¦ĸ":7383,"Ġà¦ľà¦¹à¦°":7384,"Ġà¦ľà¦Ĺà¦ľ":7385,"Ġà¦ľà¦łà¦°":7386,"Ġà¦Ńà¦²à¦ķ":7387,"Ġà¦Ńà¦ľà¦®":7388,"Ġà¦Ńà¦īà¦ľ":7389,"Ġà¦°à¦ľà¦¬":7390,"Ġà¦°à¦ĩà¦ļ":7391,"Ġà¦°à¦¨à¦ľ":7392,"à§ĩà¥¤\"":7393,"Ġà¦ıà¦ķà¦ļà¦²":7394,"à¦Ńà¦Ń":7395,"à¦Ńà¦ŀ":7396,"à¦Ńà¦£à¦ĩ":7397,"à¦¼à¦¾?âĢĻ":7398,"à¦¼à¦¾âĢ¦âĢĿ":7399,"Ġà¦Ľà¦ľà¦¨":7400,"Ġà¦Ĩà¦®à¦¤à¦²":7401,"Ġà¦Ĩà¦®à¦¸à¦¤":7402,"à¦łà¦Ŀ":7403,"Ġà¦¬à¦²à¦¨":7404,"Ġà¦īà¦Ĺà¦°":7405,"Ġà¦īà¦ľà¦¬":7406,"Ġà¦īà¦¸à¦ĸ":7407,"Ġà¦Ĩà¦°à¦Ń":7408,"Ġà¦Ĩà¦°à¦¨à¦¬":7409,"à¦¾à¦ģ;":7410,"Ġà¦²à¦ĩà¦²":7411,"Ġà¦²à¦ķà¦¬à¦ķ":7412,"Ġà¦ĵà¦ľà¦¸":7413,"âĢĶ\"":7414,"à§ĩ,-":7415,"Ġà¦ĸà¦°à¦¸":7416,"Ġà¦ĸà¦¸à¦²":7417,"Ġà¦ĸà¦°à¦ĸà¦°":7418,"Ġà¦ªà¦°à¦®à¦¬":7419,"à¦°à¦¤à¦ĩ":7420,"à¦°à¦¤à¦Ń":7421,"Ġà¦ħà¦¨à¦¬":7422,"Ġà¦ħà¦¨à¦®":7423,"Ġà¦¸à¦®à¦ªà¦¦":7424,"à¦¼à¦¿âĢ¦":7425,"Ġà¦ĺà¦°à¦¸":7426,"Ġà¦ĺà¦¨à¦ķ":7427,"à§ľà¦ľ":7428,"à¦ªà¦°à¦ĩ":7429,"à¦®à¦¨à¦¤":7430,"à¦®à¦¨à¦Ĺà¦°":7431,"Ġà¦ıà¦ĩà¦¦":7432,"à¦¿à¥¤\"":7433,"Ġà¦¬à¦²à¦²à¦°":7434,"Ġà¦¬à¦²à¦²à¦¯":7435,"Ġà¦¬à¦²à¦²à¦ıà¦ĩ":7436,"Ġà¦¬à¦²à¦²à¦Ĩà¦®à¦°":7437,"à¦°à¦£à¦ľ":7438,"à¦°à¦£à¦¹":7439,"à¦¬à¦¨à¦¹":7440,"à¦¬à¦¨à¦ķà¦¥":7441,"à¦Ŀà¦ª":7442,"à§İà¦¦":7443,"à¦ľà¦¨à¦ªà¦¦":7444,"à¦ıà¦¹":7445,"à¦ıà¦ķà¦²":7446,"à¦ıà¦°à¦ªà¦°à¦ĩ":7447,"à¦īà¦¤à¦°":7448,"à¦īà¦ªà¦ļ":7449,"à¦īà¦ªà¦Ĺ":7450,"à¦īà¦¥à¦ª":7451,"à¦ªà¦¨à¦ĵ":7452,"à¦¤à¦°à¦¶":7453,"à¦¿,âĢĶ":7454,"Ġà¦Ĩà¦¸à¦Ļ":7455,"à¦°à¦¬à¦¯":7456,"à¦°à¦¬à¦¶":7457,"à¦Ĩà§ľ":7458,"à¦Ĩà¦ªà¦¤":7459,"à¦Ĩà¦¸à¦®":7460,"à¦Ĩà¦¬à¦Ľ":7461,"à¦Ĩà¦ĩà¦¡":7462,"à¦Ĩà¦«à¦¸":7463,"Ġà¦ĩà¦īà¦ľ":7464,"Ġà¦ĩà¦¹à¦ķ":7465,"à¦¼à¥¤âĢ¦":7466,"Ġà¦ľà¦¨à¦¯":7467,"Ġà¦ľà¦¨à¦®à¦¨":7468,"Ġà¦ķà¦°à¦¤à¦ĵ":7469,"Ġà¦ıà¦¸à¦ıà¦¸à¦¸":7470,"Ġà¦Ŀà¦ķà¦®":7471,"à¦ĺà¦ĩ":7472,"à¦ĺà¦¦à¦°":7473,"à¦·à¦£à¦¬":7474,"Ġà¦ļà¦²à¦ķ":7475,"Ġà¦Ĩà¦¬à¦¡":7476,"à¦ķà¦°à¦²":7477,"à¦ķà¦°à¦¸":7478,"à¦ķà¦²à¦ľ":7479,"à¦ķà¦Łà¦ĩ":7480,"à¦ķà¦Łà¦ĵ":7481,"à¦ķà¦Łà¦ľà¦¨à¦ķ":7482,"à§ģà¦ģ-":7483,"Ġà¦¹à§Łà¦°":7484,"Ġà¦ħà¦°à¦¸":7485,"à¦¸à¦¬à¦¦":7486,"Ġà¦ħà¦¸à¦®à¦¤":7487,"à¦¯à¦¬à¦ļ":7488,"Ġà¦¨à¦¤à¦®":7489,"à§ĩ?âĢĵ":7490,"à¦²à¦ķà¦®à¦²":7491,"à¦°à¦¥à¦®à¦Ń":7492,"à¦¨à¦ĵà¦¨":7493,"à¦¨à¦ĵà¦ĸ":7494,"à¦ķà¦¤à¦¬":7495,"à¦¿à¦Ĥ)":7496,"à¦°à¦¨à¦®":7497,"à¦°à¦¨à¦Ł":7498,"à¦°à¦²à¦¤":7499,"à¦°à¦²à¦¬":7500,"à¦°à¦²à¦¸à¦Ń":7501,"à¦¬à¦¤à¦ĵ":7502,"à¦¬à¦¤à¦°à¦£":7503,"Ġà¦®à¦¹à¦ķ":7504,"Ġà¦®à¦¹à¦¬":7505,"Ġà¦ªà¦¥à¦¹":7506,"Ġà¦ĺà¦°à¦¬à¦¨":7507,"à¦ħà¦²à¦ķ":7508,"à¦ħà¦ªà¦¬":7509,"Ġà¦Ĩà¦¨à¦ª":7510,"Ġà¦ħà¦Ńà¦ķ":7511,"Ġà¦ķà¦²à¦ľ":7512,"Ġà¦ķà¦²à¦¶":7513,"à¦¯à¦ķà¦°à¦£":7514,"à¦¶à¦¨à¦¶":7515,"Ġà¦ľà¦²à¦¶":7516,"Ġà¦ľà¦²à¦Ĺ":7517,"à¦ļà¦¨à¦ľà¦Ļ":7518,"à¦ªà¦¦à¦¶":7519,"à¦°à¦¹à¦¬":7520,"à¦²à¦¬à¦ķ":7521,"à¦²à¦¬à¦¶":7522,"à¦°à¦ľà¦®":7523,"à¦°à¦ľà¦¦":7524,"à¦¨à¦¬à¦¶":7525,"Ġà¦ħà¦ªà¦²":7526,"Ġà¦ħà¦ªà¦ļ":7527,"Ġà¦ħà¦ªà¦¶à¦¨":7528,"Ġà¦ħà¦ªà¦¸à¦°":7529,"Ġà¦ħà¦ªà¦¶à¦ķ":7530,"à¦¾âĢĶâĢĿ":7531,"à¦¼à§ĭ!":7532,"à¦ıà¦ĩà¦¤":7533,"à¦ıà¦ĩà¦®":7534,"à¦ıà¦ĩà¦ľà¦¨":7535,"à¦Łà¦ķà¦¥":7536,"Ġà¦ķà¦¬à¦·à¦®":7537,"Ġà¦ķà¦®à¦ľ":7538,"âĢ¦âĢĻà¥¤":7539,"à¦¸à¦¨à¦Ń":7540,"à¦°à¦ĵà¦ªà¦°":7541,"Ġà¦ľà¦®à¦¦à¦Ĺ":7542,"à¦ļà¦²à¦ļ":7543,"à¦®à¦£à¦ķà¦¨":7544,"Ġà¦¯à¦¤Åĵ":7545,"à¦·à¦ķà¦ĵ":7546,"à¦·à¦ķà¦Ĺà¦£":7547,"Ġà¦«à¦²à¦ĩ":7548,"Ġà¦«à¦²à¦Ĺ":7549,"à¦¯à¦®à¦ª":7550,"à¦¯à¦®à¦ĵ":7551,"à¦¤à¦ķà¦®":7552,"à¦¦à¦²à¦Ł":7553,"à¦ļà¦ķà¦ļà¦ķ":7554,"Ġà¦ħà¦®à¦²à¦ķ":7555,"à¦¤à¦¤à¦¤":7556,"à§°à¦£":7557,"à¦ıà¦ķà¦¯":7558,"à¦¤à¦®à¦ľ":7559,"à¦¤à¦®à¦Ń":7560,"Ġà¦ħà¦ªà¦°à¦ľà¦¨":7561,"à¦¬à¦¸à¦®à¦ķ":7562,"à¦¯à¦¸à¦¹":7563,"à¦¸à¦«à¦¡":7564,"Ġà¦Ĩà¦ļà¦®":7565,"à§ĩâĢĵâĢĵ":7566,"Ġà¦¶à¦¤à¦¶à¦¤":7567,"Ġà¦¸à¦ķà¦²à¦ĩ":7568,"à¦Ŀà¦²à¦¸":7569,"à¦¸à¦ķà¦¦à¦²":7570,"à¦ªà¦¥à¦¯":7571,"à¦¦à§Łà¦Ĺ":7572,"Ġà¦ıà¦¨à¦Ń":7573,"à¦ľà¦²à¦¸":7574,"à¦ľà¦²à¦ĸ":7575,"Ġà¦īà§İà¦¸à¦Ł":7576,"Ġà¦Ĩà¦ªà¦¶":7577,"à§İà¦¸à¦ĩ":7578,"Ġà¦¹à¦°à¦°":7579,"à¦¼âĢĶâĢĺ":7580,"à¦ķà¦¶à¦Ł":7581,"Ġà¦§à¦°à¦¨à¦§":7582,"à¦²à¦Ĺà¦ŀ":7583,"à¦łà¦ķà¦¯":7584,"à¦ªà¦£à¦¨":7585,"à¦¦à¦®à¦Ĺ":7586,"à¦¶à¦²à¦Ĺà¦¤":7587,"à¦®à¦¹à¦°à¦®":7588,"à¦¼à¦Ĥ,":7589,"Ġà¦¨à¦ľà¦°à¦¬à¦¨":7590,"Ġà¦Ĺà¦£à¦¬":7591,"à¦ĩà¦¡à¦¬":7592,"à¦¹à¦°à¦£à¦Ł":7593,"Ġà¦¶à¦¹à¦°à¦ĩ":7594,"à¦¿âĢĵâĢĵ":7595,"Ġà¦¸à¦°à¦²à¦°":7596,"à¦ħà¦°à¦«":7597,"à¤¼":7598,"à¤ł":7599,"à¦¶à¦®à¦¶":7600,"à¦¤à¦ªà¦²":7601,"Ġà¦¦à¦®à¦ķà¦²":7602,"Ġà¦¸à¦¦à¦Ĺà¦¤":7603,"à¦Łà¦®à¦¡":7604,"Ġà¦Ĩà¦ĩà¦¨à¦¸à¦Ļ":7605,"à¦¿âĢĻ;":7606,"Ġà¦ľà¦Ĺà¦¤à¦Ł":7607,"Ġà¦Ĩà¦ļà¦°à¦£à¦Ł":7608,"Ġà¦Ĩà¦ļà¦°à¦£à¦ĵ":7609,"à¦¨à¦ªà¦¤à¦¨":7610,"à¦¯à¦ķà¦°à¦Ń":7611,"à¦¬à¦ľà¦¨à¦¬":7612,"Ġà¦ıà¦¡à¦®":7613,"à¦¾âĢĿ-":7614,"Ġà¦²à§ľà¦¤":7615,"Ġà¦Ĩà¦Łà¦ļà¦²":7616,"à¦¯à¦Ĺà¦łà¦¨":7617,"Ġà¦¬à¦¦à¦Ń":7618,"ontu":7619,"Ġà¦Ńà¦¬à¦¨à¦Ĺ":7620,"à¦¿âĢ¦âĢĻ":7621,"Ġà¦ªà¦²à¦ķà¦¹":7622,"à§ªà§¨":7623,"à§ªà§Ń":7624,"à§İà¦ªà§°":7625,"esent":7626,"Ġsh":7627,"Ġsp":7628,"Ġsam":7629,"Ġà¦°à¦¤à¦¨à¦¦":7630,"Ġà¦ıà¦®à¦Ĩà¦°":7631,"à¦¬à¦Ľà¦°à¦ĸ":7632,"Ġà¦ľà¦¨à¦¸à¦®à¦°":7633,"à¦ħà¦²à¦Ļ":7634,"Ġà¦ħà¦¬à¦¨à¦®à¦¨":7635,"Ġch":7636,"Ġcr":7637,"Ġcur":7638,"à§ĭ!âĢĿâĢĶ":7639,"Ġà¦ıà¦°à¦ĩà¦®à¦§":7640,"Ġbl":7641,"Ġbut":7642,"Ġà§©à§§":7643,"Ġà¤®":7644,"Ġà¦ıà¦«à¦¬":7645,"Ġhand":7646,"Ġhere":7647,"Ġà¦¸à¦²à¦®à¦¨":7648,"ĠAr":7649,"Ġde":7650,"omes":7651,"Ġà¦¨à¦ĵà¦Ĺ":7652,"Ġà¦®à¦¤à¦²à¦¬à¦Ł":7653,"à§§à§¯à§©":7654,"ĠBeng":7655,"à¦¦à¦¬à¦¦à¦²":7656,"ĠâĢ¦.":7657,"Ġà§§à§®à§¦à§§":7658,"Ġà§«à§¬":7659,"ĠIs":7660,"ĠInd":7661,"used":7662,"Ġà§ªà§¦":7663,"uru":7664,"ury":7665,"Ġà§§à§Ńà§Ńà§®":7666,"à¦ıà¦¨à¦ı":7667,"Ġà¦ĩà¦¨à¦«à¦°à¦®":7668,"Ġà§Ńà§«":7669,"ĠTagore":7670,"à¦¯à¦Łà¦ķà¦¦":7671,"ritic":7672,"Ġà¦¬à¦Ľà¦°à¦ķ":7673,"Ġà§®à§¦":7674,"à§¯à§Ń":7675,"ady":7676,"ĠÐ¿":7677,"Ġà§§à§¯à§¨à§¯":7678,"Ġà¦ıà¦ĩà¦ļà¦ıà¦®à¦ıà¦¸":7679,"Ġà¦ĵà¦ĩà¦°à¦ķà¦®à¦ĩ":7680,"à¦ķà¦ľà¦®à¦ķà¦ª":7681,"Ġyour":7682,"à¦ĩà¦·à¦·":7683,"à¤¹à¤°":7684,"Ġnew":7685,"Ġà¦¥à¦ĩà¦¥à¦ĩ":7686,"Ġà§¯à§«":7687,"Ġà¦Ĩà¦īà¦²à¦¦":7688,"ĠUn":7689,"ighting":7690,"Ġà¦ħà§Łà¦¨à¦ķ":7691,"ĠRupali":7692,"ake":7693,"ship":7694,"Ġà§ªà§¦à§¦à§ª":7695,"à¦¦à¦«à¦¤à¦°":7696,"ĠYou":7697,"rahm":7698,"Ġà¦¶à¦°à¦¶à¦¯":7699,";âĢĶ":7700,"AC":7701,"AL":7702,"ED":7703,"EN":7704,"ER":7705,"My":7706,"NA":7707,"OO":7708,"Th":7709,"aw":7710,"bo":7711,"cl":7712,"ex":7713,"eal":7714,"ever":7715,"hr":7716,"ix":7717,"ile":7718,"ition":7719,"ious":7720,"jec":7721,"king":7722,"led":7723,"na":7724,"ne":7725,"ng":7726,"pe":7727,"ple":7728,"rit":7729,"rul":7730,"rough":7731,"ts":7732,"tem":7733,"ug":7734,"vel":7735,"vas":7736,"we":7737,"xx":7738,"Ã¡":7739,"Ä±":7740,"Îµ":7741,"Ðº":7742,"Ñĩ":7743,"ÑĮ":7744,"×¢":7745,"ØŃ":7746,"áŀ":7747,"ĠX":7748,"Ġà§İà¦ķ":7749,"Ġà§İà¦ªà¦°":7750,"ĠĠĠĊĠĠ":7751,"Ġri":7752,"Ġro":7753,"Ġill":7754,"ĠÚ©":7755,"à§ĩ]":7756,"à§ĩÂŃ":7757,"à¦°à¦ĩà¦²":7758,"à¦¤à¦²à¦¬":7759,"à¦¤à¦¸à¦¨":7760,"à¦¤à¦¸à¦Ļ":7761,"à¦¤à¦ªà¦¥":7762,"à¦¤à§İà¦ªà¦°":7763,"à¦²à¦ªà¦¨":7764,"à¦²à¦ıà¦ĩ":7765,"à¦²à¦®à¦¯":7766,"à¦²à¦ªà¦ķ":7767,"à¦²à¦ıà¦ķà¦Ł":7768,"à¦²à¦¸à¦Ł":7769,"à¦²à§İà¦ľ":7770,"à¦ķà¦ªà¦°":7771,"à¦ķà§İ":7772,"à¦ķà¦ªà¦¨":7773,"à¦ķà¦¸à¦²":7774,"à¦¯à¦¡":7775,"à¦¯à¦¦à¦°":7776,"à¦¯à¦§à¦¨":7777,"à¦¯à¦ľà¦¯":7778,"à¦¯à¦¹à¦®":7779,"à¦¬à¦ĩà¦¤":7780,"à¦¬à¦ĸà¦°":7781,"à¦¬à¦Ĺà¦£":7782,"à¦¬à¦īà¦¯":7783,"à¦¼...":7784,"à¦®à¦¢":7785,"Ġà¦ķà¦Łà¦ķ":7786,"Ġà¦ķà¦¸à¦°à§İ":7787,"à§ĭ)":7788,"à§ĭà¦¾":7789,"à§ĭâĢĿâĢĶ":7790,"à§ĭ...âĢĿ":7791,"Ġà¦¸à¦ĩà¦¯":7792,"Ġà¦ªà¦ł":7793,"à¦¸à¦¬à¦²":7794,"à¦¸à¦¦à¦¨":7795,"à¦¸à¦°à¦Ł":7796,"à¦¸à¦ļà¦°":7797,"Ġà¦Ĩà¦ļà¦²":7798,"à¦Łà¦¬à¦¨":7799,"à¦Łà¦°à¦¦":7800,"à¦Łà¦®à¦°":7801,"à¦Łà¦Ńà¦°":7802,"à¦¦à¦°à¦¤":7803,"à¦¦à¦Ĺà¦²":7804,"à¦¦à¦¨à¦¬":7805,"à¦¦à¦ľà¦Ĺà¦¤":7806,"à¦ĩà¦ľà¦Ł":7807,"à¦ĩà¦¶à¦¤":7808,"à¦ĩà¦·à¦Ĺ":7809,"à¦ĩà¦ıà¦ķà¦¬":7810,"Ġà¦¨à¦ľà¦¨":7811,"Ġà¦¨à¦°à¦¬":7812,"Ġà¦¨à¦°à¦ª":7813,"Ġà¦¨à¦¬à¦¸":7814,"Ġà¦¨à¦§à¦°":7815,"Ġà¦¨à¦ĸà¦°":7816,"Ġà¦®à¦ķà¦¬":7817,"Ġà¦®à¦Ĺà¦¨":7818,"Ġà¦®à¦Ĺà¦Ł":7819,"Ġà¦®à¦¸à¦¨à¦¦":7820,"à¦Ľà¦ľ":7821,"à¦Ľà¦ĸ":7822,"à¦Ľà¦§à¦°":7823,"Ġà¦¦à¦®à¦Ł":7824,"à¦ªà§Ł":7825,"à¦ªà¦®à¦¨":7826,"à¦ªà¦Ĺà¦¨":7827,"à¦ªà¦²à¦¸":7828,"Ġà¦ıà¦¨à¦Ł":7829,"Ġà¦¤à¦ļ":7830,"Ġà¦¤à¦ŀ":7831,"Ġà¦¤à¦Ľà¦°":7832,"Ġà¦¤à¦®à¦¸":7833,"à§ĢâĢĿâĢĶ":7834,"Ġà¦¹à¦°à¦¤":7835,"Ġà¦¹à¦°à¦¬":7836,"Ġà¦¹à¦¦à¦¯":7837,"Ġà¦¹à¦īà¦¨":7838,"à¦ľà¦°à¦£":7839,"à¦ľà¦¬à¦¦":7840,"à¦¼à§ĩà¦¾":7841,"âĢĭ":7842,"à¦¶à¦¬à¦°":7843,"à¦¶à¦ķà¦Ł":7844,"à¦¶à¦°à¦ķà¦°":7845,"à¦ĸà¦ķà¦ĩ":7846,"à¦Ĺà¦°à¦¤":7847,"à¦Ĺà§İ":7848,"à¦Ĺà¦ľà¦¨":7849,"à¦Ĺà¦°à¦¸":7850,"à¦Ĺà¦ķà¦¨":7851,"à¦Ĺà¦ªà¦¥":7852,"à¦Ĺà¦«à¦²":7853,"à¦Ĺà¦£à¦ķ":7854,"à¦·à¦¨à¦ĵ":7855,"à¦·à¦¸à¦®":7856,"Ġà¦ħà¦ĸà¦¨":7857,"à¦¡à¦¬à¦¸":7858,"à¦¡à¦¬à¦¬":7859,"à¦¡à¦ķà¦Ń":7860,"à¦¡à¦¸à¦ĵ":7861,"Ġà¦¯à¦¡":7862,"Ġà¦¯à¦¤à¦¨":7863,"à¦§à¦ĸ":7864,"à¦§à¦°à¦ķ":7865,"à¦§à¦°à¦¬":7866,"à¦§à¦¬à¦ª":7867,"à¦§à¦Ĺà¦¤":7868,"à¦§à¦ªà¦¤":7869,"à¦§à¦¸à¦¤":7870,"à¦ļà¦ŀ":7871,"à¦ļà¦°à¦ķ":7872,"à¦ļà¦ĺ":7873,"à¦ļà¦¨à¦ĵ":7874,"Ġà¦Ĺà¦ľà¦¸":7875,"à¦¹à¦¡":7876,"à§Łà¦ĸ":7877,"à¦£à¦ľà¦¯":7878,"à¦¥à¦ĸ":7879,"à¦¥à¦£":7880,"à¦¥à¦²à¦Ĺ":7881,"Ġà¦¶à¦·":7882,"Ġà¦¶à§Ł":7883,"Ġà¦¶à¦£":7884,"Ġà¦¶à¦®à¦¶":7885,"Ġà¦¶à¦°à¦¸à¦¨":7886,"à¦ģ!":7887,"à¦ģà¦¾":7888,"Ġà¦ļà§ľà¦¤":7889,"Ġà¦ļà§ľà¦ķ":7890,"Ġà¦Ńà¦£à¦ĩ":7891,"Ġà¦Ńà§İà¦°":7892,"Ġà¦°à¦ĵà§Ł":7893,"Ġà¦°à¦¨à¦ķ":7894,"Ġà¦°à¦¶à¦®":7895,"Ġà¦°à¦¦à¦¬à¦¦à¦²":7896,"à¦ĵà¦ªà¦°":7897,"à¦ĵà¦ĩà¦Ł":7898,"Ġà¦ıà¦ķà¦ķà¦Ń":7899,"Ġà¦ıà¦ķà¦ıà¦ķà¦¦":7900,"Ġà¦ıà¦ķà¦ıà¦ķà¦¬":7901,"à¦Ńà¦ļ":7902,"à¦Ńà§İà¦¸à¦¤":7903,"à¦¼à¦¾à¦¾":7904,"à¦¼à¦¾!âĢĿ":7905,"Ġà¦Ľà¦¶":7906,"Ġà¦Ĩà¦®à¦Ł":7907,"Ġà¦Ĩà¦®à¦°à¦£":7908,"à¦łà¦ł":7909,"Ġà¦¬à¦²à¦ķ":7910,"Ġà¦īà¦¶à¦ķ":7911,"Ġà¦īà¦ĩà¦¶":7912,"Ġà¦Ĩà¦°à¦«":7913,"Ġà¦Ĩà¦°à¦¬à¦¦":7914,"à§ĥ.":7915,"à¦¾à¦ģâĢĵ":7916,"à¦Ļà¦Ĺ":7917,"Ġà¦²à¦¹":7918,"Ġà¦²à¦¬à¦¨":7919,"Ġà¦²à¦ķà¦²à¦ķ":7920,"âĢĶ-":7921,"âĢĶâĢĵ":7922,"Ġà¦«à¦·":7923,"Ġà¦ĸà¦¸à¦¤":7924,"Ġà¦ĸà§İà¦¨":7925,"ĠâĢį":7926,"Ġà¦§à¦¨à¦²":7927,"à¦°à¦¤à¦¸":7928,"Ġà¦ħà¦¨à¦Ļ":7929,"Ġà¦¸à¦®à¦®":7930,"Ġà¦ĺà¦°à¦®à¦¯":7931,"à¦ªà¦°à¦ªà¦°":7932,"Ġà¦®à¦¨à¦ľ":7933,"Ġà¦®à¦¨à¦®à¦¤":7934,"à¦«à¦°à¦¸":7935,"âĢĻ:":7936,"à¦°à¦£à¦¶":7937,"à¦¬à¦¨à¦°à¦ķ":7938,"à¦Ŀà¦¸":7939,"à¦ŀà¦ķà¦°":7940,"à¦ıà¦¸à¦ª":7941,"à¦īà¦ĺ":7942,"à¦īà¦ªà¦¤":7943,"à¦īà¦¦à¦¯":7944,"à¦īà¦¬à¦¯":7945,"à¦īà¦ľà¦ª":7946,"Ġà¦¸à¦¬à¦ĵ":7947,"Ġà¦¸à¦¬à¦ķà¦¥":7948,"à¦ªà¦¨à¦ĩ":7949,"Ġà¦¹à¦²à¦°":7950,"Ġà¦¹à¦²à¦ĩ":7951,"à¦¿,-":7952,"ĠâĢľâĢĺ":7953,"Ġà¦Ĩà¦Ľà¦¨":7954,"à¦Ĩà¦ĺ":7955,"à¦Ĩà¦°à¦¨":7956,"à¦Ĩà¦¨à¦ķ":7957,"à¦Ĩà¦ªà¦Ł":7958,"à¦Ĩà¦ĩà¦¶":7959,"Ġà¦ĩà¦Ľ":7960,"Ġà¦ĩà¦¬à¦¨":7961,"Ġà¦ıà¦¬à¦®":7962,"à¦¼à¥¤(":7963,"Ġà¦ľà¦¨à¦¬à¦²":7964,"Ġà¦®à¦¤à¦ķ":7965,"Ġà¦§à¦°à¦¨à¦Ł":7966,"âĢĵà¥¤":7967,"à¦ĺà¦®à¦¯":7968,"à¦·à¦£à¦¨":7969,"à¦·à¦£à¦¹":7970,"à¦·à¦£à¦¸à¦¹":7971,"Ġà¦Ĩà¦Ĺà¦°à¦¤à¦²":7972,"à¦¬à¦²à¦ļ":7973,"à¦¬à¦²à¦ĵ":7974,"à¦¬à¦²à¦¤à¦°":7975,"à¦ķà¦°à¦°":7976,"Ġà¦¢à¦ª":7977,"à¦ķà¦Łà¦¬à¦¤":7978,"à§ģà¦ģâĢĻ":7979,"Ġà¦¬à¦¨à¦Ľ":7980,"Ġà¦Ĺà¦²à¦¬":7981,"à¦¸à¦¬à¦ķà¦Ł":7982,"Ġà¦ħà¦¸à¦«à¦²":7983,"à§ĩ?\"":7984,"à¦°à¦¸à¦Ł":7985,"à¦¨à¦ĵà¦ª":7986,"Ġà¦¹à¦¤à¦ļ":7987,"à¦¤à¦¨à¦¯":7988,"à¦ķà¦¤à¦²":7989,"Ġà¦¬à¦°à¦ª":7990,"Ġà¦¬à¦°à¦Ĺ":7991,"Ġà¦¬à¦°à¦¬à¦°":7992,"à¦Ĺà¦²à¦®":7993,"à¦Ĺà¦²à¦ĵ":7994,"à¦Ĺà¦²à¦ķà¦°":7995,"à¦¿à¦Ĥ!âĢĻ":7996,"à¦¬à¦¤à¦²":7997,"Ġà¦®à¦¹à¦°à¦®":7998,"à¦ħà¦ªà¦¤":7999,"à¦ħà¦Łà¦²":8000,"à¦ħà¦ľà¦¸":8001,"à¦ħà¦¸à¦®à¦¯":8002,"à¦ħà¦¬à¦ľ":8003,"à¦ħà¦§à¦®":8004,"à¦¦à¦°à¦ĩ":8005,"à¦ĩà¦²à¦Łà¦°":8006,"Ġà¦īà¦ªà§ľ":8007,"à¦Ĺà¦¤à¦¬":8008,"à¦Ĺà¦¤à¦¸":8009,"Ġà¦ķà¦²à¦¨":8010,"à¦®à¦¤à¦ĩ":8011,"à¦¯à¦ķà¦ķ":8012,"à¦¶à¦¨à¦°":8013,"Ġà¦ľà¦²à¦ĺ":8014,"Ġà¦ľà¦²à¦§à¦°":8015,"Ġà¦¸à¦°à¦ªà¦ŀ":8016,"à¦²à¦¬à¦¸":8017,"à¦¨à¦¬à¦¯":8018,"à¦¨à¦¬à¦¬":8019,"à¦¨à¦¬à¦¦à¦¨":8020,"Ġà¦ħà¦ªà¦¯":8021,"Ġà¦¸à¦¹à¦¶":8022,"à¦²à¦¨à¦¦":8023,"à¦°à¦¦à¦¦":8024,"à¦¦à¦¨à¦ķà¦ķ":8025,"à¦§à¦¨à¦¦":8026,"à¦ªà¦¤à¦®":8027,"à¦ıà¦ĩà¦¸à¦¬à¦ĩ":8028,"à¦¯à¦¤à¦¤":8029,"à¦¯à¦¤à¦ĵ":8030,"à¦Łà¦ķà¦¯":8031,"à¦Łà¦ķà¦ĵ":8032,"Ġà¦ķà¦®à¦¬à¦¯":8033,"à¦¹à¦²à¦ª":8034,"âĢ¦âĢ¦":8035,"à¦¨à¦¨à¦ķ":8036,"à¦¸à¦¨à¦ªà¦¤":8037,"à¦°à¦ĵà¦°":8038,"à¦°à¦ĵà¦¨":8039,"à¦¾?âĢĶ":8040,"Ġà¦¬à¦ĩà¦ªà¦¡":8041,"à¦¤à¦²à¦®":8042,"à¦¤à¦²à¦§":8043,"à¦°à¦ªà¦¤à¦¨":8044,"à¦¸à¦®à¦¬":8045,"Ġà¦ħà¦ļà¦²à¦¤":8046,"à¦·à¦ķà¦¶":8047,"à¦¬à¦¦à¦®":8048,"Ġà¦«à¦²à¦²":8049,"à¦¯à¦®à§Łà¦¤":8050,"à¦¤à¦ķà¦¦":8051,"à¦¤à¦ķà¦¥":8052,"à¦¿à¦ĥâĢĵ":8053,"à¦¦à¦²à¦ª":8054,"Ġà¦ªà¦¦à¦ªà¦²":8055,"à§°à¦ª":8056,"à§°à¦¬à¦¨":8057,"à§°à¦¯à¦ľ":8058,"Ġà¦ıà¦ķà¦¬à¦¸":8059,"à¦¿à¦ģ-":8060,"à¦¬à¦¸à¦²":8061,"Ġà¦Ĳà¦¯":8062,"Ġà¦Ĳà¦¦":8063,"à§ģâĢĻâĢĵ":8064,"Ġà¦°à¦Ļà¦ļà¦Ł":8065,"Ġà¦ıà¦ķà¦¦à¦«":8066,"à¦Łà¦²à¦Ł":8067,"Ġà¦Ĩà¦§à¦¶":8068,"Ġà¦Ĩà¦§à¦¹":8069,"Ġà¦Ĩà¦§à¦®à¦¯":8070,"ĠâĢĶâĢľ":8071,"ĠâĢĶâĢĶâĢĶ":8072,"Ġà¦ħà¦Ĺà¦£à¦¨":8073,"Ġà¦ħà¦²à¦Ł":8074,"à§ģà¦ĥ!":8075,"Ġà¦Ńà¦¬à¦Ń":8076,"à¦ĸà¦¬à¦ĩ":8077,"à¦¹à¦¨à¦Ĺà¦ŀ":8078,"à¦ĩà¦Łà¦ª":8079,"à¦ĩà¦Łà¦Ń":8080,"?âĢĿ,":8081,"?âĢĿà¥¤":8082,"à¦ķà¦¨à¦«":8083,"Ġà¦Īà¦²à¦ķ":8084,"à§ĩâĢĵâĢľ":8085,"à¦ªà¦¸à¦¹":8086,"à¦¨à¦¸à¦ª":8087,"à¦°à¦Ĺà¦Ł":8088,"à¦¬à¦¶à¦¤à¦ĩ":8089,"Ġà¦īà¦²à¦«":8090,"à¦¦à§Łà¦ĩ":8091,"Ġà¦¸à¦®à§Łà¦ĵ":8092,"Ġà¦¦à¦°à¦ķà¦·":8093,"Ġ(!)":8094,"Ġà¦ıà¦¨à¦¡":8095,"Ġà¦¦à¦²à¦ĩ":8096,"à¦°à¦®à¦£à¦¸":8097,"à¦°à¦®à¦£à¦¸à¦Ļ":8098,"à¦¼à§Ģ-":8099,"à¦¼à§Ģ?":8100,"à¦«à¦²à¦ĩ":8101,"à¦Łà¦¬à¦ĩà¦¯":8102,"à¦Łà¦¬à¦ĩà§Ł":8103,"Ġà¦¸à¦¹à¦ľà¦¤à¦°":8104,"à¦°à¦¹à¦£à¦ĩ":8105,"Ġà¦Ĩà¦ªà§İà¦ķ":8106,"à¦ľà¦ķà¦¸":8107,"à§İà¦¸à¦ķà¦°":8108,"à¦·à¦®à¦Ń":8109,"Ġà¦¦à¦¶à¦Ĺ":8110,"Ġà¦ķà¦·à¦Ľ":8111,"Ġà¦ľà¦¬à¦ľà¦¬":8112,"à¦łà¦ķà¦ĩ":8113,"à¦ªà¦£à¦ĵ":8114,"à¦®à¦¹à¦¦":8115,"Ġà¦¨à¦°à¦®à¦Ń":8116,"à¦ĩà¦Ńà¦ĵà¦¯":8117,"Ġà¦Ĺà¦£à¦ª":8118,"à¦¬à¦Ľà¦°à¦ĩ":8119,"à¦¾à¥¤âĢĻâĢĻ":8120,"à¦¾âĢĻ!":8121,"Ġà¦¸à¦°à¦²à¦®à¦¤":8122,"à¦ķà¦ľà¦¨à¦ĩ":8123,"à¦ķà¦°à¦£à¦Ł":8124,"à¦¯à¦Ńà¦Ļ":8125,"à¤¡":8126,"à¤¬":8127,"à¦°à¦°à¦ļà¦¨":8128,"à¦¡à¦¬à¦ľ":8129,"à¦¡à¦¬à¦ľà¦¨à¦¨":8130,"Ġà¦ļà¦¨à¦®à¦¨":8131,"à¦°à¦«à§İ":8132,"à§ĩâĢ¦à¥¤âĢĻ":8133,"à§ĩâĢ¦?âĢĿ":8134,"à¦ķà¦Ĺà¦®à¦¨":8135,"à¦£à¦¬à¦§":8136,"à¦®à¦ªà¦ŀ":8137,"à¦¿à¥¤âĢĻâĢĿ":8138,"Ġà¦ıà¦°à¦ķà¦®à¦Ń":8139,"à¦ļà§Łà¦ªà¦¤":8140,"Ġà¦«à¦°à¦ĵà¦¯":8141,"à§Ŀà¦ª":8142,"Ġà¦·à¦Ł":8143,"Ġà¦ľà§Łà¦¦":8144,"à¦¿âĢĻ!":8145,"à§¨à§Ń":8146,"..à¥¤":8147,"Ġà¦Ĩà¦ļà¦°à¦£à¦Ĺà¦¤":8148,"à¦²à¦ªà§ľ":8149,"Ġà¦Ĳà¦ķà¦®à¦¤":8150,"ins":8151,"inat":8152,"ination":8153,"Ġà¦¹à¦ĩà¦ļ":8154,"à¦¬à¦ľà¦¨à¦°":8155,"à¦¬à¦ľà¦¨à¦Ĺ":8156,"à¦Łà¦¸à¦¸":8157,"à¦ĩà¦ªà¦Ĺ":8158,"Ġà¦Ĩà¦«à¦°":8159,"Ġà¦Ĩà¦«à¦¨":8160,"Ġà¦«à¦Łà¦ķà¦Ł":8161,"à¦¬à¦°à¦¤à¦¤":8162,"à¦¬à¦¨à¦ķà¦£":8163,"Ġà§¨à§¯":8164,"Ġà¦Ķà¦ļ":8165,"Ġà¦Ĩà¦Łà¦¤à¦²":8166,"à¦ıà¦¸à¦ıà¦¸à¦¸":8167,"à¦ĺà¦Łà¦¨à¦ªà¦Ł":8168,"Ġà¦¬à¦¦à¦¹à¦ľà¦®":8169,"ond":8170,"à§Ńà§¦":8171,"à¦¿âĢ¦à¥¤âĢĻ":8172,"à¦¯à§Łà¦ķ":8173,"Ġà¦īà§ľà¦¬":8174,"à¦¯à¦°à¦ķà¦®à¦Ń":8175,"à¦¿âĢĿ!":8176,"à¦¿!âĢĿâĢĶ":8177,"Ġà¦Ĩà¦°à¦¬à¦¸à¦®":8178,"à¦Ĩà¦ķà¦¬à¦°":8179,"Ġà¦Ńà¦°à¦¤à¦Ĺ":8180,"Ġthan":8181,"esti":8182,"à¦Ŀà¦ķà¦Ŀà¦ķ":8183,"ord":8184,"Ġà¦Ĺà¦łà¦¨à¦®":8185,"Ġsun":8186,"Ġsome":8187,"à§¬à§©":8188,"ise":8189,"Ġà¦ķà¦¬à¦°à¦Ł":8190,"à¦īà¦¬à¦ĵà§Ł":8191,"Ġà¦®à§İà¦¸à¦ľ":8192,"Ġthem":8193,"Ġà¦ħà¦¬à¦¨à¦®":8194,"Ġcall":8195,"Ġcould":8196,"Ġà¦¨à§ľà¦ļà§ľ":8197,"Ġbir":8198,"Ġà¦ĩà¦īà¦¥":8199,"anda":8200,"Ġà§©à§«à§¦":8201,"Ġà¤°":8202,"à§ĭâĢ¦à¥¤":8203,"Ġhall":8204,"Ġab":8205,"Ġà¦¨à¦Ĺà¦°à¦ª":8206,"Ġà¦ľà¦¨à¦Ĺà¦£à¦®à¦¨":8207,"Ġà¦¨à¦ķà¦²à¦ķ":8208,"à¦¶à¦¶à¦§à¦°":8209,"ĠAc":8210,"Ġoff":8211,"à¦®à¦«à¦²à¦¤":8212,"ication":8213,"ĠSt":8214,"Ġà¦ķà¦¦à¦®à¦Ľ":8215,"Ġà¦ķà¦¦à¦®à¦Ĺ":8216,"olog":8217,"à§§à§¯à§¨":8218,"áĥķ":8219,"ĠBhar":8220,"Ġlike":8221,"Ġinter":8222,"Ġà§§à§¯à§ªà§®":8223,"Ġà¦ªà¦¥à¦ļà¦²à¦¤":8224,"ĠMy":8225,"osa":8226,"urga":8227,"Ġà¦īà¦ĩà¦²à¦ķ":8228,"Ġà§§à§Ńà§«à§Ń":8229,"ĠDurga":8230,"Ġey":8231,"Ġà¦Ĺà¦Ĺà¦¨à¦®à¦£":8232,"identi":8233,"Ġà§§à§¨à§¦":8234,"Ġà§¨à§¦à§Ń":8235,"Ġà§¨à§¦à§§à§¦":8236,"Ġà§¨à§¦à§«à§¦":8237,"ĠNaz":8238,"ĠNighting":8239,"iment":8240,"irst":8241,"Ġreg":8242,"Ġà¦ĸà§ľà¦ĸà§ľ":8243,"Ġà¦ħà¦ĺà¦Łà¦¨à¦ĺà¦Łà¦¨à¦ªà¦Ł":8244,"ĠÐ·":8245,"ĠØª":8246,"Ġà§§à§¯à§¦à§Ń":8247,"à§§à§Ńà§«à§¬":8248,"Ġà§§à§¯à§¬à§Ń":8249,"Ġà§§à§¯à§¬à§®":8250,"Ġrel":8251,"à¦¦à¦ļà§Łà¦¨":8252,"Ġà§§à§¯à§®à§§":8253,"harma":8254,"Ġits":8255,"Ġà¦°à¦Ĺà¦ļà¦Ł":8256,"à¦ĩà¦¨à¦«à¦°à¦®":8257,"Ð¾Ð»":8258,"ĠÙħ":8259,"Ġcons":8260,"à§ĩ.à¥¤":8261,"à¦īà¦Ńà§Łà¦ĩ":8262,"Ġneigh":8263,"TED":8264,"Ġà§¯à§¦":8265,"ÑĢÐ°":8266,"aliz":8267,"ears":8268,"Ġà¦Ĭà¦¨à¦ļà¦²":8269,"digital":8270,"à§įà§įà§įà§į":8271,"éŁ¿éŁ¿éŁ¿éŁ¿éŁ¿éŁ¿éŁ¿éŁ¿éŁ¿éŁ¿éŁ¿éŁ¿éŁ¿éŁ¿éŁ¿éŁ¿éŁ¿éŁ¿éŁ¿éŁ¿éŁ¿éŁ¿éŁ¿éŁ¿éŁ¿éŁ¿éŁ¿éŁ¿éŁ¿éŁ¿éŁ¿éŁ¿éŁ¿éŁ¿éŁ¿éŁ¿éŁ¿éŁ¿éŁ¿éŁ¿éŁ¿éŁ¿éŁ¿éŁ¿éŁ¿éŁ¿éŁ¿éŁ¿éŁ¿éŁ¿éŁ¿éŁ¿éŁ¿éŁ¿éŁ¿éŁ¿éŁ¿éŁ¿éŁ¿éŁ¿éŁ¿éŁ¿éŁ¿éŁ¿":8272,"Ġorig":8273,"à¦ķà¦Ŀà¦²à¦ķ":8274,"afi":8275,"ĠParg":8276,"Â·Â·":8277,"æŃĵæŃĵæŃĵæŃĵæŃĵæŃĵæŃĵæŃĵæŃĵæŃĵæŃĵæŃĵæŃĵæŃĵæŃĵæŃĵæŃĵæŃĵæŃĵæŃĵæŃĵæŃĵæŃĵæŃĵæŃĵæŃĵæŃĵæŃĵæŃĵæŃĵæŃĵæŃĵ":8278,"augh":8279,"Ġlearning":8280,"Ġà¦¸à§ľà¦ķà¦Ł":8281,"Ġà¦²à¦Ľà¦®à¦¨":8282,"Ġtrans":8283,"Ġgods":8284,"áĥĶáĥ":8285,"ĠRahim":8286,"Ġcontinu":8287,"Ġà¦ªà¦ĩà¦¸à¦ĩ":8288,"Ġsamosa":8289,"à¦¡à¦¸à¦ĵà¦ħà§°":8290,"ĠNazrul":8291,"ĠNightingale":8292,")!":8293,",\"":8294,"-âĢĶ":8295,"-âĢľ":8296,"?\"":8297,"?.":8298,"?à¥¤":8299,"?âĢĵ":8300,"AB":8301,"AM":8302,"Boss":8303,"CO":8304,"CU":8305,"OR":8306,"Pr":8307,"RI":8308,"RU":8309,"SP":8310,"STEM":8311,"VR":8312,"ail":8313,"ather":8314,"br":8315,"co":8316,"col":8317,"cra":8318,"eb":8319,"eat":8320,"ks":8321,"known":8322,"ls":8323,"min":8324,"mur":8325,"nung":8326,"ob":8327,"oat":8328,"ool":8329,"pen":8330,"ron":8331,"res":8332,"ric":8333,"rish":8334,"so":8335,"to":8336,"ten":8337,"uch":8338,"va":8339,"yth":8340,"Ã¤":8341,"Ã¼":8342,"Ïĥ":8343,"Ð·":8344,"Õ½":8345,"Ø³":8346,"à±":8347,"âģ":8348,"åķ":8349,"æĭ":8350,"ê°":8351,"ìĿ":8352,"Ġ2":8353,"Ġ6":8354,"Ġx":8355,"Ġz":8356,"Ġà§°":8357,"Ġver":8358,"Ġess":8359,"Ġif":8360,"Ġour":8361,"Ġidenti":8362,"ĭľ":8363,"ķ×":8364,"Ġà¦ģ":8365,"à¦¾ï»¿":8366,"à§ĩà¦¾,":8367,"à§ĩà¥¥":8368,"à¦°à¦ł":8369,"à¦°à¦°à¦¶":8370,"à¦°à¦ļà¦ķ":8371,"à¦°à¦Ĩà¦ļà¦°à¦£":8372,"à¦¨à¦Ĺà¦²":8373,"à¦¨à¦®à¦²":8374,"à¦¨à¦°à¦¦":8375,"à¦¨à¦®à¦°":8376,"à¦¨à¦¶à¦Ł":8377,"à¦¤à¦Ŀ":8378,"à¦¤à¦²à¦ķ":8379,"à¦¤à¦¹à¦¸":8380,"à¦¤à¦®à¦°":8381,"à¦¤à¦¸à¦°":8382,"à¦¤à¦§à¦°":8383,"à¦¤à¦·à¦Ł":8384,"à¦¤à¦¸à¦®à¦¸":8385,"à¦¤à¦Ĩà¦Ł":8386,"à¦²à¦·":8387,"à¦²à¦Ĺà¦¤":8388,"à¦²à¦¨à¦¬":8389,"à¦²à¦ļà¦ķ":8390,"à¦²à¦¸à¦«":8391,"à¦²à§Łà¦Ĺ":8392,"à¦²à¦ĺà¦¡":8393,"à¦²à¦°à¦¤à¦¨":8394,"à¦ķà¦Ļ":8395,"à¦ķà¦·à¦£":8396,"à¦ķà¦Ĩà¦®":8397,"à¦ķà¦®à¦°":8398,"à¦ķà¦¨à¦Ł":8399,"à¦ķà¦ľà¦®":8400,"à¦ķà¦Ĩà¦īà¦Ł":8401,"à¦¯à¦¶à¦¬":8402,"à¦¯à¦«à¦²":8403,"à¦¯à¦²à¦Ĺ":8404,"à¦¯à¦ľà¦®":8405,"à¦¬à¦¬à¦¨":8406,"à¦¬à¦Łà¦°":8407,"à¦¬à¦īà¦Ł":8408,"à¦¼âĢĿ-":8409,"à¦®à¦¬à¦¤":8410,"à¦®à¦¸à¦°":8411,"à¦®à¦®à¦Ĺ":8412,"à¦®à¦®à§Ł":8413,"à¦®à¦ļà¦Ł":8414,"à¦®à¦Ńà¦Ļ":8415,"à¦®à¦łà¦¤":8416,"à§ĭâĢĿ,":8417,"Ġà¦¬à¦¨à¦¤":8418,"Ġà¦¬à¦°à¦¸":8419,"Ġà¦¬à¦īà¦¨":8420,"Ġà¦¬à¦ĸà¦°":8421,"Ġà¦¬à¦¦à¦¤":8422,"Ġà¦¬ab":8423,"à¥ĥ":8424,"à¥¤.":8425,"Ġà¦¸à¦ĸà¦¨":8426,"Ġà¦¸à¦°à¦®":8427,"Ġà¦¸à¦ĩà¦²":8428,"Ġà¦¸à¦¸à¦Ļ":8429,"Ġà¦¸à¦§à¦¬":8430,"Ġà¦¸à¦²à¦Ń":8431,"Ġà¦¸à¦ĵà¦Ĺ":8432,"Ġà¦ªà¦Ĺ":8433,"Ġà¦ªà¦¨à¦°":8434,"à¦¸à¦ªà¦°":8435,"à¦¸à¦ħ":8436,"à¦¸à¦¦à¦°":8437,"à¦Łà¦¥":8438,"à¦Łà¦Ļ":8439,"à¦Łà¦Ĩ":8440,"à¦Łà¦ªà¦¦":8441,"à¦Łà¦°à¦ĵ":8442,"à¦Łà¦¬à¦ķ":8443,"à¦¦à¦ªà¦¦":8444,"à¦¦à¦²à¦¬à¦¦":8445,"à¦ĩà¦ķà¦°":8446,"à¦ĩà¦®à¦°":8447,"à¦ĩà¦ªà¦Ł":8448,"à¦ĩà¦«à¦²":8449,"à¦ĩà¦®à¦¸":8450,"à¦ĩà¦ľà¦¯":8451,"à¦ĩà¦ľà¦®":8452,"à¦ĩà¦ľà¦¨à¦ķ":8453,"à¦ĩà¦ĵà¦¨":8454,"Ġà¦¨à¦¬à¦ķ":8455,"Ġà¦¨à¦ĵà¦°":8456,"Ġà¦¨esc":8457,"Ġà¦®à¦°à¦ķ":8458,"Ġà¦®à¦ķà¦°":8459,"Ġà¦®à¦Łà¦°":8460,"Ġà¦®à¦Ľà¦²":8461,"Ġà¦®à§ľà¦ķ":8462,"à¦Ľà¦®à¦Ľà¦®":8463,"Ġà¦¦à¦ľ":8464,"Ġà¦¦à¦¦à¦°":8465,"Ġà¦¦à¦¶à¦¨":8466,"Ġà¦¦à¦°à¦ĵ":8467,"à¦ªà¦ķà¦Ł":8468,"à¦ªà¦¸à¦¬":8469,"à¦ªà¦Ĺà¦¤":8470,"à¦ªà¦¸à¦¨":8471,"à¦ªà¦¸à¦°":8472,"à¦ªank":8473,"Ġà¦ıà¦Ĺà¦²":8474,"Ġà¦ıà¦®à¦¤":8475,"Ġà¦¤à¦°à¦¸":8476,"Ġà¦¤à¦Łà¦°":8477,"à§Ģà§ĩ":8478,"Ġà¦¹à¦°à¦¹":8479,"à¦ľà¦°à¦ķ":8480,"à¦ľà¦®à¦¤":8481,"à¦ľà¦¹à¦°":8482,"à¦ľà¦®à¦°":8483,"à¦ľà¦°à¦Ł":8484,"à¦¼à§ĩà¦ĥà¥¤":8485,"à¦¶à¦ªà¦°":8486,"à¦¶à¦Ĺà¦²":8487,"à¦¶à¦¦à¦°":8488,"à¦¶à¦¸à¦®":8489,"à¦ĸà¦Ŀ":8490,"à¦ĸà¦Ńà¦Ļ":8491,"à¦Ĺà¦°à¦¬":8492,"à¦Ĺà¦¬à¦²":8493,"à¦Ĺà¦¹à¦°":8494,"à¦Ĺà¦¸à¦®":8495,"à¦Ĺà¦¬à¦¦":8496,"à¦Ĺà§°":8497,"à¦Ĺà¦ļà¦°":8498,"à¦·à¦²à¦¤":8499,"à¦·à¦°à¦ĩ":8500,"à¦·à¦®à¦£":8501,"à¦·à¦ľà¦¨à¦ķ":8502,"à¦·à¦¸à¦¹":8503,"Ġà¦ħà¦ĵ":8504,"Ġà¦ħà¦°à¦®":8505,"Ġà¦ħà¦ķà¦Ł":8506,"Ġà¦ħà¦¦à¦°":8507,"Ġà¦ħà¦ķà¦¬":8508,"Ġà¦ħà¦¯à¦¯":8509,"à¦¡à¦¯":8510,"à¦¡à¦ľà¦¨":8511,"à¦¡à¦¬à¦²":8512,"Ġà¦¯à¦ļ":8513,"Ġà¦¯à¦£":8514,"Ġà¦¯à¦®à¦¸":8515,"à¦§à¦°à¦£":8516,"à¦§à¦°à¦¥":8517,"à¦§à¦®à¦ķ":8518,"à¦§à¦¹à¦¸":8519,"à¦§à¦Ńà¦°":8520,"à¦ļà¦ľ":8521,"à¦ļà¦°à¦¤":8522,"à¦ļà¦²à¦ķ":8523,"à¦ļà§Łà¦¨":8524,"à¦ļà¦ĺà¦°":8525,"Ġà¦Ĺà¦ĺ":8526,"Ġà¦Ĺà¦ľà¦Ĺ":8527,"Ġà¦Ĺà¦ªà¦Ĺ":8528,"à¦¹à¦ķà¦¤":8529,"à¦¹à¦§à¦¨":8530,"à¦¹à¦ķà¦¦":8531,"à¦£à¦ªà¦°":8532,"à¦£à¦ķà¦²":8533,"à¦£à¦¬à¦¤":8534,"à¦£à¦®à¦¤":8535,"à¦£à¦ļà¦¨":8536,"à¦£à¦¢":8537,"à¦¥à¦°à¦ĩ":8538,"à¦¥à¦¨à¦ķ":8539,"à¦¥à¦²à¦Ń":8540,"Ġà¦¶à¦ķà¦²":8541,"à¦ģà¥¤":8542,"à¦ģâĢ¦":8543,"Ġà¦ļà¦°à¦¨":8544,"Ġà¦ļà¦ĩà¦²":8545,"Ġà¦ļà¦¬à§İ":8546,"Ġà¦ľà¦ĸ":8547,"Ġà¦ľà¦ªà¦¤":8548,"Ġà¦ľà¦īà¦¨":8549,"Ġà¦ľà¦ľà¦¸":8550,"Ġà¦ľà¦ªà¦®":8551,"Ġà¦ľà¦°à¦ľà¦°":8552,"Ġà¦°à¦¸à¦°":8553,"Ġà¦°à¦Łà¦²":8554,"Ġà¦°à§Łà¦¨":8555,"à¦ĵà¦¥":8556,"à¦ĵà¦²à¦ľ":8557,"à§ĩà¥¤-":8558,"Ġà¦ıà¦ķà¦¶à¦¬":8559,"Ġà¦ıà¦ķà¦¸à¦ª":8560,"Ġà¦ıà¦ķà¦ıà¦ķà¦¸à¦®à¦¯":8561,"à¦Ńà¦¶":8562,"à¦Ńà¦¶à¦ķ":8563,"Ġà¦Ľà¦ĩ":8564,"Ġà¦Ĩà¦®à¦Ŀ":8565,"à¦Ĥ?":8566,"à¦łà¦¨à¦ķ":8567,"à¦łà¦Ńà¦°":8568,"à¦łà¦Ĺà§ľ":8569,"Ġà¦¬à¦²à¦ĩ":8570,"Ġà¦īà¦ĩà¦¡":8571,"Ġà¦Ĩà¦°à¦°":8572,"Ġà¦Ĩà¦°à¦Ł":8573,"Ġà¦Ĩà¦°à¦¦":8574,"Ġà¦Ĩà¦°à¦ªà¦¨":8575,"à¦¾à¦ģà¦¾":8576,"à¦¾à¦ģâĢ¦":8577,"Ġà¦²à¦ĩ":8578,"Ġà¦²à¦ĸà¦¨":8579,"Ġà¦²à¦Ĩ":8580,"Ġà¦²à¦²à¦¨":8581,"Ġà¦²à¦¸à¦¸":8582,"Ġà¦²à¤¹à¤°":8583,"âĢĶà¥¤":8584,"Ġà¦ĸà¦°à¦¤":8585,"Ġà¦ĸà¦Ĺà¦®":8586,"à¦¾à¥¤âĢĵ":8587,"Ġà¦ªà¦°à¦ľ":8588,"Ġà¦§à¦¨à¦¦":8589,"à¦°à¦¤à¦ª":8590,"Ġà¦ħà¦¨à¦ªà¦¨":8591,"Ġà¦¸à¦®à¦²":8592,"Ġà¦¸à¦®à¦ª":8593,"Ġà¦¸à¦®à¦ªà¦°":8594,"Ġà¦¸à¦®à¦°à¦¸":8595,"Ġà¦¸à¦®à¦®à¦°":8596,"à¦¾,âĢĶ":8597,"Ġà¦ĺà¦¸":8598,"à§ľà¦°":8599,"à§ľà¦ĩ":8600,"à¦ªà¦°à¦²":8601,"Ġà¦®à¦¨à¦¬":8602,"Ġà¦®à¦¨à¦¶":8603,"Ġà¦®à¦¨à¦Ĺà¦¡":8604,"à¦®à¦¨à¦§":8605,"Ġà¦ıà¦ĩà¦¤":8606,"Ġà¦ıà¦ĩà¦ľ":8607,"Ġà¦ıà¦ĩà¦¡":8608,"Ġà¦ıà¦ĩà¦ıà¦ĩ":8609,"à¦¿à¥¤âĢ¦":8610,"à¦«à¦¬":8611,"à¦«à¦¹":8612,"à¦«à¦Ŀ":8613,"à¦«à¦ĵà¦¯":8614,"à¦«à¦ľà¦²":8615,"à¦«à¦Ŀà¦®":8616,"âĢĻ)":8617,"Ġà¦¬à¦²à¦²à¦ľ":8618,"Ġà¦¬à¦²à¦²à¦ļ":8619,"Ġà¦¬à¦²à¦²à¦ĵ":8620,"Ġà¦¬à¦²à¦²à¦Ń":8621,"Ġà¦¬à¦²à¦²à¦¸à¦¬":8622,"à¦°à¦£à¦¦":8623,"à¦°à¦£à¦ª":8624,"à¦°à¦£à¦ľà¦¨":8625,"à¦°à¦£à¦¸à¦®":8626,"à¦¬à¦¨à¦ļà¦°":8627,"à¦¬à¦¨à¦®à¦°à¦£":8628,"à¦ŀà¦Ĺ":8629,"à§İà¦®":8630,"à§İà¦¹":8631,"à§İà¦ªà¦¦":8632,"à¦ľà¦¨à¦°à¦¸":8633,"à¦ľà¦¨à¦¤à¦²":8634,"à¦ıà¦¨à¦ķ":8635,"à¦īà¦ĵ":8636,"à¦īà¦Ŀ":8637,"à¦īà¦°à¦¨":8638,"à¦īà¦ĩà¦Ł":8639,"à¦īà¦ľà¦Ł":8640,"à¦īà¦ªà¦¬":8641,"à¦°à¦ķà¦ĩ":8642,"à¦ªà¦¨à¦ļ":8643,"à¦ªà¦¨à¦¸à¦°":8644,"à¦ªà¦¨à¦Ĺà¦°":8645,"à¦ªà¦¨à¦ķà¦¥":8646,"Ġà¦Łà¦¬à¦Ĺ":8647,"Ġà¦Łà¦ĩà¦Łà¦®":8648,"Ġà¦¹à¦²à¦ª":8649,"Ġà¦¹à¦²à¦§à¦°":8650,"Ġà¦ķà¦¥à¦¯":8651,"à¦¤à¦°à¦²":8652,"à¦¿,âĢĵ":8653,"à¦°à¦¬à¦°à¦¤":8654,"à¦°à¦¬à¦¦à¦¨":8655,"à¦°à¦¬à¦¹à¦®":8656,"à¦Ĩà¦ĵà¦¯":8657,"à¦Ĩà¦Ĺà¦¤":8658,"à¦Ĩà¦²à¦Ĺ":8659,"à¦Ĩà¦ĩà¦ľ":8660,"à¦Ĩà¦¦à¦¬":8661,"à¦Ĩà¦ĩà¦ª":8662,"Ġà¦ĩà¦¸à¦®":8663,"Ġà¦ĩà¦®à¦ªà¦°":8664,"à¦¼à¥¤à¥¤":8665,"Ġà¦ľà¦¨à¦ķà¦²":8666,"Ġà¦Ĩà¦²à¦ľ":8667,"Ġà¦Ĩà¦²à¦®à¦Ĺ":8668,"Ġà¦Ĩà¦²à¦®à¦¦":8669,"Ġà¦¡à¦²à¦¤":8670,"Ġà¦¡à¦Łà¦ª":8671,"à§Ī!":8672,"à§Īà¦Ĥ":8673,"Ġà¦ķà¦°à¦²à¦ķ":8674,"Ġà¦ķà¦°à¦²à¦®":8675,"Ġà¦ķà¦°à¦²à¦¸":8676,"Ġà¦ıà¦¸à¦¤":8677,"Ġà¦ıà¦¸à¦¡":8678,"Ġà¦ħà¦¬à§Ł":8679,"à¦ĺà¦¯":8680,"à¦ĺà¦Ń":8681,"à¦ĺà¦°à¦£":8682,"à¦ĺà¦¢":8683,"à¦ĺà¦ªà¦¥":8684,"à¦°à¦®à¦®":8685,"à¦°à¦®à¦ªà¦¦":8686,"à¦°à¦®à¦§à¦°":8687,"à¦·à¦£à¦ªà¦¦":8688,"Ġà¦¬à¦¸à¦°":8689,"Ġà¦¬à¦¸à¦ķ":8690,"à¦¨à¦¤à¦ĩ":8691,"à¦¬à¦²à¦Ĺ":8692,"à¦¬à¦²à¦¹":8693,"à¦¬à¦²à§Ł":8694,"Ġà¦Ĩà¦¬à¦ķ":8695,"à¦ķà¦°à¦ª":8696,"à¦ķà¦²à¦¤":8697,"à¦ķà¦²à¦¹":8698,"à¦ķà¦²à¦¨à¦Ĺ":8699,"à¦ķà¦Łà¦ª":8700,"à¦ķà¦Łà¦¤à¦°":8701,"à§ģà¦ģ!":8702,"à§ģà¦ģà¦ģ":8703,"Ġà¦¬à¦¨à¦«":8704,"à¦¯à¦¬à§İ":8705,"à§ĩ?-":8706,"à¦°à¦¥à¦®à¦ĩ":8707,"à¦¾à¦ĤâĢ¦":8708,"Ġà¦ıà¦²à¦¸":8709,"Ġà¦¹à¦¤à¦¶":8710,"à§ĭà¦ģâĢĻ,":8711,"à¦ķà¦¤à¦ĩ":8712,"à§ĩà¦ģà¥¤":8713,"Ġà¦¬à¦°à¦²":8714,"Ġà¦¬à¦°à¦ĵ":8715,"à¦Ĺà¦²à¦¨":8716,"à¦Ĺà¦²à¦¤":8717,"à¦Ĺà¦²à¦ļ":8718,"à¦Ĺà¦²à¦Ń":8719,"à¦Ĺà¦²à¦ľà¦¨à¦ķ":8720,"à¦¿à¦Ĥà¥¤âĢĻ":8721,"à¦°à¦¨à¦ķ":8722,"à¦¾-âĢĶ":8723,"à¦°à¦²à¦Ļ":8724,"Ġà¦ĺà¦°à¦Ńà¦°":8725,"à¦ħà¦ĩ":8726,"à¦ħà¦ĵ":8727,"à¦ħà¦¤à¦²":8728,"à¦ħà¦¥à¦°":8729,"à¦ħà¦ľà¦¯":8730,"à¦ħà¦ķà¦¸":8731,"à¦ħà¦ľà§Ł":8732,"à¦ħà¦¨à¦Łà¦¨":8733,"Ġà¦Ĩà¦¨à¦°":8734,"Ġà¦Ĩà¦¨à¦¯":8735,"Ġà¦Ĩà¦¨à¦¹":8736,"à¦ĩà¦²à¦ĵ":8737,"Ġà¦īà¦ªà¦²":8738,"Ġà¦īà¦ªà¦Ľ":8739,"Ġà¦īà¦ªà¦Ĺà¦¤":8740,"Ġà¦ħà¦¤à¦ĩ":8741,"Ġà¦¸à¦¨à¦ķ":8742,"Ġà¦ıà¦®à¦¨à¦¤":8743,"Ġà¦ıà¦®à¦¨à¦¸à¦®à¦¯":8744,"à¦¤à¦¬à§İ":8745,"Ġà¦ķà¦²à¦ª":8746,"à¦ĸà¦²à¦Ń":8747,"à¦®à¦¤à¦²à¦¬":8748,"à¦¯à¦ķà¦¶":8749,"Ġà¦ľà¦²à¦Łà¦²":8750,"Ġà¦ľà¦²à¦¤à¦°à¦Ļ":8751,"à¦ļà¦¨à¦ļ":8752,"à¦ļà¦¨à¦Ńà¦Ļ":8753,"à¦ªà¦¦à¦¸à¦Ļ":8754,"à¦¹à¦¸à¦®":8755,"Ġà¦ıà¦¤à¦ľà¦¨":8756,"à¦°à¦¹à¦®à¦¤":8757,"à¦°à¦¹à¦¨à¦ķ":8758,"à¦°à¦¹à¦Ńà¦°":8759,"à¦²à¦¬à¦¦à¦¨":8760,"à¦°à¦ľà¦¯":8761,"à¦°à¦ľà¦¡":8762,"à¦°à¦ľà¦Ĺà§İ":8763,"Ġà¦ĵà¦ªà¦°à¦Ł":8764,"à¦²à¦¨à¦Ł":8765,"Ġà¦¹à¦łà¦¤":8766,"à¦°à¦¦à¦¸":8767,"à¦°à¦¦à¦Ł":8768,"à¦¦à¦¨à¦§":8769,"à¦ĩà¦¨à¦ĵà¦¯":8770,"à¦¾âĢĶâĢĻ":8771,"à¦§à¦¨à¦°":8772,"Ġà¦īà¦¤à¦·":8773,"à¦ıà¦ĩà¦Ĺ":8774,"à¦ıà¦ĩà¦ļà¦¡":8775,"à¦Łà¦ķà¦®":8776,"à¦Łà¦ķà¦ĩ":8777,"à¦Łà¦ķà¦ļ":8778,"Ġà¦ķà¦¬à¦Ľà¦°":8779,"Ġà¦ķà¦®à¦ĵ":8780,"à¦¹à¦²à¦¹":8781,"âĢ¦?":8782,"à¦¸à¦¨à¦Ł":8783,"à¦¸à¦¨à¦ĩ":8784,"à¦Ńà¦¬à¦Ł":8785,"à¦Ńà¦¬à¦ªà¦°":8786,"Ġà¦ķà¦¤à¦¶à¦¤":8787,"Ġà¦¬à¦Ľà¦°à¦Ł":8788,"Ġà¦ľà¦®à¦ľ":8789,"à¦ļà¦²à¦Ľ":8790,"Ġà¦īà¦¨à¦ļà¦²":8791,"à¦®à¦£à¦Ł":8792,"à¦¨à¦ķà¦£":8793,"à¦¨à¦ķà¦°à¦£":8794,"à¦¤à¦²à¦ĵà¦¯":8795,"Ġà¦¬à¦¹à¦ĩ":8796,"à§Ģ,âĢĻ":8797,"à¦¿âĢĶâĢĻ":8798,"à¦°à¦Łà¦²":8799,"à¦·à¦ķà¦®à¦£":8800,"à¦·à¦¤à¦®":8801,"à¦·à¦¤à¦¸":8802,"à¦¯à¦®à¦¶":8803,"Ġà¦ħà¦¥à¦ĩ":8804,"Ġà¦ĩà¦¨à¦Ńà¦²à¦Ń":8805,"à¦¸à¦°à¦°":8806,"à¦¸à¦°à¦ŀ":8807,"à¦¸à¦°à¦ĺà¦°":8808,"à¦¿à¦ĥâĢĶ":8809,"Ġà¦ħà¦®à¦²à¦¬":8810,"Ġà¦ªà¦¦à¦®":8811,"Ġà¦ªà¦¦à¦¤à¦²":8812,"à¦Ĺà¦°à¦°":8813,"à§°à¦Ĺ":8814,"à§°à§Ł":8815,"à§°à¦ªà¦°":8816,"Ġà¦Ľà¦¬à¦Ľà¦°":8817,"à¦ıà¦ķà¦°à¦ķà¦®":8818,"à¦¤à¦®à¦¬":8819,"Ġà¦ħà¦ªà¦°à¦ªà¦ķ":8820,"Ġà¦¶à¦°à¦¬à¦°":8821,"à¦®à¦¬à¦§":8822,"Ġà¦Ĳà¦ļ":8823,"Ġà¦°à¦Ļà¦Ĺ":8824,"à¦¶à¦ķà¦ĵ":8825,"Ġà¦ıà¦ķà¦¦à¦£":8826,"à¦Łà¦²à¦®":8827,"Ġà¦Ĩà¦§à¦¸":8828,"Ġà¦Ĩà¦§à¦ĺà¦¨":8829,"à§Łà¦¨à¦¹":8830,"à§ĩ!âĢĶ":8831,"à¦¶à¦¬à¦ķ":8832,"Ġà¦ħà¦Ĺà¦¨":8833,"âĢĮâĢĮ":8834,"Ġà¦ħà¦²à¦ª":8835,"à¦¬à¦¬à§İ":8836,"à¦¬à¦¬à¦¶à¦¤":8837,"à¦¯à¦¸à¦¦":8838,"à¦¬à¦ķà¦ĵ":8839,"Ġà¦¬à¦¦à¦²à¦Ł":8840,"à¦ľà¦°à¦Ĺ":8841,"Ġà¦¬à¦²à¦¬à§İ":8842,"à¦ĩà¦Łà¦¹":8843,"Ġà¦īà¦ªà¦°à¦Ł":8844,"Ġà¦¶à¦¤à¦ĸ":8845,"Ġà¦¶à¦¤à¦§à¦®":8846,"Ġà¦Ĩà¦¡à¦®":8847,"à¦¨à¦¸à¦ªà¦Łà¦ķ":8848,"à¦°à¦Ĺà¦łà¦¨":8849,"à¦ªà¦¥à¦ĩ":8850,"Ġà¦īà¦²à¦Łà¦ª":8851,"à¦ľà¦²à¦§":8852,"à¦°à¦®à¦£à¦¯":8853,"Ġà¦¤à¦²à¦¸":8854,"Ġà¦¤à¦²à¦ĵà¦¯":8855,"Ġà¦ĭà¦®à¦¨":8856,"Ġà¦¸à¦¹à¦ľà¦¸":8857,"Ġà¦¸à¦¹à¦ľà¦¸à¦°à¦²":8858,"Ġà¦īà§İà¦¸à¦Ĺ":8859,"Ġà¦ĺà¦¨à¦ĺ":8860,"à¦²à¦®à§Ł":8861,"Ġà¦¬à¦ķà¦ļ":8862,"Ġà¦¦à¦¶à¦¹":8863,"à¦¥à¦°à¦Ĺà¦¤":8864,"Ġà¦ļà¦ķà¦°à¦¬à¦°à¦¤":8865,"Ġà¦Ĺà§ľà¦¨":8866,"Ġà¦Ĺà§ľà¦Ľ":8867,"Ġà¦Ńà§Łà¦Ł":8868,"Ġà¦ıà¦¸à¦¬à¦ĵ":8869,"Ġà¦¬à¦īà¦Ń":8870,"Ġà¦§à¦¨à¦Ń":8871,"à¦²à¦Ĺà¦¡":8872,"à¦łà¦ķà¦ª":8873,"à¦¦à¦®à¦ł":8874,"à¦¶à¦²à¦ĵ":8875,"Ġà§Ńà§§":8876,"à¦¼à¦Ĥà¥¤":8877,"à¦¦à¦¸à¦¹":8878,"Ġà¦ĵà¦ķà¦¥":8879,"à¦ĩà¦Ńà¦¨":8880,"Ġà¦Ĺà¦£à¦²":8881,"Ġà¦Ĺà¦£à¦ħà¦Ń":8882,"à¦®à¦Ĺà¦£":8883,"à¦¾à¥¤âĢĻâĢĿ":8884,"à¦ĩà¦¡à¦ķ":8885,"à¦ĩà¦¡à¦Ł":8886,"à¦¹à¦°à¦£à¦Ĺ":8887,"à¦¹à¦°à¦£à¦ĵ":8888,"Ġà¦īà§İà¦¸à¦¬à¦ķ":8889,"Ġà¦īà§İà¦¸à¦¬à¦ļ":8890,"à¦¶à¦ªà¦ŀ":8891,"à¦ķà¦¸à¦®à¦¯":8892,"à¦Ĩà¦ľà¦Ĺ":8893,"à¦Ĩà¦ľà¦¹":8894,"à¤ģ":8895,"à¤Ľ":8896,"Ġà¦°à¦¸à¦¶":8897,"à¦ķà¦Ĺà¦£":8898,"à¦®à¦¶à¦ķà¦°":8899,"à¦¬à¦Ńà¦¬à¦¨":8900,"Ġà¦ķà§Łà¦Ł":8901,"à¦¥à¦²à¦ªà¦¥":8902,"à¦¥à¦ķà¦·":8903,"à¦¿à¥¤âĢĻâĢĻ":8904,"à§Ŀà¦¸":8905,"à¦ªà¦²à¦ĵà¦¯":8906,"Ġà¦®à¦¦à¦¦":8907,"Ġà¦ľà§Łà¦¬":8908,"à§¨à§¬":8909,"à¦¤à¦¸à¦ŀ":8910,"à¦ļà¦°à¦£à¦¶":8911,"à¦ľà¦Ĺà¦£":8912,"à¦·à§Łà¦ĩ":8913,"iness":8914,"à¦¬à¦ľà¦¨à¦¨":8915,"à¦¬à¦ľà¦¨à¦ª":8916,"Ġà¦ıà¦¡à¦ĵà¦¯":8917,"à¦ĩà¦¦à¦¹":8918,"anc":8919,"any":8920,"anan":8921,"anch":8922,"anya":8923,"à¦īà¦¦à¦ĺ":8924,"Ġà¦ªà¦Łà¦ªà¦Ł":8925,"Ġà¦ķà¦ļà¦ĵ":8926,"Ġà¦¬à¦¸à¦¨à¦ĸ":8927,"à¦¬à¦ľà§Ł":8928,"Ġà¦®à¦¨à¦¨à¦¶à¦ķ":8929,"alue":8930,"à§©à§«":8931,"à§©à§¯":8932,"Ġà¦Ķà¦°à§İ":8933,"à¦Īà¦¸":8934,"Ġà¦Ĩà¦Łà¦ĺ":8935,"Ġà¦°à¦¥à¦ļ":8936,"à¦ıà¦¤à¦¸à¦¬":8937,"Ġà¦¶à¦ªà¦¥à¦ĩ":8938,"à¦¿âĢĿ,":8939,"à¦¿âĢĿ-":8940,"à¦ķà¦¶à¦¨à¦Ł":8941,"à§ªà§§":8942,"à¦¿.à¥¤":8943,"Ġà¦Ńà¦°à¦¤à¦°":8944,"à¦Ĺà¦¸à¦ĩ":8945,"Ġthrough":8946,"oriz":8947,"ars":8948,"à¦¦à¦ªà¦¤à¦¨":8949,"Ġse":8950,"Ġsup":8951,"Ġslow":8952,"à§¬à§§":8953,"à§¬à§Ń":8954,"à¦Ĩà¦¶à¦Ļ":8955,"...âĢĻ":8956,"Ġà¦ľà¦Ĺà§İà¦¦":8957,"à¦¿,âĢĿâĢĶ":8958,"à§Ģà¦Ĥà¥¤":8959,"à¦Ĩà¦ĩà¦ı":8960,"à¦Ńà¦¸à¦ŀ":8961,"attle":8962,"Ġcomp":8963,"Ġwill":8964,"ita":8965,"Ġà¦¨à¦°à¦ķà¦¬":8966,"Ġà¦¶à¦°à§İà¦¬":8967,"à¦ķà¦ĸà¦¨à¦ĩ":8968,"andita":8969,"Ġà§©à§®":8970,"Ġà¤ķ":8971,"Ġà¤ĸ":8972,"à§®à§«":8973,"Ġmur":8974,"Ġmore":8975,"Ġà¦²à¦Ļà¦ĺà¦¨":8976,"à¦Ńà¦°à¦¤à¦¬":8977,"recy":8978,"à§ĩâĢĿ,":8979,"Ġà¦¨à¦Ĺà¦°à¦ķ":8980,"à¦®à¦ķà¦°à¦¨":8981,"à¦ħà¦ªà¦¹à¦°à¦£":8982,"Ġpo":8983,"Ġà¦¸à¦²à¦Ļ":8984,"Ġà¦ĺà¦·à¦²":8985,"Ġtri":8986,"Ġother":8987,"ĠAnd":8988,"Ġdr":8989,"Ġdow":8990,"Ġdiv":8991,"Ġà§§à§§à§Ń":8992,"ĠPH":8993,"ĠPro":8994,"ĠPau":8995,"omm":8996,"Ġà¦®à¦¤à¦²à¦¬à¦¬":8997,"ick":8998,"ical":8999,"ĠSE":9000,"ĠSh":9001,"ĠSin":9002,"Ġà¦ķà¦¦à¦®à¦«":9003,"à¦ıà¦ķà¦ĩà¦¸à¦Ļ":9004,"rad":9005,"à¦£à¦¸à¦ŀ":9006,"à§§à§¯à§®":9007,"ĠBrahm":9008,"à¦īà¦ªà¦²à¦¬":9009,"à¦¼âĢ¦âĢĻ":9010,"à¦¤à¦ĸà¦°à¦ļ":9011,"Ġind":9012,"à§ĩ):":9013,"Ġà§§à§¯à§ªà§§":9014,"Ġà¦ĵà¦°à¦ķà¦®à¦Ł":9015,"ush":9016,"eck":9017,"ety":9018,"Ġà¦ļà¦°à¦£à¦¸":9019,"Ġà¦ļà¦°à¦£à¦§":9020,"Ġà¦Ĩà¦īà¦Łà¦¸":9021,"ĠRoh":9022,"ĠDJ":9023,"ĠDharma":9024,"Ġeater":9025,"ows":9026,"idual":9027,"à¦¸à¦°à¦²à¦¤":9028,"Ġgl":9029,"Ġà§Ńà§¦":9030,"ĠTra":9031,"ular":9032,"hap":9033,"ĠNandita":9034,"à¦¬à¦°à¦²à¦¹à¦°":9035,"actory":9036,"ĠComp":9037,"ĠChr":9038,"Ġà¦¹à¦ľà¦®à¦¶à¦ķ":9039,"Ġà¦ľà¦²à¦ķà¦·":9040,"Ġà¦®à¦Łà¦°à¦¦":9041,"tern":9042,"ters":9043,"Ġrec":9044,"ĠLED":9045,"Ġà¦®à¦¦à¦¨à¦®":9046,"à¦®à§İà¦²":9047,"ement":9048,"Ġà¦ĸà§ľà¦Ĺ":9049,"Ġà¦¯à¦¬à¦¨à¦°":9050,"Ġà§§à§¯à§§à§§":9051,"Ġà§§à§¯à§§à§«":9052,"Ġà§§à§«à§¦":9053,"tick":9054,"Ġà¦Ĩà¦ĩà¦¸à¦¸":9055,"ĠÐº":9056,"Ġà§§à§¯à§¨à§Ń":9057,"Ġà§§à§¯à§¨à§¬":9058,"Ġà§§à§¯à§©à§¦":9059,"Ġà§§à§¯à§©à§¯":9060,"ĠØ´":9061,"à¦¸à§İà¦¤":9062,"Ġà¦Ńà¦Ĺà¦¬à¦¦à¦Ĺ":9063,"Ð°Ñģ":9064,"Ġwhen":9065,"Ġà¦®à¦ĩà¦§":9066,"Ġà§§à§¯à§¬à§¬":9067,"ture":9068,"Ġrh":9069,"Ġà¦ĸà¦¨à¦¨à¦ķ":9070,"Ġà§§à§¯à§®à§¬":9071,"Ġà§§à§¯à§®à§¯":9072,"hare":9073,"Ġà¦Ĩà¦īà¦Łà¦²":9074,"Ġà¦Ĩà¦īà¦Łà¦¬":9075,"Ġà§§à§©à§«à§¦":9076,"à¦Ķà¦¦":9077,"à¦Ķà¦·à¦§":9078,"pers":9079,"Ġà¦¨à¦¬à¦¦à¦®":9080,"ished":9081,"Ø§Øª":9082,"afÃ©":9083,"Ġclass":9084,"âĢķâĢķâĢķâĢķâĢķâĢķâĢķâĢķâĢķâĢķâĢķâĢķâĢķâĢķâĢķâĢķ":9085,"ucinat":9086,"ĠĠĠĠĠĠĠĠĠĠĠĠĠĠĠĠĠĠĠĠĠĠĠĠĠĠĠĠĠĠĠĠ":9087,"Ġdisc":9088,"ravas":9089,"Ġà¦¬à¦°à¦ķà¦¤":9090,"Ġà¦ıà¦¤à¦¬à¦Ľà¦°":9091,"Ġword":9092,"áĥĺáĥ":9093,"ĠÃĹ":9094,"ĠPride":9095,"ä¸Ģ":9096,"Ġtim":9097,"à¦¸à¦ĸà¦¨à¦ĵ":9098,"Ġamong":9099,"ĠIntelligent":9100,"à¦¸à¦¹à¦¨à¦¶":9101,"ĠâĨĴ":9102,"Ġequality":9103,"SION":9104,"Ġà¦ıà¦®à¦Ĩà¦°à¦Ĩà¦ĩ":9105,"ĠBengali":9106,"ritical":9107,"Ġillusin":9108,"ĠBharata":9109,"Ġeyes":9110,"ĠPargiter":9111,"Ġà¦¬abu":9112,"Ġà¦¨escafÃ©":9113,"à¦ªankar":9114,"Ġà¦Ĺà¦ªà¦Ĺà¦ª":9115,"Ġmurmur":9116,"Ġdowry":9117,"ĠRohit":9118,"ucinatin":9119,"!\"":9120,"!âĢĶ":9121,"%-":9122,"'s":9123,"'à¥¤":9124,"):":9125,")âĢĶ":9126,".)":9127,".-":9128,".âĢĺ":9129,"12":9130,"?âĢ¦":9131,"AT":9132,"Advik":9133,"Bl":9134,"HO":9135,"IV":9136,"Intellig":9137,"Joy":9138,"PS":9139,"Pro":9140,"QR":9141,"SB":9142,"Sh":9143,"Sp":9144,"Solar":9145,"Tu":9146,"TRU":9147,"VIN":9148,"],":9149,"ave":9150,"ause":9151,"bed":9152,"con":9153,"cess":9154,"cap":9155,"ding":9156,"fic":9157,"ges":9158,"ged":9159,"gain":9160,"hn":9161,"his":9162,"hil":9163,"io":9164,"ira":9165,"ios":9166,"ka":9167,"les":9168,"mp":9169,"mer":9170,"mle":9171,"ney":9172,"oes":9173,"oot":9174,"other":9175,"pt":9176,"pid":9177,"rot":9178,"rvas":9179,"ser":9180,"vol":9181,"vir":9182,"water":9183,"wise":9184,"xt":9185,"yst":9186,"Â¦":9187,"Ã¦":9188,"ÃĹ":9189,"Î±":9190,"Ïģ":9191,"ÏĦ":9192,"Ïħ":9193,"Ð¿":9194,"Õ¡":9195,"Õ¥":9196,"Õ¸":9197,"Õ¿":9198,"×ĵ":9199,"Ø¨":9200,"Øª":9201,"ÙĤ":9202,"ÚĨ":9203,"à©":9204,"ĊĠĠ":9205,"Ġ*":9206,"Ġ0":9207,"Ġ7":9208,"Ġ..":9209,"Ġer":9210,"Ġà§İà¦ª":9211,"Ġed":9212,"Ġel":9213,"Ġup":9214,"ĠQR":9215,"Ŀáĥ":9216,"Ġà¦ŀ":9217,"à¦¾]":9218,"à¦¾à§į":9219,"à¦¾à¦¿":9220,"à¦¾âĢį":9221,"à¦¾âĢķ":9222,"à§ĩ(":9223,"à¦°à¦°à¦¤":9224,"à¦°à¦ı":9225,"à¦°à¦ıà¦ĩ":9226,"à¦°à¦ıà¦ķ":9227,"à¦°à¦«à¦²":9228,"à¦°à¦Ĩà¦ªà¦¨":9229,"à¦°à¦īà¦¦":9230,"à¦°à¦īà§İà¦¸à¦¬":9231,"à¦°Ã¦":9232,"à¦¿..":9233,"à¦¨à§ľ":9234,"à¦¨à¦°à¦¸":9235,"à¦¨à¦ķà¦¤":9236,"à¦¨à¦°à¦ª":9237,"à¦¨à¦¹à¦¤":9238,"à¦¨à¦ıà¦Ł":9239,"à¦¨à¦Ŀà¦°":9240,"à¦¨à¦ľà§Ł":9241,"à¦¨à¦ıà¦¤":9242,"à¦¨à¦ıà¦ĸà¦¨à¦ĵ":9243,"à¦¨à¦°à¦ķà¦£":9244,"à¦¤à¦ķà¦Ł":9245,"à¦¤à¦¤à¦¨":9246,"à¦¤à¦¦à¦²":9247,"à¦¤à¦ľà¦²":9248,"à¦¤à¦¦à¦¸":9249,"à¦¤à¦ľà¦¨à¦ķ":9250,"à¦²à¦ı":9251,"à¦²à¦¸à¦¬":9252,"à¦²à¦¹à¦°":9253,"à¦ķà¦ļà¦¨":9254,"à¦ķà¦ıà¦°":9255,"à¦ķà¦®à¦ª":9256,"à¦¯à¦²à¦ķ":9257,"à¦¯à¦¤à¦¬":9258,"à¦¯à¦°à¦ľà¦¨":9259,"à¦¯à¦¹à¦¤":9260,"à¦¯à¦¶à¦°":9261,"à¦¬à¦ĸà¦¨":9262,"à¦¬à¦«":9263,"à¦¬à¦Łà¦ķ":9264,"à¦¬à§İà¦ķ":9265,"à¦¬à¦¸à¦°":9266,"à¦¬à¦Ĺà¦¨":9267,"à¦¬à¦īà¦ķ":9268,"à¦¬à¦®à¦¶":9269,"à¦¬à§İà¦ª":9270,"à¦®à¦Łà¦°":9271,"à¦®à¦ľà¦®":9272,"Ġà¦ķà¦Ľ":9273,"Ġà¦ķà¦ĵà§Ł":9274,"Ġà¦ķà¦¦à¦²":9275,"Ġà¦ķà¦ĩà¦¸":9276,"Ġà¦ķà¦®à¦¨à¦¸":9277,"à§ĭà§ĭ":9278,"à§ĭà¦¾à¦ģ":9279,"Ġà¦¬à¦ĵà¦¯":9280,"Ġà¦¬à¦ķà¦¨":9281,"Ġà¦¬à¦¦à¦¸":9282,"Ġà¦¬à¦°à¦¬à¦£":9283,"Ġà¦¬ung":9284,"à¥Į":9285,"à¥¤[":9286,"Ġà¦¸à¦¶à¦ķ":9287,"Ġà¦¸à¦ªà¦¥":9288,"Ġà¦¸à¦¦à¦®":9289,"Ġà¦ªà¦¹à¦°":9290,"Ġà¦ªà¦²à¦²":9291,"Ġà¦ªà¦ĩà¦¡":9292,"à¦¸à¦§":9293,"à¦¸à¦°à¦®":9294,"à¦¸à¦¸à¦¬":9295,"à¦¸à¦Ĺà¦¤":9296,"à¦¸à¦°à¦ĵ":9297,"à¦¸à¦ļà¦²":9298,"à¦¸à¦Łà¦¬":9299,"à¦¸à¦īà¦¦":9300,"à¦¸à¦Ńà¦Ļ":9301,"à¦¸à¦¨à¦¤à¦¨":9302,"Ġà¦Ĩà¦ĸà¦¨":9303,"Ġà¦Ĩà¦ħ":9304,"Ġà¦Ĩà¦ļà¦ķ":9305,"Ġà¦Ĩà¦ħà¦°":9306,"Ġà¦Ĩà¦ĩà§Ł":9307,"Ġà¦Ĩà¦Łà¦Ĺ":9308,"Ġà¦Ĩà¦ĸà¦ĸ":9309,"à¦Łà¦§":9310,"à¦Łà¦Ŀ":9311,"à¦Łà¦ŀ":9312,"à¦Łà¦®à¦£":9313,"à¦Łà¦¬à¦¦":9314,"à¦Łà¦ļà¦ķ":9315,"à¦Łà¦¨à¦Ł":9316,"à¦Łà¦¨à¦¦":9317,"à¦Łà¦ķà¦Łà¦ķ":9318,"à¦Łà¦Ŀà¦¨":9319,"à¦Łà¦ħà¦«":9320,"à¦Łà¦Ĩà¦īà¦Ł":9321,"à¦¦à¦ľà¦¨":9322,"à¦¦à¦¦à¦°":9323,"à¦¦à¦¤à¦²":9324,"à¦¦à¦ªà¦Ł":9325,"à¦¦à¦ĩà§Ł":9326,"à¦¦à¦Ńà¦Ļ":9327,"à¦¦à¦¨à¦¤à¦¤":9328,"à¦ĩà¦¬à¦¨":9329,"à¦ĩà¦Łà¦ķ":9330,"à¦ĩà¦Łà¦²":9331,"à¦ĩà¦ĺà¦°":9332,"à¦ĩà¦ªà¦¥":9333,"à¦ĩà¦ªà¦¡":9334,"à¦ĩà¦¥à¦¨":9335,"à¦ĩà¦®à¦ª":9336,"à¦ĩà¦ªà¦²":9337,"Ġà¦¨à¦ĵà¦¯":9338,"Ġà¦¨à¦°à¦²":9339,"Ġà¦¨à¦¬à¦¤":9340,"Ġà¦¨à¦Łà¦°":9341,"Ġà¦¨à¦²à¦Ľ":9342,"Ġà¦¨à¦Łà¦¬":9343,"Ġà¦¨à¦ĩà¦¬":9344,"Ġà¦¨à¦¬à¦²à¦¬":9345,"Ġà¦¨à¦ŀà¦°":9346,"Ġà¦¨à¦°à¦¹à¦¤":9347,"Ġà¦®à§°":9348,"Ġà¦®à¦Łà¦¨":9349,"à¦Ľà¦ĵà¦¯":9350,"à¦Ľà¦²à¦¨":9351,"Ġà¦¦à¦®à¦²":9352,"Ġà¦¦à¦®à¦¬":9353,"à¦ªà¦ł":9354,"à¦ªà¦ªà¦°":9355,"à¦ªà¦ªà¦¨":9356,"à¦ªà¦ļà¦¨":9357,"à¦ªà§İà¦ķ":9358,"à¦ªà¦¸à¦²":9359,"à¦ªà¦Ĩà¦²":9360,"Ġà¦ıà¦ªà¦°":9361,"Ġà¦ıà¦²à¦ķ":9362,"Ġà¦ıà¦®à¦ķ":9363,"Ġà¦ıà¦ľà¦°":9364,"Ġà¦ıà¦®à¦¡":9365,"Ġà¦¤à¦ľ":9366,"Ġà¦¤à¦¸à¦°":9367,"Ġà¦¤à§İà¦ª":9368,"à§Ģ/":9369,"à§ĢâĢĿâĢĵ":9370,"Ġà¦¹à¦¸à¦¨":9371,"Ġà¦¹à¦Łà¦¨":9372,"à¦ľà¦Ŀ":9373,"à¦ľà¦®à¦¯":9374,"à¦ľà¦²à¦Ľ":9375,"à¦ľà¦ªà¦°à¦®":9376,"âĢĬ":9377,"à¦¶à¦ŀ":9378,"à¦¶à¦¬à¦²":9379,"à¦¶à¦°à¦¦":9380,"à¦¶à¦®à¦¯":9381,"à¦¶à¦®à¦°":9382,"à¦¶à¦¤à¦®":9383,"à¦¶à¦ľà¦²":9384,"à¦¶à¦Ńà¦°":9385,"à¦¶à¦Ĺà¦¡":9386,"à¦¶à¦¸à¦¹":9387,"à¦ĸà¦°à¦ķ":9388,"à¦ĸà¦¸à¦®":9389,"à¦Ĺà¦®à¦¤":9390,"à¦Ĺà¦¹à¦¨":9391,"à¦Ĺà¦§à¦°":9392,"à¦Ĺà¦¦à¦ķ":9393,"à¦Ĺà¦§à¦¦":9394,"à¦·à¦°à¦¶":9395,"à¦·à¦°à¦¹":9396,"à¦·à¦ķà¦¬":9397,"à¦·à¦°à¦ĵ":9398,"à¦·à¦Ĺà¦£":9399,"Ġà¦ħà¦°à¦¥":9400,"Ġà¦ħà¦Łà¦ķ":9401,"Ġà¦ħà¦¶à¦ķ":9402,"Ġà¦ħà¦£à¦¨":9403,"Ġà¦ħà¦Ŀà¦°":9404,"Ġà¦ķà¦°à¦°":9405,"Ġà¦ķà¦°à¦ķà¦°":9406,"à¦¡à¦ªà¦¤":9407,"à¦¡à§Łà¦¨":9408,"à¦¡à¦¨à¦®":9409,"à¦¡à¦ħà¦«":9410,"Ġà¦¯à¦®à¦°":9411,"Ġà¦¯à§İà¦ķ":9412,"à¦§à¦¨à¦¤":9413,"à¦§à¦°à¦²":9414,"à¦§à¦°à¦ª":9415,"à¦§à¦®à§Ł":9416,"à¦§à¦¶à¦°":9417,"à¦§à¦Ńà¦ķ":9418,"à¦ļà¦·":9419,"à¦ļà¦¬à¦¨":9420,"à¦ļà§İ":9421,"à¦ļà§°":9422,"à¦ļà¦Ľà¦Ł":9423,"Ġà¦Ĺà¦¬à¦°":9424,"Ġà¦Ĺà¦°à¦¦":9425,"Ġà¦Ĺà¦£à¦ķ":9426,"à¦¹à¦¬à¦°":9427,"à¦¹à¦°à¦¸":9428,"à¦¹à¦ªà¦¤":9429,"à¦¹à¦ķà¦ķ":9430,"à¦¹à¦®à¦§":9431,"à¦¹à¦Ńà¦Ļ":9432,"à¦¹à¦¬à¦¶à¦¤":9433,"à¦¹à¦ľà¦¨à¦ķà¦Ń":9434,"à¦¹à¦²à¦¬à¦¶":9435,"à§Łà¦¶":9436,"à§Łà¦ķà¦°":9437,"à§Łà¦¨à¦ĵ":9438,"à§Łà¦¨à¦ķ":9439,"à§Łà¦¸à¦Ļ":9440,"à§Łà¦ķà¦¦":9441,"à§Łà¦¡à¦«":9442,"à¦£à¦Ŀ":9443,"à¦£à¦°à¦ķ":9444,"à¦£à¦£à¦ķ":9445,"à¦¥à¦·":9446,"à¦¥à¦ķà¦°":9447,"à¦¥à¦¨à¦ĵ":9448,"à¦¥à¦®à¦¯":9449,"à¦¥à¦ķà¦¦":9450,"à¦¥à¦¬à¦§":9451,"Ġà¦¶à¦ĵ":9452,"Ġà¦¶à¦°à¦ķ":9453,"Ġà¦¶à¦ķà¦¤":9454,"Ġà¦¶à§°":9455,"à¦ģà¦ģ":9456,"à¦ģâĢĻà¥¤":9457,"Ġà¦ļà¦ĩ":9458,"Ġà¦ļà¦Ļ":9459,"Ġà¦ļà¦°à¦¤":9460,"Ġà¦ļà¦°à¦ª":9461,"Ġà¦ļà§°":9462,"Ġà¦ļà¦°à¦Ĺ":9463,"Ġà¦ļà§ľà¦Ľ":9464,"Ġà¦ľà¦¦":9465,"Ġà¦ľà¦£":9466,"Ġà¦Ńà¦ĩà¦²":9467,"Ġà¦Ńà¦¬à¦¦":9468,"Ġà¦Ńà¦ľà¦¤":9469,"Ġà¦Ńà¦Ĺà¦®":9470,"Ġà¦Ńà¦Łà¦Ń":9471,"Ġà¦°à¦¸à¦¤":9472,"Ġà¦°à¦ĩà¦Ľ":9473,"à¦ĵà¦ľ":9474,"à¦ĵà¦ľà¦¨":9475,"à§ĩà¥¤(":9476,"Ġà¦ıà¦ķà¦ĺà¦¨":9477,"à¦¼à¦¾à¦Ĥ,":9478,"Ġà¦Ľà¦«":9479,"Ġà¦Ľà¦°à¦ķ":9480,"Ġà¦Ľà¦ĵà¦¯":9481,"Ġà¦Ľà¦ķà¦Ł":9482,"à¦łà¦Ľ":9483,"à¦łà¦§":9484,"à¦łà¦¬à¦¨":9485,"à¦łà¦ĺ":9486,"à¦łà¦ķà¦¬":9487,"à¦łà¦ļà¦°":9488,"à¦łà¦²à¦Ĺ":9489,"à¦łà¦ĸà¦¡":9490,"Ġà¦¬à¦²à¦¸":9491,"Ġà¦¬à¦²à¦¬à¦¨":9492,"Ġà¦īà¦®à¦¦":9493,"Ġà¦īà¦ĩà¦ª":9494,"Ġà¦Ĩà¦°à¦Ĩà¦°":9495,"Ġà¦ĵà¦«":9496,"Ġà¦ĵà¦¨à¦²":9497,"à§Ĥà§į":9498,"âĢĶ?":9499,"Ġà¦«à¦°à¦ļ":9500,"Ġà¦«à¦Łà¦°":9501,"Ġà¦ĸà¦¶":9502,"Ġà¦ĸà¦¸à¦Ľ":9503,"Ġà¦ĸà¦ĩà§Ł":9504,"Ġà¦ªà¦°à¦Ń":9505,"Ġà¦ªà¦°à¦®à¦°":9506,"Ġà¦¹à¦¯à¦°à¦¤":9507,"à¦°à¦¤à¦ļ":9508,"Ġà¦ħà¦¨à¦¶à¦¨":9509,"Ġà¦¸à¦®à¦®à¦¨":9510,"à¦¼à¦¿?âĢĿ":9511,"à¦¼à¦¿âĢĻà¥¤":9512,"Ġà¦ĺà¦ª":9513,"Ġà¦ĺà¦¨à¦¬à¦¸à¦¤":9514,"à§ľà¦¦":9515,"à§ľà¦¹":9516,"à¦ªà¦°à¦¯":9517,"Ġà¦®à¦¨à¦¨à¦ļ":9518,"à¦®à¦¨à¦®":9519,"à¦®à¦¨à¦¤à¦°":9520,"à¦¿à¥¤)":9521,"à¦«à¦ĩ":9522,"à¦«à¦ľ":9523,"à¦«à¦ļ":9524,"à¦«à¦«":9525,"âĢĻ.":9526,"âĢĻ]":9527,"âĢĻâĢĻ":9528,"âĢĻâĢ¦":9529,"Ġà¦¬à¦²à¦²à¦ł":9530,"Ġà¦¬à¦²à¦²à¦ļà¦²":9531,"Ġà¦¬à¦²à¦²à¦Ĩà¦°":9532,"Ġà¦¬à¦²à¦²à¦ıà¦Ł":9533,"Ġà¦¬à¦²à¦²à¦ıà¦ĸà¦¨":9534,"Ġà¦¬à¦²à¦²à¦Ĩà¦ļ":9535,"à¦°à¦£à¦ķà¦ķ":9536,"à¦¬à¦¨à¦¨":9537,"à¦Ŀà¦¦":9538,"à¦Ŀà¦Ļ":9539,"à¦Ŀà¦Ĺà¦Ļ":9540,"âĢĿà§ĩ":9541,"à§İà¦¤":9542,"à§İà¦Ń":9543,"à§İà¦¶à¦ķ":9544,"à§İà¦«à¦¨":9545,"à¦ľà¦¨à¦¹":9546,"à¦ľà¦¨à¦Ĺà¦¨":9547,"à¦ıà¦ļ":9548,"à¦ıà¦¥":9549,"à¦ıà¦ľà¦¨":9550,"à¦ıà¦®à¦¤":9551,"à¦ıà¦«à¦¸":9552,"à¦īà¦¦à¦°":9553,"à¦īà¦ªà¦¦":9554,"à¦īà§İà¦ķ":9555,"à¦īà¦¦à§Ł":9556,"à¦īà¦ªà¦®":9557,"à¦īà¦¬à¦Ł":9558,"à¦īà§ľà¦¨":9559,"à¦īà§İà¦°":9560,"à¦°à¦ķà¦¤à¦ķ":9561,"à¦°à¦ķà¦Łà¦Ń":9562,"Ġà¦¸à¦¬à¦¤":9563,"Ġà¦¸à¦¬à¦§à¦°à¦¨":9564,"à¦ªà¦¨à¦°":9565,"à¦ªà¦¨à¦¤":9566,"à¦ªà¦¨à¦¸à¦°à¦¶":9567,"Ġà¦Łà¦Ĺ":9568,"Ġà¦Łà§Ł":9569,"Ġà¦Łà¦ªà¦¨":9570,"Ġà¦Łà¦²à¦ķ":9571,"Ġà¦Łà¦Ĺà¦°":9572,"Ġà¦Łà¦¸à¦Ł":9573,"Ġà¦Łuhin":9574,"Ġà¦¹à¦²à¦¬":9575,"à¦¬à¦°à¦¯":9576,"à¦¬à¦°à¦Ŀ":9577,"à¦¬à¦°à¦®à¦¯":9578,"à¦¤à¦°à¦¨":9579,"à¦¤à¦°à¦§":9580,"à¦¤à¦°à¦¥":9581,"à¦¤à¦°à¦ľà¦¨":9582,"à¦¤à¦°à¦ĸà¦£":9583,"Ġà¦Ĩà¦Ľà¦°":9584,"Ġà¦Ĩà¦¸à¦¹":9585,"Ġà¦Ĩà¦¸à¦°à¦ĩ":9586,"Ġà¦īà¦łà¦¨":9587,"à¦°à¦¬à¦®":9588,"à¦°à¦¬à¦¹":9589,"à¦°à¦¬à¦°à¦£":9590,"à¦°à¦¬à¦²à¦¤":9591,"à¦°à¦¬à¦¸à¦¨":9592,"à¦°à¦¬à¦ľà¦¨à¦ķ":9593,"à¦°à¦¬à¦£à¦®":9594,"à¦Ĩà¦ŀ":9595,"à¦Ĩà¦°à¦®":9596,"à¦Ĩà¦²à¦¬":9597,"à¦Ĩà¦ĵà§Ł":9598,"à¦Ĩà¦¬à¦¦":9599,"à¦Ĩà¦ªà¦¸":9600,"à¦Ĩà¦¸à¦ķ":9601,"à¦Ĩà¦Ĺà¦®":9602,"à¦Ĩà¦²à¦¸":9603,"à¦Ĩà¦ªà¦²":9604,"Ġà¦ĩà¦īà¦²":9605,"Ġà¦ĩà¦Łà¦Ĺ":9606,"à¦¼à¥¤[":9607,"Ġà¦ªà¦¡à¦ķ":9608,"Ġà¦ľà¦¨à¦ļ":9609,"Ġà¦ķà¦°à¦²à¦¤":9610,"Ġà¦ıà¦¸à¦¸":9611,"Ġà¦ıà¦¸à¦ıà¦°":9612,"Ġà¦Ŀà¦¨à¦ķ":9613,"à¦ĺà¦¤":9614,"à¦ĺà¦Ĺà¦²":9615,"à¦ĺà¦¬à¦¤":9616,"à¦ĺà¦°à¦¦":9617,"à¦°à¦®à¦ŀ":9618,"à¦°à¦®à¦«à¦²":9619,"à¦°à¦®à¦¦à¦¤":9620,"à¦·à¦£à¦¯":9621,"Ġà¦¬à¦¸à¦¨à¦Ĺ":9622,"à¦¼,âĢĶ":9623,"Ġà¦ļà¦²à¦¨à¦¸à¦ĩ":9624,"à¦¬à¦²à¦¯":9625,"à¦ķà¦°à¦ĩ":9626,"à¦ķà¦°à¦¦à¦°":9627,"à¦ķà¦²à¦Ł":9628,"à¦ķà¦²à¦ĩ":9629,"à¦ķà¦²à¦¬à¦¨":9630,"à¦ķà¦²à¦¬à¦¦":9631,"à§ģà¦ģâĢĻ,":9632,"Ġà¦¬à¦¨à¦¦":9633,"Ġà¦¬à¦¨à¦¹":9634,"à¦ĥ)":9635,"à¦ĥâĢĻ":9636,"Ġà¦ħà¦°à¦ľ":9637,"à¦¸à¦¬à¦¸":9638,"à¦¸à¦¬à¦Ĺ":9639,"à¦¯à¦¬à§°":9640,"Ġà¦¨à¦¤à¦¶":9641,"à¦°à¦¸à¦ª":9642,"à¦²à¦ķà¦¤":9643,"à¦²à¦ķà¦®":9644,"à¦¾à¦ĤâĢĮ":9645,"Ġà¦ıà¦²à¦¬":9646,"Ġà¦ıà¦²à¦Ĺà¦°":9647,"à¦¤à¦¨à¦°":9648,"à¦¤à¦¨à¦®":9649,"à§ĩâĢĶ-":9650,"à¦ķà¦¤à¦¤":9651,"à§ĩà¦ģâĢĻà¥¤":9652,"à§ĩà¦ģâĢĻ,":9653,"Ġà¦¬à¦°à¦°":9654,"Ġà¦¬à¦°à¦¨":9655,"à¦Ĺà¦²à¦ļà¦ķ":9656,"à¦Ĺà¦²à¦®à§Ł":9657,"à¦Ĺà¦²à¦¬à¦Ł":9658,"Ġà¦īà¦łà¦²à¦ı":9659,"Ġà¦īà¦łà¦²à¦Ĩà¦ĩà¦¯":9660,"à¦¿à¦Ĥ?âĢĿ":9661,"à¦°à¦¨à¦ľ":9662,"à¦¬à¦ªà¦Ł":9663,"à¦¬à¦¤à¦ª":9664,"Ġà¦®à¦¹à¦¨":9665,"Ġà¦īà¦¦à¦ķ":9666,"Ġà¦īà¦¦à¦°à¦ª":9667,"Ġà¦ªà¦¥à¦ľ":9668,"Ġà¦ĺà¦°à¦ĺà¦°":9669,"à¦ħà¦¨à¦¬":9670,"à¦ħà¦¸à¦¤":9671,"à¦ħà¦¬à¦ķ":9672,"à¦ħà¦ľà¦°":9673,"à¦ħà¦ªà¦¸":9674,"à¦ħà¦²à¦¸":9675,"Ġà¦Ĩà¦¨à¦«":9676,"à¦¦à¦°à¦ĵà¦¯":9677,"à¦ĩà¦²à¦ª":9678,"à¦ĩà¦²à¦¬à¦ķ":9679,"à¦ĩà¦²à¦Łà¦¦":9680,"Ġà¦īà¦ªà¦ª":9681,"à¦Ĺà¦¤à¦ĵ":9682,"à¦¤à¦¬à¦¦":9683,"à¦¤à¦¬à¦ĩ":9684,"à¦¤à¦¬à¦¦à¦²":9685,"Ġà¦ķà¦²à¦®à¦ª":9686,"Ġà¦ķà¦²à¦®à¦ĩ":9687,"à¦®à¦¤à¦ķ":9688,"Ġà¦Ĩà¦ķà¦ļ":9689,"à¦¶à¦¨à¦¹":9690,"Ġà¦ľà¦²à¦¤":9691,"Ġà¦ľà¦²à¦ªà¦°":9692,"Ġà¦ľà¦²à¦ķà¦²":9693,"Ġà¦ľà¦²à¦Ŀà§ľ":9694,"à¦®à¦ķà¦®à¦²":9695,"à¦ļà¦¨à¦ĩ":9696,"Ġà¦¸à¦°à¦¹à¦ª":9697,"à¦ªà¦¦à¦®":9698,"à¦ªà¦¦à¦¹":9699,"à¦ªà¦¦à¦Ĩà¦ªà¦¦":9700,"Ġà¦ıà¦¤à§İ":9701,"Ġà¦Ĩà¦¶à¦ķ":9702,"à¦°à¦¹à¦®":9703,"à¦°à¦¹à¦Ļ":9704,"à¦°à¦¹à¦°à¦¤":9705,"à¦°à¦¹à¦°à¦ķ":9706,"à¦°à¦¹à¦¨à¦¯":9707,"à¦²à¦¬à¦Ł":9708,"à¦²à¦¬à¦ĵ":9709,"à¦²à¦¬à¦¹à¦¨à¦ķ":9710,"à¦°à¦ľà¦°à¦®à¦£":9711,"à¦¨à¦¬à¦Ł":9712,"à¦¨à¦¬à¦§":9713,"à¦¨à¦¬à¦¬à¦¨":9714,"à¦¨à¦¬à§İ":9715,"à¦¨à¦¬à¦¬à¦°":9716,"à¦¨à¦¬à¦¦à¦²":9717,"à¦¨à¦¬à¦¸à¦¦":9718,"à¦®à¦²à¦¯":9719,"Ġà¦¸à¦¹à¦¤":9720,"Ġà¦¸à¦¹à¦Ĺ":9721,"à¦²à¦¨à¦¨":9722,"à¦¦à¦¨à¦¹":9723,"à¦¦à¦¨à¦°à¦¤":9724,"à¦¦à¦¨à¦ļà¦ķ":9725,"à¦°à¦ĩà¦¨":9726,"à¦¼à§ĭ;":9727,"à¦¼à§ĭâĢĵ":9728,"à¦¼à§ĭâĢĻ,":9729,"à¦§à¦¨à¦²":9730,"à¦§à¦¨à¦Ń":9731,"à¦§à¦¨à¦ŀ":9732,"à¦ķà¦¬à¦¸à¦¤":9733,"ĠĠĊĠĊ":9734,"à¦¯à¦¤à¦Ł":9735,"à¦¯à¦¤à¦ļ":9736,"à¦¯à¦¤à¦¦à¦£":9737,"à¦Łà¦ķà¦°à¦£":9738,"Ġà¦ķà¦¬à¦·":9739,"Ġà¦ıà¦Ĺà¦¬":9740,"Ġà¦ıà¦Ĺà¦ļ":9741,"à¦¹à¦²à¦®":9742,"à¦¹à¦²à¦®à¦¯":9743,"à¦¹à¦²à¦®à§Ł":9744,"âĢ¦?âĢĿ":9745,"à¦¸à¦¨à¦¸":9746,"à¦¸à¦¨à¦¶":9747,"à¦¿?âĢĶ":9748,"Ġà¦¬à¦ĩà¦°":9749,"à¦®à¦°à¦¹à¦¸":9750,"à¥¤âĢĿâĢĶ":9751,"à¦®à¦£à¦Ĺ":9752,"à¦®à¦£à¦¸à¦®":9753,"à¦¨à¦ķà¦·":9754,"à¦¤à¦²à¦ª":9755,"à¦¤à¦²à¦ĸ":9756,"à¦¤à¦²à¦ĵ":9757,"Ġà¦īà§İà¦ķà¦²":9758,"à¦°à¦ªà¦°à¦¤":9759,"Ġà¦ıà¦°à¦«":9760,"!âĢĿà¥¤":9761,"!âĢĿâĢĵ":9762,"à¦¿âĢĶâĢĿ":9763,"à¦¸à¦®à¦·":9764,"à¦°à¦Łà¦°":9765,"Ġà¦¶à¦¹à¦°à¦ª":9766,"à¦¬à¦¦à¦®à¦¨":9767,"à¦·à¦¤à¦ĩ":9768,"Ġà¦«à¦²à¦ľ":9769,"Ġà¦«à¦²à¦¬à¦¤":9770,"Ġà¦ĩà¦¨à¦ķà¦°":9771,"Ġà¦ĩà¦¨à¦¸à¦ª":9772,"à¦¸à¦°à¦·":9773,"à¦¸à¦°à¦¬à¦°":9774,"à¦¤à¦ķà¦ķ":9775,"à¦¤à¦ķà¦ļ":9776,"à¦¤à¦ķà¦ĵ":9777,"à¦ļà¦ķà¦®":9778,"à¦ļà¦ķà¦Ń":9779,"Ġà¦ħà¦®à¦°à¦ķ":9780,"Ġà¦ħà¦®à¦°à¦¨":9781,"Ġà¦ªà¦¦à¦¦":9782,"Ġà¦ªà¦¦à¦ª":9783,"à¦¤à¦¤à¦ªà¦ķ":9784,"à§°à¦ľà¦ĩ":9785,"à¦ıà¦ķà¦«":9786,"à¦ıà¦ķà¦ķà¦¥":9787,"à¦ıà¦ķà¦§à¦°à¦¨":9788,"à¦¤à¦®à¦¸":9789,"à¦¤à¦®à¦ª":9790,"Ġà¦²à¦ķà¦Ĺ":9791,"à¦®à¦¬à¦¸":9792,"à¦®à¦¬à¦¡":9793,"à¦®à¦¬à¦ĩà¦Ĺ":9794,"à¦¬à¦¸à¦Ļ":9795,"Ġà¦Ĩà¦¸à¦²à¦Ł":9796,"Ġà¦Ĳà¦ķà¦¤":9797,"Ġà¦ħà¦ķà¦¶à¦¨":9798,"à¦ªà¦ķà¦®":9799,"Ġà¦°à¦Ļà¦§à¦¨":9800,"Ġà¦Ĺà¦¡à¦¸":9801,"à¦¸à¦²à¦ĸ":9802,"à¦¸à¦²à¦ĵ":9803,"à¦¸à¦²à¦¡à¦°":9804,"à¦¶à¦ķà¦°à¦ķ":9805,"à¦°à¦Ńà¦¬à¦¨":9806,"à¦°à¦Ńà¦ŀ":9807,"Ġà¦Ĩà¦§à¦®":9808,"Ġà¦Ĩà¦§à¦¬à¦¯":9809,"à¥¤âĢĻâĢĶ":9810,"à¦¶à¦¬à¦¬":9811,"Ġà¦ħà¦Ĺà¦ª":9812,"à¦¬à¦ķà¦ª":9813,"à¦¢à¦Ļ":9814,"à§įâĢĮ?":9815,"à¦¹à¦¨à¦ª":9816,"à¦¹à¦¨à¦Ĺ":9817,"à¦¹à¦¨à¦ľà¦²":9818,"à¦ĩà¦Łà¦ĩ":9819,"à¦ĩà¦Łà¦ľ":9820,"à¦¾!âĢ¦":9821,"Ġà¦Ĺà¦¤à¦ķà¦²":9822,"Ġà¦īà¦ªà¦°à¦ķ":9823,"Ġà¦Ĩà¦¦à¦¬à¦ķ":9824,"Ġà¦ªà¦¤à¦¯":9825,"à¦ķà¦¨à¦Ĺ":9826,"Ġà¦¶à¦¤à¦¯":9827,"Ġà¦¶à¦¤à¦¦":9828,"à¦ªà¦¸à¦¦":9829,"à¦ªà¦¸à¦ª":9830,"Ġà¦¬à¦Łà¦¨":9831,"Ġà¦¬à¦Łà¦®":9832,"Ġà¦¬à¦Łà¦ª":9833,"Ġà¦ĸà¦¬à¦°à¦Ĺ":9834,"à¦¨à¦¸à¦Ń":9835,"à¦°à¦Ĺà¦¡":9836,"à¦°à¦Ĺà¦Ń":9837,"à¦ªà¦¥à¦ķ":9838,"à¦ªà¦¥à¦ª":9839,"à¦ªà¦¥à¦ļà¦²":9840,"à¦°à¦ľà¦¨à¦ĩ":9841,"à¦°à¦ľà¦¨à¦¨à¦ķ":9842,"à¦ķà¦ķà¦£":9843,"à¦Łà¦°à¦°":9844,"Ġà¦¸à¦®à§Łà¦Ĺ":9845,"à¦²à¦Ľà¦¬":9846,"Ġà¦ıà¦ķà¦ĩà¦¸à¦®à¦¯":9847,"à¦°à¦®à¦£à¦¨":9848,"à¦°à¦®à¦£à¦ĵ":9849,"à¦¼à§Ģ;":9850,"à¦¼à§ĢâĢĻ":9851,"à¦¼à§ģâĢĶ":9852,"à¦¨à¦Ĺà¦¦":9853,"à¦¨à¦Ĺà¦ŀ":9854,"à¦«à¦²à¦ª":9855,"Ġà¦ĭà¦¤à¦¨":9856,"Ġà¦ĭà¦£à¦Ĺ":9857,"Ġà¦ĭà¦£à¦®":9858,"à¦¯à¦°à¦Ļ":9859,"à¦Ĺà¦¬à§İà¦¸":9860,"à¦²à¦®à¦¸à¦®":9861,"Ġà¦¬à¦ķà¦¸":9862,"Ġà¦ķà¦²à¦ķà¦£":9863,"Ġà¦ķà¦²à¦ķà¦¬à¦ľ":9864,"à¦Łà¦¨à¦®":9865,"à¦¾;-":9866,"Ġà¦¦à¦¶à¦ĸ":9867,"Ġà¦¦à¦¶à¦ľà¦¨à¦ķ":9868,"Ġà¦ªà¦²à¦¸":9869,"à¦¨à¦¯à¦ľ":9870,"à¦ľà¦¸à¦°à¦ķ":9871,"à¦ķà¦¶à¦¤":9872,"Ġà¦Ńà§Łà¦ĩ":9873,"Ġà¦Ńà§Łà¦ĵ":9874,"à¦¿!)":9875,"à¦²à¦Łà¦¨à¦Ĺà¦ŀ":9876,"Ġà¦§à¦¨à¦®":9877,"à¦Ĺà¦®à¦ĵ":9878,"à¦Łà¦«à¦°à¦®":9879,"à¦łà¦ķà¦¸à¦®":9880,"à¦¦à¦®à¦¬à¦¨":9881,"Ġà¦¨à¦°à¦®à¦¸":9882,"à§ĩà¥¤âĢĻâĢĻ":9883,"à§ĩà¥¤âĢĻâĢĿ":9884,"à¦ĩà¦Ńà¦Ł":9885,"à¦¡à¦²à¦ª":9886,"Ġà¦Ĺà¦£à¦¶":9887,"Ġà¦Ĺà¦£à¦§à¦°":9888,"Ġà¦Ĺà¦£à¦Ĩà¦¨":9889,"à¦®à§Łà¦¦":9890,"à¦ĩà¦¡à¦¸à¦¹":9891,"Ġà¦ªà¦°à¦®à¦®":9892,"à¦īà¦²à¦ĩ":9893,"à¦¾âĢĻ)":9894,"à¦¾âĢĻ;":9895,"à¦¾âĢĻ?":9896,"à¦¾âĢĻ!âĢĿ":9897,"Ġà¦¬à§Łà¦²":9898,"Ġà¦Ĩà¦¦à¦°à¦ĵ":9899,"Ġà¦Ĩà¦¦à¦°à¦¯à¦¤":9900,"Ġà¦¸à¦°à¦²à¦ļ":9901,"Ġà¦ķà¦ªà¦ļ":9902,"à§Łà¦¤à¦ĩ":9903,"Ġà¦īà§İà¦¸à¦¬à¦®à¦£":9904,"à§ĩ?âĢĿ,":9905,"à¦ķà¦¸à¦¹":9906,"à¦ķà¦¸à¦ĩà¦¤":9907,"à¦ıà¦¸à¦¬à¦ķ":9908,"à¦ıà¦¸à¦¬à¦ĵ":9909,"à¦¨à¦Ńà¦¨":9910,"à§ĩâĢ¦âĢĿà¥¤":9911,"à§ĩâĢ¦âĢĿâĢĶ":9912,"à¦£à¦¨à¦Ĺà¦°":9913,"à¦®à¦¶à¦¤":9914,"à¦®à¦ľà¦Ĺà¦¤":9915,"Ġà¦¦à¦®à¦Ľ":9916,"à¦®à¦ªà¦²":9917,"à¦¼;âĢĵ":9918,"Ġà¦ħà¦®à¦²à¦ª":9919,"Ġ:-":9920,"à¦¥à¦²à¦ļ":9921,"à¦¤à¦Ńà¦Ļ":9922,"Ġà¦¸à¦¦à¦Ń":9923,"Ġà¦ıà¦°à¦ķà¦®à¦ĵ":9924,"à¦¨à¦¶à¦°":9925,"Ġà¦Ĩà¦ĩà¦¨à¦ª":9926,"à¦¸à¦¹à¦ķà¦°":9927,"Ġà¦®à¦¦à¦ķ":9928,"Ġà¦®à¦¦à¦ĵ":9929,"Ġà¦īà¦ªà¦¨à¦¦":9930,"à§¨à§¦à§¦":9931,"à§¨à§®":9932,"à¦ĵà¦°à¦Ļ":9933,"..âĢĿ":9934,"à¦¦à¦ķà¦®à¦£":9935,"éŁ¿åĵį":9936,"Ġà¦ħà¦¸à¦¹à¦ľ":9937,"Ġà¦ļà¦®à¦ķà¦Ł":9938,"à¦¯à¦Łà¦ķà¦°":9939,"à¦ļà¦°à¦£à¦¬":9940,"à¦¨à§Łà¦¨à¦®":9941,"à¦¨à§Łà¦¨à¦ĩ":9942,"Ġà¦ħà¦Łà¦²à¦Ń":9943,"à¦Ĺà¦£à¦¤à¦¨":9944,"à¦¾:-":9945,"à¦¦à¦¶à¦ľà¦¨":9946,"à¦¬à¦ľà¦¨à¦¹à¦¤":9947,"Ġà¦ıà¦¡à¦ĵà§Ł":9948,"Ġà¦¸à§İà¦®":9949,"Ġà¦¸à§İà¦ª":9950,"Ġà¦ĸà¦°à¦ļà¦ªà¦¤":9951,"à¦¾âĢĿ!":9952,"antern":9953,"à¦¨à¦®à¦ŀ":9954,"à¦²à§Łà¦¬":9955,"à¦¼!)":9956,"Ġà¦Ĩà¦«à¦¤":9957,"à¦Ŀà¦¬à§Łà¦¸":9958,"à¦¶à¦°à¦ŀ":9959,"Ġà¦ľà¦Ĺà§İà¦¸":9960,"Ġà¦ľà¦Ĺà¦¦à¦²à¦ª":9961,"à¦ªà§ľà¦¶":9962,"à¦¸à¦¦à¦¦":9963,"Ġà¦Ĩà¦ĩà¦¨à¦¬":9964,"Ġà¦Ĩà¦ĩà¦ĵà¦¨":9965,"Ġà¦Ĭà¦§":9966,"Ġà¦Ĭà¦¨à¦®":9967,"Ġà¦Ĭà¦¨à¦ªà¦ŀ":9968,"alon":9969,"Ġà¦Ńà¦Ĺà¦ĵà¦¯":9970,"à§©à§Ń":9971,"à¦ľà§Łà¦¦":9972,"Ġà¦Ķà¦°":9973,"Ġà¦Ķà¦¡":9974,"Ġà¦Ķà¦¦à¦°":9975,"à¦¤à¦Ĺà¦Ļ":9976,"à¦Īà¦°":9977,"Ġà¦¨à¦°à¦ªà¦¤":9978,"Ġà¦°à¦¥à¦ļà¦ķ":9979,"Ġà¦¬à¦¦à¦ħà¦Ń":9980,"ony":9981,"onaliz":9982,"à§Ńà§§":9983,"à§Ńà§¯":9984,"Ġà¦¶à¦ªà¦¥à¦¬":9985,"Ġà¦¶à¦ªà¦¥à¦Ĺ":9986,"à¦¿âĢ¦?":9987,"à¦¿âĢ¦à¥¤âĢĿ":9988,"à¦¯à¦°à¦ķà¦®à¦ĵ":9989,"à§ªà§¯":9990,"Ġà¦Ńà¦°à¦¤à¦ķ":9991,"Ġà¦Ńà¦°à¦¤à¦¸":9992,"Ġà¦Ńà¦°à¦¤à¦ª":9993,"Ġthis":9994,"Ġthink":9995,"tig":9996,"oral":9997,"à¦Ĺà¦°à¦£à¦ĩ":9998,"éŁ¿éŁ¿éŁ¿éŁ¿éŁ¿éŁ¿":9999,"arth":10000,"aras":10001,"arri":10002,"Ġà¦¸à¦ĸà¦¬à¦²":10003,"Ġà¦¤à¦¦à¦¬à¦¸":10004,"Ġser":10005,"Ġsil":10006,"Ġsay":10007,"Ġsend":10008,"à§¬à§®":10009,"à§¬à§¯":10010,"à¦Ĩà¦§à¦ĸ":10011,"Ġà¦¬à¦°à¦«à¦ª":10012,"Ġà¦¬à¦°à¦«à¦Ŀà¦°":10013,"à¦ĩà¦«à§Ł":10014,"à¦ĩà¦«à¦°à¦®":10015,"à¦¶à¦¸à¦ľ":10016,"à¦¼à¦¾âĢĶâĢĻ":10017,"Ġà¦¸à¦«à¦°à¦¸à¦Ļ":10018,"ĠĠĊĠĠĠĠĠĠĠĠĠĠ":10019,"ĠĠĊĠĠĠĠĠ":10020,"ator":10021,"atri":10022,"Ġchar":10023,"Ġcount":10024,"Ġcult":10025,"à¦¬à§İà¦¸à¦®":10026,"Ġà¦Ĩà¦¹à¦¤à¦¦":10027,"Ġway":10028,"Ġwear":10029,"ite":10030,"its":10031,"Ġà¦¨à§ľà¦¬":10032,"Ġbel":10033,"Ġboth":10034,"Ġbattle":10035,"andhar":10036,"Ġà§©à§¨":10037,"Ġà§©à§«":10038,"Ġà¤¨":10039,"Ġà¤¹":10040,"Ġà¤Ĺ":10041,"à§Īà¦ĥâĢĶ":10042,"à§Īà¦ĥâĢĵ":10043,"à¦ıà¦ķà¦¬à¦Ľà¦°":10044,"à§®à§Ń":10045,"Ġmay":10046,"Ġmad":10047,"Ġmod":10048,"à§ĭâĢ¦à¥¤âĢĿ":10049,"lex":10050,"Ġhol":10051,"Ġhear":10052,"ree":10053,"ready":10054,"Ġà¦ĸà¦Łà¦®à¦Ł":10055,"Ġà¦Ŀà§ľà¦Ŀà¦ŀ":10056,"Ġad":10057,"Ġfer":10058,"Ġfut":10059,"Ġfret":10060,"Ġfound":10061,"Ġfever":10062,"ings":10063,"Ġpe":10064,"Ġpit":10065,"Ġpain":10066,"Ġtry":10067,"Ġold":10068,"à¦¶à¦Ĺà¦¤à¦Ń":10069,"Ġdra":10070,"Ġdid":10071,"Ġdem":10072,"à¦£à¦°à¦ļà¦¯":10073,"Ġà¦ĵà¦ľà¦¨à¦¹":10074,"Ġà¦ļà§ľà¦ķà¦Ĺ":10075,"Ġà¦°à¦£à¦¸":10076,"ĠPM":10077,"à¦īà§İà¦¸à¦¬à¦®":10078,"omen":10079,"Ġà¦ķà§ľà¦ķà§ľ":10080,"à¦Ĺà¦łà¦¨à¦ķ":10081,"ĠSm":10082,"ĠSy":10083,"ĠSam":10084,"ĠSTEM":10085,"à¦¯à¦²à¦¹à¦°":10086,"Ġà¦¦à¦®à¦¨à¦¨":10087,"à§§à§¯à§¦":10088,"áĥĿáĥ":10089,"à¦¿âĢ¦âĢĿà¥¤":10090,"ĠBeg":10091,"Ġlo":10092,"Ġlul":10093,"Ġlantern":10094,"à§ĩ!âĢĻâĢĻ":10095,"à§ĩ);":10096,"Ġà¦¥à¦²à¦¥à¦²":10097,"Ġà§§à§®à§¦à§¦":10098,"Ġà§«à§«":10099,"Ġà§«à§ª":10100,"Ġà§§à§¯à§ªà§¦":10101,"ĠIN":10102,"Ġnow":10103,"à¦¶à¦¹à¦°à¦¤à¦²":10104,"Ġà¦Ĺà¦²à¦¦à¦ĺà¦¨":10105,"echn":10106,"Ġà¦®à¦Ĺà¦ľà¦ķ":10107,"à¦Ĩà¦ĩà¦¨à¦¸":10108,"ĠMr":10109,"ĠMontu":10110,"ute":10111,"uring":10112,"Ġà¦Ĩà¦īà¦Łà¦¡":10113,"Ġà¦Ĩà¦īà¦Łà¦¬à¦ķ":10114,"Ġà¦īà¦ĩà¦ŀ":10115,"Ġà¦īà¦ĩà¦ķà¦²":10116,"ĠRec":10117,"Ġà¦ĸà¦²à¦ĸà¦²":10118,"ild":10119,"ilo":10120,"unt":10121,"à¦£à¦ļà¦ŀ":10122,"Ġà§§à§¯à§¯à§ª":10123,"ĠDE":10124,"ĠDNA":10125,"Ġeves":10126,"Ġease":10127,"ower":10128,"Ġ[âĢĺ":10129,"ches":10130,"à¦īà¦łà¦¬":10131,"Ġà§¬à§¦":10132,"Ġà¦Ĩà¦ªà¦¸à¦¹":10133,"à§ģâĢ¦.":10134,"Ġgold":10135,"Ġà¦¬à¦Ĺà¦²à¦¸à¦ĵ":10136,"ama":10137,"ames":10138,"ĠTur":10139,"à¦¶à¦§à¦°à¦ķ":10140,"uly":10141,"ĠNot":10142,"acy":10143,"Ġà¦¸à§ľà¦ķà¦ªà¦¥":10144,"Ġà¦Ĺà¦łà¦¨à¦ķ":10145,"à§§à§¨à§©à§ª":10146,"Ġrem":10147,"à¦ħà¦¹à¦Ļ":10148,"à¦ħà¦¹à¦ŀ":10149,"ĠLO":10150,"ĠLalon":10151,"Ġà¦¸à¦®à¦¤à¦²à¦Ń":10152,"Ġà¦¶à¦¤à¦ªà¦¥à¦¬":10153,"Ġà§§à§¯à§§à§®":10154,"Ġà§§à§¯à§§à§¯":10155,"à§¯à§©":10156,"à§¯à§¯":10157,"Ġà§§à§«à§§":10158,"Ġà§§à§«à§¦à§¦":10159,"tice":10160,"à¦ľà¦ĸà¦®à¦ĵ":10161,"à¦Ĩà¦īà¦Łà¦¡":10162,"agra":10163,"à¦¯à¦¬à¦¨à¦ª":10164,"ĠÐ½":10165,"Ġà§§à§¯à§¨à§¨":10166,"Ġà§§à§¯à§©à§§":10167,"Ġforg":10168,"ĠGod":10169,"ĠGandhar":10170,"Ġyet":10171,"ĠØ±":10172,"ĠØŃ":10173,"Ġà§§à§¯à§¦à§©":10174,"Ġà§§à§¯à§¦à§¯":10175,"Ġà¦Ĩà¦ªà¦¦à¦Ł":10176,"ĠHow":10177,"Ġà¦¡à¦ľà¦¨à¦ĸ":10178,"Ġà§§à§¯à§¬à§«":10179,"Ġà§§à§¯à§¬à§ª":10180,"Ġà§§à§¯à§¬à§¯":10181,"Ġà¦ıà¦ĩà¦ļà¦ıà¦¸à¦¸":10182,"estry":10183,"ĠWhat":10184,"à¸±":10185,"à¸ģ":10186,"à¸Ļ":10187,"ĠFactory":10188,"ĠOri":10189,"ĠOff":10190,"Ġìł":10191,"Ġìĭľ":10192,"Ġà¦ľà¦¬à¦°à¦¦à¦ĸà¦²":10193,"Ġà§§à§¯à§®à§¦":10194,"Ġà§§à§¯à§®à§¨":10195,"ĠKh":10196,"Ð¾Ð²":10197,"Ġkn":10198,"Ġking":10199,"ĠÙ¾":10200,"ĠÙĦ":10201,"Ġcontem":10202,"ĠESP":10203,"à¤²à¦¤":10204,"ummer":10205,"Ġvill":10206,"Ġvalue":10207,"Ġone":10208,"Ġonly":10209,"à§§à§ªà§«":10210,"Ġ10":10211,"Ġ19":10212,"Ġstep":10213,"cial":10214,"ions":10215,"Ġà¦¸à¦°à¦¬à§İ":10216,"indu":10217,"Ġwithout":10218,"Ġà¦Ĺà¦¤à¦¬à¦Ľà¦°":10219,"àª°":10220,"Ġà¦īà¦ĩà¦ķà¦ıà¦¨":10221,"ÐµÑģ":10222,"Ġany":10223,"Ġà§§à§¬à§«à§¬":10224,"Ġà§¯à§®":10225,"Ġhaunt":10226,"egnung":10227,"ĊĊĊ":10228,"Ġ×¨":10229,"fore":10230,"periment":10231,"à§ģà§ģà§ģà§ģ":10232,"ĠUSB":10233,"Ġjust":10234,"Ġunder":10235,"Ġà§·à§·":10236,"ishes":10237,"Ġexperiment":10238,"Ġmyster":10239,"ock":10240,"Ġà¦ĵà¦ħà§°":10241,"Ġà§§à§¯à§Ńà§¦":10242,"Ġà§§à§¯à§Ńà§¨":10243,"ibanan":10244,"ief":10245,"fully":10246,"Ġà¦¶à¦ķà¦Łà¦¬":10247,"they":10248,"à®¤":10249,"âĤĨ":10250,"ĠJibanan":10251,"rava":10252,"press":10253,"present":10254,"à¦ĵà¦ĵà¦ĵ":10255,"Ġworship":10256,"Ġprojec":10257,"port":10258,"ĠZia":10259,"Ġà¤Ĩà¤¨":10260,"Ġhero":10261,"Ġinto":10262,"evel":10263,"à«į":10264,"Ġà§§à§®à§¬à§¯":10265,"ºçľºçľºçľºçľºçľºçľºçľºçľºçľºçľºçľºçľºçľºçľºçľºçľ":10266,"âĢĵâĢĵâĢĵâĢĵâĢĵâĢĵâĢĵâĢĵâĢĵâĢĵâĢĵâĢĵâĢĵâĢĵâĢĵâĢĵâĢĵâĢĵâĢĵâĢĵâĢĵâĢĵâĢĵâĢĵâĢĵâĢĵâĢĵâĢĵâĢĵâĢĵâĢĵâĢĵ":10267,"·çľ·çľ·çľ·çľ·çľ·çľ·çľ·çľ·çľ·çľ·çľ·çľ·çľ·çľ·çľ·çľ":10268,"Ġà¦°à¦¸à¦ķà¦·à¦¹":10269,"tism":10270,"Ġbecomes":10271,"Ġà¤īà¤ł":10272,"à§§à§¯à§Ńà§¦":10273,"à§§à§¯à§Ńà§«":10274,"Ġliterature":10275,"Ġreflec":10276,"========":10277,"Ġflies":10278,"laby":10279,"à¯į":10280,"Ġecho":10281,"à¤¼à§ĩ":10282,"ururavas":10283,"Ġà§¯à§«à§¦":10284,"ĠYouTu":10285,"ixed":10286,"Ġriver":10287,"Ġhallucinatin":10288,"ĠMyra":10289,"Ġneighbor":10290,"Ġoriginal":10291,"âģł":10292,"æĭŃ":10293,"Ġessay":10294,"Ġidentity":10295,"Ġà¦ħà¦ĵà¦°à¦¤":10296,"Ġà¦ľà¦ĸà¦®à¦Ł":10297,"Ġdivide":10298,"ĠPaurava":10299,"personaliz":10300,"Ġequalityà¦¯":10301,"Ġmurmurous":10302,"Intelligent":10303,"mlet":10304,"rvasi":10305,"ystem":10306,"Ġà¦¬ungal":10307,"Ġà¦Ńà¦Łà¦Ńà¦Ł":10308,"Ġà¦Łà¦¸à¦Łà¦¸":10309,"Ġweariness":10310,"Ġholo":10311,"Ġheart":10312,"Ġfuture":10313,"ĠBegegnung":10314,"Ġlullaby":10315,"Ġeaseful":10316,"ĠOffice":10317,"ĠJibanananda":10318,"ĠYouTube":10319,"!âĢĵ":10320,"!âĢ¦":10321,"\"âĢĶ":10322,"'ll":10323,")âĢĻ":10324,"-,":10325,"-âĢĺ":10326,"17":10327,"110":10328,"31":10329,"37":10330,"56":10331,"57":10332,"67":10333,":-":10334,";âĢĵ":10335,"?-":10336,"?!âĢĿ":10337,"Al":10338,"And":10339,"CA":10340,"CE":10341,"CTED":10342,"EY":10343,"En":10344,"FI":10345,"Gest":10346,"GEN":10347,"HAT":10348,"HEY":10349,"IF":10350,"Int":10351,"ITI":10352,"LM":10353,"MO":10354,"Montu":10355,"Much":10356,"PI":10357,"PM":10358,"Par":10359,"Pyth":10360,"Red":10361,"ST":10362,"Seen":10363,"Share":10364,"TA":10365,"Tok":10366,"Un":10367,"What":10368,"YAB":10369,"_,":10370,"ai":10371,"aused":10372,"bid":10373,"ction":10374,"cult":10375,"cury":10376,"ds":10377,"ded":10378,"del":10379,"day":10380,"down":10381,"data":10382,"ew":10383,"eam":10384,"fi":10385,"fter":10386,"fie":10387,"her":10388,"has":10389,"hana":10390,"iti":10391,"ient":10392,"ians":10393,"kind":10394,"la":10395,"lu":10396,"ling":10397,"lam":10398,"less":10399,"lich":10400,"man":10401,"mal":10402,"men":10403,"mor":10404,"ner":10405,"nor":10406,"nec":10407,"nÄ±":10408,"oo":10409,"oon":10410,"oom":10411,"ocial":10412,"pu":10413,"ped":10414,"pic":10415,"ption":10416,"ptic":10417,"pear":10418,"rb":10419,"red":10420,"rush":10421,"rilo":10422,"sa":10423,"spec":10424,"scap":10425,"satri":10426,"td":10427,"tal":10428,"tas":10429,"tain":10430,"uv":10431,"ues":10432,"uel":10433,"ution":10434,"uce":10435,"ving":10436,"wo":10437,"wer":10438,"wor":10439,"with":10440,"xim":10441,"ycle":10442,"¦ģ":10443,"°ë":10444,"Ãª":10445,"Å¡":10446,"Ð³":10447,"ÑĨ":10448,"Ñĸ":10449,"Ò¯":10450,"Õ«":10451,"ÖĢ":10452,"×¨":10453,"×Ĳ":10454,"×ľ":10455,"Ø¹":10456,"Ú¯":10457,"Ûģ":10458,"ÛĴ":10459,"à²":10460,"à¶":10461,"à·":10462,"â¦ģ":10463,"æĹ":10464,"ìĨ":10465,"íķ":10466,"ï¼":10467,"ĊĠ":10468,"Ġ4":10469,"Ġ]":10470,"Ġ{":10471,"Ġ}":10472,"Ġâ":10473,"Ġing":10474,"Ġus":10475,"Ġà°":10476,"Ġà®":10477,"ĠÑĤ":10478,"Ġenti":10479,"Ġà¨":10480,"ĠÑĪ":10481,"ĠØ§ÙĦ":10482,"ĠÏĥ":10483,"ĠÚĨ":10484,"Īľ":10485,"ĲâĨ":10486,"ĻĶ":10487,"ŀĲ":10488,"Ġà¦Ĥ":10489,"à¦¾(":10490,"à¦¾_":10491,"à¦¾à§ĭ":10492,"à¦¾à§ĩ,":10493,"à¦¾à§ĩ?":10494,"à¦¾à§ĩà¦ģ":10495,"à¦¾à¦¾à¦ģ?":10496,"à§ĩ_":10497,"à§ĩï»¿":10498,"à¦°à¦°à¦¸":10499,"à¦°à¦¶à¦¨":10500,"à¦°à¦ħà¦¨":10501,"à¦°à¦·à¦¦":10502,"à¦°afi":10503,"à§įà¦¾":10504,"à§įâĢĿ":10505,"à¦¿à¦¼":10506,"à¦¿âĢį":10507,"à¦¨à¦®à¦ķ":10508,"à¦¨à¦ļà¦²":10509,"à¦¨à¦ıà¦ķ":10510,"à¦¨à¦¶à¦¬":10511,"à¦¨à¦¸à¦Ļ":10512,"à¦¨à¦ıà¦¬":10513,"à¦¨à¦ªà¦¡":10514,"à¦¨à¦ıà¦°":10515,"à¦¨à¦«à¦²":10516,"à¦¨à¦ĩà¦¤":10517,"à¦¨à¦¸à¦¬à¦ĩ":10518,"à¦¨à¦®à¦§":10519,"à¦¨à¦®à¦ľ":10520,"à¦¨à¦Ĩà¦Ĺ":10521,"à¦¨à¦ĺà¦£":10522,"à¦¨à§ľà¦¬à§ľ":10523,"à¦¤à¦ı":10524,"à¦¤à¦®à¦¤":10525,"à¦¤à¦¸à¦¤":10526,"à¦¤à¦ľà¦®":10527,"à¦¤à¦¸à¦®à¦¯":10528,"à¦¤à¦Ľà¦¬":10529,"à¦¤à§İà¦ª":10530,"à¦¤à¦°à¦¤à¦®":10531,"à¦¤à¦ľà¦¨à¦¨":10532,"à¦¤à¦ĺà§ľ":10533,"à¦²à§ľ":10534,"à¦²à§İ":10535,"à¦²à¦°à¦¬":10536,"à¦²à¦¤à¦¨":10537,"à¦²à¦¬à¦¤":10538,"à¦²à¦ħ":10539,"à¦²à¦¤à¦¬":10540,"à¦²à¦¶à¦¨":10541,"à¦²à¦ªà¦¦":10542,"à¦²à¦¦à¦¨":10543,"à¦²à¦Ĺà¦¨":10544,"à¦²à¦¸à¦Ļ":10545,"à¦²à¦ªà¦¡":10546,"à¦²à¦ħà¦¨":10547,"à¦²à¦Ĩà¦ªà¦¨":10548,"à¦²à¦¦à¦¸":10549,"à¦²à¦ļà¦¡":10550,"à¦²à¦¶à¦¯":10551,"à¦²à¦Ŀà¦°":10552,"à¦²à¦°à¦Ļ":10553,"à¦²à¦Ĺà¦¤à¦Ń":10554,"à¦ķà¦¤à¦¨":10555,"à¦ķà¦¦à¦°":10556,"à¦ķà¦§à¦°":10557,"à¦ķà¦¸à¦Ł":10558,"à¦ķà¦ĵà¦°":10559,"à¦¯à¦Ľ":10560,"à¦¯à¦¹à¦¸":10561,"à¦¯à¦¦à¦¯":10562,"à¦¯à¦¸à¦¤":10563,"à¦¯à¦ĺà¦°":10564,"à¦¯à¦ľà¦²":10565,"à¦¯à¦ªà¦£":10566,"à¦¯à¦Ŀà¦²à¦®à¦²":10567,"à§ģ/":10568,"à§ģ]":10569,"à§ģà¦¿":10570,"à§ģà§ĥ":10571,"à§ģâĢĶâĢľ":10572,"à§ģâĢĿà¥¤":10573,"à§ģ...":10574,"à§ģâĢĿ-":10575,"à¦¬à¦·":10576,"à¦¬à¦¸à¦¬":10577,"à¦¬à¦¯à¦¨":10578,"à¦¬à¦ħà¦¨":10579,"à¦¬à¦īà¦°":10580,"à¦¬à¦īà¦®":10581,"à¦¬à¦īà¦¬":10582,"à¦¼/":10583,"à¦¼à§Į":10584,"à¦¼à§įâĢĮ":10585,"à¦¼à§ĭà¥¤âĢĿ":10586,"à¦¼âĢĻâĢĶ":10587,"à¦¼)à¥¤":10588,"à¦¼âĢĿâĢĵ":10589,"à¦¼...âĢĿ":10590,"à¦¼âĢĿ,":10591,"à¦®à¦¤à¦°":10592,"à¦®à¦°à¦¬":10593,"à¦®à¦°à¦®":10594,"à¦®à¦¦à¦²":10595,"à¦®à¦¹à¦¨":10596,"à¦®à¦ıà¦°":10597,"à¦®à¦ĩà¦¤":10598,"à¦®à§Ŀ":10599,"à¦®à¦ªà¦¦à¦ķ":10600,"à¦®à¦Īà¦¨":10601,"Ġà¦ķà¦Łà¦²":10602,"Ġà¦ķà¦¨à¦Ĺ":10603,"à§ĭ.":10604,"à§ĭà¦ĥà¥¤":10605,"à§ĭ),":10606,"à§ĭâĢĿâĢĵ":10607,"Ġà¦¬à¦¢":10608,"Ġà¦¬à¦ķà¦²à¦®":10609,"Ġà¦¬à¦ĸà¦¶":10610,"à¥¤]":10611,"Ġà¦¸à¦·":10612,"Ġà¦¸à¦£":10613,"Ġà¦¸à¦¥":10614,"Ġà¦¸à¦Ĺà¦¨":10615,"Ġà¦¸à¦ĩà¦Ł":10616,"Ġà¦¸à¦²à¦«":10617,"Ġà¦¸à§Łà¦²":10618,"Ġà¦ªà§İ":10619,"Ġà¦ªà¦ĩà¦°":10620,"Ġà¦ªà¦¦à¦²":10621,"Ġà¦ªà¦Ĺà¦¡":10622,"Ġà¦ªà¦ªà¦²":10623,"Ġà¦ªà¦ĩà¦ª":10624,"Ġà¦ªà¦¬à¦¨à¦ķ":10625,"à¦¸à¦¬à¦°":10626,"à¦¸à¦¤à¦¨":10627,"à¦¸à¦Łà¦ķ":10628,"à¦¸à¦¸à¦®":10629,"à¦¸à¦Łà¦²":10630,"à¦¸à¦ıà¦°":10631,"à¦¸à¦¦à¦¸":10632,"Ġà¦Ĩà¦¥":10633,"Ġà¦Ĩà¦ķà¦²":10634,"à¦Łà¦£":10635,"à¦Łà¦°à¦ľ":10636,"à¦Łà¦ıà¦ĩ":10637,"à¦Łà¦ªà¦Ł":10638,"à¦Łà¦ıà¦°":10639,"à¦Łà¦®à¦¹":10640,"à¦Łà¦Ĺà¦£":10641,"à¦Łà¦īà¦¡":10642,"à¦Łà¦£à¦ª":10643,"à¦¦à§İ":10644,"à¦¦à¦ķà¦²":10645,"à¦¦à¦²à¦ķ":10646,"à¦¦à¦¶à¦¨":10647,"à¦¦à¦¤à¦¤":10648,"à¦¦à¦ĩà¦¯":10649,"à¦¦à¦Ńà¦°":10650,"à¦¦à¦Ĺà¦®":10651,"à¦¦à¦¬à¦§":10652,"à¦¦à¦°à¦¤à¦®":10653,"à¦¦à¦ľà¦Ĺà§İ":10654,"à¦¦à¦°à¦¨à¦Ĺà¦°":10655,"à¦ĩà§ľ":10656,"à¦ĩà¦®à¦¤":10657,"à¦ĩà¦ķà¦¬":10658,"à¦ĩà¦¯à¦¨":10659,"à¦ĩà¦¤à¦®":10660,"à¦ĩà¦¢":10661,"à¦ĩà¦¯à¦¦":10662,"à¦ĩà¦ıà¦°":10663,"à¦ĩà¦Ĩà¦°":10664,"à¦ĩà¦®à¦Ł":10665,"à¦ĩà¦Ńà¦°":10666,"Ġà¦¨à¦°à¦¶":10667,"Ġà¦¨à¦ĵà§Ł":10668,"Ġà¦¨à¦°à¦¦":10669,"Ġà¦¨à¦¸à¦°":10670,"Ġà¦¨à¦Łà¦¨":10671,"Ġà¦¨à¦°à¦ĸ":10672,"Ġà¦¨à¦Łà¦¸":10673,"Ġà¦¨à¦Ńà¦¨":10674,"Ġà¦¨à¦Ńà¦¸":10675,"Ġà¦¨à¦ĸà¦Ĺ":10676,"Ġà¦®à¦ĩà¦¯":10677,"Ġà¦®à¦¦à¦Ł":10678,"Ġà¦®à¦Ĺà¦¡":10679,"à¦Ľà¦Ļ":10680,"à¦Ľà¦«":10681,"à¦Ľà¦ľà¦¨":10682,"à¦Ľà¦¤à¦°":10683,"à¦Ľà¦¤à¦®":10684,"à¦Ľà¦¦à¦ĵ":10685,"Ġà¦¦à¦²à¦¤":10686,"Ġà¦¦à¦²à¦Ľ":10687,"à¦ªà¦ĵà¦¯":10688,"à¦ªà¦®à¦¤":10689,"à¦ªà¦§à¦¨":10690,"à¦ªà¦ļà¦ķ":10691,"à¦ªà¦Ĺà¦°":10692,"à¦ªà¦ıà¦ķ":10693,"à¦ªà¦¶à¦ķ":10694,"à¦ªà§İà¦¸":10695,"à¦ªà¦Ńà¦°":10696,"à¦ªà¦¶à¦Ł":10697,"à¦ªà¦ªà¦²":10698,"à¦ªà¦īà¦¤":10699,"à¦ªà¦ľà¦Ĺà§İ":10700,"à¦ªà¦¬à¦¦à¦²":10701,"à¦ªà¦īà¦ªà¦¨":10702,"Ġà¦ıà¦£":10703,"Ġà¦ıà¦¹à¦¨":10704,"Ġà¦¤à§İà¦¸":10705,"Ġà¦¤à¦Łà¦Ń":10706,"Ġà¦¤uhin":10707,"à§Ģà¦¾":10708,"à§Ģà§Ģ":10709,"à§Ģ)à¥¤":10710,"Ġà¦¹à¦¬à¦¨":10711,"Ġà¦¹à¦ķà¦°":10712,"Ġà¦¹à¦¸à¦¤":10713,"Ġà¦¹à¦ķà¦¦":10714,"Ġà¦¹à¦Łà¦Ľ":10715,"Ġà¦¹à§ľà¦¬à§ľ":10716,"à¦ľà¦«":10717,"à¦ľà¦°à¦¸":10718,"à¦ľà¦¦à¦°":10719,"à¦ľà¦®à¦ķ":10720,"à¦ľà¦ĵà§Ł":10721,"à¦ľà¦°à¦¦":10722,"à¦ľà¦ļà¦ķ":10723,"à¦ľà¦Łà¦²":10724,"à¦ľà¦¬à¦ķ":10725,"à¦ľà¦®à¦Ł":10726,"à¦ľà¦Ńà¦°":10727,"à¦¼à§ĩà§ĩ":10728,"à¦¼à§ĩâĢ¦âĢĿ":10729,"à¦¼à§ĩ!âĢĻ":10730,"à¦¼à§ĩâĢ¦âĢĻ":10731,"âĢŀ":10732,"à¦¶à¦£":10733,"à¦¶à¦ĺ":10734,"à¦¶à¦¨à¦¤":10735,"à¦¶à¦ķà¦²":10736,"à¦¶à¦²à¦ķ":10737,"à¦¶à¦ķà¦¬":10738,"à¦¶à¦ıà¦ĩ":10739,"à¦¶à¦ļà¦°":10740,"à¦¶à¦ªà¦Ł":10741,"à¦¶à¦®à¦¸":10742,"à¦¶à¦Ńà¦Ļ":10743,"à¦¶à§Łà¦ķ":10744,"à¦ĸà¦°à¦¸":10745,"à¦ĸà¦®à¦¤":10746,"à¦ĸà¦°à¦Ĺ":10747,"à¦ĸà¦¶à¦¯":10748,"à¦Ĺà§Ł":10749,"à¦Ĺà¦ªà¦¨":10750,"à¦Ĺà¦ĵà¦¯":10751,"à¦Ĺà¦ķà¦°":10752,"à¦Ĺà¦°à¦¨":10753,"à¦Ĺà¦®à¦£":10754,"à¦Ĺà¦¶à¦ķ":10755,"à¦Ĺà¦Ĺà¦¨":10756,"à¦Ĺà¦Ĺà¦ľ":10757,"à¦Ĺà¦¶à¦¯":10758,"à¦Ĺà¦¸à¦¦":10759,"à¦Ĺà¦°à¦¬à§İ":10760,"à¦·à¦¤à¦°":10761,"à¦·à¦¬à¦²":10762,"à¦·à¦°à¦Ł":10763,"à¦·à¦ļà¦°":10764,"à¦·à¦«à¦²":10765,"Ġà¦ħà¦¶à¦¬":10766,"Ġà¦ħà¦¯à¦¶à¦¸":10767,"à¦¡à¦¹à¦°":10768,"à¦¡à¦¬à¦ĩ":10769,"à¦¡à¦ľà¦Ł":10770,"à¦¡à¦¸à¦¹":10771,"à¦¡à¦Ńà¦¨":10772,"à¦¡à¦Ĩà¦ª":10773,"à¦§à¦£":10774,"à¦§à¦°à¦¤":10775,"à¦§à¦Ŀ":10776,"à¦§à¦¬à¦²":10777,"à¦§à¦®à¦¤":10778,"à¦ļà¦¹":10779,"à¦ļà¦ªà¦°":10780,"à¦ļà¦ķà¦Ł":10781,"à¦ļà¦°à¦¸":10782,"à¦ļà¦¤à¦¨":10783,"à¦ļà¦°à¦¦":10784,"à¦ļà¦®à¦¯":10785,"à¦ļà¦¬à¦ķ":10786,"à¦ļà¦¶à¦¤":10787,"à¦ļà¦¶à¦°":10788,"à¦ļà¦ľà¦¨à¦ĩ":10789,"Ġà¦Ĺà¦°à¦¹":10790,"Ġà¦Ĺà§°":10791,"Ġà¦Ĺà¦¢":10792,"à¦¹à¦ĺ":10793,"à¦¹à¦ķà¦²":10794,"à¦¹à¦¨à¦¨":10795,"à¦¹à¦ĩà¦¬":10796,"à¦¹à¦ĺà¦¨":10797,"à§Łà¦ľà¦¨":10798,"à§Łà¦¨à¦¤":10799,"à§Łà¦®à¦®":10800,"à§Łà¦¶à¦ĩ":10801,"à§Łà¦°à¦¨à¦®":10802,"à¦£à¦°à¦¸":10803,"à¦£à¦®à¦£":10804,"à¦£à¦ļà¦ķ":10805,"à¦£à¦®à¦§":10806,"à¦£à¦Ńà¦¯":10807,"à¦£à¦Ńà¦ķ":10808,"à¦£à¦°à¦Ļ":10809,"à¦£Åĵ":10810,"à¦£à¦ľà§Łà¦¨":10811,"à¦¥à¦¥":10812,"à¦¥à¦°à¦¤":10813,"à¦¥à¦ľà¦¨":10814,"à¦¥à¦¬à¦°":10815,"à¦¥à¦Ĺà¦¤":10816,"à¦¥à¦¸à¦¨":10817,"à¦¥à¦°à¦ĵ":10818,"à¦¥à¦°à¦ª":10819,"à¦¥à¦°à¦Ń":10820,"à¦¥à¦§à¦°":10821,"à¦¥à¦¦à¦£":10822,"Ġà¦¶à¦¦":10823,"Ġà¦¶à¦ĩà¦²":10824,"Ġà¦¶à¦¤à¦®":10825,"Ġà¦¶à¦®à¦¸":10826,"Ġà¦¶à¦¤à¦°à¦Ļ":10827,"Ġà¦ļà¦¸":10828,"Ġà¦ļà¦ķà¦°":10829,"Ġà¦ļà¦°à¦¦":10830,"Ġà¦ļà¦ķà¦¬":10831,"Ġà¦ļà¦ªà¦Ł":10832,"Ġà¦ļà¦Łà¦Ľ":10833,"Ġà¦ľà¦®à¦¨":10834,"Ġà¦ľà¦Ĺà¦²":10835,"Ġà¦ľà¦ĵà§Ł":10836,"Ġà¦ľà§°":10837,"Ġà¦ľà¦ĵà¦¹":10838,"Ġà¦Ńà¦²à¦¤":10839,"Ġà¦Ńà¦ĩà¦·":10840,"Ġà¦Ńà¦¨à¦Ńà¦¨":10841,"Ġà¦°à¦²":10842,"Ġà¦°à¦¦à¦¨":10843,"Ġà¦°à¦®à¦¸":10844,"Ġà¦°à¦¸à¦ª":10845,"Ġà¦°à¦®à¦ª":10846,"Ġà¦°à¦£à¦¦":10847,"Ġà¦°afi":10848,"à¦ĵà¦ķà¦²":10849,"à¦ĵà¦Ĩà¦®":10850,"à¦ĵà¦°à¦ķà¦®":10851,"à§ĩà¥¤]":10852,"à§ĩà¥¤âĢĶ":10853,"à§ĩà¥¤âĢľ":10854,"Ġà¦ıà¦ķà¦ł":10855,"Ġà¦ıà¦ķà¦Ľà¦¤":10856,"Ġà¦ıà¦ķà¦¶à¦¤":10857,"Ġà¦ıà¦ķà¦°à¦Ļ":10858,"Ġà¦ıà¦ķà¦ķà¦£":10859,"Ġà¦ıà¦ķà¦Ĩà¦§":10860,"à¦Ńà¦¹":10861,"à¦Ńà¦¨à¦¤":10862,"à¦Ńà¦¬à¦ª":10863,"à¦Ńà¦°à¦¦":10864,"à¦Ńà¦¨à¦ķ":10865,"à¦Ńà¦Ńà¦°":10866,"à¦Ńà¦²à¦ª":10867,"à¦Ńà¦°à¦£à¦Ń":10868,"à¦¼à¦¾)":10869,"à¦¼à¦¾/":10870,"à¦¼à¦¾à§ĩ":10871,"à¦¼à¦¾!âĢĻ":10872,"à¦¼à¦¾âĢĻâĢĶ":10873,"à¦¼à¦¾),":10874,"à¦¼à¦¾âĢ¦à¥¤âĢĻ":10875,"Ġà¦Ľà¦°":10876,"Ġà¦Ľà¦¸":10877,"Ġà¦Ľà¦¤à¦²":10878,"Ġà¦Ľà¦ĩà¦Ł":10879,"Ġà¦Ľà¦°à¦°":10880,"à¦Ĥ;":10881,"à¦ĤâĢĻ":10882,"à¦łà¦²":10883,"à¦łà¦¯":10884,"à¦łà¦°à¦¤":10885,"à¦łà¦¬à¦°":10886,"à¦łà¦¬à¦¦":10887,"à¦łà¦¶à¦¬":10888,"à¦łà¦ķà¦¨":10889,"à¦łà¦¨à¦ĩ":10890,"à¦łà¦ĸà¦£":10891,"Ġà¦¬à¦²à¦ľ":10892,"Ġà¦¬à¦²à¦¡":10893,"Ġà¦¬à¦²à¦¹":10894,"Ġà¦īà¦Ľ":10895,"Ġà¦īà¦ķà¦Ł":10896,"Ġà¦īà¦°à¦¸":10897,"Ġà¦īà¦¨à¦¬":10898,"Ġà¦īà§°":10899,"Ġà¦īà¦®à¦®":10900,"Ġà¦Ĩà¦°à¦ıà¦¸":10901,"Ġà¦¥à¦ª":10902,"Ġà¦¥à¦ªà¦¥à¦ª":10903,"à¦¾à¦ģà¦¿":10904,"à¦¾à¦ģà§ģ":10905,"à¦¾à¦ģ!âĢĿ":10906,"à¦¾à¦ģ?âĢĻ":10907,"à¦¾à¦ģ?âĢĿ":10908,"à¦¾à¦ģ...":10909,"à¦Ļà¦ĩ":10910,"à¦Ļà¦¶":10911,"à¦Ļà§ľ":10912,"à¦Ļà¦°à¦¹":10913,"Ġà¦²à¦ĸ":10914,"Ġà¦²à¦ļ":10915,"Ġà¦²à¦¬à¦¸":10916,"Ġà¦²à¦ĩà¦¤":10917,"Ġà¦²à¦Ńà¦¤":10918,"Ġà¦ĵà¦¶":10919,"Ġà¦ĵà¦ĵ":10920,"Ġà¦ĵà§İ":10921,"Ġà¦ĵà¦²à¦¨":10922,"Ġà¦ĵà¦¨à¦¨":10923,"à§Ĥ)":10924,"à§ĤâĢĶ":10925,"à§ĤâĢĵ":10926,"à§Ĥà¦ĥ":10927,"âĢĶ(":10928,"Ġà¦«à¦°à¦Ĺ":10929,"Ġà¦ĸà¦¬":10930,"Ġà¦ĸà¦ŀ":10931,"à¦¾à¥¤(":10932,"à¦¾à¥¤)":10933,"Ġà¦ªà¦°à¦Ĺ":10934,"Ġà¦ªà¦°à¦¹":10935,"Ġà¦ªà¦°à¦¤à¦¨":10936,"Ġà¦ªà¦°à¦Ĺà¦£":10937,"Ġà¦¹à¦¯à¦¬à¦°à¦²":10938,"ĠâĢ¨":10939,"à¦°à¦¤à¦®à¦£":10940,"à¦°à¦¤à§°":10941,"à¦°à¦¤à¦°à¦Ń":10942,"à¦°à¦¤à¦Ńà¦Ļ":10943,"Ġà¦ħà¦¨à¦¯":10944,"Ġà¦ħà¦¨à¦ª":10945,"Ġà¦ħà¦¨à¦¬à¦¹":10946,"Ġà¦¸à¦®à¦ľ":10947,"Ġà¦¸à¦®à¦§":10948,"Ġà¦¸à¦®à¦°à¦¨":10949,"Ġà¦¸à¦®à§°":10950,"Ġà¦¸à¦®à§Łà¦¨":10951,"à¦¼à¦¿)":10952,"à¦¼à¦¿âĢĿ":10953,"à¦¼à¦¿!âĢĿ":10954,"à¦¼à¦¿à¥¤âĢĻ":10955,"à¦ĸà¦¨à¦¨":10956,"à¦ĸà¦¨à¦¶":10957,"à¦ĸà¦¨à¦ļ":10958,"Ġà¦ĺà¦°à¦¨":10959,"à§ľà¦ª":10960,"à§ľà¦¤à¦°":10961,"à§ľà¦¨à¦ķ":10962,"à¦ªà¦°à¦°":10963,"Ġà¦®à¦¨à¦¡":10964,"Ġà¦®à¦¨à¦¶à¦¨":10965,"Ġà¦®à¦¨à¦Ńà¦°":10966,"Ġà¦®à¦¨à¦¨à¦®":10967,"Ġà¦®à¦¨à¦Ĺà§ľ":10968,"à¦®à¦¨à¦ª":10969,"à¦®à¦¨à¦¶":10970,"à¦®à¦¨à¦ĵ":10971,"à¦®à¦¨à¦¬à¦¤":10972,"à¦®à¦¨à¦¨à¦ķ":10973,"Ġà¦ıà¦ĩà¦¸":10974,"Ġà¦ıà¦ĩà¦Łà¦Ł":10975,"à¦¿à¥¤(":10976,"à¦¿à¥¤âĢĶ":10977,"à¦«à¦¶":10978,"à¦«à¦Ĺ":10979,"à¦«à¦£":10980,"à¦«à§Łà¦¸":10981,"âĢĻ?âĢĿ":10982,"âĢĻâĢĶâĢĺ":10983,"âĢĻ)à¥¤":10984,"Ġà¦¬à¦²à¦²à¦ĸ":10985,"Ġà¦¬à¦²à¦²à¦Ĺ":10986,"Ġà¦¬à¦²à¦²à¦ıà¦ķ":10987,"Ġà¦¬à¦²à¦²à¦¸à¦¤":10988,"Ġà¦¬à¦²à¦²à¦¯à¦¦":10989,"Ġà¦¬à¦²à¦²à¦ıà¦ķà¦Ł":10990,"Ġà¦¬à¦²à¦²à¦ıà¦¤":10991,"Ġà¦¬à¦²à¦²à¦ıà¦ĸà¦¨à¦ĵ":10992,"à¦°à¦£à¦°":10993,"à¦°à¦£à¦ļ":10994,"à¦¬à¦¨à¦²":10995,"à¦¬à¦¨à¦®à¦¨":10996,"à¦¬à¦¨à¦°à¦¸":10997,"à¦¬à¦¨à¦Ĺà¦¤":10998,"à¦¬à¦¨à¦ļà¦¨":10999,"à¦¬à¦¨à¦¸à¦¹":11000,"à¦ŀà¦ĵ":11001,"à¦ŀà¦Ń":11002,"âĢĿ?":11003,"âĢĿâĢĶâĢľ":11004,"à§İà¦ªà¦Ł":11005,"à§İà¦¸à¦Ļ":11006,"à¦ľà¦¨à¦Ń":11007,"à¦ľà¦¨à¦°à¦¤":11008,"à¦ľà¦¨à¦ªà¦°":11009,"à¦ľà¦¨à¦®à¦¨":11010,"à¦ıà¦¶":11011,"à¦ıà¦ķà¦°":11012,"à¦ıà¦¨à¦Ł":11013,"à¦ıà¦¨à¦¸":11014,"à¦īà¦¤à¦²":11015,"à¦īà¦ĩà¦ķ":11016,"à¦īà¦ªà¦¡":11017,"à¦īà¦ıà¦°":11018,"à¦īà¦¸à¦Ł":11019,"à¦īà¦ľà¦®":11020,"à¦īà¦®à¦ª":11021,"à¦īà¦¡à¦¨":11022,"à¦īà¦ªà¦ľ":11023,"à¦īà¦¬à¦Ĺ":11024,"à¦īà§İà¦¸à¦°":11025,"à¦īà§İà¦ªà¦¤":11026,"à¦°à¦ķà¦ļ":11027,"à¦°à¦ķà¦ĵ":11028,"Ġà¦¸à¦¬à¦°":11029,"à¦ªà¦¨à¦®":11030,"à¦ªà¦¨à¦Ĺ":11031,"à¦ªà¦¨à¦¤à¦®":11032,"à¦ªà¦¨à¦ĺà¦°":11033,"Ġà¦Łà¦¸":11034,"Ġà¦Łà¦Ł":11035,"Ġà¦Łà¦²à¦Ľ":11036,"Ġà¦Łà¦²à¦¸":11037,"Ġà¦¹à¦²à¦¤":11038,"Ġà¦¹à¦²à¦Ĺ":11039,"Ġà¦¹à¦²à¦ĺà¦°à¦Ł":11040,"à¦¬à¦°à¦«":11041,"à¦¬à¦°à¦¯à¦¨":11042,"à¦¬à¦°à¦®à¦£":11043,"à¦¤à¦°à¦ªà¦°":11044,"à¦¤à¦°à¦ªà¦¤":11045,"à¦¤à¦°à¦®à¦£":11046,"à¦¤à¦°à¦ªà¦¥":11047,"à¦¤à¦°à¦ľà¦Ĺà¦¤":11048,"Ġà¦Ĩà¦Ľà§Ł":11049,"Ġà¦Ĩà¦¸à¦¨à¦ª":11050,"Ġà¦īà¦łà¦²à¦ķ":11051,"à¦°à¦¬à¦¤à¦®":11052,"à§Į?":11053,"à§ĮâĢĵ":11054,"à§ĮâĢ¦":11055,"à¦Ĩà¦ķà¦°":11056,"à¦Ĩà¦ĩà¦²":11057,"à¦Ĩà¦¹à¦¸":11058,"à¦Ĩà¦²à¦¨":11059,"à¦Ĩà¦¦à¦¨":11060,"à¦Ĩà¦°à¦ª":11061,"à¦Ĩà¦°à¦Ł":11062,"à¦Ĩà¦ĩà¦ķ":11063,"à¦Ĩà¦Ĺà¦¨":11064,"à¦Ĩà¦¹à¦¤":11065,"à¦Ĩà¦§à¦¬":11066,"à¦Ĩà¦²à¦Ł":11067,"à¦Ĩà¦¹à¦°à¦£":11068,"à¦Ĩà¦¬à¦¡":11069,"à¦Ĩà¦ĩà§Ł":11070,"à¦Ĩà¦¦à¦¤":11071,"à¦Ĩà§ľà¦®":11072,"Ġà¦ĩà¦§":11073,"Ġà¦ĩà¦¬à¦°":11074,"Ġà¦ĩà¦¬à¦²":11075,"Ġà¦ĩà¦²à¦¤":11076,"Ġà¦ĩà¦ľà¦°":11077,"Ġà¦ĩà¦Łà¦ª":11078,"Ġà¦ĩà¦«à¦°":11079,"Ġà¦ıà¦¬à§ľ":11080,"à¦¼à¥¤)":11081,"à¦¼à¥¤âĢĺ":11082,"Ġà¦ľà¦¨à¦¦":11083,"Ġà¦ľà¦¨à¦ªà¦°":11084,"Ġà¦ľà¦¨à¦¦à¦°à¦¦":11085,"Ġà¦Ĩà¦²à¦¯":11086,"Ġà¦¡à¦²à¦Ľ":11087,"Ġà¦®à¦¤à¦¤":11088,"Ġà¦§à¦°à¦®":11089,"Ġà¦§à¦°à¦¨à¦ĵ":11090,"Ġà¦ķà¦°à¦²à¦Ł":11091,"Ġà¦łà¦Ł":11092,"Ġà¦łà¦ķà¦²":11093,"Ġà¦ıà¦¸à¦Ł":11094,"Ġà¦Ŀà¦¤":11095,"Ġà¦Ŀà¦Ĺà¦¬":11096,"Ġà¦ħà¦¬à¦¬":11097,"à¦ĺà¦ĵ":11098,"à¦ĺà¦«":11099,"à¦ĺà¦Ŀ":11100,"à¦ĺà¦°à¦ĩ":11101,"à¦ĺà¦Ĺà¦°":11102,"à¦ĺà¦Ńà¦°":11103,"à¦ĺà¦²à¦ª":11104,"à¦ĺà¦ķà¦£":11105,"à¦°à¦®à¦Ĺ":11106,"à¦°à¦®à¦ķà¦°":11107,"à¦·à¦£à¦¤à¦°":11108,"à¦·à¦£à¦¯à¦¨":11109,"à¦¼,âĢĿâĢĶ":11110,"Ġà¦ļà¦²à¦¨à¦¦":11111,"à¦¨à¦¤à¦¬":11112,"Ġà¦Ĩà¦Ĺà¦¡":11113,"Ġà¦Ĩà¦Ĺà¦ļ":11114,"Ġà¦Ĩà¦Ĺà¦°à¦ĵà¦¯":11115,"à¦¬à¦²à¦¶":11116,"à¦¬à¦²à¦¤à¦®":11117,"à¦¬à¦²à¦Ŀà¦²":11118,"à¦¬à¦²à¦Ŀà¦²à¦ķ":11119,"Ġà¦Ĩà¦¬à¦ľ":11120,"Ġà¦Ĩà¦¬à§°":11121,"à¦ķà¦°à¦ĸ":11122,"à¦ķà¦°à¦Ĺ":11123,"à¦ķà¦²à¦¶":11124,"Ġà¦¢à¦¨":11125,"à¦ķà¦Łà¦¨":11126,"à¦ķà¦Łà¦°à¦¦":11127,"à§ģà¦ģâĢ¦âĢĻ":11128,"Ġà¦¬à¦¨à¦²":11129,"Ġà¦¬à¦¨à¦¯":11130,"Ġà¦¬à¦¨à¦ľà¦¨":11131,"Ġà¦¬à¦¨à¦ĺ":11132,"Ġà¦¬à¦¨à¦Ĺà¦®à¦¨":11133,"à¦ĥ!âĢĻ":11134,"à¦°à¦¥à¦ª":11135,"Ġà¦Ĺà¦²à¦«":11136,"à¦¸à¦¬à¦¯":11137,"à¦¸à¦¬à¦¶à¦¤":11138,"Ġà¦ħà¦¸à¦®à§Ł":11139,"Ġà¦ħà¦¸à¦«à¦²à¦¤":11140,"à§ĭà¥¤âĢ¦":11141,"à§ĭà¥¤âĢĺ":11142,"Ġà¦Ĩà¦ªà¦¨à¦ľà¦¨à¦¦":11143,"à¦¯à¦¬à¦¶":11144,"à¦¯à¦¬à¦¦à¦²":11145,"à¦°à¦¸à¦¡":11146,"à¦°à¦¸à¦«":11147,"à¦°à¦¸à¦°à¦®":11148,"à¦°à¦¸à¦®à¦¯":11149,"à¦²à¦ķà¦ĩ":11150,"à¦²à¦ķà¦¡":11151,"à¦°à¦¥à¦®à¦¤à¦®":11152,"à¦¾à¦Ĥ!âĢĿ":11153,"à¦¾à¦ĤâĢĻ-":11154,"Ġà¦ıà¦²à¦ıà¦¸":11155,"à¦¨à¦ĵà§Ł":11156,"à¦¨à¦ĵà¦¸à¦¬":11157,"à¦¨à¦ĵà¦Ĺà¦¤":11158,"Ġà¦¹à¦¤à¦ķ":11159,"Ġà¦¹à¦¤à¦ıà¦ĩ":11160,"à¦¤à¦¨à¦ª":11161,"à¦¤à¦¨à¦ŀ":11162,"à¦¤à¦¨à¦¤à¦°":11163,"à§ĩâĢĶà¥¤âĢĻ":11164,"à¦ķà¦¤à¦Ĺ":11165,"à¦ķà¦¤à¦ĵ":11166,"à¦ķà¦¤à¦ķà¦Ĺ":11167,"à§ĩà¦ģà¥¤âĢĻ":11168,"à§ĭ,-":11169,"à§ĭ,âĢĵ":11170,"à§ĭ,âĢĿâĢĶ":11171,"Ġà¦¬à¦°à¦¦à¦¨":11172,"Ġà¦¬à¦°à¦Ĺà¦¦":11173,"à¦Ĺà¦²à¦ĸ":11174,"à¦Ĺà¦²à¦ĺ":11175,"à¦Ĺà¦²à¦Ĩà¦®":11176,"à¦Ĺà¦²à¦ľà¦®":11177,"à¦Ĺà¦²à¦®à¦¹à¦²":11178,"Ġà¦īà¦łà¦²à¦°":11179,"Ġà¦īà¦łà¦²à¦¦":11180,"à¦¿à¦Ĥà¥¤âĢĿ":11181,"à¦¿à¦ĤâĢĿà¥¤":11182,"à¦¿à¦Ĥ),":11183,"à¦°à¦¨à¦¦":11184,"à¦¬à¦ªà¦¶":11185,"Ġà¦¶à¦¬à¦ľ":11186,"à¦¬à¦¤à¦Ĺ":11187,"à¦¬à¦¤à¦ķà¦¨":11188,"Ġà¦®à¦¹à§İà¦¸":11189,"Ġà¦īà¦¦à¦Ļ":11190,"Ġà¦īà¦¦à¦°à¦¸":11191,"Ġà¦ĺà¦°à¦°":11192,"Ġà¦ĺà¦°à¦ĵà¦¯":11193,"Ġà¦ĺà¦°à¦ĸà¦°à¦ļ":11194,"à¦ħà¦¡":11195,"à¦ħà¦¬à¦²":11196,"à¦ħà¦ķà¦°":11197,"à¦ħà¦ķà¦²":11198,"à¦ħà¦¤à¦¨":11199,"à¦ħà¦°à¦¯":11200,"à¦ħà¦ļà¦²":11201,"à¦ħà¦ªà¦Ł":11202,"à¦ħà¦¯à¦¥":11203,"à¦ħà¦¦à¦®":11204,"à¦ħà¦Ĺà¦£":11205,"à¦ħà¦¸à¦°à¦ķ":11206,"à¦ħà¦ĸà¦£":11207,"Ġà¦Ĩà¦¨à¦®":11208,"à¦Ĩà¦®à¦¦":11209,"à¦¦à¦°à¦ĵ":11210,"à¦ĩà¦²à¦°":11211,"à¦ĩà¦²à¦ļ":11212,"Ġà¦īà¦ªà¦§":11213,"Ġà¦īà¦ªà¦®à¦¨":11214,"Ġà¦īà¦ªà¦¬à¦¨":11215,"Ġà¦ħà¦¤à¦ªà¦°":11216,"Ġà¦ħà¦¤à¦¬à§ľ":11217,"Ġà¦¸à¦¨à¦¨":11218,"à¦Ĺà¦¤à¦¤":11219,"à¦Ĺà¦¤à¦ª":11220,"à¦¤à¦¬à¦Ł":11221,"à¦¤à¦¬à¦¶":11222,"à¦¤à¦¬à¦Ĺ":11223,"à¦¤à¦¬à¦ļ":11224,"à¦¤à¦¬à¦Ń":11225,"à¦¤à¦¬à¦¸à¦¨":11226,"Ġà¦ķà¦²à¦Ĺ":11227,"Ġà¦ķà¦²à¦¹à¦ª":11228,"à¦®à¦¤à¦ª":11229,"à¦®à¦¤à§İà¦ªà¦°à¦¤":11230,"à¦Ľà¦¨à¦ª":11231,"à¦¯à¦ķà¦£":11232,"à¦¯à¦ķà¦ĵ":11233,"Ġà¦Ĩà¦ķà¦¶":11234,"Ġà¦¯à¦ĸà¦¨à¦ķ":11235,"à¦¶à¦¨à¦Ĺà¦°":11236,"Ġà¦ľà¦²à¦®à¦£":11237,"Ġà¦ľà¦²à¦¸à¦®":11238,"Ġà¦ľà¦²à¦Ľà¦¡":11239,"à¦²à¦¤à¦ĩ":11240,"à¦²à¦¤à¦ª":11241,"Ġà¦°à¦ķà¦¸":11242,"à¦®à¦ķà¦®":11243,"à¦®à¦ķà¦°à¦£à¦ĵ":11244,"à¦ļà¦¨à¦®":11245,"à¦ļà¦¨à¦¸":11246,"à¦ļà¦¨à¦¦":11247,"Ġà¦¸à¦°à¦¯":11248,"à¦ªà¦¦à¦¸à¦Ń":11249,"Ġà¦ıà¦¤à¦²":11250,"Ġà¦Ĩà¦¶à¦ķà¦¥":11251,"à¦°à¦¹à¦°à¦Ł":11252,"à¦²à¦¬à¦ĩ":11253,"à¦°à¦ľà¦¸":11254,"à¦°à¦ľà¦ľ":11255,"à¦¨à¦¬à¦ľà¦Ĺà¦¤":11256,"à¦¨à¦¬à¦¦à¦°à¦¦":11257,"Ġà¦ĵà¦ªà¦°à¦®à¦¹à¦²":11258,"Ġà¦ħà¦ªà¦¥":11259,"Ġà¦ħà¦ªà¦ķà¦²":11260,"Ġà¦ħà¦ªà¦Ĺà¦¤":11261,"Ġà¦ħà¦ªà¦ļà¦¨":11262,"Ġà¦ħà¦ªà¦¯à¦¶":11263,"à¦®à¦²à¦¤à¦°":11264,"Ġà¦¸à¦¹à¦¬à¦¤":11265,"Ġà¦¸à¦¹à¦ħà¦¬à¦¸":11266,"à¦²à¦¨à¦¶":11267,"à¦²à¦¨à¦ĸ":11268,"à¦²à¦¨à¦Ń":11269,"à¦²à¦¨à¦ķà¦°":11270,"à¦²à¦¨à¦Ĺà¦°":11271,"à¦²à¦¨à¦®à§Ł":11272,"à¦¦à¦¨à¦¨":11273,"à¦¦à¦¨à¦Ĺà¦°":11274,"à¦¦à¦¨à¦¸à¦¹":11275,"à¦ĩà¦¨à¦¦":11276,"à¦ĩà¦¨à¦ª":11277,"à¦ĩà¦¨à¦¶":11278,"à¦ĩà¦¨à¦ļ":11279,"à¦ĩà¦¨à¦Ń":11280,"à¦ĩà¦¨à¦¬à¦¨":11281,"à¦¾âĢĶâĢĵ":11282,"à¦°à¦¯à¦¯":11283,"à¦¼à§ĭà¦ĥ":11284,"à¦¼à§ĭ?âĢĿ":11285,"Ġà¦Ĩà¦¤à¦¶":11286,"Ġà¦ĺà¦Łà¦ķ":11287,"Ġà¦ĺà¦Łà¦®":11288,"Ġà¦ĺà¦Łà¦ľ":11289,"Ġà¦ĺà¦Łà¦ĺà¦Ł":11290,"à¦ķà¦¬à¦¦à¦²":11291,"à¦§à¦ķà¦£":11292,"à¦§à¦ķà§°":11293,"Ġà¦ıà¦ĸà¦ĸ":11294,"Ġà¦ıà¦ĸà¦¬à¦°":11295,"à¦ıà¦ĩà¦¦":11296,"à¦¯à¦¤à¦ª":11297,"à¦¹à¦°à¦ª":11298,"à¦Łà¦ķà¦ķ":11299,"à¦Łà¦ķà¦¶":11300,"à¦Łà¦ķà¦¹":11301,"Ġà¦ķà¦¬à¦¯":11302,"Ġà¦ķà¦®à¦¸":11303,"Ġà¦ķà¦®à¦¦":11304,"Ġà¦ıà¦Ĺà¦¨":11305,"âĢ¦\"":11306,"âĢ¦!âĢĿ":11307,"âĢ¦âĢ¦.":11308,"à¦¨à¦¨à¦¸":11309,"à¦¨à¦¨à¦¦":11310,"à¦¸à¦¨à¦°":11311,"à¦¸à¦¨à¦Ĺ":11312,"à¦¸à¦¨à¦ªà¦°":11313,"à¦¸à¦¨à§İ":11314,"à¦¸à¦¨à¦ķà¦°":11315,"à¦Ńà¦¬à¦¸":11316,"à¦Ńà¦¬à¦¶à¦ķ":11317,"Ġà¦ªà§ľà¦¶":11318,"Ġà¦ĵà¦ĩà¦Ĺ":11319,"à¦¿?âĢĵ":11320,"à¦¿?ï»¿":11321,"Ġà¦Ĩà¦°à¦ĵà¦ĩ":11322,"Ġà¦ķà¦¤à¦Ń":11323,"Ġà¦ķà¦¤à¦ľà¦¨à¦ķ":11324,"Ġà¦¬à¦Ľà¦°à¦Ńà¦°":11325,"Ġà¦¬à¦ĩà¦ļ":11326,"Ġà¦¬à¦ĩà¦ıà¦°":11327,"Ġà¦¬à¦ĩà¦Ńà¦°":11328,"à¦®à¦°à¦Ĺ":11329,"à¦ļà¦²à¦ĵ":11330,"à¦®à¦£à¦¶":11331,"à¦¤à¦²à¦¦":11332,"à¦¤à¦²à¦Ń":11333,"Ġà¦ħà¦ľà¦²":11334,"Ġà¦īà§İà¦ĸà¦¨à¦¨":11335,"Ġà¦¬à¦¹à¦ķ":11336,"Ġà¦¬à¦¹à¦°à¦ķ":11337,"Ġà¦¬à¦¹à¦¨à¦¯":11338,"à§Ģ,-":11339,"à¦¸à¦®à¦ŀ":11340,"Ġà¦ħà¦ļà¦ķ":11341,"à¦·à¦ķà¦ľ":11342,"à¦·à¦ķà¦¦à¦²":11343,"à¦¬à¦¦à¦¶":11344,"à¦¬à¦¦à¦®à¦¨à¦ķ":11345,"à¦²à¦²à¦ĵà¦¹":11346,"à¦¯à¦®à¦¬":11347,"à¦¯à¦®à¦Ł":11348,"à¦¯à¦®à¦¦":11349,"à¦¯à¦®à¦§":11350,"Ġà¦ĩà¦¨à¦ļ":11351,"Ġà¦ĩà¦¨à¦¸à¦²":11352,"Ġà¦ĩà¦¨à¦«à¦°":11353,"à¦¸à¦°à¦Ļ":11354,"à¦¤à¦ķà¦ĩ":11355,"à¦¤à¦ķà¦ª":11356,"Ġà¦Ĺà¦°à¦°":11357,"à¦¦à¦²à¦Ĺà¦¤":11358,"à¦ļà¦ķà¦ĵ":11359,"Ġà¦ħà¦®à¦¸":11360,"Ġà¦ħà¦®à¦²à¦¤":11361,"Ġà¦ªà¦¦à¦ĩ":11362,"Ġà¦ªà¦¦à¦Ĺ":11363,"Ġà¦ªà¦¦à¦¦à¦²":11364,"Ġà¦ªà¦¦à¦¶à¦¬":11365,"Ġà¦ªà¦¦à¦ªà¦¥":11366,"à¦¼à§ĩà¥¤âĢ¦":11367,"à¦Ĺà¦°à¦ĸ":11368,"à¦¨à¦Łà¦Ł":11369,"à¦¤à¦¤à¦¦":11370,"à§°à¦Ĺà¦¤":11371,"à§°à¦¸à¦®":11372,"à¦ıà¦ķà¦ļ":11373,"à¦ıà¦ķà¦Ń":11374,"à¦ıà¦ķà¦Ŀ":11375,"à¦ıà¦ķà¦ĩà¦Ń":11376,"à¦ıà¦ķà¦ĺà¦£":11377,"à¦¤à¦®à¦¦":11378,"à¦¤à¦®à¦§":11379,"à¦¤à¦®à¦¹à¦²":11380,"Ġà¦ħà¦ªà¦°à¦ª":11381,"Ġà¦¶à¦°à¦Ĺ":11382,"Ġà¦¶à¦°à¦¬à¦¨":11383,"Ġà¦Ĺà¦¨à§İà¦ķ":11384,"Ġà¦Ĳà¦ĸ":11385,"Ġà¦Ĳà¦¸à¦¬":11386,"Ġà¦Ĳà¦®à§Ŀ":11387,"à¦°à¦Ľà¦¡":11388,"à¦ªà¦ķà¦ĩ":11389,"à¦ªà¦ķà¦¤à¦°":11390,"Ġà¦°à¦Ļà¦¤":11391,"Ġà¦°à¦Ļà¦ĩ":11392,"Ġà¦°à¦Ļà¦ª":11393,"Ġà¦°à¦Ļà¦®à¦ŀ":11394,"Ġà¦°à¦Ļà¦®à¦¹à¦²":11395,"à§ģ,âĢĻ":11396,"à§ģ,âĢĿâĢĶ":11397,"à¦°à¦ļà¦ĵ":11398,"à¦¶à¦ķà¦ĩ":11399,"à¦¶à¦ķà¦¹":11400,"à¦¶à¦ķà¦¥":11401,"à¦°à¦Ńà¦¨":11402,"à¦ĩà¦ķà¦ª":11403,"à¦Łà¦²à¦ĩ":11404,"à¦Łà¦²à¦ĵ":11405,"Ġà¦Ĩà¦§à¦°":11406,"Ġà¦Ĩà¦§à¦²":11407,"à¥¤âĢĻ[":11408,"à¦¼à§ĩ,âĢĻ":11409,"à¦¼à§ĩ,âĢĿ":11410,"à§ĩ!âĢĻâĢĶ":11411,"à§ĩà¥¤âĢĿâĢĶ":11412,"à¦¶à¦¬à¦ļà¦°à¦£":11413,"âĢĮ,":11414,"âĢĮâĢĶ":11415,"Ġà¦ħà¦²à¦Ĺ":11416,"à¦¬à¦¬à¦¹":11417,"Ġà¦ħà¦¬à¦¶à¦ĩ":11418,"à¦¯à¦¸à¦®à¦¯":11419,"à¦¸à¦«à¦°à¦®":11420,"à§ģà¥¤âĢĺ":11421,"à§ģà¦ĥâĢĶ":11422,"Ġà¦Ńà¦¬à§İ":11423,"à§įâĢĮâĢĵ":11424,"à§įâĢĮà¥¤âĢĻ":11425,"à§įâĢĮ!âĢĻ":11426,"à¦¯à¦¦à§Ł":11427,"à¦¹à¦¨à¦°":11428,"à¦¹à¦¨à¦Ń":11429,"à¦ĩà¦Łà¦¬":11430,"à¦ĩà¦Łà¦ĵ":11431,"à¦ĸà¦Ľà¦ĩ":11432,"à¦¾!!":11433,"à¦¾!)":11434,"à¦¾!âĢĶ":11435,"Ġà¦īà¦ªà¦°à¦¸":11436,"à¦ķà¦¨à¦ª":11437,"à¦ķà¦¨à¦ļà¦¨":11438,"à¦Ĺà¦ľà¦¸":11439,"à¦Ĺà¦ľà¦Ń":11440,"Ġà¦Īà¦Ĺà¦²":11441,"Ġà¦Īà¦¦à¦Ĺ":11442,"Ġà¦Īà¦·à¦¦":11443,"Ġà¦¶à¦¤à¦§":11444,"Ġà¦¶à¦¤à¦¸à¦¹à¦¸":11445,"Ġà¦Ĩà¦¡à¦²à¦«":11446,"Ġà¦°à¦ĩà¦²à¦¬":11447,"Ġà¦°à¦ĩà¦²à¦ĩ":11448,"à¦¨à¦¦à¦¶":11449,"à¦ªà¦¸à¦ľ":11450,"Ġà¦ĸà¦¬à¦°à¦ªà¦¤":11451,"à§ĩ;âĢĶ":11452,"à¦¨à¦¸à¦¦":11453,"à¦¨à¦¸à¦¡":11454,"à¦¨à¦¸à¦ŀ":11455,"à¦¨à¦¸à¦ķà¦¨":11456,"à¦°à¦Ĺà¦ķ":11457,"à¦°à¦Ĺà¦£à¦ķ":11458,"à¦¸à¦ķà¦¯":11459,"à¦¸à¦ķà¦®":11460,"à¦¸à¦ķà¦Ń":11461,"à¦§à¦¤à¦Ń":11462,"à¦¦à§Łà¦ĵ":11463,"à¦ıà¦¬à¦®à¦¸":11464,"à¦ľà¦¬à¦ľ":11465,"Ġ(âĢľ":11466,"Ġ(?)":11467,"Ġà¦ıà¦¨à¦ľà¦¯":11468,"à¦ľà¦²à¦®":11469,"à¦ľà¦²à¦¬à¦¨":11470,"à§ĭâĢĶâĢĻ":11471,"à¦°à¦®à¦£à¦²":11472,"à¦°à¦®à¦£à¦®":11473,"à¦°à¦®à¦£à¦Ĺà¦²":11474,"à¦¼à§Ģà¥¤âĢĿ":11475,"à¦¼à§ģâĢĵ":11476,"à¦¨à¦Ĺà¦®":11477,"à¦«à¦²à¦¸":11478,"à¦Łà¦¬à§ľ":11479,"à¦Łà¦¬à¦ī":11480,"Ġà¦ĭà§Ł":11481,"Ġà¦ĭà¦ķà¦¬":11482,"Ġà¦¸à¦¹à¦ľà¦ĵ":11483,"Ġà¦īà§İà¦¸à¦ĩ":11484,"à¦ªà¦·à¦ľ":11485,"à¦Ĺà¦¬à¦Ĺà¦Ł":11486,"Ġà¦ĺà¦¨à¦ľà¦Ļ":11487,"Ġà¦Ĩà¦ªà¦£":11488,"à¦²à¦®à¦Ł":11489,"à¦²à¦®à¦¦":11490,"à¦²à¦®à¦¶à¦²":11491,"à¦®à¦¸à¦¹":11492,"Ġà¦¬à¦ķà¦ª":11493,"à¦¹à¦¤à¦ĩ":11494,"Ġà¦ķà¦²à¦ķà¦ľ":11495,"à¦¾âĢĵâĢĵ":11496,"à¦ľà¦ķà¦®":11497,"à§İà¦¸à¦¯":11498,"à¦·à¦®à¦®":11499,"Ġà¦¤à¦¤à¦¸":11500,"à¦¨à¦°à¦Ļ":11501,"Ġà¦¦à¦¶à¦Ń":11502,"à§ĭ?\"":11503,"Ġà¦Ĺà§ľà¦ªà§ľ":11504,"à¦¼âĢĶ)":11505,"à¦ľà¦¸à¦ªà¦¤":11506,"Ġà¦¬à§ľà¦¬":11507,"Ġà¦¬à§ľà¦ľ":11508,"Ġà¦¬à§ľà¦ķà¦°":11509,"à¦ķà¦¶à¦¨à¦ĵ":11510,"à¦¿!âĢĶ":11511,"à¦¼?)":11512,"Ġà¦¬à¦īà¦Ľ":11513,"Ġà¦¬à¦īà¦Ĺ":11514,"Ġà¦¬à¦īà¦¡":11515,"Ġà¦¬à¦īà¦ł":11516,"à¦²à¦Ĺà¦Ł":11517,"à¦²à¦Ĺà¦Ļ":11518,"à¦ķà¦¡à¦ĩà¦¨":11519,"à¦ªà¦£à¦ĩ":11520,"à¦²à¦¸à¦ĵ":11521,"à¦²à¦¸à¦ıà¦°":11522,"à¦¦à¦®à¦§":11523,"Ġà¦¨à¦¬à¦Ĺà¦¡":11524,"à¦¶à¦²à¦¯":11525,"à¦®à¦¹à¦®":11526,"à¦®à¦¹à§İ":11527,"Ġà§«à§¨":11528,"à¦¬à¦ĩà¦Ĺ":11529,"Ġà¦¨à¦°à¦®à¦¤":11530,"Ġà¦®à¦ľà¦¦":11531,"à¦ĩà¦Ńà¦¸":11532,"à¦¡à¦²à¦°":11533,"Ġà¦Ĺà¦£à¦¦":11534,"Ġà¦Ĺà¦£à¦¶à¦ķ":11535,"à¦®à§Łà¦ķ":11536,"à¦°à§Łà¦¸":11537,"à¦ĩà¦¡à¦¸":11538,"à¦ĩà¦¡à¦¶":11539,"à¦ĩà¦¡à¦Ĺ":11540,"à¦ĩà¦¡à¦¬à¦ĩ":11541,"Ġà¦ªà¦°à¦®à¦§à¦°":11542,"à¦¹à¦°à¦£à¦ķ":11543,"à¦¯à¦ªà¦²":11544,"Ġà¦¶à¦¹à¦°à¦®à¦¯":11545,"Ġà¦Ĩà¦¦à¦°à¦Ł":11546,"à¦®à¦°à¦£à¦¬":11547,"à¦ķà¦¥à¦¯":11548,"à¦ķà¦¥à¦®":11549,"à¦ķà¦¥à¦ŀ":11550,"Ġà¦¸à¦°à¦²à¦ª":11551,"Ġà¦¸à¦°à¦²à¦¤à¦®":11552,"à¦°à¦ĸà¦£":11553,"Ġà¦Ĺà¦°à¦®à¦ĵ":11554,"Ġà¦īà§İà¦¸à¦¬à¦ª":11555,"à¦ķà¦°à¦£à¦ķ":11556,"à¦ķà¦°à¦£à¦Ĺ":11557,"à¦ķà¦°à¦£à¦¹":11558,"à§ĩ?âĢĿà¥¤":11559,"à¦ķà¦¸à¦¦":11560,"à¦ķà¦¸à¦Ń":11561,"à¤¢":11562,"à¤¥":11563,"à¤ĺ":11564,"âĢĻ,-":11565,"à¦ľà¦®à¦ľà¦®":11566,"à¦¡à¦¬à¦¬à¦¨":11567,"à¦°à¦«à¦¤à¦ĩ":11568,"Ġà¦°à¦¸à¦ĩ":11569,"Ġà¦°à¦¸à¦Ń":11570,"Ġà¦°à¦¸à¦®à¦¯":11571,"Ġà¦®à¦²à¦®à¦²":11572,"à§ĩâĢ¦âĢĻà¥¤":11573,"à§ĩ?âĢĻâĢĶ":11574,"à¦ķà¦Ĺà¦ŀ":11575,"à§¦à§«":11576,"à¦®à¦¶à¦¤à¦¬":11577,"à¦®à¦¶à¦°à¦£à¦ķ":11578,",âĢĿâĢĵ":11579,"à¦Ľà¦²à¦ĩ":11580,"à¦Ľà¦²à¦Ń":11581,"à¦®à¦¦à¦¨à¦¬":11582,"à¦²à¦Ńà¦¸":11583,"Ġà¦ķà§Łà¦¦":11584,"Ġà¦ķà§Łà¦ľà¦¨":11585,"à¦Łà¦Ľà¦¡":11586,"à¦¥à¦²à¦ªà¦¦":11587,"à¦¬à¦¹à¦¬":11588,"à¦¬à¦¹à¦®":11589,"à§ĩ:-":11590,"à¦¯à§İà¦®":11591,"Ġà¦ħà¦Łà¦²à¦ķ":11592,"Ġà¦ħà¦Łà¦ªà¦Ł":11593,"âĢ¦âĢĿà¥¤":11594,"à¦ļà§Łà¦¹":11595,"Ġà¦Ĩà¦ĩà¦¨à¦¸à¦®":11596,"à¦¸à¦¹à¦ļà¦°":11597,"Ġà¦®à¦¦à¦¬":11598,"Ġà¦®à¦¦à¦®à¦¤":11599,"à¦Ĩà¦²à¦ĸ":11600,"à¦ĩà¦ľà¦ĵ":11601,"Ġà¦ľà§Łà¦Ł":11602,"Ġà¦ľà§Łà¦ª":11603,"Ġà¦ľà§Łà¦ĵ":11604,"à¦¿âĢĻ!âĢĿ":11605,"à¦¡à¦¬à¦¦à¦¹à¦¨":11606,"à¦¾à¦ĥ/":11607,"à¦¾à¦ĥ?":11608,"à¦¾à¦ĥâĢĶ":11609,"à¦¾à¦ĥâĢ¦":11610,"à¦¾à¦ĥ!âĢĻ":11611,"à¦¯à¦Łà¦¨à¦ķ":11612,"à¦ļà¦°à¦£à¦ĵ":11613,"à¦ľà¦Ĺà¦¦":11614,"à¦ľà¦Ĺà¦¬à¦¨":11615,"à¦·à§Łà¦°":11616,"à¦·à§Łà¦ª":11617,"à¦·à§Łà¦ĵ":11618,"à¦·à§Łà¦Ĺà¦¤":11619,"ince":11620,"inci":11621,"Ġà¦īà¦·à¦¸":11622,"Ġà¦¹à¦ĩà¦¹à¦Ł":11623,"à¦¦à¦¶à¦¦":11624,"à¦¯à¦ķà¦°à¦ĵ":11625,"Ġà¦ıà¦¡à¦¸":11626,"thes":11627,"à¦ĩà¦¦à¦ŀ":11628,"Ġà¦¸à§İà¦¬":11629,"Ġà¦¸à§İà¦ªà¦°":11630,"Ġà¦¸à§İà¦¸à¦Ļ":11631,"à¦¯à¦¤à¦®à¦ĵ":11632,"Ġà¦ĸà¦°à¦ļà¦ĩ":11633,"ani":11634,"à¦¶à¦Ĺà¦Ļ":11635,"Ġà¦Ĩà¦«à¦¶":11636,"à¦²à¦ľà¦«":11637,"à¦®à¦®à¦ŀ":11638,"à¦ķà¦ªà§Ł":11639,"à§«à§®":11640,"ero":11641,"ered":11642,"ercury":11643,"à¦¬à¦°à¦£à¦ĵ":11644,"à§ĩâĢĻ-":11645,"Ġà¦ķà¦ļà¦¸":11646,"Ġà¦Ĺà¦¹à¦¬à¦°":11647,"à¦¾!âĢĿ,":11648,"à¦ªà§ľà¦Ł":11649,"Ġà¦ķà¦²à¦®à¦ĵ":11650,"à§ĭ?âĢĿ,":11651,"Ġà¦Ĩà§ľà¦ļ":11652,"Ġà§¨à§¦à§¦à§¦":11653,"Ġà§¨à§§à§«":11654,"Ġà¦Ĩà¦ĩà¦¸à¦²":11655,"Ġà¦Ĩà¦ĩà¦¡à¦²":11656,"Ġà¦Ĩà¦ĩà¦ıà¦¸":11657,"à¦ªà¦Ĺà¦ŀ":11658,"Ġà¦®à¦¨à¦¨à¦§":11659,"Ġà¦®à¦¨à¦¨à¦ļà¦°":11660,"ala":11661,"als":11662,"alt":11663,"aly":11664,"Ġà¦Ńà¦Ĺà¦ķ":11665,"à§©à§«à§Ń":11666,"à§©à§¯à§®":11667,"à¦ľà§Łà¦ĩ":11668,"à¦ľà§Łà¦ª":11669,"Ġà¦Ķà¦·":11670,"Ġà¦Ķà¦°à¦Ļ":11671,"à¦Īà¦ķ":11672,"Ġà¦Ĩà¦Łà¦·à¦Ł":11673,"Ġà¦Ĩà¦Łà¦¦à¦¶":11674,"à¦¯à¦Ĺà¦ļ":11675,"à¦¯à¦Ĺà§ľ":11676,"à¦ķà¦£à¦¹":11677,"Ġà¦¨à¦°à¦ļà¦¨":11678,"à¦īà¦ĩà¦ļ":11679,"Ġà¦°à¦¥à¦Ł":11680,"Ġà¦¤à¦¨à¦ŀ":11681,"à¦¸à¦°à¦£à¦ķ":11682,"Ġà¦¬à¦¦à¦ĸ":11683,"à¦¾âĢ¦.":11684,"à¦¾âĢ¦à¥¤âĢĿ":11685,"à¦¾âĢ¦à¥¤âĢĻ":11686,"Ġà¦Ńà¦Ĺà¦¬à§İ":11687,"eno":11688,"enus":11689,"ont":11690,"onment":11691,"à¦ĵà¦ĩà¦°à¦ķà¦®":11692,"à§Ńà§©":11693,"à¦Ĺà¦¦à¦ĸà¦²":11694,"Ġà¦¶à¦ªà¦¥à¦ªà¦¤":11695,"à¦¸à¦®à§Łà¦¸":11696,"à¦¯à§Łà¦¹":11697,"Ġà¦ªà¦²à¦ķà¦¬":11698,"à¦¯à¦°à¦ķà¦®à¦ĩ":11699,"à¦·à¦¸à¦ĵ":11700,"âĢĻ-âĢĺ":11701,"Ġà¦Ńà¦°à¦¤à¦¨":11702,"Ġà¦Ĩà¦¬à¦¹à¦¬":11703,"à¦ĸà¦¸à¦ĸà¦¸":11704,"Ġà¦Ŀà¦ķà¦Ŀ":11705,"Ġthy":11706,"Ġthou":11707,"Ġà¦ľà§ľà¦¤":11708,"tiv":11709,"tition":11710,"orn":11711,"ors":11712,"ara":11713,"arb":11714,"are":11715,"arg":11716,"à¦ĭà¦ķ":11717,"à¦ĭà¦ľ":11718,"à¦ĭà§Ł":11719,"à¦ĭà¦Ĺà¦¬":11720,"Ġà¦¤à¦¦à¦ª":11721,"à¦¶à¦¹à¦°à¦Ł":11722,"Ġà¦Ĺà¦łà¦¨à¦¶":11723,"Ġsing":11724,"Ġsec":11725,"Ġsong":11726,"Ġsens":11727,"Ġsud":11728,"Ġsign":11729,"Ġsister":11730,"à¦£à¦Ĺà¦¹":11731,"à¦Ĩà¦¶à¦«":11732,"...à¥¤âĢĿ":11733,"à¦¬à¦Ĺà¦ŀ":11734,"Ġà¦®à¦Ĺà¦§à¦¦":11735,"à¦ħà¦¸à¦¬à¦°":11736,"Ġà¦ıà¦®à¦ıà¦®":11737,"à¦Ĳà¦¨":11738,"à¦ĩà¦¶à¦ľà¦¨":11739,"à¦Ńà§Łà¦Ļ":11740,"Ġà¦ħà¦®à¦°à¦ª":11741,"Ġà¦¬à¦°à¦«à¦¶":11742,"ised":11743,"à¦¬à¦Ľà¦°à¦Ĺ":11744,"à¦ĩà¦«à¦¤":11745,"à¦ĩà¦«à¦¯":11746,"Ġà¦ľà¦¨à¦¸à¦®à¦ķ":11747,"à¦¤à¦¹à¦¬":11748,"Ġà¦ľà¦Ĺà§İà¦Ĺ":11749,"à§ĢâĢĻ!":11750,"edia":11751,"Ġthey":11752,"Ġà¦¸à¦«à¦°à¦ķ":11753,"Ġà¦¸à¦«à¦°à¦Ł":11754,"à¦ļà¦¸à¦ľ":11755,"ates":11756,"ating":11757,"à¦·à¦Ĺà¦¹":11758,"à¦¼à¥¤âĢĻ[":11759,"Ġà¦ĩà¦¹à¦ľ":11760,"Ġcu":11761,"Ġcle":11762,"Ġcre":11763,"Ġche":11764,"Ġcomes":11765,"Ġcaused":11766,"elo":11767,"ely":11768,"elet":11769,"elfie":11770,"Ġwal":11771,"Ġwell":11772,"Ġwould":11773,"itch":11774,"Ġà¦¬à¦ªà¦¨à¦ķ":11775,"Ġbre":11776,"Ġbell":11777,"Ġback":11778,"Ġborn":11779,"Ġà¦ĩà¦īà¦ıà¦«":11780,"astic":11781,"Ġà§©à§©":11782,"Ġà§©à§ªà§¦":11783,"Ġà§©à§¬à§«":11784,"Ġà¤¤":11785,"Ġà¤¦":11786,"Ġà¤ħ":11787,"Ġà¤Ľ":11788,"Ġà¤Ŀ":11789,"Ġà¤Ń":11790,"à§Īà¦ĥ!":11791,"Ġà¦¶à¦®à¦¦à¦®":11792,"Ġà¦īà¦ĩà¦²à¦¸à¦¨":11793,"à§®à§¦":11794,"à¦¼à¦¿à¦Ĥ,":11795,"à¦¼à¦¿à¦ĤâĢĶ":11796,"Ġmap":11797,"Ġmust":11798,"Ġmons":11799,"Ġmiss":11800,"Ġmake":11801,"Ġmarri":11802,"Ġmixed":11803,"à§ĭâĢ¦âĢĻà¥¤":11804,"à¦¨à§Łà¦ļà¦¨":11805,"Ġhas":11806,"Ġhigh":11807,"Ġhap":11808,"Ġhym":11809,"Ġhoriz":11810,"reuse":11811,"à§ĩâĢĿ!":11812,"à¦ļà¦ľà¦¨à¦ĵ":11813,"Ġage":11814,"Ġaway":11815,"Ġagain":11816,"Ġfar":11817,"Ġflow":11818,"Ġà¦ĵà¦¹à¦¹":11819,"à¦¶à¦Ŀà¦¡":11820,"à¦ħà¦ªà¦ķà¦°":11821,"Ġper":11822,"Ġpri":11823,"Ġprom":11824,"Ġposs":11825,"Ġpart":11826,"Ġtrav":11827,"Ġob":11828,"ĠAR":11829,"ĠAb":11830,"ĠAy":11831,"ĠARE":11832,"ĠAVIN":11833,"Ġà¦®à¦°à¦£à¦¦à¦¶":11834,"Ġdel":11835,"Ġdre":11836,"Ġdown":11837,"Ġdesc":11838,"Ġdyn":11839,"Ġdaugh":11840,"ĠĠĠĠĠĠ":11841,"à¦°à¦¬à¦£à¦¯":11842,"à¦¨à¦¶à¦¨à¦Ł":11843,"Ġà¦ĵà¦ľà¦¨à¦Ł":11844,"ĠPl":11845,"ĠPo":11846,"ĠPIN":11847,"à¦Ĺà¦łà¦¨à¦Ł":11848,"à¦ªà¦¶à¦¨à¦Ł":11849,"Ġà¦®à¦¤à¦²à¦¬à¦ĵ":11850,"ĠSout":11851,"ĠSte":11852,"à¦¾âĢ¦âĢĿà¥¤":11853,"à¦¾âĢ¦âĢĿâĢĶ":11854,"aller":11855,"olve":11856,"olation":11857,"à¦Ĺà¦¬à¦¤à¦ª":11858,"igo":11859,"rac":11860,"à§§à§¯à§«":11861,"áĥ£áĥ":11862,"à¦¿âĢ¦âĢĿâĢĶ":11863,"ĠBut":11864,"ĠBang":11865,"à¦īà¦ªà¦Ń":11866,"à¦īà¦ªà¦²à¦ķ":11867,"Ġlater":11868,"à¦¼âĢ¦à¥¤âĢĻ":11869,"à§ĭâĢ¦âĢĿâĢĶ":11870,"à§ĩ!âĢĻâĢĿ":11871,"Ġins":11872,"à¦®à¦²à¦¤à¦²":11873,"Ġà§§à§®à§¦":11874,"Ġà§§à§®à§©à§©":11875,"Ġà§«à§®":11876,"ĠID":11877,"ĠIX":11878,"ĠIron":11879,"Ġno":11880,"Ġnum":11881,"Ġnames":11882,"à¦ħà¦ľà¦Ĺà¦°":11883,"ustice":11884,"Ġà¦ĺà§ľà¦ĺà§ľ":11885,"Ġà¦Ĺà¦²à¦¦à¦ĺ":11886,"ector":11887,"Ġà¦¨à¦ľà¦°à¦Ł":11888,"entrilo":11889,"utum":11890,"à¦¤à¦ļà¦°à¦°":11891,"urn":11892,"uran":11893,"ural":11894,"tions":11895,"à¦°à¦Ŀà¦¡":11896,"Ġà¦īà¦ĩà¦ł":11897,"ĠRain":11898,"ĠRama":11899,"à¦ıà¦ĩà¦ļà¦ıà¦¸à¦¸":11900,"à§ĩâĢĻ,âĢĻ":11901,"à§ĩ,âĢĻâĢĻ":11902,"ĠData":11903,"Ġever":11904,"Ġeach":11905,"Ġearth":11906,"âĢ¦à¥¤âĢĺ":11907,"Ġà¦¬à¦ļà¦¨à¦®à¦¬":11908,"Ġà¦Ĺà¦Ĺà¦¨à¦Ľ":11909,"Ġà¦°à¦ľà¦¤à¦ĵ":11910,"à¤¾à¤Ĥ":11911,"à¤¾à¤ģ":11912,"che":11913,"chà¦²":11914,"à§Ģ?âĢĿâĢĶ":11915,"Ġà§¬à§ª":11916,"Ġà§¬à§«à§¦":11917,"Ġà¦ľà¦¹à¦°à¦¤":11918,"à§ģâĢ¦à¥¤âĢĿ":11919,"à¦·à¦ľà¦¨à¦ĵ":11920,"Ġgen":11921,"Ġgent":11922,"Ġgood":11923,"Ġà¦¬à¦Ĺà¦²à¦¸":11924,"Ġà¦¦à¦°à¦¦à¦¸":11925,"à¦Ĩà¦ļà¦°à¦£à¦ķ":11926,"à¦Ĩà¦ļà¦°à¦£à¦ĩ":11927,"Ġà§Ńà§¨":11928,"Ġà§Ńà§¦à§¦":11929,"Ġà§¨à§¦à§¨à§¦":11930,"ĠTruth":11931,"ĠTHEY":11932,"Ġà¦²à¦¬à¦£à¦ķ":11933,"ĠNO":11934,"à¦Ĩà¦Łà¦ľà¦¨":11935,"act":11936,"aced":11937,"acter":11938,"otol":11939,"otoc":11940,"ĠCA":11941,"ĠCO":11942,"ĠCass":11943,"ĠCaller":11944,"Ġà¦ªà¦Łà¦²à¦Ĺ":11945,"à¦¶à¦§à¦°à¦°":11946,"à§§à§¦à§§":11947,"Ġà¦®à¦Łà¦®à¦Ł":11948,"Ġbefore":11949,"irit":11950,"à¦¯à¦Łà¦ķà¦ķ":11951,"à¦ľà¦¹à¦°à¦¤":11952,"à¦Ĺà¦²à¦ķà¦¬":11953,"à§§à§¨à§«":11954,"Ø§ÛĮ":11955,"Ø§Ùħ":11956,"Ø§Ùĩ":11957,"Ġà¦§à§ľà¦ķà¦¨":11958,"Ġà¦§à§ľà¦®à§ľ":11959,"à¦®à§Łà¦ķà¦°à¦Ń":11960,"ĠLa":11961,"ĠLike":11962,"ĠLtd":11963,"Ġtoo":11964,"à¦Ĭà¦¨à¦¬":11965,"à¦¡à¦īà¦ĩà¦¥":11966,"à¦¡à¦īà¦ĩà¦ļà¦Ĺ":11967,"Ġisolation":11968,"Ġà¦¬à¦Ľà¦°à¦¤":11969,"Ġà¦¬à¦Ľà¦°à¦¬":11970,"Ġà¦¤à¦ªà¦¨à¦¸":11971,"emp":11972,"emy":11973,"à¦ĩà¦®à¦¨à¦ķ":11974,"éŁ¿éŁ¿éŁ¿éŁ¿éŁ¿éŁ¿éŁ¿éŁ¿éŁ¿éŁ¿éŁ¿éŁ¿éŁ¿éŁ¿éŁ¿éŁ¿éŁ¿éŁ¿éŁ¿éŁ¿éŁ¿éŁ¿éŁ¿éŁ¿":11975,"à§ĩà¦ĥ!":11976,"Ġà§§à§¯à§§à§¦":11977,"à§¯à§¨":11978,"Ġà§§à§«à§«à§«":11979,"ade":11980,"à¤¤à¤°":11981,"Ġà¦«à¦²à¦¨à¦¶":11982,"ĠÐ±":11983,"ĠÐ²":11984,"ĠÐ´":11985,"ĠÐ¼":11986,"Ġà§§à§¯à§¨à§«":11987,"Ġà§§à§¯à§©à§®":11988,"ĠGos":11989,"ĠGang":11990,"ĠGIF":11991,"ĠØ¨":11992,"ĠØ¬":11993,"Ġwhose":11994,"ĠHar":11995,"Ġà¦ķà¦®à¦¨à¦ĵà¦¯":11996,"à§§à§Ńà§«à§Ń":11997,"Ġà¦ıà¦ĩà¦ļà¦Ĩà¦°":11998,"à¦ħà¦¬à¦¸à¦°à¦ª":11999,"Ġà¦«à¦²à¦ķà¦Ĺ":12000,"Ġà§¯à§§":12001,"à¸²":12002,"à¸¸":12003,"ĠFar":12004,"ĠFirst":12005,"ification":12006,"str":12007,"stagra":12008,"ĠìĿ":12009,"ĠìŀĲ":12010,"Ġà¦ªà§Łà¦ľà¦¨":12011,"Ġà§§à§¯à§®à§«":12012,"Ġà§§à§¯à§®à§©":12013,"Ð¾Ð½":12014,"Ġknown":12015,"à¥Ģà¤Ĥ":12016,"à¦ıà¦°à¦ĩà¦®à¦§":12017,"ĠEid":12018,"ĠEng":12019,"uman":12020,"ument":12021,"Ġvedic":12022,"Ġventrilo":12023,"Ġà§©à§¦à§ª":12024,"lectin":12025,"ope":12026,"ops":12027,"ople":12028,"à¦¹à¦ľà¦¸à¦¨":12029,"Ġstat":12030,"Ġstory":12031,"Ġnext":12032,"cious":12033,"ciety":12034,"quism":12035,"TECTED":12036,"epend":12037,"Ġà¤¸à¤¤":12038,"ogn":12039,"âĢ¦.à¥¤":12040,"ÐµÐ":12041,"ÐµÑĢ":12042,"ÐµÐ½":12043,"egr":12044,"ÑĢÑĭ":12045,"à¦Ķà¦ªà¦¨":12046,"à¦Ķà¦°à¦Ļ":12047,"à¦Ķà¦ªà¦§":12048,"Ġà¦¤à¦¬à¦²à¦ļ":12049,"Ġà¦ĵà¦ħà¦°à¦«":12050,"à¦ıà¦«à¦ĩ":12051,"ÛĮØ±":12052,"Ġ×Ķ":12053,"à¦¯à¦Łà¦¨à¦¶":12054,"Ġà¦¨à¦¬à¦°à¦¸":12055,"selves":12056,"Ġë°":12057,"à¥ĭà¤Ĥ":12058,"Ġà¦Ĭà¦¨à¦Ĩà¦¶":12059,"INTRU":12060,"ght":12061,"ĠUrvasi":12062,"Ġáĥ©":12063,"ĠáĥĽ":12064,"Ġunion":12065,"Ġà¦ıà¦ķà¦§à¦°à¦£":12066,"Ġà¤ªà¤°":12067,"ossip":12068,"Ġexec":12069,"Ø§Ø¯":12070,"Ø§Ø²":12071,"!!!":12072,"à°¨":12073,"à°¾":12074,"ĠVis":12075,"Ġà§§à§¯à§Ńà§©":12076,"ible":12077,"ividual":12078,"Ġà¦®à§Łà¦®à¦¨à¦¸":12079,"Ġcllectin":12080,"yani":12081,"Ġatms":12082,"à¦Ĩà¦ĩà¦¸à¦¸":12083,"Ø´ÙĨ":12084,"Ø´Ø§Ø±":12085,"à¦°à¦²à§Łà¦Ļ":12086,"Ġà§§à§¯à§«à§§":12087,"Ġà§§à§¯à§«à§¦":12088,"Ġà§§à§¯à§«à§«":12089,"Ġà§§à§¯à§«à§ª":12090,"ĠPartition":12091,"---":12092,"ÑĥÐ»":12093,"à¤ľà¤¨":12094,"Ġà§¨à§¦à§¦à§®":12095,"Ġsoil":12096,"Ġsociety":12097,"à¦īà¦ªà¦ķà¦°à¦£":12098,"Ġmean":12099,"azi":12100,"Ġê°":12101,"Ġà¦¸à§ľà¦ķà¦Ĺ":12102,"ĠInspec":12103,"ĠInstagra":12104,"LED":12105,"pecial":12106,"yme":12107,"Ġà¦¯à¦®à¦¦à¦£":12108,"Ġsuit":12109,"Ġsuch":12110,"Ġà§§à§®à§¬à§Ń":12111,"ĠIntelligence":12112,"000":12113,"ways":12114,"ï¿½ï¿½":12115,"ĠÑģÐ»":12116,"Ġà¦Ĺà¦Ĺà¦¨à¦¬":12117,"à¦ľà¦¨à¦Ĺà¦£à¦®à¦¨":12118,"Ġà¦łà¦¨à¦łà¦¨":12119,"Ġà¤īà¤ľ":12120,"Ġappro":12121,"Ġappears":12122,"à§§à§¯à§¬à§«":12123,"à§§à§¯à§¬à§©":12124,"Ġliteracy":12125,"Ġreflex":12126,"ĠâĨĲâĨ":12127,"Ġà¦¸à¦¦à§Łà¦¤":12128,"à¤ªà¤Ł":12129,"Ġskelet":12130,"ission":12131,"Ġà¤µà¤¹":12132,"Ġà¤ľà¤¹":12133,"Ġplace":12134,"ĠReuse":12135,"ĠRehana":12136,"ÂŃÂŃÂŃÂŃÂŃÂŃÂŃÂŃÂŃÂŃÂŃÂŃÂŃÂŃÂŃÂŃÂŃÂŃÂŃÂŃÂŃÂŃÂŃÂŃÂŃÂŃÂŃÂŃÂŃÂŃÂŃÂŃ":12137,"áĥĲáĥĽ":12138,"DITI":12139,"ync":12140,"Ġalso":12141,"Ġspirit":12142,"Ġcross":12143,"Ġcurios":12144,"à§§à§¯à§©à§¯":12145,"ĠIslam":12146,"ĠUncle":12147,"OOT":12148,"cling":12149,"weet":12150,"à¦ķà¦¸à¦²à¦¸":12151,"à¦¡à¦¬à¦¬à¦§":12152,"ĠâĢĶâĢĶâĢĶâĢĶ":12153,"estim":12154,"Ġthemselves":12155,"Ġbird":12156,"Ġoffend":12157,"áĥķáĥĶáĥ":12158,"Ġinterest":12159,"Ġà§¨à§¦à§Ńà§«":12160,"Ġà§¨à§¦à§Ńà§§à§ªà§«":12161,"Ġregion":12162,"Ġconscious":12163,"ÑĢÐ°Ð¼":12164,"Â·Â·Â·":12165,"Ġtransit":12166,"Ġcontinuous":12167,"crap":12168,"rishna":12169,"Õ½Õ¿":12170,"à±ĩ":12171,"åķı":12172,"ê°Ħ":12173,"ìĿĺ":12174,"Ġvery":12175,"Ġsuper":12176,"recycling":12177,"Ġpoet":12178,"ommun":12179,"radition":12180,"Ġindividual":12181,"Ġglitch":12182,"ĠTraged":12183,"ĠCompany":12184,"ĠChrdata":12185,"Ġrhyme":12186,"Ġdiscern":12187,"Ġtime":12188,"vironment":12189,"Â¦à¦¾":12190,"ÏħÎ":12191,"ÙĤØ¯":12192,"à¦°Ã¦à¦¤":12193,"Ġà¦¶à¦ĵà¦ķà¦¤":12194,"à¦ħà¦¨à¦¬à¦°à¦¤":12195,"Ġthinking":12196,"Ġsending":12197,"ĠĠĊĠĠĠĠĠĠĠĠĠĠĠ":12198,"Ġcultural":12199,"Ġpeople":12200,"Ġpitri":12201,"ĠSmart":12202,"à§§à§¯à§¦à§©":12203,"ĠRecycle":12204,"ĠDETECTED":12205,"ĠTurk":12206,"ĠGandharva":12207,"ĠHowrah":12208,"ĠOrion":12209,"Ġknow":12210,"Ġcontempor":12211,"Ġvillage":12212,"Ġmysterious":12213,"Ġprojector":12214,"Ġheroic":12215,"personalized":12216,"Ġà¦¬ungalow":12217,"ĠOfficeBoss":12218,"Gestalt":12219,"HATTA":12220,"ITIA":12221,"LMS":12222,"Reduce":12223,"Unknown":12224,"YABHATTA":12225,"nÄ±n":12226,"Ġà¦ªà¦ĩà¦ªà¦ĩ":12227,"Ġà¦ľà¦ĵà¦¹à¦°à¦²":12228,"Ġà¦ıà¦²à¦ıà¦¸à¦¡":12229,"inciple":12230,"Ġsudden":12231,"Ġà¦ĩà¦īà¦ıà¦«à¦ĵ":12232,"Ġhymn":12233,"ĠSteel":12234,"utumn":12235,
[...]
