{"[PAD]":0,"[UNK]":1,"[CLS]":2,"[SEP]":3,"!":4,"\"":5,"#":6,"$":7,"%":8,"&":9,"'":10,"(":11,")":12,"*":13,"+":14,",":15,"-":16,".":17,"/":18,"0":19,"1":20,"2":21,"3":22,"4":23,"5":24,"6":25,"7":26,"8":27,"9":28,":":29,";":30,"<":31,"=":32,">":33,"?":34,"@":35,"A":36,"B":37,"C":38,"D":39,"E":40,"F":41,"G":42,"H":43,"I":44,"J":45,"K":46,"L":47,"M":48,"N":49,"O":50,"P":51,"Q":52,"R":53,"S":54,"T":55,"U":56,"V":57,"W":58,"X":59,"Y":60,"Z":61,"[":62,"\\":63,"]":64,"^":65,"_":66,"`":67,"a":68,"b":69,"c":70,"d":71,"e":72,"f":73,"g":74,"h":75,"i":76,"j":77,"k":78,"l":79,"m":80,"n":81,"o":82,"p":83,"q":84,"r":85,"s":86,"t":87,"u":88,"v":89,"w":90,"x":91,"y":92,"z":93,"{":94,"|":95,"}":96,"~":97,"¡":98,"¢":99,"£":100,"¤":101,"¥":102,"¦":103,"§":104,"¨":105,"©":106,"ª":107,"«":108,"¬":109,"®":110,"¯":111,"°":112,"±":113,"²":114,"³":115,"´":116,"µ":117,"¶":118,"·":119,"¸":120,"¹":121,"º":122,"»":123,"¼":124,"½":125,"¾":126,"¿":127,"À":128,"Á":129,"Â":130,"Ã":131,"Ä":132,"Å":133,"Æ":134,"Ç":135,"È":136,"É":137,"Ê":138,"Ë":139,"Ì":140,"Í":141,"Î":142,"Ï":143,"Ð":144,"Ñ":145,"Ò":146,"Ó":147,"Ô":148,"Õ":149,"Ö":150,"×":151,"Ø":152,"Ù":153,"Ú":154,"Û":155,"Ü":156,"Ý":157,"Þ":158,"ß":159,"à":160,"á":161,"â":162,"ã":163,"ä":164,"å":165,"æ":166,"ç":167,"è":168,"é":169,"ê":170,"ë":171,"ì":172,"í":173,"î":174,"ï":175,"ð":176,"ñ":177,"ò":178,"ó":179,"ô":180,"õ":181,"ö":182,"÷":183,"ø":184,"ù":185,"ú":186,"û":187,"ü":188,"ý":189,"þ":190,"ÿ":191,"Ā":192,"ā":193,"Ă":194,"ă":195,"Ą":196,"ą":197,"Ć":198,"ć":199,"Ĉ":200,"ĉ":201,"Ċ":202,"ċ":203,"Č":204,"č":205,"Ď":206,"ď":207,"Đ":208,"đ":209,"Ē":210,"ē":211,"Ĕ":212,"ĕ":213,"Ė":214,"ė":215,"Ę":216,"ę":217,"Ě":218,"ě":219,"Ĝ":220,"ĝ":221,"Ğ":222,"ğ":223,"Ġ":224,"ġ":225,"Ģ":226,"ģ":227,"Ĥ":228,"ĥ":229,"Ħ":230,"ħ":231,"Ĩ":232,"ĩ":233,"Ī":234,"ī":235,"Ĭ":236,"ĭ":237,"Į":238,"į":239,"İ":240,"ı":241,"Ĳ":242,"ĳ":243,"Ĵ":244,"ĵ":245,"Ķ":246,"ķ":247,"ĸ":248,"Ĺ":249,"ĺ":250,"Ļ":251,"ļ":252,"Ľ":253,"ľ":254,"Ŀ":255,"ŀ":256,"Ł":257,"ł":258,"Ń":259,"à¦":260,"à§":261,"Ġà¦":262,"à¦¾":263,"à§ĩ":264,"à¦°":265,"à§į":266,"à¦¿":267,"à¦¨":268,"à¦¤":269,"à¦²":270,"à¦ķ":271,"à¦¯":272,"à§ģ":273,"à¦¬":274,"à¦¼":275,"à¦®":276,"à§ĭ":277,"Ġà¦ķ":278,"Ġà¦¬":279,"Ġà¦¸":280,"à¥":281,"à¥¤":282,"à¦¸":283,"Ġà¦ª":284,"Ġà¦Ĩ":285,"à¦¦":286,"à¦Ł":287,"Ġà¦¨":288,"Ġà¦®":289,"à¦ª":290,"à¦ĩ":291,"à§Ģ":292,"à¦Ľ":293,"Ġà¦¦":294,"à¦ľ":295,"Ġà¦¹":296,"Ġà¦¤":297,"Ġà¦ı":298,"à¦¶":299,"à¦¼à§ĩ":300,"Ġà¦ħ":301,"à¦ĸ":302,"à¦Ĺ":303,"à¦·":304,"à¦§":305,"âĢ":306,"à¦¡":307,"Ġà¦¯":308,"à¦ļ":309,"à¦¹":310,"Ġà¦ķà¦°":311,"à§Ł":312,"Ġà¦Ĺ":313,"à¦£":314,"à¦ģ":315,"à¦¥":316,"Ġà¦¶":317,"Ġà¦ľ":318,"Ġà¦ļ":319,"Ġà¦Ń":320,"Ġà¦°":321,"à§ĩà¥¤":322,"à¦ĵ":323,"à¦Ń":324,"Ġà¦ıà¦ķ":325,"à¦¼à¦¾":326,"à§ĥ":327,"ĠĠ":328,"Ġà¦Ľ":329,"Ġà¦Ĩà¦®":330,"à¦ł":331,"Ġà¦ī":332,"à¦Ĥ":333,"à§Ĥ":334,"à¦¾à¦ģ":335,"à¦Ļ":336,"Ġà¦²":337,"Ġà¦ĵ":338,"Ġà¦¥":339,"à§ĩ,":340,"Ġà¦¬à¦²":341,"Ġà¦«":342,"Ġà¦Ĩà¦°":343,"Ġà¦ĸ":344,"à¦°à¦¤":345,"Ġà¦ħà¦¨":346,"à¦¾à¥¤":347,"Ġà¦¹à¦¯":348,"Ġà¦§":349,"Ġà¦ªà¦°":350,"âĢĶ":351,"Ġà¦¸à¦®":352,"à¦¾,":353,"ĠâĢ":354,"à¦¬à¦¨":355,"à¦¼à¦¿":356,"à§ľ":357,"à¦ĸà¦¨":358,"Ġà¦ĺ":359,"Ġà¦®à¦¨":360,"à¦ªà¦°":361,"Ġà¦ıà¦ķà¦Ł":362,"à¦°à¦£":363,"Ġà¦ıà¦ĩ":364,"à¦¿à¥¤":365,"à¦®à¦¨":366,"à¦Ŀ":367,"à¦ľà¦¨":368,"à¦ŀ":369,"à¦¤à¦°":370,"à¦«":371,"à¦ī":372,"à¦¿,":373,"à¦ªà¦¨":374,"Ġà¦Ĩà¦²":375,"à¦°à¦¬":376,"à¦Ĩ":377,"à§İ":378,"à¦ı":379,"âĢĿ":380,"à¦°à¦ķ":381,"Ġà¦¸à¦¬":382,"à¦¬à¦°":383,"Ġà¦¬à¦²à¦²":384,"Ġà¦Ĩà¦¸":385,"Ġà¦Ł":386,"Ġà¦Ĩà¦Ľ":387,"âĢĻ":388,"Ġà¦ķà¦¥":389,"à¦¼à¥¤":390,"Ġà¦¹à¦²":391,"Ġà¦īà¦ł":392,"Ġà¦¡":393,"ĠâĢľ":394,"à§Ī":395,"Ġà¦ĩ":396,"Ġà¦ªà¦¡":397,"à¦ĺ":398,"Ġà¦®à¦¤":399,"Ġà¦¸à¦Ļ":400,"à¦ĵà¦¯":401,"à§Į":402,"Âł":403,"Ġà¦ľà¦¨":404,"Ġà¦¹à¦¬":405,"ĠĠĊ":406,"Ġà¦§à¦°":407,"Ġà¦Ŀ":408,"à¦¬à¦²":409,"Ġà¦ıà¦¬":410,"à¦¼,":411,"ĠâĢĺ":412,"à¦¬à¦ª":413,"Ġà¦ħà¦¬":414,"à¦°à¦®":415,"Ġà¦ķà¦°à¦¤":416,"à§ģà¦ģ":417,"Ġà¦ļà¦²":418,"Ġà¦ł":419,"à¦·à¦£":420,"à¦¨à¦¤":421,"ÂłÂł":422,"Ġà¦ķà¦°à¦²":423,"Ġà¦ıà¦¸":424,"âĢĵ":425,"Ġà¦¬à¦¸":426,"Ġà¦®à¦§":427,"Ġà¦Ĩà¦ľ":428,"Ġà¦¢":429,"à¦¤à¦¨":430,"à¦ĥ":431,"à§ĭà¦ģ":432,"à¦ħ":433,"Ġà¦¬à¦¨":434,"Ġà¦¨à¦¤":435,"à¦ķà¦²":436,"Ġà¦Ĩà¦¬":437,"Ġà¦ªà¦¥":438,"Ġà¦ħà¦®":439,"Ġà¦Ĩà¦Ĺ":440,"Ġà¦Ĩà¦®à¦°":441,"Ġà¦¨à¦¯":442,"Ġà¦Ĺà¦²":443,"à¦ķà¦°":444,"Ġà¦¹à§Ł":445,"Ġà¦ĵà¦ł":446,"à¦ķà¦Ł":447,"à¦¸à¦¬":448,"Ġà¦ħà¦¸":449,"à¦¯à¦¬":450,"Ġà¦¤à¦¬":451,"à§ĩà¦ģ":452,"à§ĭà¥¤":453,"à¦°à¦¥":454,"à¦°à¦¨":455,"Ġà¦Ĩà¦ķ":456,"à¦¤à¦¬":457,"à¦°à¦¸":458,"à¦²à¦ķ":459,"à¦¨à¦¬":460,"à¦¾à¦Ĥ":461,"à§ĭ,":462,"Ġà¦Ĩà¦¶":463,"Ġà¦Ĩà¦ªà¦¨":464,"à¦¦à¦¨":465,"à¦ķà¦¤":466,"Ġà¦¹à¦¤":467,"Ġà¦¬à¦°":468,"à¦°à¦¥à¦®":469,"Ġà¦¤à¦ĸà¦¨":470,"Ġà¦¸à¦¤":471,"Ġà¦ıà¦ĸà¦¨":472,"à§ĩ?":473,"Ġà¦ıà¦²":474,"Ġà¦ħà¦¦":475,"Ġà¦Ĩà¦¨":476,"à¦Ĩà¦®":477,"Ġà¦īà¦¦":478,"Ġà¦ķà¦°à¦Ľ":479,"à¦¦à¦°":480,"Ġà¦ħà¦°":481,"à¦¾-":482,"à¦Ĺà¦²":483,"Ġà¦ħà¦Ń":484,"Ġà¦ľà¦²":485,"à¦²à¦¤":486,"à¦Ĺà¦¤":487,"à¦¦à¦¯":488,"Ġà¦¸à¦®à¦¯":489,"Ġà¦¶à¦¬":490,"à¦¿à¦Ĥ":491,"à¦¶à¦¨":492,"à¦®à¦¤":493,"Ġà¦ħà¦¤":494,"à¦¯à¦ķ":495,"Ġà¦¸à¦¨":496,"à¦§à¦ķ":497,"à¦°à¦¹":498,"Ġà¦ĺà¦°":499,"Ġà¦¯à¦¦":500,"Ġà¦īà¦łà¦²":501,"Ġà¦°à¦ķ":502,"à¦¹à¦¸":503,"à¦ļà¦¨":504,"à¦²à¦¨":505,"Ġà¦ķà¦°à¦¬":506,"Ġà¦®à¦¹":507,"Ġà¦īà¦ª":508,"Ġà¦¸à¦°":509,"à¦°à¦¶":510,"à¦ĸà¦¤":511,"à¦°à¦¯":512,"à¦¬à¦¤":513,"Ġà¦¯à¦ĸà¦¨":514,"à¦¨à¦ĵ":515,"à¦Ľà¦¨":516,"à¦ĩà¦²":517,"à¦¯à¦¤":518,"à¦®à¦²":519,"à¦ĸà¦²":520,"à¦§à¦¨":521,"à¦®à¦¯":522,"à¦²à¦¬":523,"à§ĩâĢĶ":524,"Ġà¦¨à¦¦":525,"à¦°à¦¦":526,"à¦°à¦ľ":527,"Ġà¦¬à¦¡":528,"Ġà¦ħà¦ª":529,"Ġà¦ıà¦®à¦¨":530,"à¦°à¦²":531,"Ġà¦ķà¦²":532,"Ġà¦ħà¦§":533,"à¦¼à§ĭ":534,"à¦ļà¦²":535,"Ġà¦¸à¦¹":536,"à¦ĵà§Ł":537,"à¦ªà¦¤":538,"à¦®à¦ķ":539,"Ġà¦¹à¦ļ":540,"à¦°à¦ĩ":541,"Ġà¦ķà¦ĸà¦¨":542,"à¦¹à¦°":543,"Ġà¦īà¦¤":544,"ÂłÂłÂłÂł":545,"Ġà¦Ĩà¦¤":546,"Ġà¦ıà¦¤":547,"à¦¿à¦ĥ":548,"Ġà¦ĵà¦°":549,"à¦¸à¦¨":550,"Ġà¦Ńà¦°":551,"à¦ĩà¦¨":552,"Ġà¦¶à¦ķ":553,"à¦¨à¦¨":554,"à¦ķà¦¬":555,"à¦ıà¦ĩ":556,"Ġà¦ľà¦®":557,"Ġà¦ħà¦ļ":558,"Ġà¦ķà¦£":559,"à§ĩ-":560,"Ġà¦ķà¦¬":561,"Ġà¦¹à¦ł":562,"à¦°à¦ªà¦°":563,"à¦¸à¦®":564,"à¦Ńà¦¬":565,"à§Ģ,":566,"à¦¿-":567,"Ġà¦Ĺà¦¡":568,"à¦Łà¦ķ":569,"Ġà¦ıà¦ĸ":570,"à¦Ľà¦°":571,"Ġà¦ªà§ľ":572,"Ġà¦ħà¦ľ":573,"à¦¹à¦²":574,"Ġà¦ĺà¦Ł":575,"Ġà¦īà¦¨":576,"Ġà¦ĵà¦ªà¦°":577,"Ġà¦ĩà¦¤":578,"Ġà¦Ĳ":579,"à¦¯à¦¨":580,"Ġà¦ķà¦¤":581,"âĢ¦":582,"Ġà¦ķà¦®":583,"Ġà¦¬à¦²à¦¤":584,"à¦¤à¦²":585,"Ġà¦¬à¦¹":586,"Ġà¦Ľà¦¡":587,"à¦¾âĢĶ":588,"à¦Ĺà¦¨":589,"Ġà¦¬à¦¯":590,"Ġà¦¤à¦°":591,"Ġà¦¬à¦Ľà¦°":592,"à¦Ĺà¦°":593,"à§ĩ!":594,"Ġà¦°à¦Ļ":595,"Ġà¦¸à¦ķ":596,"Ġà¦¯à¦¤":597,"Ġà¦īà§İ":598,"Ġà¦¸à¦®à¦¸":599,"Ġà¦ıà¦Ĺ":600,"Ġà¦ªà¦¦":601,"à¦®à¦°":602,"Ġà¦īà¦ļ":603,"à¦°à¦Ń":604,"à¦¸à¦°":605,"Ġà¦ıà¦Ł":606,"âĢľ":607,"Ġà¦¦à¦°à¦ľ":608,"à¦ªà¦¦":609,"Ġà¦Ńà¦¯":610,"à¦¦à§Ł":611,"Ġà¦¶à¦°":612,"à¦°à¦ĵ":613,"à¦¶à¦¬":614,"Ġà¦ħà¦Ĺ":615,"à¦ªà¦¥":616,"Ġà¦¨à§Ł":617,"à¦¼à§ĩà¥¤":618,"Ġà¦ħà¦®à¦²":619,"à¦®à¦£":620,"à¦¿?":621,"à¦ıà¦ķ":622,"Ġà¦ħà¦¥":623,"âĢĮ":624,"Ġà¦Ĩà¦°à¦ĵ":625,"à¦¾?":626,"Ġà¦ıà¦°":627,"à¥¤âĢĿ":628,"Ġà¦Ĺà¦¨":629,"Ġà¦®à¦°":630,"à¦¨à¦ķ":631,"Ġà¦ħà¦ķ":632,"Ġà¦¶à¦¹à¦°":633,"Ġà¦Ĺà¦°":634,"à¦¦à¦²":635,"Ġà¦Ĺà¦Ń":636,"à¦°à¦ª":637,"Ġà¦¬à¦ĩ":638,"à¦¬à¦¸":639,"Ġà¦ħà¦ªà¦°":640,"à¦Łà¦²":641,"à§Ģà¥¤":642,"à¦ĩà¦°":643,"à¦·à¦¤":644,"à§įâĢĮ":645,"à¦¬à¦¦":646,"Ġà¦«à¦²":647,"à¦·à¦ķ":648,"Ġà¦Ľà¦¬":649,"à¦¸à¦¤":650,"à¦¯à¦®":651,"à§§":652,"à¦ļà¦¯":653,"à¦¤à¦ķ":654,"Ġà¦²à¦ķ":655,"à¦°à¦Ł":656,"à§ģ,":657,"à¦¿à¦ģ":658,"à§İà¦ķ":659,"à¦Ŀà¦¤":660,"à¦¨à¦Ł":661,"à§ģà¦ĥ":662,"Ġà¦¬à¦²à¦Ľ":663,"Ġà¦ĵà¦ĩ":664,"à¦¤à¦®":665,"à¦ħà¦¨":666,"à¦¿âĢĶ":667,"à¦¾!":668,"à¦ļà¦ķ":669,"à¦¯à¦¬à¦¸":670,"à¦²à¦²":671,"à¦¼à§ĩ,":672,"à¦®à¦¬":673,"Ġà¦ħà¦¨à¦¨":674,"à¦ªà¦ķ":675,"à¦ľà¦²":676,"Ġà¦Ĩà¦¨à¦¨":677,"à¦·à¦¯":678,"ĠĊ":679,"Ġà¦ħà¦¶":680,"à¦¬à¦ķ":681,"à¦¸à¦²":682,"Ġà¦ĩà¦¨":683,"à¦¨à¦¦":684,"à§ĩ;":685,"à¦°à¦¬à¦¤":686,"à¦ļà¦°":687,"Ġà¦°à¦¬":688,"à¦£à¦¤":689,"à¦¶à¦ķ":690,"à¦¸à¦Ļ":691,"à¦¯à¦¬à¦¹":692,"Ġà¦ķà¦¯":693,"Ġà¦ıà¦ķà¦¦":694,"à¦¢":695,"à¦°à¦ļ":696,"à¦°à¦Ľ":697,"Ġà¦Ĩà¦§":698,"à¦¤à¦¤":699,"à§Łà¦¨":700,"Ġà¦ĩà¦ļ":701,"à¦ĩà¦ķ":702,"à§ģâĢĻ":703,"à¦°à¦ķà¦®":704,"Ġà¦Ĩà¦¸à¦Ľ":705,"Ġà¦ħà¦¬à¦¸":706,"Ġà¦ħà¦²":707,"à¦¯à¦¸":708,"à¦¬à¦¬":709,"Ġà¦ıà¦ķà¦¬":710,"Ġà¦īà¦ªà¦°":711,"Ġà¦ıà¦ķà¦ľà¦¨":712,"à§Įà¦ģ":713,"à¦§à¦¤":714,"à¦ĩà¦¯":715,"Ġà¦Ńà¦¬":716,"à¦¹à¦¨":717,"Ġà¦Ĩà¦ľà¦ķ":718,"Ġà¦Ĩà¦¸à¦²":719,"Ġà¦Ĩà¦¡":720,"Ġà¦ħà¦Ļ":721,"à¦¯à¦¦":722,"à§ĩà¥¤âĢĿ":723,"à¦ªà¦Ł":724,"à¦¼à§ģ":725,"à¦¬à¦¯":726,"Ġà¦Ĺà¦¤":727,"Ġà¦ħà¦¬à¦¶":728,"à¦ľà¦°":729,"à¦ĸà¦¬":730,"!âĢĿ":731,"à¦ķà¦¨":732,"Ġà¦°à¦¹à¦¸":733,"à¦¸à¦ķ":734,"Ġà¦ªà¦¤":735,"à§°":736,"Ġà¦Ŀà¦°":737,"à¦¸à¦«":738,"à¦ĺà¦°":739,"Ġà¦¶à¦¤":740,"Ġà¦īà¦²":741,"à§§à§":742,"à§ģ-":743,"Ġà¦¦à¦²":744,"à§ģà¥¤":745,"Ġà¦¨à¦¬":746,"à¦¨à¦²":747,"Ġà¦īà¦ľ":748,"Ġà¦¸à¦ķà¦²":749,"Ġà¦Ĩà¦ļ":750,"à¦§à¦°":751,"Ġà¦¬à¦¦à¦²":752,"à¦Łà¦¤":753,"Ġà¦¤à¦²":754,"Ġà¦īà¦¡":755,"à¦·à¦°":756,"à¦¨à¦¸":757,"à¦¼à§Ģ":758,"à¦¼à¦¾,":759,"Ġà¦°à¦¯":760,"Ġà¦ªà¦ķ":761,"à¦ĩà¦¤":762,"à¦ªà¦¸":763,"à¦ĸà¦Ľ":764,"à¦¯à¦¥":765,"?âĢĿ":766,"à¦¬à¦¶":767,"à¦Ĩà¦ľ":768,"Ġà¦ħà¦¥à¦ļ":769,"à¦¨à¦°":770,"à¦¥à¦¨":771,"Ġà¦¹à¦ĵà¦¯":772,"Ġà¦Ĩà¦Ļ":773,"Ġà¦Ĩà¦¯":774,"Ġ(":775,"à¦°à¦ľà¦¨":776,"à¥¤âĢĻ":777,"Ġà¥¤":778,"à¦¯à¦°":779,"à¦¨à¦Ĺ":780,"Ġà¦ĵà¦¦":781,"Ġà¦Ĺà§ľ":782,"à¦«à¦²":783,"à¦¥à¦°":784,"à¦ĩà¦Ł":785,"à¦¨à¦¬à¦¤":786,"Ġà¦Ĩà¦¦":787,"à¦ªà¦·":788,"Ġà¦¸à¦¹à¦ľ":789,"à¦Ĺà¦ľ":790,"Ġà¦ķà¦ł":791,"Ġà¦¸à¦®à§Ł":792,"à¦°à¦§":793,"Ġà¦Ĩà¦¹":794,"Ġà¦ħà¦«":795,"à§İà¦¸":796,"Ġà¦ıà¦¦":797,"à¦¼à¦¾à¥¤":798,"à¦²à¦Ľ":799,"Ġà¦¤à¦¥":800,"à¦ªà¦¡":801,"Ġà¦ĭ":802,"à§ĩâĢĵ":803,"à¦°à¦¹à¦£":804,"à¦Łà¦¬":805,"à¦Ŀà¦²":806,"Ġà¦Ĩà¦¸à¦¬":807,"Ġà¦ıà¦ķà¦ĩ":808,"à¦īà¦¨":809,"?âĢĻ":810,"à¦ıà¦ķà¦Ł":811,"à¦Ĩà¦°":812,"Ġà¦¬à¦²à¦¬":813,"Ġà¦ľà¦¡":814,"à¦īà¦²":815,"Ġà¦°à¦ĩà¦²":816,"Ġ,":817,"à¦¿!":818,"à¦Ńà¦°":819,"à¦ĩà¦¬":820,"à¦ľà¦¤":821,"Ġà¦ĺà¦¨":822,"ÂłÂłÂłÂłÂłÂłÂłÂł":823,"Ġà¦ĺà¦Łà¦¨":824,"Ġà¦ķà¦¨":825,"Ġà¦ĸà¦¬à¦°":826,"Ġà¦ķà¦·":827,"Ġà¦Ľà§ľ":828,"à¦Ĺà¦¬":829,"Ġà¦Ĩà¦Łà¦ķ":830,"Ġà¦ıà¦ĸà¦¨à¦ĵ":831,"à¦°à¦Ĺ":832,"Ġà¦ªà¦²":833,"à¦°à¦®à¦£":834,"Ġà¦Ľà¦¨":835,"à¦ķà¦¶":836,"à¦·à¦®":837,"à¦ıà¦¬":838,"à¦¯à¦ĩ":839,"à¦ľà¦¸":840,"Ġà¦ıà¦¨":841,"Ġà¦¯à¦¥":842,"Ġà¦Ĩà¦¸à¦¤":843,"ĠâĢĵ":844,"à¦¹à¦¤":845,"Ġà¦¦à¦°à¦ķ":846,"à¦§à¦¬":847,"à¦ľà¦¯":848,"Ġà¦¤à¦ĸà¦¨à¦ĩ":849,"à§ĭâĢĶ":850,"Ġà¦°à¦ķà¦®":851,"à¦¨à¦¯":852,"à¦·à¦®à¦¤":853,"Ġà¦Ĳà¦¤":854,"à¦ıà¦°":855,"Ġà¦¦à¦¶":856,"à§¨":857,"à¦®à§Ł":858,"à¦®à¦¸":859,"Ġà¦¤à¦¤":860,"à¦ķà¦¦":861,"Ġà¦īà§İà¦¸":862,"à¦ķà¦ķ":863,"Ġà¦ħà¦¦à¦®":864,"Ġà¦¦à¦°":865,"Ġà¦ķà¦ĸà¦¨à¦ĵ":866,"Ġà¦¬à¦Ł":867,"Ġà¦¹à¦°":868,"à¦Ĩà¦²":869,"Ġà§§à§":870,"à¦¾;":871,"à¦ķà¦¡":872,"Ġà¦¸à¦ļ":873,"Ġà¦ļà¦°":874,"Ġà¦Ĩà¦Ń":875,"Ġà¦ľà¦°":876,"à¦¯à¦¯":877,"Ġà¦Ĺà¦£":878,"Ġà¦¬à¦ķ":879,"à¦¾âĢĵ":880,"Ġà¦ªà¦°à¦¬à¦°":881,"à§Ģ-":882,"Ġà¦¯à¦¨":883,"à¦Ĩà¦®à¦°":884,"Ġà¦ħà¦¥à¦¬":885,"Ġà¦¨à¦°à¦®":886,"ĠâĢĶ":887,"Ġà¦¸à¦¬à¦ļ":888,"Ġà¦¸à¦°à¦ķ":889,"à§ĭ?":890,"âĢĶâĢľ":891,"à¦Łà¦¨":892,"à¦®à¦§":893,"Ġà¦ļà¦ķ":894,"Ġà¦¬à§Ł":895,"à¦ľà¦¬":896,"à¦®à¦Ł":897,"à¦¦à¦®":898,"à§ĭ-":899,"à¦¸à¦¬à¦ĩ":900,"Ġà¦ķà¦²à¦ķ":901,"Ġà¦Ńà§Ł":902,"Ġà¦Ĩà¦¦à¦°":903,"Ġà¦¬à¦ī":904,"Ġà¦ľà¦¯":905,"à¦¶à¦ª":906,"à¦Łà¦°":907,"à¦®à¦°à¦£":908,"à¦²à¦®":909,"Ġà¦¸à¦ŀ":910,"à¦²à¦¯":911,"à¦ŀà¦¤":912,"Ġà¦ħà¦Łà¦²":913,"âĢĺ":914,"à¦¾à¥¤âĢĿ":915,"à¦Ĺà¦®":916,"à¦¨à¦ĩ":917,"Ġà¦ıà¦¸à¦¬":918,"à¦²à¦¸":919,"Ġà¦Ńà¦¦":920,"à¦ĩà¦Ľ":921,"Ġà¦§à¦¨":922,"Ġà¦īà¦łà¦¤":923,"à¦²à¦Ĺ":924,"Ġà¦¬à§ľ":925,"Ġà¦ĵà¦ķ":926,"à¦ªà¦£":927,"Ġà¦īà§İà¦¸à¦¬":928,"Ġà¦°à¦ĵ":929,"à¦¹à¦°à¦£":930,"Ġà¦īà¦ªà¦¸":931,"à¦¼?":932,"à¦®à¦Ĺ":933,"à¦²à¦Ł":934,"Ġà¦¸à¦¤à¦¤":935,"à¦¸à¦®à¦¯":936,"à¦¦à¦¸":937,"Ġà¦°à¦ļà¦¨":938,"à¦¸à¦ª":939,"à¦Ŀà¦°":940,"Ġà¦°à¦¸":941,"à¦®à¦¹":942,"à¦ĸà¦°":943,"Ġà¦ªà¦¶":944,"à¦°à§Ł":945,"à¦¼-":946,"à¦¹à¦ł":947,"à¦Ĩà¦ªà¦¨":948,"à¦°à¦¹à¦°":949,"à¦Łà¦«":950,"Ġà¦¦à¦ķ":951,"à¦¡à¦²":952,"à¦¹à¦¯":953,"à¦łà¦¨":954,"à¦¼âĢĶ":955,"Ġà¦Ĩà¦ľà¦ĵ":956,"Ġà¦īà¦łà¦Ľ":957,"Ġà¦Ĩà¦ª":958,"Ġà¦²à¦¡":959,"à§¦":960,"Ġà¦ıà¦ķà¦¸à¦Ļ":961,"Ġà¦¸à¦Ń":962,"à§Łà¦¤":963,"Ġà¦²à¦ľ":964,"Ġà¦§à¦°à¦¨":965,"Ġà¦Ī":966,"à¦¨à¦Ń":967,"à¦¥à¦ķ":968,"à¦ľà¦ķ":969,"à¦¯à¦ª":970,"à¦Ĩà¦ķ":971,"à¦¸à¦Ł":972,"à¦¾âĢĻ":973,"Ġà¦§à¦°à¦²":974,"à¦Ĺà¦Ľ":975,"à¦ļà¦¡":976,"Ġà¦ķà¦ª":977,"Ġà¦®à¦ľ":978,"Ġà¦ħà¦ŀ":979,"Ġà¦¨à¦¨":980,"Ġà¦¨à¦®":981,"Ġà¦Ĩà¦ĵà¦¯":982,"à¦²à¦®à¦²":983,"--":984,"Ġà¦¯à¦ľ":985,"Ġà¦¬à¦¸à¦²":986,"Ġà¦ļà¦²à¦Ľ":987,"à¦°à¦°":988,"Ġà¦īà¦ªà¦¨":989,"Ġà¦ªà¦°à¦®":990,"à¤":991,"à¦ķà¦°à¦£":992,"Ġà¦ıà¦ķà¦®":993,"Ġà¦ħà¦¸à¦®":994,"Ġà¦¸à¦¬à¦ĩ":995,"à§«":996,"à¦Ńà¦¯":997,"à¦¿;":998,"Ġà¦ªà¦¦à¦ķ":999,"à¦¬à¦ļ":1000,"à¦¬à¦Ľ":1001,"à¦¾à¦ģ,":1002,"à¦ķà¦¸":1003,"à¦¶à¦²":1004,"à¦¬à¦ĩ":1005,"à¦¤à¦Ł":1006,"à§Ģ?":1007,"à¦ªà¦²":1008,"Ġà¦®à¦ŀ":1009,"Ġà¦¶à¦¹":1010,"à¦¬à¦¹":1011,"Ġà¦°à¦ĵà¦¶à¦¨":1012,"à¦¬à¦£":1013,"Ġà¦īà¦·":1014,"Ġà¦¥à¦®à¦ķ":1015,"à¦łà¦¸":1016,"Ġà¦®à¦£":1017,"à§ĩ?âĢĿ":1018,"Ġà¦ļà¦®à¦ķ":1019,"à¦łà¦ķ":1020,"à¦ľà¦®":1021,"à¦ķà¦¥":1022,"à¦¼;":1023,"à¦Ľà¦¬":1024,"Ġà¦¨à¦ľà¦°":1025,"Ġà¦Ĺà¦°à¦®":1026,"Ġà¦ľà¦¬":1027,"Ġà¦¸à¦®à¦¨":1028,"à¦¿âĢĵ":1029,"à¦īà¦ķ":1030,"Ġà¦®à¦²":1031,"Ġà¦ªà¦ŀ":1032,"à¦·à¦¦":1033,"à¦ªà¦ļ":1034,"Ġà¦ľà§Ł":1035,"Ġà¦ıà¦Ń":1036,"Ġà¦ĵà¦Ł":1037,"à¦¶à¦®":1038,"à¦ķà¦Ľ":1039,"à¦ķà¦ľà¦¨":1040,"à¦īà¦¯":1041,"Ġà¦Ĺà¦¬":1042,"Ġà¦Ĺà¦®":1043,"à¦Ŀà¦ĸ":1044,"à¦£à¦¨":1045,"à¦ķà¦Ń":1046,"à¦®à¦¶":1047,"Ġà¦īà¦°":1048,"à¦¤à¦ª":1049,"à¦ĩà¦Ń":1050,"Ġà¦ĺà¦£":1051,"à¦ıà¦¸à¦¬":1052,"à¦ĩà¦¡":1053,"à¦°à¦Ĺà¦¤":1054,"à¦ıà¦Ł":1055,"Ġà¦¦à¦®":1056,"à§ĩà¥¤âĢĻ":1057,"à¦®à¦¦":1058,"à¦¾à¥¤âĢĻ":1059,"à§ĩâĢ¦":1060,"à¦¤à¦¦":1061,"à¦¹à¦®":1062,"Ġà¦Ĺà¦¹":1063,"à¦¥à¦²":1064,"à¦¼à¦Ĥ":1065,"Ġà¦īà¦łà¦¬":1066,"à¦°à¦¬à¦¨":1067,"Ġà¦®à¦¸":1068,"Ġà¦Ŀà¦²à¦®à¦²":1069,"Ġà¦¯à¦¤à¦ĩ":1070,"Ġà¦ħà¦Ł":1071,"Ġà¦ļà¦¡":1072,"Ġà§§à§¯":1073,"Ġà¦¤à¦°à¦Ļ":1074,"Ġà¦¸à¦°à¦²":1075,"à§©":1076,"à¦¤à¦¨à¦¤":1077,"Ġà¦ªà§ľà¦²":1078,"Ġà¦Ĳà¦ķ":1079,"à§Ŀ":1080,"à¦°à¦ĸ":1081,"à¦ıà¦ĸà¦¨":1082,"à¦ĵà¦°":1083,"Ġà¦ıà¦ķà¦¤":1084,"à¦ļà¦¤":1085,"à¦¿à¥¤âĢĿ":1086,"à¦¬à¦Ń":1087,"Ġà¦ľà¦Ł":1088,"à¦¦à¦Ĺ":1089,"Ġt":1090,"à¦¨à¦¶":1091,"à¦®à¦ª":1092,"à¦ıà¦ĸ":1093,"à¦ĩà§Ł":1094,"à¦£à¦¬":1095,"à¦¿âĢĻ":1096,"à¦Ľà¦²":1097,"Ġà¦Ĩà¦°à¦®":1098,"à§Ń":1099,"Ġà¦Ńà¦Ļ":1100,"à¦ªà¦®":1101,"Ġà¦¸à¦ª":1102,"Ġà¦ļà¦¨":1103,"à¦ĺà¦¨":1104,"Ġà¦ªà¦°à¦¶":1105,"Ġà¦ļà¦²à¦¤":1106,"à¦²à¦Ń":1107,"à¦®à¦ľ":1108,"à¦¯à¦Ń":1109,"à¦ĩà¦¸":1110,"Ġà¦²à¦®":1111,"Ġà¦°à¦®à¦£":1112,"à¦¤à¦¹":1113,"à¦¸à¦¹":1114,"à§ĭ!":1115,"Ġà¦ħà¦°à¦£":1116,"Ġà¦ľà¦Ĺà¦¤":1117,"Ġà¦ĵà¦¯":1118,"à¦¸à¦Ľ":1119,"à¦¶à¦¯":1120,"Ġà¦ĵà¦ĸ":1121,"à¦ħà¦°":1122,"à¦¯à§İ":1123,"à¦¬à¦§":1124,"Ġà¦¨à¦ķ":1125,"à¦¼à¦¿à¥¤":1126,"Ġà¦®à¦¤à¦¨":1127,"à¦Ĺà¦£":1128,"à¦ĥà¥¤":1129,"Ġà¦ªà¦£":1130,"Ġà¦ªà¦Ľà¦¨":1131,"à¦Łà¦Ľ":1132,"à§ª":1133,"Ġà¦¸à¦¦":1134,"à¦°à¦¬à¦²":1135,"Ġà¦ħà¦¹":1136,"à¦·à¦Ł":1137,"à¦ľà¦¨à¦ķ":1138,"Ġà¦ļà¦²à¦²":1139,"à¦ķà¦Ĺ":1140,"Ġà¦¹à¦¸":1141,"à¦īà¦Ł":1142,"à¦ķà¦ĩ":1143,"à¦ľà¦Ł":1144,"à¦ļà¦Ł":1145,"Ġà¦¬à¦ľ":1146,"Ġà¦¸à¦ł":1147,"à¦°à¦«":1148,"Ġà¦Ĩà¦ĺ":1149,"à¦ĺà¦²":1150,"Ġà¦¹à¦ĩ":1151,"à¦ľà¦Ľ":1152,"Ġà¦ħà¦ľà¦¸":1153,"he":1154,"Ġà¦«à¦°":1155,"Ġà¦ħà¦¤à¦ıà¦¬":1156,"à¦ļà§Ł":1157,"Ġà¦¬à¦¸à¦¨":1158,"à¦·à§Ł":1159,"à¦¬à¦Ł":1160,",âĢĿ":1161,"âĢĿà¥¤":1162,"à¦¶à¦°":1163,"Ġà¦¸à¦¬à¦ķ":1164,"Ġà¦ıà¦®à¦¨à¦ķ":1165,"à¦ķà¦£":1166,"Ġà¦¨à¦¡":1167,"Ġà¦¨à¦·":1168,"Ġà¦Ĩà¦ĩà¦¨":1169,"à¦¬à¦¡":1170,"à§ĩ:":1171,"à¦²à¦ļ":1172,"à¦¦à¦Ł":1173,"à¦īà¦°":1174,"à¦²à¦ª":1175,"à¦ķà¦®":1176,"Ġà¦®à¦®à¦¤":1177,"in":1178,"à¦Łà¦Ł":1179,"à¦¤à¦Ń":1180,"à¦¦à¦ķ":1181,"Ġà¦·":1182,"à¦®à¦¡":1183,"à¦Ĩà¦Ĺ":1184,"Ġà¦īà¦ªà¦²à¦¬":1185,"à¦¨à¦ª":1186,"Ġà¦Ŀà¦¡":1187,"Ġà¦ķà§Ł":1188,"Ġà¦Ĩà¦ķà¦°":1189,"à¦¥à¦®":1190,"Ġà¦īà§ľ":1191,"à§ĩ?âĢĻ":1192,"à¦°à¦¦à¦°":1193,"à¦ľà§Ł":1194,"à¦Ńà¦Ļ":1195,"Ġà¦ĩà¦¯":1196,"Ġà¦¨à¦Ĺà¦°":1197,"à¦¤à¦¸":1198,"Ġà¦Ĩà¦¨à¦¤":1199,"à¦¬à¦²à¦¤":1200,"Ġ-":1201,"à¦Łà¦®":1202,"à¦§à¦¹à¦¯":1203,"an":1204,"à¦¨à¦Ľ":1205,"à¦īà¦¦":1206,"à¦®à¦¨à¦ĩ":1207,"à¦°à¦¬à¦°":1208,"Ġà¦¸à¦ľ":1209,"à¦¼à¦¿,":1210,"à¦¨à¦ļ":1211,"..":1212,"à¦Ľà¦¤":1213,"Ġà¦ľà¦Ļ":1214,"à¦ľà¦Ĺ":1215,"à¦£à¦ķ":1216,"à¦ĩà¦®":1217,"Ġà¦²à¦¤":1218,"Ġà¦¬à¦ĩà¦¯":1219,"à§ĩà¦¾":1220,"à¦ĩà¦ľ":1221,"à¦Łà¦ª":1222,"Ġà¦¹à¦¨":1223,"Ġà¦Ńà¦ķ":1224,"Ġà¦ĩà¦²":1225,"à¦Ĺà¦¡":1226,"Ġà¦¸à§İ":1227,"Ġà¦ĵà¦ª":1228,"à¦ªà¦Ľ":1229,"à¦¶à¦¤":1230,"Ġà¦Ĺà¦Ļ":1231,"à§ĩ!âĢĿ":1232,"à¦°à¦Ļ":1233,"à¦¤à¦ĸà¦¨":1234,"Ġà¦ħà¦¨à¦²":1235,"à¦ķà¦ļ":1236,"à¦¬à¦®":1237,"Ġà¦ªà¦²à¦ķ":1238,"Ġà¦ĭà¦·":1239,"à¦¶à¦Ĺ":1240,"à¦¶à¦Ł":1241,"Ġà¦ħà¦¤à¦²":1242,"à¦ĸà¦ķ":1243,"âĢ¦âĢĿ":1244,"on":1245,"à¦°à¦®à¦¶":1246,"à¦¬à¦ľ":1247,"à¦°à¦¸à¦Ļ":1248,"Ġà¦ªà¦¯":1249,"à¦¿à¥¤âĢĻ":1250,"à¦¨à§Łà¦¨":1251,"Ġà¦īà§İà¦ª":1252,"Ġà¦§à¦°à¦¤":1253,"Ġà¦ħà¦®à¦°":1254,"à¦¼!":1255,"Ġà¦ĩà¦¸":1256,"à¦¦à¦¬":1257,"Ġà¦Ŀà¦¨":1258,"Ġà¦ļà¦²à¦¬":1259,"Ġà¦¶à¦ªà¦¥":1260,"Ġà¦¶à¦Ļ":1261,"à¦ħà¦¤":1262,"Ġà¦ħà¦¸à¦¹":1263,"à¦ħà¦¸":1264,"à¦¯à¦®à¦¯":1265,"Ġà¦ļà¦Ł":1266,"Ġà¦®à¦¦":1267,"Ġà¦°à§Ł":1268,"Ġà¦ķà¦¤à¦Ł":1269,"à¦®à¦ļ":1270,"à¦¤à¦¬à¦¤":1271,"à¦¥à¦¤":1272,"Ġà¦®à¦¯":1273,"à§Ģ!":1274,"à¦¤à¦ĩ":1275,"Ġà¦¬à¦¸à¦¤":1276,"à¦¸à¦¬à¦ķ":1277,"Ġà¦°à¦ļ":1278,"à¦¦à¦¶":1279,"Ġà¦¸à¦®à¦°":1280,"à¦¬à¦ľà¦¨":1281,"Ġà¦ķà¦ļ":1282,"à¦¬à¦²à¦Ľ":1283,"à¦¬à¦²à¦ľ":1284,"Ġà¦¹à§Łà¦¤":1285,"à¦ķà§ľ":1286,"Ġà¦Ĭ":1287,"Ġà¦Ĩà¦¬à¦¦":1288,"Ġà¦ķà¦«":1289,"Ġà§¨":1290,"Ġà¦Īà¦¶":1291,"Ġà¦Ĩà¦ļà¦°à¦£":1292,"Ġà¦Ĩà§ľ":1293,"Ġà¦¤à¦ĸà¦¨à¦ĵ":1294,"Ġà¦®à¦¶":1295,"Ġà¦ıà¦ķà¦¸":1296,"à¦¯à¦Ł":1297,"Ġà¦ľà¦Ĺ":1298,"Ġà¦ıà¦°à¦ķà¦®":1299,"à¦Ĺà¦°à¦£":1300,"Ġà¦®à¦¨à¦¨":1301,"re":1302,"à¦¯à¦¤à¦®":1303,"Ġà¦ĸà¦°à¦ļ":1304,"Ġà¦¹à¦ĵà§Ł":1305,"à¦°à¦ķà¦²":1306,"à¦ªà§ľ":1307,"à¦¥à¦¬":1308,"à¦Ĩà¦¶":1309,"Ġà¦ªà¦Ł":1310,"à¦ħà¦ļ":1311,"à¦¤à¦Ĺ":1312,"Ġà¦ĸà¦¸":1313,"à¦²à¦ľ":1314,"Ġà¦¤à¦¨":1315,"à¦®à¦Ľ":1316,"Ġà¦ķà¦²à¦®":1317,"à¦¾à¦ĥ":1318,"à¦¨à¦®":1319,"Ġà¦ķà¦®à¦²":1320,"à¦ķà¦ª":1321,"à¦īà§Ł":1322,"à§ĭà¥¤âĢĿ":1323,"à§¬":1324,"Ġà¦ĩà¦Ļ":1325,"à¦¼à¦¾-":1326,"à¦ķà¦ĸà¦¨":1327,"à¦ħà¦¬":1328,"à¦®à¦®":1329,"Ġà¦¬à¦Ļ":1330,"à¦¸à¦¦":1331,"Ġà¦¸à¦¹à¦¯":1332,"at":1333,"à¦Łà¦«à¦°":1334,"à¦¾:":1335,"Ġà¦«à¦¸à¦²":1336,"à¦¼âĢĵ":1337,"à¦Ĩà¦¬":1338,"Ġà¦¸à¦®à¦Ĺ":1339,"à¦īà¦ľ":1340,"âĢĻà¥¤":1341,"Ġà¦ļà¦¤":1342,"al":1343,"à¦¯à¦ķà¦°":1344,"Ġà¦ķà¦¹":1345,"Ġà¦ªà¦°à¦¸":1346,"Ġà¦ħà¦¬à¦¨":1347,"à¦ĸà¦Ł":1348,"à¦Ńà¦ķ":1349,"à¦¿?âĢĿ":1350,"à¦īà¦¡":1351,"Ġ!":1352,"à¦¸à¦®à§Ł":1353,"à¦ıà¦ķà¦¦":1354,"à¦¨à¦¬à¦ľ":1355,"Ġà¦ıà¦¤à¦Ł":1356,"à¦¬à¦²à¦¨":1357,"à¦²à§Ł":1358,"Ġà¦®à¦¨à¦¸":1359,"Ġà¦ıà¦¤à¦ķ":1360,"à¦¬à¦°à¦¤":1361,"à¦²à¦ĩ":1362,"à¦¯à¦ĸà¦¨":1363,"Ġà¦ªà¦¨":1364,"à¦¬à¦¨à¦¯":1365,"Ġà¦ħà¦¬à¦§":1366,"Ġà¦¸à¦¹à¦®à¦°":1367,"Ġà¦ķà¦Ł":1368,"à¦¯à¦ľ":1369,"Ġà¦¸à¦¤à¦°":1370,"à¦ļà¦¬":1371,"à¦Ĩà¦ľà¦ķ":1372,"Ġà¦«à¦Ł":1373,"Ġà¦Ĩà¦¸à¦¨":1374,"à¦«à¦Ł":1375,"à¦ľà¦¨à¦¶":1376,"ÂłÂłÂł":1377,"Ġà¦¬à¦¹à¦¨":1378,"à¦ıà¦¸":1379,"à¦ĩà¦ª":1380,"à¦Ĺà¦Ń":1381,"Ġà¦ıà¦ĩà¦¸à¦¬":1382,"à§Łà¦®":1383,"Ġà¦ıà¦¤à¦¦":1384,"à¦®à¦ªà¦°":1385,"Ġà¦Ĩà§Ł":1386,"à¦Ńà¦¬à¦¤":1387,"à¦¬à¦°à¦£":1388,"Ġà¦ħà¦¬à¦²":1389,"Ġ'":1390,"à§¯":1391,"à¦¨à¦ľà¦¨":1392,"à¦ıà¦Ń":1393,"Ġà¦Ĩà¦¬à¦°":1394,"à¦¦à¦¤":1395,"à¦¯à¦¬à¦¤":1396,"Ġà¦ķà¦¡":1397,"à§®":1398,"à¦¤à¦ľ":1399,"Ġà¦¢à¦²":1400,"Ġà¦ļà¦°à¦®":1401,"Ġà¦°à¦«":1402,"Ġà¦ĺà¦¡":1403,"Ġà¦ļà¦®":1404,"à¦ļà§ľ":1405,"à¦ıà¦®à¦¨":1406,"à¦ĵà¦ĩ":1407,"Ġà¦¬à¦¸à¦¬":1408,"!âĢĻ":1409,"à¦¾âĢĿ":1410,"à§ĩâĢĶâĢľ":1411,"à¦¯à¦Ĺ":1412,"Ġà¦¨à¦¹":1413,"Ġà¦ľà¦¨à¦¨":1414,"à¦¸à¦ķà¦²":1415,"Ġà¦ıà¦¡":1416,"Ġà¦Łà¦°":1417,"Ġà¦¬à¦ĩà§Ł":1418,"Ġà¦Ŀà¦²à¦ķ":1419,"à¦ĸà¦£":1420,"à¦¡à¦¬":1421,"à¦¾à¦ģà¥¤":1422,"à¦°à¦¤à¦°":1423,"er":1424,"à¦²à¦¦":1425,"en":1426,"Ġà¦®à¦¨à¦Ł":1427,"à¦¾?âĢĻ":1428,"à¦ħà¦¬à¦¶":1429,"Ġà¦¨à¦ĩà¦²":1430,"is":1431,"à¦Ĩà¦¸":1432,"Ġà¦ķà¦ķ":1433,"Ġà¦ıà¦°à¦ªà¦°":1434,"Ġà¦°à¦¤":1435,"Ġà¦°à¦ŀ":1436,"Ġà¦Ĩà¦®à¦¨":1437,"à¦°à¦¥à¦®à¦¬":1438,"à¦ľà¦ª":1439,"Ġà¦ĸà¦£":1440,"à¦Ĳ":1441,"Ġà¦®à¦Ļ":1442,"Ġà¦Ĩà¦®à¦²":1443,"Ġà¦ļà¦°à¦£":1444,"à¦Ńà§Ł":1445,"Ġà¦Ĩà¦²à¦®":1446,"it":1447,"Ġà¦¬à¦ŀ":1448,"à¦¶à¦¹à¦°":1449,"Ġthe":1450,"à¦Ľà¦Ł":1451,"à¦¾âĢ¦":1452,"à¦¾!âĢĿ":1453,"à¦²à¦«":1454,"Ġà¦¸à¦ĸ":1455,"Ġà¦ĵà¦·":1456,"à¦¸à¦¸":1457,"à¦Ĺà¦łà¦¨":1458,"Ġà¦°à¦ľà¦¤":1459,"Ġà¦°à¦¹":1460,"à¦īà¦¸":1461,"à¦£à¦¦":1462,"Ġà¦ľà§ľ":1463,"Ġà¦Ńà¦°à¦¸":1464,"à¦¶à¦¦":1465,"Ġà¦ħà¦®à¦¨":1466,"Ġà¦Ńà¦Ĺà¦¬":1467,"Ġà¦²à§ľ":1468,"Ġà¦Ĩà¦ĵà§Ł":1469,"à¦Ŀà¦¬":1470,"à¦ªà¦Ĺ":1471,"à¦Ļà¦²":1472,"Ġà¦ħà¦¬à¦¹":1473,"Ġ?":1474,"Ġà¦Ĺà¦łà¦¨":1475,"à¦¨à¦¹":1476,"à¦¬à§Ł":1477,"Ġà¦Ĩà¦ªà¦¤":1478,"Ġà¦ıà¦ķà¦¥":1479,"à¦¸à¦¤à¦¤":1480,"à¦¬à¦¨à¦ķ":1481,"Ġ:":1482,"Ġà¦ľà¦¨à¦¸":1483,"Ġo":1484,"Ġà¦®à¦¨à¦ķ":1485,"à¦«à¦°":1486,"à¦Ńà¦¨":1487,"Ġà¦Ĩà¦Ł":1488,"à¦ļà¦°à¦£":1489,"Ġà¦ļà¦ŀ":1490,"Ġà¦ļà¦¶à¦®":1491,"à§ĩâĢĻ":1492,"à¦¤à¦°à¦Ļ":1493,"à¦¹à¦ķ":1494,"Ġà¦¸à¦¹à¦¸":1495,"à§Łà¦Ĺ":1496,"Ġà¦°à¦¤à¦¨":1497,"Ġà¦Ķ":1498,"à§ĭ?âĢĿ":1499,"Ġà¦ĩà¦¶":1500,"à¦¯à¦¹":1501,"à¦¯à§Ł":1502,"Ġà¦ªà¦¦à¦ļ":1503,"Ġà¦¨à¦ķà¦¶":1504,"à¦Łà¦¸":1505,"Ġà¦ĩà¦īà¦¨":1506,"Ġà¦ħà¦¬à¦¦":1507,"à¦ħà¦®":1508,"Ġs":1509,"à¦ħà¦¶":1510,"Ġà¦Ĩà¦¨à¦²":1511,"Ġà¦ıà¦ķà¦¦à¦®":1512,"à¦¦à¦¦":1513,"à¦°à¦¸à¦°":1514,"Ġà¦Ĩà¦ĩ":1515,"Ġà¦Ŀà¦°à¦¨":1516,"à¦¯à¦ĵ":1517,"Ġà¦¤à¦ªà¦¨":1518,"à¦ıà¦¤":1519,"à§ĭ;":1520,"Ġà¦ªà¦¬":1521,"à¦ªà¦¶":1522,"Ġà¦Ĩà¦°à¦ľ":1523,"Ġà¦ªà¦¥à¦ļà¦²":1524,"à¥¥":1525,"Ġà¦¦à¦ĸà¦²":1526,"Ġà¦ĩà¦ŀ":1527,"à¦ªà¦¯":1528,"Ġà¦Ĩà¦¤à¦Ļ":1529,"Ġà¦¬à¦Łà¦Ĺ":1530,"Ġà¦¯à¦®":1531,"Ġà¦ĩà¦Ł":1532,"à¦¤à¦°à¦£":1533,"à¦¸à¦²à¦®":1534,"à¦¦à¦¹":1535,"à¦ªà¦¬":1536,"âĢį":1537,"à¦°à¦·":1538,"à¦¸à¦Ń":1539,"Ġà¦¤à¦ªà¦¸":1540,"Ġà¦ħà¦ªà¦®":1541,"à¦·à¦¬":1542,"Ġà¦¶à¦¸":1543,"à¦ĺà¦¶":1544,"Ġà¦¨à¦ĩ":1545,"Ġà¦Ĺà¦ľ":1546,"Ġà¦Ĩà¦ĸ":1547,"à¦¦à¦ª":1548,"à¦Łà¦Ĺ":1549,"à¦ıà¦¸à¦¬à¦ĩ":1550,"Ġà¦ıà¦®à¦¨à¦ĩ":1551,"Ġà¦ıà¦ķà¦²":1552,"Ġà¦¬à¦¦":1553,"Ġà¦®à¦¡":1554,"à¦ľà¦¦":1555,"Ġà¦īà¦ªà¦¯":1556,"Ġ;":1557,"à¦īà¦ĩ":1558,"Ġà¦¯à¦¤à¦Ł":1559,"à¦¤à¦Ľ":1560,"à¦²à¦¬à¦¨":1561,"Ġà¦Ĭà¦°":1562,"à¦ĺà¦®":1563,"à¦¿?âĢĻ":1564,"Ġà¦ľà¦Ĺà§İ":1565,"à¦§à¦®":1566,"à¦¸à¦°à¦£":1567,"Ġà¦īà¦¦à¦¯":1568,"à¦ķà¦ł":1569,"à¦®à¦ŀ":1570,"à¦¡à¦¨":1571,"à¦°à¦ļà¦£":1572,"à§ĢâĢĶ":1573,"à¦¼à¥¤âĢĿ":1574,"Ġà¦Ĩà¦¨à¦¬":1575,"à¦¿âĢ¦":1576,"à¦ĩà¦¦":1577,"à¦Ĺà¦¦":1578,"à§İà¦ª":1579,"à¦ĩà¦«":1580,"Ġà¦¦à¦¯":1581,"Ġà¦°à¦ľ":1582,"Ġà¦Ńà¦Ĺ":1583,"Ġà¦°à¦¥":1584,"Ġà¦ıà¦ķà¦ķ":1585,"à¦Ľà¦ª":1586,"Ġà¦ıà¦ĩà¦Ń":1587,"Ġà¦¬à¦ªà¦¨":1588,"à¦®à¦ĩ":1589,"Ġà¦ıà¦ķà¦¶":1590,"à¦°à¦¥à¦®à¦¤":1591,"Ġà¦ıà¦ķà¦ª":1592,"à¦ħà¦¦":1593,"Ġà¦¶à¦¤à¦ķ":1594,"Ġà¦īà¦ªà¦¹":1595,"Ġà¦īà¦Ńà¦¯":1596,"Ġà¦Ĩà¦«":1597,"à¦ªà¦ķà¦¥":1598,"Ġa":1599,"Ġà¦īà¦ªà¦ķ":1600,"à¦¯à¦¶":1601,"Ġà¦ľà¦¨à¦®":1602,"Ġà¦ħà¦ļà¦²":1603,"à§ĩ,âĢĿ":1604,"Ġc":1605,"à¦¡à¦°":1606,"à§İà¦ĩ":1607,"Ġà¦ľà¦²à¦°":1608,"Ġà¦ĭà¦¤":1609,"Ġà¦¸à¦°à¦¸":1610,"à¦ĸà¦¸":1611,"Ġà¦ľà¦²à¦¬":1612,"Ġà¦ļà¦®à§İà¦ķ":1613,"à¦ķà¦¶à¦¨":1614,"Ġà¦®à¦°à¦£":1615,"Ġà¦Ńà¦°à¦¤":1616,"Ġà¦ıà¦ĩà¦°à¦ķà¦®":1617,"Ġà¦ĭà¦£":1618,"ÂłÂłÂłÂłÂłÂłÂłÂłÂłÂłÂłÂł":1619,"à¦¬à¦¤à¦¨":1620,"Ġà¦°à¦¶":1621,"à¦Ŀà¦ķ":1622,"âĢĻ,":1623,"Ġà¦Ŀà¦ķ":1624,"à§įà¥¤":1625,"Ġà¦ıà¦ķà¦¸à¦®à¦¯":1626,"à§İà¦ªà¦°":1627,"Ġà¦ħà¦¯":1628,"Ġà¦Ĩà¦¬à¦¹":1629,"Ġà¦ĩà¦®":1630,"à§ģ!":1631,"Ġà¦°à¦¹à¦®":1632,"Ġà¦¸à¦®à¦¤":1633,"Ġà¦¦à¦¤":1634,"à¦°à¦¤à¦¬à¦°":1635,"Ġà¦ıà¦ĩà¦Ł":1636,"à¦Ľà¦Ĺ":1637,"Ġà¦ħà¦¬à¦ķ":1638,"Ġà¦¬à§Łà¦¸":1639,"Ġà¦¸à¦«à¦²":1640,"Ġà¦Ĩà¦¬à¦Ľ":1641,"Ġà¦ķà¦²à¦°à¦¬":1642,"à¦Ĺà¦¸":1643,"Ġà¦°à¦®":1644,"à¦¯à¦°à¦ķà¦®":1645,"Ġà¦¨à¦°":1646,"Ġà¦Ĳà¦¶":1647,"Ġà¦¨à¦¬à¦ľ":1648,"ar":1649,"Ġà¦Ĩà¦ľà¦ĩ":1650,"à¦¾?âĢĿ":1651,"à¦ħà¦Ń":1652,"à¦¬à¦Ĺ":1653,"Ġà¦°à¦£":1654,"à¦īà¦¤":1655,"Ġà¦ķà¦¦":1656,"Ġà¦ĺà¦°à¦Ł":1657,"à¦¸à¦°à¦ķ":1658,"à¦Łà¦ĸ":1659,"à¦·à¦¸":1660,"Ġà¦²à¦¯":1661,"à§ģâĢĶ":1662,"à¦Ĩà¦¨":1663,"Ġw":1664,"es":1665,"Ġà¦ıà¦®":1666,"Ġà¦ıà¦ĸà¦¨à¦ĩ":1667,"à¦®à¦Ń":1668,"à¦Ĺà¦Ł":1669,"Ġà¦Ĩà¦°à¦£":1670,"à¦ĩà¦ľà¦¨":1671,"or":1672,"à¦¿:":1673,"à¦Ĩà¦¤":1674,"Ġà¦Ĺà¦¦":1675,"Ġà¦īà¦²à¦Ł":1676,"Ġà¦ķà¦ĩ":1677,"à¦¿!âĢĿ":1678,"à¦¶à¦ĩ":1679,"à¦°à¦£à¦¯":1680,"Ġà¦¤à¦¤à¦ķ":1681,"à¦ĵà¦¡":1682,"à¦ľà¦Ĺà¦¤":1683,"à¦ļà¦®":1684,"Ġà¦¶à¦¯":1685,"Ġà¦¸à¦®à¦¬":1686,"à¦ĩà¦ļ":1687,"Ġà¦Ĩà¦°à¦¬":1688,"à§İà¦¸à¦¬":1689,"à¦¬à¦ªà¦¨":1690,"Ġof":1691,"à¦ĩà¦¶":1692,"à¦«à¦²à¦¨":1693,"Ġà¦Ĩà¦²à¦¤":1694,"Ġm":1695,"Ġà¦Ŀà§ľ":1696,"Ġà¦¦à¦¡":1697,"à¦Ĩà¦¨à¦¨":1698,"à¦ĭ":1699,"Ġà¦ĵà¦¡":1700,"à¦¶à¦¸":1701,"à¦ıà¦Ĺ":1702,"Ġà¦Ľà¦²":1703,"Ġà¦¬à¦¶":1704,"Ġà¦¯à¦¯":1705,"Ġà¦ļà¦ķà¦ļà¦ķ":1706,"à¦·à¦ª":1707,"à¦¿âĢĿ":1708,"à¦Łà¦¦":1709,"Ġà¦¤à¦ķ":1710,"Ġà¦²à¦²":1711,"à¦Ĺà¦Ĺ":1712,"Ġà¦ĩà¦¹":1713,"Ġà¦Ĩà¦¶à¦Ļ":1714,"Ġà¦¦à¦¶à¦Ł":1715,"à¦¹à§İ":1716,"Ġà¦ªà¦°à¦¦":1717,"à¦ħà¦²":1718,"à¦°à¦ļà¦²":1719,"Ġà¦ĵà¦Ĺ":1720,"à¦ħà¦ª":1721,"Ġà¦¬à¦īà¦¦":1722,"à§ģ?":1723,"Ġà¦¬à¦°à¦«":1724,"Ġb":1725,"Ġp":1726,"Ġà¦Ľà¦¯":1727,"Ġà¦¤à§İà¦ķ":1728,"Ġà¦Ĺà¦Ĺà¦¨":1729,"à¦¤à¦¶":1730,"Ġà¦®à¦Ĺ":1731,"à¦Ĩà¦§":1732,"Ġà¦Ĩà¦Ĺà¦®à¦¨":1733,"Ġà¦īà¦ªà¦Ń":1734,"à¦¯à¦®à§Ł":1735,"à§ģà¦Ĥ":1736,"à¦¼à§ĩ-":1737,"Ġà¦§à¦°à¦£":1738,"à¦Ĩà¦ļ":1739,"Ġà¦ĩà¦¸à¦²":1740,"à¦ĵà¦²":1741,"à¦Ļà¦¤":1742,"âĢĶâĢĺ":1743,"à¦ħà¦ľ":1744,"à¦ħà¦Ĺ":1745,"à¦ķà¦¹":1746,"Ġà¦¹à¦ĵ":1747,"à¦·à¦ĩ":1748,"à¦¹à¦¬":1749,"Ġà¦¹à§Łà¦¨":1750,"à¦ªà¦ĩ":1751,"à¦¿.":1752,"Ġà¦ªà¦°à¦¨":1753,"à¦ľà¦¨à¦¤":1754,"à¦ķà¦¸à¦ĩ":1755,"à¦®à¦²à¦¤":1756,"Ġà¦ıà¦ķà¦ĸ":1757,"à¦īà¦ł":1758,"and":1759,"à¦°à¦¸à¦¨":1760,"Ġà¦ħà¦¬à¦°":1761,"Ġà¦Ńà¦¬à¦¨":1762,"à¦ĺà¦Łà¦¨":1763,"Ġà¦ªà§ľà¦Ľ":1764,"à¦Ĺà¦ķ":1765,"à¦£à¦Ĺ":1766,"Ġà¦¹à¦ķ":1767,"Ġà¦ıà¦ķà¦°":1768,"Ġà¦¸à¦¬à¦¸à¦®à¦¯":1769,"à¦ªà¦ķà¦¥à¦¨":1770,"...":1771,"Ġà¦ħà¦¬à¦¤":1772,"Ġà¦Ŀà¦ķà¦Ŀà¦ķ":1773,"Ġà¦Ĩà§Łà¦¨":1774,"Ġà¦ıà¦°à¦ĩ":1775,"à¦ĵà¦¨":1776,"à¦ıà¦ķà¦ľà¦¨":1777,"à¦ĩà¦ĸ":1778,"Ġà¦ħà¦·":1779,"à¦¾,âĢĿ":1780,"Ġà¦ľà¦¨à¦¤":1781,"Ġà¦īà¦ªà¦¦":1782,"à¦®à¦ĵ":1783,"à¦ķà¦«":1784,"à¦¬à¦Ľà¦°":1785,"à¦¼à§į":1786,"à¦ħà¦ķ":1787,"Ġà¦Ĺà¦£à¦¤à¦¨":1788,"Ġà¦¬à¦§":1789,"à¦ľà¦ĩ":1790,"à§Łà¦ķ":1791,"à¦°à¦¤à¦®":1792,"à¦ķà¦ĵ":1793,"à¦¯à¦¬à¦¦":1794,"Ġà¦Ĩà¦ļà¦®à¦ķ":1795,"ing":1796,"à¦¨à¦Ĺà¦°":1797,"à¦¦à¦Ľ":1798,"Ġà¦¤à¦ª":1799,"Ġà¦ħà¦²à¦ķ":1800,"Ġà¦Ŀà¦²à¦¸":1801,"Ġà¦¥à¦®":1802,"à§Īà¦ĥ":1803,"ion":1804,"Ġà§©":1805,"à¦®à¦¨à¦¸":1806,"Ġà¦¹à¦ĩà¦²":1807,"à¦¡à¦¬à¦¦":1808,"ed":1809,"Ġ\"":1810,"à¦ªà¦ľ":1811,"à¦ļà¦Ľ":1812,"Ġà¦²à§Ł":1813,"à§İà¦¸à¦°":1814,"Ġà¦¹à¦¤à¦Ń":1815,"ic":1816,"ou":1817,"Ġà¦¬à¦°à¦£":1818,"Ġà¦¸à¦¸":1819,"à¦¶à¦¹":1820,"à§Łà¦¬":1821,"Ġà¦°à¦ĵà¦¨":1822,"à¦¸à¦ĩ":1823,"à¦ĸà¦ĸ":1824,"âĢįà§į":1825,"Ġà¦ªà¦°à¦¤":1826,"à¦·à¦¨":1827,"Ġà¦°à¦¨":1828,"à¦¿à¦Ĥ,":1829,"Ġà¦§à¦°à¦¬":1830,"à¦¼à¦¿à¦Ĥ":1831,"Ġà¦ĺà¦Łà¦²":1832,"),":1833,"à¦ķà¦·":1834,"à¦Ńà¦°à¦¤":1835,"Ġà¦§à¦®à¦ķ":1836,"à¦Łà¦«à¦Ł":1837,"à¦®à¦Ŀ":1838,"Ġà¦¯à¦¬":1839,"à¦°à¦¬à¦£à¦¤":1840,"à¦¤à¦ļ":1841,"à¦²à¦°":1842,"Ġà¦ķà¦Ń":1843,"à¦Ĩà¦ª":1844,"à§·":1845,"Ġà¦¤à¦¦":1846,"Ġà¦ªà§ľà¦¤":1847,"Ġà¦¤à¦¤à¦ĩ":1848,"à§ĭâĢĵ":1849,"Ġà¦²à¦¹à¦°":1850,"Ġf":1851,"Ġà¦ħà¦¨à¦¬à¦¦":1852,"Ġà¦ıà¦ĩà¦ĸ":1853,"à¦ĺà¦¦":1854,"Ġà¦Ŀà¦Ĺà¦¡":1855,"ÂłÂłÂłÂłÂłÂłÂłÂłÂłÂłÂłÂłÂłÂłÂłÂł":1856,"à¦¸à¦ĵ":1857,"Ġà¦®à¦®":1858,"à¦īà¦®":1859,"à¦¿à¦Ĥ-":1860,"Ġà¦Ĩà¦ł":1861,"Ġà¦¨à¦Ł":1862,"Ġà¦¯à¦¤à¦¦":1863,")à¥¤":1864,"as":1865,"Ġà¦ķà¦¬à¦°":1866,"à¦¡à¦ķ":1867,"Ġà¦¶à¦¨":1868,"à¦Ńà¦¸":1869,"Ġà¦Ľà¦Ł":1870,"Ġà¦ĵà¦¸à¦¬":1871,"Ġà¦ħà¦Ĺà¦£":1872,"Ġà¦ĭà¦Ĺ":1873,"le":1874,"à¦¨à¦ľ":1875,"à¦¬à§ľ":1876,"Ġà¦¸à¦«":1877,"à¦ľà¦Ļ":1878,"à¦ļà¦¶":1879,"à¦¼à¦¾âĢĶ":1880,"à¦īà¦ļ":1881,"à¦ħà¦¨à¦¨":1882,"Ġà¦Ĩà¦¬à¦¶":1883,"Ġà¦ķà¦¤à¦¦":1884,"Ġà¦¨à§ľ":1885,"Ġà¦ªà¦°à¦ĩ":1886,"Ġà¦Ĩà¦ķà¦¸":1887,"Ġd":1888,"Ġà¦¦à¦Ĺ":1889,"Ġà¦¦à¦¶à¦ķ":1890,"Ġà¦īà¦ķ":1891,"à¦ħà¦ªà¦°":1892,"Ġà¦¸à¦¦à¦¸":1893,"à¥¤à¥¤":1894,"Ġà¦Ľà¦Łà¦«à¦Ł":1895,"Ġà¦ħà¦¨à¦¬à¦°à¦¤":1896,"à¦ıà¦²":1897,"à¦²à¦ĸ":1898,"Ġà¦®à§İà¦¸":1899,"Ġà¦ıà¦¯":1900,"à¦Ĩà¦¯":1901,"Ġà¦ĩà¦ī":1902,"à¦¦à¦£":1903,"Ġà¦¶à¦¶":1904,"Ġà¦¶à¦«":1905,"Ġà¦ĸà¦¡":1906,"Ġà¦ħà¦¬à¦²à¦®":1907,"à¦Ĺà¦ĩ":1908,"Ġà§§à§¯à§Ń":1909,"Ġà¦ķà¦¦à¦®":1910,"à¦¤à¦ĵ":1911,"Ġà¦Ĩà¦¬à¦°à¦£":1912,"à¦¸à¦®à¦¸":1913,"Ġà¦¹à¦Ł":1914,"à¦¬à¦¨à¦Ł":1915,"à¦¦à¦ĩ":1916,"Ġà¦¬à¦ĩà¦Ł":1917,"à¦·à¦Ń":1918,"à¦£à¦®":1919,"Ġà¦ĸà¦°":1920,"Ġà¦®à¦¦à¦¨":1921,"à¦ļà¦¸":1922,"Ġà¦Ĺà¦¤à¦ķ":1923,"Ġà¦ļà§ľ":1924,"à¦ĵà¦¦":1925,"à¦¬à¦¸à¦¨":1926,"à¦£à¦¬à¦¨":1927,"Ġà¦²à¦¨":1928,"Ġà¦ªà¦°à¦ķ":1929,"Ġh":1930,"à¦®à¦¸à¦®":1931,"Ġà¦¬à¦£":1932,"Ġà¦ħà¦§à¦°":1933,"à¦²à¦ĵ":1934,"à¦ľà¦§":1935,"Ġà¦¯à¦¤à¦ķ":1936,"à¦¬à¦ĵ":1937,"à¦·à¦Ĺ":1938,"à¦īà¦¬":1939,"Ġà¦¥à¦®à¦¥à¦®":1940,"ĠÂł":1941,"à§ĩâĢĿ":1942,"Ġà¦¹à¦ĩà¦¤":1943,"à¦ĵà¦Ĺ":1944,"à¦Ĩà¦¹":1945,"à¦¯à¦Ļ":1946,"Ġà¦ıà¦¤à¦ĩ":1947,"Ġà¦¨à¦²":1948,"Ġà¦¹à¦ĩà¦¯":1949,"à¦łà¦¤":1950,"Ġà¦«à¦ķ":1951,"Ġà¦Ĩà¦Ľà¦¡":1952,"Ġà¦ĩà¦ľ":1953,"Ġà§¨à§¦":1954,"Ġà¦ıà¦ķà¦Ĺ":1955,"à¦ķà¦²à¦®":1956,"à§ĢâĢĻ":1957,"à¦ĸà¦¯":1958,"à¦ĸà¦Ĺ":1959,"à¦Ļà¦¨":1960,"Ġà¦ĵà§Ł":1961,"Ġà¦ıà¦Ľ":1962,"à§ľà¦¤":1963,"à¦Ŀà¦¡":1964,"Ġà¤":1965,"à¦¸à¦¡":1966,"à¦ĸà¦¬à¦°":1967,"à¦·à¦ªà¦°":1968,"Ġà¦Ĩà¦°à¦¤":1969,"à¦°à¦¥à¦°":1970,"Ġà¦ķà¦¤à¦ķ":1971,"à¦¾à¦ĥà¥¤":1972,"à§ĢâĢĵ":1973,"à¦ĺà¦£":1974,"à¦Ĺà¦ł":1975,"Ġà¦ķà¦²à¦Ļ":1976,"Ġà¦ªà¦Łà¦Ń":1977,"à¦¨à¦®à¦¯":1978,"Ġà¦ķà¦Ļ":1979,"Ġà¦ıà¦ķà¦¦à¦²":1980,"à¦¿,âĢĿ":1981,"à¦¹à¦¦":1982,"Ġà¦īà¦Ĺ":1983,"Ġà¦²à¦Ļ":1984,"Ġà¦Ĩà¦Łà¦Ł":1985,"à¦¤à¦°à¦Ł":1986,"Ġà¦®à¦¸à¦ľ":1987,"à¦Łà¦ĵà¦¯":1988,"à¦£à¦°":1989,"à¦£à¦Ń":1990,"à¦Ĩà¦ĩ":1991,"à¦¹à¦°à¦£à¦¸":1992,"à¦ķà¦¬à¦°":1993,"à§ĩ--":1994,"Ġà¦ħà¦£":1995,"Ġà¦ħà¦¥à¦°":1996,"Ġà¦Ĩà¦¹à¦¤":1997,"à¦ķà¦ľ":1998,"Ġà¦¦à¦®à¦¨":1999,"Ġà¦¤à¦°à¦²":2000,"à¦¶à¦Ŀ":2001,"Ġà¦¥à¦°à¦¥à¦°":2002,"à¦²à¦Ľà¦²":2003,"Ġà¦ªà¦Ļ":2004,"à¦ľà¦ĵ":2005,"Ġà¦ıà¦ª":2006,"Ġà¦¸à¦²":2007,"à§Ģà¦Ĥ":2008,"à¦¼à¦¿-":2009,"à¦ıà¦¦":2010,"Ġà¦ªà¦¥à¦ļ":2011,"Ġà¦¤à¦°à¦«":2012,"ct":2013,"à¦§à¦Ł":2014,"à§ľà¦ķ":2015,"à¦°à¦£à¦¤":2016,"Ġà¦ħà¦¬à¦¸à¦°":2017,"Ġà¦łà¦ķ":2018,"à¦ħà¦§":2019,"à§ĭâĢ¦":2020,"à§ĭ!âĢĿ":2021,"Ġà¦¦à¦«":2022,"ĠĠĊĠĠ":2023,"Ġà¦ķà¦²à¦¤":2024,"à¦łà¦¶":2025,"âĢĻ-":2026,"à¦·à¦°à¦Ĺ":2027,"à§ĭà¦Ĥ":2028,"à¦¦à¦ĵ":2029,"à¦ªà¦ķà¦²":2030,"à§Ģ;":2031,"à¦ıà¦ķà¦¬":2032,"Ġà¦ıà¦®à¦¨à¦Ń":2033,"Ġà¦ħà¦²à¦¸":2034,"Ġà¦Ŀà¦°à¦Ŀà¦°":2035,"à¦·à¦ķà¦¦":2036,"om":2037,"ve":2038,"à§Łà¦²":2039,"à¦°à¦ķà¦Ł":2040,"Ġà¦¶à¦°à§İ":2041,"à¦ķà¦ĸ":2042,"Ġà¦¦à¦ĩ":2043,"à¦ĵà¦¤":2044,"à§ľà¦¨":2045,"Ġà¦§à¦°à¦Ľ":2046,"---":2047,"à¦¼à§ĩâĢĶ":2048,"à¦°à¦¬à¦£":2049,"à¦ħà¦¤à¦ıà¦¬":2050,"à¦¤à¦°à¦ķ":2051,"Ġà¦¸à¦¹à¦ķà¦°":2052,"à¦¯à¦°à¦¸":2053,"à¦£à¦ª":2054,"Ġà¦¶à¦®":2055,"Ġà¦ªà¦¹":2056,"Ġà¦§à¦¡":2057,"Ġà¦Ĩà¦¨à¦Ľ":2058,"Ġà¦ľà¦²à¦§":2059,"Ġà¦¬à¦ĩà¦Ľ":2060,"Ġin":2061,"Ġà¦Ĺà¦¹à¦¨":2062,"à¦¬à¦°à¦²":2063,"Ġà¦ľà¦¨à¦Ĺà¦£":2064,"à¦¤à¦ĸà¦¨à¦ĩ":2065,"Ġand":2066,"à¦¯à¦ŀ":2067,"Ġà¦¨à¦®à¦¸":2068,"Ġà¦®à¦ľà¦¬":2069,"à¦Ĺà¦®à¦¨":2070,"Ġn":2071,"à¦¼:":2072,"Ġà¦ļà¦²à¦®":2073,"Ġà¦ĺà¦Łà¦¬":2074,"Ġà¦¦à¦£":2075,"à¦«à¦¸":2076,"à¦Ĩà¦¦":2077,"Ġà¦ħà¦¬à¦ļ":2078,"à¦ķà¦®à¦¤":2079,"à¦¶à¦Ĺà¦¤":2080,"Ġà¦°à¦ľà¦¨":2081,"Ġà¦Ľà¦¦":2082,"à¦īà¦ªà¦¸":2083,"à¦¨à¦¤à¦®":2084,"à¦°à¦¶à¦¸":2085,"**":2086,"à¦¤à¦²à¦¤":2087,"Ġà¦®à¦¥":2088,"Ġà¦ĸà¦¨":2089,"à¦Ī":2090,"à¦¬à§İ":2091,"à¦®à¦ļà¦¨":2092,"Ġà¦¦à¦¸":2093,"à¦ĸà¦ļ":2094,"à§Łà¦¸":2095,"Ġà¦ĵà¦¸":2096,"Ġà¦Īà¦¦":2097,"à¦¡à¦Ĺ":2098,"à§Łà¦°":2099,"à§Łà¦¦":2100,"Ġà¦Ĩà¦¸à¦°":2101,"à¦¬à¦²à¦®":2102,"Ġà¦ªà¦¥à¦ª":2103,"à¦¦à¦°à¦ľ":2104,"Ġà¦ªà§ľà¦¬":2105,"Ġà¦¹à¦¤à¦Ńà¦®":2106,"Ġl":2107,"à¦°à¦¸à¦¬":2108,"Ġà¦ķà§ľ":2109,"Ġà¦¸à¦¡":2110,"Ġà¦Ľà¦²à¦Ľà¦²":2111,"à§Łà¦¬à¦¦":2112,"à¦Ŀà¦¨":2113,"à¦ķà¦¯":2114,"à¦Ĺà¦ª":2115,"Ġà¦ĩà¦¨à¦¸":2116,"Ġà§§":2117,"à¦§à¦²":2118,"Ġà¦Ľà¦¤":2119,"Ġà¦īà¦§":2120,"à§ľà¦Ľ":2121,"à¦°à¦®à¦¹":2122,"Ġà¦¸à¦¦à¦°":2123,"à¦ªà¦Łà¦ª":2124,"à¦°à¦ŀ":2125,"Ġà¦¨à¦Ĺ":2126,"à¦Ľà¦¡":2127,"Ġà¦ĵà¦ľà¦¨":2128,"à¦°à¦£à¦¨":2129,"Ġà¦Łà¦²à¦®à¦²":2130,"à¦¨à¦ĵà¦¦":2131,"Ġà¦¬à§İà¦¸à¦°":2132,"à¦ªà¦ª":2133,"à¦ĺà¦ķ":2134,"à§ĭà¥¤âĢĻ":2135,"ÂŃ":2136,"Ġà¦¬à¦Łà¦¬":2137,"Ġà¦ıà¦ķà¦ľ":2138,"à¦°à¦¤à¦²":2139,"Ġà¦ªà¦°à¦ĵ":2140,"âĢĻâĢĶ":2141,"Ġà¦¬à¦ĩà¦¤":2142,"Ġà§§à§¯à§«":2143,"à§ĭ:":2144,"Ġà¦¨à¦ĸ":2145,"à¦Ĺà¦ŀ":2146,"à¦¥à¦ª":2147,"à¦Ĩà¦Ļ":2148,"à¦¼à¥¤âĢĻ":2149,"à¦¨à¦ĸ":2150,"à¦¡à¦ª":2151,"Ġà¦¸à¦°à¦²à¦¤":2152,"Ġà¦ĭà¦¦":2153,"Ġà¦¤à¦¤à¦Ł":2154,"à§Ĥà¦ģ":2155,"à¦īà§İà¦¸à¦¬":2156,"Ġà¦Ĩà¦¶à¦ª":2157,"à¦¾âĢĶâĢľ":2158,"Ġà§§à§¯à§Ńà§§":2159,"ĠI":2160,"à¦¬à¦ļà¦¨":2161,"à¦¸à¦¹à¦¸":2162,"Ġà¦ľà¦¨à¦Ĺ":2163,"Ġà¦īà§İà¦¸à¦°":2164,"Ġà¦Īà¦°":2165,"ot":2166,"à¦¸à¦¯":2167,"à¦Łà¦Ń":2168,"Ġà¦Ľà¦²à¦¨":2169,"Ġà¦¨à¦¥":2170,"à¦ĩà¦¸à¦¬":2171,"à¦Ĺà¦¯":2172,"à¦¹à§Ł":2173,"Ġà¦ıà¦ķà¦°à¦ķà¦®":2174,"Ġà¦ľà¦²à¦ª":2175,"Ġà¦ĺà¦Łà¦¤":2176,"Ġà§«":2177,"à§ĭ?âĢĻ":2178,"à¦Ľà¦ķ":2179,"Ġà¦¦à¦¹à¦¨":2180,"Ġà¦ªà¦°à¦ªà¦°":2181,"Ġà¦ľà¦¨à¦ª":2182,"Ġà¦®à¦¹à¦°":2183,"à¦§à¦¨à¦ķ":2184,"Ġà¦ķà¦²à¦ķà¦²":2185,",âĢĻ":2186,"à¦¨à¦¸à¦®":2187,"Ġà¦¶à¦ĸ":2188,"à¦Ĥ,":2189,"à§§à§¯":2190,"Ġth":2191,"à¦¯à¦²":2192,"à¦¸à¦ĸ":2193,"à¦¸à¦Ĺ":2194,"ra":2195,"à¦Łà¦ĩ":2196,"à¦¡à¦Ł":2197,"Ġà¦¯à¦¶":2198,"Ġà¦ķà¦¤à¦Ĺ":2199,"Ġà¦¸à¦«à¦²à¦¤":2200,"à¦²à¦®à¦¨":2201,"à¦¬à¦Ļ":2202,"à¦·à¦ķà¦°":2203,"Ġà¦Ĺà¦¯":2204,"âĢĿâĢĶ":2205,"à¦ķà¦Łà¦ķ":2206,"Ġà¦ľà¦²à¦ľ":2207,"à¦¿à¦Ĥà¥¤":2208,"à¦ıà¦ķà¦ĩ":2209,"à¦ľà¦¡":2210,"à¦¤à¦§":2211,"à¦ľà¦ķà¦°":2212,"à¦¬à¦¨à¦§":2213,"Ġà¦¸à¦¬à¦Ł":2214,"Ġà¦¡à¦Ĺ":2215,"Ġà¦ħà¦²à¦Ļ":2216,"Ġà¦ķà¦¨à¦¸":2217,"à¦¼à§ĩ?":2218,"à¦ļà§Łà¦¤":2219,"Ġà¦²à¦¬à¦£":2220,"Ġà¦ªà¦°à¦²":2221,"à¦¬à¦¬à¦°":2222,"Ġà¦¨à¦¬à¦¦":2223,"à¦ĩà¦ĩ":2224,"Ġà¦ıà¦ľ":2225,"à¦¹à§Łà¦¤":2226,"Ġà¦¨à§Łà¦¨":2227,"ol":2228,"Ġà¦¨à¦ķà¦²":2229,"à¦īà¦ª":2230,"Ġà¦ĩà¦¦":2231,"Ġà¦¯à¦ĸà¦¨à¦ĩ":2232,"Ġà¦Ńà¦°à¦ª":2233,"Ġà¦¬à¦¹à¦®":2234,"à¦¾!âĢĻ":2235,"Ġà¦ĸà¦¬à¦°à¦Ł":2236,"all":2237,"à¦®à¦¹à¦¤":2238,"à¦¶à¦ĵ":2239,"à¦Ĺà§ľ":2240,"à¦·à¦ľ":2241,"Ġà¦Łà¦²":2242,"st":2243,"à¦Ĩà¦¸à¦²":2244,"à¦ĺà¦¡":2245,"Ġà¦ħà¦ªà¦¬":2246,"Ġà¦·à¦¡":2247,"à¦²à¦Ļ":2248,"Ġà¦§à¦¨à¦¤":2249,"à¦ľà¦¨à¦ĩ":2250,"ĠĠĊĠ":2251,"à§°à¦¤":2252,"à¦¨à¦¶à¦¨":2253,"à¦ķà¦®à¦²":2254,"Ġà¦¸à¦¯à¦¤":2255,"à¦Łà¦¹":2256,"Ġà¦®à¦¹à§İ":2257,"à¦ĭà¦·":2258,"Ġà§ª":2259,"Ġà¦¤à¦¦à¦¨":2260,"à¦§à¦¦":2261,"Ġà¦ĵà¦¹":2262,"Ġà¦ªà¦¥à¦Ł":2263,"à¦°à¦²à¦¯":2264,"à¦ľà¦Ĺà§İ":2265,"ĠA":2266,"à¦·à¦Ļ":2267,"Ġà¦ķà¦°à¦£":2268,"Ġà¦¸à¦¹à¦ª":2269,"Ġà§§à§©":2270,"à¦®à¦®à¦¤":2271,"à¦·à¦ĵ":2272,"à¦£à¦¯":2273,"à§ĩà¥¤à¥¤":2274,"el":2275,"Ġà¦¤à¦«":2276,"à¦§à¦¸":2277,"Ġà¦īà¦ªà¦ľ":2278,"Ġà¦¤à¦°à¦«à¦¦":2279,"à§į-":2280,"à¦®à¦«":2281,"à§ĭâĢĻ":2282,"Ġà¦Ĩà¦ŀ":2283,"Ġà¦¨à¦°à¦ķ":2284,"à¦¶à¦Ļ":2285,"à¦ļà¦ľà¦¨":2286,"à¦łà¦°":2287,"à¦¬à¦²à¦²":2288,"à¦ħà¦®à¦²":2289,"Ġà¦īà¦ªà¦ķà¦°à¦£":2290,"ent":2291,"et":2292,"à¦®à§ľ":2293,"Ġà¦ıà¦ķà¦¯":2294,"à¦°à¦¬à¦§":2295,"Ġà¦®à¦¤à¦ĩ":2296,"à§°à¦¹":2297,"Ġà¦¤à¦¤à¦¦":2298,"à¦ľà¦ªà¦¥":2299,"à¦¯à¦¬à¦°":2300,"à¦®à¦ķà¦°":2301,"Ġà¦ĵà¦Ń":2302,"Ġà¦ĺà¦·":2303,"Ġà¦ħà¦¸à¦Ń":2304,"à¦®à¦£à¦¦":2305,"à§§à§¦":2306,"ut":2307,"à¦¹à¦¨à¦¬":2308,"Ġà¦ĩà¦īà¦°":2309,"à¦ĺà¦Ł":2310,"Ġà¦¸à¦¹à¦ķ":2311,"il":2312,"ĠP":2313,"à¦¿'":2314,"à¦¼à§ģ,":2315,"Ġà¦Ĩà¦ĩà¦¡":2316,"à¦ªà¦Ļ":2317,"à¦£à¦¸":2318,"Ġà¦¬à¦°à¦ŀ":2319,"Ġà¦Ĺà¦£à¦®":2320,"Ġto":2321,"à§ĩà¦¾à¦ģ":2322,"Ġà¦¬à¦®":2323,"Ġà¦¸à¦«à¦°":2324,"Ġà¦ªà¦¤à¦¨":2325,"à¦¥à¦¹":2326,"à¦¼à¦¾!":2327,"Ġà¦²à¦£":2328,"Ġà¦Ŀà¦Ł":2329,"Ġà¦ħà¦ªà¦°à¦ķ":2330,"à¦¸à¦ªà¦¤":2331,"à¦£à¦Ĺà¦¤":2332,"à¦®à¦¨à¦Ł":2333,"Ġà¦Ŀà¦°à¦Ľ":2334,"à¦Ĳà¦¤":2335,"à¦¤à¦¯":2336,"à¦¬à¦¹à¦¨":2337,"à¦łà¦ķà¦ķ":2338,"à¦ªà¦°à¦®":2339,"à¦«à¦¨":2340,"à§¦à§¦":2341,"Ġ.":2342,"à¦¨à¦¬à¦°":2343,"à¦ªà¦ŀ":2344,"à§Ģ?âĢĻ":2345,"Ġà¦ļà¦£":2346,"Ġà¦ĸà¦Ł":2347,"à¦Ĩà¦Ľ":2348,"à¦Ĩà¦¡":2349,"Ġà¦īà¦ªà¦®":2350,"ĠM":2351,"Ġà¦¹à¦¤à¦¬":2352,"à¦§à¦ķà¦¤":2353,"à¦¹à¦Ł":2354,"Ġà¦¥à¦°":2355,"Ġà¦¸à¦®à¦·":2356,"ĠâĢ¦":2357,"à¦¬à¦¨à¦¬":2358,"à§ľà¦²":2359,"Ġà¦¬à¦¨à¦Ń":2360,"à¦¤à¦ªà¦ķ":2361,"à¦¦à¦®à¦¯":2362,"Ġà¦®à¦¶à¦²":2363,"à¦ªà¦ĵ":2364,"Ġà¦¥à¦²":2365,"à§ĩ)":2366,"à§į!":2367,"à¦¨à¦¤à¦°":2368,"à¦¯à¦ļ":2369,"Ġà¦ķà¦¤à¦¬":2370,"à¦¬à¦²à¦ĩ":2371,"à¦Ĺà¦ľà¦ªà¦¤":2372,"à¦¼âĢ¦":2373,"à¦®à¦ĸ":2374,"Ġà¦¹à¦ĩà¦¬":2375,"à¦Ĺà¦¬à¦¤":2376,"Ġà¦Ĺà¦£à¦¤":2377,"à¦ħà¦«":2378,"ÂłÂłÂłÂłÂłÂłÂłÂłÂł":2379,"Ġà¦¨à¦ĵ":2380,"Ġà¦¦à¦°à¦¬":2381,"à¦§à¦¶":2382,"à¦¥à¦ķà¦¤":2383,"Ġà¦Ńà¦Ł":2384,"Ġà¦ªà¦¦à¦§":2385,"Ġà¦Ĩà¦«à¦¸":2386,"Ġ/":2387,"ĠB":2388,"à§ģâĢĵ":2389,"Ġà¦¦à¦®à¦ķ":2390,"à¦¡à¦®":2391,"à¦¡à¦¸":2392,"à¦²à¦ķà¦£":2393,"à§Ŀà¦¤":2394,"Ġà¦ªà¦ļ":2395,"Ġà¦Ĩà¦·":2396,"Ġà¦«à¦¡":2397,"Ġà¦ĺà§ľ":2398,"Ġà¦¡à¦²":2399,"Ġà¦®à¦¤à¦¬":2400,"à¦ħà¦°à¦£":2401,"Ġà¦ľà¦²à¦¦":2402,"Ġà¦ĺà¦Łà¦Ľ":2403,"à¦¨à§Ł":2404,"à¦ĸà¦®":2405,"à¦·à§İ":2406,"à¦Ĺà¦ľà¦Ł":2407,"Ġà¦®à¦°à¦¤":2408,"Ġà¦ħà¦Ŀ":2409,"Ġà¦ħà§Łà¦¨":2410,"à¦ľà¦¨à¦¨":2411,"à¦Ĩà¦ĩà¦¨":2412,"à§ĭ,âĢĿ":2413,"Ġà§§à§¯à§«à§¨":2414,"__":2415,"à¦ĩà¦Ĺ":2416,"Ġà¦¤à¦®":2417,"Ġà¦ıà¦ĵ":2418,"à¦°à¦¤à¦¨":2419,"Ġà¦ıà¦ĩà¦¬":2420,"Ġà¦Ĩà¦²à¦Ĺ":2421,"Ġà¦ľà¦¨à¦ªà¦¦":2422,"Ġà§§à§¦":2423,"Ġà¦®à¦°à¦®":2424,"à¦ĩà¦¹":2425,"à¦¶à¦ªà¦¥":2426,"à¦ĸà¦®à¦¯":2427,"à¦¥à¦¸":2428,"à¦«à¦¡":2429,"Ġà¦®à¦¹à¦¤":2430,"un":2431,"ĠS":2432,"à¦¼à§ĩ;":2433,"Ġà¦īà¦ĩà¦²":2434,"à¦¯à¦¬à¦§":2435,"à¦Ĭ":2436,"Ġà¦¦à§Ł":2437,"à¦¹à¦ĩ":2438,"à¦£à¦Ł":2439,"à¦Ńà¦°à¦¶":2440,"Ġà¦ħà¦Ńà¦¯":2441,"Ġis":2442,"à¦¨à¦¡":2443,"à¦¼à§Ģ,":2444,"Ġà¦¹à¦²à¦¦":2445,"à¦ĥ,":2446,"ÂłÂłÂłÂłÂłÂł":2447,"ay":2448,"Ġe":2449,"à¦¼à§Ģà¥¤":2450,"Ġà¦¨à¦Ń":2451,"Ġà¦¨à¦¬à¦ķ":2452,"à¦¨à¦®à¦¨":2453,"à¦¤à¦¥":2454,"à¦¯à¦ľà¦¨":2455,"à¦¸à¦ľ":2456,"à¦¶à§Ł":2457,"Ġà¦Ĺà¦ł":2458,"à¦Ĥà¥¤":2459,"à¦īà¦¶à¦¨":2460,"Ġà¦ıà¦ĸà¦¨à¦ķ":2461,"Ġà¦®à¦¹à¦²":2462,"Ġà¦ķà¦ĸà¦¨à¦ĩ":2463,"à¦ļà§Łà¦ĩ":2464,"Ġà¦¸à¦ĩ":2465,"à¦¶à¦Ń":2466,"à¦£à¦ļ":2467,"Ġà¦®à¦¨à¦¨à¦¶":2468,"Ġà¦¡à¦ķ":2469,"à¦®à¦¬à¦Ļ":2470,"à¦ķà¦°à¦¬":2471,"à¦Łà¦¬à¦²":2472,"à¦ªà¦¶à¦¨":2473,"Ġà¦ħà¦¡":2474,"à¦ĵà¦Ł":2475,"à¦¤à¦°à¦ĩ":2476,"à¦ħà¦Ļ":2477,"Ġà¦¸à¦ķà¦²à¦ķ":2478,"Ġà§Ń":2479,"à¦¾âĢ¦âĢĿ":2480,"à¦Łà¦ĵ":2481,"à¦Ļà¦°":2482,"à¦Ŀà¦ªà¦¥":2483,"à¦·à¦£à¦¸":2484,"à¦ħà¦¥":2485,"à¦¦à¦¨à¦¶":2486,"à¦²à¦¨à¦®":2487,"à¦°à¦ªà¦°à¦ĵ":2488,"à¦ĩà¦°à¦ķà¦®":2489,"Ġà¦¤à¦°à¦ķ":2490,"Ġà¦²à¦¬":2491,"Ġà¦Ĩà¦Ĺà¦²":2492,"ÂłÂłÂłÂłÂłÂłÂł":2493,"Ġà¦ķà¦¨à¦«":2494,"à¦²à¦¶":2495,"à¦²à¦¡":2496,"Ġà¦²à¦ĺ":2497,"Ġà¦¸à¦®à¦ķ":2498,"à¦ıà¦ķà¦¤":2499,"Ġà¦ĩà¦°":2500,"à¦Ĺà¦²à¦Ł":2501,"à§ĩâĢĶâĢĺ":2502,"ÂłÂłÂłÂłÂł":2503,"Ġà¦¶à¦°à§İà¦ļà¦¨":2504,"ig":2505,"à§ĩà¦Ĥ":2506,"à¦¯à¦®à¦¨à¦¸":2507,"Ġà¦ħà¦°à¦¬":2508,"Ġà¦ħà¦ĸà¦£":2509,"à§ľà¦¬":2510,"à¦¼à§ĩ!":2511,"Ġà¦ļà¦¬":2512,"Ġà¦«à¦£":2513,"Ġà¦īà§İà¦ķà¦£":2514,"Ġà¦¬à¦īà¦®":2515,"à§į,":2516,"Ġà¦ķà¦¸":2517,"Ġà¦¸à¦¯":2518,"à¦§à¦ĩ":2519,"Ġà¦ļà¦ĵà¦¡":2520,"Ġà¦²à¦Ĺ":2521,"Ġà¦ķà¦²à¦¸":2522,"à§ĩâĢ¦âĢĿ":2523,"à¦°à¦¡":2524,"à¦°à¦ĸà¦°":2525,"à¦¶à¦«":2526,"à¦¹à¦£":2527,"Ġà¦īà¦Ńà§Ł":2528,"Ġà¦ħà¦¬à¦ľ":2529,"âĢĵâĢĵ":2530,"Ġà¦¤à¦ĸà¦¨à¦ķ":2531,"à¦¬à¦ķà¦¦":2532,"à¤¾":2533,"à¦Ĺà¦ĵ":2534,"à¦¹à¦Ļ":2535,"Ġà¦ªà¦°à¦¬":2536,"à¦ªà¦°à¦ķ":2537,"à¦°à¦¹à¦¸":2538,"Ġà¦īà¦ªà¦¤":2539,"Ġà¦ħà¦¬à¦¨à¦¤":2540,"Ġà¦Ķà¦ªà¦¨":2541,"à§ģ;":2542,"à¦¼à§ĭà¥¤":2543,"à¦ĸà¦¦":2544,"à¦Ńà¦Ł":2545,"Ġà¦²à¦°":2546,"Ġà¦ıà¦ķà¦ľà¦¨à¦ķ":2547,"à¦¸à¦ķà¦·":2548,",-":2549,"ur":2550,"æŃ":2551,"Ġre":2552,"à§ĩâĢĿà¥¤":2553,"à¦®à¦ļà¦°":2554,"à¦Łà¦ĵà§Ł":2555,"Ġà¦¨à¦¸":2556,"Ġà¦¦à¦°à¦¦":2557,"à¦Ĺà¦Ļ":2558,"à¦£à¦ªà¦£":2559,"à¦Ļà¦¬":2560,"à¦ªà¦°à¦¦":2561,"Ġà¦¸à¦¬à¦ľ":2562,"à§ĭâĢĶâĢľ":2563,"Ġà¦ľà§Łà¦Ĺ":2564,"à¦¾à¦ĥ,":2565,"æŃĵ":2566,"áĥ":2567,"à¦¸à¦ļ":2568,"à¦Ĺà¦¬à¦¨":2569,"Ġà¦ľà¦®à¦¤":2570,"à¦Ŀà¦°à¦¨":2571,"à¦·à¦£à¦ķ":2572,"Ġà¦ĩà¦¨à¦ľ":2573,"ĠÂłĠÂł":2574,"æŃĵæŃĵ":2575,"à¦¼à§ĭ,":2576,"à¦¸à¦ŀ":2577,"à¦¸à§İ":2578,"Ġà¦ıà¦ľà¦¨":2579,"à¦§à¦ĵ":2580,"à¦§à¦Ń":2581,"ĠĠĠĠ":2582,"Ġà¦Ĩà¦®à¦Ĺ":2583,"Ġà¦ĵà¦®":2584,"à¦¬à¦¨à¦®":2585,"à¦¬à¦¤à¦ĩ":2586,"à§ĩ!âĢĻ":2587,"Ġà¦¶à¦¹à¦°à¦Ł":2588,"Ġà¦Ŀà¦¨à¦Ŀà¦¨":2589,"Ġà¦Ĩà¦ĸà¦¡":2590,"ĠT":2591,"à¦¨à¦·":2592,"à¦¯à¦ķà¦²":2593,"à¦¼?âĢĿ":2594,"à¥į":2595,"à¦ªà¦Ŀ":2596,"Ġà¦¹à¦¦":2597,"Ġà¦¤à¦Ł":2598,"à¦¶à¦Ľ":2599,"à¦ĸà¦¡":2600,"à¦Ńà¦¦":2601,"à¦īà¦Ĺ":2602,"à¦īà¦ªà¦°":2603,"à¦°à¦®à¦°":2604,"à¦ķà¦°à¦¶":2605,"à§§à§Ń":2606,"à¦°à¦¹à¦£à¦¯":2607,"à¦¬à¦°à¦¬":2608,"à¦·à¦ľà¦¨":2609,"à¦ļà¦ĩ":2610,"Ġà¦ĵà¦¨":2611,"Ġà¦ľà¦¨à¦ľ":2612,"Ġà¦ĩà¦¤à¦¸":2613,"ation":2614,"à¦¨à¦Ńà¦°":2615,"à¦ĩà¦ĵ":2616,"à¦§à¦Ľ":2617,"à¦£à¦¹":2618,"Ġà¦²à¦Ń":2619,"à¦ªà¦°à¦¬à¦°":2620,"à¦ħà¦ľà¦¸":2621,"Ġbe":2622,"ĠR":2623,"à¦¤à¦ĸ":2624,"à¦¸à¦°à¦²":2625,"à¦ªà¦¤à¦¨":2626,"à¦Ĺà¦ļ":2627,"à¦¡à¦¶":2628,"Ġà¦¸à¦®à¦Ŀ":2629,"Ġà¦ľà¦²à¦¸":2630,"Ġà¦Īà¦·à§İ":2631,"à¦°à¦ļà¦¨":2632,"à¦®à¦¹à¦°":2633,"à¦°à¦ķà¦°":2634,"à¦¨à¦ķà¦¥":2635,"à¦Ĩà¦ľà¦ĵ":2636,"ÂŃÂŃ":2637,"os":2638,"à§ĭâĢ¦âĢĿ":2639,"Ġà¦ķà¦¬à¦²":2640,"à¦ªà¦¹":2641,"Ġà¦¹à¦°à¦£":2642,"Ġà¦ıà¦¶":2643,"à¦īà¦·":2644,"Ġà¦Łà¦®":2645,"à¦¨à¦¬à¦¦":2646,"Ġà¦Ĩà¦¨à¦®à¦¨":2647,"Ġà¦¦à¦®à¦¬à¦¨":2648,"ch":2649,"à¦°à¦ĺ":2650,"à¦¯à¦§":2651,"à¦Ńà¦ľ":2652,"à¦¼à¦¾?":2653,"Ġà¦Ľà¦ķ":2654,"Ġà¦Ĩà¦°à¦ķ":2655,"à¦°à¦£à¦ķ":2656,"à¦°à¦®à¦¬à¦°":2657,"à¦°à¦¸à¦®":2658,"Ġà¦Ĩà¦¹à¦¬":2659,"à§Ĺ":2660,"à¦°à¦Ŀ":2661,"à¦¬à¦¦à¦²":2662,"à¦Ĺà¦¹":2663,"à¦·à¦£à¦ĩ":2664,"Ġà¦Ĳà¦¨":2665,"à¦¾âĢĻà¥¤":2666,"Ġà§§à§¯à§ª":2667,"à¦¸à¦¹à¦ľ":2668,"à§ģà¥¤âĢĿ":2669,"à¦¬à¦Ĺà¦¤":2670,"Ġà¦¤à¦¸":2671,"Ġà¦ıà¦«":2672,"à¦¶à¦¬à¦¨":2673,"à¦¡à¦Ń":2674,"Ġà¦¶à¦°à¦£":2675,"Ġà¦ĵà¦°à¦ķà¦®":2676,"à¦ħà¦¥à¦¬":2677,"Ġà¦¦à¦¶à¦®":2678,"à¦¾)":2679,"à¦¾âĢĿà¥¤":2680,"à¦¼?âĢĻ":2681,"Ġà¦¹à¦¨à¦¨":2682,"à¦·à¦§":2683,"Ġà¦Ńà¦¸":2684,"à¦°à¦£à¦Ł":2685,"à¦¬à¦²à¦¬":2686,"Ġà¦ľà¦®à¦ľà¦®":2687,"à§°à¦ķ":2688,"id":2689,"im":2690,"à¦²à¦ªà¦¤":2691,"à¦®à¦¹à¦²":2692,"Ġà¦ķà¦¨à¦ķ":2693,"Ġà¦¸à¦ľà¦²":2694,"Ġà¦Ĺà¦ŀ":2695,"Ġà¦¸à¦¬à¦¸à¦®à§Ł":2696,"Ġà¦Ĩà¦ķà¦¬à¦°":2697,"à¦¤à¦¬à¦ķ":2698,"à¦°à¦ªà¦°à¦ĩ":2699,"Ġà¦Ĭà¦·":2700,"Ġà¦¹à¦ķà¦ļà¦ķ":2701,"à¦¿âĢ¦âĢĿ":2702,"à¦¬à¦°à¦ķ":2703,"à¦¼à§Ĥ":2704,"Ġà¦¬à¦¬":2705,"à¦¦à¦Ń":2706,"Ġà¦¨à¦ľ":2707,"à¦§à¦°à¦¨":2708,"Ġà¦ĸà¦²":2709,"Ġà¦Ĩà¦²à¦¸":2710,"Ġà¦Ŀà¦Ļ":2711,"à¦¦à¦°à¦¬à¦¨":2712,"à§Ģ?âĢĿ":2713,"Ġà¦Łà¦ķà¦Łà¦ķ":2714,"Ġà¦ļà¦²à¦¨":2715,"Ġà¦īà¦¦à§Ł":2716,"à¦¿--":2717,"ĠĠĊĠĠĠ":2718,"Ġg":2719,"à¦²à¦Ĺà¦°":2720,"à¦¹à¦Ń":2721,"à¦Ńà¦¬à¦¨":2722,"Ġà¦¬à¦²à¦°":2723,"à¦¬à¦°à¦ĩ":2724,"à¦ľà¦¸à¦Ń":2725,"ive":2726,"Ġà¦¬à¦ļà¦¨":2727,"à¦łà¦ª":2728,"à¦ĺà¦¬":2729,"Ġà¦ħà¦¬à§Łà¦¬":2730,"à§įâĢĮà¥¤":2731,"Ġà¦¶à¦¤à¦¬à¦°":2732,"ce":2733,"ow":2734,"ĠD":2735,"Ġ|":2736,"Ġà§¬":2737,"à§ĩà¦ĥ":2738,"à¦°à¦ªà¦¤":2739,"à¦²à¦¹":2740,"à¦¬à¦¦à¦¨":2741,"à¦ļà¦²à¦¤":2742,"à¦¥à¦Ĺ":2743,"Ġà¦ıà¦ķà¦ļ":2744,"Ġà¦«à¦¤":2745,"à¦¤à¦°à¦ĵ":2746,"à¦¤à¦¨à¦Ń":2747,"Ġà¦īà¦ªà¦²à¦ķ":2748,"à¦ĩà¦¨à¦Ł":2749,"à¦®à¦£à¦¸":2750,"à¦°à¦®à¦¨":2751,"à¦¤à¦¬à¦°":2752,"Ġà¦Ĩà¦ªà¦¸":2753,"à¦ªà¦ķà¦°":2754,"Ġà¦ħà¦ĺ":2755,"à¦Ĥ-":2756,"à¦¬à¦¨à¦ĩ":2757,"Ġà¦ıà¦ĩà¦ľà¦¨":2758,"Ġà¦ľà¦¨à¦ķ":2759,"Ġà¦¬à¦ĩà¦Ĺ":2760,"à§§à§¨":2761,"à¦¤à¦Ĺà¦¤":2762,"à¥¤âĢĺ":2763,"à¦Łà¦Ĺà¦²":2764,"Ġà¦¶à¦ļ":2765,"à¦¬à¦°à¦Ł":2766,"Ġà¦¬à¦²à¦²à¦¤":2767,"à¦¿âĢĶâĢľ":2768,"Ġà¦Ĩà¦¹à¦®":2769,"ÂłÂłÂłÂłÂłÂłÂłÂłÂłÂłÂłÂłÂłÂłÂł":2770,"à¦ħà¦¥à¦ļ":2771,"us":2772,"à§ģ:":2773,"à¦¦à¦¬à¦¦":2774,"à¦¶à¦¶":2775,"Ġà¦¯à¦ķ":2776,"Ġà¦ľà¦ª":2777,"Ġà¦ľà¦ŀ":2778,"Ġà¦ļà¦ķà¦²":2779,"âĢĿâĢĵ":2780,"à¦°à¦®à¦¬":2781,"Ġà¦ħà¦®à¦°à¦¤":2782,"Ġà¦ķà¦¤à¦ĸ":2783,"Ġà¦¬à¦īà¦¯":2784,"Ġà¦ĸà¦¸à¦ĸà¦¸":2785,"am":2786,"çľ":2787,"à¦¤à¦Ńà¦°":2788,"à¦ķà¦¤à¦°":2789,"Ġà¦ķà¦ļà¦ķ":2790,"Ġà¦ªà¦¬à¦¨":2791,"Ġà¦Ĩà¦¦à¦²":2792,"à¦Ľà¦¦":2793,"à¦¶à¦ľ":2794,"à¦¼à§ĩâĢĵ":2795,"Ġà¦¸à¦®à¦¤à¦²":2796,"à¦²à¦¨à¦ķ":2797,"Ġà¦¦à¦²à¦ªà¦¤":2798,"ĠC":2799,"à§ĩà§Ĺ":2800,"à¦¿)":2801,"à¦¯à¦ļà¦°":2802,"à¦¯à¦ªà¦Ł":2803,"à¦¬à¦ŀ":2804,"à¦¼!âĢĿ":2805,"Ġà¦Ĩà¦īà¦Ł":2806,"Ġà¦®à¦°à¦¬":2807,"à¦¥à¦Ł":2808,"à¦¼à¦¾âĢĵ":2809,"Ġà¦Ŀà¦ŀ":2810,"à¦¤à¦¨à¦¶":2811,"Ġà¦Ĺà¦²à¦¦":2812,"Ġà¦¸à¦¹à¦¨à¦¶":2813,"à¦ıà¦ķà¦¸":2814,"Ġà¦¨à¦¬à¦¬à¦°":2815,"Ġà§§à§®":2816,"à¦®à¦°à¦ķ":2817,"à¦§à¦ª":2818,"à¦Ļà¦Ľ":2819,"Ġà¦«à¦¨":2820,"Ġà¦ĸà§ľ":2821,"Ġà¦¡à¦°":2822,"Ġà¦ĩà¦ķ":2823,"à¦¸à¦¬à¦¶":2824,"Ġà¦īà§İà¦ªà¦¤":2825,"Ġwh":2826,"à¦¤à¦¡":2827,"Ġà¦¦à¦²à¦¬":2828,"à¦·à¦¶":2829,"à¦§à¦ķà¦°":2830,"à¦¡à¦¬à¦°":2831,"à¦£à¦ĵ":2832,"Ġà¦§à¦¸":2833,"à¦Ŀà§ľ":2834,"à¦°à¦ľà¦¬":2835,"Ġà¦¬à¦īà¦ķ":2836,"Ġà¦°à¦¸à¦Ĺ":2837,"Ġà§¯":2838,"à¦®à¦ĺ":2839,"Ġà¦¸à¦°à¦¬à¦°":2840,"Ġà¦¸à¦«à¦Ł":2841,"Ġà¦Ĩà¦ªà¦¡":2842,"Ġà¦¨à¦¬à¦¯":2843,"à§Ģà¥¤âĢĿ":2844,"Ġà¦°à¦ĺ":2845,"Ġà¦ıà¦ķà¦Ŀ":2846,"Ġà¦ĸà¦ļ":2847,"Ġà¦Ĩà¦²à¦ªà¦¨":2848,"à§İà¦¸à¦ķ":2849,"Ġà¦ķà¦®à¦¬":2850,"Ġà¦Ĺà§ľà¦¤":2851,"Ġà¦ķà¦¦à¦°":2852,"Ġà¦¬à¦¦à¦¨":2853,"à¦ľà¦¶":2854,"Ġà¦ıà¦ŀ":2855,"Ġà¦ħà¦¯à¦¤":2856,"à¦ļà¦¤à¦°":2857,"Ġà¦Ńà¦£":2858,"Ġà¦ħà¦¬à¦Ĺ":2859,"Ġà¦¬à¦¨à¦¬":2860,"à¦ķà¦²à¦¨":2861,"à¦¤à¦¬à¦¡":2862,"à¦ıà¦ĩà¦¸à¦¬":2863,"à¦ªà¦ķà¦¦":2864,"od":2865,"à¦·à¦¹":2866,"Ġà¦¶à¦ª":2867,"Ġà¦īà¦¥à¦²":2868,"Ġà¦²à¦ĩà¦¯":2869,"Ġà¦ħà¦¨à¦¡":2870,"à¦¬à¦¨à¦¦":2871,"à¦¤à¦°à¦¸":2872,"à¦°à¦¬à¦®à¦¯":2873,"à¦ķà¦²à¦ķ":2874,"Ġà¦ħà¦ªà¦ļà¦¯":2875,"Ġà¦«à¦²à¦¶":2876,"à§§à§§":2877,"Ġà¦Ĺà¦£à¦¨":2878,"Ġà¦ĩà¦¸à¦®à¦¤":2879,"ÂłÂłÂłÂłÂłÂłÂłÂłÂłÂłÂłÂłÂł":2880,"ver":2881,"à¦¹à¦ª":2882,"Ġà¦ļà¦ª":2883,"Ġà¦Ľà§Ł":2884,"Ġà¦ħà¦¨à¦¸":2885,"à¦°à¦£à¦Ń":2886,"à¦Ŀà¦ŀ":2887,"Ġà¦®à¦¤à¦²à¦¬":2888,"Ġà¦ħà¦®à¦Ļ":2889,"Ġà¦¸à¦¹à¦ļà¦°":2890,"Ġà¦ķà¦¤à¦ķà¦Ĺ":2891,"à¦ªà¦¦à¦ķ":2892,"à¦ıà¦ķà¦¸à¦Ļ":2893,"Ġà¦¶à¦¤à¦ªà¦¥":2894,"Ġà¦ıà¦ķà¦ĩà¦Ń":2895,"à¦¿!âĢĻ":2896,"Ġà§§à§¯à§¯":2897,"ul":2898,"Ġit":2899,"à¦¨à¦®à§Ł":2900,"Ġà¦ķà¦ªà¦Ł":2901,"Ġà¦¸à¦ļà¦²":2902,"à¦Ĺà¦²à¦ķ":2903,"Ġà¦¶à¦°à¦¤":2904,"Ġà¦ľà¦®à¦²":2905,"Ġà¦Ńà¦°à¦¦":2906,"à¦ĵà¦ķ":2907,"à¦łà¦¦":2908,"Ġà¦ĵà§ľ":2909,"à¦ħà¦¦à¦®":2910,"à¦¨à¦¬à¦¸":2911,"à¦®à¦ķà¦°à¦£":2912,"ÂłÂłÂłÂłÂłÂłÂłÂłÂłÂłÂłÂłÂłÂł":2913,"à¦¿âĢĿà¥¤":2914,"à§ģâĢ¦":2915,"à¦¬à¦ķà¦Ł":2916,"Ġà¦¸à¦¶à¦¸":2917,"Ġà¦¦à¦²à¦¨":2918,"Ġà¦¹à¦ĩà§Ł":2919,"âĢķ":2920,"à¦¹à¦ļà¦°":2921,"Ġà¦¶à¦ĵ":2922,"Ġà¦²à¦ŀ":2923,"à§ĩ,âĢĻ":2924,"à¦īà§ľ":2925,"à¦°à¦®à¦¯":2926,"à¦Ĺà¦¤à¦Ń":2927,"à¦ĩà¦²à¦Ł":2928,"Ġà¦ıà¦®à¦¨à¦Ł":2929,"à§°à¦¬":2930,"Ġà¦Ĩà¦¹à¦°à¦£":2931,"ÂłÂłÂłÂłÂłÂłÂłÂłÂłÂłÂł":2932,"Ġà¦°à¦ķà¦®à¦ĩ":2933,"Ġà¦ķà¦¨à¦°":2934,"à¦ªà¦²à¦ķ":2935,"à¦ĸà¦ķà¦¦":2936,"à¦§à¦Ĺ":2937,"à§Łà¦ĩ":2938,"Ġà¦°à¦ª":2939,"à¦łà¦¬":2940,"à¦«à¦¤":2941,"à¦ıà¦¨":2942,"Ġà¦Łà¦ª":2943,"Ġà¦ķà¦²à¦¹":2944,"ÂłÂłÂłÂłÂłÂłÂłÂłÂłÂł":2945,"Ġà¦Ķà¦°à¦¸":2946,"if":2947,"à¦¨à¦¬à¦¨":2948,"à¦®à¦§à¦¨":2949,"à¦¦à¦°à¦®":2950,"à¦Ľà¦¯":2951,"Ġà¦¤à¦¡":2952,"à¦łà¦Ł":2953,"Ġà¦ĵà¦²":2954,"Ġà¦«à¦°à¦®":2955,"à¦īà¦ªà¦¨":2956,"à¦Ĩà¦¦à¦°":2957,"Ġà¦¸à¦°à¦ŀ":2958,"âĢ¦à¥¤":2959,"Ġà¦ķà¦®à¦Ľ":2960,"Ġà¦īà§İà¦ķà¦°":2961,"à¦Łà¦¤à¦ĩ":2962,"Ġà¦¹à¦°à¦«":2963,"à¦®à¦Ľà¦®":2964,"à¦ľà¦ķà¦¨":2965,"à¦ĸà¦ª":2966,"à¦Ńà§İà¦¸":2967,"Ġà¦ıà¦ķà¦ĺ":2968,"Ġà¦īà¦®":2969,"à¦ªà¦°à¦¶":2970,"à¦ľà¦¨à¦¬":2971,"à¦«à¦ķ":2972,"à¦·à¦£à¦¶":2973,"à¦Ĺà¦¤à¦ķ":2974,"Ġà¦īà¦ªà¦ļ":2975,"à¦¿à¦ĥà¥¤":2976,"Ġà¦¬à¦īà¦Ł":2977,"à¤°":2978,"à§ĩà¥¥":2979,"à¦ķà¦§":2980,"à¦ķà¦°à¦ķ":2981,"à¦¬à¦ķà¦°":2982,"à¦¼âĢĻ":2983,"à¦ĵà¦¹":2984,"Ġà¦Ĩà¦®à¦¦":2985,"Ġà¦«à¦Łà¦ķ":2986,"Ġà¦ħà¦¨à¦°":2987,"à¦°à¦¬à¦ļ":2988,"à¦ıà¦ķà¦²":2989,"Ġà¦ĩà¦¡":2990,"Ġà¦ħà¦¬à¦¯":2991,"Ġà¦ļà¦²à¦ļ":2992,"Ġà¦ħà¦ªà¦²à¦ķ":2993,"Ġà¦ħà¦ļà¦ŀ":2994,"Ġà¦ĩà¦¨à¦«":2995,"Ġthat":2996,"ĠN":2997,"Ġà¥¥":2998,"Ġà¦¬à¦¦à¦®":2999,"Ġà¦®à¦Ľ":3000,"Ġà¦¯à¦¤à¦¬":3001,"à¦ļà¦¬à¦°":3002,"Ġà¦ľà¦Ĺà¦¨":3003,"Ġà¦Ńà¦²":3004,"à¦Ńà¦Ĺ":3005,"à¦Ńà¦²à¦Ń":3006,"Ġà¦īà¦ĩà¦¨":3007,"Ġà¦§à¦ķ":3008,"à¦ıà¦®":3009,"à¦ķà¦²à¦Ļ":3010,"Ġà¦ªà¦¥à¦ĩ":3011,"à¦²à¦ķà¦¨":3012,"à¦¾--":3013,"à¦°à¦®à¦£à¦ķ":3014,"Ġà§§à§¨":3015,"Ġà¦ħà¦¹à¦Ļ":3016,"à¦°à¦«à¦¤":3017,"****":3018,"à¦¥à¦ªà¦°à¦¤":3019,"à¦°à¦¦à¦¯":3020,"à¦ķà¦°à¦¤":3021,"à¦¯à¦¸à¦®":3022,"Ġà¦®à¦Ĺà¦ľ":3023,"à¦Ľà¦¤à¦²":3024,"à¦£à¦ĩ":3025,"Ġà¦«à¦¯":3026,"Ġà¦Ĩà¦¸à¦ķ":3027,"Ġà¦Łà¦ķ":3028,"Ġà¦ħà¦¬à¦¸à¦¨":3029,"à¦ħà¦¹":3030,"à¦¬à¦®à¦ŀ":3031,".âĢĿ":3032,"à¦¤à¦§à¦¨":3033,"à¦ķà¦Ĩà¦ª":3034,"à¦¼à¦¾à¦Ĥ":3035,"Ġà¦«à¦°à¦¸":3036,"Ġà¦ĸà¦¦":3037,"Ġà¦ĺà¦°à¦Ĺ":3038,"Ġà¦Ńà§Łà¦Ļ":3039,"Ġà¦ľà§Łà¦§":3040,"à¦¦à¦°à¦®à¦¹à¦²":3041,"ro":3042,"à§įâĢį":3043,"à¦¯à¦Ĺà¦¤":3044,"à¦¸à¦ĺ":3045,"à¦¶à¦§":3046,"à§Łà¦£":3047,"Ġà¦īà¦ĩ":3048,"à§Ĥ-":3049,"Ġà¦²à¦¸":3050,"à¦°à¦£à¦ĵ":3051,"à¦ħà¦ŀ":3052,"Ġà¦ħà¦¸à§İ":3053,"à¦ıà¦ĩà¦ļ":3054,"Ġà¦ķà¦®à¦ª":3055,"à§įâĢĮ,":3056,"Ġà§§à§«":3057,"Ġà¦°à¦ĵà¦¶à¦¨à¦ķ":3058,"Ġà¦·à¦·":3059,"à¦¬à¦ľà¦Ĺà¦¤":3060,"Ġà¦¶à¦ĵà¦ķà¦¤":3061,"à¦¦à¦®à¦¨":3062,"à¦ªà¦ªà¦¤":3063,"à¦ľà¦¤à¦¨":3064,"à¦¶à¦°à¦¤":3065,"à¦¾à¦ģ-":3066,"Ġà¦²à¦¹à¦®":3067,"à§ĩ,-":3068,"Ġà¦§à¦¬":3069,"à¦°à¦®à¦¤":3070,"Ġà¦«à¦²à¦¸":3071,"à¦¾'":3072,"à¦¨à¦ªà¦¥":3073,"Ġà¦¬à¦Ĺà¦²":3074,"Ġà¦®à¦ķ":3075,"à§ĢâĢĿ":3076,"à¦ľà¦ĸà¦¬à¦°":3077,"à¦¶à¦ļ":3078,"à¦ĸà¦ĩ":3079,"à¦ļà¦Ń":3080,"à¦¹à¦®à¦¯":3081,"à¦£à¦®à¦¯":3082,"Ġà¦ıà¦ķà¦«":3083,"Ġà¦ıà¦ķà¦¤à¦²":3084,"Ġà¦Ľà¦®à¦Ľà¦®":3085,"Ġà¦ĺà¦°à¦¬":3086,"à¦°à¦£à§Ł":3087,"Ġà¦¬à¦²à¦²à¦ķ":3088,"Ġà¦Ĩà¦¸à¦®":3089,"Ġà¦īà¦ªà¦¬":3090,"Ġà¦ħà¦¶à¦°":3091,"ly":3092,"à¦°à¦ªà¦¥":3093,"à¦ķà¦¸à¦Ļ":3094,"Ġà¦¬à¦¤":3095,"Ġà¦¬à¦¹à¦°":3096,"à¦§à¦¹à§Ł":3097,"Ġà¦ľà¦¸":3098,"Ġà¦ıà¦ķà¦¨":3099,"Ġà¦«à¦ľà¦²":3100,"Ġà¦Łà¦ªà¦ķ":3101,"Ġà¦Ĩà¦Ĺà¦¨":3102,"à¦¦à¦¨à¦ķ":3103,"à¦¨à¦ĵà¦°à¦ķà¦®":3104,"à¦¿âĢĻà¥¤":3105,"Ġà¦¹à¦ĩà¦ļà¦ĩ":3106,"ha":3107,"à¦²à¦ĺ":3108,"à¦¯à¦¬à¦¨":3109,"à¦¼à¦ĥ":3110,"Ġà¦¤à¦°à¦¬":3111,"Ġà¦ıà¦£":3112,"Ġà¦ħà¦¯à¦¥":3113,"Ġà¦ıà¦ķà¦¸à¦®à§Ł":3114,"Ġà¦īà¦¹":3115,"Ġà¦®à¦¨à¦®":3116,"à¦°à¦£à¦Ĺ":3117,"à¦¤à¦°à¦ª":3118,"Ġà¦Ĩà¦²à¦«":3119,"à¦¸à¦¬à¦ĸ":3120,"à¦¯à¦¬à¦¯":3121,"à¦¨à¦ĵà¦Ń":3122,"Ġà¦ıà¦¤à¦Ĺ":3123,"à¦ĩà¦¨à¦Ĺ":3124,"Ġà¦¯à¦¤à¦ĸ":3125,"Ġnot":3126,"ir":3127,"Ġ=":3128,"Ġà§®":3129,"à¦ªà¦Ń":3130,"à¦ľà¦Ń":3131,"Ġà¦ıà§ľ":3132,"à¦·à¦°à¦¤":3133,"à¦¥à¦ĩ":3134,"Ġà¦ľà§Łà¦¨":3135,"Ġà¦°à¦Ł":3136,"à¦ľà¦¨à¦¦":3137,"à¦°à¦¬à¦ķ":3138,"à¦°à¦¬à¦¦":3139,"à¦¬à¦°à¦¹":3140,"âĢĵâĢĻ":3141,"à¦°à¦²à§Ł":3142,"à¦¨à¦Łà¦¨":3143,"à¦Ŀà¦²à¦®à¦²":3144,"ci":3145,"à¦¬à¦®à¦¯":3146,"à¦¬à¦¸à¦®":3147,"à¦¬à¦¶à¦ķ":3148,"Ġà¦ķà¦®à¦¤":3149,"Ġà¦ªà¦Łà¦²":3150,"Ġà¦®à¦ł":3151,"à¦ªà¦ĸ":3152,"Ġà¦ıà¦·":3153,"Ġà¦ħà¦¹à¦¨":3154,"à¦ļà¦ŀ":3155,"à¦£à¦¶":3156,"Ġà¦Ńà¦ľ":3157,"à¦ĵà§ľ":3158,"Ġà¦Ĩà¦°à¦¶":3159,"Ġà¦ĸà¦¤":3160,"à¦¾,âĢĻ":3161,"à¦°à¦ķà¦¨":3162,"Ġà¦ħà¦¸à¦¨":3163,"à¦¨à¦¬à¦¸à¦®":3164,"Ġà¦īà¦¦à¦Ĺ":3165,"Ġà¦ıà¦®à¦¨à¦ĵ":3166,"Ġà¦īà¦¤à¦Ļ":3167,"Ġà¦īà§İà¦ķ":3168,"Ġà¦ħà¦ķà¦ªà¦Ł":3169,"à§§à§¬":3170,"à¦Ĺà¦®à¦ŀ":3171,"à¦¾âĢĻ,":3172,"ity":3173,"...âĢĿ":3174,"aya":3175,"Ġà¦§à¦¬à¦§à¦¬":3176,"!!":3177,";-":3178,"ad":3179,"à¦¨à¦«":3180,"à¦¦à¦ªà¦¤":3181,"à¦ĩà¦¨à¦¬":3182,"à¦§à¦¹":3183,"Ġà¦¯à¦¬à¦¨":3184,"Ġà¦ľà¦²à¦ķ":3185,"à¦ĺà¦¤à¦®":3186,"Ġà¦ľà¦²à¦¦à¦¸":3187,"à¦§à¦¨à¦¹":3188,"Ġfor":3189,"em":3190,"à¦¤à¦«":3191,"à¦²à¦Ŀ":3192,"à¦®à¦Ļ":3193,"à¦®à¦ķà¦²":3194,"à¦®à¦Ĺà¦¤":3195,"Ġà¦Ĩà¦ĩà¦¸":3196,"à¦ļà¦ª":3197,"Ġà¦°à¦ļà¦¯":3198,"Ġà¦ıà¦ĩà¦®":3199,"à¦Ŀà¦Ľ":3200,"âĢĿ,":3201,"à¦¬à¦°à¦ª":3202,"Ġà¦¬à¦°à¦·":3203,"âĢ¦âĢĻ":3204,"Ġà¦ªà¦¦à¦¬":3205,"Ġà¦ªà¦Łà¦ļ":3206,"ect":3207,"à¦¾à§ĩ":3208,"à¦¸à¦®à¦¤":3209,"à¦¦à¦°à¦¬":3210,"Ġà¦®à§Łà¦²":3211,"à¦Ľà§ľ":3212,"Ġà¦¦à¦ª":3213,"Ġà¦¹à¦®":3214,"Ġà¦ħà¦ĸ":3215,"à¦¥à¦ªà¦°":3216,"à¦¤à¦°à¦¬":3217,"à¦Ĩà§Ł":3218,"à¦Ĩà¦ļà¦°à¦£":3219,"Ġà¦Łà¦¯":3220,"Ġà¦Ĩà¦ľà¦¬":3221,"Ġà¦ħà¦¸à¦®à¦¯":3222,"Ġà¦ķà¦¤à¦ĩ":3223,"Ġà¦ħà¦ªà¦°à¦¦":3224,"à§įâĢĮ-":3225,"à¤¤":3226,"ess":3227,"ĠÑ":3228,"à¦¬à¦ī":3229,"Ġà¦¬à¦ķà¦¬":3230,"Ġà¦¸à¦ªà¦ķ":3231,"Ġà¦ªà¦¦à¦¯":3232,"Ġà¦ªà§Łà¦¸":3233,"Ġà¦¨à¦®à¦¨":3234,"Ġà¦®à¦«à¦¸":3235,"à¦ĩà¦ĵà¦¯":3236,"à¦¹à¦¹":3237,"Ġà¦ĩà¦®à¦¨":3238,"à¦¶à¦¨à¦Ł":3239,"à¦ıà¦ĩà¦Ń":3240,"à§ģà¥¤âĢĻ":3241,"Ġcon":3242,"Ġà¦§à¦¨à¦¤à¦¨":3243,"à¦ķà§Ł":3244,"à¦®à¦ªà¦¨":3245,"Ġà¦ĩà¦¨à¦ķ":3246,"à¦ĺà¦¸":3247,"à§ģà¦ģà¥¤":3248,"à¦ħà¦Łà¦²":3249,"à¦²à¦¤à¦²":3250,"Ġà¦ħà¦ķà¦¥":3251,"à§§à§©":3252,"à§§à§«":3253,"à¦ķà¦ľà¦¨à¦ķ":3254,"ĠMaya":3255,"à¦ķà¦ı":3256,"Ġà¦¸à¦ªà¦¨":3257,"Ġà¦®à§Łà¦¦":3258,"à¦¶à¦ķà¦°":3259,"Ġà¦°à¦¡":3260,"à¦¼à¦¾âĢĻ":3261,"Ġà¦²à¦Ł":3262,"à¦Ĩà¦°à¦ĵ":3263,"à§İà¦ªà¦¤":3264,"Ġà¦ĩà¦ľà¦°":3265,"à¦°à¦¶à¦ķ":3266,"à¦®à¦£à¦°":3267,"à¦¨à¦¦à¦£":3268,"Ġà¦¤à¦²à¦¦":3269,"Ġà¦Ĺà§ľà¦¬":3270,"Ġà¦ıà¦¨à¦ľ":3271,"à¦ıà¦ĸà¦¨à¦ĩ":3272,"Ġà¦ľà¦Ĺà¦¦":3273,"ĠH":3274,"à¦¤à¦ľà¦¨":3275,"à¦¯à¦Łà¦ķ":3276,"à¦®à¦®à¦°":3277,"à¦ľà¦¹":3278,"Ġà¦ıà¦Ĩà¦ĩ":3279,"à¦ĸà¦ķà¦°":3280,"à¦¡à¦īà¦ĩ":3281,"à¦¹à¦ķà¦°":3282,"Ġà¦ıà¦ķà¦Ń":3283,"Ġà¦īà¦¥":3284,"Ġà¦«à¦²à¦¨":3285,"à¦¾à¥¤à¥¤":3286,"à¦ĺà¦¬à¦¦":3287,"à¦ħà¦¬à¦¸":3288,"Ġà¦ĵà¦łà¦²":3289,"Ġà¦īà¦¦à¦ĺ":3290,"Ġà¦Ĩà¦§à¦ĸ":3291,"à¦¼à§ģà¥¤":3292,"Ġà§§à§Ń":3293,"Ġà¦¶à¦¹à¦°à¦¤à¦²":3294,"Ġà§§à§¯à§®":3295,"her":3296,"Ġà¦Ķà¦¦":3297,"ĠG":3298,"à¦²à¦¥":3299,"à¦¯à¦®à¦¨":3300,"Ġà¦ªà§°":3301,"à¦ļà¦Ĺ":3302,"à¦£à¦§":3303,"Ġà¦ľà¦¹":3304,"à¦ıà¦«":3305,"Ġà¦¸à¦¬à¦²":3306,"Ġà¦Ŀà¦Łà¦ķ":3307,"à¦¨à¦¤à¦²":3308,"à¦ħà¦®à¦¨":3309,"Ġà¦ľà¦®à¦Ľ":3310,"à¦Łà¦¬à¦ĩ":3311,"à¤¿":3312,"à¦¿âĢĻ,":3313,"à¦·à§Łà¦ķ":3314,"ist":3315,"à¦Ĳà¦ķ":3316,"Ġà¦Ķà¦·à¦§":3317,"ag":3318,"nd":3319,"ure":3320,"à§ĩ/":3321,"Ġà¦ķà¦¦à¦¬":3322,"Ġà¦Ĩà¦ĩà¦²":3323,"Ġà¦¨à¦¬à¦°":3324,"Ġà¦¨à¦¬à¦¬":3325,"à¦¡à¦«":3326,"à¦°à¦¤à¦ķ":3327,"Ġà¦¸à¦¬à¦ĸ":3328,"Ġà¦¬à¦²à¦²à¦Ĩà¦®":3329,"Ġà¦Ĩà¦Ľà§ľ":3330,"Ġà¦ľà¦¨à¦¸à¦®":3331,"à¦°à¦¥à¦®à¦Ł":3332,"à¦¨à¦ĵà¦Ł":3333,"Ġà¦ħà¦§à¦®":3334,"à¦°à¦®à¦¶à¦ĩ":3335,"Ġà§¨à§§":3336,"Ġà¦¦à¦Ĺà¦¦à¦Ĺ":3337,"à¦®à¦¸à¦®à¦°":3338,"à¦°à¦ĵà¦¯":3339,"à¦®à¦īà¦¦":3340,"à¥¤'":3341,"à¦ľà§ľ":3342,"Ġà¦ħà¦ķà¦²":3343,"à¦ĸà¦Ń":3344,"à¦Ĺà¦Ĺà¦¨":3345,"Ġà¦«à¦²à¦¤":3346,"ĠâĢĿ":3347,"Ġà¦Łà¦¨à¦Łà¦¨":3348,"âĢĻâĢĵ":3349,"à¦ķà¦°à¦¦":3350,"à¦¨à¦¬à¦ķ":3351,"à¦¾à¦Ĥ,":3352,"à§°à¦¸":3353,"Ġà¦¨à¦¬à¦®":3354,"Ġà¦ļà¦Łà¦ªà¦Ł":3355,"Ġà¦ĸà¦¸à¦¡":3356,"Ġy":3357,"à¦²à¦§":3358,"à¦ªà¦¬à¦¯":3359,"Ġà¦¹à¦ľà¦®":3360,"à¦§à¦°à¦£":3361,"à¦¥à¦¯":3362,"Ġà¦ļà¦Łà¦ķ":3363,"Ġà¦²à¦ĵ":3364,"Ġà¦ĸà¦¨à¦¨":3365,"à¦°à¦£à¦®à¦¯":3366,"Ġà¦Łà¦¹à¦²":3367,"Ġà¦ĩà¦īà¦Ł":3368,"à¦ĺà¦Ĺ":3369,"à¦ĺà§ľ":3370,"à¦°à¦®à¦¥":3371,"Ġà¦¬à¦°à¦¦":3372,"Ġà¦ľà¦²à¦§à¦°":3373,"à¦ªà¦¦à¦¬":3374,"Ġà¦ħà¦ķà¦¸":3375,"Ġà¦ķà¦ĸà¦¨à¦ĵà¦ĩ":3376,"à¦ķà¦ĸà¦¨à¦ĵ":3377,"à¦¬à§Łà¦¸":3378,"à¦Ĭà¦°":3379,"ip":3380,"iv":3381,"Ø§":3382,"ĠE":3383,"ĠL":3384,"à§ģ'":3385,"à¦®à¦®à¦¯":3386,"à¦®à¦ªà¦¤":3387,"Ġà¦ķà¦ĩà¦°":3388,"Ġà¦¸à¦ľà¦¨":3389,"Ġà¦®à¦°à¦²":3390,"à¦¶à¦Ńà¦ķ":3391,"à¦ĵà¦ł":3392,"à¦Ńà¦²":3393,"Ġà¦ĵà¦²à¦Ł":3394,"à§İà¦¸à¦²":3395,"Ġà¦¸à¦¬à¦Ĺ":3396,"Ġà¦Łà¦®à¦Ł":3397,"âĢ¦.":3398,"Ġà¦īà§İà¦ªà¦¨":3399,"à§§à§ª":3400,"à¦¨à¦¸à¦ªà¦Ł":3401,"Ġà¦Ĺà¦£à¦ªà¦°":3402,"Ġà¦Ńà¦°à¦¤à¦¬":3403,"à¦°à¦ĺà¦°":3404,"à¦¨à¦§":3405,"à¦¨à¦°à¦®":3406,"à¦²à¦ķà¦Ł":3407,"Ġà¦¬à¦¦à¦°":3408,"Ġà¦¸à§ľà¦ķ":3409,"Ġà¦Ĩà¦ľà¦¨":3410,"Ġà¦¦à¦ĸ":3411,"Ġà¦¦à§ľ":3412,"à¦¶à¦§à¦°":3413,"Ġà¦ħà¦°à¦¨":3414,"à¦·à¦°à¦£":3415,"à¦¹à¦°à¦¨":3416,"à¦¥à¦Ń":3417,"à¦Ńà¦°à¦¯":3418,"à¦¼à¦¿âĢĶ":3419,"à¦ľà¦¨à¦ĵ":3420,"à¦ıà¦°à¦ªà¦°":3421,"Ġà¦Łà¦¨":3422,"Ġà¦Ĩà¦ľà¦®à¦²":3423,"à¦ħà¦¸à¦®":3424,"à¦°à¦¥à¦®à¦¦":3425,"à¦¼à§ģ-":3426,"à§¨à§¦":3427,"Ġà¦Łà¦²à¦Łà¦²":3428,"âĢķâĢķ":3429,"ab":3430,"à§ĩ.":3431,"à¦¨à¦ªà¦¤":3432,"à¦²à¦§à¦¨":3433,"à¦¯à¦¦à¦²":3434,"à¦¬à§°":3435,"Ġà¦¸à¦Ł":3436,"à¦¦à¦ĺà¦°":3437,"Ġà¦¨à¦°à¦°":3438,"Ġà¦¦à¦¹":3439,"Ġà¦¹à¦ľ":3440,"Ġà¦ľà¦²à¦ķà¦£":3441,"Ġà¦ıà¦ķà¦®à¦¤":3442,"Ġà¦§à§ľ":3443,"Ġà¦¸à¦®à¦¬à¦¯":3444,"à¦¬à¦¨à¦¦à¦°":3445,"à¦°à¦£à¦¬":3446,"à¦īà¦¹":3447,"Ġà¦¸à¦¬à¦¥":3448,"à¦¬à¦ªà¦¤":3449,"Ġà¦ħà¦¬à¦®":3450,"Ġà¦ħà¦ªà¦¸":3451,"à¦¼à§ĩà¥¤âĢĿ":3452,"Ġà¦Ĩà¦§à¦ĺà¦£":3453,"Ġà§§à§ª":3454,"Ġà¦¦à¦«à¦¤à¦°":3455,"rom":3456,"Ġv":3457,"à¦¨à¦ľà¦¨à¦ķ":3458,"à¦¤à¦ķà¦¤":3459,"à¦¯à¦ªà¦°":3460,"à¦¯à¦§à¦°":3461,"à¦¬à¦īà¦¦":3462,"Ġà¦¸à¦ĩà¦¤":3463,"à¦ĸà¦ĵ":3464,"à¦§à¦Ĺà¦®":3465,"Ġà¦Ĺà¦®à¦¨":3466,"à¦£à¦¶à¦ķ":3467,"Ġà¦ĵà¦¤":3468,"Ġà¦«à¦²à¦ķ":3469,"Ġà¦§à¦ª":3470,"à¦ľà¦¨à¦®":3471,"à¦®à¦¤à¦¤":3472,"à¦ĩà¦¨à¦¸":3473,"à¦¦à§Łà¦ķ":3474,"Ġà¦¶à¦¤à¦¦à¦²":3475,"Ġà§§à§¯à§¬":3476,"Ġà¦Ĺà¦łà¦¨à¦®":3477,"Ġst":3478,"Ġà¦Ĩà¦ĩà¦¸à¦ķ":3479,"à¦Īà¦¶":3480,"à¦¨à¦¸à¦¨":3481,"à¦¨à¦ļà¦°":3482,"à¦¤à¦ļà¦°":3483,"à§ģ!âĢĿ":3484,"à¦¼âĢĶâĢľ":3485,"Ġà¦ķà¦®à¦¨":3486,"Ġà¦¬à¦°à¦®":3487,"à¦¦à¦§":3488,"Ġà¦Ńà¦ľà¦¨":3489,"Ġà¦°à¦£à¦ķ":3490,"à§ĥ-":3491,"Ġà¦īà¦¬":3492,"Ġà¦ĵà¦¸à¦®":3493,"Ġà¦¬à¦²à¦¯":3494,"Ġà¦ħà¦¨à¦Ń":3495,"ĠâĢĻ":3496,"Ġà¦®à¦¨à¦¤":3497,"à¦īà¦£":3498,"à¦°à¦ķà¦£":3499,"à¦°à¦¸à¦Ń":3500,"à¦¦à¦¯à¦¨":3501,"à¦¤à¦²à¦Ł":3502,"Ġà¦ªà¦¦à¦ķà¦°":3503,"Ġà¦¨à¦¬à¦ľà¦¨":3504,"æŃĵæŃĵæŃĵæŃĵ":3505,"Ġà¦¦à¦²à¦¬à¦¦":3506,"à¦¡à¦īà¦ĩà¦ļ":3507,"==":3508,"à¦ķà¦§à¦°":3509,"Ġà¦®à¦¸à¦²":3510,"à¦ľà¦ķà¦¤":3511,"à¦ĸà¦ªà¦¤":3512,"Ġà¦Ĺà¦ļ":3513,"à¦ĵà¦ĸ":3514,"à¦¾à¦ģ?":3515,"Ġà¦§à¦®à¦¨":3516,"Ġà¦§à¦¬à¦²":3517,"à¦°à¦£à¦ĩ":3518,"Ġà¦Łà¦¬":3519,"Ġà¦¬à¦¸à¦Ľ":3520,"Ġà¦ħà¦¸à¦¤":3521,"Ġà¦Ĩà¦¨à¦Ĺ":3522,"à¦Ĺà¦²à¦ª":3523,"à¦ıà¦ĩà¦Ł":3524,"à¦ľà¦²à¦Ń":3525,"Ġà¦īà¦²à¦Ļ":3526,"Ġà¦§à¦¨à¦¸à¦®":3527,"end":3528,"op":3529,"up":3530,"Ġon":3531,"à¦¬à¦§à¦°":3532,"Ġà¦ķà¦¶":3533,"à¦¸à¦ł":3534,"à¦ªà¦¬à¦¤":3535,"à¦ĩà¦ŀ":3536,"à¦ľà¦¬à¦¨":3537,"à¦Ĺà¦Ńà¦Ļ":3538,"Ġà¦§à¦ķà¦²":3539,"Ġà¦ĺà¦·à¦¤":3540,"à¦Ĩà¦¸à¦¨":3541,"à¦ĺà¦°à¦Ł":3542,"à¦·à¦£à¦®":3543,"à¦¤à¦¨à¦ķ":3544,"à¦ħà¦®à¦°":3545,"à¦Ĺà¦¤à¦®":3546,"Ġà¦ħà¦ªà¦Ľà¦¨":3547,"à¦¼à§ĭ-":3548,"à¦®à¦ķà¦¥":3549,"Ġà¦ħà¦ľà¦¯":3550,"Ġà¦¶à¦¤à¦ķà¦°":3551,"Ġà¦īà§İà¦¸à¦¬à¦®":3552,"à¦ķà¦Ľà¦Ł":3553,"ind":3554,"à¦ĭà¦¤":3555,"Ġà§¨à§¦à§¦":3556,"ht":3557,"ri":3558,"à¦¯à¦°à¦¶":3559,"à¦¯à¦ªà¦¥":3560,"Ġà¦ķà¦ľà¦¨":3561,"Ġà¦¸à¦°à¦®":3562,"à¦¦à¦®à§Ł":3563,"Ġà¦¹à¦ĩà¦Ľ":3564,"à¦¶à¦¤à¦²":3565,"à¦ĸà¦®à¦£":3566,"à¦ļà¦®à¦ķ":3567,"à¦¹à¦Ĺ":3568,"à¦¥à¦¬à¦¹":3569,"à§ĩà¥¤âĢĺ":3570,"Ġà¦ıà¦ķà¦²à¦¬":3571,"à¦¼à¦¾;":3572,"Ġà¦«à¦¸à¦ķ":3573,"Ġà¦ªà¦°à¦ª":3574,"à¦īà§İà¦¸":3575,"Ġà¦ķà¦¥à¦ķ":3576,"à¦·à¦£à¦Ĺ":3577,"à¦¨à¦¬à¦®à¦¨":3578,"à¦¨à¦¬à¦¸à¦Ń":3579,"à¦¶à¦¨à¦ķ":3580,"à¤¨":3581,"à§ĭ!âĢĻ":3582,"Ġà¦ħà¦¹à¦°à¦¹":3583,"à¦ĭà¦£":3584,"Ġà¦¨à§ľà¦¬à§ľ":3585,"Ġà§§à§¯à§¯à§¦":3586,"ĠÐ":3587,"à¦®à¦¥":3588,"Ġà¦ķà¦¨à¦Ł":3589,"Ġà¦ªà¦ª":3590,"à¦Ĺà¦°à¦®":3591,"Ġà¦¯à¦¤à¦¨":3592,"à§Łà¦Ń":3593,"Ġà¦Ĺà¦«":3594,"à¦ĵà¦ª":3595,"Ġà¦ĵà¦®à¦°":3596,"à¦Ĩà¦Ł":3597,"à¦°à¦®à¦ľ":3598,"Ġà¦īà¦¤à¦²":3599,"Ġà¦¦à¦²à¦Ł":3600,"?âĢĿâĢĶ":3601,"à¦ķà¦¶à¦ª":3602,"ism":3603,"Ġà¦®à¦Ĺà¦§":3604,"Ġà¦ķà¦¨à¦ķà¦¨":3605,"Ġà¦¬à¦ķà¦¬à¦ķ":3606,"ac":3607,"Ġan":3608,"à¦¨à¦ĺà¦°":3609,"à¦¤à¦®à¦¯":3610,"à¦¤à¦Ŀà¦°":3611,"à¦¯à¦¤à¦°":3612,"à§ĭâĢĿ":3613,"Ġà¦¤à¦¬à¦²":3614,"Ġà¦ħà¦Ĺà¦¤":3615,"à¦§à¦¨à¦¬":3616,"Ġà¦¶à¦Ł":3617,"Ġà¦ļà¦°à¦ķ":3618,"à¦Ļà¦ļ":3619,"Ġà¦®à¦¨à¦ĸ":3620,"à¦¼à¥¤à¥¤":3621,"à¦°à¦¦à¦ķ":3622,"Ġà¦¸à¦¹à¦ľà¦²à¦Ń":3623,"à¦ıà¦ĩà¦¬":3624,"Ġà¦Ĳà¦¤à¦°":3625,"à¦®à¦£à¦ķ":3626,"Ġà¦ĵà¦ĩà¦Ł":3627,"Ġà¦¹à¦°à¦·":3628,"Ġà¦¬à¦īà¦°":3629,"à¦Ŀà¦°à¦Ŀà¦°":3630,"à¤ķ":3631,"à¦ıà¦ĸà¦¨à¦ĵ":3632,"Ġ--":3633,"à§ĩ'":3634,"à¦°à¦§à¦°":3635,"à¦¯à¦ĸ":3636,"à¦¯à¦¸à¦¨":3637,"à¦¯à¦ľà¦¨à¦ķ":3638,"à¦®à¦·":3639,"Ġà¦¸à§Ł":3640,"à¦ªà¦¦à¦°":3641,"Ġà¦¦à¦¨":3642,"à¦·à¦¤à¦¬":3643,"à¦§à¦¯":3644,"à¦ļà¦¤à¦²":3645,"à¦£à¦«":3646,"Ġà¦ľà¦¹à¦°":3647,"à¦Ļà¦ķ":3648,"Ġà¦«à¦¸":3649,"à¦°à¦£à§Łà¦¨":3650,"à¦¤à¦°à¦Ĺ":3651,"à¦Ĩà¦Ń":3652,"à¦ıà¦°à¦ĩ":3653,"Ġà¦ĩà¦ĵà¦°":3654,"à¦°à¦®à¦§":3655,"à¦ħà¦¤à¦²":3656,"Ġà¦ľà¦²à¦ĸ":3657,"à§ĩ---":3658,"Ġà¦¬à¦ĩà¦ķ":3659,"!âĢĿâĢĶ":3660,"à§°à¦®":3661,"à§§à§®":3662,"Ġà¦ĸà¦¬à¦°à¦¦":3663,"Ġà¦¦à¦¶à¦ľà¦¨":3664,"Ġà¦¯à¦ľà¦®":3665,"à¤²":3666,"à¦¯à¦ĸà¦¨à¦ĩ":3667,"Ġas":3668,"ÂłÂłÂłÂłÂłÂłÂłÂłÂłÂłÂłÂłÂłÂłÂłÂłÂł":3669,"Ġà¦ĸà¦Łà¦ĸà¦Ł":3670,"à¦¿à¦¾":3671,"à¦¨à¦®à¦¤":3672,"à¦ķà¦®à¦¯":3673,"à¦¯à¦Ŀ":3674,"à¦¼)":3675,"Ġà¦¬à¦Ĺ":3676,"Ġà¦¸à¦ļà¦°":3677,"à¦¸à¦¶":3678,"Ġà¦ªà¦łà¦¨":3679,"à¦¦à¦ĸ":3680,"à¦ľà¦ľ":3681,"à¦ľà¦ĸ":3682,"Ġà¦¤à¦°à¦£":3683,"à¦·à¦ķà¦¤":3684,"à¦ĵà¦®":3685,"Ġà¦ĸà¦ª":3686,"à¦°à¦¬à¦¸":3687,"Ġà¦¬à¦²à¦²à¦¬":3688,"à¦ħà¦¸à¦¹":3689,"Ġà¦ħà¦¸à¦Ļ":3690,"à¦ķà¦¤à¦ķ":3691,"à¦§à¦¨à¦ĩ":3692,"Ġà¦ľà¦®à¦¶":3693,"Ġà¦ħà¦ľà¦ª":3694,"Ġà¦ķà¦¤à¦ľà¦¨":3695,"Ġà¦¬à¦ĩà¦®":3696,"Ġà¦«à¦²à¦ª":3697,"à¦¤à¦®à¦¶":3698,"à§ĩ;-":3699,"à§°à¦¨":3700,"à¦°à¦Ĺà¦£":3701,"Ġà¦īà§ľà¦¤":3702,"ith":3703,"um":3704,"Ð¾":3705,"à¦¨à¦ľà¦°":3706,"à¦¨à¦ľà¦Ł":3707,"à¦¤à¦¸à¦®":3708,"à¦®à§İ":3709,"à¦®à¦ĵà¦¯":3710,"à¦®à¦¶à¦ķ":3711,"Ġà¦¬à§İà¦¸":3712,"Ġà¦®à§Ł":3713,"à¦ĸà¦¶":3714,"à¦ļà¦¦":3715,"à¦£à¦¬à¦°":3716,"Ġà¦ĸà¦¯":3717,"Ġà¦¸à¦®à¦Ń":3718,"à¦¬à¦¨à¦¸":3719,"à¦¤à¦°à¦ķà¦®":3720,"à¦ıà¦Ľ":3721,"Ġà¦¬à¦²à¦²à¦®":3722,"Ġà¦¡à¦ľà¦¨":3723,"Ġà¦¬à¦¨à¦¸":3724,"à¦¸à¦¬à¦ľ":3725,"à¦²à¦ķà¦§":3726,"à¦ıà¦ĩà¦ĸ":3727,"Ġà¦ªà¦¤à¦Ļ":3728,"à¦¬à¦¶à¦¤":3729,"Ġà¦ĭà¦Ĺà¦¬":3730,"Ġà¦ıà¦ķà¦ĩà¦¸à¦Ļ":3731,"à¦łà¦ķà¦ĸ":3732,"ant":3733,"ĠØ":3734,"à§ĩâĢĻà¥¤":3735,"à¦°à¦§à¦¨":3736,"à¦¤à¦ªà¦¨":3737,"à¦²à¦ªà¦¥":3738,"à¦ķà¦ļà¦ķ":3739,"Ġà¦¬à¦Ľ":3740,"Ġà¦Ĩà¦ĵà¦¤":3741,"Ġà¦ħà¦ĩ":3742,"Ġà¦Ĺà¦ª":3743,"Ġà¦Ĺà¦°à¦ľ":3744,"Ġà¦¶à¦²":3745,"Ġà¦°à¦¸à¦¨":3746,"à¦ĵà¦¬":3747,"à¦¤à¦°à¦Ń":3748,"à¦Ĩà¦°à¦ľ":3749,"Ġà¦¸à¦¬à¦¶":3750,"à¦¬à¦°à¦Ĺ":3751,"à¦ĺà¦Ľ":3752,"à¦¼,âĢĿ":3753,"à¦°à¦®à¦ķ":3754,"à¦°à¦¸à¦¹":3755,"à¦Ĺà¦²à¦¬":3756,"à¦¯à¦¤à¦ķ":3757,"à¦¯à¦¤à¦ĩ":3758,"à¦°à¦²à¦¸":3759,"Ġà¦ķà¦¬à¦ľ":3760,"Ġà¦ĩà¦¨à¦Ń":3761,"Ġà¦¸à¦®à§Łà¦ĩ":3762,"res":3763,"ers":3764,"à¦Ĩà¦§à¦Ł":3765,"Ġne":3766,"ĠÑģ":3767,"ke":3768,"à¦¤à¦ªà¦¸":3769,"Ġà¦¸à¦°à¦¤":3770,"à¥¤\"":3771,"à¦¸à¦ĵà¦¯":3772,"Ġà¦Ĩà¦ĩà¦Ł":3773,"à¦Łà¦ķà¦°":3774,"Ġà¦®à¦ĵà¦²":3775,"à¦¡à¦ķà¦°":3776,"à¦¥à¦ĵ":3777,"Ġà¦ľà¦ĺà¦¨":3778,"Ġà¦ıà¦ķà¦§à¦°à¦¨":3779,"à¦¬à¦¨à¦¬à¦¤":3780,"à¦®à¦¨à¦¨":3781,"à¦Ĩà¦°à¦¬":3782,"à¦ıà¦¤à¦¦":3783,"Ġà¦Ĩà¦¸à¦Ĺà¦°":3784,"Ġà¦¡à¦¬à¦²":3785,"à¦·à¦£à¦ĵ":3786,"à¦¦à¦°à¦Ł":3787,"à¦¿à¦ĤâĢĻ":3788,"à¦ľà¦²à¦¦":3789,"Ġà¦¦à¦²à¦Ĺà¦¤":3790,"à§«à§¦":3791,"à¦ķà¦¸à¦ľ":3792,"Ġà¦ľà¦¨à¦¸à¦ļ":3793,"Ġha":3794,"ill":3795,"ÂŃÂŃÂŃÂŃ":3796,"og":3797,"ºçľ":3798,"à¦²à¦ķà¦°":3799,"Ġà¦Ĩà¦ªà¦¦":3800,"Ġà¦Ĩà¦īà¦²":3801,"à¦Łà¦ļ":3802,"Ġà¦®à¦ľà¦²":3803,"Ġà¦¤à§ľ":3804,"Ġà¦ļà¦ªà¦²":3805,"Ġà¦Ńà¦¬à¦¤":3806,"à§ĩà¥¤\"":3807,"à¦Ńà¦Ĺà¦¬":3808,"Ġà¦Ĩà¦®à¦¤":3809,"Ġà¦¥à¦¤":3810,"à¦«à¦®":3811,"à¦«à§ľ":3812,"Ġà¦ĩà¦·":3813,"Ġà¦ĩà¦¨à¦Ł":3814,"à¦ħà¦¯":3815,"à¦¨à¦¬à¦ķà¦²":3816,"Ġà¦ħà¦¤à¦Ł":3817,"Ġà¦Ĺà¦Ńà¦°":3818,"Ġà¦ıà¦¸à¦¬à¦ĩ":3819,"Ġà¦ļà¦®à¦ķà¦ª":3820,"à¦ľà¦®à¦¹à¦²":3821,"à§©à§¦":3822,"Ġà¦Ĩà§ľà¦®":3823,"à¦¾à¦ĥ!":3824,"à¦¾âĢĿâĢĶ":3825,"Ġà¦Ķà¦ľ":3826,"Ġà¦¸à¦°à¦¸à¦¤":3827,"Ġby":3828,"à§ĩâĢĿâĢĶ":3829,"à¦ķà¦ľà¦®à¦ķ":3830,"ĠĠĠĠĠĠĠĠ":3831,"Ġà¦Łà¦®à¦Łà¦®":3832,"·çľ":3833,"à¸":3834,"Ġun":3835,"à¦²à¦¬à¦°":3836,"à¦²à¦ľà¦¯":3837,"à¦ķà¦¸à¦®":3838,"à¦¬à¦¦à¦°":3839,"à¦¸à¦°à¦¸":3840,"Ġà¦¨à¦Ĺà¦£":3841,"Ġà¦¨à¦Ĺà¦¦":3842,"Ġà¦ıà¦¹":3843,"Ġà¦ķà¦°à¦¨":3844,"à§ĩà¥¤'":3845,"Ġà¦īà¦¸à¦ķ":3846,"à§ľà¦®":3847,"Ġà¦ĩà§Ł":3848,"Ġà¦ĩà¦®à¦ª":3849,"à¦¬à¦ªà¦ķ":3850,"Ġà¦¬à¦¨à¦®":3851,"Ġà¦ªà¦¥à¦¹":3852,"à¦¤à¦¬à¦¬":3853,"Ġà¦īà¦ªà¦¡":3854,"Ġà¦ħà¦§à¦¸":3855,"Ġà¦ħà¦ľà§Ł":3856,"à¦ªà¦¦à¦¸":3857,"Ġà¥¤à¥¤":3858,"Ġà¦ĺà¦¨à¦ĺà¦¨":3859,"à¦Ĺà¦¬à¦Ĺ":3860,"à§«à§Ń":3861,"Ġà¦¶à¦¹à¦°à¦ķ":3862,"Ġà§§à§¯à§¨":3863,"Ġà¦Ĩà¦«à¦ľ":3864,"est":3865,"Ġà¦¨à¦ľà¦°à¦¦":3866,"ºçľºçľ":3867,"ld":3868,"à¦¨à¦§à¦°":3869,"à¦²à¦ĵà¦¯":3870,"à¦²à¦®à¦£":3871,"à¦¯à¦¨à¦¤":3872,"à§ģà§į":3873,"à¦¬à¦ĩà¦¯":3874,"Ġà¦¸à¦°à¦¬":3875,"Ġà¦¸à¦ĵà¦¯":3876,"à¥ĩ":3877,"Ġà¦Ĩà¦¹à¦¸":3878,"Ġà¦¹à¦«à¦®":3879,"Ġà¦ıà¦¨à¦ķ":3880,"Ġà¦ıà¦¤à¦¬à¦¡":3881,"à¦ļà¦²à¦¬":3882,"à¦¹à¦ľ":3883,"Ġà¦Ĩà¦®à¦¬":3884,"à¦łà¦¹":3885,"à¦°à¦¤à¦¬":3886,"à¦¤à¦°à¦«":3887,"à¦°à¦¬à¦Ĺ":3888,"Ġà¦¡à¦¯":3889,"Ġà¦Ŀà¦°à¦¤":3890,"Ġà¦¢à¦Ļ":3891,"Ġà¦ħà¦¸à¦¹à¦¯":3892,"à¦¬à¦¤à¦®":3893,"à¦¯à¦¤à¦¦":3894,"Ġà¦ıà¦¤à¦ĸ":3895,"à¦ªà¦¦à¦ª":3896,"à¦¬à¦¸à¦¤":3897,"à¦·à¦ķà¦ķ":3898,"à¦¤à¦ķà¦°à¦£":3899,"Ġà¦Ĩà¦¦à¦¤":3900,"à¦¾âĢĻâĢĶ":3901,"âĢĵâĢĵâĢĵâĢĵ":3902,"Ġà¦¸à¦«à¦Łà¦ĵà¦¯":3903,"Ġyou":3904,"·çľ·çľ":3905,"la":3906,"nt":3907,"à¦¤à§ľ":3908,"à¦ķà¦Ŀ":3909,"à¦¬à¦ĸ":3910,"à¦¼âĢĿ":3911,"à¦®à¦®à¦¨":3912,"Ġà¦¸à¦Ĺ":3913,"à¥Ģ":3914,"Ġà¦Ĩà§Łà¦¤":3915,"Ġà¦Ĩà¦ĵà¦¡":3916,"à¦¦à¦ľ":3917,"à¦¦à¦°à¦ķ":3918,"Ġà¦Ĺà¦¤à¦°":3919,"Ġà¦¶à¦°à¦¦":3920,"Ġà¦ľà¦ĸà¦®":3921,"Ġà¦ıà¦ķà¦¹":3922,"à¦łà¦Ĺ":3923,"Ġà¦īà¦¤à¦°":3924,"Ġà¦²à¦¹":3925,"âĢĶâĢĻ":3926,"à¦¼à¦¿?":3927,"à¦¿à¥¤à¥¤":3928,"à¦®à¦¨à¦ķ":3929,"à¦ŀà¦ª":3930,"à¦¿,âĢĻ":3931,"à¦ıà¦®à¦¨à¦ĩ":3932,"Ġà¦¬à¦²à¦²à¦Ń":3933,"Ġà¦ĩà¦¬":3934,"Ġà¦ĩà¦¤à¦°":3935,"à¦ħà¦§à¦°":3936,"Ġà¦Ĩà¦Ĺà¦¤":3937,"à¦²à¦ķà¦¦":3938,"à¦ªà¦¤à¦Ļ":3939,"Ġà¦ĭà¦ľ":3940,"à¦ķà¦ķà¦¥":3941,"Ġà¦Ńà§Łà¦ķ":3942,"à¦®à¦Ĺà¦ŀ":3943,"Ġà¦Ĺà¦®à¦Ĺà¦®":3944,"Ġà§¨à§«":3945,"Ġman":3946,"Ġà¦ªà¦Ļà¦ķ":3947,"Ġà§«à§¦":3948,"Ġà¦Ŀà¦Łà¦ªà¦Ł":3949,"ÑĨ":3950,"Ġk":3951,"à¦®à¦°à¦¤":3952,"Ġà¦¬à¦°à¦¬":3953,"Ġà¦¸à¦°à¦£":3954,"à¦ĩà¦¸à¦Ļ":3955,"à¦Ľà¦ĩ":3956,"Ġà¦¤à§İ":3957,"à¦¶à¦ĸ":3958,"âĢī":3959,"à¦¡à¦ļ":3960,"Ġà¦¯à¦®à¦ľ":3961,"à¦¥à¦°à¦Ł":3962,"Ġà¦ľà¦¬à¦°":3963,"Ġà¦ľà¦®à¦ķ":3964,"Ġà¦°à¦Ĺ":3965,"Ġà¦ĸà¦°à¦Ĺ":3966,"à¦¼à¦¿!":3967,"à¦Ĩà¦¸à¦¬":3968,"âĢĿ-":3969,"Ġà¦Łà¦Ĺà¦¬à¦Ĺ":3970,"Ġà¦ľà¦¨à¦®à¦¤":3971,"à¦ĥâĢĵ":3972,"Ġà¦Ĩà¦Ĺà¦¸":3973,"âĢĮà§į":3974,"Ġà¦īà§ľà¦¨":3975,"Ġà§¨à§¨":3976,"Ġor":3977,"Ġà¦Ĩà¦ĩà¦¶":3978,"Ġà§©à§¦":3979,"ass":3980,"Ð°":3981,"à¦°à¦ļà¦°":3982,"à¦¯à¦®à¦£":3983,"à¦®à¦°à¦¨":3984,"à¦®à¦ļà¦ķ":3985,"Ġà¦¸à¦¦à¦¯":3986,"Ġà¦Ĩà¦ĩà¦ľ":3987,"à¦¦à¦¬à¦°":3988,"à¦Łà¦°à¦Ĺ":3989,"Ġà¦®à¦ĩ":3990,"à¦ĩà¦ħà¦ķ":3991,"Ġà¦¹à¦ĩà¦¨":3992,"Ġà¦¤à§İà¦ª":3993,"à¦ļà¦ķà¦°":3994,"à¦¥à¦¶":3995,"Ġà¦¶à¦°à¦®":3996,"Ġà¦°à¦¸à¦¬":3997,"à¦Ńà¦®":3998,"Ġà¦īà¦ĩà¦ķ":3999,"Ġà¦ĸà¦Łà¦ķ":4000,"à¦īà¦Ńà¦¯":4001,"à¦ıà¦¤à¦ķ":4002,"Ġà¦¬à¦²à¦²à¦«":4003,"à§Ī-":4004,"à¦ħà¦·":4005,"à¦¸à¦¬à¦ļ":4006,"à¦¨à¦¬à¦¹":4007,"à¦§à¦¨à¦¸à¦Ļ":4008,"Ġà¦ķà¦¤à¦ķà¦Ł":4009,"à¦ªà¦¥à¦Ĺ":4010,"Ġà¦ĵà¦ĩà¦°à¦ķà¦®":4011,"à¦ľà¦²à¦°":4012,"à¦¢à¦²":4013,"Ġà¦ħà¦²à¦¸à¦¤":4014,"à¦Ĩà¦ľà¦ĩ":4015,"à¦īà¦²à¦¦":4016,"à¦ľà¦¸à¦ľ":4017,"à¦®à§Łà¦ķà¦°":4018,"Ġà¦Ńà¦Ĺà¦¬à¦¤":4019,"''":4020,"Ġhe":4021,"à¦¨à¦ĺ":4022,"à¦¤à¦¤à¦°":4023,"à¦Łà¦¯":4024,"à¦Ľà¦Ľ":4025,"à¦Ľà¦²à¦¤":4026,"Ġà¦ħà¦¤à¦°":4027,"à¦·à¦ªà¦¥":4028,"à¦§à¦ļ":4029,"à¦§à¦¬à¦¦":4030,"à¦¡à¦ľ":4031,"à¦¹à¦¶":4032,"à¦¥à¦¦":4033,"à¦łà¦Ń":4034,"Ġà¦īà¦ĩà¦¶":4035,"à¦¬à¦¨à¦ªà¦¥":4036,"âĢĻ!":4037,"Ġà¦ĩà¦Ľ":4038,"Ġà¦Ŀà¦ª":4039,"à¦ħà¦Ł":4040,"Ġà¦Ĺà¦²à¦¤":4041,"à¦ķà¦Łà¦¬à¦°":4042,"Ġà¦ľà¦²à¦Ľà¦¬":4043,"à¦°à¦¹à¦¨":4044,"à¦¨à¦ĵà¦®à¦¤":4045,"à¦°à¦¦à¦¤":4046,"à¦ıà¦ķà¦®":4047,"Ġà¦¬à¦ĩà¦ĸ":4048,"à¦¤à¦ķà¦¡":4049,"à¦°à¦ļà¦²à¦¨":4050,"Ġà¦¬à¦Łà¦¤à¦²":4051,"Ġà§§à§¯à§©":4052,"art":4053,"se":4054,"ĠW":4055,"Ġ__":4056,"à¦¤à¦¤à¦¨":4057,"à¦ķà¦Ńà¦°":4058,"à¦¬à¦ľà¦Ĺà§İ":4059,"à§ĭà¦ĥ":4060,"Ġà¦¸à¦²à¦ľ":4061,"Ġà¦¨à¦¬à¦¨":4062,"Ġà¦¨à¦°à¦¨":4063,"Ġà¦®à¦Ł":4064,"à¦ĩà¦ıà¦°":4065,"Ġà¦¦à¦ªà¦¦à¦ª":4066,"Ġà¦ıà¦¨à¦°":4067,"à¦ĸà§ľ":4068,"à¦¡à¦¹":4069,"à¦ļà¦£":4070,"à¦£à¦ļà¦¨":4071,"à¦£à¦¸à¦®":4072,"Ġà¦Ńà¦°à¦²":4073,"Ġà¦īà¦¸":4074,"Ġà¦ĸà¦¤à¦®":4075,"à¦°à¦¤à¦¤":4076,"Ġà¦®à¦¨à¦ĵ":4077,"à¦«à¦ª":4078,"Ġà¦ĩà¦Ń":4079,"à¦¤à¦¨à¦ĩ":4080,"Ġà¦ªà¦¥à¦ĺ":4081,"Ġà¦ľà¦²à¦°à¦Ļ":4082,"Ġà¦īà¦ªà¦ªà¦¤":4083,"à¦¨à¦ĵà¦ķ":4084,"Ġà¦ħà¦ªà¦¦":4085,"Ġà¦¬à¦Ľà¦°à¦ĸ":4086,"Ġà¦¬à¦ĩà¦ªà¦¤":4087,"à¦·à¦¤à¦Ĺ":4088,"à¦¤à¦ķà¦£":4089,"à¦¶à¦ķà¦¦":4090,"Ġà¦īà¦ªà¦°à¦¨":4091,"à¦°à¦ľà¦¨à¦¨":4092,"à¦¥à¦°à¦Ĺ":4093,"Ġà¦¸à¦¹à¦ľà¦Ń":4094,"à¦ĩà¦ľà¦¡":4095,"Ġà§¨à§ª":4096,"ate":4097,"Ġare":4098,"ast":4099,"ĠÑģÑĨ":4100,"The":4101,"ere":4102,"ore":4103,"Ðµ":4104,"à§ĩ...":4105,"à¦¨à¦ķà¦²":4106,"à¦¤à¦®à¦¨":4107,"à¦¤à¦ķà¦°":4108,"à¦¤à¦¤à¦®":4109,"à¦ķà¦¢":4110,"à§Ģ:":4111,"à¦ľà¦²à¦¬":4112,"Ġà¦¤à¦¤à¦¬":4113,"à¦¶à¦ľà¦¨":4114,"à¦¶à¦°à¦ķ":4115,"Ġà¦ħà¦¶à¦¨":4116,"Ġà¦ħà¦ĺà¦Łà¦¨":4117,"à¦¹à¦°à¦ķ":4118,"à¦£à¦Ńà¦°":4119,"Ġà¦¶à¦°à¦¬à¦¤":4120,"à¦Ńà¦¤":4121,"à¦Ńà¦§":4122,"à¦¬à¦¨à¦ĵ":4123,"à¦ªà¦°à¦¬":4124,"à¦Ĩà¦¬à¦°":4125,"à¦ĺà¦Łà¦ķ":4126,"à¦·à¦£à¦ľà¦¨":4127,"Ġà¦Ĺà¦²à¦Ĺà¦²":4128,"à¦¦à¦°à¦¦":4129,"à¦®à¦¤à¦²":4130,"à¦°à¦¹à¦¸à¦¨":4131,"à¦¾âĢĶâĢĺ":4132,"à¦¦à§Łà¦Ł":4133,"Ġà¦®à¦°à¦Ľ":4134,"à§ģà¦ĥà¥¤":4135,"à¦ħà¦¨à¦²":4136,"à¦ªà¦ķà¦Ń":4137,"à¦¬à¦ķà¦¥":4138,"Ġ(âĢĺ":4139,"ont":4140,"à¦¯à¦¶à¦¸":4141,"Ġà¦ıà¦ĩà¦°à¦ķà¦®à¦ĩ":4142,"Ġà¦ªà¦°à¦ªà¦°à¦ĩ":4143,"pp":4144,"qu":4145,"Ġr":4146,"à¦¨à¦¬à¦ª":4147,"à¦¤à¦ļà¦ķ":4148,"à¦²à¦ŀ":4149,"à¦¯à¦ªà¦¨":4150,"à¦¯à¦Łà¦¨":4151,"à¦¼à¦ĥà¥¤":4152,"Ġà¦¬à¦ļ":4153,"Ġà¦¸à¦Ĺà¦°":4154,"à¦¸à¦¨à¦¬":4155,"à¦¦à¦ļ":4156,"Ġà¦¨à¦ª":4157,"Ġà¦¨à¦²à¦ķ":4158,"Ġà¦®à§Łà¦¨":4159,"à¦ĩà¦ī":4160,"à¦Ľà¦¸":4161,"à¦ľà¦ļ":4162,"Ġà¦¹à¦°à¦®":4163,"à¦¶à¦®à¦¯":4164,"à¦·à¦¸à¦¦":4165,"à¦¡à¦ĵ":4166,"à¦¹à¦ĵ":4167,"à§Łà¦¤à¦®":4168,"à¦£à¦ķà¦°":4169,"Ġà¦¶à§Łà¦¤":4170,"à¦¾à¦ģ!":4171,"Ġà¦ĵà¦¬":4172,"à¦ªà¦°à¦¸":4173,"Ġà¦Ĩà¦²à¦¬":4174,"à¦°à¦¬à¦®à§Ł":4175,"à§Įà¥¤":4176,"à¦°à¦®à¦ª":4177,"Ġà¦ªà¦¥à¦Ĺ":4178,"à¦°à¦ľà¦²":4179,"Ġà¦īà§İà¦«":4180,"à¦ıà¦ķà¦¸à¦®à¦¯":4181,"à§įâĢĮ!":4182,"à¦¬à¦¶à¦°":4183,"Ġà¦¸à¦®à§Łà¦Ł":4184,"----":4185,"à¦·à§Łà¦Ĺ":4186,"à§ĩâĢĻ,":4187,"Ġse":4188,"ich":4189,"lect":4190,"Ġà§§à§¯à§ªà§Ń":4191,"hing":4192,"ia":4193,"à¦®à¦¶à¦²":4194,"Ġà¦ķà¦ĵ":4195,"Ġà¦ķà¦²à¦¨":4196,"à¦¸à¦°à¦¤":4197,"Ġà¦ªà§Ł":4198,"Ġà¦ªà¦ļà¦¨":4199,"à¦¦à¦®à¦¸":4200,"Ġà¦¤à¦¨à¦¯":4201,"à¦¶à¦®à¦¨":4202,"à¦¼à§ĩâĢ¦":4203,"âĢĲ":4204,"à¦ļà¦²à¦¨":4205,"à§Łà¦ªà¦°":4206,"à¦¥à¦ªà¦¤":4207,"à¦łà¦ķà¦¦":4208,"Ġà¦īà¦Ł":4209,"Ġà¦Ĩà¦°à¦¨":4210,"à¦ŀà¦ķ":4211,"à¦¤à¦°à¦®":4212,"à¦¤à¦°à¦¦":4213,"à¦Ĩà¦īà¦Ł":4214,"âĢĿ!":4215,"Ġà¦¸à¦¬à¦¦":4216,"Ġà¦ķà¦¥à¦¨":4217,"Ġà¦Ŀà¦²":4218,"à¦ħà¦ªà¦®":4219,"Ġà¦¬à¦¨à¦ľ":4220,"à¦²à¦ķà¦ķ":4221,"Ġà¦īà¦ªà¦®à¦¹":4222,"à¦°à¦¶à¦®":4223,"à¦°à¦¦à§Ł":4224,"Ġà¦ªà¦¦à¦¤à¦²":4225,"Ġà¦ĩà¦¨à¦²":4226,"à¦Ĺà¦ľà¦Ĺ":4227,"Ġà¦ĭà¦ķ":4228,"Ġà¦¬à§ľà¦¦":4229,"Ġtr":4230,"Ġwith":4231,"ÂłÂłÂłÂłÂłÂłÂłÂłÂłÂłÂłÂłÂłÂłÂłÂłÂłÂł":4232,"Ġà§§à§¦à§¦":4233,"ĠThe":4234,"Ġhave":4235,"10":4236,"ãģ":4237,"ĠO":4238,"Ġì":4239,"à§įâĢĻ":4240,"à¦¤à¦°à¦¤":4241,"à¦²à¦ļà¦°":4242,"à¦¬à¦ļà¦ķ":4243,"à¦®à¦°à¦®":4244,"Ġà¦¸à¦¶à¦¬":4245,"à¥¤âĢ¦":4246,"Ġà¦ªà¦ľ":4247,"Ġà¦Ĩà¦Łà¦ª":4248,"à¦Łà¦ľ":4249,"à¦Łà¦¶":4250,"à¦Łà¦ķà¦²":4251,"à¦ĩà¦Ļ":4252,"Ġà¦ıà¦°à¦®à¦§":4253,"Ġà¦ħà¦¹à¦°":4254,"à¦§à¦§à¦°":4255,"à¦¹à¦ļ":4256,"à¦¹à¦¨à¦ķ":4257,"à¦£à¦²":4258,"à¦£à¦¬à¦¦":4259,"Ġà¦ľà¦Łà¦²":4260,"Ġà¦Ľà¦®":4261,"à¦łà¦®":4262,"à¦łà¦Ĺà¦¡":4263,"Ġà¦¥à¦ķ":4264,"Ġà¦¬à¦²à§Ł":4265,"à¦¬à¦¨à¦ª":4266,"à§ľà¦Ŀ":4267,"à¦ŀà¦¬à¦²":4268,"à¦¤à¦°à¦ľ":4269,"à¦«à¦¸à¦²":4270,"à¦°à¦¬à¦ŀ":4271,"à¦Ĩà¦·":4272,"à¦Ĩà¦¸à¦Ľ":4273,"Ġà¦ªà¦¥à¦Ń":4274,"à¦¯à¦¬à¦ĩ":4275,"Ġà¦ľà¦²à¦ĵ":4276,"à¦¹à¦¸à¦ĩ":4277,"Ġà¦īà¦ªà¦Ĺ":4278,"à¦²à¦¬à¦§":4279,"à¦ĩà¦¨à¦®":4280,"Ġà¦ķà¦®à¦ĩ":4281,"Ġà¦¨à§Łà¦¤":4282,"à§¨à§Ń":4283,"Ġà§§à§¬":4284,"Ġà¦¬à¦īà§Ł":4285,"Ġà¦¬à¦īà¦ł":4286,"à¦¨à¦Ńà¦Ļ":4287,"à¤¯":4288,"Ġà¦¹à¦ĩà¦¹à¦ĩ":4289,"à¦·à§Łà¦Ł":4290,"Ġà¦Ĩà¦ĩà¦¨à¦ľ":4291,"Ġà¦Ĭà¦¨":4292,"Ġà¦ıà¦ķà¦ªà¦²à¦ķ":4293,"Ġcom":4294,"Ġme":4295,"Ġde":4296,"Ġà§§à§©à§§à§Ń":4297,"Ġex":4298,"********":4299,",âĢĵ":4300,"pt":4301,"Ø±":4302,"ĠF":4303,"Ġ[":4304,"à¦¾à¥¥":4305,"à§ģ!âĢĻ":4306,"à¦¬à¦ªà¦°":4307,"à¦¬à¦ķà¦²":4308,"Ġà¦¸à¦ļà¦ķ":4309,"Ġà¦®à¦ļ":4310,"à¦ĸà¦ľ":4311,"à¦ĸà¦§":4312,"à¦¹à¦¬à¦§":4313,"Ġà¦ıà¦ķà¦ķà¦¥":4314,"Ġà¦ĵà¦¤à¦ª":4315,"Ġà¦ªà¦°à¦ĸ":4316,"à¦īà¦²à¦ķ":4317,"à¦ıà¦ª":4318,"Ġà¦¸à¦¬à¦ķà¦Ł":4319,"Ġà¦¸à¦¬à¦°à¦ķà¦®":4320,"à¦¬à¦°à¦¦":4321,"Ġà¦ħà¦¬à¦¤à¦°à¦£":4322,"Ġà¦¬à¦¨à¦²à¦¤":4323,"Ġà¦Ĺà¦²à¦Ľ":4324,"Ġà¦īà¦¦à¦°":4325,"Ġà¦ľà¦²à¦Ľ":4326,"à¦®à¦²à¦¬":4327,"à¦ļà¦²à¦Ł":4328,"à¦¸à¦¨à¦ķ":4329,"Ġà¦ľà¦®à¦¬":4330,"Ġà¦ķà¦¬à¦ļ":4331,"Ġà¦ķà¦®à¦ªà¦ķ":4332,"à¦ıà¦ķà¦¦à¦®":4333,"Ġà¦¬à¦ĩà¦¬":4334,"Ġà¦ĵà¦ĩà¦¸à¦¬":4335,"à¦¬à¦ķà¦ķ":4336,"à§Łà¦¨à¦¯":4337,"à¦ķà¦¦à¦®":4338,"Ġà¦īà§ľà¦Ľ":4339,"Ġà¦ĸà¦¸à§ľ":4340,"ous":4341,"Ġà§§à§§":4342,"Ġà¦¸à¦«à¦Łà¦ĵà§Ł":4343,"ge":4344,"ie":4345,"à¦°à§İ":4346,"à¦¨à¦ķà¦°":4347,"à¦¨à¦®à¦Ĺ":4348,"à¦ķà¦¤à¦¬":4349,"Ġà¦ķà¦ŀ":4350,"Ġà¦ķà¦¤à¦°à¦ķà¦®":4351,"à¥¤(":4352,"à¦Łà¦ľà¦¨":4353,"Ġà¦®à¦²à¦¯":4354,"à¦ĩà¦¸à¦²":4355,"à¦ľà¦®à¦£":4356,"Ġà¦¹à¦¡":4357,"à¦Ĺà¦®à¦¯":4358,"Ġà¦Ĺà¦¤à¦¬":4359,"à¦¾à¦ģà¥¤âĢĻ":4360,"Ġà¦¬à¦²à¦¦":4361,"Ġà¦ħà¦¨à¦¤":4362,"à¦¬à¦¨à¦¡":4363,"à¦¬à¦¨à¦ļà¦ķ":4364,"à¦ŀà¦¦":4365,"à¦ŀà¦§à¦°":4366,"à¦īà¦¦à¦¯":4367,"à¦ıà¦°à¦ķà¦®":4368,"Ġà¦ľà¦¨à¦¶":4369,"ĠâĢĺâĢĺ":4370,"Ġà¦ķà¦°à¦¤à¦²":4371,"à¦¨à¦¤à¦¤":4372,"à¦ĥ-":4373,"à¦ħà¦²à¦¸":4374,"à¦°à¦¸à¦¤":4375,"Ġà¦Ĩà¦¶à¦«":4376,"Ġà¦ľà¦²à¦Ń":4377,"à¦¿à¦ĤâĢĶ":4378,"à¦°à¦¹à¦¶":4379,"à¦°à¦¹à¦°à¦Ĺ":4380,"à¦ļà¦¨à¦ķ":4381,"à¦²à¦¨à¦¸":4382,"à¦ĩà¦²à¦¸":4383,"Ġà¦ħà¦Ĺà¦Ń":4384,"à¦ľà¦²à¦§":4385,"Ġà¦¦à¦²à¦¬à¦²":4386,"à¦°à¦Ĺà¦®":4387,"à§¨à§§":4388,"à§¨à§¨":4389,"à§¨à§«":4390,"Ġà¦°à¦ĵà¦¶à¦¨à¦¦":4391,"ong":4392,"ence":4393,"Ġpro":4394,"à¦Ĺà¦łà¦¨à¦Ĺ":4395,"ment":4396,"oci":4397,"sel":4398,"ya":4399,"ÑĢ":4400,"ĠÙ":4401,"à¦¾/":4402,"à§ĩà§ĩ":4403,"à¦°à¦Ĺà¦²":4404,"à¦¤à¦¦à¦¨":4405,"à¦²à¦ľà¦²":4406,"à¦¯à¦Ĺà¦£":4407,"à¦®à¦¤à¦¨":4408,"à¦®à¦¦à¦°":4409,"Ġà¦Ĩà¦ī":4410,"à¦¦à¦ĺ":4411,"à¦Łà¦¡":4412,"Ġà¦®à¦°à¦¦":4413,"Ġà¦®à¦Ĺà¦¨":4414,"à¦ľà¦ĺ":4415,"à¦ľà¦§à¦°":4416,"Ġà¦ħà¦¤à¦¨":4417,"Ġà¦ħà¦¹à¦®":4418,"à¦Ĺà¦§":4419,"à¦¹à¦ľà¦¨à¦ķ":4420,"Ġà¦ıà¦ķà¦®à¦¨":4421,"Ġà¦ĵà¦°à¦ĩ":4422,"Ġà¦ĺà¦Łà¦ķ":4423,"à¦ŀà¦¸":4424,"à¦«à¦²à¦ķ":4425,"à¦°à¦¬à¦Ń":4426,"à¦¬à¦°à¦ĵ":4427,"Ġà¦Łà¦²à¦¤":4428,"à¦¬à¦²à¦ķ":4429,"à§ģà¦ģ,":4430,"Ġà¦ĵà¦łà¦¬":4431,"à¦¸à¦¬à¦®":4432,"à¦²à¦ķà¦ļ":4433,"à¦Ĺà¦²à¦¦":4434,"Ġà¦ħà¦Ńà¦¦":4435,"à¦®à¦²à¦Ĺ":4436,"à¦²à¦¬à¦¶à¦¤":4437,"à¦Ńà¦¬à¦ķ":4438,"à¦ıà¦ķà¦¶":4439,"Ġà¦¶à¦¹à¦°à¦Ĺ":4440,"à§ģâĢĻ-":4441,"à¦¬à¦¬à¦Ļ":4442,"Ġà¦Ĩà¦¦à¦®":4443,"à¦¼--":4444,"Ġà¦·à¦£":4445,"Ġà¦¸à§İà¦¤":4446,"Ġwas":4447,"à¦Ĺà¦ªà§İ":4448,"Ġà¦ķà¦ļà¦ķà¦ļ":4449,"Ġà¦§à§ľà¦«à§ľ":4450,"Ð¾Ð":4451,"Ġà¦¤à§İà¦ªà¦°à¦¤":4452,"ain":4453,"har":4454,"ib":4455,"àª":4456,"à¦°à¦ªà¦¨":4457,"à¦¨à¦ĵà¦¯":4458,"à¦ķà¦¸à¦¬":4459,"à¦¯à¦¯à¦¨":4460,"à¦®à¦°à¦¸":4461,"à¦®à¦ªà¦¥":4462,"Ġà¦ķà¦¸à¦®":4463,"Ġà¦¬à¦ĩà¦²":4464,"Ġà¦¸à¦ĵà¦¦":4465,"à¦¦à¦¨à¦¬":4466,"Ġà¦¨à¦ļ":4467,"Ġà¦¹à¦°à¦¤":4468,"Ġà¦¹à¦īà¦ķ":4469,"Ġà¦¤à¦°à¦¤à¦°":4470,"à¦Ĺà¦°à¦ķ":4471,"à¦§à¦ļà¦¨":4472,"à¦¡à¦ĩ":4473,"à¦¹à¦¬à¦¨":4474,"Ġà¦īà¦¯":4475,"Ġà¦²à¦ĩà§Ł":4476,"Ġà¦ĺà¦°à¦ķ":4477,"à¦°à¦¬à¦²à¦Ń":4478,"Ġà¦¬à¦²à¦²à¦¦":4479,"Ġà¦Łà¦ªà¦Łà¦ª":4480,"Ġà¦§à¦°à¦®":4481,"à¦¨à¦¤à¦¨":4482,"Ġà¦Ĺà¦²à¦¨":4483,"Ġà¦ħà¦¸à¦¹à¦¨":4484,"à¦²à¦ķà¦Ń":4485,"Ġà¦¬à¦°à¦¯":4486,"à¦°à¦¦à¦²":4487,"Ġà¦ħà¦ªà¦ļà§Ł":4488,"à¦¿---":4489,"à¦¦à§Łà¦¸":4490,"à¦®à¦£à¦Ĺ":4491,"Ġà¦«à¦²à¦Ł":4492,"Ġà¦°à¦¸à¦¸":4493,"à¦¾à¦ģ,âĢĿ":4494,"Ġà¦¸à¦°à¦²à¦Ń":4495,"à§ªà§«":4496,"à¦¬à¦Łà¦Ĺ":4497,"Ġà¦ķà§Łà¦²":4498,"Ġsp":4499,"ical":4500,"Ġfrom":4501,"Ġwhich":4502,"Ġà¦ıà¦ķà¦Ŀà¦²à¦ķ":4503,"à§įâĢįâĢĮ":4504,"ois":4505,"ost":4506,"th":4507,"Ġall":4508,"à¦°à¦Ĺà¦°":4509,"à¦¿...":4510,"à¦¨à¦¡à¦°":4511,"à¦²à¦ľà§Ł":4512,"à¦¬à¦ļà¦°":4513,"à¦®à¦ł":4514,"à¦®à¦¬à¦²":4515,"Ġà¦¸à§İà¦ķ":4516,"à¥ĭ":4517,"Ġà¦ªà¦¸":4518,"à¦¦à¦Ļ":4519,"à¦Łà¦ķà¦Ł":4520,"Ġà¦¨à¦¶":4521,"Ġà¦¹à¦ª":4522,"Ġà¦¤à¦²à¦¬":4523,"à¦Ĺà¦¤à¦°":4524,"à¦ļà¦¦à¦¶":4525,"à¦¹à¦®à§Ł":4526,"Ġà¦ľà¦¤":4527,"ĠĠĠĠĊ":4528,"Ġà¦¸à¦®à¦®":4529,"à¦¬à¦¨à¦°":4530,"à¦¬à¦¨à¦Ńà¦°":4531,"Ġà¦ĺà¦¨à¦¤":4532,"à¦°à¦£à¦®":4533,"à¦¤à¦°à¦¬à¦Ļ":4534,"à¦īà¦ĩà¦¯":4535,"à¦Ĩà§Łà¦¨":4536,"à¦Ĩà¦¬à¦Ľ":4537,"à§İà¦¬":4538,"à¦ıà¦Ĩà¦ĩ":4539,"Ġà¦¹à¦²à¦ĺà¦°":4540,"à§Īà¦ĥà¥¤":4541,"âĢĵâĢľ":4542,"Ġà¦ħà¦Ńà§Ł":4543,"à¦¶à¦¨à¦®":4544,"à¦®à¦¤à¦®":4545,"Ġà¦ħà¦¤à¦¸":4546,"à¦¸à¦¨à¦¯à¦¨":4547,"Ġà¦ħà¦ľà¦Ĺà¦°":4548,"Ġà¦Ĳà¦°à¦ķà¦®":4549,"Ġà¦°à¦Ļà¦Ł":4550,"à§°à¦¯":4551,"Ġà¦¦à¦¶à¦¦":4552,"à§ĩ?âĢĿâĢĶ":4553,"à¦¦à¦Ĺà¦¦":4554,"Ġà¦Ĩà¦ĩà¦¨à¦ķ":4555,"à§Ģ!âĢĻ":4556,"iter":4557,"Ġà¦°à¦¤à¦¨à¦ķ":4558,"Ġab":4559,"à¦¿âĢĿâĢĶ":4560,"ÂłÂłÂłÂłÂłÂłÂłÂłÂłÂłÂłÂłÂłÂłÂłÂłÂłÂłÂł":4561,"Ġind":4562,"Ġint":4563,"ight":4564,"oss":4565,"Ġà¦Ķà¦°à¦¸à¦ľ":4566,"Ġà¦¨à¦¬à¦¬à¦§":4567,"Ġà¦¥à¦¤à¦®à¦¤":4568,"!)":4569,"!-":4570,"ry":4571,"ust":4572,"à¦¨à¦¥":4573,"à¦¨à¦Ĺà¦¤":4574,"à¦¨à¦ľà¦²":4575,"à¦ķà¦ªà¦Ł":4576,"à§ģâĢĿ":4577,"à§ģ?âĢĻ":4578,"Ġà¦ķà¦·à¦¤":4579,"Ġà¦¸à¦ĩà¦¬":4580,"à¦¸à¦ľà¦¨":4581,"à¦¸à¦ķà¦°":4582,"à¦¦à¦ĺà¦¨":4583,"à¦Łà¦Ĩà¦ª":4584,"Ġà¦¨à¦¬à¦¸":4585,"Ġà¦®à¦²à¦®":4586,"à¦ªà¦§":4587,"à¦ªà¦¬à¦°":4588,"à¦ªà¦®à¦¯":4589,"Ġà¦¹à¦°à¦²":4590,"Ġà¦¤à§İà¦ªà¦°":4591,"Ġà¦¤à¦¹à¦¬":4592,"à¦·à¦²":4593,"à¦·à¦°à¦¹":4594,"à¦§à¦¡":4595,"à¦§à¦ªà¦°":4596,"à§Łà¦¶":4597,"à¦£à¦ľ":4598,"Ġà¦ļà¦·":4599,"Ġà¦Ńà¦°à¦£":4600,"à¦Ńà¦¶":4601,"à¦¼à¦¾à¥¤âĢĻ":4602,"Ġà¦Ĩà¦®à¦²à¦ķ":4603,"Ġà¦īà¦¶":4604,"à¦¬à¦¨à¦Ń":4605,"à¦°à¦£à¦ªà¦¤":4606,"à¦īà¦Łà¦°":4607,"à¦Ĩà¦ł":4608,"à¦Ĩà¦°à¦£":4609,"Ġà¦¬à¦²à¦²à¦ª":4610,"Ġà¦¬à¦²à¦²à¦¹":4611,"âĢĻ!âĢĿ":4612,"Ġà¦ĩà¦¸à¦°":4613,"à¦ĥ!":4614,"à¦ķà¦°à¦Ń":4615,"à¦°à¦¨à¦Ĺà¦°":4616,"Ġà¦®à¦¹à¦®":4617,"à¦¬à¦¤à¦¶":4618,"à¦Ľà¦¨à¦¦":4619,"à¦¸à¦®à¦Ĺ":4620,"Ġà¦ĵà¦ªà¦°à¦ĩ":4621,"Ġà¦ªà¦¦à¦¸":4622,"Ġà¦ħà¦Ĺà¦£à¦¨":4623,"à¦ªà¦¥à¦¹":4624,"à¦°à¦ªà¦Ł":4625,"à¦¸à¦ķà¦¦":4626,"à§¨à§ª":4627,"à§¨à§®":4628,"à§¦à§«":4629,"à¦¬à¦ĩà§Ł":4630,"à¦¿âĢĻâĢĶ":4631,"Ġà¦¹à¦¨à¦¹à¦¨":4632,"ali":4633,"Ġthey":4634,"oug":4635,"à§§à§¯à§Ń":4636,"rit":4637,"ual":4638,"ÙĦ":4639,"Ġ*":4640,"à¦¾.":4641,"à¦¨à¦°à¦ķà¦®":4642,"à¦¤à¦£":4643,"à¦²à¦¤à¦°":4644,"à¦²à¦ªà¦¦":4645,"à¦²à¦Ńà¦°":4646,"à¦ķà¦¤à¦¨":4647,"à¦¯à¦Ĺà¦¨":4648,"à§ģà§ģ":4649,"à¦¼à§įâĢĮ":4650,"à¦®à¦¬à¦¨":4651,"à¦®à¦ľà¦¨":4652,"à¦®à¦ĺà¦Ł":4653,"Ġà¦¸à¦¶":4654,"Ġà¦¸à¦ķà¦°":4655,"à¥ģ":4656,"à¦¸à¦ľà¦²":4657,"à¦¸à¦¹à¦¯":4658,"à¦¦à¦¡":4659,"à¦¦à¦®à¦¤":4660,"à¦Łà¦§à¦°":4661,"à¦ªà¦¬à¦¨":4662,"à¦ľà¦ªà¦¤":4663,"à¦¶à¦ķà¦²":4664,"Ġà¦ħà¦ķà¦°":4665,"à¦·à¦¸à¦ķ":4666,"à¦§à¦¨à¦ĵ":4667,"âĢ¢":4668,"à¦¹à¦ĸ":4669,"à§Łà¦ĵ":4670,"à§Łà¦£à¦¤":4671,"Ġà¦Ĺà¦¦à¦Ĺà¦¦":4672,"à¦£à§Ł":4673,"Ġà¦ĵà¦¥":4674,"Ġà¦ħà¦¨à¦Łà¦¨":4675,"à¦¬à¦¨à¦ľ":4676,"Ġà¦ıà¦ĩà¦ļ":4677,"à¦īà¦Ńà§Ł":4678,"à¦¿,-":4679,"à¦¬à¦°à¦¨":4680,"Ġà¦Łà¦Ļ":4681,"Ġà¦ĩà¦£":4682,"Ġà¦ĩà¦¸à¦®":4683,"à¦·à¦£à¦Ł":4684,"à¦ķà¦²à¦¤":4685,"à¦ķà¦²à¦¸":4686,"Ġà¦ªà¦¥à¦ĵ":4687,"Ġà¦Ĩà¦¶à¦¯":4688,"à¦ķà¦¤à¦¦":4689,"à¦ķà¦¤à¦Ł":4690,"à¦§à¦ķà¦¦":4691,"à¦§à¦¨à¦Ł":4692,"Ġà¦¸à¦¹à¦¬":4693,"à¦ĩà¦¨à¦«":4694,"Ġà¦Ĳà¦¸à¦¬":4695,"Ġà¦ħà¦Ĺà¦¸":4696,"Ġà¦Ĩà¦§à¦Ł":4697,"Ġà¦¦à¦²à¦Ĺ":4698,"Ġà¦Ĺà¦£à¦ľ":4699,"à¦¾âĢĻ-":4700,"à§«à§¨":4701,"à¦®à¦¦à¦ķ":4702,"à¦²à¦ļà¦²à¦¨":4703,"ans":4704,"Ġà¦Ĭà¦¨à¦¬":4705,"à¦ıà¦®à¦¨à¦ķ":4706,"Ġà¦ľà¦Ĺà§İà¦Ł":4707,"Ġà¦°à¦®à¦°à¦®":4708,"à¦ĩà¦ľà¦¨à¦ĩ":4709,"ord":4710,"Ġmy":4711,"Ġà¦®à¦¦à¦¨à¦ķ":4712,"ction":4713,"à§°à¦¹à¦£":4714,"à§ĩà§Ĺà¦ģ":4715,"âĢķâĢķâĢķâĢķ":4716,"Ġà¦¬à¦Ľà¦°à¦ĩ":4717,"!'":4718,"12":4719,"ap":4720,"ear":4721,"Ġ+":4722,"Ġ×":4723,"à¦¨à¦ĩà¦²":4724,"à¦²à¦ĺà¦°":4725,"à¦ķà¦ªà¦ķ":4726,"à§ģ?âĢĿ":4727,"à¦®à¦²à¦ķ":4728,"à¦®à¦ĺà¦°":4729,"à§ĭâĢĻà¥¤":4730,"à¦¦à¦¹à¦¨":4731,"Ġà¦¨à¦¨à¦¦":4732,"à¦ªà¦Łà¦²":4733,"à¦Ľà¦ĵ":4734,"Ġà¦¦à¦²à¦ķ":4735,"à¦ľà¦¶à¦ķ":4736,"Ġà¦ħà¦¢":4737,"à¦ĸà¦¢":4738,"à¦Ĺà¦¹à¦¨":4739,"à¦·à¦¡":4740,"à¦·à¦§à¦°":4741,"à¦§à¦®à¦¯":4742,"à¦§à¦¶à¦¤":4743,"à¦¡à¦ĵà¦¯":4744,"à¦£à¦ł":4745,"Ġà¦Ńà¦¡":4746,"à¦Ńà¦ľà¦¨":4747,"à¦Ńà¦°à¦¸":4748,"Ġà¦ıà¦ķà¦¤à¦°à¦«":4749,"Ġà¦īà¦ľà¦²":4750,"Ġà¦²à¦ĩ":4751,"à§ĩ,âĢĵ":4752,"Ġà¦ªà¦°à¦®à¦¹":4753,"Ġà¦¸à¦®à¦ľà¦¦":4754,"à¦¬à¦¨à¦Ĺ":4755,"à§ľà¦¯à¦¨":4756,"à¦°à¦£à¦¹":4757,"à¦īà¦¥":4758,"à¦īà¦Ń":4759,"Ġà¦Ĩà¦²à¦Ł":4760,"à¦Ĩà¦²à¦¤":4761,"à§Īà¥¤":4762,"Ġà¦ĩà¦¹à¦²":4763,"à¦ĺà¦ľ":4764,"Ġà¦ıà¦¬à¦¡":4765,"à¦ħà¦ļà¦²":4766,"Ġà¦¨à¦¤à¦ľ":4767,"à¦ķà¦°à¦Ł":4768,"Ġà¦¶à¦¬à¦¦":4769,"à¦¿à¦Ĥ!":4770,"à¦²à¦¨à¦ĩ":4771,"Ġà¦ħà¦ªà¦Ł":4772,"Ġà¦ķà¦²à¦°":4773,"à¦ļà¦²à¦®":4774,"à¦¬à¦¸à¦Ļ":4775,"Ġà¦ĵà¦ĩà¦ĸ":4776,"à¦¤à¦®à§Ł":4777,"à¦¤à¦¤à¦¤":4778,"Ġà¦¶à¦¤à¦¶":4779,"à§ĩâĢĵâĢĻ":4780,"à§Ģ--":4781,"à¦ľà¦¬à¦§":4782,"Ġà¦§à¦¨à¦Ń":4783,"Ġà¦§à¦¨à¦ŀ":4784,"à¤®":4785,"à¦¬à¦¹à¦®":4786,"Ġà¦¦à¦®à¦¦à¦®":4787,"à§ĩâĢ¦à¥¤":4788,"à¦¥à¦²à¦ľ":4789,"à¦Łà¦®à¦¹à¦²":4790,"Ġà¦¸à§İà¦Ń":4791,"à¦¬à¦ľà¦¨à¦¦":4792,"à§¬à§¦":4793,"à¦¨à¦ľà¦¨à¦ĩ":4794,"à¦¾âĢĿâĢĵ":4795,"ition":4796,"ĠpH":4797,"Ġhas":4798,"Ġà¦ľà¦¨à¦ªà¦¦à¦¬":4799,"Ġà¦¸à¦¬à¦¸à¦®à§Łà¦ĩ":4800,"æŃĵæŃĵæŃĵæŃĵæŃĵæŃĵæŃĵæŃĵ":4801,"ress":4802,"!âĢĵ":4803,"TE":4804,"ak":4805,"ach":4806,"we":4807,"à¦¨à¦°à¦ķ":4808,"à¦®à¦ĵà§Ł":4809,"à¦®à¦¸à¦¨":4810,"à¦®à¦Ĺà¦¨":4811,"Ġà¦ķà¦ĩà¦¤":4812,"Ġà¦¬à¦ª":4813,"Ġà¦ªà¦¸à¦°":4814,"Ġà¦Ĩà¦¤à¦°":4815,"à¦¦à¦¶à¦Ł":4816,"à¦Łà¦°à¦¶":4817,"Ġà¦®à¦ľà¦¨":4818,"à¦ªà¦²à¦¬":4819,"à¦ĩà¦īà¦¨":4820,"à§Ģ!âĢĿ":4821,"Ġà¦¦à¦¶à¦¬":4822,"Ġà¦¤à¦°à¦¤":4823,"à¦¶à¦¡":4824,"à¦Ĺà¦¶":4825,"à¦·à¦¤à¦²":4826,"à¦§à¦ľà¦¯":4827,"à¦¡à¦¤":4828,"à¦¹à¦Ńà¦°":4829,"à§Łà¦Ł":4830,"Ġà¦Ĺà¦ľà¦²":4831,"à¦£à¦¤à¦°":4832,"Ġà¦ıà¦ķà¦§":4833,"Ġà¦ıà¦ķà¦ĸà¦£":4834,"Ġà¦ıà¦ķà¦ĺà¦£":4835,"ĠĠĠĊ":4836,"à¦łà¦ĵ":4837,"à§ĩ,âĢĶ":4838,"Ġà¦¬à¦²à¦Ł":4839,"Ġà¦«à¦²à¦¬":4840,"à¦¾à¥¤âĢĺ":4841,"Ġà¦ıà¦ĩà¦Ĺ":4842,"à¦Ŀà¦®":4843,"à¦ľà¦¨à¦¸":4844,"à¦¤à¦°à¦²":4845,"à¦īà¦¨à¦²":4846,"à¦īà§İà¦ª":4847,"à¦Ĩà¦ĺ":4848,"à§İà¦ľ":4849,"à¦°à¦®à¦¸":4850,"à¦°à¦®à¦¥à¦°":4851,"à§ģà¦ģà¥¤âĢĻ":4852,"à¦·à¦£à¦¤":4853,"à¦¨à¦¤à¦¤à¦°":4854,"à¦ħà¦²à¦ķ":4855,"Ġà¦¬à¦¨à¦ªà¦¥":4856,"Ġà¦Ĩà¦¬à¦¹à¦®":4857,"à¦ķà¦Łà¦°":4858,"Ġà¦ħà¦¸à¦¦":4859,"Ġà¦Ĩà¦ªà¦¨à¦®à¦¨":4860,"Ġà¦ľà¦²à¦¢":4861,"Ġà¦ľà¦²à¦Ńà¦°":4862,"à¦°à¦¶à¦¬":4863,"à¦§à¦¨à¦Ĺ":4864,"à¦²à¦¬à¦ķ":4865,"Ġà¦ħà¦ªà¦ķ":4866,"à¦ĩà¦¨à¦ķ":4867,"à¦ıà¦ĩà¦°à¦ķà¦®":4868,"Ġà¦ªà§ľà¦¨":4869,"Ġà¦¬à¦Ľà¦°à¦Ĺ":4870,"à¦°à¦Ńà¦°":4871,"à¦ıà¦ķà¦ķ":4872,"à¦ıà¦ķà¦ĸ":4873,"à¦ıà¦ķà¦¥":4874,"à¦ªà¦ķà¦ķ":4875,"à§ĩ;âĢĶ":4876,"à¦¹à¦¨à¦²":4877,"Ġà¦ıà¦ķà¦ĩà¦°à¦ķà¦®":4878,"à¦°à¦®à¦£à¦ª":4879,"à§ĭâĢĶâĢĺ":4880,"Ġà¦¤à¦¤à¦ĸ":4881,"Ġà¦ªà¦¶à¦®":4882,"à¤¹":4883,"à§©à§ª":4884,",âĢĿâĢĶ":4885,"Ġà¦ľà¦Ĺà§İà¦ķ":4886,"Ġà¦ıà¦°à¦ķà¦®à¦ĩ":4887,"Ġsu":4888,"Ġà¦Ĺà¦ľà¦Ĺà¦ľ":4889,"Ġcan":4890,"Ġbut":4891,"hak":4892,"-'":4893,".âĢĻ":4894,"16":4895,"17":4896,"but":4897,"ik":4898,"ies":4899,"æĹ":4900,"ĠK":4901,"Ġat":4902,"à¦¿à¥¥":4903,"à¦¨à¦°à¦¤":4904,"à¦¤à¦®à¦ķ":4905,"à¦¤à¦¤à¦ķ":4906,"à¦²à¦ķà¦²":4907,"à¦²à¦®à¦¤":4908,"à¦²à¦ļà¦ķ":4909,"à¦ķà¦¸à¦¨":4910,"à¦ķà¦¨à¦ķ":4911,"à¦®à§İà¦¸":4912,"Ġà¦¸à¦¸à¦®":4913,"à¦¸à¦ªà¦¨":4914,"Ġà¦Ĩà¦ĵ":4915,"Ġà¦Ĩà¦«à¦Ł":4916,"à¦¦à¦¬à¦ª":4917,"à¦¦à¦ķà¦¤":4918,"Ġà¦®à¦ķà¦¬":4919,"à§ĢâĢ¦":4920,"à¦ľà¦®à¦¹":4921,"Ġà¦ıà¦¥":4922,"à¦ĸà¦°à¦¤":4923,"à¦Ĺà¦°à¦¬":4924,"à¦Ĺà¦«à¦²":4925,"à¦§à¦¬à¦¤":4926,"à¦¡à¦¦":4927,"à¦¹à¦ĵà¦¯":4928,"à¦£à¦¬à¦¤":4929,"Ġà¦¶à¦®à¦¶":4930,"Ġà¦ļà¦ļ":4931,"Ġà¦Ńà¦¨":4932,"Ġà¦°à¦ĩà¦¬":4933,"à¦ĵà¦Ľ":4934,"à¦ĵà¦Ń":4935,"à¦Ńà¦ľà¦¨à¦ķ":4936,"Ġà¦ĸà¦ŀ":4937,"Ġà¦ħà¦¨à¦Ĺ":4938,"âĢĶâĢĿ":4939,"à¦¬à¦¨à¦ļ":4940,"à¦Ŀà¦¬à¦¯":4941,"à¦¤à¦°à¦¯":4942,"à¦Ĩà§ľ":4943,"à§İà¦¸à¦¨":4944,"à¦°à¦ķà¦¦":4945,"à¦¬à¦°à¦·":4946,"Ġà¦¬à¦²à¦²à¦°":4947,"Ġà¦¬à¦²à¦²à¦¨":4948,"Ġà¦¬à¦²à¦²à¦¸":4949,"Ġà¦¬à¦²à¦²à¦Ĩà¦ªà¦¨":4950,"Ġà¦ķà¦¥à¦ķà¦¤":4951,"à§Į-":4952,"à¦¬à¦²à¦¦":4953,"à¦°à¦®à¦ĩ":4954,"à¦·à¦£à¦Ń":4955,"Ġà¦ĵà¦łà¦¤":4956,"Ġà¦ħà¦¸à¦¤à¦¤":4957,"à¦¯à¦¬à¦ĩà§Ł":4958,"à¦¨à¦¬à¦ļ":4959,"Ġà¦ľà¦²à¦Ľà¦Ł":4960,"à¦§à¦ķà¦ķ":4961,"Ġà¦¸à¦°à¦¦":4962,"Ġà¦ħà¦ªà¦ķà¦°":4963,"Ġà¦¸à¦¹à¦¨":4964,"Ġà¦¸à¦¹à¦¦":4965,"à¦¸à¦®à¦°":4966,"Ġà¦Ĳà¦¦":4967,"à¦ªà¦¦à¦ļ":4968,"à§įâĢĮâĢĮ":4969,"à§ģ,âĢĿ":4970,"à§İà¦ķà¦®":4971,"Ġà¦īà¦ªà¦°à¦ĩ":4972,"à¦ĺà¦°à¦Ĺ":4973,"à¦°à¦ľà¦¨à¦ķ":4974,"à¦īà¦²à¦°":4975,"ÂłÂłÂłÂłÂłÂłÂłÂłÂłÂłÂłÂłÂłÂłÂłÂłÂłÂłÂłÂł":4976,"à¦°à¦®à¦£à¦ĩ":4977,"Ġà¦¦à¦°à¦ĸ":4978,"Ġà¦ľà¦°à¦®à¦¨":4979,"Ġà¦Ĩà¦ªà¦²":4980,"Ġà¦¶à¦¹à¦°à¦¬":4981,"à¦£à¦¨à¦Ĺà¦°":4982,"Ġà¦ªà¦°à¦¶à¦®à¦£":4983,"Ġà¦·à§ľà¦¯à¦¨":4984,"à¦ľà§Łà¦ķ":4985,"Ġà§¨à§¬":4986,"à¦¿?âĢĿâĢĶ":4987,"à¦ıà¦¸à¦¸":4988,"ings":4989,"our":4990,"ell":4991,"Ġà¦¹à¦ľà¦°à¦¤":4992,"Ġà¦ľà¦¬à¦°à¦¦à¦¸":4993,"self":4994,"-âĢĺ":4995,"19":4996,"ove":4997,"Ð½":4998,"ĠV":4999,"Ġim":5000,"à§±":5001,"à¦°à¦ªà¦¦":5002,"à¦¤à¦ĺ":5003,"à¦²à¦¹à¦°":5004,"à¦¬à¦¥":5005,"à¦¬à¦¤à¦°":5006,"à¦¬à¦ķà¦¬":5007,"à§ĭâĢĿà¥¤":5008,"Ġà¦¬à¦°à¦ķ":5009,"Ġà¦¸à¦ªà¦¤":5010,"Ġà¦Ĩà¦ĸà¦°":5011,"à¦ªà¦ļà¦°":5012,"Ġà¦¤à¦¯":5013,"Ġà¦¤à¦Ľà¦¨":5014,"Ġà¦¤à¦®à¦¸":5015,"Ġà¦¤à¦ķà¦®":5016,"à§Łà¦¹":5017,"à¦¥à¦¡":5018,"à¦Ńà¦ª":5019,"Ġà¦īà¦Ľà¦²":5020,"Ġà¦ĵà¦Ŀ":5021,"âĢĶâĢĶ":5022,"à¦Ŀà¦Ł":5023,"à¦«à¦²à¦¤":5024,"à¦Ĩà¦ªà¦¦":5025,"à¦Ĩà¦¸à¦¤":5026,"à¦°à¦ķà¦¯":5027,"à¦°à¦ķà¦°à¦£":5028,"Ġà¦¬à¦²à¦²à¦Ĩà¦®à¦°":5029,"Ġà¦Ŀà¦°à¦¬":5030,"à¦¬à¦²à§Ł":5031,"à¦°à¦®à¦²":5032,"à¦°à¦®à§Ł":5033,"à¦ħà¦¬à¦¹":5034,"à¦°à¦¸à¦Ĺ":5035,"à¦¨à¦¬à¦®":5036,"à¦¯à¦ķà¦¥":5037,"Ġà¦¸à¦¨à¦¦":5038,"Ġà¦ĺà¦°à¦Ľ":5039,"à¦²à¦¨à¦ļ":5040,"Ġà¦¸à¦°à¦·":5041,"à¦°à¦²à¦®":5042,"à¦ĩà¦¨à¦°":5043,"Ġà¦Ĳà¦ĸ":5044,"à¦¨à¦ķà¦ķ":5045,"à¦¸à¦«à¦²à¦¤":5046,"à§¨à§©":5047,"Ġà¦ļà¦ķà¦®à¦ķ":5048,"Ġà¦īà§İà¦¸à¦¬à¦Ĺ":5049,"Ġà¦¸à¦Ńà¦¯":5050,"à¤Ĥ":5051,"à¦¬à¦¹à¦£":5052,"à§ªà§Ń":5053,"à¦ľà§Łà¦Ĺ":5054,"à¦¬à¦ľà¦¨à¦ª":5055,"à¦Ĳà¦¶":5056,"Ġà¦°à¦¹à¦®à¦¤":5057,"Ġà¦¤à¦ªà¦¨à¦¬":5058,"Ġà¦Ĩà¦«à¦Ĺ":5059,"Ġcol":5060,"Ġà¦®à¦Ĺà¦§à¦°":5061,"ound":5062,"ould":5063,"Ġà¦ľà¦¨à¦Ĺà¦£à¦ķ":5064,"à¦Īà¦¦":5065,"ife":5066,"ãģ®":5067,"æĹ¥":5068,"Ġà¦¤à¦Ľà¦¨à¦Ľ":5069,"11":5070,"18":5071,"23":5072,"24":5073,"now":5074,"oc":5075,"Åĵ":5076,"ĊĊ":5077,"à¦¾à¦¾":5078,"à¦¤à¦ªà¦¥":5079,"à¦²à¦£":5080,"à¦²à¦Ĺà¦¤":5081,"à¦²à¦®à¦°":5082,"à¦ķà¦Ļ":5083,"à¦¯à¦Ńà¦°":5084,"à¦¼à§Ī":5085,"Ġà¦ķà¦ļà¦²":5086,"Ġà¦¸à¦¶à¦°":5087,"à¥¤)":5088,"à¦¦à¦¸à¦®":5089,"Ġà¦®à¦°à¦¸":5090,"Ġà¦®à¦°à¦¶":5091,"Ġà¦®à¦Łà¦ķ":5092,"Ġà¦®à¦¶à¦Ĺ":5093,"à¦ªà¦ªà¦°":5094,"Ġà¦¤à§İà¦¸":5095,"à¦Ĺà¦°à¦¤":5096,"Ġà¦¯à¦¶à¦¸":5097,"à¦ļà¦°à¦ķ":5098,"à¦¹à¦¨à¦¦":5099,"Ġà¦Ĺà¦°à¦¬":5100,"à¦£à¦®à¦¨":5101,"à¦£à¦ªà¦¨":5102,"Ġà¦°à¦ĩ":5103,"à¦ĵà¦¸":5104,"à¦Ńà¦ĩ":5105,"à¦Ńà¦²à¦¬":5106,"à¦łà¦«":5107,"Ġà¦īà¦ĩà¦¸":5108,"Ġà¦²à¦ĩà¦¬":5109,"Ġà¦«à§ľ":5110,"Ġà¦«à¦¸à¦«":5111,"à¦°à¦¤à¦Ń":5112,"Ġà¦ħà¦¨à§ľ":5113,"Ġà¦¸à¦®à¦¦":5114,"à¦¬à¦¨à¦²à¦¤":5115,"Ġà¦ıà¦ĩà¦°":5116,"à¦®à¦¨à¦Ń":5117,"à¦ľà¦¨à¦Ł":5118,"à¦¤à¦°à¦¹":5119,"à§İà¦¶":5120,"Ġà¦ĩà¦®à¦°":5121,"à¦ĺà¦ª":5122,"Ġà¦Ŀà¦°à¦²":5123,"à¦ħà¦¬à¦²":5124,"Ġà¦¬à¦¨à¦Ĺ":5125,"à¦ķà¦²à¦¹":5126,"Ġà¦ªà¦¥à¦°":5127,"Ġà¦ªà¦¥à¦ķ":5128,"Ġà¦ħà¦¸à¦®à¦¤":5129,"à¦²à¦ķà¦ª":5130,"à¦²à¦¤à¦®":5131,"à¦ļà¦¨à¦ľà¦Ļ":5132,"à¦°à¦¶à¦®à¦¨":5133,"à¦¯à¦¤à¦¤":5134,"à¦ķà¦¬à¦ļ":5135,"Ġà¦ħà¦ľà¦°":5136,"à¦¹à¦²à¦¦":5137,"à¦°à¦ĵà¦¶à¦¨":5138,"à¦ªà¦¥à¦ļà¦²":5139,"Ġà¦¬à¦ĩà¦ªà§ľ":5140,"à§Ģà¥¤âĢĻ":5141,"Ġà¦«à¦²à¦®":5142,"à¦ļà¦ķà¦£":5143,"à¦¼à¦¾,âĢĿ":5144,"à§¨à§¬":5145,"à¦Ĩà¦²à¦®":5146,"Ġà¦°à¦¸à¦¦":5147,"à¦¾âĢĻâĢĵ":5148,"à¦·à¦¦à¦Ĺ":5149,"à¦¨à¦ªà¦ŀ":5150,"Ġà¦¸à§İà¦ļ":5151,"one":5152,"Ġà¦ĵà¦·à¦§":5153,"Ġsh":5154,"Ġà¦ıà¦ķà¦¦à¦®à¦ĩ":5155,"ory":5156,"Ġà¦¬à¦¶à¦¬à¦°":5157,"à¦ķà¦ĵà¦¦":5158,"Ġà¦ĸà¦ļà¦ĸà¦ļ":5159,"Ġà¦Ľà§Łà¦Ł":5160,"ult":5161,"ivid":5162,"able":5163,"oishak":5164,"æĹ¥ãģ®":5165,"oishakh":5166,")âĢĵ":5167,"14":5168,"15":5169,"20":5170,"ohe":5171,"ud":5172,"Ġj":5173,"Ġë":5174,"à¦°à¦ħ":5175,"à¦¨à¦Ŀ":5176,"à¦¨à¦Ĩà¦®":5177,"à¦¨à¦®à¦£":5178,"à¦¤à¦ªà¦¦":5179,"à¦²à¦¨à¦¬":5180,"à¦¯à¦¤à¦¨":5181,"à¦¯à¦®à¦¤":5182,"à¦¬à¦ĩà¦¨":5183,"à¦®à¦¬à¦°":5184,"à¦®à¦¹à¦¸":5185,"à§ĭà§ĩ":5186,"Ġà¦¬à¦Ń":5187,"à¦¸à¦®à¦¨":5188,"à¦¸à¦¤à¦°":5189,"à¦¦à¦«":5190,"à¦ĩà¦ªà¦°":5191,"à§ĢâĢĻà¥¤":5192,"à¦Ľà¦²à¦Ľà¦²":5193,"à¦ľà§Łà¦¨":5194,"Ġà¦ıà§Ł":5195,"Ġà¦ıà¦¤à¦¬":5196,"à¦¼à§ĩ:":5197,"Ġà¦ħà§Ł":5198,"à¦·à¦ļ":5199,"à¦·à¦°à¦ķ":5200,"à¦ļà¦ķà¦²":5201,"Ġà¦Ĺà¦°à¦²":5202,"à¦£à¦ķà¦²":5203,"à¦£à¦Ńà¦ķ":5204,"Ġà¦¶à¦¤à¦°":5205,"Ġà¦¶à¦¤à¦¬":5206,"Ġà¦ľà¦ľ":5207,"Ġà¦ļà¦¯":5208,"Ġà¦ıà¦ķà¦°à¦¤":5209,"à¦¼à¦¾âĢ¦":5210,"Ġà¦Ĩà¦®à§ľ":5211,"Ġà¦²à¦²à¦¨":5212,"Ġà¦ĵà¦§":5213,"Ġà¦ĵà§ľà¦¨":5214,"Ġà¦¥à¦ĩ":5215,"Ġà¦ĸà¦ĩ":5216,"Ġà¦ĸà¦²à¦¨":5217,"Ġà¦§à¦®":5218,"Ġà¦ªà¦°à¦Ľ":5219,"à¦¼à¦¿âĢĵ":5220,"Ġà¦®à¦¨à¦ª":5221,"Ġà¦®à¦¨à¦¨à¦ķ":5222,"à¦Ŀà¦²à¦ķ":5223,"à¦īà¦¨à¦Ł":5224,"Ġà¦Ĩà¦²à¦ª":5225,"Ġà¦Ĩà¦²à¦Ļ":5226,"à¦ıà¦¨à¦ľ":5227,"à¦ĺà¦¤à¦°":5228,"Ġà¦ħà¦¬à¦Ĺà¦¤":5229,"Ġà¦¬à¦¸à¦¤à¦¬":5230,"à¦ħà¦£":5231,"Ġà¦¬à¦¨à¦«":5232,"Ġà¦ħà¦¸à¦ļ":5233,"à¦¨à¦¬à¦¬":5234,"à¦¨à¦¬à¦ľà¦¨":5235,"Ġà¦ħà¦¦à¦ķ":5236,"Ġà¦Ĩà¦¨à¦ķ":5237,"à¦¶à¦¨à¦ĩ":5238,"Ġà¦ħà¦¤à¦²à¦¸":5239,"à¦°à¦¹à¦ķ":5240,"à¦°à¦¹à¦¬":5241,"Ġà¦īà¦ªà¦ķà¦¥":5242,"Ġà¦īà¦ªà¦ķà¦£":5243,"à¦°à¦¯à¦¨":5244,"à¦®à¦ķà¦Ń":5245,"Ġà¦ĵà¦°à¦«":5246,"à¦Ńà¦¬à¦ªà¦°":5247,"Ġà¦ħà¦ľà¦®":5248,"Ġà¦Ĳà¦°":5249,"Ġà¦Ĳà¦Ł":5250,"Ġà¦ķà¦®à¦°":5251,"à¦°à¦Ńà¦Ļ":5252,"à¦ªà¦¦à¦ĵ":5253,"à¦ªà¦¥à¦ļ":5254,"à¦¼à§ĩà¥¤âĢĻ":5255,"à¦Łà¦²à¦Ĺ":5256,"à§°à¦¬à¦¨":5257,"à¦Ĩà¦²à¦¸":5258,"à¤¦":5259,"Ġà¦ľà§Łà¦¯":5260,"à§ªà§¦":5261,"ang":5262,"ons":5263,"Ġà¦ļà¦Łà¦ľà¦²à¦¦":5264,"ret":5265,"ern":5266,"Ġtheir":5267,"Ġà¦°à¦£à¦ľ":5268,"à¦¿âĢĿâĢĵ":5269,"ount":5270,"Ġà¤¸":5271,"ĠInd":5272,"Ġà§ªà§«":5273,"uth":5274,"ĠBoishakh":5275,"use":5276,"ective":5277,"Ø§Ø":5278,"====":5279,"ontu":5280,"lective":5281,"'à¥¤":5282,"13":5283,"25":5284,";âĢĵ":5285,"iya":5286,"ue":5287,"Ð¸":5288,"Ú©":5289,"ĠU":5290,"Ġ..":5291,"Ġle":5292,"à¦¾âĢĮ":5293,"à¦°à¦°à¦ķ":5294,"à¦¿à§ĩ":5295,"à¦¨à¦ªà¦¨":5296,"à¦¤à¦®à¦£":5297,"à¦¤à§İà¦ķ":5298,"à¦²à¦¸à¦®":5299,"à¦ķà¦ĺà¦°":5300,"à¦¯à¦ªà¦¤":5301,"à¦¯à¦¸à¦Ļ":5302,"à¦¬à¦®à¦¨":5303,"à¦¬à¦Ĺà¦£":5304,"Ġà¦ķà¦ĩà¦²":5305,"Ġà¦Ĩà¦Łà¦²":5306,"Ġà¦¨à¦¬à¦ª":5307,"à¦ªà¦¸à¦®":5308,"à¦ĩà¦Ŀ":5309,"à¦ĩà¦ļà¦°à¦£":5310,"à§Ģà¦ĥ":5311,"à§Ģà¥¥":5312,"à¦ľà¦ªà¦°":5313,"à¦ľà¦¸à¦®":5314,"à¦ľà¦īà¦¦":5315,"à¦¶à¦®à¦¤":5316,"à¦¶à¦ļà¦¨":5317,"Ġà¦ħà¦ľà¦¨":5318,"à¦Ĺà¦°à¦¦":5319,"à¦Ĺà¦¸à¦¨":5320,"à¦§à¦ľ":5321,"à¦¡à¦²à¦ķ":5322,"à¦ļà¦Ļ":5323,"à¦¹à¦®à¦¨":5324,"à¦¹à¦¤à¦¤":5325,"à§Łà¦ļ":5326,"Ġà¦Ĺà§Łà¦¨":5327,"à¦£à¦¤à¦®":5328,"Ġà¦¶à¦¶à¦¬":5329,"Ġà¦¶à§Łà¦¨":5330,"Ġà¦°à¦®à¦¨":5331,"à§ĩà¥¤)":5332,"à¦Ńà¦ªà¦¤":5333,"à§Ĥà¥¤":5334,"Ġà¦ĸà¦°à¦¸":5335,"à¦¾,-":5336,"à§ľà¦Ĺ":5337,"Ġà¦ıà¦ĩà¦¸à¦®à¦¯":5338,"à¦ŀà¦Ń":5339,"à¦Ĩà¦ĸ":5340,"à§İà¦°":5341,"à¦ıà¦¡":5342,"Ġà¦¬à¦²à¦²à¦ıà¦ĩ":5343,"Ġà¦Ŀà¦Ĺà§ľ":5344,"à¦¬à¦²à¦¯":5345,"Ġà¦¢à¦ķ":5346,"à¦¤à¦¨à¦Ł":5347,"à¦ħà¦¬à¦¨":5348,"Ġà¦Ĩà¦ķà¦£":5349,"à¦¤à¦¬à¦¯":5350,"à¦¤à¦¬à¦°à¦£":5351,"à¦¨à¦¬à¦¯":5352,"à¦°à¦¥à¦®à¦ľ":5353,"à¦Ĺà¦²à¦¸":5354,"à¦Ĺà¦²à¦Ĺ":5355,"Ġà¦ľà¦²à¦Ł":5356,"Ġà¦ľà¦²à¦¹":5357,"Ġà¦ľà¦²à¦ªà¦¥":5358,"Ġà¦¶à¦¬à¦¬":5359,"à¦°à¦¹à¦¤":5360,"à¦°à¦¹à¦Ł":5361,"à¦°à¦¹à¦°à¦£":5362,"Ġà¦ĺà¦°à¦ĸ":5363,"Ġà¦ıà¦¤à¦¸à¦¬":5364,"Ġà¦Ĳà¦¹":5365,"Ġà¦¬à¦¹à¦°à¦®à¦ª":5366,"à§ĩ!-":5367,"Ġà¦ħà¦Ĺà¦®":5368,"à¦®à¦£à¦¤":5369,"à¦ıà¦ķà¦ľ":5370,"à¦¬à¦¦à¦°à¦¬":5371,"à¦¿âĢĶâĢĺ":5372,"à¦¬à¦ķà¦£":5373,"Ġà¦ıà¦ķà¦ľà¦¨à¦ĩ":5374,"Ġà¦Ńà¦¬à¦ĺ":5375,"à¦¸à¦«à¦²":5376,"à¦ĩà¦Łà¦¸":5377,"Ġà¦¸à¦®à§Łà¦ķ":5378,"Ġà¦¬à¦ķà¦Ľ":5379,"Ġà¦Ńà¦¦à¦ķ":5380,"Ġà¦¬à§ľà¦ĩ":5381,"Ġà¦Ĩà¦ªà¦¶":5382,"Ġà¦Īà¦Ĺà¦°":5383,"à¤µ":5384,"à¤Ł":5385,"à§ĩâĢ¦âĢĻ":5386,"à§ªà§¨":5387,"int":5388,"à¦ľà¦Ĺà¦ŀ":5389,"red":5390,"à¦Łà¦¸à¦ħ":5391,"à¦ľà¦¦à¦°à¦¬":5392,"Ġwe":5393,"Ġdo":5394,"Ġà¦łà¦ķà¦łà¦ķ":5395,"olog":5396,"Ġwho":5397,"Ġà¦ĵà¦²à¦Łà¦ª":5398,"ÂŃÂŃÂŃÂŃÂŃÂŃÂŃÂŃ":5399,"ºçľºçľºçľºçľ":5400,"âĢĵâĢĵâĢĵâĢĵâĢĵâĢĵâĢĵâĢĵ":5401,"·çľ·çľ·çľ·çľ":5402,"Ġà¦¥à¦ķà¦¥à¦ķ":5403,"Ġcollective":5404,"ohela":5405,"',":5406,"21":5407,"22":5408,"af":5409,"au":5410,"act":5411,"ec":5412,"ial":5413,"ike":5414,"ub":5415,"Ð»":5416,"Ùħ":5417,"Ġà§°":5418,"Ġal":5419,"Ġ---":5420,"Ġáĥ":5421,"à¦¾)à¥¤":5422,"à¦¤à¦ĺà¦¡":5423,"à¦ķà¦¦à¦°":5424,"à¦¯à¦ªà¦¦":5425,"à¦¯à§İà¦ķ":5426,"à¦®à¦ªà¦¦":5427,"Ġà¦ķà§°":5428,"à¥¤âĢĵ":5429,"Ġà¦ªà§Łà¦²":5430,"Ġà¦Ĩà¦ĩà¦ķ":5431,"à¦Łà¦°à¦¸":5432,"Ġà¦®à¦ĩà¦¨":5433,"Ġà¦®à¦ļà¦ķ":5434,"à¦ªà¦¤à¦°":5435,"à¦ªà¦«":5436,"à¦ªà¦ķà¦¤":5437,"à¦ľà¦®à¦¨":5438,"à¦ľà¦²à¦ķ":5439,"à¦ľà¦Ńà¦¬à¦¨":5440,"Ġà¦¤à¦Łà¦¸":5441,"à¦¶à¦ªà¦°à¦®":5442,"à¦¼à§ĩâĢĻ":5443,"à¦ĸà¦Ńà¦°":5444,"à¦Ĺà¦®à¦ķ":5445,"à¦·à¦Ľ":5446,"à¦§à¦¸à¦®":5447,"Ġà¦¯à¦¸":5448,"Ġà¦¯à§İà¦¸":5449,"à¦ļà¦ĸ":5450,"à¦ļà¦ĵ":5451,"à¦ļà¦¤à¦®":5452,"à¦ļà¦ªà¦²":5453,"à¦¹à¦Ĺà¦¨":5454,"Ġà¦ķà¦°à¦®à¦°":5455,"à¦£à¦®à§Ł":5456,"Ġà¦¶à¦ķà¦Ł":5457,"Ġà¦°à¦®à¦²":5458,"Ġà¦°à¦Łà¦¨":5459,"Ġà¦°à¦Ĺà¦¡":5460,"à§ĩà¥¤âĢ¦":5461,"à¦¼à¦¾--":5462,"à¦łà¦¤à¦®":5463,"Ġà¦īà¦Łà¦ķ":5464,"à§Ĥ,":5465,"Ġà¦ĵà¦ľ":5466,"Ġà¦«à¦ľà¦°":5467,"Ġà¦ħà¦¨à¦®":5468,"à¦¾à¥¤\"":5469,"Ġà¦§à¦²":5470,"à¦¬à¦¨à¦¹":5471,"à§ľà¦¸":5472,"Ġà¦®à¦¨à¦Ń":5473,"à¦ľà¦¨à¦¹":5474,"à¦ŀà¦°":5475,"à¦ŀà¦¬":5476,"à¦īà¦ªà¦ķ":5477,"à¦ªà¦¨à¦ķ":5478,"à¦Ĩà¦°à¦¤":5479,"à§İà¦ļ":5480,"à§İà¦ķà¦°":5481,"à¦°à¦ķà¦¥":5482,"Ġà¦¬à¦²à¦²à¦¶":5483,"Ġà¦ķà¦¥à¦ŀ":5484,"Ġà¦¡à¦Ł":5485,"Ġà¦Ŀà¦°à¦£":5486,"Ġà¦Ĩà¦ľà¦®":5487,"à§ĭà¦ģ-":5488,"à¦ħà¦ķà¦¸":5489,"Ġà¦¬à¦¨à¦ľà¦Ļ":5490,"Ġà¦ªà¦¥à¦¨":5491,"à¦ķà¦°à¦ĵ":5492,"à¦¨à¦¬à¦¸à¦¤":5493,"à¦¾---":5494,"à¦Ĺà¦²à¦¬à¦¨":5495,"à¦¶à¦¨à¦Ĺ":5496,"à¦§à¦¨à¦®":5497,"Ġà¦ķà¦²à¦ªà¦¨":5498,"à¦ļà¦²à¦Ĺ":5499,"Ġà¦Ĩà¦¤à¦¶à¦¬":5500,"Ġà¦Ńà¦°à¦Ľ":5501,"Ġà¦¹à¦łà¦ķ":5502,"à§Ģ,âĢĿ":5503,"à¦Ĺà¦°à¦ª":5504,"Ġà¦īà§İà¦ķà¦Ł":5505,"à¦ªà¦¦à¦ĩ":5506,"à¦·à¦¤à¦ļ":5507,"à¦ļà¦ķà¦¦":5508,"à¦ľà¦²à¦ª":5509,"Ġà¦ĩà¦¨à¦¡":5510,"à¦¥à¦¨à¦¯":5511,"à¦®à¦¸à¦ľ":5512,"Ġà¦¬à§ľà¦¬":5513,"Ġà¦Īà¦ª":5514,"à¦¤à¦¦à¦¶":5515,"Ġà¦Ĩà¦ĩà¦¨à¦¶":5516,"à¦¤à¦ĸà¦¨à¦ĵ":5517,"Ġà§¨à§®":5518,"ature":5519,"à§ĩâĢĻâĢĶ":5520,"Ġà¦°à¦¤à¦¨à¦¬":5521,"Ġsom":5522,"Ġà¦Ńà¦Ĺà¦¬à¦¦":5523,"Ġch":5524,"à¦Ŀà¦ķà¦Ŀà¦ķ":5525,"Ġà¦Ŀà¦ķà¦®à¦ķ":5526,"Ġà¦¸à¦«à¦²à¦Ń":5527,"arn":5528,"Ġdis":5529,"Ġhis":5530,"Ġlife":5531,"à§§à§¯à§«à§¨":5532,"Ġà§ªà§¦":5533,"Ġà§§à§©à§§à§¬":5534,"Ġà¦īà¦Ńà§Łà¦ĩ":5535,",--":5536,"30":5537,";âĢĶ":5538,"ah":5539,"pl":5540,"ru":5541,"ÙĪ":5542,"Ġ)":5543,"ĠJ":5544,"Ġà§Ł":5545,"à¦Ķ":5546,"à¦¾),":5547,"à¦¨à¦ı":5548,"à¦¨à¦¸à¦°":5549,"à¦¤à¦ļà¦¨":5550,"à¦ķà¦¬à¦¨":5551,"à¦ķà¦°à¦ķà¦®":5552,"Ġà¦¬à¦ķà¦°":5553,"à¥Ĥ":5554,"à¦¸à§ľ":5555,"à¦Łà¦¤à¦°":5556,"Ġà¦®à¦ĸ":5557,"à¦ĩà¦ľà¦²":5558,"à¦Ľà§Ł":5559,"Ġà¦¹à¦Łà¦¬":5560,"Ġà¦¤à¦ªà¦¤":5561,"Ġà¦¤à¦ªà¦¶":5562,"Ġà¦ħà¦Ľ":5563,"Ġà¦ħà¦¹à¦²":5564,"à¦ĸà¦°à¦ļ":5565,"à¦·à¦«":5566,"à¦·à¦ľà¦¨à¦ķ":5567,"à¦£à¦£":5568,"à¦£à¦¬à¦¸":5569,"Ġà¦ļà¦ĸ":5570,"Ġà¦°à¦¦":5571,"Ġà¦°à¦ĵà¦¯":5572,"à¦ĵà¦ľ":5573,"à¦ĵà¦¸à¦¬":5574,"à¦Ńà¦¡":5575,"à¦Ńà¦°à¦£":5576,"à¦Ńà¦¨à¦²":5577,"à¦¼à¦¾à¥¤âĢĿ":5578,"Ġà¦¬à¦²à¦¨":5579,"Ġà¦§à§°":5580,"Ġà¦ªà¦°à¦°":5581,"ĠâĢ¢":5582,"à¦¼à¦¿âĢĻ":5583,"Ġà¦®à¦¨à¦Ĺ":5584,"Ġà¦ıà¦ĩà¦¤":5585,"à¦ľà¦¨à¦ľ":5586,"à¦ľà¦¨à¦Ĺ":5587,"à¦ľà¦¨à¦ķà¦Ń":5588,"à¦ŀà¦Ĺ":5589,"à¦ªà¦¨à¦¤":5590,"à§İà¦²":5591,"Ġà¦Ĩà¦ľà¦Ĺ":5592,"à¦¤à¦¨à¦ĵ":5593,"à¦ħà¦¬à¦¤":5594,"à¦ķà¦²à¦°à¦¬":5595,"Ġà¦ªà¦¥à¦¶":5596,"à¦ķà¦Łà¦¤à¦®":5597,"à¦¯à¦¬à¦¶à¦¤":5598,"à¦ķà¦¤à¦ĩ":5599,"Ġà¦¹à¦¤à¦ļà¦ķ":5600,"à¦Ĩà¦®à¦²":5601,"à¦Ĺà¦²à¦®à¦¯":5602,"Ġà¦ľà¦²à¦®":5603,"à¦¿à¦ĤâĢĿ":5604,"à¦¨à¦ĵà¦°":5605,"à¦²à¦¬à¦£":5606,"à¦°à¦ľà¦¤":5607,"Ġà¦ħà¦ªà¦¹à¦°à¦£":5608,"Ġà¦ħà¦ªà¦¦à¦¸":5609,"à¦¹à¦°à¦·":5610,"Ġà¦Ĩà¦¤à¦¤":5611,"à¦¦à§Łà¦¬":5612,"à¦°à¦ĵà¦°":5613,"Ġà¦ıà¦°à¦ļ":5614,"à¦ļà¦ķà¦ļà¦ķ":5615,"à§°à¦ľ":5616,"Ġà¦¶à¦¤à¦ª":5617,"Ġà¦¶à¦¤à¦Ń":5618,"Ġà¦¨à¦¬à¦ļ":5619,"à¦¨à¦¸à¦ĩ":5620,"Ġà¦ķà¦¨à¦Ń":5621,"à¦°à¦®à¦£à¦Ł":5622,"Ġà¦ªà¦¶à¦²":5623,"à¦¥à¦ķà¦Ń":5624,"à¤¬":5625,"à¤ľ":5626,"Ġà¦¶à¦¹à¦°à¦ľ":5627,"Ġà§§à§¯à§¦à§«":5628,"à§©à§¨":5629,"à§©à§©":5630,"à¦°à¦«à¦°":5631,"hed":5632,"hen":5633,"ink":5634,"à¦¼!âĢĻ":5635,"Ġà¦Ĩà¦ļà¦°à¦£à¦¬":5636,"à¦¯à¦ľà¦Ĺà¦¤":5637,"à¦ıà¦®à¦¨à¦Ł":5638,"à¦¾âĢĿ,":5639,"Ġthere":5640,"Ġà¦ľà¦¨à¦¸à¦Ń":5641,"Ġà¦Ĩà¦Łà¦ľà¦¨":5642,"Ġà¦Ĩà¦ĩà¦ļ":5643,"Ġà¦°à¦ľà¦¤à¦ķ":5644,"Ġà¦°à¦¥à¦¯":5645,"Ġà¤ª":5646,"à¦īà¦ªà¦¹":5647,"ally":5648,"ĠAI":5649,"ĠPohela":5650,"à¦ĩà¦°à¦ķà¦®à¦ĩ":5651,"ĠTh":5652,"very":5653,"Ġcont":5654,"Ġà¦ļà¦Łà¦ķà¦¦":5655,",âĢĶ":5656,"26":5657,"28":5658,"29":5659,"av":5660,"for":5661,"ok":5662,"tle":5663,"Ã©":5664,"Ñģ":5665,"ÛĮ":5666,"Ġà§¦":5667,"à§ĩ..":5668,"à§ĩ)à¥¤":5669,"à¦°à¦°à¦¥":5670,"à¦°à¦²à¦ķ":5671,"à¦°à¦¡à¦ķ":5672,"à¦¿/":5673,"à¦¿âĢĮ":5674,"à¦¨à¦ıà¦°":5675,"à¦ķà¦¶à¦ķ":5676,"à¦¯à¦£":5677,"à¦¯à¦¸à¦¬":5678,"à¦¯à¦²à¦ķ":5679,"à¦¯à¦ªà¦ķ":5680,"à¦¯à§Łà¦¨":5681,"à¦¬à¦¹à¦¤":5682,"à¦¬à¦īà¦®":5683,"à¦¼/":5684,"à¦¼âĢĿà¥¤":5685,"à¦¼),":5686,"Ġà¦¬à¦ľà¦°":5687,"Ġà¦¬à¦īà¦²":5688,"Ġà¦¸à¦ªà¦°":5689,"Ġà¦¸à¦Łà¦ķ":5690,"Ġà¦¸à§°":5691,"Ġà¦¸à¦ĺà¦¨":5692,"Ġà¦ªà¦Łà¦ķ":5693,"Ġà¦Ĩà¦£":5694,"Ġà¦Ĩà¦ĩà¦°":5695,"Ġà¦Ĩà¦£à¦¬":5696,"à¦¦à¦Ńà¦°":5697,"à¦Łà¦ªà¦°":5698,"à¦Łà¦°à¦¬":5699,"Ġà¦¦à¦ĩà§Ł":5700,"à¦ľà¦ķà¦²":5701,"Ġà¦¹à¦Łà¦²":5702,"à¦¶à¦°à¦®":5703,"à¦¶à¦²à¦¤":5704,"Ġà¦ħà¦°à¦ķ":5705,"Ġà¦ħà¦«à¦²":5706,"à¦·à¦®à¦¯":5707,"âĢ¨":5708,"à¦ļà¦ķà¦¤":5709,"Ġà¦ķà¦°à¦ª":5710,"Ġà¦Ĺà¦Ł":5711,"à¦¥à¦¸à¦®":5712,"Ġà¦¶à¦¬à¦°":5713,"Ġà¦Ńà¦°à¦¬":5714,"à¦Ńà¦ķà¦°":5715,"à§ĥà¦Ĥ":5716,"à¦łà¦ķà¦°":5717,"à¦łà¦¨à¦Ł":5718,"Ġà¦²à¦ĩà¦²":5719,"Ġà¦«à¦ĸà¦°":5720,"Ġà¦ĸà¦Ĺ":5721,"Ġà¦ħà¦¨à¦¶à¦¨":5722,"à¦¬à¦¨à¦¶":5723,"à§ľà¦Ł":5724,"Ġà¦®à¦¨à¦¯":5725,"Ġà¦®à¦¨à¦ľ":5726,"Ġà¦®à¦¨à¦®à¦°":5727,"à¦¿à¥¤\"":5728,"à¦¿à¥¤âĢĺ":5729,"à¦īà¦¬à¦¨":5730,"à¦īà¦ŀ":5731,"à¦īà¦¦à§Ł":5732,"Ġà¦Ĩà¦²à¦¨":5733,"à¦°à¦¬à¦ļà¦¨":5734,"à¦ıà¦·":5735,"à¦ıà¦ĵ":5736,"à¦¬à¦°à¦ļ":5737,"à¦¬à¦°à¦«":5738,"Ġà¦¬à¦²à¦²à¦¯":5739,"Ġà¦¹à¦²à¦ķ":5740,"Ġà¦¹à¦²à¦«":5741,"Ġà¦¡à¦²à¦«":5742,"à¦ĺà¦¸à¦®à¦¯":5743,"Ġà¦ľà¦¨à¦¹":5744,"à¦¬à¦²à¦¸":5745,"à¦°à¦®à¦®":5746,"à¦·à¦£à¦¹":5747,"à¦ħà¦¬à¦°":5748,"à¦¸à¦¬à¦Ł":5749,"à¦¯à¦¬à¦ĩà¦¯":5750,"à¦²à¦ķà¦¬":5751,"Ġà¦Ĩà¦ªà¦¨à¦ľà¦¨":5752,"à¦¦à¦¨à¦Ĺ":5753,"à¦°à¦¥à¦®à¦ľà¦¨":5754,"Ġà¦ľà¦²à¦ĩ":5755,"à¦¶à¦¨à¦ĵ":5756,"Ġà¦ĺà¦°à¦¦":5757,"à¦²à¦¨à¦Ĺ":5758,"Ġà¦¸à¦°à¦Ľ":5759,"à¦®à¦²à¦Ń":5760,"à¦§à¦¨à¦¶":5761,"à¦²à¦¬à¦¦":5762,"à¦°à¦ľà¦°":5763,"à¦ıà¦ĩà¦¤":5764,"Ġà¦Ĺà¦¨à¦Ĺà¦¨":5765,"Ġà¦®à¦°à¦ļ":5766,"à¦¬à¦¦à¦¤":5767,"à¦ľà¦²à¦¸":5768,"à¦ľà¦²à¦ľ":5769,"à¦°à¦ķà¦®à¦ĩ":5770,"Ġà¦ıà¦ķà¦ľà¦¨à¦ĵ":5771,"Ġà¦¤à¦²à¦¸":5772,"à¦¯à¦¥à¦Ń":5773,"Ġà¦¸à¦®à§Łà¦®à¦¤":5774,"Ġà¦ĸà¦¬à¦°à¦ĵ":5775,"à¦®à§Łà¦¤":5776,"à¦®à¦¸à¦ļ":5777,"Ġà¦¦à¦°à¦¦à¦°":5778,"à¤£":5779,"à§«à§¬":5780,"Ġà¦ľà§Łà¦²":5781,"à§ĩâĢ¦à¥¤âĢĿ":5782,"à¦¬à¦Ńà¦Ļ":5783,"à¦¸à¦¹à¦®à¦°":5784,"Ġà¦ľà¦Ĺà¦¤à¦Ł":5785,"à¦Ĺà¦£à¦¤à¦¨":5786,"Ġà¦¸à§İà¦ķà¦°":5787,"Ġà¦¸à§İà¦ļà¦°":5788,"à¦Ĺà¦Ńà¦¬à¦¨":5789,"à¦¾âĢ¦à¥¤":5790,"à¦¶à¦¦à¦Ń":5791,"à¦¬à§Łà¦¬":5792,"à¦¿âĢ¦à¥¤":5793,"à§ĩ,âĢĿâĢĶ":5794,"ary":5795,"Ġwill":5796,"Ġà¦Ĺà¦Ĺà¦¨à¦ļ":5797,"Ġà§©à§¨":5798,"Ġà§©à§«":5799,"âĢįà§įâĢį":5800,"à¦¬à§İà¦¸à¦²":5801,"Ġà¦¨à¦ĸà¦¦à¦°":5802,"stra":5803,"Ġà¦®à¦°à¦®à¦°":5804,"Ġà¦ļà¦ªà¦²à¦¤":5805,"Ġitself":5806,"Ġà§®à§¦":5807,"Ġone":5808,"uman":5809,"ough":5810,"à§§à§¯à§Ńà§§":5811,"27":5812,"cc":5813,"hy":5814,"mat":5815,"per":5816,"ÙĨ":5817,"à°":5818,"à§ĩ...âĢĿ":5819,"à¦°à¦ĩà¦²":5820,"à¦°à¦ĵà§Ł":5821,"à¦¨à¦ªà¦¦":5822,"à¦¨à¦®à¦¸":5823,"à¦¤à¦ªà¦°":5824,"à¦²à¦¦à¦²":5825,"à¦¬à§İà¦¸":5826,"à¦¬à¦ľà¦¯":5827,"à¦®à¦¦à¦¨":5828,"à¦®à¦«à¦²":5829,"Ġà¦¸à¦ĩà¦¯":5830,"à¦¸à§ľà¦ķ":5831,"à¦¦à¦ªà¦¦":5832,"à¦Łà¦ªà¦¤à¦Ļ":5833,"Ġà¦®à¦«":5834,"Ġà¦®à¦°à¦¨":5835,"Ġà¦®à¦Łà¦°":5836,"à¦ªà¦Łà¦ķ":5837,"à¦ªà¦¬à§Łà¦¸":5838,"à¦ĩà¦®à¦¤":5839,"à¦ĩà¦®à¦¸":5840,"à¦ĩà¦īà¦°":5841,"à§Ģ)":5842,"à§ĢâĢĻ,":5843,"Ġà¦¦à¦§":5844,"Ġà¦¤à¦ĸ":5845,"Ġà¦ıà¦°à¦ĵ":5846,"Ġà¦ıà¦¨à¦¸":5847,"Ġà¦ıà¦®à¦ª":5848,"à¦ĸà¦ķà¦ķ":5849,"à¦Ĺà¦°à¦¸":5850,"à¦Ĺà¦§à¦°":5851,"à¦Ĺà¦ĺà¦¨":5852,"à¦·à¦²à¦§":5853,"à¦¡à¦¡":5854,"à¦ļà¦ļ":5855,"à¦¹à¦«":5856,"à¦¥à¦°à¦ķ":5857,"à¦Ńà¦ĵ":5858,"Ġà¦Ľà¦ª":5859,"à¦łà¦ľ":5860,"à¦łà¦ĸ":5861,"à¦łà¦ļ":5862,"Ġà¦²à¦¬à¦Ļ":5863,"Ġà¦ħà¦¨à¦§":5864,"à¦¾à¥¤âĢ¦":5865,"Ġà¦ªà¦°à¦ľ":5866,"Ġà¦¸à¦®à¦ķà¦ķ":5867,"ĠâĢĮ":5868,"ĠâĢŀ":5869,"Ġà¦®à¦¨à¦ĩ":5870,"Ġà¦ıà¦ĩà¦ĩ":5871,"à¦ľà¦¨à¦®à¦¤":5872,"à¦ľà¦¨à¦ªà¦¦à¦¬":5873,"à¦¤à¦°à¦¶":5874,"à¦«à¦«":5875,"à¦īà¦¶":5876,"à¦īà¦Łà¦¨":5877,"à¦īà¦ľà¦Ł":5878,"à¦°à¦¬à¦¹à¦®":5879,"à¦Ĩà¦°à¦ķ":5880,"à¦Ĩà¦ĩà¦¸":5881,"Ġà¦¡à¦¨":5882,"Ġà¦ĩà¦Ĺ":5883,"Ġà¦ĩà¦¥":5884,"Ġà¦ĩà¦¶à¦¤":5885,"Ġà¦®à¦¤à¦Ń":5886,"Ġà¦ľà¦¨à¦¶à¦ķ":5887,"à¦·à¦£à¦ľ":5888,"Ġà¦ıà¦¸à¦®à¦¯":5889,"Ġà¦¬à¦¨à¦°":5890,"à¦¨à¦¬à¦¶":5891,"à§ĭ,âĢĻ":5892,"à¦¦à¦¨à¦ĩ":5893,"Ġà¦¬à¦°à¦ªà¦ķ":5894,"Ġà¦ıà¦²à¦¸":5895,"Ġà¦ıà¦²à¦ĩà¦¡":5896,"Ġà¦īà¦¦à¦Ń":5897,"Ġà¦ľà¦²à¦¨":5898,"Ġà¦ĺà¦°à¦ľ":5899,"Ġà¦®à¦¹à¦ķ":5900,"à¦°à¦¶à¦¯":5901,"à¦ĩà¦²à¦¶":5902,"à¦®à¦¯à¦ľ":5903,"à¦ļà¦²à¦Ľ":5904,"âĢ¦à¥¤âĢĿ":5905,"à¦¤à¦²à¦Ĺ":5906,"Ġà¦¶à¦°à§İà¦ķ":5907,"à¦ªà¦¥à¦Ł":5908,"à¦°à¦ªà¦²":5909,"Ġà¦ĵà¦ĩà¦Ń":5910,"Ġà¦Ĩà¦§à¦ª":5911,"à§°à¦¦":5912,"à§°à¦ĩ":5913,"à§°à¦ļ":5914,"à§°à¦Ń":5915,"Ġà¦¸à¦ķà¦²à¦ĩ":5916,"à¦¯à¦°à¦ļà¦¨":5917,"Ġà¦Ĺà§ľà¦Ĺà§ľ":5918,"Ġà¦Ĩà¦¦à¦ª":5919,"à¦¼à¦¾à¥¤à¥¤":5920,"à¦°à¦¹à¦£à¦ķ":5921,"Ġà¦ķà¦¨à¦ķà¦²à¦¤":5922,"Ġà¦¦à¦¶à¦°à¦¥":5923,"Ġà¦¦à¦°à¦¶à¦¨":5924,"à§©à§§":5925,"à¦¿âĢĻ!":5926,"à¦¿âĢĻ-":5927,"here":5928,"à¦¶à¦°à§İ":5929,"Ġà¦Ĩà¦ĩà¦¨à¦¸":5930,"à¦īà¦¡à¦¸":5931,"Ġà¦¢à¦²à¦¢à¦²":5932,"Ġour":5933,"Ġà¦Ĩà¦Łà¦ļà¦²":5934,"à§ĭ?âĢĿâĢĶ":5935,"Ġcl":5936,"ard":5937,"ark":5938,"à¦Ĩà¦¨à¦®à¦¨":5939,"Ġbet":5940,"Ġpr":5941,"Ġà§©à§«à§¦":5942,"out":5943,"à§ĩâĢĿâĢĵ":5944,"Ġà§¨à§¦à§§à§§":5945,"à¦¬à¦°à¦²à¦¹à¦°":5946,"à¦Īà¦¨":5947,"Ġà§«à§¦à§¦":5948,"à¦¿'à¥¤":5949,"Ġbec":5950,"ose":5951,"à¦¡à¦Ńà¦£":5952,"ĠGod":5953,"Ġà¦¹à¦ľà¦¸à¦¨":5954,"Ġà¦§à¦ªà¦§à¦ª":5955,"Ġknow":5956,"Ġ____":5957,"?\"":5958,"AI":5959,"aw":5960,"ek":5961,"mp":5962,"oy":5963,"por":5964,"ÑĤ":5965,"Ø´":5966,"áĢ":5967,"Ġ#":5968,"Ġ1":5969,"à§ĩà§Ģ":5970,"à§įâĢĵ":5971,"à¦¿)à¥¤":5972,"à¦¨à¦¸à¦¤":5973,"à¦²à¦¬à¦ª":5974,"à¦²à¦ļà¦¨":5975,"à¦²à¦Ŀà¦°":5976,"à¦ķà¦ķà¦²":5977,"à¦¯à¦°à¦¤":5978,"à¦¯à¦°à¦ķ":5979,"à¦¯à¦¬à¦²":5980,"à¦¬à¦Łà¦¬":5981,"à¦®à¦ľà¦²":5982,"à¦®à¦§à¦°":5983,"Ġà¦ķà¦ĵà¦¯":5984,"Ġà¦ķà¦ĩà¦¬":5985,"à¦¸à¦Ńà¦°":5986,"Ġà¦ªà¦ªà¦ķà¦°":5987,"à¦¦à¦¶à¦®":5988,"à¦ªà¦ľà¦¨":5989,"à¦ĩà¦¡à¦²":5990,"à¦Ľà¦Ń":5991,"Ġà¦¦à¦¬":5992,"Ġà¦¦à¦¦":5993,"Ġà¦¦à¦ĩà¦¯":5994,"Ġà¦¹à¦Łà¦¤":5995,"Ġà¦¤à¦ľ":5996,"Ġà¦¤à¦°à¦®":5997,"à¦¶à¦®à¦£":5998,"à¦ĸà¦²à¦¨":5999,"à¦ĸà¦ľà¦¨à¦ķ":6000,"à¦§à¦ªà¦¤":6001,"à¦ļà¦ĵà¦¡":6002,"à¦¹à¦ªà¦°":6003,"Ġà¦ķà¦°à¦®":6004,"Ġà¦Ĺà¦¸":6005,"à¦£à¦²à¦¤":6006,"à¦£à¦®à¦£":6007,"à¦ĵà¦«":6008,"à¦łà¦ĩ":6009,"Ġà¦īà¦Ĺà¦°":6010,"à¦ĤâĢ¦":6011,"à¦Ļà¦Ł":6012,"Ġà¦ĵà¦ħà¦°":6013,"Ġà¦¬à¦²à¦¶":6014,"à¦¬à¦¨à¦¨":6015,"à¦¼à¦¿;":6016,"à§ľà¦¹":6017,"Ġà¦ıà¦ĩà¦¦":6018,"à¦¤à¦°à¦ŀ":6019,"à¦«à¦£":6020,"à¦īà¦¤à¦°":6021,"à¦īà¦ªà¦¤":6022,"Ġà¦Ĩà¦²à¦ĸ":6023,"à¦Ĩà¦Łà¦ķ":6024,"Ġà¦¸à¦¬à¦¸":6025,"Ġà¦Łà¦Ĺà¦°":6026,"Ġà¦ĩà¦īà¦ľ":6027,"Ġà¦§à¦°à¦¨à¦Ł":6028,"à¦¬à¦²à¦°":6029,"à¦¬à¦²à¦Ł":6030,"à¦·à¦£à¦ª":6031,"à¦ħà¦¸à¦¤":6032,"à¦ħà¦Ĺà¦£":6033,"Ġà¦¬à¦¨à¦Ł":6034,"Ġà¦¨à¦¤à¦¶":6035,"Ġà¦ħà¦®à¦¤":6036,"Ġà¦Ĩà¦Ĺà¦®":6037,"à¦ķà¦Łà¦®":6038,"à¦°à¦¸à¦¦à¦¨":6039,"à¦¨à¦¬à¦Ĺ":6040,"à¦¦à¦¨à¦¦":6041,"à¦¦à¦¨à¦ª":6042,"Ġà¦¬à¦°à¦²":6043,"à§ĩ?\"":6044,"Ġà¦īà¦ªà¦¸à¦°":6045,"Ġà¦īà¦ªà¦¶à¦®":6046,"à¦¯à¦¤à¦²":6047,"Ġà¦ħà¦ªà¦ª":6048,"à¦ļà¦²à¦Ń":6049,"Ġà¦¸à¦¹à¦§à¦°":6050,"Ġà¦ĵà¦ªà¦°à¦ĵ":6051,"Ġà¦¬à¦Ľà¦°à¦ĵ":6052,"Ġà¦°à¦Ļà¦§à¦¨":6053,"Ġà¦¯à¦¤à¦Ĺ":6054,"Ġà¦ıà¦Ĺà¦ľ":6055,"Ġà¦ªà¦¦à¦ª":6056,"à¦ªà¦¦à¦Ł":6057,"à¦ªà¦¦à¦Ĺ":6058,"à¦ªà¦¥à¦Ń":6059,"Ġà¦ħà¦ªà¦°à¦ªà¦ķ":6060,"Ġà¦«à¦²à¦Ĺ":6061,"à¦¤à¦ķà¦°à¦¬":6062,"Ġà¦²à¦ķà¦¡":6063,"Ġà¦ªà¦¤à¦ŀ":6064,"Ġà¦¤à¦²à¦ª":6065,"Ġà¦¸à¦®à§Łà¦¸":6066,"Ġà¦ĺà¦¨à¦ĺ":6067,"à¦¹à¦¤à¦Ń":6068,"Ġà¦Īà¦®":6069,"Ġà¦īà¦ªà¦¨à¦¯":6070,"à¤Ĺ":6071,"Ġà¦®à¦²à§Ł":6072,"Ġà¦ľà§Łà¦¦":6073,"Ġà§§à§¯à§§à§Ń":6074,"à§©à§«":6075,"à§©à§¯":6076,"âĢ¦âĢĿâĢĶ":6077,"ond":6078,"ated":6079,"à¦¸à¦ķà¦²à¦ķ":6080,"ish":6081,"Ġà¦¦à¦ĸà¦²à¦¦":6082,"Ġapp":6083,"Ġwor":6084,"à¦ļà¦®à§İà¦ķ":6085,"à¦ĭà¦¦":6086,"à¦Ĩà¦ļà¦®à¦ķ":6087,"ice":6088,"Ġà¦ķà¦¬à¦°à¦¸":6089,"Ġà¦¨à§ľà¦Ľ":6090,"Ġà¦®à¦¦à¦¨à¦®":6091,"Ġliter":6092,"Ġà¦ķà§ľà¦ķà§ľ":6093,"Ġthis":6094,"Ġà§Ńà§¦":6095,"igo":6096,"Ġà¦¸à¦®à¦Ŀà¦¦":6097,"ame":6098,"Ġà¦ķà¦ªà¦Łà¦¤":6099,"age":6100,"ĠĠĠĠĠĠĠĠĠĠĠĠĠĠĠĠ":6101,"Ġà¦®à¦ĸà¦®à¦²":6102,"31":6103,"34":6104,"IN":6105,"cle":6106,"ep":6107,"ff":6108,"ll":6109,"ood":6110,"ter":6111,"ther":6112,"à´":6113,"à¦°à¦Ŀà¦°":6114,"à§įà§į":6115,"à¦¿ÂŃ":6116,"à¦¨à¦ł":6117,"à¦¨à¦Ĩà¦ªà¦¨":6118,"à¦¤à¦Ļ":6119,"à¦¤à¦ªà¦²":6120,"à¦²à¦ªà¦°":6121,"à¦¯à¦¦à¦°":6122,"à¦¬à§İà¦¸à¦°":6123,"à¦®à¦®à§Ł":6124,"Ġà¦¬à¦°à¦¨":6125,"Ġà¦¬à¦ļà¦¸":6126,"Ġà¦¸à¦¦à¦¨":6127,"Ġà¦¸à¦°à¦¸à¦°":6128,"à¦¸à¦¬à¦¨":6129,"Ġà¦¨à¦ĵà¦°":6130,"Ġà¦®à§ľ":6131,"à¦ªà¦¬à¦¦":6132,"à¦ĩà¦·":6133,"à¦ĩà¦¸à¦®à¦¯":6134,"à¦ĩà¦¸à¦Ł":6135,"à§ĢâĢĿà¥¤":6136,"à¦Ľà¦ļ":6137,"à¦ľà¦°à¦£":6138,"Ġà¦¹à¦°à¦ª":6139,"Ġà¦ıà¦§":6140,"Ġà¦ıà¦Ļ":6141,"Ġà¦ıà¦®à¦¬":6142,"à¦¼à§ĩ?âĢĿ":6143,"Ġà¦ħà§°":6144,"Ġà¦ħà¦®à¦¨à¦ĩ":6145,"à¦Ĺà¦°à¦ľ":6146,"à¦Ĺà¦ªà¦¥":6147,"à¦Ĺà¦®à§Ł":6148,"à¦¡à¦ĵà§Ł":6149,"à¦ļà¦°à¦®":6150,"à¦ļà¦ªà¦¦à¦¸":6151,"à¦¹à¦§":6152,"à¦¹à¦²à¦ķ":6153,"Ġà¦ķà¦°à¦¹":6154,"à§Łà¦ľ":6155,"à§Łà¦ľà¦¨":6156,"à§Łà¦¤à¦¨":6157,"Ġà¦Ĺà¦Ĺ":6158,"à¦£à¦ļà¦°":6159,"à¦¥à¦Ľ":6160,"à¦¥à¦°à¦¬":6161,"Ġà¦°à¦¥à¦¬":6162,"à¦¼à¦¾à¦ģ":6163,"à¦¼à¦¾à¦ĥ":6164,"à§ĥà§į":6165,"Ġà¦Ľà¦²à¦ķ":6166,"à¦ĤâĢĶ":6167,"à¦¾à¦ģâĢ¦":6168,"Ġà¦¬à¦²à¦ª":6169,"Ġà¦ĸà§ľà¦ķ":6170,"à¦°à¦¤à¦Ł":6171,"Ġà¦ħà¦¨à¦®à¦¨":6172,"à¦ľà¦¨à¦§à¦°":6173,"à¦«à¦¦":6174,"à¦īà¦«":6175,"à¦ªà¦¨à¦Ł":6176,"à¦°à¦¬à§İ":6177,"à¦Ĩà¦«":6178,"à¦Ĩà¦¹à¦¤":6179,"à¦ıà¦¤à¦Ł":6180,"à¦ıà¦¤à¦ĩ":6181,"à¦¬à¦°à¦ļà¦¨":6182,"Ġà¦Ĩà¦¸à¦¨à¦Ł":6183,"Ġà¦¹à¦²à¦Ł":6184,"Ġà¦ĩà¦Łà¦¸":6185,"Ġà¦®à¦¤à¦ª":6186,"Ġà¦ľà¦¨à¦¬":6187,"Ġà¦Ŀà¦®":6188,"à¦¬à¦²à¦ª":6189,"Ġà¦ļà¦²à¦ķ":6190,"Ġà¦ıà¦¸à¦ª":6191,"à¦¤à¦¨à¦¦":6192,"Ġà¦¨à¦¤à¦®":6193,"à¦ķà¦²à¦¬":6194,"Ġà¦ªà¦¥à¦¯":6195,"Ġà¦ħà¦®à¦²à¦¤":6196,"Ġà¦Ĺà¦²à¦²":6197,"Ġà¦ĵà¦łà¦Ľ":6198,"à¦ķà¦Łà¦²":6199,"à¦ķà¦Łà¦®à¦¯":6200,"à¦¸à¦¬à¦¹":6201,"Ġà¦Ĩà¦ķà¦¨":6202,"à¦¾à¦Ĥ-":6203,"à¦¾à¦Ĥà¥¤":6204,"à¦¦à¦¨à¦ĵ":6205,"à¦ķà¦¤à¦®":6206,"à¦¦à¦°à¦Ń":6207,"à¦Ĺà¦¤à¦ĩ":6208,"à¦®à¦¤à¦Ń":6209,"à¦°à¦¹à¦ĩ":6210,"à¦°à¦¹à¦ĵ":6211,"Ġà¦īà¦ªà¦¶":6212,"à¦ĩà¦²à¦ĸ":6213,"à¦°à¦¦à¦®":6214,"à¦°à¦ľà¦Ĺà¦¤":6215,"Ġà¦ķà¦²à¦ľ":6216,"Ġà¦Ĩà¦¤à¦ª":6217,"à¦ĩà¦¨à¦²":6218,"à¦ıà¦ĩà¦°":6219,"à¦Ńà¦¬à¦ĩ":6220,"à¦Ńà¦¬à§İ":6221,"Ġà¦Ĳà¦²":6222,"à§ĩ!'":6223,"à¦ıà¦ķà¦¸à¦®à§Ł":6224,"Ġà¦¬à¦ĩà¦¸":6225,"Ġà¦¬à¦ĩà¦ª":6226,"Ġà¦¬à¦ĩà¦ĩ":6227,"à¦¬à¦¸à¦Ń":6228,"à¦Łà¦²à¦®":6229,"à¦Łà¦²à¦®à¦²":6230,"Ġà¦«à¦²à¦¦":6231,"Ġà¦«à¦²à¦ĵ":6232,"à¦¯à¦®à¦ĩ":6233,"à¦¬à¦ķà¦¨":6234,"à¦¤à¦¤à¦¸":6235,"à§°à¦§":6236,"à¦ªà¦¸à¦¦":6237,"à¦Łà¦¬à¦¡":6238,"à¦īà¦²à¦Ĺ":6239,"Ġà¦ĺà¦¨à¦ĺà¦Ł":6240,"Ġà¦ķà¦¨à¦¡":6241,"à§¨à§¯":6242,"Ġà¦¹à¦°à¦°":6243,"Ġà¦Ĩà¦Ńà¦°à¦£":6244,"à¤ª":6245,"à¦®à¦¦à¦¤":6246,"à§ĩâĢ¦)":6247,"à§©à§Ń":6248,"Ġà¦Ĩà¦ĩà¦¨à¦Ĺà¦¤":6249,"à¦ľà¦Ĺà§İà¦ķ":6250,"à¦¨à§Łà¦¨à¦¶":6251,"à¦¬à¦ľà¦¨à¦¨":6252,"Ġà¦Ĩà§ľà¦·":6253,"à¦ħà¦¬à¦¸à¦°":6254,"ath":6255,"à¦¬à¦°à¦£à¦ķ":6256,"eng":6257,"ise":6258,"Ġà¦ļà¦°à¦£à¦¤à¦²":6259,"Ġà¦Ķà§İà¦¸":6260,"Ġso":6261,"à¦¦à¦ªà¦¤à¦¨":6262,"à¦ľà¦¦à¦£":6263,"Ġà¦°à¦ľà¦¤à¦¬":6264,"Ġam":6265,"à¦¾?âĢĿâĢĶ":6266,"à¦Ĩà¦¤à¦Ļ":6267,"à¦īà¦łà¦¤":6268,"ict":6269,"Ġà¦¨à¦Łà¦¬à¦°":6270,"Ġà§¨à§¦à§§à§¨":6271,"Ġà¤¬":6272,"à¦ĸà¦¬à¦°à¦Ł":6273,"Ġà¦ħà¦¬à¦¸à¦°à¦ª":6274,"à¦°à¦¬à¦£à¦¶à¦ķ":6275,"à§§à§¯à§¬":6276,"Ġthings":6277,"rad":6278,"etective":6279,"Ġà¦¨à¦ĵà¦¶":6280,"ĠBe":6281,"Ġev":6282,"ĠRup":6283,"own":6284,"ĠDe":6285,"Ġà§§à§®à§«à§Ń":6286,"Ġwhat":6287,"Ġà¦Łà¦¹à¦²à¦¦":6288,"Ġà§¨à§¦à§¦à§¯":6289,"Ġ___":6290,"Ġtrans":6291,"!âĢĶ":6292,"\"à¥¤":6293,");":6294,"32":6295,"35":6296,"TI":6297,"cy":6298,"from":6299,"ject":6300,"ne":6301,"ob":6302,"pH":6303,"way":6304,"Ñĥ":6305,"à®":6306,"Ġif":6307,"à§ĩ),":6308,"à¦°à¦Ĺà¦¨":6309,"à¦¨à¦ªà¦ķ":6310,"à¦¨à§Łà¦¬":6311,"à¦¤à¦¬à¦¨":6312,"à¦¤à¦Ĺà¦£":6313,"à¦¤à¦¶à¦¤":6314,"à¦²à¦®à¦§":6315,"à¦ķà¦ªà¦°":6316,"à¦ķà¦¬à¦²":6317,"à¦ķà¦¸à¦¬à¦ľ":6318,"à¦¯à¦¡":6319,"à§ģ)":6320,"à¦¬à¦ĺ":6321,"à¦¬à¦°à¦¬à¦°":6322,"à¦¼âĢĻà¥¤":6323,"à¦®à¦®à¦£":6324,"à§ĭ)":6325,"Ġà¦¬à¦ĸ":6326,"Ġà¦¬à¦ªà¦£":6327,"Ġà¦¸à¦ĵà§Ł":6328,"à¦¸à¦¬à¦²":6329,"à¦¸à¦®à¦ķ":6330,"à¦¸à¦¯à¦ľ":6331,"Ġà¦Ĩà¦ĵà§ľ":6332,"à¦¦à¦ĸà¦²":6333,"à¦Łà¦°à¦Ł":6334,"Ġà¦¨à¦°à¦¹à¦°":6335,"Ġà¦®à¦Ĺà¦ľà¦Ł":6336,"à¦ªà¦®à¦£":6337,"à¦ªà§°":6338,"à¦ªà¦¯à¦ľ":6339,"à¦ĩà¦²à¦¨":6340,"à¦ĩà¦ĺà¦°":6341,"à¦ĩà¦ļà¦Ł":6342,"à¦Ľà¦²à¦¨":6343,"à¦ľà¦¦à¦°":6344,"Ġà¦¹à¦¦à¦¯":6345,"à¦¶à¦²à¦¯":6346,"Ġà¦ħà¦¤à¦¬à¦¡":6347,"à¦ĸà¦¹":6348,"à¦Ĺà§İ":6349,"à¦Ĺà¦Ńà¦°":6350,"à¦§à¦¤à¦°":6351,"à¦§à¦¬à¦°":6352,"à¦ļà¦²à¦ķ":6353,"à¦ļà¦¶à¦®":6354,"Ġà¦ķà¦°à¦¦":6355,"à¦£à¦ĸ":6356,"à¦£à¦ªà¦ķ":6357,"à¦¥à¦ļ":6358,"Ġà¦¶à¦¤à¦°à¦Ļ":6359,"Ġà¦ľà¦Ĺà¦ľ":6360,"Ġà¦ľà¦łà¦°":6361,"Ġà¦°à¦²":6362,"à¦ĵà¦²à¦ľ":6363,"Ġà¦ıà¦ķà¦¶à¦¬":6364,"Ġà¦ıà¦ķà¦ĺà¦°":6365,"à¦¼à¦¾âĢĿ":6366,"Ġà¦Ĩà¦®à¦¸":6367,"Ġà¦īà¦ĩà¦¦":6368,"à¦Ļà¦¡":6369,"Ġà¦²à¦ķà¦²à¦ķ":6370,"à§ĩ,--":6371,"Ġà¦ĸà§Ł":6372,"à¦°à¦¤à¦ª":6373,"à¦¬à¦¨à¦ĸ":6374,"à¦¬à¦¨à¦ļà¦°":6375,"à§ľà¦Ń":6376,"à¦īà¦ĸ":6377,"à¦īà¦°à¦¤à¦¨":6378,"à¦Ĩà¦ĩà¦¡":6379,"à¦¬à¦°à¦¸":6380,"Ġà¦¬à¦²à¦²à¦ıà¦ķà¦Ł":6381,"Ġà¦Łà§Łà¦²":6382,"Ġà¦ĩà¦®à¦¤":6383,"Ġà¦ľà¦¨à¦®à¦¨":6384,"Ġà¦ľà¦¨à¦¬à¦¸à¦¤":6385,"à¦¬à¦ªà¦¦":6386,"à¦°à¦®à¦¦":6387,"à¦°à¦®à¦¶à¦ķ":6388,"à¦¤à¦¨à¦Ĺ":6389,"à¦ħà¦ĸà¦£":6390,"à¦¤à¦¬à¦®":6391,"à¦Ĺà¦²à¦ĩ":6392,"à¦¹à¦¸à¦ĵ":6393,"Ġà¦®à¦¹à¦¡":6394,"à¦Ľà¦¨à¦Ł":6395,"à¦§à¦¨à¦Ńà¦ľà¦¨":6396,"à¦°à¦ľà¦ķ":6397,"Ġà¦īà§İà¦ĸ":6398,"Ġà¦Ĺà¦°à¦Ĺà¦°":6399,"à¦¯à¦®à¦ŀ":6400,"à¦¤à¦ķà¦¦":6401,"à¦¤à¦ķà§ľ":6402,"à¦¤à¦®à¦ľ":6403,"Ġà¦ĩà¦¨à¦¶":6404,"Ġà¦ħà¦²à¦°":6405,"à¦ķà¦¨à¦¸":6406,"à¦¸à¦ķà¦Ĺ":6407,"à§°à¦¥à¦®":6408,"Ġà¦¶à¦¤à¦Ĺ":6409,"Ġà¦Ĩà¦ļà¦®":6410,"Ġà¦Ĩà¦¦à¦°à¦£":6411,"à¦Ĺà¦ľà¦ĸ":6412,"Ġà¦Ĩà¦¹à¦®à¦¦":6413,"Ġà¦ĸà¦¬à¦°à¦ĩ":6414,"Ġà¦ķà¦·à¦²":6415,"Ġà¦¨à¦°à¦®à¦¤":6416,"à¦ľà¦¬à¦ī":6417,"à¦ľà¦¬à¦īà¦¦":6418,"à¦®à¦Łà¦®":6419,"à§ĭ--":6420,"Ġà¦¬à§ľà¦°":6421,"Ġà¦®à¦ľà¦¦":6422,"à¦°à¦°à¦Ļ":6423,"à¤¸":6424,"à¦ķà¦¸à¦Ń":6425,"à¦¿âĢĻâĢĵ":6426,"à§Ńà§¦":6427,"à§ĩ!âĢĿâĢĶ":6428,"Ġà¦ļà¦Łà¦ļà¦Ł":6429,"Ġà¦®à¦¶à¦ķà¦°":6430,"ater":6431,"ative":6432,"ality":6433,"Ġà¦Ĩà§Łà¦¤à¦¨":6434,"ert":6435,"Ġthem":6436,"à¦¾âĢ¦âĢĻ":6437,"Ġà¦²à§ľà¦Ľ":6438,"Ġsoci":6439,"à¦ĩà¦«à¦¯":6440,"arg":6441,"Ġà¦°à¦£à¦¸":6442,"Ġà¦Ńà¦¬à¦¨à¦Ł":6443,"à¦¾,âĢĿâĢĶ":6444,"ions":6445,"à¦ªà¦ľà¦Ļ":6446,"Ġfre":6447,"Ġà¦®à¦¦à¦¨à¦¦":6448,"Ġhad":6449,"Ġhuman":6450,"Ġlove":6451,"Ġlike":6452,"ĠIs":6453,"ĠAr":6454,"____":6455,"à¦Ĭà¦·":6456,"áĥĺ":6457,"Ġà¦ĸà¦²à¦ĸà¦²":6458,"Ġà§§à§¯à§¯à§«":6459,"Ġonly":6460,"erson":6461,"à¦ķà¦Ŀà¦²à¦ķ":6462,"Ġà¦°à¦¸à¦¬à¦¤":6463,"Ġabstra":6464,"Ġdisc":6465,",---":6466,"33":6467,"55":6468,"?-":6469,"ake":6470,"hin":6471,"man":6472,"Ġ`":6473,"Ġâ":6474,"à§»":6475,"à¦°à¦¡à¦¬":6476,"à§įâĢ¦":6477,"à¦¿à§Ģ":6478,"à¦¨à¦¶à¦ķ":6479,"à¦¤à§İ":6480,"à¦¤à¦¸à¦¨":6481,"à¦¤à§°":6482,"à¦²à¦Ĺà¦²":6483,"à¦²à¦°à¦ķà¦®":6484,"à¦²à¦ªà¦®":6485,"à¦ķà¦ĵà¦¯":6486,"à¦ķà¦ªà¦¥":6487,"à¦¯à¦·":6488,"à¦¬à¦ĩà¦Ł":6489,"à¦®à¦ªà¦ķ":6490,"à¦®à¦¸à¦Ļ":6491,"Ġà¦ķà¦Ľ":6492,"Ġà¦ķà¦ĩà¦Ľ":6493,"Ġà¦¬à¦Łà¦²":6494,"Ġà¦¬à§°":6495,"à¥¤]":6496,"à¦¸à¦ĵà§Ł":6497,"à¦¸à§İà¦ķ":6498,"à¦¸à¦¹à¦¨":6499,"Ġà¦Ĩà¦ĩà¦ª":6500,"à¦¦à¦¬à¦¨":6501,"à¦¦à¦ļà¦¯":6502,"à¦¦æĹ¥ãģ®":6503,"à¦Łà¦¤à¦®":6504,"Ġà¦¨à¦°à¦¸":6505,"Ġà¦®à¦¬":6506,"à¦ªà¦¹à¦°":6507,"à¦ĩà¦®à¦¨":6508,"à¦ĩà¦ªà¦Ł":6509,"à¦ĩà¦¶à¦Ł":6510,"à§ĢâĢ¦âĢĿ":6511,"à¦Ľà¦®":6512,"à¦ľà¦ªà¦¦":6513,"Ġà¦ıà¦ĺà¦°":6514,"Ġà¦ıà¦Ńà¦°":6515,"à¦¶à¦°à¦£":6516,"à¦¶à¦¸à¦®":6517,"à¦¶à§Łà¦¨":6518,"Ġà¦ħà¦ªà¦¨":6519,"à¦ĸà¦¬à¦¨":6520,"à¦ĸà¦®à§Ł":6521,"à¦Ĺà¦ªà¦¤":6522,"à¦·à¦¬à¦°à¦£":6523,"Ġà¦¯à¦ľà¦¨":6524,"à§Łà¦¸à¦Ļ":6525,"Ġà¦Ĺà¦ľà¦¬":6526,"Ġà¦¶à¦¬à¦¨à¦®":6527,"à¦ĵà¦·":6528,"à¦ĵà¦ĵ":6529,"à¦Ńà¦ŀ":6530,"Ġà¦ıà¦ķà¦ªà¦°":6531,"Ġà¦Ĩà¦®à¦ľà¦¨à¦¤":6532,"à¦łà¦§":6533,"à¦łà¦¤à¦°":6534,"à¦łà¦ļà¦ķ":6535,"Ġà¦ĵà¦ľà¦¸":6536,"à¦°à¦¤à¦ĵ":6537,"à§ľà¦¦":6538,"à¦ªà¦°à¦Ł":6539,"à¦¿à¥¤'":6540,"à¦®à¦¨à¦Ĺà¦°":6541,"à¦ľà¦¨à¦¬à¦°":6542,"à¦īà¦¬à¦²":6543,"à¦īà¦ĩà¦¨":6544,"à¦īà¦¤à¦²":6545,"Ġà¦Ĩà¦²à§Ł":6546,"à¦°à¦¬à¦¬":6547,"à¦°à¦¬à¦ª":6548,"à¦Ĩà¦°à¦®":6549,"à¦°à¦ķà¦ķ":6550,"Ġà¦¬à¦²à¦²à¦ıà¦¬":6551,"Ġà¦¬à¦²à¦²à¦Ĳ":6552,"Ġà¦Łà¦¨à¦ķ":6553,"âĢĻ)":6554,"âĢĻà¥¤âĢĿ":6555,"Ġà¦ĩà¦¬à¦¨":6556,"Ġà¦ĩà¦īà¦ķ":6557,"Ġà¦ĩà¦¶à¦°":6558,"Ġà¦ĩà¦Ńà¦¨":6559,"Ġà¦ĩà¦¨à¦¬à¦ķ":6560,"à¦ĺà¦·":6561,"à¦ĺà¦ļ":6562,"à¦¬à¦²à¦Ń":6563,"Ġà¦łà¦ķà¦¬":6564,"à¦¤à¦¨à¦¬":6565,"à¦ħà¦«à¦²":6566,"Ġà¦¬à¦¨à¦ķ":6567,"Ġà¦¬à¦¨à¦¦":6568,"à¦ķà¦²à¦ľ":6569,"à¦ķà¦°à¦Ľ":6570,"à¦ķà¦Łà¦¸":6571,"Ġà¦ħà¦¸à¦¤à¦°":6572,"à¦¤à¦¬à¦Ĺ":6573,"à¦¨à¦¬à¦§à¦°":6574,"à¦¦à¦¨à¦®":6575,"Ġà¦¬à¦°à¦ĩ":6576,"à§ĩ?âĢĵ":6577,"Ġà¦Ĩà¦¨à¦¯":6578,"Ġà¦Ĩà¦¨à¦¸":6579,"à¦Ĺà¦²à¦¨":6580,"à¦Ĺà¦²à¦Ľ":6581,"à¦Ĺà¦²à¦®à§Ł":6582,"Ġà¦ľà¦²à¦®à¦Ĺ":6583,"à¦¿à¦Ĥ!âĢĿ":6584,"à¦¶à¦¨à¦¸":6585,"à¦¶à¦¨à¦¶":6586,"Ġà¦ħà¦¤à¦ĸ":6587,"Ġà¦¸à¦°à¦Ĺà¦°à¦®":6588,"à¦Ľà¦¨à¦ª":6589,"à¦ĩà¦²à¦Ĺ":6590,"à¦ĩà¦²à¦«à¦²à¦ķ":6591,"à§ĩâĢĶâĢĻ":6592,"Ġà¦ħà¦ªà¦²":6593,"Ġà¦ıà¦®à¦¨à¦¤à¦°":6594,"Ġà¦¸à¦¹à¦®à¦¤":6595,"Ġà¦ĵà¦°à¦ĵ":6596,"à¦Ńà¦¬à¦ĵ":6597,"à¦¹à¦²à¦¹":6598,"âĢ¦âĢ¦":6599,"âĢ¦à¥¤âĢĻ":6600,"Ġà¦ķà¦®à¦£":6601,"à¦Ĺà¦¨à¦¸":6602,"Ġà¦ªà¦¦à¦¶à¦¬":6603,"à¦°à¦ªà¦Ļ":6604,"Ġà¦¬à¦ĩà¦ĵ":6605,"à¦·à¦¤à¦®":6606,"à¦·à¦ķà¦¥":6607,"à¦¶à¦ķà¦ķ":6608,"Ġà¦Ĩà¦¡à¦®":6609,"à¦¸à¦ķà¦¦à¦²":6610,"à¦¨à¦¸à¦¹":6611,"à¦¨à¦°à¦°":6612,"à¦ĩà¦Łà¦Ł":6613,"à¦ĩà¦Łà¦Ĺ":6614,"à¦Łà¦¨à¦®":6615,"à¦²à¦Ĺà¦ŀ":6616,"à¤·":6617,"à¦ķà¦°à¦£à¦Ĺà¦¤":6618,"Ġà¦°à¦ĵà¦¶à¦¨à¦ĩ":6619,"à§ĩâĢ¦.":6620,"Ġà¦ħà¦Łà¦²à¦¤":6621,"à¦¯à¦Ńà¦Ļ":6622,"à¦°à¦«à¦°à¦®":6623,"à¦ļà§Łà¦ķ":6624,"à¦·à§Łà¦¬à¦¸":6625,"ens":6626,"ener":6627,"à¦Ńà§Łà¦ķ":6628,"ital":6629,"Ġthese":6630,"Ġà¦°à¦ľà¦¤à¦¦":6631,"Ġà¦Ĩà¦Łà¦¶":6632,"à§ĩâĢĻâĢĵ":6633,"Ġsol":6634,"Ġà¦Ĩà¦ĩà¦ĵà¦Ł":6635,"à§İà¦ªà§°":6636,"à¦ĩà¦«à¦¸":6637,"à§ģ!)":6638,"Ġà¦ıà¦®à¦ı":6639,"à¦ħà¦²à¦Ļ":6640,"à¦ħà¦ªà¦²à¦ķ":6641,"Ġpart":6642,"à¦ħà¦Ĺà¦£à¦¨":6643,"à¦®à¦Ŀà¦®":6644,"Ġà§§à§¯à§Ńà§¦":6645,"Ġà¦ĸà¦°à¦ĸà¦°":6646,"Ġhim":6647,"Ġà¤Ĩ":6648,"omp":6649,"vel":6650,"Ġà¦¶à¦°à§İà¦¬":6651,"à§§à§¯à§®":6652,"ily":6653,"à§į!!":6654,"Ġà¦¨à¦ĵà¦ľ":6655,"Ġà§Ńà§«":6656,"Ġà¦ķà¦¸à¦°à¦¤":6657,"Ġres":6658,"cept":6659,"Ġits":6660,"Ġcons":6661,"Ġà§§à§¯à§®à§¯":6662,"Ġà§§à§¯à§¬à§®":6663,"Ð°Ð":6664,"Ġà¦®à¦ļà¦®à¦ļ":6665,"Ġindigo":6666,"ividual":6667,")-":6668,"-âĢľ":6669,"36":6670,"?'":6671,"?âĢĶ":6672,"are":6673,"ck":6674,"cl":6675,"dv":6676,"hil":6677,"iz":6678,"ian":6679,"ma":6680,"mer":6681,"not":6682,"pect":6683,"sh":6684,"uhin":6685,"xx":6686,"Â«":6687,"Ñĭ":6688,"à¨":6689,"Ġ...":6690,"à¦°à¦²à¦¤":6691,"à¦°à¦ļà¦ķ":6692,"à¦°à¦ĭà¦£":6693,"à§į?":6694,"à§įâĢĶ":6695,"à¦¨à¦ļà¦¨":6696,"à¦¨à¦ļà¦ķ":6697,"à¦¨à¦ªà¦Ł":6698,"à¦¤à¦¦à¦°":6699,"à¦¤à¦ªà¦¤":6700,"à¦¤à¦¤à¦²":6701,"à¦¤à¦°à¦¤à¦®":6702,"à¦²à¦§à¦°":6703,"à¦²à¦Łà¦¨":6704,"à¦²à¦¶à¦¯":6705,"à¦ķà¦¥à¦¨":6706,"à¦ķà¦Ĺà¦£":6707,"à¦¯à¦ĺ":6708,"à¦¯à¦¹à¦¤":6709,"à¦¬à¦ľà§Ł":6710,"à¦¼âĢ¦âĢĿ":6711,"Ġà¦¬à¦ķà¦¶":6712,"Ġà¦¸à¦ĵà¦Ĺ":6713,"à¥ĥ":6714,"à¦¸à¦ĺà¦°":6715,"à¦¸à¦¸à¦¹":6716,"Ġà¦Ĩà¦¹à¦²":6717,"à¦Łà¦§":6718,"à¦Łà¦ĺ":6719,"à¦Łà¦¦à¦²":6720,"Ġà¦®à¦°à¦ķ":6721,"Ġà¦®à¦²à¦¤":6722,"Ġà¦®à¦Ĺà¦Ł":6723,"à¦ªà¦Ĺà¦¤":6724,"à¦ªà¦£à¦¤":6725,"à¦ªà§Łà¦¸":6726,"à¦ĩà¦§":6727,"à¦ĩà¦¥":6728,"à¦ĩà¦°à¦¨":6729,"à¦ĩà¦®à¦²":6730,"à¦ĩà¦īà¦ľ":6731,"à¦ľà¦¹à¦°":6732,"à¦ľà¦Ĺà¦£":6733,"Ġà¦¤à¦¦à¦¬":6734,"Ġà¦ıà¦®à¦¤":6735,"Ġà¦ıà¦§à¦°à¦¨":6736,"à¦ĸà¦²à¦¤":6737,"à¦Ĺà¦¸à¦®":6738,"à¦Ĺà¦ľà¦¨à¦ķ":6739,"à¦§à¦°à¦¤":6740,"à¦§à¦®à¦ķ":6741,"Ġà¦¯à§İ":6742,"Ġà¦¯à¦®à¦¦":6743,"à¦¹à¦¨à¦¤":6744,"Ġà¦ķà¦°à¦ľ":6745,"Ġà¦ķà¦°à¦£à¦ķ":6746,"à¦£à¦ķà¦¥":6747,"à¦£à¦ķà¦£":6748,"Ġà¦¶à¦ķà¦¤":6749,"Ġà¦¶à¦°à¦¶à¦¯":6750,"Ġà¦Ńà¦ķà¦¤":6751,"Ġà¦°à¦°":6752,"à¦Ńà¦£":6753,"Ġà¦ıà¦ķà¦¤à¦®":6754,"Ġà¦ıà¦ķà¦ıà¦ķà¦Ł":6755,"Ġà¦ıà¦ķà¦ķà¦Ń":6756,"à¦¼à¦¾?âĢĻ":6757,"Ġà¦Ľà¦Łà¦ķ":6758,"Ġà¦Ľà¦²à¦ļ":6759,"Ġà¦īà¦«":6760,"à¦ĤâĢĵ":6761,"à¦Ļà§ľ":6762,"Ġà¦²à¦Łà¦ķ":6763,"Ġà¦Ĩà¦°à¦¬à¦°":6764,"Ġà¦Ĩà¦°à¦¬à¦¦":6765,"Ġà¦ĸà¦ķ":6766,"Ġà¦§à¦¨à¦¬":6767,"Ġà¦¸à¦®à¦ªà¦°":6768,"à¦¬à¦¨à¦Ĺà¦°":6769,"Ġà¦ĺà¦°à¦®à¦¯":6770,"Ġà¦®à¦¨à¦°":6771,"à¦®à¦¨à¦¦":6772,"à¦ľà¦¨à¦ª":6773,"à¦ľà¦¨à¦Ĺà¦£":6774,"à¦¤à¦°à¦¨":6775,"à¦īà¦§":6776,"à¦īà¦ĩà¦²":6777,"Ġà¦Ĩà¦²à¦¯":6778,"à¦Ĩà¦ĩà¦²":6779,"à§İà¦«":6780,"Ġà¦¸à¦¬à¦®":6781,"Ġà¦¬à¦²à¦²à¦ĸ":6782,"Ġà¦¡à¦Ļ":6783,"Ġà¦ĩà¦«":6784,"Ġà¦ªà¦¡à¦ķ":6785,"à¦ĺà¦¦à¦²":6786,"Ġà¦®à¦¤à¦¨à¦ĩ":6787,"à¦°à¦®à¦ĵ":6788,"à¦·à¦£à¦¬":6789,"Ġà¦ıà¦¸à¦¸":6790,"à¦ĥâĢĻ":6791,"à¦ħà§Łà¦¨":6792,"à¦ħà¦¥à¦°":6793,"Ġà¦Ĩà¦Ĺà¦®à¦£":6794,"à¦²à¦ķà¦Ĺ":6795,"Ġà¦Ĩà¦¨à¦ļ":6796,"à¦¦à¦°à¦²":6797,"à¦Ĺà¦²à¦ĵ":6798,"Ġà¦ħà¦¤à¦¦":6799,"à¦§à¦ķà¦°à¦£":6800,"à¦¹à¦¸à¦ķ":6801,"à¦ļà¦¨à¦Ńà¦Ļ":6802,"à¦®à¦²à¦¯":6803,"à¦®à¦²à¦¦":6804,"Ġà¦ħà¦ªà¦¤":6805,"Ġà¦ħà¦ªà¦ĺ":6806,"Ġà¦ķà¦²à¦Ł":6807,"Ġà¦ķà¦²à¦®à¦Ł":6808,"à¦ıà¦ĩà¦ĩ":6809,"à¦°à¦ªà¦°à¦¨":6810,"à¦Łà¦ķà¦¥":6811,"Ġà¦¬à¦¹à¦¨à¦ķ":6812,"à§ĩ!)":6813,"Ġà¦ªà¦¦à¦¤":6814,"à¦®à¦£à¦¬":6815,"à¦®à¦£à¦ĩ":6816,"à¦ıà¦ķà¦ª":6817,"à¦ıà¦ķà¦Ĺ":6818,"à¦ıà¦ķà¦¦à¦²":6819,"à¦¨à¦ķà¦£":6820,"à¦°à¦ªà¦ķ":6821,"à§Ģà¥¤à¥¤":6822,"à¦¬à¦¦à¦®":6823,"à§İà¦ķà¦£":6824,"Ġà¦Ĩà¦§à¦¶":6825,"à¦¤à¦¤à¦ĩ":6826,"Ġà¦Ńà¦¬à¦®":6827,"à¦ªà¦Łà¦Ń":6828,"à¦ķà¦¨à¦®":6829,"Ġà¦¦à¦²à¦ĩ":6830,"Ġà¦¨à¦¬à¦Ĺ":6831,"à¦¨à¦¸à¦Ń":6832,"à¦¬à¦¶à¦Ļ":6833,"à¦¨à¦°à¦Ļ":6834,"à¦īà¦²à¦Ł":6835,"à¦°à¦®à¦£à¦¬":6836,"à¦°à¦®à¦£à¦Ń":6837,"Ġà¦Ĺà¦£à¦¸":6838,"Ġà¦Ĺà¦£à¦ªà¦¤":6839,"Ġà¦Ĺà¦£à¦¹à¦¤":6840,"à¦¦à¦®à¦¬à¦¨":6841,"à¦²à¦®à¦¹":6842,"Ġà¦§à¦¨à¦°à¦¤":6843,"à¦¹à¦°à¦£à¦ĩ":6844,"à¤¶":6845,"à¤ļ":6846,"à¦¿;-":6847,"Ġà¦ľà§Łà¦ķ":6848,"Ġà¦Ĺà¦¹à¦¬à¦°":6849,"Ġà¦Ĳà¦ķà¦®à¦¤":6850,"à§Ŀà¦ļ":6851,"à¦ıà¦ĸà¦¨à¦ķ":6852,"Ġte":6853,"Ġà¦ļà¦¨à¦®à¦¨":6854,"à¦¸à¦¹à¦¦":6855,"hes":6856,"ine":6857,"à¦¨à¦ªà¦¤à¦¨":6858,"à¦¤à¦¸à¦ĩ":6859,"à¦¶à¦¤à¦ªà¦¥":6860,"Ġà¦ªà¦²à¦ķà¦¹":6861,"Ġà¦®à¦¦à¦¤":6862,"Ġà¦Ĩà¦ļà¦°à¦£à¦ķ":6863,"à¦Ĩà¦¶à¦Ļ":6864,"à¦¯à¦Ĺà¦łà¦¨":6865,"iss":6866,"Ġà¦ıà¦°à¦ªà¦°à¦ĩ":6867,"Ġà¦²à§ľà¦¬":6868,"Ġà¦Ķà¦°":6869,"Ġà¦Ĩà¦«à¦¨":6870,"Ġar":6871,"Ġcult":6872,"Ġà¦®à¦°à¦£à¦ķ":6873,"Ġà¦ĩà¦®à¦ªà¦¸":6874,"Ġwere":6875,"esc":6876,"à§ģà¦Ĥ-":6877,"à¦īà¦łà¦¬":6878,"Ġà§©à§§":6879,"Ġà§©à§Ń":6880,"ication":6881,"à¦£à¦Ńà¦Ł":6882,"à¦°à¦ķà¦Łà¦Ń":6883,"à¦Īà¦°":6884,"à¦¬à§İà¦¸à¦®":6885,"Ġà¦¨à¦Ĺà¦°à¦ķ":6886,"ĠIn":6887,"Ġà§«à§«":6888,"à§§à§¯à§ªà§Ń":6889,"Ġthan":6890,"rag":6891,"old":6892,"ety":6893,"à¦¿',":6894,"ĠâĢ¦à¥¤":6895,"Ġà¦ķà¦¤à¦¬à¦¡":6896,"ĠSoci":6897,"Ġevery":6898,"igh":6899,"Ġrel":6900,"áĥĲ":6901,"ĠRe":6902,"Ġà§§à§¯à§ªà§¨":6903,"Ġà§§à§¯à§ªà§«":6904,"ide":6905,"ĠDetective":6906,"Ġà§¬à§¦":6907,"vers":6908,"à¦¶à¦§à¦°à¦¦":6909,"Ġà¦īà¦ĩà¦¥":6910,"ips":6911,"Ġyour":6912,"****************":6913,"æŃĵæŃĵæŃĵæŃĵæŃĵæŃĵæŃĵæŃĵæŃĵæŃĵæŃĵæŃĵæŃĵæŃĵæŃĵæŃĵ":6914,"Ġà¦«à¦¸à¦«à¦¸":6915,"ĠIndia":6916,"intu":6917,"Ġà¦Ĩà¦ĩà¦ķà¦¨":6918,"!âĢ¦":6919,"37":6920,"ble":6921,"der":6922,"eg":6923,"jun":6924,"led":6925,"low":6926,"ness":6927,"rough":6928,"uch":6929,"yan":6930,"¿½":6931,"Â¦":6932,"Â»":6933,"×Ļ":6934,"Øª":6935,"à«":6936,"ï¿½":6937,"Ġher":6938,"Ġup":6939,"ĠÂ«":6940,"à¦¾à§į":6941,"à¦¾..":6942,"à¦¾...":6943,"à§ĩâĢĮ":6944,"à¦°à¦Ĩà¦¨":6945,"à¦¿...âĢĿ":6946,"à¦¨à¦¸à¦¬":6947,"à¦¨à¦¦à¦¯":6948,"à¦¨à¦ıà¦ĩ":6949,"à¦¨à¦ĺà¦¨":6950,"à¦²à¦ªà¦ķ":6951,"à¦²à¦ĸà¦£":6952,"à¦ķà¦®à¦¨":6953,"à¦ķà¦ķà¦°":6954,"à¦ķà¦¦à¦²":6955,"à¦ķà§°":6956,"à¦ķà¦ıà¦°":6957,"à¦¯à¦®à¦ķ":6958,"à¦¬à¦ķà¦¤":6959,"à¦¬à¦īà§Ł":6960,"à¦¼âĢĻ,":6961,"à¦®à¦Ĺà¦°":6962,"à¦®à¦¸à¦¤":6963,"à¦®à¦¸à¦²":6964,"à¦®à¦Ńà¦ķ":6965,"à¦¸à¦ıà¦°":6966,"Ġà¦Ĩà¦¦à¦¨":6967,"à¦¦à¦°à¦¤":6968,"à¦¦à¦²à¦ķ":6969,"à¦¦à§°":6970,"à¦¦à¦ķà¦£":6971,"Ġà¦¨à¦Łà¦°":6972,"à¦ĩà¦¦à¦¹":6973,"Ġà¦¦à¦°à¦Ĺ":6974,"à¦ľà¦ŀ":6975,"à¦ľà¦¸à¦¨":6976,"Ġà¦ıà¦Ĺà¦¤":6977,"à¦¼à§ĩ--":6978,"à¦ĸà¦®à¦¨":6979,"à¦Ĺà¦łà¦ķ":6980,"à¦Ĺà¦¸à¦¹":6981,"à¦·à¦ĸ":6982,"à¦§à¦¬à¦¨":6983,"à¦§à¦®à¦¨":6984,"à¦§à¦¬à¦²":6985,"à¦§à¦Ńà¦°":6986,"à¦ļà¦Ĺà¦¤":6987,"à¦¹à¦ªà¦¤":6988,"à§Łà¦ĸ":6989,"à§Łà¦¡à¦«":6990,"Ġà¦Ĺà¦Łà¦Ĺ":6991,"Ġà¦°à¦¸à¦®":6992,"à¦ĵà¦°à¦¤":6993,"à¦Ńà¦¹":6994,"à¦¼à¦¾!âĢĻ":6995,"Ġà¦Ĩà¦®à¦¡":6996,"Ġà¦īà¦Ľ":6997,"Ġà¦īà¦°à¦¸":6998,"à¦ĤâĢĻ":6999,"à§ĩ,---":7000,"Ġà¦¬à¦²à¦ĸ":7001,"Ġà¦Ĩà¦°à¦ª":7002,"Ġà¦ĸà¦ļà¦°":7003,"à¦°à¦¤à¦ķà¦°":7004,"à¦°à¦¤à¦ļà¦¨":7005,"à¦¾à¥¤'":7006,"Ġà¦§à¦¨à¦¦":7007,"Ġà¦¸à¦®à¦ľ":7008,"Ġà¦¸à¦®à¦®à¦¨":7009,"Ġà¦¸à¦®à¦ħà¦§":7010,"à¦¾,âĢĶ":7011,"à¦¬à¦¨à¦¸à¦Ļ":7012,"à¦¬à¦¨à¦ķà¦¥":7013,"à¦ªà¦°à¦¨":7014,"à¦ªà¦°à¦®à¦£":7015,"à¦īà¦Ŀ":7016,"Ġà¦Ĩà¦²à¦ªà¦¥":7017,"à¦°à¦¬à¦ĵ":7018,"à¦°à¦¬à¦¤à¦®":7019,"à¦Ĩà¦®à¦¨":7020,"à¦Ĩà¦ľà¦¨":7021,"à¦Ĩà¦¬à¦¦":7022,"à¦Ĩà¦ĩà¦ª":7023,"à¦ıà¦ľ":7024,"à¦¬à¦°à¦®":7025,"Ġà¦¬à¦²à¦²à¦ľ":7026,"Ġà¦¬à¦²à¦²à¦Ĩà¦°":7027,"Ġà¦Łà¦ĩà¦Ł":7028,"Ġà¦Ĩà¦Ľà¦®":7029,"âĢĻ?":7030,"Ġà¦īà¦łà¦¨":7031,"à§Ī,":7032,"à¦ĺà¦Ń":7033,"Ġà¦ľà¦¨à¦¸à¦¨":7034,"à¦¼,âĢĻ":7035,"Ġà¦¢à¦ķà¦¢":7036,"à¦ħà¦ĺ":7037,"Ġà¦¬à¦¨à¦¶":7038,"Ġà¦ħà¦®à¦²à¦ķ":7039,"Ġà¦ħà¦®à¦°à¦¦":7040,"à¦¯à¦¬à¦ļ":7041,"à¦¨à¦¬à¦¬à¦¨":7042,"Ġà¦Ĩà¦¶à¦°":7043,"à¦ķà¦¤à¦²":7044,"Ġà¦Ĩà¦¨à¦ľ":7045,"Ġà¦ľà¦²à¦ļà¦°":7046,"à¦¿à¦Ĥ)":7047,"Ġà¦ħà¦¤à¦¶à¦¤":7048,"à¦²à¦¨à¦¶":7049,"à¦²à¦¨à¦ĵ":7050,"à¦°à¦¯à¦¤":7051,"à¦ĩà¦²à¦¹":7052,"à¦²à¦¬à¦¸":7053,"Ġà¦ħà¦ªà¦¶à¦¨":7054,"à¦¿à¦ĥ,":7055,"à¦¸à¦®à¦·":7056,"à¦¹à¦²à¦ľà¦¨à¦ķ":7057,"à¦Ĺà¦¨à¦ķ":7058,"à§ĩ!âĢĶ":7059,"Ġà¦°à¦Ļà¦²":7060,"Ġà¦°à¦Ļà¦¹":7061,"à¦¸à¦°à¦Ĺ":7062,"à¦¸à¦°à¦ĺà¦°":7063,"à¦¶à¦¬à¦ķ":7064,"à¦ıà¦ķà¦¯":7065,"à¦ıà¦ķà¦ªà¦°":7066,"à¦¨à¦ķà¦¶":7067,"à¦¦à¦²à¦¬à¦²":7068,"Ġà¦¬à¦ĩà¦ªà¦¡":7069,"Ġà¦ħà¦ªà¦°à¦£":7070,"à§įâĢĮâĢĶ":7071,"Ġà¦ĵà¦ĩà¦¦":7072,"à¦²à¦²à¦ĵà¦¹":7073,"à¦¤à¦¤à¦¦":7074,"à§ģâĢĻ,":7075,"à§ģâĢĻà¥¤":7076,"!âĢĿ,":7077,"à§°à¦¶":7078,"Ġà¦Ĩà¦Ļà¦Ł":7079,"Ġà¦Ĩà¦¦à¦¬":7080,"Ġà¦¸à¦¹à¦ľà¦¬":7081,"à¦īà¦²à¦ĵ":7082,"Ġà¦ĺà¦¨à¦¶":7083,"à¦°à¦®à¦£à¦¸":7084,"à¦®à§Łà¦²":7085,"à¦®à¦¸à¦Ń":7086,"Ġà¦ľà¦°à§İà¦ķ":7087,"Ġà¦Ĺà¦£à¦Ĩà¦¨":7088,"Ġà¦ķà¦²à¦ķà¦¬":7089,"Ġà¦¬à¦īà¦Ŀ":7090,"à¦Ĺà¦®à¦Ĺ":7091,"à¦¹à¦°à¦£à¦ĵ":7092,"à¦¨à¦Ńà¦¨":7093,"à¦Ĩà¦ķà¦¸":7094,"Ġà¦ªà¦°à¦®à¦ª":7095,"à¤§":7096,"à¦ķà¦ľà¦¨à¦¦":7097,"Ġà¦¦à¦®à¦ķà¦²":7098,"à§Ŀà¦Ń":7099,"à§Ńà§¬":7100,"à¦¸à¦¹à¦¬":7101,"Ġà¦īà§ľà¦²":7102,"à¦¤à¦¸à¦ŀ":7103,"à¦¬à¦ľà¦¨à¦Ĺ":7104,"Ġà¦ĸà¦°à¦ļà¦Ł":7105,"à¦Ĩà¦¬à¦°à¦£":7106,"Ġà¦ķà¦Łà¦®à¦Ł":7107,"Ġ''":7108,"à§¯à§«":7109,"Ġà¦ıà¦°à¦ªà¦°à¦ĵ":7110,"Ġà¦ļà¦°à¦£à¦§":7111,"Ġà¦ľà§ľà¦¤":7112,"Ġout":7113,"Ġother":7114,"Ġà¦Ĩà¦ĩà¦ı":7115,"Ġag":7116,"esh":7117,"Ġposs":7118,"ick":7119,"à¦¤à¦ļà¦°à¦¬":7120,"à¦ħà¦ªà¦°à¦¦":7121,"Ġà§§à§¯à§Ńà§«":7122,"Ġà¤ī":7123,"à§ĭâĢ¦âĢĻ":7124,"à¦Īà¦·à§İ":7125,"Ġà§§à§¯à§«à§¦":7126,"Ġà§ªà§®":7127,"ild":7128,"à¦£à¦Ĺà¦¤à¦®":7129,"ĠBeng":7130,"à¦¨à§Łà¦¨à¦ķ":7131,"Ġà§§à§¦à§¦à§¦":7132,"igital":7133,"ational":7134,"Ġbeing":7135,"ĠRiya":7136,"Ġà§¯à§¦":7137,"Ġà¦ĩà¦¸à¦®à¦¤à¦ķ":7138,"à¦ıà¦¨à¦ı":7139,"Ġà¦¹à¦°à¦«à¦Ĺ":7140,"Ġà¦ĩà¦¨à¦«à¦°à¦®":7141,"ĠNot":7142,"à¦ıà¦®à¦ıà¦¸":7143,"Ġà¦Łà¦®à¦Łà¦®à¦Ł":7144,"ack":7145,"Ġà¦¤à§İà¦¸à¦¤":7146,"Ġindividual":7147,"aliz":7148,"âĢķâĢķâĢķâĢķâĢķâĢķâĢķâĢķ":7149,"Ġsome":7150,"Ġà¦Ĺà¦Łà¦Ĺà¦Ł":7151,"Ġà¦¢à¦ķà¦¢à¦ķ":7152,"!(":7153,"):":7154,"39":7155,"?âĢĵ":7156,"AR":7157,"ER":7158,"az":7159,"cend":7160,"cret":7161,"eat":7162,"hat":7163,"ile":7164,"ious":7165,"ta":7166,"te":7167,"the":7168,"ved":7169,"yst":7170,"Ðº":7171,"Ø¯":7172,"ä¸":7173,"Ġz":7174,"ĠÃ":7175,"Ġê":7176,"Ġà§·":7177,"Ġus":7178,"Ġess":7179,"Ġqu":7180,"à§ĩ|":7181,"à§ĩà¦¾-":7182,"à¦¨à§ľ":7183,"à¦¨à¦°à¦¦":7184,"à¦¨à¦®à¦ľ":7185,"à¦¨à¦®à¦¨à¦¸":7186,"à¦¤à¦ļà¦²":7187,"à¦¤à¦ľà¦²":7188,"à¦¤à¦ªà¦Ł":7189,"à¦¤à¦¸à¦ķ":7190,"à¦¤à¦¸à¦¹":7191,"à¦²à¦ĵà§Ł":7192,"à¦ķà¦¨à¦Ł":7193,"à¦ķà¦ļà¦°":7194,"à¦¯à¦Ĺà¦°":7195,"à¦¯à¦¶à¦ķ":7196,"à§ģâĢ¦âĢĿ":7197,"à¦¬à¦¬à¦¨":7198,"à¦¬à¦¹à¦¸":7199,"à¦¬à¦¬à¦¸":7200,"à¦¬à§İà¦ķ":7201,"à¦¬à¦®à¦¹":7202,"à¦¬à¦ľà¦¨à¦ķ":7203,"à¦®à¦¤à¦°":7204,"à¦®à¦¬à¦¤":7205,"à¦®à¦°à¦ľ":7206,"à¦®à¦ĺà¦¨":7207,"à§ĭâĢĿâĢĶ":7208,"Ġà¦ķà¦Łà¦¨":7209,"Ġà¦¸à¦²à¦¤":7210,"Ġà¦¸à¦°à¦¬à¦¤":7211,"à¦¸à¦§":7212,"à¦¸à¦ķà¦¤":7213,"Ġà¦ªà¦·":7214,"à¦¦à¦²à¦¬":7215,"à¦¦à¦®à¦ķ":7216,"à¦¦à¦¶à¦ķ":7217,"à¦Łà¦¸à¦®":7218,"à¦Łà¦®à¦£":7219,"à¦Łà¦®à¦Łà¦®":7220,"Ġà¦¨à¦°à¦²":7221,"Ġà¦¨à¦ĵà¦Ĺ":7222,"Ġà¦¨à¦¦à¦¨à¦¦":7223,"à¦ĩà¦ı":7224,"à§Ģ'":7225,"à¦ľà§İ":7226,"à¦ľà¦¸à¦¤":7227,"Ġà¦¹à¦°à¦¨":7228,"Ġà¦¤à¦¸à¦¬":7229,"à¦¶à¦¬à¦°":7230,"Ġà¦ħà¦Ĺà¦¨":7231,"Ġà¦ħà¦ĵà¦°à¦¤":7232,"à¦ĸà¦ļà¦°":7233,"à¦Ĺà¦Ĺà¦¤":7234,"à¦·à¦²à¦¤":7235,"à¦·à¦°à¦ľ":7236,"à¦·à¦ªà¦¤":7237,"à¦§à¦¬à¦ª":7238,"à¦§à¦ªà¦¥":7239,"à¦§à¦¸à¦¤":7240,"à¦§à¦¶à¦ķ":7241,"à¦¡à¦Ļ":7242,"à¦¡à¦¬à¦Ń":7243,"Ġà¦¯à¦®à¦²":7244,"à¦ļà¦¨à¦¬":7245,"à¦£à¦ĺ":7246,"à¦£à¦§à¦°":7247,"à¦¥à¦ķà¦°":7248,"à¦¥à¦°à¦ļ":7249,"Ġà¦¶à§Ł":7250,"Ġà¦ļà¦ĩà¦²":7251,"à¦¼à¦¾)":7252,"à¦¼à¦¾!âĢĿ":7253,"Ġà¦īà¦Ń":7254,"Ġà¦īà¦®à¦°":7255,"Ġà¦īà§°":7256,"Ġà¦²à¦ĸ":7257,"Ġà¦ĵà¦ĺà¦°":7258,"Ġà¦¥à¦ª":7259,"Ġà¦«à¦ķà¦«":7260,"Ġà¦ħà¦¨à¦¬":7261,"Ġà¦ªà¦°à¦®à¦¤":7262,"Ġà¦ªà¦°à¦®à¦°":7263,"ĠâĢį":7264,"à¦¬à¦¨à¦¤":7265,"à¦¬à¦¨à¦¶à¦ķ":7266,"à¦¬à¦¨à¦®à¦°à¦£":7267,"à¦¼à¦¿âĢ¦":7268,"à§ľà¦Ļ":7269,"Ġà¦ĺà¦¸":7270,"Ġà¦®à¦¨à¦¶":7271,"à¦®à¦¨à¦°":7272,"à¦®à¦¨à¦¤à¦°":7273,"à¦ŀà¦¬à¦¨":7274,"à¦ŀà¦¸à¦®":7275,"à¦«à¦°à¦®":7276,"à¦īà¦ĵ":7277,"à¦īà¦ĺ":7278,"à¦īà¦ľà¦²":7279,"à¦īà§İà¦¸à¦°":7280,"Ġà¦Ĩà¦²à¦®à¦ķ":7281,"Ġà¦Ĩà¦²à¦¬à§İ":7282,"à¦°à¦¬à¦¦à¦¨":7283,"à¦Ĩà¦ªà¦¡":7284,"à§İà¦¸à¦¤":7285,"à¦ıà¦ķà¦°":7286,"à¦°à¦ķà¦¬":7287,"à¦¬à¦°à¦°":7288,"Ġà¦¬à¦²à¦²à¦ł":7289,"à¦¼à¥¤âĢĺ":7290,"Ġà¦¹à¦²à¦«à¦¨":7291,"Ġà¦ĩà¦Ĺà¦²":7292,"Ġà¦ĩà¦°à¦Ĺ":7293,"Ġà¦ĩà¦²à¦¸":7294,"Ġà¦ĩà¦¹à¦ķ":7295,"Ġà¦ĩà¦ķà¦¨à¦®":7296,"à¦ĺà¦¦à¦°":7297,"à§Į,":7298,"Ġà¦ľà¦¨à¦ķà¦²":7299,"Ġà¦Ŀà¦®à¦Ŀà¦®":7300,"Ġà¦ıà¦¸à¦ıà¦¸à¦¸":7301,"âĢĵâĢĿ":7302,"à¦¤à¦¨à¦¯":7303,"Ġà¦ªà¦¥à¦ľ":7304,"Ġà¦ħà¦®à¦¸":7305,"à¦ķà¦°à¦²":7306,"à¦ķà¦°à¦¸":7307,"Ġà¦¹à§Łà¦°":7308,"à¦ķà¦Łà¦Ĺ":7309,"à¦ķà¦Łà¦®à§Ł":7310,"à¦¸à¦¬à¦¦":7311,"Ġà¦ħà¦¸à¦¬à¦°":7312,"à¦¤à¦¬à¦¸":7313,"à¦²à¦ķà¦®à¦²":7314,"à¦¨à¦¬à¦Ľà¦°":7315,"à¦¦à¦¨à¦¹":7316,"à¦Ĺà¦²à¦®":7317,"à¦Ĺà¦²à¦ªà¦¥":7318,"à¦Ĺà¦²à¦ľà¦¨à¦ķ":7319,"Ġà¦ľà¦²à¦¤à¦°à¦Ļ":7320,"à¦¿à¦ĤâĢĵ":7321,"à¦¹à¦¸à¦Ł":7322,"à¦²à¦¨à¦¦":7323,"Ġà¦ķà¦°à¦¬à¦ĩ":7324,"à¦¬à¦¤à¦²":7325,"Ġà¦¯à¦ĸà¦¨à¦¤à¦ĸà¦¨":7326,"à¦²à¦¬à¦¦à¦²":7327,"à¦°à¦ľà¦®":7328,"Ġà¦ħà¦ªà¦¹":7329,"à¦¸à¦¨à¦Ń":7330,"à¦ĩà¦¨à¦·":7331,"à¦ĩà¦¨à¦¹":7332,"à¦¨à¦¨à¦ķ":7333,"Ġà¦ħà¦ľà§Łà¦¦":7334,"âĢ¦!âĢĻ":7335,"Ġà¦°à¦Ļà¦¬":7336,"Ġà¦°à¦Ļà¦ĵ":7337,"Ġà¦°à¦Ļà¦ļà¦Ļ":7338,"Ġà¦īà§İà¦°":7339,"Ġà¦īà§İà¦¸à¦¬à¦ĩ":7340,"Ġà¦ªà¦¦à¦Ł":7341,"Ġà¦ªà¦¦à¦®à¦°":7342,"à¦®à¦°à¦§":7343,"à¦¦à§Łà¦¤":7344,"à¦¦à§Łà¦ª":7345,"à¦¦à§Łà¦ĩ":7346,"Ġà¦¬à¦ĩà¦ıà¦°":7347,"à§įâĢĮâĢĻ":7348,"Ġà¦«à¦²à¦²":7349,"à¦¤à¦®à¦®":7350,"à¦ªà¦ķà¦¤à¦°":7351,"Ġà¦ĩà¦¨à¦ª":7352,"Ġà¦Ĩà¦§à¦®à¦°":7353,"à¦¯à¦¸à¦Ń":7354,"Ġà¦ıà¦ķà¦¬à¦Ľà¦°":7355,"à¦¹à¦¨à¦Ĺà¦ŀ":7356,"à¦¸à¦«à¦°":7357,"Ġà¦¶à¦¤à¦¶à¦¤":7358,"à§ģ--":7359,"à¦¨à¦¸à¦¹à¦ķ":7360,"à¥¤âĢĻâĢĿ":7361,"à¦¯à¦°à¦Ļ":7362,"à¦¨à¦Ĺà¦®":7363,"à¦Ŀà¦²à¦¸":7364,"?âĢĻâĢĶ":7365,"à¦Ĩà¦°à¦Ĩà¦ĩ":7366,"Ġà¦¬à¦²à¦¬à§İ":7367,"à¦°à¦Ĺà¦ŀ":7368,"à¦°à¦®à¦£à¦ªà¦¥":7369,"Ġà¦°à¦ķà¦®à¦Ń":7370,"Ġà¦¦à¦¶à¦Ĺ":7371,"à§¨à§¦à§¦":7372,"à¦Ĩà¦²à¦¯":7373,"Ġà¦ļà¦ķà¦®":7374,"Ġà¦¬à¦īà¦¬":7375,"Ġà¦¬à§ľà¦²":7376,"à¦ªà¦£à¦¨":7377,"à¦ªà¦£à¦ķ":7378,"Ġà¦Īà¦Ļ":7379,"Ġà¦¶à¦¹à¦°à¦ĩ":7380,"Ġà¦¨à¦ľà¦°à¦¬à¦¨":7381,"Ġà¦ľà¦¬à¦ľà¦¬":7382,"Ġà¦ľà§Łà¦ľà§Łà¦ķ":7383,"à¦ĩà¦Ńà¦ĵà¦¯":7384,"à§©à§®":7385,"Ġtim":7386,"à¦®à¦ªà¦ŀ":7387,"à§ªà§©":7388,"Ġà¦¹à¦ĩà¦ļ":7389,"à¦Ĩà¦Ĺà¦®à¦¨":7390,"à¦£à¦ķà¦®à¦²":7391,"à¦¶à¦¤à¦¦à¦²":7392,"à¦¤à¦ĸà¦¨à¦ķ":7393,"à¦ĸà¦ķà¦·":7394,"Ġà¦®à¦¦à¦¨à¦¬":7395,"à¦¬à¦ľà¦¨à¦°":7396,"Ġà¦Ĭà¦¹":7397,"Ġà§¨à§Ń":7398,"Ġà¦Ĩà¦ļà¦°à¦£à¦ĩ":7399,"Ġà¦ĸà¦°à¦ļà¦ĵ":7400,"à¦ħà¦¬à¦¸à¦¨":7401,"ata":7402,"Ġà¦ķà¦Łà¦ķà¦Ł":7403,"à¦¸à¦ķà¦²à¦ĩ":7404,"Ġà¦ıà¦¡à¦Ń":7405,"à¦²à¦¦à¦¹":7406,"à¦¾!âĢĿâĢĶ":7407,"Ġà¦²à§ľà¦¤":7408,"à¦ªà¦Ĺà¦ª":7409,"Ġ?'":7410,"Ġà¦Ĩà¦Łà¦ļ":7411,"à¦ļà¦°à¦£à¦¶":7412,"Ġà¦Ĩà¦ĩà¦¨à¦¤":7413,"Ġà¦¤à¦ªà¦¨à¦ķ":7414,"Ġà¦ĩà¦Łà¦Ń":7415,"à¦¿âĢ¦.":7416,"Ġcount":7417,"Ġà¦®à¦°à¦£à¦¶":7418,"Ġoff":7419,"Ġpe":7420,"Ġpat":7421,"Ġpass":7422,"Ġà§©à§¬":7423,"edom":7424,"à¦¤à¦ļà¦°à¦¦":7425,"Ġfun":7426,"Ġà¦¶à¦¨à¦¶à¦¨":7427,"Ġà¦ķà¦¦à¦®à¦«":7428,"Ġà¦ļà§ľà¦¤":7429,"à§ĩâĢĿ,":7430,"Ġà¤®":7431,"Ġno":7432,"Ġà¦¨à¦Ĺà¦°à¦¬":7433,"oth":7434,"rah":7435,"rav":7436,"Ġà§§à§©à§¦":7437,"à¦®à¦«à¦²à¦ķ":7438,"ung":7439,"ĠSt":7440,"à¦°à¦¡à¦ĵà¦¯":7441,"Ġreg":7442,"cience":7443,"à¦¯à¦Łà¦ķà¦¦":7444,"Ġà§§à§¯à§¬à§Ń":7445,"Ġà§¨à§¦à§¦à§ª":7446,"Ġà¦ªà¦łà¦¨à¦ª":7447,"Ġnever":7448,"ered":7449,"--------":7450,"ĠÙĨ":7451,"ween":7452,"Ġà¦¥à¦ĩà¦¥à¦ĩ":7453,"Ġwhole":7454,"matic":7455,"Ġclass":7456,"Ġbetween":7457,"dvik":7458,"áĥĲáĥ":7459,"Ġà¦ĸà¦ļà¦°à¦ĸà¦ļà¦°":7460,"ĠNothing":7461,"Ġà¦«à¦ķà¦«à¦ķ":7462,"!\"":7463,"-âĢĻ":7464,"38":7465,"?)":7466,"eb":7467,"ng":7468,"oT":7469,"ook":7470,"ple":7471,"sha":7472,"uc":7473,"vol":7474,"Ð²":7475,"à¦¾...âĢĿ":7476,"à§ĩà§į":7477,"à¦¨à¦¬à¦²":7478,"à¦¨à¦Ĩà¦°":7479,"à¦¤à¦ŀ":7480,"à¦¤à¦¸à¦¤":7481,"à¦²à¦®à¦¯":7482,"à¦²à¦°à¦¤à¦¨":7483,"à¦ķà¦Ĺà¦¤":7484,"à¦¯à¦¤à¦¬":7485,"à¦¯à¦§à¦¨":7486,"à¦¯à§°":7487,"à¦¬à¦®à¦¤":7488,"à¦¬à¦¸à¦°":7489,"à¦¬à¦®à§Ł":7490,"à¦®à¦°à¦¬":7491,"à¦®à¦ļà¦Ł":7492,"à§ĭà¦¾":7493,"à§ĭâĢĿ,":7494,"Ġà¦ķà¦ķà¦Ł":7495,"Ġà¦¸à¦¶à¦ķ":7496,"à¦¸à¦¯à¦¨":7497,"à¦¸à¦ıà¦ķ":7498,"à¦¸à¦Ńà¦¯":7499,"Ġà¦ªà¦²à¦²":7500,"Ġà¦ªà¦¬à¦®":7501,"Ġà¦Ĩà¦ĩà¦¬":7502,"à¦¦à¦ķà¦°":7503,"à¦¦à¦Ĺà¦¤":7504,"à¦¦à¦ľà¦Ĺà¦¤":7505,"à¦Łà¦Ļ":7506,"à¦Łà¦°à¦ķ":7507,"à¦Łà¦¬à¦¸":7508,"à¦Łà¦¬à¦ķ":7509,"à¦Łà¦Ńà¦°":7510,"Ġà¦¨à¦¨à¦¸":7511,"Ġà¦¨à¦ĸà¦°":7512,"Ġà¦¨à¦ĵà¦²":7513,"Ġà¦®à¦Ŀ":7514,"Ġà¦®à¦ĵà¦ķ":7515,"à¦ªà¦°à¦¤":7516,"à¦ªà¦ĺ":7517,"à¦ªà¦¸à¦¨":7518,"à¦ªà¦¸à¦¤":7519,"à¦ªà¦§à¦°":7520,"à¦ªà¦īà¦·":7521,"à¦ĩà¦ķà¦²":7522,"à¦ĩà¦®à¦°":7523,"à¦ĩà¦ľà¦°":7524,"à§Ģ/":7525,"Ġà¦¦à¦ľ":7526,"Ġà¦¦à¦¦à¦°":7527,"à¦ľà¦¤à¦¤":7528,"à¦ľà¦ĺà¦°":7529,"à¦ľà¦Ńà¦¯":7530,"Ġà¦¤à¦ŀ":7531,"Ġà¦¤à¦¸à¦²":7532,"à¦¶à¦®à§Ł":7533,"à¦¶à¦Ńà¦Ļ":7534,"à¦¼à§ĩà¦¾":7535,"à¦¼à§ĩâĢĿ":7536,"à¦¼à§ĩ!âĢĿ":7537,"Ġà¦ħà¦ķà¦²à¦Ļ":7538,"à¦ĸà¦Ńà¦Ļ":7539,"à¦Ĺà¦¬à¦°":7540,"à¦Ĺà¦¤à¦¬":7541,"à¦Ĺà¦®à¦¤":7542,"à¦Ĺà¦£à¦¨":7543,"à¦Ĺà¦¯à¦ľ":7544,"à¦·à¦¦à¦°":7545,"à¦·à¦¬à¦¦":7546,"à¦§à¦ĸ":7547,"à¦§à¦§":7548,"à¦§à¦Ĺà¦¤":7549,"à¦§à¦®à¦¤":7550,"à¦§à¦¤à¦®":7551,"à¦§à¦®à§Ł":7552,"à¦¡à¦¬à¦ķ":7553,"à¦¡à¦²à¦¸":7554,"à¦¡à¦²à¦Ĺ":7555,"à¦ļà¦«":7556,"à¦ļà¦®à¦¤":7557,"à¦ļà¦¶à¦¬":7558,"à¦ļà¦¤à¦¤":7559,"à¦ļà¦ľà¦¨à¦ķ":7560,"à¦¹à¦Ńà¦Ļ":7561,"Ġà¦ķà¦°à¦¸":7562,"Ġà¦Ĺà¦ªà¦Ĺà¦ª":7563,"à¦£à¦ªà¦¤":7564,"à¦¥à¦Ļ":7565,"Ġà¦ľà¦ªà¦¤":7566,"Ġà¦ľà¦°à¦ľà¦°":7567,"Ġà¦Ńà¦¨à¦Ńà¦¨":7568,"Ġà¦°à¦¨à¦ķ":7569,"Ġà¦°à¦ĩà¦¤":7570,"Ġà¦°à¦ľà¦¬":7571,"à§ĩà¥¤(":7572,"à¦¼à¦¾?âĢĿ":7573,"ĠĠĠ":7574,"Ġà¦Ĩà¦®à¦ļ":7575,"Ġà¦Ĩà¦®à¦°à¦£":7576,"Ġà¦Ĩà¦®à¦¤à¦²":7577,"à¦łà¦Ńà¦°":7578,"Ġà¦īà¦¶à¦ķ":7579,"à¦¾à¦ģâĢĻ":7580,"Ġà¦ĵà¦¨à¦²":7581,"Ġà¦«à¦Łà¦«à¦Ł":7582,"Ġà¦Ĩà¦°à¦Ł":7583,"à¦°à¦¤à¦ªà¦ķ":7584,"à¦¾à¥¤(":7585,"à¦¾à¥¤âĢĵ":7586,"Ġà¦§à¦¨à¦ķ":7587,"Ġà¦§à¦¨à¦²":7588,"à¦¼à¦¿à¥¤âĢĿ":7589,"à§ľà¦¶":7590,"à¦ªà¦°à¦¬à¦¶":7591,"à¦°à¦£à¦¶":7592,"à¦®à¦¨à¦®":7593,"à¦Ŀà¦Ĺà¦¡":7594,"à¦ľà¦¨à¦°":7595,"à¦ŀà¦ķà¦°":7596,"à¦«à¦ĵ":7597,"à¦īà¦°à¦²":7598,"à¦īà¦ªà¦¦":7599,"à¦īà¦ıà¦°":7600,"à¦īà¦¥à¦²":7601,"à¦īà¦ªà¦®":7602,"à¦¿,--":7603,"à¦ªà¦¨à¦¬":7604,"à¦ªà¦¨à¦¦":7605,"Ġà¦Ĩà¦²à¦ķ":7606,"à¦°à¦¬à¦ĩ":7607,"à¦°à¦¬à¦²à¦¤":7608,"à¦Ĩà¦°à¦¶":7609,"à¦Ĩà¦¸à¦®":7610,"à¦Ĩà¦¬à¦¹":7611,"à¦Ĩà¦Łà¦Ł":7612,"à¦Ĩà¦«à¦¸":7613,"à§İà¦¹":7614,"à§İà¦ªà¦¦":7615,"à¦¬à¦°à¦¸à¦Ń":7616,"Ġà¦¬à¦²à¦²à¦ļà¦²":7617,"Ġà¦¹à¦²à¦®":7618,"Ġà¦¹à¦²à¦ĩ":7619,"Ġà¦¡à¦ľ":7620,"ĠâĢľâĢ¦":7621,"à¦ĺà¦«":7622,"à¦ĺà¦°à¦¬":7623,"Ġà¦®à¦¤à¦ķ":7624,"Ġà¦ľà¦¨à¦°":7625,"Ġà¦ħà¦¬à¦¦à¦®":7626,"Ġà¦łà¦¨":7627,"Ġà¦łà¦Ĺ":7628,"Ġà¦ıà¦¸à¦ıà¦®à¦ıà¦¸":7629,"à¦ħà¦¡":7630,"à¦ħà¦§à¦®":7631,"Ġà¦¬à¦¨à¦¨":7632,"Ġà¦¬à¦¨à¦ļ":7633,"à¦ķà¦²à¦Ĺ":7634,"à¦ķà¦Łà¦ĩ":7635,"Ġà¦ħà¦¸à¦®à¦°":7636,"Ġà¦ħà¦¸à¦®à§Ł":7637,"à¦¯à¦¬à§Łà¦¸":7638,"à¦°à¦¥à¦ķ":7639,"à¦¤à¦¬à¦¸à¦®":7640,"à¦¨à¦¬à§İ":7641,"à§ĭ,-":7642,"Ġà¦Ĩà¦¶à¦®":7643,"Ġà¦¹à¦¤à¦¦à¦°":7644,"Ġà¦¬à¦°à¦ª":7645,"à¦°à¦¥à¦®à¦ª":7646,"Ġà¦ıà¦²à¦®":7647,"Ġà¦ħà¦¦à¦²à¦¬à¦¦à¦²":7648,"à¦Ĩà¦®à¦°à¦£":7649,"Ġà¦ħà¦°à¦«":7650,"Ġà¦ħà¦¤à¦ķ":7651,"Ġà¦ħà¦¤à¦Ĺ":7652,"à¦¯à¦ķà¦¶":7653,"à¦°à¦¹à¦®":7654,"à¦°à¦¹à¦¹":7655,"Ġà¦ĺà¦°à¦ĩ":7656,"Ġà¦īà¦ªà¦¬à¦¨":7657,"Ġà¦īà¦ªà§ľ":7658,"à¦°à¦¶à¦¤":7659,"à¦ĩà¦²à¦ļ":7660,"à¦²à¦¬à¦¬":7661,"à§ĩâĢĶâĢĿ":7662,"à¦°à¦ľà¦Ĺà§İ":7663,"à¦¼à§ĭ?":7664,"Ġà¦¸à¦¹à¦Ĺ":7665,"Ġà¦¸à¦¹à¦®à¦°à¦£":7666,"à¦°à¦ĩà¦¬":7667,"à¦¸à¦¨à¦ªà¦¤":7668,"à¦ķà¦¬à¦ķ":7669,"à¦¸à¦®à¦¬":7670,"à¦Łà¦ķà¦ķ":7671,"Ġà¦Ĳà¦ķà¦¤":7672,"Ġà¦īà§İà¦ªà¦²":7673,"Ġà¦ªà¦¦à¦®":7674,"à¦ªà¦¦à¦¤à¦²":7675,"à¦ªà¦¦à¦¸à¦Ļ":7676,"à¦¦à§Łà¦ľ":7677,"à¦¿?-":7678,"Ġà¦¶à¦¹à¦°à¦ĵ":7679,"à¦°à¦ªà¦ŀ":7680,"à¦·à¦¤à¦Ł":7681,"à¦¯à¦®à§Łà¦¤":7682,"à¦¨à¦Łà¦°":7683,"Ġà¦ĩà¦¨à¦¹":7684,"Ġà¦Ĩà¦§à¦¬":7685,"Ġà¦ħà¦²à¦®":7686,"Ġà¦ħà¦²à¦Ĺ":7687,"à¦¸à¦ķà¦®":7688,"à¦¸à¦ķà¦¶":7689,"à¦¸à¦«à¦¡":7690,"à¦¸à¦«à¦Łà¦ĵà¦¯":7691,"Ġà¦¦à¦²à¦ĵ":7692,"à¥¤âĢĻâĢĻ":7693,"à¦ĩà¦Łà¦¹":7694,"Ġà¦¸à¦¹à¦ľà¦¸":7695,"Ġà¦¸à¦®à§Łà¦ĵ":7696,"à§İà¦¸à¦¹":7697,"à§ĩâĢĵâĢĵ":7698,"à¦°à¦¹à¦£à¦ĩ":7699,"Ġà¦ķà¦¨à¦Ńà¦¯":7700,"à¦®à¦¸à¦¹":7701,"à¦Ĩà¦²à¦Ĺ":7702,"Ġà¦Ĺà¦£à¦¯":7703,"Ġà¦Ĺà¦£à¦¬":7704,"Ġà¦Ĺà¦£à¦ª":7705,"à§Ģ---":7706,"Ġà¦¬à§ľà¦¸à§ľ":7707,"Ġà¦°à¦¸à¦¶":7708,"à¦¡à¦²à¦«":7709,"Ġà¦Īà¦¸":7710,"à¦¾âĢĻ!":7711,"à¤¼":7712,"à¤ģ":7713,"à¦łà¦ķà¦ĩ":7714,"à¦¤à¦ªà¦ŀ":7715,"à¦¥à¦²à¦Ń":7716,"à¦²à¦Ńà¦ª":7717,"à¦¸à¦¹à¦ļà¦°":7718,"à¦°à¦«à§İ":7719,"à¦ļà§Łà¦ªà¦¤":7720,"ank":7721,"à¦¬à¦®à¦Ļ":7722,"Ġà§¨à§©":7723,"Ġà§¨à§¯":7724,"Ġà¦Ĩà¦ļà¦°à¦£à¦Ĺà¦¤":7725,"Ġà¦ľà¦Ĺà¦¬à¦¨":7726,"à¦¾à¦ĥâĢĵ":7727,"ather":7728,"Ġà¦ħà¦¬à¦¨à¦®à¦¨":7729,"à§®à§¦":7730,"Ġà¦ļà¦°à¦®à¦Ń":7731,"Ġà¦°à¦«à¦¤":7732,"ished":7733,"ita":7734,"à¦¾âĢ¦.":7735,"Ġ?\"":7736,"à¦¸à¦Ńà¦¬à¦¨":7737,"à¦¿âĢ¦?âĢĿ":7738,"Ġà¦Ĩà¦«à¦¶":7739,"Ġac":7740,"Ġact":7741,"Ġcr":7742,"à¦¬à¦Ĺà¦ŀ":7743,"Ġword":7744,"ora":7745,"Ġmost":7746,"à¦¶à¦¹à¦°à¦¤à¦²":7747,"à¦¼à¦¿à¦Ĥ-":7748,"Ġfound":7749,"ÂłÂłÂłÂłÂłÂłÂłÂłÂłÂłÂłÂłÂłÂłÂłÂłÂłÂłÂłÂłÂłÂłÂłÂł":7750,"Ġà¦¨à§ľà¦¤":7751,"Ġà¦¨à§ľà¦²":7752,"Ġà¦ĩà¦īà¦ıà¦¸à¦¬":7753,"Ġà¦¶à¦¶à¦§à¦°":7754,"Ġhand":7755,"Ġà§¨à§¦à§¦à§¦":7756,"Ġà¤Ĺ":7757,"à¦Īà¦®":7758,"à¦īà¦ªà¦²à¦¬":7759,"allen":7760,"ĠPintu":7761,"à¦¿'!":7762,"Ġà¦¥à¦²à¦¥à¦²":7763,"Ġà¦Ńà¦Łà¦ļ":7764,"Ġà¦īà¦ĩà¦²à¦¸à¦¨":7765,"à¦¯à¦ľà¦¨à¦ķà¦Ń":7766,"Ġà¦Ĺà¦łà¦¨à¦ķ":7767,"à¦£à¦ļà¦ŀ":7768,"Ġà¦¸à¦¯à¦¤à¦¨":7769,"ural":7770,"Ġbeen":7771,"osit":7772,"Ġà§§à§¯à§ªà§¯":7773,"à§İà¦¸à¦ķà¦¦":7774,"Ġnothing":7775,"Ġà§§à§Ńà§«à§¬":7776,"Ġà§§à§¯à§®à§«":7777,"agore":7778,"Ø§ÙĦ":7779,"Ġval":7780,"Ġà§§à§¯à§¨à§©":7781,"Ġà¦¬à¦°à¦¬à§°":7782,"Ġà¦ªà¦ļà¦¨à¦¶":7783,"Ġtruth":7784,"Ġcomm":7785,"Ġinto":7786,"Ġà¦Ńà¦°à¦£à¦ª":7787,"ought":7788,"Ġdoes":7789,"ology":7790,"ÂŃÂŃÂŃÂŃÂŃÂŃÂŃÂŃÂŃÂŃÂŃÂŃÂŃÂŃÂŃÂŃ":7791,"ºçľºçľºçľºçľºçľºçľºçľºçľ":7792,"âĢĵâĢĵâĢĵâĢĵâĢĵâĢĵâĢĵâĢĵâĢĵâĢĵâĢĵâĢĵâĢĵâĢĵâĢĵâĢĵ":7793,"·çľ·çľ·çľ·çľ·çľ·çľ·çľ·çľ":7794,"arning":7795,"Ġworld":7796,"Ġsociety":7797,"Ġabstract":7798,"à¦¸à¦¹à¦¨à¦¶":7799,"hilos":7800,"ĠSocial":7801,"ipsism":7802,"'-":7803,".)":7804,"40":7805,"43":7806,"45":7807,"EC":7808,"ED":7809,"EN":7810,"GO":7811,"IoT":7812,"ON":7813,"RA":7814,"bor":7815,"co":7816,"che":7817,"ex":7818,"ft":7819,"ful":7820,"ire":7821,"ja":7822,"land":7823,"mal":7824,"pe":7825,"pend":7826,"wn":7827,"Ð´":7828,"×ķ":7829,"ÙĬ":7830,"âĤ":7831,"âĭ":7832,"ìĿ":7833,"ĠY":7834,"ĠÕ":7835,"à§ĩ(":7836,"à§ĩà¦ĥà¥¤":7837,"à¦°à¦°à¦¸":7838,"à¦°à¦Ńà¦¬":7839,"à¦°à¦īà¦ĩà¦¨":7840,"à§į:":7841,"à¦¿à§į":7842,"à¦¨à¦ªà¦°":7843,"à¦¨à¦¨à¦¬":7844,"à¦¤à¦ķà¦²":7845,"à¦¤à¦ĸà¦¤":7846,"à¦¤à¦®à¦°":7847,"à¦¤à¦¦à¦²":7848,"à¦¤à¦ľà¦¬":7849,"à¦²à¦¸à¦¬":7850,"à¦²à¦¦à¦°":7851,"à¦²à¦Ĺà¦¨":7852,"à¦²à¦°à¦Ļ":7853,"à¦ķà¦ªà¦¨":7854,"à¦ķà¦°à¦®":7855,"à¦¯à¦ķà¦¤":7856,"à¦¯à¦ļà¦ķ":7857,"à¦¯à¦¹à¦®":7858,"à¦¬à¦¬à¦²":7859,"à¦¬à¦®à¦£":7860,"à¦¬à¦Ńà¦°":7861,"à¦¼...":7862,"à¦¼)à¥¤":7863,"à¦®à¦®à¦Ĺ":7864,"à¦®à¦Ńà¦Ļ":7865,"à§ĭà¥¥":7866,"à§ĭ...":7867,"Ġà¦ķà¦Łà¦ķ":7868,"Ġà¦¸à¦ĩà¦Ľ":7869,"Ġà¦¸à§Łà¦²":7870,"à¥¤âĢĶ":7871,"à¦¸à¦°à¦®":7872,"à¦¸à¦°à¦¶":7873,"à¦¸à¦¨à¦ĵ":7874,"Ġà¦ªà¦®":7875,"Ġà¦ªà¦¦à¦¨":7876,"Ġà¦Ĩà¦Łà¦¨à¦®":7877,"à¦¦à¦ľà¦¨":7878,"à¦¦à¦°à¦¸":7879,"à¦¦à¦²à¦¤":7880,"à¦¦à¦¤à¦¤":7881,"à¦¦à¦ªà¦Ł":7882,"à¦Łà§Ł":7883,"à¦Łà¦¶à¦ķ":7884,"à¦Łà¦®à¦¸":7885,"Ġà¦¨à¦ĵà¦¯":7886,"Ġà¦®à¦Ĺà¦°":7887,"Ġà¦®à¦Ĺà¦¡":7888,"Ġà¦®à§ľà¦ķ":7889,"Ġà¦®à¦Īà¦¨":7890,"à¦ªà§Ł":7891,"à¦ªà¦Ľà¦¨":7892,"à¦ĩà¦ķà¦Ł":7893,"à¦ĩà¦ĵà§Ł":7894,"à¦ĩà¦ªà¦²":7895,"à¦ĩà¦ľà¦¨à¦ķ":7896,"à¦ľà¦°à¦ķ":7897,"à¦ľà¦¬à¦°":7898,"à¦ľà¦¬à¦²":7899,"à¦ľà¦¤à¦²":7900,"à¦ľà¦¬à¦¦":7901,"Ġà¦¹à¦°à¦¬":7902,"Ġà¦¹à¦°à¦¹":7903,"Ġà¦¹à¦®à¦ķ":7904,"Ġà¦¹à¦°à¦¦à¦®":7905,"Ġà¦ıà¦¨à¦ĵ":7906,"Ġà¦ıà¦¤à¦°à¦ķà¦®":7907,"à¦¶à¦ķà¦Ł":7908,"à¦¶à¦ªà¦¤":7909,"à¦¶à¦¤à¦ķ":7910,"à¦¶à¦¤à¦®":7911,"à¦¶à§Łà¦¤":7912,"à¦ĸà¦Ŀ":7913,"à¦ĸà¦°à¦¦":7914,"à¦·à¦¤à¦°":7915,"à¦¡à¦ĸ":7916,"à¦¹à¦¡":7917,"à¦¹à¦¬à¦²":7918,"à¦¹à¦Ĺà¦¤":7919,"à¦¹à¦²à¦¬à¦¶à¦¤":7920,"à§Łà¦ª":7921,"à§Łà¦®à¦¨":7922,"Ġà¦Ĺà¦ľà¦°":7923,"à¦ģ?":7924,"à¦¥à¦ĸ":7925,"à¦¥à¦²à¦¨":7926,"à¦¥à¦®à¦¯":7927,"à¦¥à¦¨à¦ķ":7928,"à¦¥à¦¬à¦¦":7929,"Ġà¦ļà¦®à¦¤":7930,"Ġà¦ļà¦ĵà§ľ":7931,"Ġà¦°à¦¸à¦°":7932,"Ġà¦°à¦Łà¦²":7933,"Ġà¦°à¦¸à¦®à¦¯":7934,"Ġà¦°à¦®à¦ľ":7935,"Ġà¦°à¦¡à¦Ł":7936,"à¦ĵà¦ĺà¦°":7937,"à¦Ńà¦Ń":7938,"à¦Ńà§İà¦¸à¦¤":7939,"Ġà¦ıà¦ķà¦ıà¦ķ":7940,"Ġà¦ıà¦ķà¦¶à¦¤":7941,"à¦¼à¦¾âĢ¦âĢĿ":7942,"à¦¼à¦¾âĢĻà¥¤":7943,"Ġà¦Ľà¦Ĺà¦¨":7944,"Ġà¦Ľà¦ĩà¦¯":7945,"à¦łà¦ł":7946,"Ġà¦īà¦¸à¦ĸ":7947,"à§Ĥà¦ĥ":7948,"Ġà¦²à¦ķà¦Ł":7949,"Ġà¦²à¦ĩà¦¤":7950,"Ġà¦ĵà¦®à¦²":7951,"Ġà¦«à¦·":7952,"Ġà¦«à¦°à¦¹":7953,"Ġà¦«à¦°à¦Ĺ":7954,"Ġà¦ĸà¦¶":7955,"à¦¾à¥¤)":7956,"Ġà¦ªà¦°à¦Ĺ":7957,"Ġà¦ªà¦°à¦ľà¦¨":7958,"Ġà¦ªà¦°à¦¶à¦¨":7959,"à¦¬à¦¨à¦²":7960,"à¦¼à¦¿'":7961,"à¦¼à¦¿?âĢĻ":7962,"à§ľà¦ľ":7963,"Ġà¦ĺà¦¨à¦ķ":7964,"à¦°à¦£à¦°":7965,"à¦°à¦£à¦¸à¦®":7966,"à¦¿à¥¤âĢ¦":7967,"à¦ľà¦¨à¦¯":7968,"à¦«à¦¹":7969,"à¦«à¦°à¦ķ":7970,"à¦īà¦°à¦¤":7971,"à¦īà¦¬à¦¯":7972,"à¦īà¦Ľà¦²":7973,"à¦īà¦ªà¦¯":7974,"à¦īà¦ªà¦¬":7975,"à¦īà¦ªà¦ľ":7976,"à¦ªà¦¨à¦ĩ":7977,"à¦Ĩà¦ĩà¦¯":7978,"à¦Ĩà¦ĩà¦¶":7979,"à¦Ĩà¦ĸà¦¡":7980,"à§İà¦Ĺà¦¤":7981,"à§İà¦Ľà¦²":7982,"Ġà¦¸à¦¬à¦°":7983,"à¦¬à¦°à¦ŀ":7984,"à¦¬à¦°à¦®à¦¯":7985,"Ġà¦¬à¦²à¦²à¦ĵ":7986,"Ġà¦Łà¦²à¦Ľ":7987,"âĢĻ;":7988,"Ġà¦ķà¦¥à¦ķà¦ł":7989,"Ġà¦¡à¦®":7990,"Ġà¦¡à¦Ĺà¦®à¦Ĺ":7991,"Ġà¦ĩà¦īà¦®":7992,"à¦ĺà¦¯":7993,"à¦ĺà¦®à¦²":7994,"à¦ĺà¦ªà¦¥":7995,"à¦ĺà¦Ńà¦°":7996,"Ġà¦ľà¦¨à¦¯":7997,"Ġà¦ľà¦¨à¦¬à¦²":7998,"Ġà¦ľà¦¨à¦¬à¦¹":7999,"à¦¬à¦²à¦ĵ":8000,"à¦¬à¦²à¦¤à¦®":8001,"Ġà¦ħà¦¬à¦¬":8002,"à¦°à¦®à¦Ł":8003,"à¦°à¦®à¦ªà¦¦":8004,"à§ģà¦ģ-":8005,"à¦·à¦£à¦¯":8006,"Ġà¦ıà¦¸à¦Ľ":8007,"à¦¤à¦¨à¦®":8008,"à¦ĥâĢĶ":8009,"à¦ħà¦ĩ":8010,"à¦ħà¦°à¦¬":8011,"à¦ħà¦ªà¦Ł":8012,"à¦ħà¦¸à¦®à¦¯":8013,"à¦ħà¦ķà¦¥":8014,"Ġà¦¬à¦¨à¦ª":8015,"Ġà¦¬à¦¨à¦¬à¦¨":8016,"Ġà¦¬à¦¨à¦Ĺà¦®à¦¨":8017,"à¦ķà¦²à¦°":8018,"à¦ķà¦²à¦ķà¦²":8019,"à¦ķà¦Łà¦ĵ":8020,"à¦ķà¦Łà¦ľà¦¨à¦ķ":8021,"à¦¯à¦¬à¦¸à¦¤":8022,"à§ĭà¥¤\"":8023,"Ġà¦Ĩà¦ķà¦Ľ":8024,"à¦¤à¦¬à¦Ł":8025,"à¦¤à¦¬à¦ľ":8026,"à¦°à¦¸à¦ª":8027,"à¦¨à¦¬à¦¦à¦²":8028,"à¦¦à¦¨à¦§":8029,"à¦¦à¦¨à¦®à¦¯":8030,"Ġà¦¬à¦°à¦ĸ":8031,"à§ĩ?'":8032,"à§ĩ?âĢ¦":8033,"à¦Ĩà¦®à¦Ĺ":8034,"à¦¿à¦Ĥ?":8035,"à¦¿à¦ĤâĢ¦":8036,"à¦¿à¦Ĥà¥¤âĢĻ":8037,"à¦¶à¦¨à¦°":8038,"à¦¯à¦ķà¦£":8039,"Ġà¦¸à¦¨à¦¦à¦ªà¦¤":8040,"Ġà¦®à¦¹à¦¬":8041,"à¦¬à¦¤à¦¤":8042,"à¦¯à¦¤à¦Ł":8043,"à¦ĸà¦²à¦Ń":8044,"à¦°à¦ľà¦¯":8045,"à¦°à¦ľà¦Ń":8046,"Ġà¦ħà¦ªà¦¶à¦ķ":8047,"Ġà¦ķà¦²à¦§":8048,"à¦¼à§ĭ!":8049,"Ġà¦īà¦¤à¦¥":8050,"à¦¿à¦ĥ!":8051,"à¦¸à¦¨à¦¸":8052,"à¦¸à¦¨à¦ĩ":8053,"à¦ıà¦ĩà¦ľà¦¨":8054,"à¦ıà¦ĩà¦ļà¦¡":8055,"Ġà¦ķà¦¬à¦Ľà¦°":8056,"à¦¸à¦®à¦£":8057,"à¦Łà¦ķà¦ĵ":8058,"à¦¹à¦²à¦ª":8059,"à¦¹à¦²à¦ĵ":8060,"Ġà¦Ĳà¦ļ":8061,"Ġà¦ķà¦¤à¦ľà¦¨à¦ķ":8062,"à¦¾âĢĶâĢĿ":8063,"à¦Ĺà¦°à¦ĸ":8064,"à¦Ĺà¦°à¦Ĺ":8065,"à§ĩ!\"":8066,"à§ĩ!(":8067,"Ġà¦īà§İà¦ķà¦²":8068,"Ġà¦īà§İà¦¸à¦®":8069,"Ġà¦ªà¦¦à¦²":8070,"Ġà¦ªà¦¦à¦¦à¦²":8071,"à¦°à¦Ńà¦ŀ":8072,"à¦¸à¦°à¦²à¦¤":8073,"à¦ªà¦¦à¦¦":8074,"à¦ªà¦¦à¦¶":8075,"à¦¦à§Łà¦Ĺ":8076,"à¦¦à§Łà¦ĵ":8077,"à¦ªà¦¥à¦ª":8078,"à¦¼à§ĩà¥¤à¥¤":8079,"à¦ıà¦ķà¦«":8080,"à¦¬à¦¸à¦²":8081,"à¦·à¦¤à¦ĩ":8082,"à¦·à¦ķà¦Ĺà¦£":8083,"à¦¤à¦ķà¦¥":8084,"à¦¾!'":8085,"à¦ªà¦ķà¦¨":8086,"à¦ľà¦²à¦®":8087,"à§Łà¦¨à¦¶":8088,"à§ģâĢĻâĢĵ":8089,"à¦¯à¦¦à¦¶":8090,"à§°à¦£":8091,"Ġà¦¦à¦²à¦Ľ":8092,"à¦¼à§Ģ-":8093,"à¦ĩà¦¤à¦¸":8094,"?âĢĿâĢĵ":8095,"à¦«à¦²à¦ĩ":8096,"à¦ĩà¦Łà¦¨":8097,"à¦īà¦²à¦¸":8098,"à¦īà¦²à¦ĩ":8099,"à¦¿!)":8100,"Ġà¦ķà¦¨à¦ľ":8101,"à¦°à¦Ĺà¦łà¦¨":8102,"à¦°à¦®à¦£à¦¸à¦Ļ":8103,"Ġà¦¦à¦¶à¦¤à¦²":8104,"à¦®à§Łà¦¦":8105,"à¦®à¦Łà¦°":8106,"Ġà¦¬à¦īà¦Ĺ":8107,"Ġà¦¬à¦īà¦Ń":8108,"Ġà¦ĵà¦ķà¦¥":8109,"à¦®à¦¹à¦ķ":8110,"à¦®à¦¹à¦¨à¦¨":8111,"Ġà¦Īà¦Ĺà¦°à¦ķ":8112,"à¦ķà¦°à¦£à¦¯":8113,"à¦¬à¦¹à¦Ń":8114,"à¦¶à¦®à¦¶":8115,"Ġà§§à§¯à§§à§®":8116,"Ġà¦¸à¦°à¦²à¦°":8117,"à§©à§¬":8118,"à§Ńà§®":8119,"à§ªà§¯":8120,"Ġà¦¬à¦¸à¦¨à¦ĸ":8121,"à¦·à§Łà¦Ń":8122,"inu":8123,"inal":8124,"any":8125,"à¦ľà¦Ĺà¦łà¦¨":8126,"à¦¶à¦¤à¦¬à¦°":8127,"à¦¦à¦¬à¦¦à¦²":8128,"à¦¬à¦ľà¦¨à¦¹":8129,"reat":8130,"à¦ħà¦¬à¦Ĺ":8131,"attle":8132,"à§¯à§¦":8133,"à§®à§ª":8134,"à¦Ĩà¦¸à¦Ĺà¦°":8135,"Ġà¦°à¦ľà¦¤à¦ĵ":8136,"à¦¬à§Łà¦ĩ":8137,"Ġover":8138,"Ġà¦Ĩà¦Łà¦ĸ":8139,"Ġà¦Ĩà¦Łà¦ĺ":8140,"à¦ļà¦°à¦£à¦ķ":8141,"Ġsm":8142,"Ġà¦Ĩà¦ĩà¦·à¦®":8143,"à¦¸à¦°à¦£à¦ķ":8144,"Ġcould":8145,"Ġwhen":8146,"ork":8147,"à¦ľà¦Ĺà¦¤à¦ķ":8148,"Ġmat":8149,"Ġmore":8150,"Ġmuch":8151,"à¦¿âĢĿ,":8152,"à¦¿âĢĿ-":8153,"Ġpre":8154,"Ġpur":8155,"à¦Ĩà¦§à¦ĸ":8156,"à¦£à¦Ĺà¦ŀ":8157,"à¦ªà¦ķà¦¥à¦¨à¦ĩ":8158,"Ġà§©à§¯":8159,"à¦¼à¦¿à¦Ĥ,":8160,"à¦¼à¦¿à¦Ĥà¥¤":8161,"à¦Ńà¦°à¦¤à¦¬":8162,"Ġfe":8163,"ason":8164,"Ġdist":8165,"Ġà¦ĩà¦īà¦ıà¦¸":8166,"Ġà§§à§¯à§Ńà§¨":8167,"Ġhor":8168,"à¦īà¦¬à¦ĵà¦¯":8169,"Ġà§¨à§¦à§§à§©":8170,"Ġà¤µ":8171,"Ġà¤¹":8172,"Ġà¤ħ":8173,"Ġà¤ķ":8174,"à¦Ĺà¦łà¦¨à¦ķ":8175,"Ġinst":8176,"ĠIt":8177,"Ġthink":8178,"Ġà§ªà§Ń":8179,"ĠAdvik":8180,"ething":8181,"Ġà¦ĺà¦·à¦Ľ":8182,"ĠMy":8183,"áĥĶ":8184,"ations":8185,"ĠRah":8186,"Ġà§§à§¯à§ªà§®":8187,"Ġà¦ıà¦«à¦¬":8188,"ident":8189,"Ġgr":8190,"ower":8191,"Ġ|'":8192,"Ġà¦Ĩà¦īà¦Łà¦ª":8193,"Ġà¦Ĺà¦²à¦¦à¦ĺà¦°":8194,"Ġà§¯à§¯":8195,"Ġà§§à§¯à§¯à§¨":8196,"ĠNGO":8197,"Ġà§§à§¨à§¦à§¦":8198,"Ġà§§à§«à§¦":8199,"cious":8200,"Ġà§§à§¯à§®à§¦":8201,"Ø§Ø±":8202,"Ġà§§à§¯à§¬à§«":8203,"indu":8204,"ĠÐ¿":8205,"Ġany":8206,"ĠØª":8207,"resent":8208,"Ġnew":8209,"Ġà§§à§¯à§¨à§¨":8210,"Ġà§§à§¯à§¨à§¯":8211,"à¦¤à¦°à¦«à¦¦":8212,"Ġmany":8213,"Ġà§§à§¯à§©à§§":8214,"à¦ĩà¦īà¦Ń":8215,"Ġcomp":8216,"à¦ĩà¦¨à¦«à¦°à¦®":8217,"Ġatt":8218,"Ġshall":8219,"ivide":8220,"à¦¦à¦«à¦¤à¦°":8221,"Ġbecom":8222,"port":8223,"Ġliterature":8224,"ĠRupsha":8225,"áĥĺáĥ":8226,"ĠâĨ":8227,"velop":8228,"crete":8229,"Ġtime":8230,"allenge":8231,"hilosop":8232,"âĭ¯":8233,"Ġà¦ıà¦¨à¦ĵà¦¸":8234,"Ġà¦Ľà¦Ĺà¦¨à¦²":8235,"41":8236,"42":8237,"44":8238,"47":8239,"Fi":8240,"II":8241,"In":8242,"ITI":8243,"OC":8244,"aut":8245,"ause":8246,"con":8247,"de":8248,"den":8249,"digital":8250,"ga":8251,"ght":8252,"io":8253,"ix":8254,"ira":8255,"mb":8256,"ms":8257,"oet":8258,"rat":8259,"ric":8260,"rong":8261,"to":8262,"ves":8263,"wo":8264,"yes":8265,"yond":8266,"Â°":8267,"Ã¡":8268,"Ø³":8269,"Ùģ":8270,"ÙĤ":8271,"áŀ":8272,"âģ":8273,"Ġ0":8274,"Ġra":8275,"Ġà¦£":8276,"à§ĩà¦¾à¥¤":8277,"à§ĩÂŃ":8278,"à¦°à¦¨à¦¤":8279,"à¦°à¦²à¦¬":8280,"à¦°à¦īà¦¦":8281,"à§į!âĢĻ":8282,"à¦¨à¦ĩà¦¨":8283,"à¦¨à¦¸à¦ķ":8284,"à¦¨à¦®à¦§":8285,"à¦¨à¦ĸà¦ļ":8286,"à¦¤à¦ł":8287,"à¦¤à¦ĵà¦¯":8288,"à¦¤à¦ķà¦Ł":8289,"à¦¤à¦¸à¦°":8290,"à¦¤à¦¸à¦Ļ":8291,"à¦²à¦¸à¦¨":8292,"à¦ķà¦®à§Ł":8293,"à¦¯à¦ĸà¦£":8294,"à§ģâĢĿà¥¤":8295,"à¦¬à¦Ĺà¦²":8296,"à¦¬à¦§à¦¨":8297,"à¦¬à¦¹à¦°":8298,"à¦¬à¦īà¦¯":8299,"à¦®à¦Ĩà¦®":8300,"à¦®à¦ħà¦¨":8301,"à¦®à¦īà¦¨":8302,"à¦®à¦łà¦¤":8303,"à§ĭ'":8304,"à§ĭâĢĻâĢĶ":8305,"Ġà¦ķà¦ľ":8306,"Ġà¦ķà¦ĸ":8307,"Ġà¦¸à¦ĸà¦¨":8308,"Ġà¦¸à¦ªà¦¥":8309,"Ġà¦¸à¦¸à¦ª":8310,"Ġà¦¸à¦ĩà¦ľ":8311,"à¦¸à¦¬à¦°":8312,"à¦¸à¦¤à¦¨":8313,"à¦¸à¦¦à¦¨":8314,"à¦¸à¦Łà¦¨":8315,"à¦¸à¦īà¦¦":8316,"à¦¸à¦¨à¦¤à¦¨":8317,"Ġà¦ªà¦Ĺ":8318,"Ġà¦Ĩà¦ļà¦°":8319,"Ġà¦Ĩà§°":8320,"Ġà¦Ĩà¦Łà¦¬":8321,"Ġà¦Ĩà¦īà¦¡":8322,"à¦¦à§ľ":8323,"à¦¦à¦¤à¦²":8324,"à¦Łà¦ł":8325,"à¦Łà¦®à¦¨":8326,"à¦Łà¦®à¦°":8327,"à¦Łà¦¬à¦¦":8328,"Ġà¦¨à¦°à¦¦":8329,"Ġà¦¨à¦¹à¦°":8330,"Ġà¦®à¦¦à¦¬":8331,"à¦ªà¦®à¦¨":8332,"à¦ªà¦¢":8333,"à¦ªà¦®à§Ł":8334,"à¦ĩà¦£":8335,"à¦ĩà§ľ":8336,"à¦ĩà¦¶à¦¨":8337,"à¦ĩà¦¤à¦²":8338,"à¦ĩà¦īà¦¡":8339,"à¦Ľà¦®à¦Ľà¦®":8340,"à¦ľà¦¤à¦¬":8341,"à¦ľà¦®à¦¯":8342,"à¦ľà¦®à¦°":8343,"Ġà¦¤à¦Łà¦°":8344,"à¦¶à¦ªà¦°":8345,"à¦¶à¦¨à¦¬":8346,"à¦¶à¦Ńà¦°":8347,"à¦¶à¦Ĺà¦¡":8348,"à¦¼à§ĩ?âĢĻ":8349,"à¦¼à§ĩâĢĶâĢľ":8350,"à¦ĸà¦«":8351,"à¦ĸà¦°à¦ķ":8352,"à¦Ĺà¦ªà¦°":8353,"à¦Ĺà¦«":8354,"à¦·à¦·":8355,"à¦·à¦ł":8356,"à¦·à§ľ":8357,"à¦·à¦°à¦ĩ":8358,"à¦·à¦°à¦Ł":8359,"à¦§à§ľ":8360,"à¦§à¦¹à¦¸":8361,"à¦§à¦¬à¦¬":8362,"à¦§à§°":8363,"Ġà¦¯à¦ļ":8364,"à¦ļà¦ł":8365,"Ġà¦ķà¦°à¦¯":8366,"à§Łà¦¤à¦°":8367,"Ġà¦Ĺà¦Ĺà¦²à¦¸":8368,"à¦£à¦Ľ":8369,"à¦£à¦°à¦ķ":8370,"à¦£à¦¬à¦ķ":8371,"à¦ģà¦ģ":8372,"à¦¥à¦®à¦ķ":8373,"à¦¥à¦°à¦¥à¦°":8374,"Ġà¦¶à¦·":8375,"Ġà¦¶à¦®à¦¨":8376,"Ġà¦¶à¦°à¦ķ":8377,"Ġà¦¶à¦łà¦¤":8378,"Ġà¦ļà§Łà¦¨":8379,"Ġà¦°à¦¸à¦ķ":8380,"Ġà¦°à¦¸à¦ª":8381,"Ġà¦°à¦Ĺà¦°à¦Ĺ":8382,"à§ĩà¥¤âĢľ":8383,"à¦Ńà¦ļ":8384,"Ġà¦ıà¦ķà¦ļà¦²":8385,"Ġà¦ıà¦ķà¦ļà¦ķ":8386,"Ġà¦ıà¦ķà¦°à¦Ļ":8387,"ĠĠâĢ¨":8388,"Ġà¦Ľà¦ľà¦¨":8389,"Ġà¦Ĩà¦®à¦Ł":8390,"Ġà¦īà¦ŀ":8391,"à§Ĥà§į":8392,"à¦Ļà¦Ĺ":8393,"Ġà¦¬à¦²à¦ªà¦¯":8394,"Ġà¦«à§Ł":8395,"Ġà¦«à§Łà¦¸":8396,"Ġà¦ĸà¦Ļ":8397,"Ġà¦ĸà¦°à¦¤à¦°":8398,"à¦°à¦¤à¦¸":8399,"Ġà¦ªà¦°à¦ļ":8400,"âĢĶ\"":8401,"Ġà¦¸à¦®à¦ªà¦¦":8402,"à¦¾,--":8403,"Ġà¦ĺà¦¨à¦¬à¦¸à¦¤":8404,"Ġà¦®à¦¨à¦¬":8405,"Ġà¦®à¦¨à¦Ńà¦°":8406,"Ġà¦®à¦¨à¦Ĺà¦¡":8407,"à¦ªà¦°à¦ªà¦°":8408,"à¦°à¦£à¦¸":8409,"à¦°à¦£à¦ķà¦¬":8410,"à¦Ŀà¦ª":8411,"à¦Ŀà¦Ļ":8412,"à¦¤à¦°à¦ªà¦¤":8413,"à¦«à¦¶":8414,"à¦īà§İ":8415,"à¦īà¦ªà¦ļ":8416,"à¦īà¦¬à¦Ł":8417,"à¦īà¦ªà¦¶":8418,"à¦īà¦¬à¦Ĺ":8419,"à¦īà§ľà¦¨":8420,"à¦īà§İà¦ķà¦£":8421,"à¦ªà¦¨à¦Ĺ":8422,"à¦ªà¦¨à¦ķà¦¥":8423,"à¦Ĩà¦¨à¦¤":8424,"à¦Ĩà¦ķà¦°":8425,"à§İà¦Ł":8426,"à¦ıà¦¯":8427,"à¦ıà¦¹":8428,"à¦ıà¦ľà¦¨":8429,"à¦ıà¦®à¦ľ":8430,"à¦ıà¦¨à¦ª":8431,"Ġà¦¬à¦²à¦²à¦ı":8432,"Ġà¦¬à¦²à¦²à¦¬à¦²":8433,"Ġà¦¬à¦²à¦²à¦¸à¦¬":8434,"Ġà¦¬à¦²à¦²à¦ıà¦ĸà¦¨":8435,"Ġà¦Ĩà¦¸à¦Ļ":8436,"Ġà¦¹à¦²à¦ĵà¦¯":8437,"Ġà¦ĩà¦¸à¦ª":8438,"Ġà¦ĩà¦®à¦ªà¦°":8439,"Ġà¦ĩà¦«à¦¤":8440,"Ġà¦®à¦¤à¦Ł":8441,"à¦¬à¦²à¦Ĺ":8442,"Ġà¦ıà¦¬à¦Ľà¦°":8443,"à¦°à¦®à¦§à¦°":8444,"à¦°à¦®à¦¥à¦¨":8445,"à¦·à¦£à¦¤à¦°":8446,"à¦·à¦£à¦Ńà¦Ļ":8447,"âĢĵâĢĺ":8448,"à¦ħà¦ķà¦°":8449,"à¦ħà¦¶à¦¨":8450,"à¦ħà¦¬à¦ķ":8451,"à¦ħà¦¯à¦¥":8452,"à¦ħà¦¨à¦¬à¦¦":8453,"Ġà¦¬à¦¨à¦¹":8454,"Ġà¦Ĺà¦²à¦¬":8455,"à¦ķà¦Łà¦¨":8456,"à¦¸à¦¬à¦¸à¦®à¦¯":8457,"à§ĭà¥¤âĢĺ":8458,"à¦°à¦¨à¦¦":8459,"à¦¤à¦¬à¦§":8460,"à¦¤à¦¬à¦¹":8461,"à¦¤à¦¬à§İ":8462,"à¦¤à¦¬à¦¸à¦¨":8463,"à¦²à¦ķà¦ĵ":8464,"à¦¦à¦¨à¦ªà¦¤":8465,"Ġà¦¹à¦¤à¦ļ":8466,"à§ĩ?-":8467,"Ġà¦ħà¦¦à¦°":8468,"Ġà¦ħà¦¦à¦®à¦¨":8469,"Ġà¦Ĩà¦¨à¦²à¦ķ":8470,"Ġà¦īà¦¦à¦¬":8471,"à¦¾-'":8472,"Ġà¦ħà¦Ńà¦ķ":8473,"Ġà¦ľà¦²à¦¶":8474,"Ġà¦ľà¦²à¦ļ":8475,"Ġà¦ľà¦²à¦ļà¦ķ":8476,"à¦¶à¦¨à¦ª":8477,"à¦®à¦¤à¦ĵ":8478,"Ġà¦ħà¦¤à¦ĩ":8479,"à¦¯à¦ķà¦Ń":8480,"à¦¯à¦ķà¦°à¦£":8481,"à¦°à¦¹à¦Ĺ":8482,"à¦°à¦¹à¦Ńà¦°":8483,"à¦²à¦¨à¦Ł":8484,"à¦²à¦¨à¦ª":8485,"à¦²à¦¨à¦¹":8486,"Ġà¦®à¦¹à¦¦":8487,"Ġà¦īà¦ªà¦ª":8488,"Ġà¦īà¦ªà¦°à¦¤à¦²":8489,"à¦§à¦¨à¦ª":8490,"à¦°à¦¦à¦£":8491,"Ġà¦ķà¦²à¦¶":8492,"à¦¼à§ĭâĢĶ":8493,"à¦ļà¦²à¦²":8494,"à¦ļà¦²à¦ĸ":8495,"à¦ļà¦²à¦ļ":8496,"à¦®à¦ķà¦¹":8497,"Ġà¦īà¦¤à¦·":8498,"Ġà¦Ĩà¦¤à¦¸":8499,"à¦¸à¦¨à¦¦":8500,"à¦¸à¦¨à¦ļ":8501,"à¦ĩà¦¨à¦ĩ":8502,"à¦ĩà¦¨à¦ľ":8503,"à¦ķà¦¬à¦ĩ":8504,"à¦ķà¦¬à¦¦à¦²":8505,"Ġà¦ħà¦ľà¦ªà¦¥":8506,"à¦¹à¦²à¦ĩ":8507,"Ġà¦ĵà¦ªà¦°à¦¦":8508,"Ġà¦Ĳà¦¯":8509,"Ġà¦Ĳà¦Ń":8510,"âĢ¦)":8511,"âĢ¦..":8512,"Ġà¦ķà¦®à¦¸":8513,"Ġà¦ķà¦®à¦²à¦ķ":8514,"à¦¤à¦²à¦ľ":8515,"Ġà¦¤à¦°à¦²à¦¤":8516,"à§ĩ!âĢĵ":8517,"Ġà¦°à¦Ļà¦ª":8518,"Ġà¦°à¦Ļà¦ļà¦Ł":8519,"Ġà¦ªà¦¦à¦¸à¦ŀ":8520,"à¦°à¦Ńà¦¦":8521,"à¦¶à¦¬à¦¦":8522,"Ġà¦¨à§Łà¦Ł":8523,"à¦®à¦£à¦Ł":8524,"à¦®à¦£à¦ĵ":8525,"à¦®à¦£à¦ķà¦¨":8526,"à¦¿?\"":8527,"à¦¿?'":8528,"à¦ıà¦ķà¦ĩà¦Ń":8529,"Ġà¦ħà¦ķà¦£":8530,"à¦·à¦¤à¦ķ":8531,"à§įâĢĮ?":8532,"à¦¬à¦¦à¦®à¦¨":8533,"à¦·à¦ķà¦¶":8534,"Ġà¦Ľà¦¬à¦Ľà¦°":8535,"à¦¯à¦®à¦¶":8536,"à¦¤à¦ķà¦ķ":8537,"à¦¤à¦®à¦¸":8538,"à¦¿âĢĶâĢĻ":8539,"Ġà¦ħà¦¶à¦ķ":8540,"à¦¨à¦¦à¦¶":8541,"à§ĩ;âĢĵ":8542,"à¦¢à¦Ļ":8543,"à¦ĩà¦ķà¦®":8544,"Ġà¦ħà¦²à¦¸à¦Ń":8545,"à¦¯à¦¸à¦¹":8546,"à¦¹à¦¨à¦ª":8547,"à¦ķà¦¨à¦«":8548,"à§°à¦¬à¦²":8549,"Ġà¦¶à¦¤à¦¦":8550,"Ġà¦¨à¦¬à¦¤à¦°":8551,"à¦ªà¦¸à¦¹":8552,"Ġ(âĢľ":8553,"Ġà¦Ĺà§ľà¦¨":8554,"à¦¥à¦°à¦ĸà¦£":8555,"Ġà¦¸à¦¹à¦ľà¦¤à¦°":8556,"à¦Ĺà¦ľà¦ķà¦²à¦®":8557,"à¦Łà¦¬à¦ĩà§Ł":8558,"Ġà¦ıà¦ķà¦ĩà¦¸":8559,"à¦¿!'":8560,"à¦¿!-":8561,"à¦ķà¦¶à¦¤":8562,"à¦§à¦¬à¦¸à¦®":8563,"Ġà¦¦à¦¶à¦Ń":8564,"Ġà¦Ĺà¦£à¦²":8565,"Ġà¦¬à¦īà¦ĵ":8566,"à¦®à¦°à¦£à¦ķ":8567,"à¦®à¦°à¦£à¦¶à¦ķ":8568,"à¦²à¦¸à¦Ł":8569,"Ġà¦¬à§ľà¦ľà¦¨":8570,"à¦¹à¦°à¦£à¦¤":8571,"à¦¹à¦°à¦£à¦Ł":8572,"à¦¹à¦°à¦£à¦Ĺ":8573,"à¦¦à¦¸à¦ĩ":8574,"à¦¦à¦¸à¦¹":8575,"à¦®à¦¹à§İ":8576,"Ġà¦Ĩà¦ªà¦Ĺ":8577,"à§¦à§§":8578,"à§¦à§¨":8579,"Ġà¦Īà¦·":8580,"Ġà¦ķà¦ªà¦ļ":8581,"-----":8582,"à¤ł":8583,"à¦ķà¦°à¦£à¦ķ":8584,"à¦¿;âĢĵ":8585,"à¦ķà¦¸à¦¹":8586,"à¦¶à¦²à§Ł":8587,"Ġà¦°à¦ĵà¦¶à¦¨à¦ĵ":8588,"Ġà¦Ĺà¦°à¦®à¦ķ":8589,"à¦®à¦¶à¦ķà¦°":8590,"à¦ıà¦¸à¦¬à¦ķ":8591,"à¦ĩà¦¡à¦¬":8592,"Ġà¦Ĺà¦¹à¦¨à¦¤":8593,"Ġà§§à§¯à§§à§¯":8594,"à§Ŀà¦ª":8595,"à¦¬à¦Ńà¦ķ":8596,"à¦£à¦¬à¦§à¦°":8597,"à§Ńà§«":8598,"à¦¸à¦¹à¦ķà¦°":8599,"Ġà¦ľà¦Ĺà¦¤à¦ķ":8600,"à§ªà§§":8601,"à¦°à¦¬à¦²à¦¤à¦°":8602,"à¦¬à¦Łà¦¦":8603,"à¦¬à¦Łà¦Ł":8604,"ination":8605,"Ġà¦īà§ľà¦¬":8606,"à¦ľà§Łà¦§":8607,"ance":8608,"Ġà¦ĩà¦²à¦¶":8609,"Ġà¦¸à§İà¦¬":8610,"Ġà¦ĵà¦ªà¦°à¦¤à¦²":8611,"à¦¶à¦Ĺà¦Ļ":8612,"à¦¿à¥¤âĢĻâĢĿ":8613,"Ġà¦ļà¦Łà¦ķà¦²":8614,"à¦¬à¦ľà¦¨à¦¬":8615,"Ġà¦Ĭà¦·à¦°":8616,"Ġà¦Ĩà¦ļà¦°à¦£à¦Ł":8617,"Ġà¦ľà¦Ĺà¦Ĺ":8618,"Ġà¦ıà¦°à¦ķà¦®à¦Ł":8619,"à¦ªà§ľà¦¤":8620,"à¦²à¦ľà¦«":8621,"à§¬à§§":8622,"à§¬à§©":8623,"à¦®à¦®à¦Ń":8624,"alk":8625,"Ġà¦«à¦Łà¦ķà¦Ł":8626,"à¦ĩà¦ªà¦ĩ":8627,"à§®à§©":8628,"Ġà¦ļà¦°à¦®à¦ªà¦¨":8629,"à¦¾âĢĿ-":8630,"Ġà¦ļà¦°à¦£à¦ª":8631,"Ġà¦ļà¦°à¦£à¦ļ":8632,"ite":8633,"Ġà¦Ĩà¦Łà¦¦":8634,"Ġà¦°à¦¤à¦¨à¦¦":8635,"Ġsil":8636,"Ġsup":8637,"à¦ıà¦¤à¦¸à¦¬":8638,"à§ĭ;-":8639,"à¦ĩà¦«à¦°à¦®":8640,"Ġà¦Ńà¦Ĺà¦¬à¦¨":8641,"Ġad":8642,"ari":8643,"Ġwould":8644,"Ġmen":8645,"Ġmind":8646,"Ġmontu":8647,"à¦¿.-":8648,"à¦¿.à¥¤":8649,"à¦īà¦łà¦Ľ":8650,"ÂłÂłÂłÂłÂłÂłÂłÂłÂłÂłÂłÂłÂłÂłÂłÂłÂłÂłÂłÂłÂłÂłÂłÂłÂłÂłÂłÂłÂłÂłÂłÂłÂłÂłÂłÂł":8651,"Ġdes":8652,"Ġdif":8653,"Ġà§§à§¯à§Ńà§©":8654,"Ġà¦ķà¦¦à¦®à¦Ĺ":8655,"Ġà§¨à§¦à§§à§¦":8656,"Ġà§¨à§¦à§§à§«":8657,"Ġà¤ľ":8658,"à¦ĸà¦¬à¦°à¦¦":8659,"Ġà¦ªà¦¥à¦ļà¦²à¦¤":8660,"***":8661,"Ġlong":8662,"Ġà§§à§¯à§«à§§":8663,"Ġà§§à§¯à§«à§«":8664,"Ġà§«à§§":8665,"olar":8666,"Ġà§ªà§¦à§¦":8667,"ĠAyan":8668,"ental":8669,"ĠPu":8670,"ĠParg":8671,"à¦£à¦¸à¦ŀ":8672,"ĠMan":8673,"ĠMontu":8674,"ĠBang":8675,"Ġà§Ńà§¦à§¦":8676,"Ġà¦īà¦Ńà§Łà¦ķ":8677,"Ġreason":8678,"à¦¸à§İà¦¤":8679,"Ġbeyond":8680,"Ġà§§à§¯à§ªà§¦":8681,"Ġgl":8682,"ĠDiya":8683,"Ġà¦Ĺà¦²à¦¦à¦ĺ":8684,"ody":8685,"ular":8686,"Ġà¦¶à¦ĵà¦ķà¦°":8687,"Ġà¦īà¦ĩà¦¨à¦ļ":8688,"Ġà¦§à¦ķà¦§à¦ķ":8689,"Ġà¦¬à¦Ĺà¦²à¦¦":8690,"!![":8691,"ement":8692,"Ġà§§à§Ńà§«à§Ń":8693,"Ġà§§à§¯à§®à§§":8694,"Ġà¦¦à¦¹à¦°à¦®":8695,"Ġvill":8696,"ope":8697,"ople":8698,"riot":8699,"Ġneigh":8700,"Ġà§§à§¯à§©à§©":8701,"ĠWi":8702,"ÐµÑĢ":8703,"ĠFre":8704,"ief":8705,"Ġà¦Ĩà¦īà¦Łà¦²":8706,"Ġspe":8707,"Ġabout":8708,"TEM":8709,"Ġcannot":8710,"Ġimag":8711,"Ġà¦«à¦¸à¦«à¦°":8712,"Ġjust":8713,"Ġà¦ħà§Łà¦¨à¦ķ":8714,"uthor":8715,"ĠUn":8716,"aught":8717,"Ġsomething":8718,"ways":8719,"Ġsolipsism":8720,"Ġart":8721,"ystem":8722,"Ġdiff":8723,"![":8724,"/-":8725,"50":8726,"?à¥¤":8727,"AL":8728,"MO":8729,"NA":8730,"Pro":8731,"SB":8732,"Th":8733,"VR":8734,"aj":8735,"ave":8736,"ds":8737,"fin":8738,"has":8739,"ied":8740,"less":8741,"lab":8742,"oh":8743,"over":8744,"ph":8745,"pr":8746,"ran":8747,"so":8748,"ty":8749,"ten":8750,"ug":8751,"ues":8752,"ven":8753,"ward":8754,"wise":8755,"||":8756,"£áĥ":8757,"Ã¦":8758,"Ð¿":8759,"Ñĩ":8760,"×¨":8761,"à©":8762,"âĪ":8763,"ï¼":8764,"ĊĠĠ":8765,"ĠX":8766,"ĠÎ":8767,"Ġen":8768,"Ġet":8769,"ĠÚ©":8770,"à¦¾\"":8771,"à¦¾(":8772,"à¦¾à¦¿":8773,"à¦¾ÂŃ":8774,"à§ĩ\"":8775,"à§ĩ_":8776,"à¦°à¦°à¦¬":8777,"à¦°à¦°à¦¶":8778,"à¦¿..":8779,"à¦¿),":8780,"à¦¤à¦¬à¦²":8781,"à¦¤à¦§à¦°":8782,"à¦¤à¦ļà¦°à¦£":8783,"à¦¤à¦¯à¦¶":8784,"à¦¤à¦Ĩà¦Ł":8785,"à¦²à§ľ":8786,"à¦²à¦Ĩ":8787,"à¦²à¦¤à¦¨":8788,"à¦²à¦²à¦¨":8789,"à¦²à¦ªà¦Ł":8790,"à¦²à¦ªà¦¡":8791,"à¦ķà§İ":8792,"à¦ķà¦®à¦£":8793,"à¦ķà¦ľà¦¬":8794,"à¦ķà¦Ĩà¦īà¦Ł":8795,"à¦¯à¦¦à§Ł":8796,"à¦¯à¦ľà¦¯":8797,"à§ģ.":8798,"à§ģâĢĮ":8799,"à¦¬à¦¤à¦¬":8800,"à¦¬à¦Ĺà¦®":8801,"à¦¼âĢĿâĢĶ":8802,"à¦¼âĢĿâĢĵ":8803,"à¦®à¦ķà¦¤":8804,"à¦®à¦¦à¦²":8805,"à¦®à¦¬à¦¸":8806,"à¦®à¦Ĺà¦ľ":8807,"à¦®à¦Ĩà¦ªà¦¨":8808,"à¦®à¦ĸà¦£":8809,"à§ĭâĢĻ,":8810,"Ġà¦ķà¦¦à¦²":8811,"Ġà¦ķà¦ķà¦ª":8812,"Ġà¦¬à¦ĵà¦¯":8813,"Ġà¦¬à¦ķà¦²":8814,"Ġà¦¬à¦¶à¦®":8815,"Ġà¦¬à¦°à¦¬à¦°":8816,"Ġà¦¬à¦¨à¦¤à¦²":8817,"Ġà¦¬à¦ĸà¦¶":8818,"Ġà¦¸à¦¬à¦¨":8819,"Ġà¦¸à¦¦à¦Ĺ":8820,"Ġà¦¸à¦¦à¦²à¦¬à¦²":8821,"à¦¸à¦¥":8822,"à¦¸à¦°à¦¬":8823,"à¦¸à¦ļà¦²":8824,"Ġà¦ªà¦¦à¦°":8825,"Ġà¦ªà¦²à¦¤":8826,"Ġà¦ªà¦¨à¦°":8827,"Ġà¦ªà¦ªà¦²":8828,"Ġà¦ªà¦īà¦·":8829,"Ġà¦ªà¦ĩà¦ªà¦ĩ":8830,"Ġà¦Ĩà¦Łà¦¤":8831,"Ġà¦Ĩà¦īà¦°":8832,"à¦¦à¦ªà¦°":8833,"à¦¦à¦Ĺà¦²":8834,"à¦Łà¦¬à¦¨":8835,"à¦Łà¦®à¦¡":8836,"à¦Łà¦¸à¦¸":8837,"Ġà¦¨à¦°à¦ª":8838,"Ġà¦¨à¦ĸà¦ļ":8839,"Ġà¦¨à¦¬à¦¤à¦®":8840,"Ġà¦¨à¦°à¦¹à¦¤":8841,"Ġà¦®à¦°à¦¹":8842,"Ġà¦®à§°":8843,"à¦ªà¦ķà¦Ł":8844,"à¦ªà¦¸à¦¬":8845,"à¦ªà¦®à¦²":8846,"à¦ªà¦¶à¦¬":8847,"à¦ĩà¦Ĩà¦®":8848,"à¦ĩà¦¨à¦ĵ":8849,"à¦ĩà¦ªà¦¥":8850,"à¦ĩà¦ĵà¦°":8851,"à¦ĩà¦ªà¦®":8852,"à¦ĩà¦ĵà¦¨":8853,"à§Ģ\"":8854,"à§ĢâĢĶâĢľ":8855,"à§ĢâĢĿâĢĶ":8856,"à¦Ľà¦ªà¦Ł":8857,"à¦Ľà¦§à¦°":8858,"Ġà¦¦à¦¸à¦¤":8859,"Ġà¦¦à§°":8860,"à¦ľà¦«":8861,"à¦ľà¦ĵà¦¯":8862,"à¦ľà¦®à¦¤":8863,"à¦ľà¦Ĺà¦¨":8864,"à¦ľà¦ķà¦¦":8865,"à¦ľà¦ĺà¦¨":8866,"Ġà¦¹à¦°à¦ķ":8867,"Ġà¦¹à¦¸à¦ª":8868,"Ġà¦¤à¦ļ":8869,"Ġà¦¤à¦£":8870,"Ġà¦¤à¦ķà¦¤à¦ķ":8871,"Ġà¦ıà¦¤à¦°":8872,"Ġà¦ıà¦¨à¦Ĺ":8873,"à¦¶à¦£":8874,"à¦¶à¦¬à¦²":8875,"à¦¶à¦°à¦¥":8876,"à¦¶à¦²à¦ķ":8877,"à¦¶à¦²à¦¬":8878,"à¦¶à¦°à¦¦":8879,"à¦¶à¦ľà¦²":8880,"Ġà¦ħà¦°à¦¸":8881,"à¦ĸà¦ŀ":8882,"à¦ĸà¦°à¦¬":8883,"à¦Ĺà¦¬à¦²":8884,"à¦Ĺà¦¢":8885,"à¦·à¦¬à¦°":8886,"à¦·à¦¸à¦°":8887,"à¦·à¦Ńà¦°":8888,"à¦·à¦ªà¦²":8889,"à¦§à¦°à¦¬":8890,"à¦§à¦Ĺà¦²":8891,"à¦§à¦¬à¦ķ":8892,"âĢĥ":8893,"âĢĭ":8894,"Ġà¦¯à¦·":8895,"à¦ļà¦¤à¦¨":8896,"à¦ļà¦°à¦¨":8897,"à¦ļà¦¬à¦ķ":8898,"à¦ļà§Łà¦¨":8899,"à¦ļà§°":8900,"à¦ļà¦¬à¦Ł":8901,"à¦¹à¦°à¦¬":8902,"à¦¹à¦ĩà¦²":8903,"à¦¹à¦ķà¦¦":8904,"Ġà¦ķà¦°à¦ķà¦°":8905,"à§Łà¦®à¦ķ":8906,"Ġà¦Ĺà¦°à¦¦":8907,"Ġà¦Ĺà¦®à¦ķ":8908,"à¦£à¦®à¦¤":8909,"à¦£à¦ªà¦¦à¦ķ":8910,"à¦ģà¦¾":8911,"à¦¥à¦¬à¦°":8912,"à¦¥à¦°à¦ĵ":8913,"à¦¥à¦ķà¦¦":8914,"Ġà¦¶à¦ł":8915,"Ġà¦¶à¦®à¦¸":8916,"Ġà¦¶à¦¬à¦°à¦¦":8917,"Ġà¦ľà¦Ń":8918,"Ġà¦ľà¦ªà¦®":8919,"Ġà¦ļà¦ķà¦°":8920,"Ġà¦ļà¦°à¦¨":8921,"Ġà¦Ńà¦ľà¦®":8922,"Ġà¦°à¦ĩà¦¨":8923,"Ġà¦°à¦¸à¦¤":8924,"Ġà¦°à¦ľà¦ķ":8925,"Ġà¦°à¦¸à¦ķà¦·":8926,"Ġà¦°à¦¦à¦¬à¦¦à¦²":8927,"à§ĩà¥¤âĢĵ":8928,"à¦ĵà¦°à¦ķ":8929,"à¦Ńà¦°à¦ķ":8930,"à¦Ńà¦°à¦ª":8931,"Ġà¦ıà¦ķà¦¡":8932,"Ġà¦ıà¦ķà¦ªà¦ķ":8933,"Ġà¦ıà¦ķà¦ķà¦£":8934,"Ġà¦ıà¦ķà¦¶à¦Ł":8935,"Ġà¦ıà¦ķà¦§à¦°à¦£":8936,"à¦¼à¦¾/":8937,"à¦¼à¦¾:":8938,"à¦¼à¦¾à¦¾":8939,"à¦¼à¦¾---":8940,"à¦łà¦ªà¦¥":8941,"à¦łà¦²à¦Ĺ":8942,"Ġà¦īà¦ĩà¦®":8943,"à¦Ĥ/":8944,"à¦¾à¦ģà¥¤âĢĿ":8945,"à¦¾à¦ģ!âĢĿ":8946,"Ġà¦²à¦¬à¦¨":8947,"Ġà¦ĵà¦ĵ":8948,"Ġà¦ĵà¦Ļ":8949,"Ġà¦ĵà¦®à¦¨":8950,"Ġà¦ĵà¦«":8951,"Ġà¦¬à¦²à¦¹":8952,"Ġà¦Ĩà¦°à¦¨à¦¬":8953,"Ġà¦ĸà¦°à¦¤":8954,"à¦°à¦¤à¦¯":8955,"à¦°à¦¤à¦ĩ":8956,"Ġà¦ªà¦°à¦Ĺà¦£":8957,"Ġà¦¸à¦®à¦ª":8958,"Ġà¦¸à¦®à¦°à¦ķ":8959,"à¦¼à¦¿!âĢĿ":8960,"à§ľà¦°":8961,"à§ľà¦ª":8962,"Ġà¦ĺà¦°à¦®":8963,"Ġà¦®à¦¨à¦®à¦¤":8964,"à¦ªà¦°à¦ĩ":8965,"Ġà¦ıà¦ĩà¦¡":8966,"à¦Ŀà¦¦":8967,"à¦ľà¦¨à¦Ĺà¦¨":8968,"à¦¤à¦°à¦ľà¦Ĺà¦¤":8969,"à¦«à¦¥":8970,"à¦«à¦Ŀ":8971,"à¦«à¦ĵà¦¯":8972,"à¦īà¦Ľ":8973,"à¦īà¦°à¦¨":8974,"à¦īà¦®à¦°":8975,"à¦īà¦¨à¦¸":8976,"à¦īà§İà¦°":8977,"à¦¿,âĢĶ":8978,"Ġà¦Ĩà¦²à¦ľ":8979,"à¦°à¦¬à¦¹":8980,"à¦Ĩà¦ŀ":8981,"à¦Ĩà¦ĩà¦°":8982,"à§İà¦¦":8983,"à§İà¦ĵ":8984,"à§İà¦ªà¦¨":8985,"à§İà¦ªà¦Ł":8986,"à¦¬à¦°à¦Ń":8987,"à¦¬à¦°à¦Ļ":8988,"à¦¬à¦°à¦¦à¦¸":8989,"Ġà¦¬à¦²à¦²à¦ļ":8990,"Ġà¦¬à¦²à¦²à¦ıà¦ķ":8991,"Ġà¦¬à¦²à¦²à¦ıà¦ĸ":8992,"Ġà¦Łà¦¸":8993,"Ġà¦Łà¦Ł":8994,"Ġà¦Łà¦Ĺ":8995,"Ġà¦Łuhin":8996,"Ġà¦Ĩà¦Ľà¦¨":8997,"Ġà¦¹à¦²à¦°":8998,"Ġà¦¡à¦¬":8999,"Ġà¦ĩà¦Ĺà¦¨":9000,"Ġà¦ĩà¦īà¦¸":9001,"Ġà¦ĩà¦«à¦°":9002,"à¦ĺà¦ĵ":9003,"à¦ĺà¦°à¦Ľ":9004,"Ġà¦ľà¦¨à¦¸à¦Ļ":9005,"ĠĠĊĊ":9006,"Ġà¦Ŀà¦ķà¦®":9007,"à¦¬à¦²à¦¤à¦°":9008,"à¦°à¦®à¦ªà¦°":9009,"à§ģà¦ģà¦ģ":9010,"à¦·à¦£à¦¨":9011,"Ġà¦ıà¦¸à¦ĩà¦īà¦Ń":9012,"à¦¤à¦¨à¦¸à¦¹":9013,"à¦ĥ?":9014,"à¦ħà¦Ŀ":9015,"à¦ħà¦ķà¦²":9016,"à¦ħà¦¹à¦²":9017,"à¦ħà¦ľà¦°":9018,"à¦ħà¦¬à¦§":9019,"Ġà¦¬à¦¨à¦ªà¦°":9020,"à¦ķà¦²à¦¶":9021,"à¦ķà¦²à¦Ń":9022,"Ġà¦Ĩà¦¬à¦¡":9023,"Ġà¦ħà¦®à¦²à¦¬":9024,"Ġà¦Ĺà¦²à¦«":9025,"à¦¸à¦¬à¦Ĺ":9026,"à¦°à¦¥à¦ª":9027,"à¦°à¦¨à¦¬":9028,"à¦¤à¦¬à§Łà¦¸":9029,"à¦²à¦ķà¦¥":9030,"à¦¾à¦Ĥ!":9031,"à¦¦à¦¨à¦¯":9032,"à¦¦à¦¨à¦¬à¦¨":9033,"à¦°à¦¥à¦®à¦ĩ":9034,"à§ĩ?)":9035,"Ġà¦ıà¦²à¦Ĺ":9036,"à¦Ĩà¦®à¦¤":9037,"à¦Ĩà¦®à¦²à¦ķ":9038,"Ġà¦ħà¦°à¦ľ":9039,"à¦Ĺà¦²à¦°":9040,"à¦Ĺà¦²à¦ķà¦°":9041,"Ġà¦ħà¦Ńà¦¬":9042,"Ġà¦ħà¦Ńà¦Ļ":9043,"Ġà¦ľà¦²à¦¤":9044,"Ġà¦ľà¦²à¦ľà¦²":9045,"à¦Ĺà¦¤à¦¦":9046,"à¦¶à¦¨à¦¦":9047,"Ġà¦ĺà¦°à¦ĵ":9048,"Ġà¦ĺà¦°à¦¬à¦¨":9049,"à¦²à¦¨à¦¯":9050,"Ġà¦īà¦ªà¦¬à¦°":9051,"Ġà¦īà¦ªà¦¦à¦²":9052,"à¦¬à¦¤à¦ķ":9053,"à¦¬à¦¤à¦°à¦£":9054,"à¦ĩà¦²à¦¡":9055,"à¦®à¦²à§Ł":9056,"à¦§à¦¨à¦°":9057,"à¦§à¦¨à¦ªà¦¥":9058,"à¦§à¦¨à¦Ńà¦Ļ":9059,"à¦°à¦ľà¦¦":9060,"à¦°à¦ľà¦ª":9061,"à¦°à¦ľà¦¬à¦°à¦¦à¦¸":9062,"à¦°à¦²à¦¹à¦°":9063,"à¦°à¦²à¦¸à¦Ń":9064,"Ġà¦ķà¦²à¦ª":9065,"Ġà¦ķà¦²à¦Ĺ":9066,"Ġà¦¸à¦¹à¦®":9067,"Ġà¦ıà¦¤à¦ľà¦¨":9068,"à¦¿à¦ĥâĢĵ":9069,"à¦¸à¦¨à¦ķà¦°":9070,"à¦ĩà¦¨à¦¡":9071,"à¦¨à¦¨à¦¦":9072,"à¦¨à¦¨à¦Ń":9073,"à¦¨à¦¨à¦Ĺà¦°":9074,"à¦ıà¦ĩà¦¸à¦¬à¦ĩ":9075,"Ġà¦ħà¦ļà¦²à¦¤":9076,"Ġà¦ķà¦¬à¦·":9077,"à§Ģ,âĢĶ":9078,"à¦¿-'":9079,"à¦¹à¦²à¦Ł":9080,"à¦¹à¦²à¦Ńà¦°":9081,"à¦¹à¦²à¦®à§Ł":9082,"Ġà¦īà¦¨à¦ªà¦ŀ":9083,"Ġà¦ķà¦¤à¦¶à¦¤":9084,"âĢ¦!":9085,"Ġà¦ķà¦®à¦¬à¦¯":9086,"Ġà¦¬à¦¹à¦¤":9087,"à§ĩ!!":9088,"Ġà¦¯à¦¤Åĵ":9089,"Ġà¦ªà¦¦à¦¦":9090,"Ġà¦ªà¦¦à¦ªà¦¥":9091,"à¦®à¦°à¦Ł":9092,"à¦¸à¦°à¦·":9093,"à¦ªà¦¦à¦®":9094,"à¦ªà¦¦à¦ľà¦¨à¦ķ":9095,"à¦°à¦ĵà¦ĩ":9096,"à¦ªà¦¥à¦ķ":9097,"à¦ªà¦¥à¦ĩ":9098,"Ġà¦ħà¦®à¦²à¦ª":9099,"à¦®à¦£à¦¯":9100,"à¦®à¦£à¦Ń":9101,"à¦¨à¦ķà¦¨":9102,"à¦¬à¦¸à¦ļ":9103,"à¦Łà¦²à¦Ł":9104,"à¦ĩà¦°à¦Ļ":9105,"Ġà¦«à¦²à¦ĩ":9106,"à¦·à¦ķà¦ľ":9107,"à¦¤à¦ķà¦¨":9108,"à¦¤à¦ķà¦®à¦²":9109,"Ġà¦²à¦ķà¦ª":9110,"à¦¤à¦®à¦¬":9111,"à¦¿âĢĶâĢĿ":9112,"à¦¾!-":9113,"à¦¾!âĢĶ":9114,"à¦¾!âĢ¦":9115,"à¦¬à¦ķà¦®":9116,"Ġà¦ĩà¦¨à¦«à¦°":9117,"Ġà¦Ĩà¦§à¦ĺà¦¨":9118,"à¦¤à¦¤à¦ªà¦ķ":9119,"à¦¬à¦¬à¦¶":9120,"à¦¬à¦¬à¦¶à¦¤":9121,"Ġà¦Ńà¦¬à¦Ń":9122,"à¦ĸà¦¬à¦ĩ":9123,"à¦¸à¦ķà¦ķ":9124,"à§°à¦ª":9125,"à§°à¦Ĺ":9126,"à§°à¦·":9127,"Ġà¦¶à¦¤à¦§":9128,"Ġà¦¨à¦¬à¦ªà¦°":9129,"à¦¨à¦¸à¦ª":9130,"à¦¨à¦¸à¦ŀ":9131,"à¦¼à§Ģ?":9132,"à¦¼à§ĢâĢĶ":9133,"à¦¼à§ĢâĢĵ":9134,"?âĢĿ,":9135,"Ġà¦Ĺà§ľà¦Ľ":9136,"Ġà¦ĭà¦¤à¦¨":9137,"à¦Łà¦¬à¦ī":9138,"Ġà¦ªà¦²à¦¸":9139,"à¦ķà¦¶à¦Ł":9140,"à¦·à¦®à¦Ń":9141,"à¦§à¦¬à¦¹":9142,"Ġà¦°à¦ķà¦®à¦Ł":9143,"Ġà¦īà§İà¦¸à¦Ł":9144,"Ġà¦īà§İà¦¸à¦ľ":9145,"Ġà¦¬à¦Łà¦®":9146,"Ġà¦¬à¦Łà¦ł":9147,"à¦¾;-":9148,"Ġà¦Ĺà¦£à¦®à¦¨":9149,"à¦¾âĢĵâĢĻ":9150,"Ġà¦ħà¦Łà¦²à¦Ń":9151,"à¦Ĺà¦®à¦ª":9152,"Ġà¦§à¦¨à¦ªà¦¤":9153,"à¦®à¦¹à¦®":9154,"à§¦à§©":9155,"à§¦à§Ń":9156,"Ġà¦Īà¦·à¦¦":9157,"à¤¡":9158,"à¤ĺ":9159,"à¤Ń":9160,"à§«à§©":9161,"à§«à§¯":9162,"à¦¶à¦²à¦ĩ":9163,"à¦ªà¦²à¦ĵà¦¯":9164,"Ġà¦ľà§Łà¦Ł":9165,"Ġà¦ľà§Łà¦ª":9166,"Ġà¦ľà§Łà¦ıà¦°":9167,"Ġà§§à§¯à§¨à§¦":9168,"à§Ŀà¦¸":9169,"Ġtwo":9170,"à§ĭ!!":9171,"à¦Ĺà¦£à¦ķ":9172,"à¦Łà¦Ľà¦¡":9173,"à§ªà§®":9174,"à¦²à¦ªà§ľ":9175,"Ġà¦·à¦Ł":9176,"Ġà¦ķà§Łà¦Ł":9177,"Ġ-'":9178,"anc":9179,"Ġà¦¸à§İà¦®":9180,"Ġà¦¸à§İà¦ª":9181,"à¦¨à§Łà¦¨à¦®":9182,"Ġà¦¶à¦ªà¦¥à¦¬":9183,"à¦¦à¦¶à¦¦":9184,"à¦¬à¦ľà¦¨à¦®":9185,"à¦¬à¦ľà¦¨à¦¸":9186,"Ġà¦ķà¦ļà¦ĵ":9187,"Ġà¦Ĭà¦ł":9188,"Ġà¦¤à¦¨à§Ł":9189,"à§¬à§«":9190,"à¦®à¦®à¦ŀ":9191,"à¦¯à¦ķà¦°à¦Ń":9192,"Ġà¦ħà¦¬à¦¨à¦®":9193,"Ġ!'":9194,"à¦¸à¦®à§Łà¦¸":9195,"à§®à§«":9196,"à¦ĵà¦ĩà¦ĸ":9197,"Ġà¦ıà¦¡à¦®":9198,"isha":9199,"à¦Ĳà¦ĸ":9200,"à¦Ĳà¦¤à¦°":9201,"ittle":9202,"à¦¶à¦¹à¦°à¦Ł":9203,"à¦¾âĢ¦à¥¤âĢĿ":9204,"à¦ªà¦Ĺà¦ŀ":9205,"Ġà¦ľà¦¨à¦¸à¦®à¦ķ":9206,"Ġopp":9207,"Ġà¦¤à¦ªà¦¨à¦¦":9208,"âĢįà§įâĢĮ":9209,"Ġ;-":9210,"à¦¿?âĢĻâĢĶ":9211,"Ġacc":9212,"Ġcre":9213,"Ġcir":9214,"Ġchar":9215,"à¦ķà¦¶à¦¨à¦Ł":9216,"Ġà¦ĭà¦£à¦Ĺ":9217,"Ġà¦¸à¦®à¦¤à¦²à¦¬":9218,"Ġà¦¨à¦°à¦ĵà¦¯":9219,"ara":9220,"arch":9221,"Ġà¦ķà¦¦à¦®à¦¬":9222,"Ġwhere":9223,"ort":9224,"à¦¿!âĢĿâĢĶ":9225,"Ġmay":9226,"Ġmod":9227,"Ġmem":9228,"Ġmake":9229,"à¦¿âĢĿ!":9230,"à¦ħà¦ªà¦Ľà¦¨":9231,"Ġà¦¬à¦°à¦«à¦ª":9232,"Ġperson":9233,"Ġphilosop":9234,"à¦ħà¦ľà¦Ĺà¦°":9235,"anda":9236,"Ġà¦ħà¦²à¦ķà¦ķ":9237,"Ġà§©à§¦à§¦":9238,"icism":9239,"oub":9240,"Ġà¦°à¦¨à¦ľ":9241,"Ġfind":9242,"ase":9243,"asure":9244,"Ġà¦ķà¦¬à¦°à¦Ł":9245,"Ġà¦ĩà¦īà¦ª":9246,"Ġà§§à§¯à§Ńà§¬":9247,"Ġà¦Ĩà¦¬à¦°à¦£à¦Ł":9248,"Ġhar":9249,"Ġhist":9250,"à§ĢâĢĻâĢĶ":9251,"Ġà¤¦":9252,"Ġà¤°":9253,"Ġà¤ĸ":9254,"Ġà¦¸à¦²à¦®à¦¨":9255,"omm":9256,"omen":9257,"à¦īà§İà¦¸à¦¬à¦®":9258,"other":9259,"Ġà§«à§¬":9260,"Ġà§«à§®":9261,"à¦īà¦ªà¦¬à¦¨":9262,"à¦¶à¦ĵà¦ª":9263,"à¦¨à¦¶à¦¨à¦Ł":9264,"ĠAp":9265,"ĠAnd":9266,"ution":9267,"ility":9268,"ĠPro":9269,"à¦¼âĢ¦âĢĻ":9270,"ĠBut":9271,"ĠBrah":9272,"ĠSh":9273,"Ġà¦īà¦ĩà¦²à¦Ł":9274,"Ġeach":9275,"ign":9276,"igion":9277,"Ġref":9278,"Ġrem":9279,"Ġreal":9280,"áĥķ":9281,"ĠTagore":9282,"à¦¤à¦ĸà¦°à¦ļ":9283,"Ġgener":9284,"Ġà§¬à§«":9285,"à¦¶à¦¶à¦¤à¦ķ":9286,"Ġà¦¸à¦®à¦¤à¦²à¦Ń":9287,"ĠComp":9288,"Ġà¦ĸà§ľà¦Ĺ":9289,"ification":9290,"Ġà¦¶à¦ĵà¦ķà¦¤à¦ķ":9291,"irit":9292,"à¦°à¦²à§Łà¦Ļ":9293,"à¦¸à¦®à¦¤à¦²":9294,"Ġconst":9295,"Ġconcrete":9296,"ĠHindu":9297,"ĠÐ²":9298,"Ġà¦Ĺà¦«à¦°à¦Ĺ":9299,"Ġà¦®à§Łà¦®à¦¨à¦¸":9300,"Ġà¦¡à¦ľà¦¨à¦ĸ":9301,"ĠØ´":9302,"Ġà¦¬à¦°à¦¬à¦Ł":9303,"Ġorig":9304,"Ġà¦®à¦Łà¦°à¦¶":9305,"à¦¦à¦ļà§Łà¦¨":9306,"Ġcome":9307,"ĠÙħ":9308,"Ġà¦Ĩà¦īà¦Łà¦¬":9309,"Ð¾Ð»":9310,"ible":9311,"ears":9312,"wey":9313,"ĠĠĠĊĠĠ":9314,"Ġsuch":9315,"Ġimp":9316,"Ġà¦¬à¦°à¦ķà¦¤":9317,"Ġshould":9318,"========":9319,"ĠUSB":9320,"Ġchallenge":9321,"Ġ_____":9322,"ĠBeing":9323,"Ġevil":9324,"ĠRupali":9325,"ĠDewey":9326,"Ġtranscend":9327,"Ġfreedom":9328,"ĠArjun":9329,"Ġà¦Łà¦ĩà¦Łà¦®":9330,"Ġpeople":9331,"Ġpatriot":9332,"ositive":9333,"velopment":9334,"âģł":9335,"ĠPuja":9336,"!]":9337,"!..":9338,"%-":9339,"'s":9340,",'":9341,"-(":9342,".à¥¤":9343,"46":9344,"49":9345,"?âĢ¦":9346,"ATE":9347,"IF":9348,"LM":9349,"My":9350,"RE":9351,"be":9352,"ber":9353,"fore":9354,"gress":9355,"know":9356,"les":9357,"min":9358,"na":9359,"ning":9360,"part":9361,"rist":9362,"sc":9363,"uk":9364,"val":9365,"ving":9366,"vent":9367,"with":9368,"ye":9369,"Â¤":9370,"Â¸":9371,"Ã¼":9372,"Ä±":9373,"Îµ":9374,"Ð±":9375,"ÑĮ":9376,"×¢":9377,"×ľ":9378,"Ø¨":9379,"Ùĩ":9380,"ÛĴ":9381,"à¯":9382,"àµ":9383,"åķ":9384,"ê°":9385,"Ġ3":9386,"Ġ6":9387,"Ġ?âĢĿ":9388,"Ġer":9389,"Ġed":9390,"Ġel":9391,"Ġri":9392,"Ġ55":9393,"ĭľ":9394,"à¦¾âĢį":9395,"à§ĩà¦¾,":9396,"à¦°à¦°à¦¤":9397,"à¦°à¦«à¦²":9398,"à¦°à¦ıà¦°":9399,"à¦°Ã¦":9400,"à§į;":9401,"à¦¿|":9402,"à¦¨à¦²à¦ķ":9403,"à¦¨à¦°à¦¶":9404,"à¦¨à¦²à¦¬":9405,"à¦¨à¦°à¦ª":9406,"à¦¨à¦¸à¦²":9407,"à¦¨à¦¸à¦Ļ":9408,"à¦¨à¦ªà¦²":9409,"à¦¨à¦®à¦¶":9410,"à¦¨à¦Ĩà¦¸":9411,"à¦¨à¦ķà¦¤à¦ķ":9412,"à¦¤à¦Ŀ":9413,"à¦¤à¦²à¦ķ":9414,"à¦¤à¦®à¦¤":9415,"à¦¤à¦°à¦¤à¦²":9416,"à¦²à¦°à¦ķ":9417,"à¦²à¦ıà¦ĩ":9418,"à¦²à¦¸à¦«":9419,"à¦²à¦«à¦²":9420,"à¦²à¦ĩà¦¬":9421,"à¦²à¦Ĩà¦ªà¦¨":9422,"à¦²à§İà¦ľ":9423,"à¦ķà¦·à¦£":9424,"à¦ķà¦ªà¦¤":9425,"à¦ķà¦ħà¦¨":9426,"à¦ķà¦¸à¦ª":9427,"à¦ķà¦¥à¦ķ":9428,"à¦ķà¦¯à¦ľ":9429,"à¦¯à¦Ľ":9430,"à¦¯à¦²à¦¤":9431,"à¦¯à¦®à¦°":9432,"à¦¯à¦«à¦²":9433,"à§ģà§Ĥ":9434,"à§ģà¥¥":9435,"à¦¬à¦ĵà¦¯":9436,"à¦¬à¦¬à¦¤":9437,"à¦¬à¦ľà¦°":9438,"à¦¬à¦īà¦²":9439,"à¦¬à¦®à¦¸":9440,"à¦¼à§ĭà¥¤âĢĿ":9441,"à¦¼à¥¥":9442,"à¦®à¦¸à¦°":9443,"à¦®à¦¬à¦¦":9444,"à¦®à§°":9445,"à¦®à¦°à¦¹à¦¸":9446,"à§ĭ.":9447,"à§ĭ...âĢĿ":9448,"Ġà¦ķà¦¨à¦Ĺ":9449,"Ġà¦¬à¦ķà¦¤":9450,"Ġà¦¸à¦¦à§Ł":9451,"à¥¤-":9452,"à¥¤à¥¤âĢĻ":9453,"à¦¸à¦ĸà¦¨":9454,"à¦¸à¦¦à¦°":9455,"à¦¸à¦ªà¦¥":9456,"à¦¸à¦°à¦¬à¦°":9457,"à¦¸à¦ªà¦°à¦Ł":9458,"Ġà¦ªà¦¹à¦°":9459,"Ġà¦ªà¦¢":9460,"Ġà¦ªà¦ļà¦¬":9461,"Ġà¦Ĩà¦ªà¦ķ":9462,"Ġà¦Ĩà¦ĩà¦¯":9463,"Ġà¦Ĩà¦ĵà¦²":9464,"à¦¦à¦¦à¦°":9465,"à¦¦à¦¶à¦¨":9466,"à¦¦à¦ľà¦²":9467,"à¦¦à¦ķà¦¦":9468,"à¦¦à¦ĩà§Ł":9469,"à¦¦à¦¬à¦§":9470,"à¦Łà¦¥":9471,"à¦Łà¦Ŀ":9472,"à¦Łà¦ķà¦¤":9473,"à¦Łà¦°à¦¦":9474,"à¦Łà¦ªà¦¤":9475,"à¦Łà¦¨à¦ķ":9476,"à¦Łà¦ªà¦Ł":9477,"à¦Łà¦¸à¦¹":9478,"à¦Łà¦ķà¦Łà¦ķ":9479,"Ġà¦¨à¦¬à¦¤":9480,"Ġà¦¨à¦²à¦Ł":9481,"Ġà¦¨à¦°à¦ĸ":9482,"Ġà¦¨à¦Ńà¦¸":9483,"Ġà¦¨à¦ŀà¦°":9484,"Ġà¦®à§İ":9485,"Ġà¦®à¦²à¦®à¦²":9486,"à¦ªà§İ":9487,"à¦ªà¦²à¦¤":9488,"à¦ªà¦®à¦¤":9489,"à¦ªà¦¶à¦ķ":9490,"à¦ªà¦Ńà¦°":9491,"à¦ªà¦īà¦ªà¦¨":9492,"à¦ĩà¦ķà¦°":9493,"à¦ĩà¦²à¦ķ":9494,"à¦ĩà¦Łà¦²":9495,"à¦ĩà¦«à¦²":9496,"à¦ĩà¦īà¦Ł":9497,"à¦ĩà¦¶à¦¤":9498,"à§Ģà¦ģ":9499,"à¦Ľà¦ľ":9500,"à¦ľà¦¬à¦ª":9501,"à¦ľà¦²à¦¤":9502,"à¦ľà¦ªà¦¦à¦¬":9503,"Ġà¦¹à¦¦à§Ł":9504,"Ġà¦¹à¦°à¦Ĺ":9505,"Ġà¦¹à¦ķà¦¸":9506,"Ġà¦¤à¦«à¦¸":9507,"Ġà¦ıà¦Ĺà¦²":9508,"Ġà¦ıà¦°à¦²":9509,"Ġà¦ıà¦®à¦¡":9510,"à¦¶à¦¤à¦¬":9511,"à¦¶à¦¦à¦°":9512,"à¦¶à¦¬à¦¤":9513,"à¦¶à¦ķà¦¬":9514,"à¦¼à§ĩ)":9515,"à¦¼à§ĩ!âĢĻ":9516,"Ġà¦ħà¦°à¦¤":9517,"Ġà¦ħà¦ĸà¦¨":9518,"Ġà¦ħà¦¯à¦¯":9519,"à¦ĸà¦°à¦¸":9520,"à¦ĸà¦ķà¦ĩ":9521,"à¦Ĺà§Ł":9522,"à¦Ĺà¦ķà¦°":9523,"à¦Ĺà¦°à¦¨":9524,"à¦Ĺà¦¦à¦°":9525,"à¦Ĺà¦¬à¦¦":9526,"à¦Ĺà¦®à¦¸":9527,"à¦Ĺà¦°à¦¤à¦²":9528,"à¦·à¦ļà¦¨":9529,"à¦·à¦¸à¦®":9530,"à¦·à¦°à¦¸à¦®":9531,"à¦§à¦¨à¦¤":9532,"à¦§à¦°à¦²":9533,"à¦§à¦¶à¦°":9534,"à¦§à¦¨à¦¤à¦¤":9535,"à¦¡à¦¬à¦²":9536,"à¦¡à¦²à¦Ł":9537,"à¦¡à¦Ńà¦¨":9538,"à¦¡à¦¬à¦ľà¦¨à¦¨":9539,"Ġà¦¯à¦®à¦¸":9540,"à¦ļà¦ªà¦°":9541,"à¦ļà¦°à¦¦":9542,"à¦ļà¦Łà¦ķ":9543,"à¦ļà¦ªà¦¦":9544,"à¦ļà¦¢":9545,"à¦ļà¦Ĺà¦¡":9546,"Ġà¦ķà¦°à¦®à¦ļ":9547,"à§Łà¦°à¦¤":9548,"à§Łà¦®à¦Ĺ":9549,"à§Łà¦¶à¦ĩ":9550,"Ġà¦Ĺà¦Ľ":9551,"Ġà¦Ĺà§Ł":9552,"Ġà¦Ĺà¦¬à¦°":9553,"Ġà¦Ĺà¦Ĺà¦²":9554,"Ġà¦Ĺà¦¤à¦®":9555,"à¦£à¦ªà¦¥":9556,"à¦£à¦ļà¦ķ":9557,"à¦£à¦¸à¦Ļ":9558,"à¦£à¦¯à¦ľ":9559,"à¦¥à¦¬à¦¨":9560,"à¦¥à¦Ĺà¦¤":9561,"à¦¥à¦¸à¦¨":9562,"Ġà¦¶à¦ľ":9563,"Ġà¦¶à¦£":9564,"Ġà¦¶à¦°à¦¨":9565,"Ġà¦¶à¦ĸà¦Ł":9566,"Ġà¦ľà¦ĸ":9567,"Ġà¦ľà¦°à¦¦":9568,"Ġà¦ľà§°":9569,"Ġà¦ļà¦°à¦¸":9570,"Ġà¦ļà¦°à¦ª":9571,"Ġà¦ļà¦°à¦Ľ":9572,"Ġà¦ļà¦ªà¦Ł":9573,"Ġà¦ļà§°":9574,"Ġà¦ļà¦®à¦ļ":9575,"Ġà¦Ńà¦ĩà¦²":9576,"Ġà¦Ńà¦Łà¦Ń":9577,"Ġà¦°à§ľ":9578,"Ġà¦°à¦¦à¦¨":9579,"Ġà¦°à¦ĩà¦Ľ":9580,"Ġà¦°à¦¶à¦®":9581,"Ġà¦°à¦ĩà¦®":9582,"Ġà¦°à¦ĩà¦ļ":9583,"à§ĩà¥¤-":9584,"à¦ĵà¦ľà¦¨":9585,"à¦Ńà¦Ľ":9586,"à¦Ńà¦°à¦¦":9587,"à§ĥà¦ĥ":9588,"Ġà¦Ľà¦°":9589,"Ġà¦Ľà¦¸":9590,"Ġà¦Ľà¦ĩ":9591,"Ġà¦Ĩà¦®à¦¹":9592,"Ġà¦Ĩà¦®à¦Ŀ":9593,"Ġà¦Ĩà¦®à¦¸à¦¤":9594,"à¦łà¦¤à¦²":9595,"à¦łà¦ļà¦°":9596,"Ġà¦īà¦¶à¦ĸ":9597,"à¦Ĥ!":9598,"à¦Ĥ?":9599,"à¦¾à¦ģâĢĵ":9600,"Ġà¦²à¦ĸà¦¨":9601,"Ġà¦²à¦ĩà¦¨":9602,"Ġà¦²à¦Ĺà¦¨":9603,"Ġà¦ĵà¦Ľ":9604,"Ġà¦ĵà¦ľà¦°":9605,"Ġà¦«à¦°à¦«à¦°":9606,"Ġà¦Ĩà¦°à¦Ń":9607,"Ġà¦Ĩà¦°à¦«":9608,"Ġà¦ĸà¦¸à¦²":9609,"Ġà¦ĸà¦ĩà¦¯":9610,"Ġà¦ĸà¦ĩà§Ł":9611,"Ġà¦ħà¦¨à¦Ļ":9612,"Ġà¦ħà¦¨à¦¬à¦§":9613,"Ġà¦§à¦ĩà¦°":9614,"Ġà¦§à¦²à¦¡":9615,"Ġà¦ªà¦°à¦¹":9616,"Ġà¦ªà¦°à¦£":9617,"Ġà¦ªà¦°à¦Ń":9618,"Ġà¦ªà¦°à¦Ĺà¦¨":9619,"Ġà¦ªà¦°à¦®à¦¤à¦¤":9620,"âĢĶà¥¤":9621,"à¦¬à¦¨à¦®à¦¨":9622,"à¦¬à¦¨à¦°à¦ķ":9623,"à¦¬à¦¨à¦®à¦¯":9624,"à¦¬à¦¨à¦®à§Ł":9625,"à¦¼à¦¿âĢĿ":9626,"à¦¼à¦¿à¥¤âĢĻ":9627,"à§ľà¦ĩ":9628,"à§ľà¦¤à¦²":9629,"à¦ªà¦°à¦¯":9630,"à¦°à¦£à¦¦":9631,"à¦°à¦£à¦ª":9632,"Ġà¦ıà¦ĩà¦¯":9633,"à¦®à¦¨à¦§":9634,"à¦ľà¦¨à¦§":9635,"à¦ľà¦¨à¦ªà¦¦":9636,"à¦ŀà¦¨":9637,"à¦¤à¦°à¦°":9638,"à¦¤à¦°à¦ļ":9639,"à¦«à¦Łà¦¨":9640,"à¦īà¦¸à¦ķ":9641,"à¦īà¦¸à¦«":9642,"à¦īà¦¥à¦ª":9643,"à¦¿,âĢĵ":9644,"Ġà¦Ĩà¦²à¦®à¦Ĺ":9645,"à¦°à¦¬à¦Ł":9646,"à¦°à¦¬à¦¶":9647,"à¦°à¦¬à¦ľà¦¨à¦ķ":9648,"à¦Ĩà¦ĵ":9649,"à¦Ĩà¦ĵà¦¯":9650,"à¦Ĩà¦ªà¦Ł":9651,"à¦Ĩà¦ªà¦¸":9652,"à¦Ĩà¦§à¦¬":9653,"à¦Ĩà¦¦à¦®":9654,"à¦Ĩà¦¦à¦¬":9655,"à§İà¦¨":9656,"à¦ıà¦¶":9657,"à¦ıà§Ł":9658,"à¦ıà¦®à¦¤":9659,"à¦ıà¦¨à¦ķ":9660,"à¦ıà¦¸à¦ª":9661,"à¦°à¦ķà¦¤":9662,"à¦¬à¦°à¦ľ":9663,"à¦¬à¦°à¦Ńà¦Ļ":9664,"Ġà¦¬à¦²à¦²à¦Ĺ":9665,"Ġà¦¬à¦²à¦²à¦Ĩà¦Ĺ":9666,"Ġà¦Łà¦«":9667,"âĢĻâĢĻ":9668,"à¦¼à¥¤'":9669,"à¦¼à¥¤(":9670,"à¦¼à¥¤âĢ¦":9671,"Ġà¦¹à¦²à¦ĵ":9672,"Ġà¦¡à¦²à¦¤":9673,"ĠâĢľâĢĺ":9674,"à§ĪâĢĵ":9675,"Ġà¦ĩà¦ķà¦²":9676,"Ġà¦ĩà¦¹à¦¸":9677,"Ġà¦ĩà¦ķà¦¬":9678,"Ġà¦ĩà¦¸à¦ķ":9679,"Ġà¦ĩà¦Łà¦¬":9680,"Ġà¦ĩà¦¡à¦²":9681,"à¦ĺà¦ĩ":9682,"à¦ĺà¦¬à¦¤":9683,"à¦ĺà¦°à¦¦":9684,"à¦ĺà¦¢":9685,"Ġà¦ľà¦¨à¦ªà¦¥":9686,"Ġà¦§à¦°à¦ª":9687,"Ġà¦Ŀà¦°à¦ķ":9688,"à¦¬à¦²à¦¶":9689,"à¦¬à¦²à¦ļ":9690,"à¦¬à¦ªà¦²":9691,"à¦·à¦£à¦ªà¦¦":9692,"à¦·à¦£à¦¤à¦¤":9693,"à¦·à¦£à¦¸à¦¹":9694,"à¦¨à¦¤à¦ĩ":9695,"à¦¨à¦¤à¦¶":9696,"Ġà¦ıà¦¸à¦¡":9697,"âĢĵà¥¤":9698,"Ġà¦¬à¦¸à¦°":9699,"Ġà¦Ĩà¦ľà¦°":9700,"à¦¤à¦¨à¦ª":9701,"à¦¤à¦¨à¦¹":9702,"à¦ħà¦¹à¦®":9703,"à¦ħà¦¬à¦ľ":9704,"à¦ħà¦ªà¦¬":9705,"à¦ħà¦¨à¦Łà¦¨":9706,"à¦ķà¦²à¦Ł":9707,"à¦ķà¦²à¦¬à¦¦":9708,"Ġà¦Ĩà¦¬à¦ķ":9709,"Ġà¦Ĩà¦Ĺà¦°":9710,"Ġà¦Ĩà¦Ĺà¦°à¦¤à¦²":9711,"Ġà¦Ĩà¦Ĺà¦°à¦ĵà¦¯":9712,"à¦ķà¦°à¦°":9713,"à¦ķà¦°à¦ª":9714,"à¦ķà¦°à¦Ĺ":9715,"à¦ķà¦°à¦¹":9716,"à¦¸à¦¬à¦ķà¦Ł":9717,"à¦¸à¦¬à¦¶à¦¤":9718,"Ġà¦ħà¦¸à¦«à¦²":9719,"à¦°à¦¨à¦®":9720,"à¦°à¦¸à¦¦":9721,"à¦¨à¦¬à¦¦à¦°à¦¦":9722,"à¦¦à¦¨à¦Ł":9723,"à¦¦à¦¨à¦ªà¦¦":9724,"à¦ķà¦¤à¦ķà¦Ł":9725,"à§ĩ?âĢĶ":9726,"à§ĩ?!âĢĿ":9727,"Ġà¦ıà¦²à¦Ĺà¦°":9728,"Ġà¦ħà¦¦à¦²":9729,"Ġà¦īà¦¦à¦Ĺà¦¤":9730,"à¦Ĺà¦²à¦§":9731,"à¦Ĺà¦²à¦ļ":9732,"à¦Ĺà¦²à¦Ń":9733,"à¦Ĺà¦²à¦ļà¦ķ":9734,"à¦Ĺà¦²à¦ļà¦£":9735,"Ġà¦ľà¦²à¦Ĺ":9736,"Ġà¦ľà¦²à¦ªà¦°":9737,"à¦Ĺà¦¤à¦ĵ":9738,"à¦®à¦¤à¦ĩ":9739,"à¦¯à¦ķà¦¨":9740,"Ġà¦¸à¦¨à¦ķ":9741,"à¦§à¦ķà¦ĩ":9742,"à¦§à¦ķà¦£":9743,"Ġà¦ĺà¦°à¦Ń":9744,"à¦¹à¦¸à¦Ļ":9745,"à¦ļà¦¨à¦Ł":9746,"à¦ļà¦¨à¦¶":9747,"à¦²à¦¨à¦Ń":9748,"à¦²à¦¨à¦®à¦¯":9749,"Ġà¦īà¦ªà¦²":9750,"Ġà¦īà¦ªà¦Ľ":9751,"Ġà¦īà¦ªà¦¸à¦®":9752,"à¦°à¦¯à¦ľ":9753,"à¦¬à¦¤à¦¸":9754,"à¦¨à¦ĵà¦ĩ":9755,"à¦¯à¦¤à¦ĵ":9756,"à¦®à¦²à¦®":9757,"à¦ĸà¦²à¦®":9758,"à¦§à¦¨à¦¸":9759,"à¦§à¦¨à¦Ń":9760,"à¦§à¦¨à¦ªà¦¦":9761,"Ġà¦ħà¦ªà¦Ń":9762,"Ġà¦ıà¦®à¦¨à¦¸à¦®à¦¯":9763,"à¦¼à§ĭà¦ĥ":9764,"à¦ļà¦²à¦ĵ":9765,"Ġà¦¸à¦¹à¦¶":9766,"Ġà¦¸à¦¹à¦ľà¦¨":9767,"à¦ªà¦¤à¦®":9768,"à¦¹à¦°à¦ª":9769,"à¦¹à¦°à¦°à¦®":9770,"à¦¸à¦¨à¦Ł":9771,"Ġà¦ľà¦®à¦ľ":9772,"Ġà¦ľà¦®à¦¦à¦Ĺ":9773,"Ġà¦¹à¦łà¦¯":9774,"à¦°à¦ªà¦°à¦ıà¦ķà¦Ł":9775,"à¦¸à¦®à¦ŀ":9776,"à¦Ńà¦¬à¦¸":9777,"à§Ģ,-":9778,"à¦Łà¦ķà¦¯":9779,"Ġà¦ªà§ľà¦¶":9780,"à¦¹à¦²à¦®à¦¯":9781,"Ġà¦ĺà¦Łà¦®":9782,"Ġà¦ĵà¦ªà¦°à¦Ł":9783,"Ġà¦ķà¦¤à¦Ń":9784,"âĢ¦,":9785,"âĢ¦?":9786,"âĢ¦?âĢĿ":9787,"Ġà¦ķà¦®à¦«":9788,"à¦Ĺà¦°à¦°":9789,"Ġà¦°à¦Ļà¦Ĺ":9790,"à¦°à¦Ńà¦ķ":9791,"à¦°à¦Ńà¦®à¦¯":9792,"à¦¸à¦°à¦°":9793,"à¦¸à¦°à¦ŀ":9794,"à¦ªà¦¦à¦²":9795,"à¦ªà¦¦à¦Ĩà¦ªà¦¦":9796,"à¦¦à§Łà¦®":9797,"à¦¦à§Łà¦ĸ":9798,"à¦¶à¦¬à¦ĩ":9799,"Ġà¦¨à§Łà¦ķ":9800,"à¦ıà¦ķà¦ķà¦¥":9801,"à¦ıà¦ķà¦ľà¦¨à¦ķ":9802,"à¦ıà¦ķà¦§à¦°à¦¨":9803,"à¦¨à¦ķà¦¯":9804,"à¦¨à¦ķà¦¡":9805,"Ġà¦ħà¦ķà¦®":9806,"Ġà¦¶à¦¹à¦°à¦ª":9807,"Ġà¦Ĺà¦°à¦ľà¦¨":9808,"à¦¦à¦²à¦ĩ":9809,"à¦°à¦ªà¦¤à¦¨":9810,"à¦¬à¦¸à¦®à¦ķ":9811,"Ġà¦ħà¦ªà¦°à¦Ł":9812,"à¦Łà¦²à¦ĵ":9813,"à§įâĢĮ--":9814,"Ġà¦«à¦²à¦¬à¦¤":9815,"à¦·à¦ķà¦ĵ":9816,"à¦¯à¦®à¦Ł":9817,"à¦¯à¦®à¦ª":9818,"à¦¤à¦ķà¦®":9819,"à¦¤à¦ķà¦ª":9820,"à¦¤à¦®à¦¦":9821,"à¦¤à¦®à¦§":9822,"à¦ħà¦¨à¦¡":9823,"à¦¾!!":9824,"à¦¼à§ĩ,âĢĿ":9825,"à¦®à¦¬à¦§":9826,"à¦ªà¦ķà¦®":9827,"à¦ľà¦²à¦ĸ":9828,"à¦ľà¦²à¦ļà¦ķ":9829,"à¦ľà¦²à¦°à¦Ļ":9830,"Ġà¦ħà¦¶à¦¥":9831,"à¦¬à¦ķà¦¸":9832,"à§ĩ;---":9833,"à¦¶à¦ķà¦®":9834,"Ġà¦Ĩà¦§à¦ĺ":9835,"Ġà¦ħà¦²à¦ª":9836,"Ġà¦ħà¦²à¦ĸ":9837,"Ġà¦ıà¦ķà¦¬à¦ļà¦¨":9838,"Ġà¦īà¦ªà¦°à¦ķ":9839,"Ġà¦īà¦ªà¦°à¦ĵ":9840,"à¦¹à¦¨à¦Ĺ":9841,"à¦¯à¦¦à¦¸":9842,"à¦ķà¦¨à¦Ĺ":9843,"à§°à¦²":9844,"à§°à¦¥":9845,"à§°à¦Ĺà¦¤":9846,"à§°à¦®à¦£":9847,"Ġà¦¶à¦¤à¦ĸ":9848,"Ġà¦¶à¦¤à¦¸à¦¹à¦¸":9849,"Ġà¦īà¦²à¦Łà¦ª":9850,"Ġà¦¨à¦¬à¦§":9851,"Ġà¦¨à¦¬à¦īà¦¦":9852,"à¦·à¦°à¦°":9853,"à¦¨à¦¸à¦¦":9854,"à¦¼à§Ģ!":9855,"à¦ªà¦¸à¦ĩ":9856,"à¦ªà¦¸à¦ľ":9857,"à¦Ĩà¦ľà¦Ĺ":9858,"à¦«à¦²à¦ĵ":9859,"à¦¥à¦°à¦Ĺà¦¤":9860,"à¦ĩà¦Łà¦¬":9861,"Ġà¦Ĩà¦¦à¦°à¦®":9862,"Ġà¦Ĩà¦¦à¦¬à¦ķ":9863,"Ġà¦¸à¦¹à¦ľà¦ª":9864,"Ġà¦Ĩà¦¹à¦¤à¦¦":9865,"à§İà¦¸à¦ķà¦°":9866,"à¦²à¦Ľà¦¬":9867,"à¦¿!(":9868,"Ġà¦ķà¦·à¦Ľ":9869,"à¦Ĺà¦¬à¦§":9870,"à¦°à¦Ĺà¦Ł":9871,"à¦ıà¦¬à¦®":9872,"Ġà¦ıà¦¨à¦ľà¦¯":9873,"Ġà¦°à¦ķà¦®à¦«":9874,"Ġà¦¤à¦¤à¦¸":9875,"Ġà¦Ĺà¦£à¦¶":9876,"Ġà¦Ĺà¦£à¦¶à¦ķ":9877,"Ġà¦¨à¦°à¦®à¦Ń":9878,"Ġà¦¨à¦°à¦®à¦ªà¦¨":9879,"ĠâĢĶâĢĺ":9880,"Ġà¦Ńà§Łà¦Ł":9881,"Ġà¦Ńà§Łà¦ĩ":9882,"Ġà¦¬à¦īà¦ıà¦°":9883,"à¦®à¦°à¦£à¦¶":9884,"à¦²à¦®à¦¶à¦²":9885,"âĢĺâĢĺ":9886,"Ġà¦īà§İà¦¸à¦¬à¦®à¦£":9887,"Ġà¦°à¦¸à¦§":9888,"Ġà¦°à¦¸à¦¹":9889,"Ġà¦ªà¦¶à¦°":9890,"à¦¼---":9891,"à¦¼âĢĶâĢĺ":9892,"Ġà¦Ĩà¦ªà§İà¦ķ":9893,"à¤¥":9894,"à¤Ľ":9895,"à§«à§«":9896,"à§«à§ª":9897,"à§«à§®":9898,"à¦łà¦ķà¦¯":9899,"à¦łà¦ķà¦ĵ":9900,"à¦ľà¦®à¦¶":9901,"à¦ľà¦®à¦ľà¦®":9902,"Ġà¦ľà§Łà¦®":9903,"à¦ķà¦ľà¦¨à¦ĩ":9904,"à¦ķà¦ľà¦¨à¦ĵ":9905,"à¦ĩà¦Ńà¦¸":9906,"à§ĩà¥¤âĢĻâĢĿ":9907,"à¦®à¦¦à¦ª":9908,"à¦®à¦¦à¦Ĺ":9909,"à¦¾à¥¤âĢĻâĢĻ":9910,"Ġà§§à§¯à§§à§§":9911,"à¦£à¦¬à¦Ļ":9912,"à§Ńà§§":9913,"à§Ńà§¨":9914,"à¦²à¦Ńà¦Ļ":9915,"à¦¯à§İà¦ĩ":9916,"Ġà¦¸à¦¦à¦Ĺà¦¤":9917,"à¦ķà¦Ĺà¦®à¦¨":9918,"à¦ľà¦Ľà¦¤":9919,"het":9920,"à¦¶à¦°à¦Ļ":9921,"Ġà¦Ĩà¦ĩà¦¨à¦¸à¦Ļ":9922,"inct":9923,"Ġà¦·à¦ĸà¦¨":9924,"à¦Ĩà¦Ĺà¦¸":9925,"à¦ľà§Łà¦¬":9926,"Ġà¦¨à¦Ĺà¦°à¦Ĺ":9927,"à¦Ĺà¦¡à¦Ĺ":9928,"Ġà¦¸à§İà¦ªà¦¥":9929,"Ġà¦¸à§İà¦¸à¦Ļ":9930,"Ġà¦ªà¦²à¦ķà¦¬":9931,"onst":9932,"Ġà¦¶à¦ªà¦¥à¦Ĺ":9933,"Ġà¦¶à¦ªà¦¥à¦ªà¦¤":9934,"Ġà¦¶à¦ªà¦¥à¦¬à¦¦":9935,"à¦®à¦ļà¦°à¦£":9936,"Ġà¦ķà¦ļà¦¸":9937,"à¦ķà§ľà¦ķ":9938,"Ġà¦ıà¦°à¦ķà¦®à¦Ń":9939,"Ġà¦®à¦¨à¦¨à¦¶à¦ķ":9940,"ream":9941,"read":9942,"à¦¸à¦¦à¦¦":9943,"ale":9944,"à¦īà¦¡à¦Ĺ":9945,"à¦«à¦Łà¦¹":9946,"à¦«à¦Łà¦ı":9947,"à§¯à§ª":9948,"Ġà¦ļà¦°à¦®à¦ªà¦¤":9949,"Ġà¦ļà¦®à¦ķà¦Ł":9950,"à¦¾âĢĿ!":9951,"ene":9952,"ense":9953,"ised":9954,"ishes":9955,"à¦Ĳà¦¨":9956,"Ġà¦ļà¦°à¦£à¦ķ":9957,"Ġà¦ļà¦°à¦£à¦¦":9958,"itc":9959,"its":9960,"à¦£à¦¦à¦£":9961,"Ġà¦Ĺà¦łà¦¨à¦Ĺà¦¤":9962,"Ġown":9963,"à§ĩâĢĻ!":9964,"Ġà¦°à¦¤à¦¨à¦²":9965,"Ġà¦Ķà¦ļ":9966,"à¦ħà¦®à¦Ļ":9967,"Ġshe":9968,"Ġsus":9969,"Ġsam":9970,"Ġscience":9971,"Ġà¦Ĩà¦ĸà§ľ":9972,"Ġà¦¬à¦¦à¦Ń":9973,"à¦ĩà¦«à¦ķ":9974,"Ġà¦°à¦¥à¦ļà¦ķ":9975,"Ġauthor":9976,"Ġca":9977,"Ġcent":9978,"Ġcur":9979,"Ġà¦Ńà¦°à¦¤à¦®":9980,"Ġà¦Ńà¦°à¦¤à¦¸":9981,"Ġà¦¨à¦°à¦ļà¦¨":9982,"arr":9983,"Ġà¦ıà¦®à¦Ĩà¦°":9984,"Ġmet":9985,"Ġmust":9986,"Ġà¦Ŀà§ľà¦Ŀà¦ŀ":9987,"à¦ĭà¦Ĺ":9988,"à¦·à¦ªà¦ŀ":9989,"Ġà¦ĩà¦¹à¦ľ":9990,"à¦ħà¦ªà¦¹à¦°à¦£":9991,"Ġbel":9992,"Ġpl":9993,"Ġprom":9994,"Ġpla":9995,"Ġpositive":9996,"Ġà¦¹à¦ĵà¦¨":9997,"à¦īà¦łà¦²":9998,"Ġà¦Ńà¦¬à¦¨à¦Ĺ":9999,"à¦ĺà¦Łà¦¨à¦ªà¦Ł":10000,"ional":10001,"edic":10002,"Ġfa":10003,"Ġfl":10004,"Ġfol":10005,"Ġfact":10006,"Ġda":10007,"Ġdr":10008,"Ġdra":10009,"Ġdem":10010,"Ġdest":10011,"Ġdark":10012,"Ġdivide":10013,"Ġdream":10014,"Ġà¦®à§İà¦¸à¦ľ":10015,"Ġà¦ķà¦¦à¦®à¦ª":10016,"Ġà¦¬à¦ĩà¦Łà¦ĩ":10017,"à¦²à¦ĵà¦Ń":10018,"à¦īà¦¬à¦ĵà§Ł":10019,"Ġà§¨à§¦à§§à§Ń":10020,"Ġà¤¨":10021,"Ġà¤¶":10022,"à¦Ĩà¦ĩà¦ĵà¦Ł":10023,"à§ĭâĢ¦à¥¤":10024,"Ġins":10025,"Ġname":10026,"Ġà¦ĸà¦¨à¦ĸà¦¨":10027,"à¦Īà¦Ĺà¦°":10028,"Ġlo":10029,"Ġlul":10030,"Ġlight":10031,"Ġà¦¸à¦°à¦²à¦¤à¦®":10032,"ĠIN":10033,"ĠInt":10034,"Ġà§«à§©":10035,"Ġthy":10036,"à¦ıà¦ķà¦ĩà¦¸à¦Ļ":10037,"olo":10038,"à¦īà¦ªà¦²à¦ķ":10039,"Ġà§ªà§©":10040,"Ġà§ªà§ª":10041,"ĠAn":10042,"ĠAs":10043,"Ġà§§à§©à§¨":10044,"elf":10045,"ely":10046,"ellect":10047,"Ġà¦¨à¦°à¦ķà¦ķ":10048,"ĠBip":10049,"à¦Ĭà¦¨":10050,"Ġever":10051,"Ġemp":10052,"Ġemer":10053,"Ġà§Ńà§§":10054,"Ġà§Ńà§¨":10055,"à¦¼?âĢĿâĢĶ":10056,"à¦·à¦ľà¦¨à¦ĵ":10057,"ĠRec":10058,"osa":10059,"Ġà¦Ĩà¦ķà¦¬à¦°à¦Ń":10060,"Ġgod":10061,"ĠDur":10062,"Ġà¦Ĩà¦ªà¦¸à¦¹":10063,"Ġà¦ªà¦¬à¦¨à¦¦":10064,"Ġà¦ĸà§ľà¦ĸà§ľ":10065,"Ġwhose":10066,"Ġà§¯à§«":10067,"Ġà§¯à§®":10068,"odu":10069,"Ġà¦®à¦¤à¦²à¦¬à¦Ł":10070,"ĠNaz":10071,"Ġà§§à§¨à§«":10072,"Ġà¦¶à¦ĵà¦ķà¦¤à¦ĵ":10073,"à¦¾'à¥¤":10074,"irst":10075,"cient":10076,"ade":10077,"Ġà¦¯à¦¬à¦¨à¦°":10078,"ected":10079,"ĠÑĪ":10080,"Ġà¦®à¦«à¦¸à¦¸à¦²":10081,"Ġà§§à§¯à§®à§©":10082,"istic":10083,"Ġà¦¨à¦¬à¦¬à¦¸à¦¨":10084,"Ġyet":10085,"iven":10086,"ĠEur":10087,"à§§à§ªà§«":10088,"Ġstre":10089,"ends":10090,"ĠÐ·":10091,"acy":10092,"aces":10093,"à§ĩ'à¥¤":10094,"à¦¤à¦¸à¦®à¦°":10095,"Ġà¦¬à¦Ľà¦°à¦ķ":10096,"Ġneg":10097,"Ġhapp":10098,"ogn":10099,"à¦ķà¦ľà¦®à¦ķà¦ª":10100,"Ġunder":10101,"Ġà§§à§¯à§¨à§§":10102,"Ġà§§à§¯à§¨à§Ń":10103,"Ġà¦¤à§İà¦¸à¦®":10104,"Ġà¦ĵà¦ĩà¦°à¦ķà¦®à¦ĩ":10105,"Ġà¦ħà¦ĺà¦Łà¦¨à¦ĺà¦Łà¦¨à¦ªà¦Ł":10106,"Ġà¦Ŀà¦²à¦Ŀà¦²":10107,"Ġwithout":10108,"ĠThere":10109,"iew":10110,"ibility":10111,"Ġspirit":10112,"à¦īà¦Ńà§Łà¦ĩ":10113,"à¤¹à¤°":10114,"âĢĶâĢĶâĢĶâĢĶ":10115,"ude":10116,"Ġà¦ıà¦¤à¦¬à¦Ľà¦°":10117,"Ø§Øª":10118,"Ġlearning":10119,"à¦ħà¦¬à¦¨à¦¤":10120,"afi":10121,"afÃ©":10122,"Ġalways":10123,"arna":10124,"à¦Ķà¦¦":10125,"Ġcontinu":10126,"Ġknowled":10127,"Ġappro":10128,"Ġwork":10129,"à§įà§įà§įà§į":10130,"radition":10131,"Ġeven":10132,"________":10133,"à§»à§ĩ":10134,"ship":10135,"æŃĵæŃĵæŃĵæŃĵæŃĵæŃĵæŃĵæŃĵæŃĵæŃĵæŃĵæŃĵæŃĵæŃĵæŃĵæŃĵæŃĵæŃĵæŃĵæŃĵæŃĵæŃĵæŃĵæŃĵæŃĵæŃĵæŃĵæŃĵæŃĵæŃĵæŃĵæŃĵ":10136,"à«į":10137,"Ġupon":10138,"Ġagain":10139,"ĠBengal":10140,"ĠBengali":10141,"alized":10142,"Ġessay":10143,"Ġfunction":10144,"ucation":10145,"Ġà¦ľà¦ªà¦¤à¦ª":10146,"Ġvalue":10147,"âĤĤ":10148,"ìĿĺ":10149,"à§į:âĢĶ":10150,"Ġà¦ªà¦¦à¦¨à¦ĸ":10151,"orks":10152,"Ġinstinct":10153,"áĥĶáĥ":10154,"ĠRahim":10155,"Ġsilent":10156,"ĠPargiter":10157,"Ġvillage":10158,"Ġspeak":10159,"laby":10160,"âĪĴ":10161,"Ġhistory":10162,"Ġpatriotism":10163,"LMS":10164,"Ġ555":10165,"Ġà¦ļà¦®à¦ļà¦®":10166,"Ġà¦Ńà¦Łà¦Ńà¦Ł":10167,"Ġsamosa":10168,"Ġlullaby":10169,"ĠBipul":10170,"Ġknowledge":10171,"!*":10172,"!)à¥¤":10173,"'!":10174,"-à¦¾":10175,".,":10176,".-":10177,"48":10178,"51":10179,"57":10180,"Ar":10181,"BB":10182,"BH":10183,"Boss":10184,"CE":10185,"CT":10186,"IS":10187,"Int":10188,"Joy":10189,"Man":10190,"Montu":10191,"OT":10192,"RI":10193,"RO":10194,"Re":10195,"STEM":10196,"Tr":10197,"Works":10198,"ace":10199,"cons":10200,"day":10201,"dam":10202,"ever":10203,"frag":10204,"gg":10205,"gan":10206,"get":10207,"hical":10208,"hrist":10209,"ier":10210,"iel":10211,"ient":10212,"iam":10213,"jective":10214,"kind":10215,"ls":10216,"lic":10217,"lam":10218,"ner":10219,"ned":10220,"nce":10221,"oon":10222,"oat":10223,"ole":10224,"oot":10225,"ped":10226,"pid":10227,"press":10228,"person":10229,"present":10230,"rb":10231,"rul":10232,"ses":10233,"ted":10234,"ters":10235,"uce":10236,"vas":10237,"ymp":10238,"ycle":10239,"ze":10240,"¡Õ":10241,"»¿":10242,"Ð·":10243,"ÑĪ":10244,"Ñĸ":10245,"Õ¥":10246,"Õ¸":10247,"ØŃ":10248,"Ú¯":10249,"à±":10250,"à²":10251,"à¶":10252,"à·":10253,"æĭ":10254,"ï»¿":10255,"ĠZ":10256,"Ġent":10257,"Ġend":10258,"Ġ10":10259,"Ġident":10260,"Ġà¦Ļ":10261,"à¦¾_":10262,"à§ĩà¦¿":10263,"à§ĩà§ģ":10264,"à§ĩà§ĭ":10265,"à¦°à¦Łà¦²":10266,"à¦°à¦ļà¦¯":10267,"à¦°à¦Ŀà¦¡":10268,"à¦°à¦ĺà¦£":10269,"à¦°à¦ĺà¦¡":10270,"à§įâĢĿ":10271,"à§įâĢĻ-":10272,"à¦¿âĢĲ":10273,"à¦¿âĭ¯":10274,"à¦¿Â¤":10275,"à¦¨à¦ĸà¦¨":10276,"à¦¨à¦°à¦¸":10277,"à¦¨à¦¦à¦°":10278,"à¦¨à¦®à¦°":10279,"à¦¨à¦ıà¦ķ":10280,"à¦¨à¦¢":10281,"à¦¨à¦ıà¦ķà¦Ł":10282,"à¦¨à¦ĩà¦¬":10283,"à¦¨à¦Ĩà¦®à¦°":10284,"à¦¨à¦®à¦¹":10285,"à¦¨à¦ľà¦®":10286,"à¦¨à¦ľà§Ł":10287,"à¦¨à¦ĺà¦£":10288,"à¦¤à¦¸à¦¬":10289,"à¦¤à¦²à¦¬":10290,"à¦¤à¦¶à¦ķ":10291,"à¦¤à¦·à¦Ł":10292,"à¦¤à¦¯à¦ľ":10293,"à¦¤à¦°à¦¤à¦°":10294,"à¦²à¦·":10295,"à¦²à¦ĩà¦¯":10296,"à¦²à¦®à§Ł":10297,"à¦²à¦ªà¦²":10298,"à¦ķà¦ĺ":10299,"à¦ķà¦®à¦°":10300,"à¦ķà¦¨à¦¦":10301,"à¦ķà¦¸à¦Ł":10302,"à¦ķà¦®à¦ª":10303,"à¦¯à¦«":10304,"à¦¯à¦ļà¦¨":10305,"à¦¯à¦Ńà¦¬":10306,"à¦¯à¦¶à¦¬":10307,"à¦¯à¦¸à¦¤":10308,"à¦¯à¦ľà¦²":10309,"à§ģ/":10310,"à§ģà§ĩ":10311,"à§ģ...":10312,"à¦¬à¦·":10313,"à¦¬à¦ł":10314,"à¦¬à¦«":10315,"à¦¬à¦®à¦°":10316,"à¦¬à¦ĩà¦¤":10317,"à¦¬à¦®à¦ª":10318,"à¦¬à¦īà¦Ł":10319,"à¦¬à¦īà¦°":10320,"à¦¼âĢĻ-":10321,"à¦®à¦°à¦²":10322,"à¦®à¦¹à¦¨":10323,"à¦®à¦Ńà¦°":10324,"à¦®à¦·à¦ª":10325,"à§ĭà¦¿":10326,"à§ĭ)à¥¤":10327,"Ġà¦ķà¦ĩà¦¨":10328,"Ġà¦ķà¦ĩà¦¯":10329,"Ġà¦ķà¦ĩà¦®":10330,"Ġà¦ķà¦¸à¦®à¦¸":10331,"Ġà¦¬à¦°à¦¸":10332,"Ġà¦¬à¦¹à¦²":10333,"Ġà¦¬à¦¢":10334,"Ġà¦¬à¦īà¦¨":10335,"Ġà¦¬à¦¦à¦¹":10336,"Ġà¦¬à¦°à¦ķà¦¨":10337,"Ġà¦¬à§İà¦¸à¦²":10338,"Ġà¦¬ab":10339,"Ġà¦¸à§ľ":10340,"Ġà¦¸à¦ĩà¦²":10341,"Ġà¦¸à§İà¦¸":10342,"à¥¤*":10343,"à¦¸à¦ªà¦°":10344,"à¦¸à¦ı":10345,"à¦¸à¦¦à¦¯":10346,"à¦¸à¦¯à¦¤":10347,"à¦¸à¦ļà¦ķ":10348,"à¦¸à¦¦à¦¸":10349,"Ġà¦ªà¦ĩ":10350,"Ġà¦ªà¦ĸ":10351,"Ġà¦ªà¦ł":10352,"Ġà¦ªà¦ļà¦¤":10353,"Ġà¦Ĩà¦ķà¦²":10354,"Ġà¦Ĩà¦ĩà¦Ľ":10355,"à¦¦à¦¶à¦¬":10356,"à¦¦à¦ĩà¦¯":10357,"à¦¦à¦Ńà¦Ļ":10358,"à¦¦à¦¨à¦¤à¦¤":10359,"à¦¦à¦°à¦¨à¦Ĺà¦°":10360,"à¦¦à¦²à¦¬à¦¦":10361,"à¦Łà¦¸à¦¨":10362,"à¦Łà¦ªà¦¦":10363,"à¦Łà¦¨à¦Ł":10364,"Ġà¦¨à¦¬à¦²":10365,"Ġà¦¨à¦ĵà§Ł":10366,"Ġà¦¨à¦§à¦°":10367,"Ġà¦¨à¦°à¦¬à¦²":10368,"Ġà¦¨à¦¬à¦²à¦¬":10369,"Ġà¦¨à¦°à¦¬à¦ª":10370,"Ġà¦¨esc":10371,"Ġà¦®à¦ª":10372,"Ġà¦®à¦ī":10373,"Ġà¦®à¦ķà¦°":10374,"Ġà¦®à¦ĩà¦°":10375,"Ġà¦®à¦Ľà¦²":10376,"Ġà¦®à¦¸à¦¨à¦¦":10377,"à¦ªà¦¦à¦¯":10378,"à¦ªà§İà¦¸":10379,"à¦ªà¦¹à¦¤":10380,"à¦ªà¦Ĩà¦²":10381,"à¦ªà¦²à¦¸":10382,"à¦ªà¦Ŀà¦°":10383,"à¦ªà¦Ńà¦¯":10384,"à¦ªank":10385,"à¦ĩà¦¸à¦¨":10386,"à¦ĩà¦¥à¦¨":10387,"à¦ĩà¦®à¦Ł":10388,"à¦ĩà¦®à¦ª":10389,"à¦ĩà¦ľà¦Ł":10390,"à§Ģà§į":10391,"à§Ģ)à¥¤":10392,"à¦Ľà¦ĸ":10393,"à¦Ľà¦ķà¦ĩ":10394,"Ġà¦¦à¦Ļ":10395,"à¦ľà¦¹à¦¸":10396,"à¦ľà¦ķà¦¶":10397,"à¦ľà¦łà¦°":10398,"à¦ľà¦²à¦ķà¦£":10399,"Ġà¦¹à¦¸à¦¨":10400,"Ġà¦¹à¦Łà¦ķ":10401,"Ġà¦¤à¦ĸà¦¤":10402,"Ġà¦¤à¦ĵà¦¬":10403,"Ġà¦ıà¦²à¦ķ":10404,"Ġà¦ıà¦ľà¦²":10405,"à¦¶à¦·":10406,"à¦¶à¦ł":10407,"à¦¶à¦ŀ":10408,"à¦¶à¦ļà¦°":10409,"à¦¶à¦²à¦Ł":10410,"à¦¶à¦¸à¦¹":10411,"Ġà¦ħà¦°à¦®":10412,"à¦ĸà¦ĺ":10413,"à¦ĸà¦²à¦ķ":10414,"à¦ĸà¦°à¦Ĺ":10415,"à¦Ĺà¦ªà¦¨":10416,"à¦Ĺà¦ĺ":10417,"à¦Ĺà¦ķà¦²":10418,"à¦Ĺà¦¦à¦²":10419,"à¦Ĺà¦ļà¦°":10420,"à¦Ĺà¦£à¦¤":10421,"à¦Ĺà¦¶à¦ķ":10422,"à¦Ĺà¦¸à¦Ļ":10423,"à¦Ĺà¦ķà¦¨":10424,"à¦Ĺà§°":10425,"à¦Ĺà¦¦à¦¤":10426,"à¦Ĺà¦ĸà¦£":10427,"à¦·à¦®à¦¨":10428,"à¦·à¦°à¦¬":10429,"à¦·à¦°à¦ĵ":10430,"à¦·à¦®à¦£":10431,"à¦§à¦°à¦ķ":10432,"à¦§à¦Ĺà¦£":10433,"à¦§à¦Ńà¦ķ":10434,"âĢŀ":10435,"à¦¡à¦¯":10436,"à¦¡à¦§":10437,"à¦¡à¦°à¦Ł":10438,"à¦¡à¦¬à¦¬":10439,"à¦¡à¦ķà¦¨à¦¸":10440,"Ġà¦¯à¦ĸ":10441,"Ġà¦¯à¦£":10442,"Ġà¦¯à¦®à¦°":10443,"à¦ļà¦ľ":10444,"à¦ļà¦¹":10445,"à¦ļà§İ":10446,"à¦ļà¦°à¦ķà¦®":10447,"à¦ļà¦ĺà¦°":10448,"à¦¹à¦¬à¦°":10449,"à¦¹à¦°à¦¸":10450,"à¦¹à¦ķà¦¤":10451,"à¦¹à¦ªà¦¥":10452,"à¦¹à¦¬à¦¦":10453,"à¦¹à¦ĩà¦¬":10454,"à¦¹à¦®à¦¸":10455,"à¦¹à¦ķà¦ķ":10456,"à¦¹à¦®à¦§":10457,"à¦¹à¦¬à¦¶à¦¤":10458,"à§Łà¦²à¦¬":10459,"à§Łà¦¨à¦ķ":10460,"Ġà¦Ĺà¦¥":10461,"Ġà¦Ĺà¦ĺ":10462,"Ġà¦Ĺà¦ľà¦¸":10463,"Ġà¦Ĺà¦ľà¦®":10464,"à¦£à¦ªà¦°":10465,"à¦£à¦ľà¦¨":10466,"à¦£à¦°à¦¥":10467,"à¦£à¦°à¦¶":10468,"à¦£à¦§à¦¨":10469,"à¦£à¦Ĺà¦¨":10470,"à¦£à¦¬à¦¯":10471,"à¦£à¦ľà¦¯":10472,"à¦£à¦Ńà¦¯":10473,"à¦£à¦²à¦Ļ":10474,"à¦ģâĢ¦":10475,"à¦¥à¦ľà¦¨":10476,"à¦¥à¦°à¦Ń":10477,"à¦¥à¦Ĺà¦ŀ":10478,"Ġà¦ľà¦¦":10479,"Ġà¦ľà¦ĵà¦¯":10480,"Ġà¦ľà¦°à¦¥":10481,"Ġà¦ļà¦°à¦²":10482,"Ġà¦Ńà¦®":10483,"Ġà¦Ńà¦°à¦ķ":10484,"Ġà¦Ńà¦²à¦ķ":10485,"Ġà¦Ńà¦ľà¦¤":10486,"Ġà¦°à§Łà¦¨":10487,"Ġà¦°à¦ľà¦¸":10488,"Ġà¦°à¦£à¦¨":10489,"Ġà¦°à¦£à¦¬":10490,"Ġà¦°à¦¸à¦¤à¦¤":10491,"à§ĩà¥¤âĢĶ":10492,"à§ĩà¥¤à¥¤âĢĻ":10493,"à¦ĵà¦§":10494,"à¦Ńà¦²à¦ķ":10495,"à¦Ńà¦²à¦Ĺ":10496,"Ġà¦ıà¦ķà¦ł":10497,"Ġà¦ıà¦ķà¦¬à¦¸":10498,"Ġà¦ıà¦ķà¦²à¦Ĺ":10499,"Ġà¦ıà¦ķà¦¸à¦ª":10500,"à¦¼à¦¾à¦ĥà¥¤":10501,"à§ĥ.":10502,"à§ĥà¦¾":10503,"Ġà¦Ľà¦°à¦°":10504,"à¦łà¦²":10505,"à¦łà¦Ľ":10506,"à¦łà¦¬à¦¨":10507,"à¦łà¦®à¦¤":10508,"à¦łà¦¨à¦ķ":10509,"à¦łà¦¬à¦¦":10510,"à¦łà¦Ĺà§ľ":10511,"Ġà¦īà¦²à¦ķ":10512,"Ġà¦īà¦¨à¦¬":10513,"Ġà¦īà¦ĩà¦ļ":10514,"à§ĤâĢĵ":10515,"à¦¾à¦ģâĢĶ":10516,"à¦Ļà¦°à¦¹":10517,"Ġà¦²à¦Ľ":10518,"Ġà¦²à¦¬à¦¸":10519,"Ġà¦²à¦¸à¦¸":10520,"Ġà¦²à¦ķà¦¬à¦ķ":10521,"Ġà¦¥à¦ªà¦¥à¦ª":10522,"Ġà¦¬à¦²à¦ķ":10523,"Ġà¦¬à¦²à¦Ĺ":10524,"Ġà¦¬à¦²à¦¬à¦¤":10525,"Ġà¦«à¦¨à¦ķ":10526,"Ġà¦Ĩà¦°à¦¸":10527,"Ġà¦Ĩà¦°à¦ĺ":10528,"Ġà¦Ĩà¦°à¦¬à¦Ń":10529,"Ġà¦ĸà¦¬":10530,"à¦°à¦¤à¦§":10531,"à¦°à¦¤à¦ªà¦°":10532,"Ġà¦ħà¦¨à¦¬à¦ļ":10533,"à¦¾à¥¤-":10534,"à¦¾à¥¤à¥¤âĢĺ":10535,"Ġà¦¹à¦¯à¦°à¦¤":10536,"âĢĶ-":10537,"âĢĶâĢĵ":10538,"Ġà¦¸à¦®à¦§":10539,"Ġà¦¸à¦®à¦¦à¦°":10540,"à¦¬à¦¨à¦«":10541,"à¦¬à¦¨à¦°à¦Ļ":10542,"à¦ĸà¦¨à¦¶":10543,"Ġà¦ĺà¦°à¦¸":10544,"Ġà¦ĺà¦°à¦ķà¦¨":10545,"Ġà¦®à¦¨à¦ªà¦Ł":10546,"Ġà¦®à¦¨à¦¨à¦¯":10547,"Ġà¦®à¦¨à¦Ĺà§ľ":10548,"à¦ªà¦°à¦ª":10549,"Ġà¦ıà¦ĩà¦®à¦¤":10550,"Ġà¦ıà¦ĩà¦¸à¦¬à¦ĩ":10551,"à¦¿à¥¤)":10552,"à¦¿à¥¤âĢĵ":10553,"à¦Ŀà¦¸":10554,"à¦Ŀà¦°à¦Ľ":10555,"à¦Ŀà¦Ĺà§ľ":10556,"à¦ľà¦¨à¦°à¦¤":10557,"à¦ľà¦¨à¦°à¦¸":10558,"à¦ľà¦¨à¦Ĺà¦°":10559,"à¦ŀà¦Ł":10560,"à¦ŀà¦ªà¦°":10561,"à¦¤à¦°à¦ĸà¦£":10562,"à¦¤à¦°à¦ªà¦¶":10563,"à¦«à¦ľ":10564,"à¦«à¦Ĺ":10565,"à¦«à¦ļ":10566,"à¦«à¦Łà¦ķ":10567,"à¦īà¦ı":10568,"à¦īà¦°à¦ķ":10569,"à¦īà¦²à¦¤":10570,"à¦ªà¦¨à¦°":10571,"à¦ªà¦¨à¦ļ":10572,"à¦ªà¦¨à¦Ń":10573,"à¦ªà¦¨à¦Ĺà¦°":10574,"Ġà¦Ĩà¦²à¦®à¦¦":10575,"à¦°à¦¬à¦¯":10576,"à¦°à¦¬à¦®":10577,"à¦°à¦¬à¦°à¦£":10578,"à¦°à¦¬à¦¸à¦¨":10579,"à¦°à¦¬à¦£à¦ķ":10580,"à¦Ĩà¦£":10581,"à¦Ĩà¦Ĩ":10582,"à¦Ĩà¦°à¦¨":10583,"à¦Ĩà¦¨à¦¬":10584,"à¦Ĩà¦Ĺà¦¤":10585,"à¦Ĩà¦²à¦¬":10586,"à¦Ĩà¦Ĺà¦¨":10587,"à¦Ĩà¦¨à¦ķ":10588,"à¦Ĩà¦¸à¦ķ":10589,"à¦Ĩà¦ªà¦²":10590,"à¦Ĩà¦ĩà§Ł":10591,"à¦Ĩà¦ĩà¦ľ":10592,"à§İà¦®":10593,"à§İà¦ĸ":10594,"à§İà¦¸à¦Ļ":10595,"à¦ıà¦²à¦ķ":10596,"à¦ıà¦¤à¦Ĺ":10597,"à¦ıà¦¤à¦¬à¦¡":10598,"à¦ıà¦Ĩà¦ĩà¦¯":10599,"âĢĿ?":10600,"âĢĿà§ĩ":10601,"à¦°à¦ķà¦ª":10602,"Ġà¦¸à¦¬à¦ĵ":10603,"à¦¬à¦°à¦§":10604,"à¦¬à¦°à¦Ŀ":10605,"Ġà¦¬à¦²à¦²à¦Ĩà¦¸":10606,"Ġà¦¬à¦²à¦²à¦ıà¦ĸà¦¨à¦ĵ":10607,"Ġà¦Łà¦²à¦¸":10608,"Ġà¦Ĩà¦Ľà¦¯":10609,"à¦¼à¥¤\"":10610,"Ġà¦¹à¦²à¦¨":10611,"Ġà¦¹à¦²à¦¸":10612,"Ġà¦īà¦łà¦²à¦¤":10613,"Ġà¦¡à¦Ĺà¦¡à¦Ĺ":10614,"à§Ī!":10615,"Ġà¦ĩà¦°à¦¤":10616,"à¦ĺà¦¤":10617,"à¦ĺà¦Ŀ":10618,"à¦ĺà¦°à¦ķ":10619,"à¦ĺà¦ĺ":10620,"Ġà¦Ŀà¦¨à¦ķ":10621,"à¦¬à¦²à¦Ŀà¦²":10622,"à¦¼,--":10623,"à¦¬à¦ªà¦Ł":10624,"Ġà¦ħà¦¬à§Ł":10625,"à¦°à¦®à¦Ĺ":10626,"à¦°à¦®à¦Ń":10627,"à¦°à¦®à¦ŀ":10628,"à¦°à¦®à¦¹à¦²":10629,"à¦·à¦£à¦¦":10630,"à¦·à¦£à¦¸à¦®":10631,"à¦·à¦£à¦°à¦ķà¦®":10632,"à¦¨à¦¤à¦¬":10633,"à¦¤à¦¨à¦¸":10634,"à¦¤à¦¨à¦¤à¦°":10635,"à¦ħà§Ł":10636,"à¦ħà¦ªà¦¤":10637,"à¦ħà¦¸à¦°":10638,"à¦ħà¦¬à¦ļ":10639,"Ġà¦¬à¦¨à¦Ŀ":10640,"Ġà¦¬à¦¨à¦°à¦ķ":10641,"Ġà¦¬à¦¨à¦«à¦²":10642,"Ġà¦¨à¦¤à¦®à¦¸":10643,"à¦ķà¦²à¦¬à¦¨":10644,"Ġà¦ªà¦¥à¦¬":10645,"Ġà¦ªà¦¥à¦ĸ":10646,"Ġà¦ħà¦®à¦¯":10647,"Ġà¦ħà¦®à¦°à¦ķ":10648,"Ġà¦Ĺà¦²à¦Ĺ":10649,"à¦ķà¦Łà¦Ł":10650,"à¦ķà¦Łà¦ª":10651,"à¦¸à¦¬à¦§":10652,"à¦¸à¦¬à¦¸à¦®à§Ł":10653,"à¦¯à¦¬à§İ":10654,"à¦¯à¦¬à¦¦à¦²":10655,"à¦¯à¦¬à§°":10656,"à¦°à¦¨à¦Ł":10657,"à¦°à¦¨à¦ĩ":10658,"à¦¤à¦¬à¦Ń":10659,"à¦¤à¦¬à¦¦à¦²":10660,"à¦¤à¦¬à§İà¦¸":10661,"à¦°à¦¸à¦ľ":10662,"à¦²à¦ķà¦¤":10663,"à¦²à¦ķà¦¡":10664,"à¦¨à¦¬à¦§":10665,"à¦¨à¦¬à¦¡":10666,"à¦¨à¦¬à¦°à¦£":10667,"à¦¨à¦¬à¦¬à¦°":10668,"à¦¦à¦¨à¦¸":10669,"à¦¦à¦¨à¦®à§Ł":10670,"à¦¦à¦¨à¦¸à¦¹":10671,"à¦¦à¦¨à¦¨à¦Ĺà¦°":10672,"à¦ķà¦¤à¦ĸ":10673,"Ġà¦¹à¦¤à¦ĩ":10674,"Ġà¦¹à¦¤à¦¶":10675,"Ġà¦¬à¦°à¦Ĺ":10676,"à¦°à¦¥à¦®à¦Ń":10677,"Ġà¦ıà¦ĸà¦¨à¦¤":10678,"à§ĩ?à¥¤":10679,"Ġà¦ıà¦²à¦¬":10680,"Ġà¦Ĩà¦¨à¦«":10681,"à¦Ĩà¦®à¦¦":10682,"Ġà¦īà¦¦à¦¦":10683,"Ġà¦īà¦¦à¦°à¦¸":10684,"à¦¦à¦°à¦Ĺ":10685,"à¦¦à¦°à¦ĵ":10686,"à¦¦à¦°à¦ŀ":10687,"Ġà¦ħà¦°à¦²":10688,"à¦Ĺà¦²à¦¤à¦¤":10689,"à¦Ĺà¦²à¦Ĺà¦ŀ":10690,"à¦Ĺà¦²à¦¶à¦Ļ":10691,"Ġà¦ľà¦²à¦¸à¦®":10692,"Ġà¦ľà¦²à¦¸à¦¤":10693,"Ġà¦ľà¦²à¦ªà¦Ł":10694,"à¦Ĺà¦¤à¦¸":10695,"à¦®à¦¤à¦²à¦¬":10696,"à¦§à¦ķà¦ĵ":10697,"à¦°à¦¹à¦¨à¦ķ":10698,"à¦°à¦¹à¦¨à¦¯":10699,"Ġà¦ĺà¦°à¦ĺà¦°":10700,"Ġà¦īà¦łà¦²à¦°":10701,"à¦ļà¦¨à¦ĵ":10702,"à¦²à¦¨à¦ĸ":10703,"Ġà¦®à¦¹à¦¨":10704,"Ġà¦īà¦ªà¦Ĺà¦¤":10705,"Ġà¦īà¦ªà¦¢":10706,"Ġà¦īà¦ªà¦²à¦¦":10707,"Ġà¦¸à¦°à¦ľ":10708,"Ġà¦¸à¦°à¦Ĺà¦®":10709,"à¦¬à¦¤à¦ª":10710,"à¦¬à¦¤à¦ļ":10711,"à¦¨à¦ĵà¦¨":10712,"à¦¨à¦ĵà¦ª":10713,"à¦¨à¦ĵà¦ĸ":10714,"à¦ĩà¦²à¦ĩ":10715,"à¦ĩà¦²à¦ĵ":10716,"à¦ĩà¦²à¦ªà¦¤":10717,"à¦§à¦¨à¦¦":10718,"à¦²à¦¬à¦ĩ":10719,"à¦°à¦ľà§Ł":10720,"à¦°à¦ľà§Łà¦¨":10721,"Ġà¦ħà¦ªà¦ļ":10722,"Ġà¦ħà¦ªà¦Ĺà¦¤":10723,"Ġà¦ħà¦ªà¦¶à¦¬":10724,"Ġà¦ķà¦²à¦ĵ":10725,"Ġà¦ķà¦²à¦ĺà¦°":10726,"à¦¼à§ĭâĢĻ":10727,"à¦¼à§ĭâĢĵ":10728,"à¦¼à§ĭà¦ĥà¥¤":10729,"Ġà¦Ĩà¦¤à¦¶":10730,"à¦ĩà¦¨à¦ª":10731,"à¦¨à¦¨à¦¸":10732,"à¦ıà¦ĩà¦¯":10733,"à¦ıà¦ĩà¦®à¦¤":10734,"Ġà¦ħà¦ļà¦ķ":10735,"Ġà¦ħà¦ļà¦ªà¦²":10736,"à§ĩ-âĢĺ":10737,"à¦Łà¦ķà¦®":10738,"à¦Łà¦ķà¦ĩ":10739,"à¦Łà¦ķà¦Ĺ":10740,"à¦Łà¦ķà¦ļ":10741,"Ġà¦ħà¦ľà¦²":10742,"à¦¹à¦²à¦®":10743,"Ġà¦īà¦¨à¦ļà¦²":10744,"âĢ¦âĢĿà¥¤":10745,"Ġà¦ķà¦®à¦ľ":10746,"Ġà¦ķà¦®à¦ĵ":10747,"à¦¤à¦²à¦§":10748,"à§ĩ!''":10749,"Ġà¦°à¦Ļà¦ĩ":10750,"Ġà¦īà§İà¦¸à¦ķ":10751,"Ġà¦ªà¦¦à¦Ľ":10752,"Ġà¦ªà¦¦à¦Ĺ":10753,"à¦®à¦°à¦ļ":10754,"à¦°à¦Ńà¦¬à¦¨":10755,"à¦¦à§Łà¦°":10756,"à¦¦à§Łà¦¬à¦¨":10757,"à¦°à¦ĵà¦¨":10758,"à¦°à¦ĵà¦ªà¦°":10759,"à¦°à¦ĵà¦°à¦ĩ":10760,"à¦®à¦£à¦¶":10761,"à¦®à¦£à¦¸à¦®":10762,"à¦¿?âĢĵ":10763,"à¦ıà¦ķà¦Ŀ":10764,"âĢĮâĢĮ":10765,"à¦¾?'":10766,"Ġà¦®à¦°à¦Łà¦¨":10767,"Ġà¦Ĺà¦°à¦°":10768,"à¦¦à¦²à¦Ł":10769,"à¦¬à¦¦à¦ķ":10770,"Ġà¦«à¦²à¦«":10771,"à¦·à¦ķà¦¨":10772,"à¦¯à¦®à¦ĵ":10773,"Ġà¦²à¦ķà¦Ĺ":10774,"à¦¿à¦ģ,":10775,"à¦¿à¦ģ-":10776,"à§ģà¦ĥ!":10777,"à¦¾!)":10778,"à¦ªà¦ķà¦ª":10779,"à¦ªà¦ķà¦£":10780,"Ġà¦ħà¦¶à¦¤":10781,"à¦¬à¦ķà¦¨à¦¶":10782,"Ġà¦ĩà¦¨à¦ķà¦°":10783,"à¦¢à¦ª":10784,"Ġà¦Ĩà¦§à¦®":10785,"à§Łà¦¨à¦¹":10786,"à¦ĩà¦ķà¦¸":10787,"à¦¯à¦¸à¦ļ":10788,"à¦¬à¦¬à§İ":10789,"Ġà¦Ńà¦¬à¦®à¦£":10790,"à¦¼à§ģâĢĶ":10791,"à¦¼à§ģâĢĵ":10792,"Ġà¦Ĺà¦¤à¦¯":10793,"à¦ľà¦°à¦Ĺ":10794,"Ġà¦īà¦²à¦«":10795,"Ġà¦¨à¦¬à¦Ń":10796,"Ġà¦¨à¦¬à¦°à¦¤":10797,"Ġà¦¬à¦¦à¦²à¦ª":10798,"à¦¨à¦¸à¦ªà¦Łà¦ķ":10799,"à¦¼à§Ģà¥¤âĢĿ":10800,"?âĢĿà¥¤":10801,"à¦¬à¦¶à¦®":10802,"à¦¬à¦¶à¦°à¦£":10803,"à¦¬à¦¶à¦¤à¦ĩ":10804,"à¦Ĩà¦ľà¦¬":10805,"à¦¨à¦°à¦Ĺ":10806,"à¦°à¦ľà¦¨à¦®":10807,"à¦°à¦ľà¦¨à¦ĩ":10808,"à¦«à¦²à¦Ł":10809,"à¦ĩà¦Łà¦Ń":10810,"Ġà¦¸à¦¹à¦ľà¦¤":10811,"à¦Ĺà¦ľà¦ĩ":10812,"à¦Ĺà¦ľà¦ĸà¦£":10813,"Ġà¦¸à¦®à§Łà¦Ĺ":10814,"à§İà¦¸à¦ĩ":10815,"à¦°à¦¹à¦£à¦®":10816,"à¦°à¦¹à¦£à¦ĵ":10817,"à¦Łà¦¬à¦ĩà¦¯":10818,"Ġà¦ıà¦ķà¦ĩà¦¸à¦®à¦¯":10819,"à¦īà¦²à¦Ļ":10820,"à¦īà¦²à¦ªà¦¨":10821,"à¦¿!âĢĶ":10822,"Ġà¦ĺà¦¨à¦¤à¦°":10823,"ÂłÂłÂłÂłÂłÂłÂłÂłÂłÂłÂłÂłÂłÂłÂłÂłÂłÂłÂłÂłÂłÂłÂł":10824,"Ġà¦ĸà¦¬à¦°à¦Ĺ":10825,"à¦°à¦®à¦£à¦¯":10826,"Ġà¦ıà¦¨à¦¡":10827,"ĠâĢĵâĢĺ":10828,"Ġà¦¦à¦¶à¦ªà¦¨":10829,"Ġà¦¦à¦¶à¦ľà¦¨à¦ķ":10830,"Ġà¦īà§İà¦¸à¦Ĺ":10831,"à¦ķà¦ķà¦£":10832,"Ġà¦ķà¦ĸà¦¨à¦ĵà¦ķà¦ĸà¦¨à¦ĵ":10833,"à¦Ĩà¦²à¦«":10834,"à¦Ĩà¦²à¦ªà¦¨":10835,"Ġà¦¬à¦ķà¦ļ":10836,"Ġà¦¬à§Łà¦²":10837,"à¦ľà¦¬à¦ľ":10838,"à¦ľà¦¬à¦ªà¦¨":10839,"à¦¦à¦®à¦Ĺ":10840,"Ġà¦Ńà§Łà¦Ń":10841,"Ġà¦¬à¦īà¦ĩ":10842,"Ġà¦¬à¦īà¦¡":10843,"à¦Łà¦°à¦°":10844,"à¦®à¦°à¦£à¦¯":10845,"à¦®à¦°à¦£à¦¸":10846,"à¦²à¦®à¦Ĺ":10847,"à¦Ĺà¦®à¦ĵ":10848,"Ġà¦ıà¦¸à¦¬à¦ĵ":10849,"à¦²à¦¸à¦ĵ":10850,"à¦²à¦Ĺà¦Ĺà¦¨":10851,"Ġà¦¬à§ľà¦®":10852,"Ġà¦¬à§ľà¦ľ":10853,"à¦ªà¦£à¦ĵ":10854,"Ġà¦īà§İà¦¸à¦¬à¦ļ":10855,"Ġà¦°à¦¸à¦ľ":10856,"Ġà¦°à¦¸à¦Ń":10857,"à¦®à¦¹à¦°à¦®":10858,"à¦Łà¦«à¦°à¦®":10859,"à§Łà¦¤à¦ĩ":10860,"Ġà¦§à¦°à¦¨à¦§":10861,"Ġà¦Īà¦Ĺà¦²":10862,"à¦¯à¦ªà¦²":10863,"à¦¸à¦Łà¦¸":10864,"Ġà¦®à¦ľà¦¹":10865,"Ġà¦ªà¦°à¦®à¦¶":10866,"à¤«":10867,"à¦ķà¦°à¦£à¦Ĺ":10868,"à¦ķà¦°à¦£à¦¹":10869,"à§«à§§":10870,"à¦¬à¦Ľà¦°à¦ĩ":10871,"à¦¶à¦²à¦Ĺà¦¤":10872,"Ġà¦¶à¦¹à¦°à¦®à¦¯":10873,"à¦¬à¦£à¦ķ":10874,"à¦¬à¦£à¦§":10875,"à§ĩ?âĢĿà¥¤":10876,"à¦łà¦ķà¦ª":10877,"à¦¿âĢĵâĢĵ":10878,"à¦·à¦¦à¦ķ":10879,"à¦·à¦¦à¦¬à¦°":10880,"Ġà¦ľà§Łà¦¬":10881,"à¦ĩà¦Ńà¦Ł":10882,"à§ĩà¥¤âĢĻâĢĻ":10883,"à¦¾à¥¤âĢĻâĢĿ":10884,"à§ĩâĢ¦à¥¤âĢĻ":10885,"à§ĩâĢ¦âĢĿà¥¤":10886,"à¦¼à¦Ĥà¥¤":10887,"Ġà§§à§¯à§©à§¦":10888,"à¦°à¦ĸà¦£":10889,"à¦ĩà§Łà¦°":10890,"à¦¿âĢĻ?":10891,"Ġà¦ªà¦°à¦¶à¦ĸ":10892,"à¦²à¦Ńà¦ķ":10893,"à¦®à¦ľà¦Ĺà¦¤":10894,"à¦¸à¦¹à¦ķ":10895,"à¦¸à¦¹à¦ª":10896,"à§ĭ!'":10897,"à¦ħà¦°à¦«":10898,"Ġà¦ªà¦£à¦ª":10899,"à§ªà§ª":10900,"Ġà¦¹à¦ĩà¦ĵ":10901,"hel":10902,"à¦·à§Łà¦ĩ":10903,"à¦·à§Łà¦ĵ":10904,"à¦¬à¦Łà¦¤à¦²":10905,"ined":10906,"iness":10907,"Ġà¦ķà§Łà¦ľà¦¨":10908,"à§ĩ?âĢĻâĢĶ":10909,"à¦ľà§Łà¦°à¦¥":10910,"Ġà¦¨à¦Ĺà¦°à¦ª":10911,"Ġà¦¨à¦Ĺà¦°à¦Ń":10912,"anan":10913,"à¦¨à¦Ľà¦¡":10914,"à¦ľà¦Ĺà¦¦":10915,"ony":10916,"onom":10917,"à¦¨à§Łà¦¨à¦ĩ":10918,"Ġà¦ĩà¦¸à¦ķà¦¨":10919,"Ġà¦¶à¦ªà¦¥à¦ĩ":10920,"Ġà¦®à¦¦à¦®à¦¤":10921,"à¦¦à¦¶à¦¬à¦°":10922,"Ġà¦Ĭà¦§":10923,"Ġà¦Ĭà¦¨à¦ªà¦ŀ":10924,"Ġà¦Ĩà¦ļà¦°à¦£à¦Ĺ":10925,"Ġà¦Ĩà¦ļà¦°à¦£à¦ĵ":10926,"Ġà¦Ĩà§ľà¦ļ":10927,"Ġà¦®à¦¨à¦¨à¦§":10928,"Ġà¦®à¦¨à¦¨à¦ļà¦°":10929,"à¦ªà§ľà¦¬":10930,"à¦ªà§ľà¦¶":10931,"à¦¾à¦ĥâĢĻ":10932,"à§¬à§¯":10933,"à§¬à§®":10934,"à¦ķà¦ĸà¦¨à¦ĩ":10935,"atis":10936,"atural":10937,"alism":10938,"Ġ!\"":10939,"Ġ!âĢĶ":10940,"à¦¨à¦¬à¦ľà¦Ĺà¦¤":10941,"Ġà¦Ĩà¦¸à¦¨à¦ĸ":10942,"à¦¬à¦°à¦£à¦ĵ":10943,"à§¯à§¨":10944,"à§¯à§®":10945,"à§®à§¬":10946,"!âĢĻâĢĿ":10947,"à¦¯à¦Ĺà¦ļ":10948,"Ġà¦ıà¦¡à¦®à¦¨":10949,"ency":10950,"ision":10951,"à¦Ĳà¦¦":10952,"Ġà¦ļà¦°à¦£à¦¬":10953,"Ġà¦ļà¦°à¦£à¦Ĺ":10954,"ited":10955,"ities":10956,"itude":10957,"Ġ:-":10958,"Ġà¦Ĩà¦Łà¦·à¦Ł":10959,"à§ĩâĢĻ-":10960,"à§ĩâĢĻ?":10961,"Ġà¦°à¦¤à¦¨à¦ª":10962,"Ġà¦Ķà¦°à¦Ļ":10963,"à§ĭ?âĢĿ,":10964,"Ġser":10965,"Ġsay":10966,"Ġsha":10967,"Ġske":10968,"Ġsense":10969,"Ġà¦ĩà¦Łà¦Ĺ":10970,"Ġ;--":10971,"Ġà¦ľà¦Ĺà§İà¦¦":10972,"Ġà¦ľà¦Ĺà§İà¦ª":10973,"Ġà¦ľà¦Ĺà§İà¦ľ":10974,"à¦¿âĢ¦âĢĻ":10975,"à¦¿âĢ¦à¥¤âĢĿ":10976,"à¦¿âĢ¦à¥¤âĢĻ":10977,"à¦ĩà¦«à§Ł":10978,"Ġà¦Ĩà¦«à¦¤":10979,"Ġaway":10980,"à¦ķà¦¶à¦¨à¦ĵ":10981,"Ġà¦®à¦°à¦£à¦«":10982,"Ġà¦Ńà¦°à¦¤à¦ª":10983,"Ġà¦Ńà¦°à¦¤à¦Ń":10984,"arun":10985,"arri":10986,"arily":10987,"Ġà¦°à¦£à¦¹":10988,"Ġà¦°à¦£à¦°à¦Ļ":10989,"Ġà¦°à¦£à¦ļà¦£":10990,"Ġà¦ķà¦¦à¦®à¦¤à¦²":10991,"Ġwar":10992,"Ġway":10993,"Ġwant":10994,"à¦®à¦Ńà¦ľà¦¨":10995,"oral":10996,"à¦¬à¦ªà¦¨à¦®à¦¯":10997,"Ġmass":10998,"Ġmach":10999,"Ġmiss":11000,"Ġmade":11001,"Ġà¦Ŀà§ľà¦ĩ":11002,"à¦ĭà¦Ĺà¦¬":11003,"Ġà¦ĩà¦¹à¦ľà¦¨":11004,"Ġà¦ĩà¦¹à¦ľà¦Ĺà¦¤":11005,"à¦ħà¦ªà¦¹":11006,"Ġà¦¬à¦°à¦«à¦¶":11007,"Ġà¦¬à¦°à¦«à¦Ŀà¦°":11008,"Ġbl":11009,"Ġbir":11010,"Ġpri":11011,"Ġpain":11012,"Ġpower":11013,"Ġpoet":11014,"Ġà¦Ĺà¦Ĺà¦¨à¦Ń":11015,"Ġà¦Ĺà¦Ĺà¦¨à¦®à¦£":11016,"andita":11017,"Ġà¦ıà¦°à¦ĩà¦®à¦§":11018,"ingly":11019,"à§Īà¦ĥ,":11020,"à§Īà¦ĥâĢĵ":11021,"Ġà§©à§®":11022,"edia":11023,"ica":11024,"ics":11025,"icular":11026,"oun":11027,"oura":11028,"à§·à§·":11029,"Ġfar":11030,"Ġfri":11031,"ask":11032,"let":11033,"lex":11034,"Ġà¦¨à§ľà¦ļà§ľ":11035,"Ġdet":11036,"Ġdid":11037,"Ġdow":11038,"à¥¤à¥¤/":11039,"à¥¤à¥¤âĢĺ":11040,"Ġà§§à§¯à§Ńà§®":11041,"Ġà¦ļà§ľà¦²":11042,"Ġà¦ļà§ľà¦ķ":11043,"Ġà¦ļà§ľà¦Ľ":11044,"Ġhig":11045,"Ġholo":11046,"Ġà§¨à§¦à§§à§ª":11047,"Ġà§¨à§¦à§«à§¦":11048,"Ġà¤¤":11049,"Ġà¤Ľ":11050,"à¦¿,âĢĿâĢĶ":11051,"Ġà¦¦à¦®à¦¨à¦¨":11052,"ctu":11053,"à§ĭâĢ¦à¥¤âĢĿ":11054,"à§ĭ!âĢĿâĢĶ":11055,"Ġà¦ķà¦²à¦¤à¦²":11056,"Ġnor":11057,"Ġliv":11058,"Ġlaw":11059,"à¦Ŀà¦¨à¦Ŀà¦¨":11060,"Ġà¦¸à¦¦à¦°à¦ĺ":11061,"Ġà¦ĵà¦ľà¦¨à¦¹":11062,"Ġà§§à§¯à§«à§¬":11063,"Ġà§«à§¨":11064,"Ġà§«à§ª":11065,"Ġthing":11066,"Ġthrough":11067,"Ġthought":11068,"race":11069,"Ġà¦¨à¦¬à¦¦à¦®":11070,"Ġà¦¨à§Łà¦¨à¦Ńà¦°":11071,"Ġà¦Łà¦²à¦·":11072,"ĠAl":11073,"Ġà§§à§©à§¦à§¦":11074,"Ġà¦īà¦ªà¦ķà¦°à¦£à¦Ĺ":11075,"ential":11076,"Ġà¦ĺà¦·à¦²":11077,"à§§à§¦à§¦":11078,"ute":11079,"uture":11080,"ĠPM":11081,"ĠPr":11082,"ĠPau":11083,"à¦¿'?":11084,"Ġtoo":11085,"Ġtoward":11086,"à§¦à§¦à§¦":11087,"Ġà¦ĸà¦Łà¦®à¦Ł":11088,"ĠâĢ¦.":11089,"ĠâĢ¦âĢĿ":11090,"à§ĩ):":11091,"à§į!]":11092,"à¦¼âĢ¦à¥¤":11093,"à¦Ĺà¦¬à¦¤à¦ª":11094,"ĠBrit":11095,"à¦¶à¦ªà¦¥à¦¬à¦¦":11096,"ĠSum":11097,"Ġele":11098,"Ġequ":11099,"à¦¾âĢ¦âĢĿâĢĶ":11100,"à¤¾à¤ģ":11101,"uring":11102,"Ġrevol":11103,"ĠTarun":11104,"à¦·à¦ľà¦¨à¦¦":11105,"Ġbeaut":11106,"ĠRel":11107,"ĠRoh":11108,"à§ĭâĢ¦âĢĿâĢĶ":11109,"chn":11110,"Ġà§§à§¯à§ªà§§":11111,"Ġà§§à§¯à§ªà§ª":11112,"à¦¬à¦Ĺà¦¤à¦Ń":11113,"Ġà¦ıà¦«à¦Ĩà¦°à¦Ĩà¦ĩ":11114,"imate":11115,"Ġà¦ķà¦¨à¦ķà¦¦":11116,"Ġà¦ĸà¦²à¦¬à¦²":11117,"à§Ģ?âĢĿâĢĶ":11118,"Ġgot":11119,"Ġgreat":11120,"ĠDJ":11121,"à§§à§¨à§«":11122,"usi":11123,"à¦¶à¦¶à¦§à¦°":11124,"ames":11125,"Ġà¦ªà¦¬à¦¨à¦ª":11126,"ĠCont":11127,"Ġà§§à§®à§¦":11128,"Ġà§§à§®à§¬à§¦":11129,"Ġà§¯à§¦à§¦":11130,"verse":11131,"ific":11132,"à¦ªà¦°à¦¶à¦®à¦£":11133,"ĠNe":11134,"ĠNandita":11135,"Ġà¥¥âĢĿ":11136,"Ġà§§à§¨à§¦":11137,"Ġà¦īà¦ĩà¦Ļ":11138,"Ġà¦ıà¦ķà¦¨à¦ľà¦°":11139,"!!!":11140,"empt":11141,"empor":11142,"à¤¤à¤°":11143,"à¦¡à¦īà¦ĩà¦¥":11144,"Ġà§§à§¯à§®à§¬":11145,"hers":11146,"Ġà¦¨à¦¬à¦°à¦Ļ":11147,"ipon":11148,"ĠLED":11149,"à§ĩ.à¥¤":11150,"Ġvari":11151,"Ġvision":11152,"Ġà¦Ĺà¦®à¦¨à¦ª":11153,"Ġà§§à§¯à§¬à§§":11154,"Ġà§§à§¯à§¬à§¨":11155,"Ġà§§à§¯à§¬à§ª":11156,"Ġstate":11157,"Ġstrong":11158,"Ġà§¨à§¦à§¦à§§":11159,"Ġà§¨à§¦à§¦à§¬":11160,"Ġà§¨à§¦à§¦à§®":11161,"ĠÐ³":11162,"ĠÐº":11163,"ĠÐ½":11164,"à¤ķà¤²":11165,"Ġà¦«à¦¸à¦²à¦ķ":11166,"ĠØ±":11167,"Ġà¦Ĩà¦īà¦²à¦ļ":11168,"à¸²":11169,"à¸ģ":11170,"Ġhere":11171,"Ġà§§à§¯à§©à§ª":11172,"Ġà§§à§¯à§©à§¯":11173,"Ġà¦®à¦Łà¦®à¦Ł":11174,"aster":11175,"ÐµÐ½":11176,"Ġright":11177,"Ġrather":11178,"Ġseem":11179,"Ġsearch":11180,"Ġtry":11181,"Ġìĭľ":11182,"Ġà¦Ĭà¦¨à¦¸à¦¤":11183,"Ġexc":11184,"Ġexist":11185,"Ġà¦Ĺà¦¤à¦¬à¦Ľà¦°":11186,"Ġproper":11187,"ments":11188,"selves":11189,"à¦°à¦Ĺà¦²à¦Ń":11190,"Ð¾Ð²":11191,"àª°":11192,"Ġà¦Ĳà¦°à¦ķà¦®à¦ĩ":11193,"Ġintellect":11194,"à§§à§¯à§Ńà§¦":11195,"ritical":11196,"Ġmyth":11197,"ape":11198,"Ġ×Ķ":11199,"Ġsub":11200,"Ġsucc":11201,"ocrat":11202,"Ġalso":11203,"à¦ªà¦ķà¦¤à¦®":11204,"à¦īà¦ªà¦ķà¦°à¦£":11205,"Ġchild":11206,"ruction":11207,"ĠThrough":11208,"aven":11209,"hys":11210,"à§°à¦¦à§°":11211,"Ġprodu":11212,"Ġbecause":11213,"ĠĠĠĠĠĠĠĠĠĠĠĠĠĠĠĠĠĠĠĠĠĠĠĠĠĠĠĠĠĠĠĠ":11214,"Ġà¦Ĺà¦Ĺà¦¨à¦¬":11215,"iction":11216,"TION":11217,"Ġfree":11218,"ĠIslam":11219,"Ġabstraction":11220,"Ġ``":11221,"à§»à¦¾":11222,"Ġconscious":11223,"xxxx":11224,"ragmatic":11225,"×Ļ×":11226,"Ġpossess":11227,"alization":11228,"ĠÃĹ":11229,"Ġà¦ªà¦°à¦®à¦¤à¦¸à¦¹":11230,"ravas":11231,"à¤¼à§ĩ":11232,"Ġaccept":11233,"ĠYou":11234,"Ġmathe":11235,"Ġbecome":11236,"mbrace":11237,"Ġneighbor":11238,"Ġdiffere":11239,"Ġetern":11240,"ishav":11241,"Ġmemory":11242,"ĠAparna":11243,"Ġremind":11244,"Ġconstant":11245,"known":11246,"à¦ľà¦¬à¦ªà¦£":11247,"Ġplace":11248,"Ġemerg":11249,"ĠDurga":11250,"ĠNazrul":11251,"ĠEurope":11252,"ognition":11253,"damental":11254,"Ġidentity":11255,"Ġà¦¬abu":11256,"Ġà¦¨escafÃ©":11257,"à¦ªankar":11258,"Ġdowry":11259,"Ġhigher":11260,"ĠRohit":11261,"Ġvariable":11262,"Ġsuccess":11263,"!âĢĺ":11264,"!--":11265,"\"âĢĶ":11266,").":11267,",âĢĺ":11268,"52":11269,"??":11270,"AC":11271,"AM":11272,"Al":11273,"BD":11274,"Digital":11275,"ETE":11276,"HO":11277,"If":11278,"It":11279,"Mod":11280,"On":11281,"PM":11282,"PP":11283,"PU":11284,"RU":11285,"Red":11286,"Ripon":11287,"SI":11288,"TA":11289,"Tub":11290,"VIN":11291,"What":11292,"[*":11293,"]à¥¤":11294,"ai":11295,"bi":11296,"bel":11297,"book":11298,"body":11299,"ced":11300,"cra":11301,"col":11302,"count":11303,"cond":11304,"comp":11305,"eed":11306,"fil":11307,"gr":11308,"han":11309,"hip":11310,"ired":11311,"ivers":11312,"iverse":11313,"lo":11314,"ler":11315,"lad":11316,"lant":11317,"ox":11318,"oz":11319,"pen":11320,"put":11321,"pose":11322,"rvas":11323,"sil":11324,"sub":11325,"ts":11326,"tra":11327,"ture":11328,"tick":11329,"uf":11330,"ura":11331,"uild":11332,"uravas":11333,"xist":11334,"yl":11335,"yn":11336,"yp":11337,"ys":11338,"¿Ĵ":11339,"Ã¶":11340,"Î±":11341,"ÏĦ":11342,"Ïħ":11343,"Ð¼":11344,"Ò¯":11345,"Õ«":11346,"Õ¿":11347,"Õ¡Õ":11348,"ÖĢ":11349,"×Ĳ":11350,"×ŀ":11351,"ÚĨ":11352,"Ûģ":11353,"âĶ":11354,"å®":11355,"å¿":11356,"ç¿Ĵ":11357,"íĻ":11358,"ĉĊ":11359,"ĊĠ":11360,"Ġ&":11361,"Ġ2":11362,"Ġà§į":11363,"Ġà§İà¦¸":11364,"Ġing":11365,"Ġ)à¥¤":11366,"Ġro":11367,"Ġvery":11368,"Ġà¨":11369,"Ġvers":11370,"ĠØ§ÙĦ":11371,"Ġ***":11372,"Ġign":11373,"Ŀáĥ":11374,"Ġà¦ŀ":11375,"à¦¾à¦¼":11376,"à¦¾à§ĭ":11377,"à¦¾à¦¾à¦ģ":11378,"à¦¾âĢĺ":11379,"à¦¾âĢķ":11380,"à§ĩà¦¼":11381,"à¦°à¦ł":11382,"à¦°à¦ĸà¦¨":11383,"à¦°à¦¦à¦¨":11384,"à¦°à¦Ĩà¦®":11385,"à¦°à¦¢":11386,"à¦°à¦Ĩà¦°":11387,"à¦°à¦ĺà¦¨":11388,"à¦°à¦ħà¦²":11389,"à§į'":11390,"à§į!âĢĿ":11391,"à¦¿\"":11392,"à¦¿(":11393,"à¦¿à¦¾à¦ģ":11394,"à¦¿\"à¥¤":11395,"à¦¨à¦Ĩ":11396,"à¦¨à¦¨à¦ĵ":11397,"à¦¨à¦®à¦²":11398,"à¦¨à¦ļà¦²":11399,"à¦¨à¦®à¦ķ":11400,"à¦¨à¦¦à¦²":11401,"à¦¨à¦ļà¦¡":11402,"à¦¨à¦ıà¦Ł":11403,"à¦¨à¦ĸà¦£":11404,"à¦¨à¦ľà¦ª":11405,"à¦¨à¦īà¦¤":11406,"à¦¨à¦ħà¦²":11407,"à¦¤à¦¹à¦¸":11408,"à¦¤à¦Ĺà¦¨":11409,"à¦¤à¦¶à¦¬":11410,"à¦¤à¦«à¦²":11411,"à¦¤à¦¹à¦¤":11412,"à¦¤à¦Ĺà¦®":11413,"à¦¤à¦ľà¦®":11414,"à¦¤à¦¶à¦¯":11415,"à¦²à¦ł":11416,"à¦²à¦°à¦¸":11417,"à¦²à¦ĩà¦²":11418,"à¦²à¦¸à¦°":11419,"à¦²à¦¸à¦¤":11420,"à¦²à¦¢":11421,"à¦²à¦¸à¦ķ":11422,"à¦²à¦ıà¦ķà¦Ł":11423,"à¦²à¦ĺà¦¡":11424,"à¦ķà¦ļà¦¨":11425,"à¦ķà¦ĸà¦¤":11426,"à¦ķà¦ķà¦¬":11427,"à¦ķà¦Ĺà¦¨":11428,"à¦ķà¦ľà¦²":11429,"à¦ķà¦¸à¦²":11430,"à¦ķà¦ĺà¦¨":11431,"à¦ķà¦°à¦¤à¦²":11432,"à¦¯à¦¨à¦¬":11433,"à¦¯à¦¦à¦¯":11434,"à¦¯à¦ħà¦¨":11435,"à¦¯à¦²à¦Ĺ":11436,"à¦¯à¦ĺà¦¨":11437,"à§ģà¦¾":11438,"à§ģà§ĥ":11439,"à§ģâĢĶâĢľ":11440,"à§ģâĢĿ!":11441,"à¦¬à¦Ĺà¦¨":11442,"à¦¬à¦®à¦¬":11443,"à¦¬à¦ĺà¦°":11444,"à¦¬à¦īà¦ķ":11445,"à¦¬à§İà¦ĩ":11446,"à¦¼à§ģâĢĻ":11447,"à¦®à¦Ĺà¦²":11448,"à¦®à§Łà¦¨":11449,"à¦®à¦ľà¦¯":11450,"à¦®à¦Ŀà¦°":11451,"à¦®à¦ľà¦®":11452,"à¦®à¦Ĺà¦¤à¦Ń":11453,"à§ĭ'à¥¤":11454,"Ġà¦ķà¦¬à¦¨":11455,"Ġà¦ķà¦Łà¦²":11456,"Ġà¦ķà¦ĩà¦¸":11457,"Ġà¦ķà¦®à¦¨à¦¸":11458,"Ġà¦ķØ§Ø":11459,"Ġà¦¬à¦ľà¦¨":11460,"Ġà¦¬à¦·à¦Ł":11461,"Ġà¦¬à¦°à¦¬à¦£":11462,"Ġà¦¬ung":11463,"Ġà¦¬à¦ľà¦¬à¦ľ":11464,"Ġà¦¸à¦ªà¦Ł":11465,"Ġà¦¸à¦¦à¦®":11466,"Ġà¦¸à¦²à¦«":11467,"Ġà¦¸à¦¦à§Łà¦¤":11468,"à¥Į":11469,"à¦¸à¦¸à¦¬":11470,"à¦¸à¦°à¦¹":11471,"à¦¸à¦°à¦¦":11472,"à¦¸à¦°à¦ĩ":11473,"à¦¸à¦¹à¦°":11474,"à¦¸à¦ļà¦°":11475,"à¦¸à¦ªà¦Ł":11476,"à¦¸à§°":11477,"à¦¸à¦Ńà¦Ļ":11478,"à¦¸à¦°à¦¤à¦®":11479,"Ġà¦ªà¦¯à¦°":11480,"Ġà¦ªà¦ªà¦¡":11481,"Ġà¦Ĩà¦ĸà¦¤":11482,"Ġà¦Ĩà§İà¦ķ":11483,"Ġà¦Ĩà¦¢":11484,"Ġà¦Ĩà¦ĵà¦°":11485,"à¦¦à¦¬à¦²":11486,"à¦¦à¦ķà¦²":11487,"à¦¦à¦¬à¦¤":11488,"à¦¦à¦¸à¦¨":11489,"à¦¦à¦ªà¦¥":11490,"à¦¦à¦§à¦°":11491,"à¦¦à¦Ĺà¦®":11492,"à¦¦à¦ľà¦Ĺà§İ":11493,"à¦Łà¦ŀ":11494,"à¦Łà¦Ĩ":11495,"à¦Łà¦®à¦¤":11496,"à¦Łà¦ªà¦¥":11497,"à¦Łà¦Łà¦²":11498,"à¦Łà¦¨à¦¦":11499,"à¦Łà¦¸à¦ķ":11500,"à¦Łà¦ĺà¦°":11501,"Ġà¦¨à¦¸à¦°":11502,"Ġà¦¨à¦ĩà¦¬":11503,"Ġà¦¨à¦²à¦ĸ":11504,"Ġà¦®à¦¹à¦¸":11505,"Ġà¦®à¦ĩà¦¯":11506,"Ġà¦®à¦ķà¦¦":11507,"Ġà¦®à¦Łà¦¨":11508,"Ġà¦®à¦¦à¦Ł":11509,"Ġà¦®à¦¦à¦ķ":11510,"à¦ªà¦ł":11511,"à¦ªà¦ĵà¦¯":11512,"à¦ªà¦¬à¦²":11513,"à¦ªà¦ļà¦¨":11514,"à¦ªà¦ķà¦¬":11515,"à¦ªà¦¸à¦°":11516,"à¦ªà¦ªà¦¥":11517,"à¦ªà¦ļà¦ķ":11518,"à¦ªà¦¶à¦¯":11519,"à¦ªà¦¬à¦§":11520,"à¦ĩà¦ĺ":11521,"à¦ĩà¦¸à¦®":11522,"à¦ĩà¦Łà¦ķ":11523,"à¦ĩà¦¸à¦ķ":11524,"à¦ĩà¦Ĩà¦°":11525,"à¦ĩà¦¶à¦°":11526,"à§Ģ),":11527,"à¦Ľà¦«":11528,"Ġà¦¦à¦°à¦®":11529,"Ġà¦¦à¦¶à¦¨":11530,"Ġà¦¦à¦®à¦¯":11531,"Ġà¦¦à¦®à¦¬":11532,"Ġà¦¦à¦®à¦Ł":11533,"Ġà¦¦à¦ĩà¦Ń":11534,"à¦ľà¦°à¦¬":11535,"à¦ľà¦°à¦¨":11536,"à¦ľà¦²à¦¨":11537,"à¦ľà¦°à¦¦":11538,"à¦ľà¦ĵà§Ł":11539,"à¦ľà¦ļà¦ķ":11540,"à¦ľà¦®à¦Ł":11541,"Ġà¦¹à¦Łà¦°":11542,"Ġà¦¤à¦ĩ":11543,"Ġà¦¤à¦Ľ":11544,"Ġà¦¤à¦¹":11545,"Ġà¦¤à¦°à¦¸":11546,"Ġà¦¤à¦ĸà¦²":11547,"Ġà¦¤à¦°à¦ľ":11548,"Ġà¦¤à¦¥à¦¨":11549,"Ġà¦¤à¦Łà¦Ń":11550,"Ġà¦ıà¦ªà¦°":11551,"Ġà¦ıà¦·à¦£":11552,"Ġà¦ıà¦Ĺà¦¨":11553,"Ġà¦ıà¦ªà¦¥":11554,"Ġà¦ıà¦¨à¦Ł":11555,"Ġà¦ıà¦ªà¦¸":11556,"à¦¶à¦°à¦¬":11557,"à¦¶à§İ":11558,"à¦¶à¦Ĺà¦²":11559,"à¦¶à¦®à¦°":11560,"à¦¶à¦ªà¦Ł":11561,"à¦¶à¦®à¦¨à¦ķ":11562,"à¦¼à§ĩà¦ģ":11563,"à¦¼à§ĩâĢĻ,":11564,"à¦¼à§ĩâĢ¦âĢĻ":11565,"Ġà¦ħà¦°à¦¥":11566,"Ġà¦ħà¦¶à¦¬":11567,"Ġà¦ħà¦ĩà¦¯":11568,"Ġà¦ħà¦Ŀà¦°":11569,"Ġà¦ħà¦£à¦¨":11570,"à¦ĸà¦°à¦®":11571,"à¦ĸà¦¦à¦°":11572,"à¦ĸà¦°à¦¹":11573,"à¦ĸà¦¹à¦°":11574,"à¦ĸà¦¸à¦®":11575,"à¦ĸà¦ľà¦²":11576,"à¦Ĺà¦®à¦£":11577,"à¦Ĺà¦Ĺà¦ľ":11578,"à¦·à¦¬à¦¨":11579,"à¦·à¦²à¦ķ":11580,"à¦·à¦°à¦¶":11581,"à¦·à¦¨à¦ĵ":11582,"à¦·à¦ķà¦¬":11583,"à¦·à¦¬à¦¹":11584,"à¦·à¦¸à¦¹":11585,"à¦§à¦£":11586,"à¦§à¦Ŀ":11587,"à¦§à¦«":11588,"à¦§à¦ĵà¦¯":11589,"à¦§à¦ķà¦²":11590,"à¦§à¦°à¦¦":11591,"à¦§à¦Ĺà¦¨":11592,"à¦§à¦°à¦ª":11593,"à¦§à¦ļà¦ķ":11594,"à¦§à¦°à¦Ľ":11595,"âĢĬ":11596,"à¦¡à¦ªà¦¤":11597,"à¦¡à¦¸à¦¤":11598,"à¦¡à§Łà¦¨":11599,"à¦¡à¦¸à¦¹":11600,"à¦¡à¦¬à¦¡":11601,"à¦¡à¦¬à¦ªà¦ķ":11602,"Ġà¦¯à¦®à¦ª":11603,"à¦ļà¦°à¦¬":11604,"à¦ļà¦ĵà¦¯":11605,"à¦ļà¦¬à¦ĩ":11606,"à¦¹à¦¥":11607,"à¦¹à¦°à¦¤":11608,"à¦¹à¦§à¦¨":11609,"à¦¹à¦¨à¦¨":11610,"à¦¹à¦¤à¦²":11611,"à¦¹à¦§à¦°":11612,"Ġà¦ķà¦°à¦ķ":11613,"Ġà¦ķà¦°à¦Ł":11614,"Ġà¦ķà¦°à¦§":11615,"Ġà¦ķà¦°à¦ļ":11616,"Ġà¦ķà¦°à¦¨à¦ĸ":11617,"à§Łà¦¡":11618,"à§Łà¦¨à¦¬":11619,"à§Łà¦®à¦®":11620,"Ġà¦Ĺà¦Ĺà¦£":11621,"à¦£à¦ĸà¦¨":11622,"à¦£à¦°à¦¸":11623,"à¦£à¦ªà¦¦":11624,"à¦£à¦ĺà¦¨":11625,"à¦£à¦¸à¦¹":11626,"à¦£à¦°à¦Ļ":11627,"à¦£à¦ªà¦¶":11628,"à¦£à¦ľà¦Ĺà¦¤":11629,"à¦£à¦ĺà¦Ł":11630,"à¦ģ,":11631,"à¦¥à¦°à¦¤":11632,"à¦¥à¦°à¦ĩ":11633,"à¦¥à¦ªà¦¥":11634,"à¦¥à¦°à¦ª":11635,"à¦¥à¦§à¦°":11636,"à¦¥à¦²à¦Ł":11637,"Ġà¦¶à¦¦":11638,"Ġà¦¶à¦¶à¦ķ":11639,"Ġà¦¶à¦°à¦¬à¦°":11640,"Ġà¦¶à¦Łà¦Ĺ":11641,"Ġà¦¶à¦°à¦¬à§İ":11642,"Ġà¦ľà¦ķ":11643,"Ġà¦ľà¦Ĺà¦²":11644,"Ġà¦ľà¦Ĺà¦¬":11645,"Ġà¦ľà§Łà¦¤":11646,"Ġà¦ľà¦ĵà¦¹":11647,"Ġà¦ļà¦¶":11648,"Ġà¦ļà¦°à¦Ĺ":11649,"Ġà¦ļà¦ķà¦¦":11650,"Ġà¦Ńà¦·":11651,"Ġà¦Ńà§ľ":11652,"Ġà¦Ńà¦ŀ":11653,"Ġà¦Ńà¦°à¦¨":11654,"Ġà¦Ńà¦²à¦Ĺ":11655,"Ġà¦°à¦ĵà§Ł":11656,"Ġà¦°à¦¬à¦ķ":11657,"Ġà¦°à¦¸à¦²":11658,"Ġà¦°à¦ļà§Ł":11659,"Ġà¦°à¦¡à¦°":11660,"à§ĩà¥¤*":11661,"à§ĩà¥¤--":11662,"à¦ĵà¦¥":11663,"à¦ĵà¦¬à¦¨":11664,"à¦ĵà¦Ĩà¦®":11665,"à¦ĵà¦°à¦ĩ":11666,"à¦ĵà¦¸à¦®":11667,"à¦ĵà¦ĩà¦Ł":11668,"à¦ĵà§İà¦¸":11669,"à¦ĵà¦Ĩà¦°":11670,"à¦ĵà§ľà¦¨":11671,"à¦Ńà¦¬à¦ª":11672,"à¦Ńà¦¨à¦¤":11673,"à¦Ńà¦®à¦¯":11674,"à¦Ńà¦¶à¦ķ":11675,"Ġà¦ıà¦ķà¦Ľ":11676,"Ġà¦ıà¦ķà¦¦à¦°":11677,"Ġà¦ıà¦ķà¦ĺà¦¨":11678,"Ġà¦ıà¦ķà¦ıà¦ķà¦ľà¦¨":11679,"Ġà¦ıà¦ķà¦Ĩà¦§à¦Ł":11680,"à¦¼à¦¾âĢĻ,":11681,"à¦¼à¦¾âĢĻâĢĶ":11682,"à¦¼à¦¾âĢ¦âĢĻ":11683,"à§ĥâĢĻ":11684,"Ġà¦Ľà¦®à¦ķ":11685,"Ġà¦Ľà¦ªà¦Ľ":11686,"Ġà¦Ĩà¦®à¦ľ":11687,"à¦łà¦¯":11688,"à¦łà¦°à¦¬":11689,"à¦łà¦¬à¦°":11690,"à¦łà¦ķà¦¬":11691,"à¦łà¦¶à¦¬":11692,"à¦łà¦¸à¦Ļ":11693,"à¦łà¦¨à¦ĩ":11694,"à¦łà¦ĸà¦¡":11695,"à¦łç¿Ĵ":11696,"Ġà¦īà¦ķà¦Ł":11697,"Ġà¦īà¦¶à¦¨":11698,"Ġà¦īà¦ĩà¦¯":11699,"Ġà¦īà¦ĩà¦¡":11700,"Ġà¦īà¦Ńà¦ķ":11701,"Ġà¦īà¦ĩà¦ª":11702,"Ġà¦īà¦ĩà¦Ĺ":11703,"Ġà¦īà¦Ľà¦¸":11704,"à¦Ĥ;":11705,"à¦¾à¦ģ?âĢĿ":11706,"à¦¾à¦ģ?âĢĻ":11707,"à¦Ļà¦¶":11708,"Ġà¦²à¦ª":11709,"Ġà¦²à¦ĩà¦Ľ":11710,"Ġà¦²à¤¹à¤°":11711,"Ġà¦ĵà¦¶":11712,"Ġà¦¥à¦¬":11713,"Ġà¦¥à¦¸":11714,"Ġà¦«à¦ľ":11715,"Ġà¦«à¦ķà¦°":11716,"Ġà¦Ĩà¦°à¦ıà¦¸":11717,"Ġà¦ĸà¦®":11718,"à¦°à¦¤à¦¦":11719,"à¦°à¦¤à¦°à¦Ļ":11720,"à¦¾à¥¤âĢĶ":11721,"à¦¾à¥¤..":11722,"Ġà¦§à¦¨à¦¸":11723,"Ġà¦§à¦®à¦§":11724,"Ġà¦ªà¦°à¦ªà¦ķ":11725,"Ġà¦ªà¦°à¦§à¦°":11726,"Ġà¦ªà¦°à¦¶à¦ª":11727,"Ġà¦¸à¦®à¦®à¦°":11728,"à¦¾,à¥¤":11729,"à¦¾,âĢĵ":11730,"à¦¾,âĢľ":11731,"à¦¬à¦¨à¦¬à¦¨":11732,"à¦¬à¦¨à¦°à¦¸":11733,"à¦¬à¦¨à¦¸à¦®":11734,"à¦¬à¦¨à¦¨à¦¦":11735,"à¦¼à¦¿?âĢĿ":11736,"à§ľà¦ļ":11737,"à§ľà¦ªà¦¤":11738,"à¦ĸà¦¨à¦ª":11739,"à¦ĸà¦¨à¦ĸ":11740,"Ġà¦ĺà¦°à¦¨":11741,"Ġà¦®à¦¨à¦¨à¦ĩ":11742,"Ġà¦®à¦¨à¦ķà¦£":11743,"à¦ªà¦°à¦°":11744,"à¦ªà¦°à¦²":11745,"à¦ªà¦°à¦¹à¦°":11746,"à¦°à¦£à¦§":11747,"à¦°à¦£à¦ľà¦¨":11748,"à¦°à¦£à¦Ĺà¦¤":11749,"Ġà¦ıà¦ĩà¦¸à¦Ļ":11750,"à¦¿à¥¤âĢĶ":11751,"à¦®à¦¨à¦ĸ":11752,"à¦®à¦¨à¦ĵ":11753,"à¦Ŀà¦¨à¦¦":11754,"à¦ľà¦¨à¦Ń":11755,"à¦ŀà¦®":11756,"à¦ŀà¦ĵ":11757,"à¦ŀà¦ľà¦¨":11758,"à¦ŀà¦¦à¦ķ":11759,"à¦¤à¦°à¦§":11760,"à¦¤à¦°à¦ľà¦Ĺà§İ":11761,"à¦«à¦Ŀà¦®":11762,"à¦īà¦²à¦¬":11763,"à¦īà¦ĩà¦Ł":11764,"à¦īà¦®à¦Ĺ":11765,"à¦īà¦ªà¦²":11766,"à¦īà§İà¦ªà¦¤":11767,"à¦īà§İà¦ķà¦°":11768,"à¦īà¦ĩà§Łà¦°":11769,"à¦¿,---":11770,"à¦ªà¦¨à¦ĵ":11771,"Ġà¦Ĩà¦²à¦¹":11772,"Ġà¦Ĩà¦²à¦¬à¦¤":11773,"à¦°à¦¬à¦ªà¦ķ":11774,"à¦°à¦¬à¦¹à¦¨":11775,"à¦°à¦¬à¦£à¦®":11776,"à¦°à¦¬à¦²à¦¤à¦®":11777,"à¦Ĩà¦¤à¦°":11778,"à¦Ĩà¦²à¦ķ":11779,"à¦Ĩà¦Ĺà¦²":11780,"à¦Ĩà¦ļà¦²":11781,"à¦Ĩà¦ªà¦¤":11782,"à¦Ĩà¦¹à¦²":11783,"à¦Ĩà¦ķà¦¨":11784,"à¦Ĩà¦¨à¦²":11785,"à¦Ĩà¦¨à¦Ĺ":11786,"à¦Ĩà¦ĩà¦Ł":11787,"à¦Ĩà¦¶à¦¯":11788,"à¦Ĩà¦¦à¦¤":11789,"à¦Ĩà§Łà¦°":11790,"à§İà¦¬à¦°":11791,"à§İà¦¶à¦ķ":11792,"à§İà¦«à¦¨":11793,"à¦ıà¦¥":11794,"à¦ıà¦Ļ":11795,"à¦ıà¦ŀ":11796,"à¦ıà¦°à¦ĵ":11797,"à¦ıà¦¨à¦¸":11798,"à¦ıà¦®à¦ª":11799,"à¦ıà¦«à¦¸":11800,"à¦ıà¦°à¦ªà¦°à¦ĩ":11801,"âĢĿâĢĶâĢľ":11802,"à¦°à¦ķà¦ĩ":11803,"Ġà¦¸à¦¬à¦¤":11804,"Ġà¦¸à¦¬à¦§à¦°à¦¨":11805,"à¦¬à¦°à¦ĸ":11806,"à¦¬à¦°à¦®à¦£":11807,"à¦¬à¦°à¦ľà¦²":11808,"Ġà¦¬à¦²à¦²à¦²":11809,"Ġà¦¬à¦²à¦²à¦ħà¦¨":11810,"Ġà¦¬à¦²à¦²à¦¯à¦¦":11811,"Ġà¦¬à¦²à¦²à¦ıà¦¤":11812,"Ġà¦Ĩà¦¸à¦¹":11813,"Ġà¦Ĩà¦¸à¦¨à¦ª":11814,"Ġà¦Łà§Ł":11815,"Ġà¦Łà¦ªà¦¨":11816,"Ġà¦Łà¦²à¦ķ":11817,"Ġà¦Łà¦ªà¦²":11818,"Ġà¦Ĩà¦Ľà¦°":11819,"âĢĻ?âĢĿ":11820,"à¦¼à¥¤]":11821,"Ġà¦¹à¦²à¦Ĺ":11822,"Ġà¦¡à¦ĵ":11823,"Ġà¦¡à¦«":11824,"Ġà¦¡à¦®à¦°":11825,"Ġà¦¡à¦Łà¦ª":11826,"Ġà¦ĩà¦¬à¦²":11827,"Ġà¦ĩà¦°à¦®":11828,"Ġà¦ĩà¦ľà¦®":11829,"à¦ĺà¦¹":11830,"à¦ĺà¦²à¦¤":11831,"à¦ĺà¦¶à¦ķ":11832,"à¦ĺà¦Łà¦¬":11833,"à¦ĺà¦Ŀà¦¡":11834,"ÂłĠÂłĠÂł":11835,"Ġà¦ľà¦¨à¦ªà¦°":11836,"Ġà¦§à¦°à¦¨à¦ĵ":11837,"Ġà¦Ŀà¦ĩ":11838,"Ġà¦Ŀà¦Ŀ":11839,"à¦¬à¦²à¦¹":11840,"à¦¬à¦²à¦ľà¦²":11841,"à¦¼,âĢĵ":11842,"ĠâĢĺ)à¥¤":11843,"à¦¬à¦ªà¦¥":11844,"à¦°à¦®à¦ķà¦°":11845,"à¦°à¦®à¦¥à¦ķ":11846,"à¦°à¦®à¦¦à¦¤":11847,"à§ģà¦ģ!":11848,"Ġà¦łà¦ķà¦²":11849,"Ġà¦łà¦®à¦ķ":11850,"à¦·à¦£à¦§à¦°":11851,"Ġà¦ķà¦°à¦²à¦ķ":11852,"Ġà¦ıà¦¸à¦¤":11853,"Ġà¦ıà¦¸à¦Ł":11854,"Ġà¦ıà¦¸à¦ķà¦°":11855,"âĢĵ]":11856,"à¦¤à¦¨à¦°":11857,"à¦ĥ/":11858,"à¦ĥâĢ¦":11859,"à¦ħà¦ĸ":11860,"à¦ħà¦ªà¦¨":11861,"à¦ħà¦¤à¦¨":11862,"à¦ħà¦Ńà¦¯":11863,"à¦ħà¦¹à¦Ļ":11864,"Ġà¦¬à¦¨à¦¯":11865,"Ġà¦ªà¦¥à¦®":11866,"Ġà¦ªà¦¥à¦¸à¦Ļ":11867,"Ġà¦ħà¦®à¦°à¦¬":11868,"Ġà¦ħà¦®à¦°à¦²":11869,"Ġà¦Ĩà¦Ĺà¦¬":11870,"Ġà¦Ĩà¦Ĺà¦¡":11871,"Ġà¦Ĺà¦²à¦ª":11872,"à¦ķà¦°à¦¨":11873,"à¦ķà¦°à¦ĩ":11874,"à¦ķà¦°à¦ĸ":11875,"à¦ķà¦°à¦¦à¦°":11876,"à¦ķà¦Łà¦¤":11877,"à¦¸à¦¬à¦¸":11878,"à¦¯à¦¬à¦¸à¦°":11879,"à¦¯à¦¬à¦ĩà¦¤":11880,"à§ĭà¥¤'":11881,"à§ĭà¥¤à¥¤":11882,"à¦°à¦¥à¦¯":11883,"à¦°à¦¨à¦¨":11884,"à¦°à¦¨à¦ķ":11885,"à¦°à¦¨à¦¸":11886,"à¦°à¦¨à¦ľ":11887,"à¦¤à¦¬à¦¦":11888,"à¦¤à¦¬à¦¶":11889,"à¦¤à¦¬à§ľ":11890,"à¦¤à¦¬à¦ķà¦Ĺ":11891,"à¦°à¦¸à¦¡":11892,"à¦°à¦¸à¦°à¦¤":11893,"à¦²à¦ķà¦®":11894,"à¦²à¦ķà¦ĩ":11895,"à¦¨à¦¬à¦Ł":11896,"à¦¨à¦¬à¦ĩ":11897,"à¦¨à¦¬à¦¦à¦¨":11898,"à¦¨à¦¬à¦¸à¦¨":11899,"à¦¨à¦¬à¦ļà¦°":11900,"à¦¨à¦¬à¦Ĺà¦£":11901,"à¦¨à¦¬à¦¸à¦¦":11902,"à¦¾à¦ĤâĢĶ":11903,"à¦¾à¦ĤâĢĮ":11904,"à§ĭ,âĢĿâĢĶ":11905,"Ġà¦Ĩà¦¶à¦ķ":11906,"à¦¦à¦¨à¦°":11907,"à¦¦à¦¨à¦¨":11908,"à¦¦à¦¨à¦ļà¦ķ":11909,"à¦ķà¦¤à¦¤":11910,"à¦ķà¦¤à¦Ĺ":11911,"à¦ķà¦¤à¦ķà¦Ĺ":11912,"Ġà¦¹à¦¤à¦ľ":11913,"Ġà¦¬à¦°à¦ľ":11914,"à¦°à¦¥à¦®à¦¤à¦®":11915,"à§ĩ?(":11916,"à§ĩ?âĢľ":11917,"Ġà¦ħà¦¦à¦°à¦ķ":11918,"Ġà¦Ĩà¦¨à¦¹":11919,"Ġà¦Ĩà¦¨à§Łà¦¨":11920,"Ġà¦īà¦¦à§Łà¦¨":11921,"à¦¦à¦°à¦ĩ":11922,"Ġà¦ħà¦°à¦Ĺ":11923,"à¦Ĺà¦²à¦¶":11924,"à¦Ĺà¦²à¦Ĩà¦®":11925,"à¦Ĺà¦²à¦¸à¦°":11926,"à¦Ĺà¦²à¦ĺà¦Ł":11927,"à¦Ĺà¦²à¦®à¦¹à¦²":11928,"Ġà¦ľà¦²à¦¯":11929,"Ġà¦ľà¦²à¦¬à¦¨":11930,"Ġà¦ľà¦²à¦ľà¦¨":11931,"Ġà¦ľà¦²à¦¬à¦°":11932,"Ġà¦ľà¦²à¦¬à¦¤":11933,"Ġà¦ľà¦²à¦®à¦¯":11934,"Ġà¦ľà¦²à¦¶à¦ķ":11935,"Ġà¦ľà¦²à¦Ŀà¦°":11936,"Ġà¦ľà¦²à¦Ľà¦¡":11937,"à¦²à¦¤à¦¦":11938,"à¦¿à¦Ĥ?âĢĿ":11939,"à¦¿à¦Ĥ!âĢĻ":11940,"à¦¶à¦¨à¦²":11941,"à¦¶à¦¨à¦®à¦¯":11942,"à¦®à¦¤à¦ķ":11943,"à¦®à¦¤à¦ª":11944,"à¦¯à¦ķà¦¬":11945,"Ġà¦¸à¦¨à§İà¦ķ":11946,"à¦°à¦¹à¦¯":11947,"à¦°à¦¹à¦Ļ":11948,"à¦°à¦¹à¦°à¦ķ":11949,"à¦°à¦¹à¦¨à¦¨":11950,"Ġà¦ĺà¦°à¦ª":11951,"Ġà¦īà¦łà¦²à¦¨":11952,"Ġà¦īà¦łà¦²à¦¸":11953,"Ġà¦īà¦łà¦²à¦ĵà¦¹":11954,"à¦ļà¦¨à¦ļ":11955,"à¦²à¦¨à¦¨":11956,"à¦²à¦¨à¦ķà¦¶":11957,"à¦²à¦¨à¦®à§Ł":11958,"Ġà¦īà¦ªà¦®à¦¨":11959,"Ġà¦¸à¦°à¦ª":11960,"Ġà¦¸à¦°à¦²à¦¸":11961,"à¦°à¦¯à¦ļ":11962,"Ġà¦¯à¦ĸà¦¨à¦ķ":11963,"à¦¨à¦ĵà§Ł":11964,"à¦ĩà¦²à¦ª":11965,"à¦®à¦²à¦¤à¦°":11966,"à¦ĸà¦²à¦¹":11967,"à¦§à¦¨à¦§":11968,"à¦§à¦¨à¦°à¦¤":11969,"à¦§à¦¨à¦¸à¦®":11970,"à¦²à¦¬à¦Ł":11971,"à¦²à¦¬à¦ĵ":11972,"à¦²à¦¬à¦¦à¦¨":11973,"à¦²à¦¬à¦¸à¦¨":11974,"à¦°à¦¦à¦¸":11975,"à¦°à¦¦à¦¦":11976,"à¦°à¦¦à¦Ł":11977,"à¦°à¦¦à¦¶":11978,"à¦°à¦ľà¦¸":11979,"à¦°à¦ľà¦°à¦®à¦£":11980,"Ġà¦ħà¦ªà¦¶":11981,"Ġà¦ħà¦ªà¦¥":11982,"Ġà¦ķà¦²à¦²":11983,"Ġà¦ķà¦²à¦Ń":11984,"Ġà¦ķà¦²à¦®à¦ļ":11985,"Ġà¦ķà¦²à¦¸à¦ĸ":11986,"à¦ļà¦²à¦¸à¦®":11987,"à¦®à¦ķà¦£":11988,"à¦°à¦ĩà¦¨":11989,"Ġà¦Ĩà¦¤à¦²":11990,"à¦¸à¦¨à¦¯":11991,"Ġà¦Ńà¦°à¦Ńà¦°":11992,"à¦ĩà¦¨à¦¦":11993,"à¦ķà¦¬à¦¯":11994,"à¦ķà¦¬à¦§":11995,"à¦ıà¦ĩà¦Ĺ":11996,"à¦°à¦ªà¦°à¦®":11997,"à¦¸à¦®à¦Ŀ":11998,"à§Ģ,âĢĻ":11999,"à§Ģ,--":12000,"à¦¿-âĢĻ":12001,"à¦¿-âĢĺ":12002,"à¦Łà¦ķà¦¹":12003,"à¦Łà¦ķà¦£":12004,"à¦Łà¦ķà¦°à¦£":12005,"Ġà¦ıà¦ĸà¦ĸ":12006,"Ġà¦ķà¦¤à¦²":12007,"Ġà¦ķà¦®à¦¦":12008,"à¦¤à¦²à¦®":12009,"à¦¤à¦²à¦ĸ":12010,"à¦Ĺà¦¨à¦¦":12011,"à¦Ĺà¦¨à¦ĵà¦¯":12012,"Ġà¦¬à¦Ľà¦°à¦Ł":12013,"à§ĩ!*":12014,"à§ĩ!--":12015,"Ġà¦°à¦Ļà¦¤":12016,"Ġà¦¯à¦¤à¦ľà¦¨":12017,"Ġà¦īà§İà¦ķà¦¨":12018,"à¦°à¦Ńà¦¨":12019,"Ġà¦ıà¦Łà¦®":12020,"à¦ªà¦¦à¦§":12021,"à¦¦à§Łà¦¦":12022,"à¦¦à§Łà¦¹":12023,"à¦¦à§Łà¦ªà¦Ł":12024,"à¦¦à§Łà¦Ńà¦°":12025,"Ġà¦¶à¦°à¦¬à¦¨":12026,"à¦°à¦ĵà¦ķ":12027,"Ġà¦ħà¦Ĺà¦ª":12028,"à¦ªà¦¥à¦¶":12029,"Ġà¦¨à§Łà¦¨à¦ľ":12030,"Ġà¦ħà¦®à¦²à¦¦":12031,"Ġà¦ħà¦®à¦²à¦§":12032,"à¦®à¦£à¦ª":12033,"à¦¿?''":12034,"à¦ıà¦ķà¦ļ":12035,"à¦ıà¦ķà¦Ń":12036,"à¦ıà¦ķà¦®à¦¨":12037,"à¦ıà¦ķà¦ĸà¦£":12038,"à¦ıà¦ķà¦ĺà¦£":12039,"à¦¾?âĢĶ":12040,"Ġà¦ıà¦°à¦ľà¦¨":12041,"à¦¨à¦ķà¦°à¦£":12042,"à¦°à¦ªà¦¶":12043,"à¦°à¦ªà§ľ":12044,"Ġà¦¬à¦ĩà¦ĺà¦°":12045,"Ġà¦¬à¦ĩà¦Ńà¦°":12046,"à¦¬à¦¸à¦¯":12047,"à¦¬à¦¸à¦¹":12048,"Ġà¦ħà¦ªà¦°à¦ľà¦¨":12049,"à¦Łà¦²à¦Łà¦²":12050,"à¦·à¦¤à¦¸":12051,"à§įâĢĮ;":12052,"Ġà¦«à¦²à¦ľ":12053,"Ġà¦«à¦²à¦Ń":12054,"à¦¯à¦®à¦¦":12055,"à¦¯à¦®à¦ľ":12056,"à¦¯à¦®à¦¹":12057,"à¦¤à¦ķà¦Ĺ":12058,"à§ģ,âĢĿâĢĶ":12059,"à¦¤à¦®à¦¹":12060,"à¦¾!âĢĵ":12061,"à¦ļà¦ķà¦¨":12062,"à¦ļà¦ķà¦Ń":12063,"à¦ªà¦ķà¦ĵ":12064,"à¦ªà¦ķà¦°à¦£":12065,"à¦ľà¦²à¦Ľ":12066,"à¦ľà¦²à¦¢":12067,"à¦ľà¦²à¦§à¦°":12068,"à¦ľà¦²à¦®à¦Ĺ":12069,"à¦ľà¦²à¦Ľà¦¬":12070,"à¦¬à¦ķà¦ª":12071,"à¦¬à¦ķà¦ĩ":12072,"à¦¬à¦ķà¦Ĺ":12073,"à¦¬à¦ķà¦ľà¦¨":12074,"à¦¨à¦¦à¦ķ":12075,"à§ĩ;âĢĿ":12076,"à¦£à¦¤à¦¤":12077,"à¦£à¦¤à¦ĩ":12078,"à¦¶à¦ķà¦ĵ":12079,"à¦¢à¦ķ":12080,"Ġà¦Ĩà¦§à¦«":12081,"à¦¤à¦¤à¦Ł":12082,"à¦°à¦ķà¦®à¦Ń":12083,"à¦¯à¦¸à¦ŀ":12084,"à¦¯à¦¸à¦®à¦¯":12085,"à¦¯à¦¸à¦¹à¦ļà¦°":12086,"à¦¹à¦¨à¦ľà¦²":12087,"Ġà¦Ĩà¦¸à¦²à¦Ł":12088,"à§ĩà¥¤âĢĿâĢĶ":12089,"à¦ªà¦Łà¦ªà¦Ł":12090,"à¦¼à§ģ!":12091,"à¦ľà¦°à¦°":12092,"!âĢĿà¥¤":12093,"!âĢĿâĢĵ":12094,"à¦ķà¦¨à¦²à¦ľ":12095,"à¦¸à¦ķà¦Ń":12096,"à¦¸à¦ķà¦®à¦£":12097,"à§°à¦ľà¦¨":12098,"à§°à¦ķà¦²":12099,"à§°à¦®à¦¶":12100,"à§°à¦¯à¦ľ":12101,"à¦¸à¦«à¦°à¦®":12102,"Ġà¦¶à¦¤à¦¸":12103,"Ġà¦¶à¦¤à¦Ł":12104,"Ġà¦¶à¦¤à¦Ľ":12105,"Ġà¦¶à¦¤à¦ļ":12106,"à§ģ---":12107,"à§ģà¥¤âĢĺ":12108,"Ġà¦¨à¦¬à¦¤à¦°à¦Ļ":12109,"Ġà¦īà¦ľà¦¬":12110,"Ġà¦Ĩà¦ļà¦£":12111,"Ġà¦Ĩà¦ļà¦®à¦¨":12112,"Ġà¦¬à¦¦à¦²à¦Ł":12113,"à¦¨à¦¸à¦Ł":12114,"à¦ªà¦¸à¦ª":12115,"à¦ªà¦¸à¦Ń":12116,"à¦ªà¦¸à¦°à¦£":12117,"à¦¬à¦¶à¦¸":12118,"à¦°à¦ľà¦¨à¦¨à¦ķ":12119,"à¥¤âĢĻ)à¥¤":12120,"Ġà¥¤'":12121,"à¦¨à¦Ĺà¦¡":12122,"Ġà¦Ĺà§ľà¦²":12123,"à¦«à¦²à¦¸":12124,"à¦«à¦²à¦Ĺ":12125,"à¦¥à¦°à¦ĸ":12126,"à¦ĩà¦Łà¦ª":12127,"à¦ªà¦·à¦ľ":12128,"Ġà¦¸à¦¹à¦ľà¦¤à¦®":12129,"à¦Ĺà¦ľà¦¬":12130,"à¦Ĺà¦ľà¦ĵ":12131,"à¦¼à¦¾à¥¤\"":12132,"à¦²à¦Ľà¦Ł":12133,"à§ĩâĢĵâĢľ":12134,"à§ĩâĢĵâĢĺ":12135,"à¦īà¦²à¦ª":12136,"à¦¿!''":12137,"à¦ķà¦¶à¦¯":12138,"Ġà¦ıà¦¨à¦Ń":12139,"à§ĭâĢĶâĢĿ":12140,"à§ĭâĢĶâĢĻ":12141,"Ġà¦°à¦ķà¦®à¦ĵ":12142,"Ġà¦°à¦ķà¦®à¦¸à¦ķà¦®":12143,"à¦®à§Łà¦ķ":12144,"à¦®à§Łà¦¬":12145,"à¦ķà¦¦à¦¦à¦¸":12146,"Ġà¦īà§İà¦¸à¦¬à¦ª":12147,"Ġà¦¬à¦Łà¦¦":12148,"Ġà¦¹à¦°à¦ł":12149,"à¦Ĩà¦²à¦Ł":12150,"à¦ķà¦¡à¦ĩà¦¨":12151,"Ġà¦ľà¦°à¦¡à¦¨":12152,"Ġà¦Ĺà¦£à¦¦":12153,"Ġà¦Ĺà¦£à¦§à¦°":12154,"Ġà¦Ĺà¦£à¦ħà¦Ń":12155,"Ġà¦¨à¦°à¦®à¦¸":12156,"ĠâĢĶâĢĶâĢĶ":12157,"Ġà¦¬à§Łà¦«":12158,"à¦ľà¦¬à¦īà¦®":12159,"à¦¦à¦®à¦ł":12160,"Ġà¦ķà¦²à¦ķà¦¤":12161,"Ġà¦Ńà§Łà¦Ĺ":12162,"Ġà¦Ńà§Łà¦ĵ":12163,"Ġà¦Ĩà¦¦à¦°à¦¯à¦¤":12164,"à¦®à¦°à¦£à¦ľ":12165,"à¦²à¦®à¦¶":12166,"à¦²à¦¸à¦¦":12167,"Ġà¦§à¦¨à¦®":12168,"à¦²à¦Ĺà¦Ł":12169,"Ġà¦īà§İà¦¸à¦¬à¦ķ":12170,"à¦¼?âĢĶ":12171,"Ġà¦°à¦¸à¦ĩ":12172,"à¦®à¦¹à¦¦":12173,"Ġà¦Īà¦¦à¦Ĺ":12174,"à¦¥à¦ķà¦·":12175,"à¦Ĩà¦ķà¦¬à¦°":12176,"à¦¾âĢĻ?":12177,"à¦¾âĢĻâĢĻ":12178,"à¦¾âĢĻ!âĢĿ":12179,"à¦°à¦°à¦ŀ":12180,"à¦°à¦°à¦ļà¦¨":12181,"Ġà¦ªà¦°à¦®à¦®":12182,"Ġà¦ªà¦°à¦®à¦§à¦°":12183,"à¤¢":12184,"à¤ĸ":12185,"à¦ķà¦°à¦£à¦Ł":12186,"Ġà¦ħà¦¸à¦®à¦ŀ":12187,"à¦¿;---":12188,"à¦¶à¦²à¦ĵ":12189,"à§ĩ?âĢĿ,":12190,"Ġà¦ļà¦®à¦ķà¦¦":12191,"à¦łà¦ķà¦¸à¦®":12192,"à¦łà¦ķà§Łà¦²":12193,"à¦¿âĢĵâĢĿ":12194,"à¦·à¦¦à¦¦":12195,"Ġà¦ľà§Łà¦¸":12196,"Ġà¦ıà¦Ńà¦²":12197,"à¦ķà¦Ńà¦ķ":12198,"à¦ĩà¦¡à¦¸":12199,"à¦®à¦¦à¦®à¦¨":12200,"à§ĩâĢ¦?âĢĿ":12201,"à§ĩâĢ¦..":12202,"à§ĩâĢ¦âĢĿâĢĶ":12203,"Ġà§§à§¯à§¦":12204,"Ġà§§à§¯à§§à§ª":12205,"Ġà¦¸à¦°à¦²à¦®à¦¤":12206,"Ġter":12207,"Ġtur":12208,"Ġtri":12209,"Ġtalk":12210,"à¦¨à¦¶à¦°":12211,"à¦£à¦¬à¦§":12212,"à¦¿âĢĻ!âĢĿ":12213,"à§Ńà§©":12214,"à§Ńà§Ń":12215,"à¦²à¦Ńà¦¤":12216,"à¦ĩà¦¸à¦Ĺ":12217,"à¦¤à¦¹à¦¬":12218,"à¦¯à§İà¦Ł":12219,"à¦Łà¦Ľà§ľ":12220,"à¦ļà¦Łà¦ªà¦Ł":12221,"Ġà¦¹à¦ĩà¦¹à¦Ł":12222,"à¦·à§Łà¦ª":12223,",âĢĿâĢĵ":12224,"Ġà¦Ĩà¦ĩà¦¨à¦ª":12225,"Ġà¦Ĩà¦ĩà¦¨à¦®à¦¨":12226,"Ġà¦Ĩà¦ĩà¦¨à¦Ńà¦Ļ":12227,"ins":12228,"ines":12229,"à¦¤à¦Ńà¦Ļ":12230,"à¦¨à¦ªà¦²à¦ķ":12231,"à¦ľà§Łà¦¸":12232,"à¦ľà§Łà¦¦":12233,"à¦ľà§Łà¦ª":12234,"à¦ľà§Łà¦ĩ":12235,"à¦ľà§Łà¦ªà¦¤":12236,"Ġà¦¨à¦Ĺà¦°à¦°":12237,"à¦¤à¦¸à¦Ń":12238,"Ġ-âĢľ":12239,"Ġ-âĢĺ":12240,"ana":12241,"anya":12242,"à¦¨à¦ļà¦£":12243,"..à¥¤":12244,"....":12245,"à¦ĩà¦ľà¦Ń":12246,"Ġà¦ĩà¦²à¦°":12247,"Ġà¦ħà¦¨à¦²à¦¶":12248,"à¦¼!'":12249,"à¦ħà¦¸à§İ":12250,"à¦ħà¦¸à¦°à¦ķ":12251,"Ġà¦®à¦¦à¦¦":12252,"à¦¦à¦¶à¦ľà¦¨":12253,"à¦¬à¦ľà¦¨à¦¸à¦®à¦ķ":12254,"à¦¯à¦Łà¦ķà¦°":12255,"à¦¯à¦Łà¦¨à¦ķ":12256,"Ġà¦ľà¦Ĺà§İà¦¸":12257,"Ġà¦ľà¦Ĺà¦Ŀà¦®":12258,"à¦Ĺà¦°à¦£à¦ĩ":12259,"Ġà¦®à¦¨à¦¨à¦®":12260,"Ġà¦®à¦¨à¦¨à¦Ĺà¦°":12261,"ree":12262,"à¦ªà§ľà¦Ł":12263,"Ġà¦ķà¦²à¦®à¦ĩ":12264,"Ġà¦ķà¦²à¦®à¦ĸ":12265,"Ġà¦ķà¦²à¦®à¦ĵ":12266,"ates":12267,"ator":12268,"ating":12269,"à¦īà¦ľà¦ª":12270,"alon":12271,"alow":12272,"à¦īà¦¡à¦¨":12273,"à¦¸à¦®à§Łà¦Ł":12274,"à¦¬à¦°à¦¤à¦²":12275,"Ġà¦Ĩà§Łà¦¶":12276,"à¦¬à¦°à¦£à¦Ł":12277,"à§¯à§§":12278,"à§¯à§Ń":12279,"à§¯à§¯":12280,"à§®à§Ń":12281,"à¦ĵà¦ĩà¦°à¦ķà¦®":12282,"Ġà¦¨à¦¹à¦¬à¦¤":12283,"era":12284,
[...]
