#version: 0.2
à ¦
Ġ à¦
à §
à¦ ¾
à§ ĩ
à¦ °
à¦ ¿
à§ į
à¦ ¨
à¦ ²
à¦ ķ
à¦ ¯
à¦ ¼
à¦ ¤
à§ ģ
Ġà¦ ķ
à¦ ®
à¦ ¬
Ġà¦ ¬
à§ ĭ
à¦ Ł
Ġà¦ Ĩ
à¦ ¸
Ġà¦ ¸
Ġà¦ ª
à¦ Ľ
à¦ ĩ
Ġà¦ ¨
Ġà¦ ¦
Ġà¦ ı
Ġà¦ ¤
Ġà¦ ®
à¦¼ à§ĩ
à¦ ¦
Ġà¦ ¹
à¦ ª
à¦ ĸ
à¦ ¡
à¦ ľ
à§ Ģ
Ġà¦ķ à¦°
à¦ Ĺ
à¦ ¶
Ġà¦ ¯
Ġà¦ ļ
Ġà¦ Ĺ
à¦ ļ
Ġà¦Ĩ à¦®
Ġà¦ ľ
à¦ ĵ
Ġà¦¬ à¦²
Ġà¦ ħ
à¦ ģ
Ġà¦ı à¦ķ
Ġà¦ °
à¦ ¥
à¦¼ à¦¾
à¦ §
à¦ ·
Ġà¦ ¶
Ġà¦ Ń
à¦ ¹
Ġà¦ ĸ
Ġà¦ ĵ
Ġà¦ Ľ
à¦ £
Ġà¦ ²
à¦¾ à¦ģ
Ġà¦ ¥
Ġà¦ «
Ġà¦¹ à¦¯
Ġà¦ ī
à§ Ł
à¦ Ļ
Ġà¦ıà¦ķ à¦Ł
à¦ Ń
à¦ ł
Ġà¦¬à¦² à¦²
Ġà¦Ĩ à¦°
à¦¼ à¦¿
Ġà¦ ĺ
à¦ĸ à¦¨
à¦ Ĥ
Ġà¦ Ł
Ġà¦ª à¦°
Ġà¦ħ à¦¨
à¦ª à¦°
Ġà¦ı à¦ĩ
à¦® à¦¨
Ġà¦ §
Ġà¦Ĩ à¦¸
Ġà¦ķ à¦¥
à¦ ī
à§ Ĥ
Ġà¦ ¡
à¦ «
à¦ª à¦¨
Ġà¦¹ à¦²
Ġà¦® à¦¨
Ġà¦¸ à¦®
à¦ľ à¦¨
Ġà¦Ĩ à¦Ľ
Ġà¦ª à¦¡
à¦ Ŀ
à§ ĥ
à¦ ŀ
Ġà¦ı à¦¸
Ġà¦ļ à¦²
à¦ĵ à¦¯
Ġà¦ ĩ
Ġà¦¸ à¦¬
Ġà¦Ĩ à¦ªà¦¨
Ġà¦¸ à¦Ļ
à¦° à¦ķ
Ġà¦ī à¦ł
Ġà¦¹ à¦¬
Ġà¦ ł
Ġà¦¬ à¦¸
à§ İ
Ġà¦ķà¦° à¦¤
à¦° à¦¤
Ġà¦ľ à¦¨
Ġà¦ķà¦° à¦²
Ġà¦ĵ à¦°
à§ ľ
Ġà¦® à¦¤
Ġà¦ Ŀ
à¦° à¦¬
Ġà¦ı à¦²
Ġà¦ı à¦ĸà¦¨
à¦ķ à¦Ł
Ġà¦§ à¦°
à¦¤ à¦°
à§ Į
à¦¬ à¦°
Ġà¦® à¦§
Ġà¦ĺ à¦°
Ġà¦¬ à¦¨
à¦° à¦£
Ġà¦Ĩ à¦Ĺ
à¦¬ à¦¨
Ġà¦¤ à¦ĸà¦¨
Ġà¦ı à¦¬
Ġà¦Ĩ à¦¬
à¦¨ à¦ĵ
Ġà¦ħ à¦¬
Ġà¦Ĩ à¦²
à¦° à¦ªà¦°
Ġà¦ ¢
Ġà¦Ĩ à¦ľ
Ġà¦Ĺ à¦²
à¦ ı
à¦ ĺ
à¦° à¦®
à§ Ī
Ġà¦¨ à¦¯
à¦ķ à¦²
à¦ĸ à¦¤
à¦· à¦£
à¦¨ à¦¤
à¦Ĺ à¦²
à¦¿ à¦Ĥ
Ġà¦¬ à¦¡
Ġà¦Ĩà¦® à¦°
à¦ķ à¦°
à¦ĸ à¦²
Ġà¦¸à¦® à¦¯
à¦² à¦ķ
Ġà¦ķà¦° à¦Ľ
à§ģ à¦ģ
Ġà¦ķà¦° à¦¬
Ġà¦¹ à¦¤
à§ĩ à¦ģ
Ġà¦¤ à¦¬
à¦° à¦²
Ġà¦ı à¦¤
à¦¬ à¦²
Ġà¦¸ à¦¨
à¦Ľ à¦°
Ġà¦ľ à¦²
Ġà¦ħ à¦¸
à§ĭ à¦ģ
à¦° à¦Ł
Ġà¦¯ à¦¦
Ġà¦¬ à¦Ľà¦°
à¦ĩ à¦²
à¦¦ à¦°
Ġà¦Ĩ à¦¶
Ġà¦¬à¦² à¦¤
à¦¶ à¦¨
Ġà¦ķ à¦¤
Ġà¦ı à¦®à¦¨
Ġà¦ı à¦ĸ
à¦ Ĩ
à¦ķ à¦¤
à¦® à¦²
à¦¨ à¦Ł
Ġà¦¸ à¦°
Ġà¦īà¦ł à¦²
Ġà¦¹ à¦ļ
à¦ ĥ
à¦° à¦ľ
Ġà¦ĵ à¦ªà¦°
Ġà¦Ĩ à¦¨
à¦¹ à¦²
Ġà¦° à¦ķ
à¦Ľ à¦¨
à¦¼ à§ĭ
à¦® à¦¤
à¦ĩ à¦¨
à¦ª à¦¤
Ġà¦¬à¦² à¦Ľ
Ġà¦ĵ à¦ĩ
Ġà¦¹ à§Ł
à¦° à¦¥
Ġà¦¸ à¦¤
à¦ĩ à¦°
Ġà¦¯ à¦ĸà¦¨
à¦¾ à¦Ĥ
à¦° à¦¸
à¦® à¦°
à¦°à¦¥ à¦®
Ġà¦ıà¦ķ à¦ľà¦¨
Ġà¦ķ à¦ĸà¦¨
à¦¯ à¦¬
à¦° à¦ĵ
Ġà¦ı à¦Ĺ
à¦² à¦¬
Ġà¦® à¦¹
Ġà¦ħ à¦Ń
Ġà¦¦ à¦°à¦ľ
Ġà¦ı à¦Ł
à¦° à¦¦
à¦ķ à¦¬
Ġà¦ĵ à¦¦
à¦°à¦ķ à¦®
Ġà¦¶ à¦¬
à¦® à¦ķ
Ġà¦¹ à¦ł
Ġà¦¶ à¦°
Ġà¦ķ à¦¯
à¦° à¦ĩ
à¦¸ à¦¬
Ġà¦Ľ à¦¬
Ġà¦ī à¦ªà¦°
Ġà¦ħ à¦¤
Ġà¦ķ à¦®
Ġà¦ī à¦ª
à¦° à¦¶
à¦¬ à¦¤
à¦® à¦¯
Ġà¦Ĩ à¦ķ
à¦² à¦¤
Ġà¦ıà¦ķ à¦¦
Ġà¦ķ à¦²
à¦¨ à¦¨
Ġà¦¬ à¦ī
Ġà¦¬ à¦¯
Ġà¦¬ à¦°
Ġà¦ıà¦ķ à¦¬
Ġà¦ĩ à¦¨
Ġà¦ħ à¦ª
Ġà¦ª à¦¥
à¦¯ à¦¨
à¦° à¦Ľ
Ġà¦ı à¦°
à¦ĩ à¦ķ
à¦¹ à¦°
Ġà¦Ĩà¦¸ à¦Ľ
à¦ļ à¦¯
à¦¤ à¦¨
à¦ĸ à¦Ľ
Ġà¦ĵ à¦ķ
à¦ĩ à¦¯
à¦¤ à¦²
à¦¨ à¦¬
à¦Ŀ à¦¤
à¦Ł à¦ķ
Ġà¦ķ à¦¬
Ġà¦ħ à¦°
Ġà¦Ń à¦¯
à¦ª à¦¦
Ġà¦ī à¦¨
à¦² à¦Ł
à¦¨ à¦²
à¦² à¦²
Ġà¦ħ à¦®
à¦¨ à¦ķ
Ġà¦Ń à¦¦
à¦¬ à¦ª
Ġà¦ĩ à¦ļ
Ġà¦Ĩà¦¸ à¦¤
à¦¦ à¦¨
à§İ à¦¸
Ġà¦¸ à¦ķ
Ġà¦ĺ à¦Ł
Ġà¦ĸ à¦¬à¦°
à¦ĩ à¦Ł
Ġà¦ħ à¦«
Ġà¦ī à¦¤
Ġà¦Ĩà¦¸ à¦¬
à¦Ń à¦¬
Ġà¦¦ à¦°à¦ķ
Ġà¦ī à¦¦
Ġà¦ Ĳ
Ġà¦ĵ à¦ł
Ġà¦¯ à¦¤
à¦° à¦¨
Ġà¦¦ à¦¶
à§İ à¦ķ
à¦ļ à¦°
à¦° à¦¹
à¦Ĺ à¦¤
Ġà¦° à¦¯
Ġà¦¬à¦² à¦¬
à¦¤ à¦¬
à¦§ à¦ķ
à¦ĸ à¦¬
à§Į à¦ģ
Ġà¦Ĩà¦° à¦ĵ
Ġà¦Ŀ à¦¨
à¦Ĺ à¦ľ
à¦¸ à¦¤
Ġà¦¨ à¦¦
Ġà¦® à¦°
Ġà¦ıà¦ĸà¦¨ à¦ĵ
Ġà¦¸ à¦¹
à¦¸ à¦²
Ġà¦¨ à¦¤
Ġà¦Ń à¦°
Ġà¦² à¦ķ
à¦° à¦ļ
Ġà¦Ĩ à¦ļ
à¦¸ à¦°
à¦¸ à¦¨
Ġà¦ķ à¦²à¦ķ
à¦® à¦Ł
Ġà¦°à¦ķ à¦®
Ġà¦ķà¦ĸà¦¨ à¦ĵ
Ġà¦¸à¦® à¦¸
à¦ª à¦¡
Ġà¦ı à¦¨
à¦Ł à¦°
Ġà¦Ĩ à¦¡
à¦° à¦ª
Ġà¦¤ à¦²
Ġà¦ª à§ľ
à¦¿ à¦ģ
à¦¯à¦¬ à¦¸
à¦ķ à¦¦
à¦ļ à¦¨
Ġà¦ĵ à¦ĸ
Ġà¦¶ à¦¹à¦°
à¦¤ à¦ķ
Ġà¦ħà¦¬ à¦¸
à¦ĺ à¦°
à¦Ł à¦¤
Ġà¦Ĩ à¦¤
Ġà¦° à¦Ļ
à¦¥ à¦°
à¦Ŀ à¦²
à¦² à¦¨
à¦ª à¦Ł
Ġà¦ħ à¦¥
à¦¨ à¦¸
à¦ľ à¦°
Ġà¦« à¦²
Ġà¦ı à¦¦
Ġà¦ª à¦ķ
Ġà¦ª à¦¦
Ġà¦ľ à¦®
à¦ĩ à¦¬
Ġà¦ħ à¦¦
à¦ī à¦¨
Ġà¦ĩ à¦¤
à¦¦ à¦²
Ġà¦° à¦ĩà¦²
Ġà¦¬ à¦ĩ
Ġà¦¬à¦¸ à¦²
à¦ı à¦°
Ġà¦ľ à¦¬
à¦ķ à¦ķ
à¦ļ à¦²
Ġà¦ħà¦¬ à¦¶
à¦Ĺ à¦°
à¦ĵ à§Ł
à¦¸ à¦Ł
Ġà¦Ĩà¦¸ à¦²
Ġà¦ıà¦¸ à¦¬
à¦ķ à¦¨
à¦¤ à¦®
à¦¬ à¦¸
à¦¨ à¦¦
à¦Ĩ à¦®
Ġà¦¦ à¦²
à¦¹ à¦¨
à¦Ĺ à¦Ľ
à¦¸ à¦ķ
à¦ ħ
Ġà¦¯ à¦¨
Ġà¦ļ à¦¡
à¦¸ à¦Ļ
Ġà¦ī à¦ļ
à¦ĩ à¦¤
à¦° à¦¯
à¦Ł à¦²
à¦¿ à¦ĥ
Ġà¦¹ à¦°
Ġà¦Ĺ à¦¨
à¦¯ à¦ķ
à§ģ à¦ĥ
Ġà¦ľ à¦¡
Ġà¦ķ à¦·
Ġà¦Ĩ à¦¯
à¦ļ à¦ķ
Ġà¦Ĩ à¦¦
à¦¸ à¦ª
à¦ľ à¦²
Ġà¦° à¦¬
Ġà¦¶ à¦ķ
à¦® à¦¸
Ġà¦Ĺ à¦°
Ġà¦Ĩà¦¨ à¦¨
à¦Ł à¦Ł
Ġà¦¹ à¦ĵà¦¯
à¦Ĺ à¦¬
Ġà¦ĵ à¦Ł
à¦ķ à¦ľà¦¨
Ġà¦Ĩ à¦§
Ġà¦ļà¦² à¦²
à¦¤ à¦¤
Ġà¦¸ à¦ķà¦²
à¦§ à¦¨
Ġà¦¤ à¦°
à¦¹ à¦¯
Ġà¦Ĩà¦ľ à¦ķ
Ġà¦ķ à¦ª
Ġà¦ĵ à¦¯
à¦¤ à¦Ł
Ġà¦¬ à¦¹
à¦® à¦¬
à¦¹ à¦¸
à¦ī à¦ķ
Ġà¦ī à¦¡
Ġà¦ħà¦¥ à¦ļ
à¦® à¦£
Ġà¦ĺ à¦£
à¦ª à¦ķ
à¦² à¦®
à¦¯ à¦¸
Ġà¦ĺ à¦¨
à¦¶ à¦¬
à¦§ à¦¬
Ġà¦ª à¦¯
Ġà¦Ĩ à¦Ļ
Ġà¦ĺà¦Ł à¦¨
Ġà¦Ĺ à¦¤
à¦¯ à¦°
à¦§ à¦¹à¦¯
Ġà¦ħ à¦§
Ġà¦ħ à¦²
à¦ľ à¦¤
Ġà¦ħ à¦ªà¦°
à¦ķ à¦¶
Ġà¦® à¦¶
à¦ľ à¦Ł
à¦¾ à¦ĥ
à¦ľ à¦¬
à¦Ĺ à¦¨
à¦¨ à¦ľà¦¨
à¦ª à¦¸
Ġà¦° à¦¸
Ġà¦² à¦®
à¦° à¦Ń
à¦¯ à¦¤
Ġà¦ķ à¦¨
Ġà¦ı à¦°à¦ķà¦®
Ġà¦Ľ à¦¡
à¦¬ à¦ķ
Ġà¦Ĺ à¦¡
à¦² à¦Ĺ
à¦¼ à§Ģ
à¦· à¦¤
à¦¶ à¦ķ
Ġà¦ķ à¦Ł
à¦¨ à¦ĩ
Ġà¦ıà¦ķ à¦ĩ
à¦ ¢
à¦° à¦ĸ
à¦® à¦¡
Ġà¦ļ à¦®à¦ķ
Ġà¦¸ à¦°à¦ķ
Ġà¦ª à¦Ľà¦¨
Ġà¦ľ à¦¯
à¦¤ à¦ª
Ġà¦¬ à¦¦à¦²
à¦ī à¦Ł
Ġà¦ª à¦ŀ
à¦ĩ à¦®
à¦ľ à¦ķ
à¦ĩ à¦Ľ
Ġà¦ķ à¦®à¦²
Ġà¦ħ à¦ľ
Ġà¦§à¦° à¦²
à¦¸ à¦®à¦¯
Ġà¦ĩ à¦¯
Ġà¦¬ à¦ķ
à¦¼ à§ģ
Ġà¦Ĩ à¦ĩ
à¦ľ à¦®
à¦¸ à¦®
à¦¬ à¦Ľ
Ġà¦² à¦¤
à¦Ł à¦®
Ġà¦« à¦Ł
à¦§ à¦°
à¦ĩ à¦Ń
Ġà¦² à¦¡
Ġà¦ħ à¦¶
Ġà¦¤à¦ĸà¦¨ à¦ĩ
à¦Ł à¦¬
Ġà¦¨ à¦¨
à¦² à¦¯
à¦² à¦¸
Ġà¦Ĩ à¦¹
à¦¯ à¦¦
Ġà¦īà¦ł à¦¤
Ġà¦¬ à§ľ
Ġà¦Ĩ à¦ª
à¦ª à¦·
à¦¬ à¦¬
Ġà¦ļ à¦¨
Ġà¦¨ à¦®
Ġà¦ķ à¦¦
Ġà¦ıà¦ķ à¦®
Ġà¦ĵ à¦·
Ġà¦ī à¦²
Ġà¦§ à¦¨
Ġà¦® à¦¦
à¦ķ à¦¡
à¦Ł à¦¨
Ġà¦¬à¦ī à¦¦
à¦° à¦°
à¦® à¦¶
à¦¬ à¦ĩ
Ġà¦² à¦ľ
à¦° à¦Ĺ
à¦² à¦Ľ
à¦¬ à¦£
à¦¤ à¦¦
Ġ à§
à¦ķ à¦ĩ
Ġà¦ļ à¦ķ
à¦Ĺ à¦¡
Ġà¦Ĺ à¦®
Ġà¦ľ à¦°
Ġà¦ļà¦² à¦Ľ
à¦¬ à¦Ł
Ġà¦ħ à¦ķ
Ġà¦¸à¦¬ à¦ļ
Ġà¦ª à¦¤
Ġà¦® à¦ľ
Ġà¦¬ à¦Ł
Ġà¦° à¦ŀ
Ġà¦Ĺ à¦Ń
à¦¯à¦¬ à¦¹
Ġà¦Ĩ à¦ªà¦¤
Ġà¦® à¦¸
à¦ļ à¦Ł
à¦· à¦ķ
à¦· à¦Ł
à¦ĸ à¦Ł
à¦¶ à¦Ł
à¦ĵ à¦¨
Ġà¦ª à¦¨
à¦¡ à¦²
Ġà¦¸à¦® à§Ł
à¦¯ à¦ĩ
à¦· à¦¯
à¦ķ à¦Ľ
Ġà¦¹ à¦¨
Ġà¦ĩ à¦²
à¦¨ à¦¯
à¦¨ à¦°
Ġà¦¨ à¦¡
à¦Ŀ à¦ĸ
à¦² à¦ª
Ġà¦« à¦°
à¦¬ à¦¡
Ġà¦¨ à§Ł
à¦« à¦Ł
Ġà¦ļà¦² à¦¤
Ġà¦¸à¦¹ à¦ľ
à¦¨ à¦Ĺ
Ġà¦ķ à¦£
Ġà¦ĵ à¦ª
Ġà¦¸à¦¬ à¦ĩ
Ġà¦¨ à¦ķ
Ġà¦ĸ à¦°à¦ļ
à¦ı à¦ķà¦Ł
à¦¬ à¦¶
Ġà¦ĩ à¦¸
à¦ı à¦ĩ
Ġà¦ħ à¦Ļ
à¦ĵ à¦°
à¦¨ à¦®
Ġà¦ Ī
Ġà¦ª à¦¶
Ġà¦ħ à¦®à¦²
à¦° à¦«
Ġà¦Ń à¦¬
Ġà¦§à¦° à¦¨
Ġà¦ľ à¦Ļ
Ġà¦¦ à¦°
Ġà¦ķ à¦«
Ġà¦Ĺ à¦£
à¦ĩ à¦ª
à¦°à¦® à¦¶
Ġà¦ıà¦¤ à¦ķ
à¦ĩ à¦¸
Ġà¦¶ à¦¤
Ġà¦Ĺ à¦°à¦®
Ġà¦ıà¦ķ à¦¸à¦Ļ
à¦ľà¦¨ à¦ķ
à¦² à¦Ń
à¦ĩ à¦ľ
Ġà¦ ·
Ġà¦¤à¦ĸà¦¨ à¦ĵ
Ġà¦® à¦²
Ġà¦¬à¦¸ à¦¤
Ġà¦ħà¦¸ à¦®
à¦Ł à¦Ľ
Ġà¦° à¦¤
à¦ķ à¦¸
à¦® à¦ª
à¦¬ à¦¦
à¦¨ à¦Ľ
à¦² à¦ĩ
Ġà¦ļ à¦Ł
Ġà¦ħà¦¬ à¦§
à¦¦ à¦Ł
Ġà¦ĺà¦° à¦Ł
à¦® à¦§
à¦ķ à¦¶à¦¨
Ġà¦ı à¦®
Ġà¦ĺ à¦¡
Ġà¦ıà¦¤ à¦¦
à¦¯ à¦¥
Ġà¦ı à¦Ń
à¦¯ à¦Ł
Ġà¦¤ à¦¥
Ġà¦® à¦£
Ġà¦ªà¦° à¦¨
Ġà¦ļà¦² à¦¬
Ġà¦¹ à¦ĩ
Ġà¦Ĩ à¦Łà¦ķ
à¦« à¦°
Ġà¦ħ à¦®à¦¨
à¦ı à¦ķ
à¦¬à¦² à¦Ľ
Ġà¦ıà¦ķà¦¦ à¦®
Ġà¦ļ à¦°
à¦· à¦®
Ġà¦¨ à¦Ł
Ġà¦ĩ à¦ī
à¦ķ à¦Ĺ
à¦ª à¦ļ
Ġà¦īà¦ł à¦Ľ
Ġà¦¯ à¦¥
à¦° à¦¹à¦°
Ġà¦Ĩ à¦Ł
à¦ľ à¦Ĺ
Ġà¦Ľ à¦Ł
Ġà¦¨ à¦ľà¦°
Ġà¦¤ à¦¤
à¦ľ à¦¯
Ġà¦ľ à§Ł
Ġà¦Ŀ à¦°
Ġà¦¦ à¦ķ
à¦Ń à¦°
à¦ī à¦¸
à¦® à¦¦
à¦¸ à¦¦
à¦· à¦®à¦¤
à¦® à¦Ĺ
à¦ļ à¦¡
Ġà¦Ĩ à¦ĵà¦¯
à¦Ľ à¦²
Ġà¦Ń à¦Ļ
Ġà¦ª à¦²
à¦¶ à¦¯
Ġà¦ĵ à¦¸à¦¬
Ġà¦ļ à¦®
Ġà¦¶ à¦Ļ
Ġà¦¨ à¦·
à¦¸ à¦«
Ġà¦Ĩà¦² à¦®
à¦ľ à¦¦
à¦¬ à¦Ń
Ġà¦§ à¦°à¦¤
§ à§
à¦² à¦¦
à¦ĩ à¦¶
Ġà¦ħ à¦ŀ
à§Ł à¦¸
Ġà¦ªà¦° à¦¦
Ġà¦ıà¦ĩ à¦¸à¦¬
à¦ĩ à¦¡
à¦§ à¦¤
à¦Ń à¦¨
Ġà¦Ĩà¦¸ à¦¨
à¦¸ à¦Ľ
à¦ĩ à¦«
Ġà¦ıà¦ķ à¦¸à¦®à¦¯
à¦¥ à¦¨
à¦ī à¦ľ
Ġà¦¸ à¦ª
Ġà¦Ĩ à¦¦à¦°
Ġà¦ī à§İ
à¦Ĩ à¦ªà¦¨
à¦° à¦ľà¦¨
à¦Ł à¦¦
à¦ª à¦£
à¦¡ à¦°
Ġà¦ıà¦ķ à¦¶
Ġà¦¦ à¦¡
Ġà¦® à¦¦à¦¨
à¦ļ à§Ł
Ġà¦° à¦ľà¦¤
Ġà¦ĩ à¦®
à¦Ĩ à¦°
à¦® à¦Ľ
à¦ª à¦²
à¦°à¦ļ à¦£
à¦² à¦ļ
Ġà¦ħ à¦²à¦ķ
Ġà¦ıà¦ķ à¦²
Ġà¦° à¦¹à¦¸
Ġà¦¬à¦²à¦² à¦¤
à¦® à¦¹
Ġà¦¸ à¦¦
Ġà¦īà¦ł à¦¬
à¦ı à¦¬
Ġà¦Ĺ à¦Ļ
Ġà¦ħ à¦Ĺ
à¦¨ à¦ª
à¦¨ à¦ļ
à¦ķ à¦ļ
Ġà¦ķ à¦¡
à¦¬ à¦§
Ġà¦¸ à¦Ń
à¦Ĺ à¦®
Ġà¦Ĩ à¦¨à¦¤
Ġà¦¨ à¦¬
Ġà¦¤ à¦¤à¦ķ
Ġà¦®à¦¨ à¦Ł
Ġà¦¦à¦¶ à¦Ł
à¦Ľ à¦Ł
Ġà¦Ĺ à¦¬
à¦ĩ à¦¦
Ġà¦ı à¦°à¦ªà¦°
à¦ľ à¦Ľ
Ġà¦ļ à¦¤
Ġà¦īà¦ª à¦ķ
Ġà¦ħà¦¥ à¦¬
à¦¤ à¦ľ
à¦¡ à¦¨
à¦¶ à¦®
Ġà¦Ń à¦ķ
à¦°à¦® à¦£
Ġà¦¦ à¦¤
à¦ĵ à¦¡
à¦° à¦§
Ġà¦¬ à¦ĩà¦Ł
à¦Ł à¦ª
à¦¦ à¦¯
Ġà¦ī à¦²à¦Ł
Ġà¦Ĩà¦° à¦®
Ġà¦ıà¦ĩ à¦Ł
à§ °
à¦¤ à¦ĩ
à¦® à¦ļ
Ġà¦Ń à¦Ĺà¦¬
Ġà¦ī à¦ľ
Ġà¦ħà¦¸ à¦¹
à¦Ĺ à¦Ł
à¦¼ à¦Ĥ
à¦ľ à¦¸
à¦· à¦°
Ġà¦ī à¦°
à¦ī à¦°
Ġà¦ķà¦¤ à¦ķ
Ġà¦° à¦£
Ġà¦ĩ à¦ľ
Ġà¦ļà¦® à§İà¦ķ
Ġà¦¨ à¦°
Ġà¦¨ à¦ĩà¦²
Ġà¦ª à¦£
Ġà¦¦ à¦®
Ġà¦° à¦¨
à¦£ à¦¤
Ġà¦ıà¦ĩ à¦Ń
à¦¬ à¦¯
Ġà¦ľ à¦Ł
Ġà¦¬à¦¸ à¦¬
à¦°à¦® à¦¹
à¦¯ à¦®
Ġà¦® à¦¯
Ġà¦ħ à¦¬à¦¨
à¦£ à¦¬
Ġà¦ĩ à¦ŀ
Ġà§ §à§
à¦ķ à¦®
à¦ĩ à¦ļ
Ġà¦ıà¦®à¦¨ à¦ķ
à¦°à¦¹ à¦£
Ġà¦ľ à¦Ĺ
Ġà¦ĵ à¦¨
Ġà¦¸à¦® à¦°
Ġà¦ĩ à¦Ł
Ġà¦Ĺ à¦ľ
Ġà¦Ĺ à¦ŀ
Ġà¦ĵ à¦Ĺ
Ġà¦° à¦ĵà¦¨
Ġà¦ī à§İà¦¸
à¦®à¦¨ à¦¸
à¦ŀ à¦¤
Ġà¦ĩ à¦īà¦¨
à¦ķ à¦¥
Ġà¦¸ à¦ŀ
à¦ª à¦¥
à§Ł à¦¨
Ġà¦Ŀ à¦Ĺà¦¡
Ġà¦ķ à¦ĩ
à¦¬ à¦¹
Ġà¦® à¦ŀ
Ġà¦ħ à¦Ł
Ġà¦ıà¦ķ à¦ª
à¦§ à¦Ł
à¦« à¦²
Ġà¦Ĩà¦ľ à¦ĵ
à¦¨ à¦Ń
Ġà¦ķ à¦ł
à¦¦ à¦¸
à¦ĸ à¦¸
à¦ĸ à¦ĸ
Ġà¦§ à¦®à¦ķ
Ġà¦ķà¦¤ à¦¦
à¦² à¦ľ
à¦ķ à¦ĵ
Ġà¦¨ à¦ĩ
à¦ª à¦Ľ
à¦¹ à¦¨à¦¬
Ġà¦¥ à¦®à¦ķ
Ġà¦ªà¦° à¦®
Ġà¦ħà¦Ń à¦¯
Ġà¦ªà§ľ à¦²
à¦¦ à¦®
à¦¥ à¦ķ
Ġà¦¬à¦²à¦² à¦ķ
Ġà¦īà¦ª à¦¸
à¦ķ à¦ı
Ġà¦¨ à¦®à¦¸
à¦¦ à¦ķ
à¦Ł à¦«à¦°
Ġà¦ı à¦¡
à¦ļ à¦¤
Ġà¦ĸ à¦¸
Ġà¦ĵ à¦¸
à¦ī à¦¡
à¦Ľ à¦¤
Ġà¦¯ à¦®
Ġà¦ħ à¦ļ
Ġà¦Ń à§Ł
Ġà¦ıà¦ĸà¦¨ à¦ĩ
à¦Ĩ à¦®à¦°
à¦ħ à¦¨
à¦¨ à¦¶
à¦¬ à¦ľ
Ġà¦Ĩ à¦Łà¦Ł
à¦¡ à¦Ł
Ġà¦Ĩà¦¨ à¦Ĺ
à¦² à¦ĵ
Ġà¦² à¦¨
à¦°à¦¬ à¦²
à¦¨ à¦¹
à¦ķ à¦Ĩ
Ġà¦¬ à¦ĩà¦¯
Ġà¦¸ à¦¦à¦°
Ġà¦® à¦¡
à¦ľ à¦ĩ
à¦Ĺ à¦Ĺ
Ġà¦¶ à¦¨
Ġà¦ªà¦° à¦ĩ
à¦¨à¦ĵ à¦¦
Ġà¦ĩà¦¨ à¦ľ
à¦ķ à¦«
Ġà¦ķ à¦ļ
à¦ĩ à¦ĸ
à¦¥ à¦¬
à¦· à¦¸
à¦£ à¦¨
à¦Ŀ à¦°
à¦¤à¦° à¦Ł
Ġà¦ħà¦ª à¦®
à¦Ĺà¦ľ à¦Ł
Ġà¦Ĩ à¦ł
à¦¦ à¦Ľ
à¦ī à¦¦
Ġà¦¬à¦ī à¦®
Ġà¦Ĩà¦ļ à¦®à¦ķ
à§ ¦
Ġà¦Ĩ à¦ĺ
à¦¦ à¦¶
à¦ª à¦®
à¦ī à¦²
Ġà¦Ĩà¦ľ à¦ĩ
Ġà¦¹à¦¤ à¦Ń
à¦ķ à¦ª
à¦Ł à¦¸
à¦¦ à¦¤
à¦ª à¦¯
à¦ļ à¦ľà¦¨
à¦Ŀ à¦¬
Ġà¦¸à¦¬ à¦ķ
Ġà¦¦à¦² à¦ªà¦¤
Ġà¦¨ à¦°à¦®
Ġà¦¬ à§Łà¦¸
à¦Ľ à¦Ĺ
à¦ĩ à§Ł
Ġà¦ı à¦¯
Ġà¦ı à¦ľ
à¦Ĺ à¦ļ
à¦¶ à¦²
à¦¸ à¦ĵ
à¦ĸ à¦°
Ġà¦Ŀ à¦¡
à¦ĺ à¦¨
à¦ļà§Ł à¦ĩ
Ġà¦Ĩ à¦ķà¦°
Ġà¦Ĩ à¦ĩà¦¨
à¦¸ à¦¸
à¦¦ à¦¬
Ġà¦¶ à¦¯
Ġà¦ıà¦¤ à¦Ł
Ġà¦¬ à¦¬
Ġà¦° à¦®à¦£
Ġà¦¶ à¦¹
à¦ī à¦ĩ
à¦ĺ à¦£
Ġà¦ħà¦¤ à¦ıà¦¬
à¦¨ à¦®à¦¯
à¦Ł à¦ĸ
Ġà¦¨ à¦°à¦°
Ġà¦¤ à¦ª
à¦ĸ à¦¬à¦°
à¦ļ à¦¬
Ġà¦ıà¦ķ à¦ĸ
Ġà¦Ľ à¦¯
à¦Ļ à¦²
Ġà¦¯à¦¤ à¦ĩ
Ġà¦ªà¦° à¦¸
Ġà¦ĸà¦¬à¦° à¦Ł
Ġà¦Ĩ à¦«
à¦ĸ à¦ķ
à¦ľ à¦ª
Ġà¦Ń à¦°à¦¸
à¦£ à¦ķ
à¦ľà¦¨ à¦¬
à¦ķ à¦°à¦¬
à¦¬ à¦ļ
Ġà¦¬ à¦Ļ
Ġà¦ļ à¦¶à¦®
à¦· à¦¦
Ġà¦¬à¦²à¦² à¦Ĩà¦®
à¦ī à¦®
à¦¬à¦° à¦£
Ġà¦ľà¦² à¦¦à¦¸
à¦¤ à¦¸
Ġà¦ħ à¦°à¦£
à¦¹ à¦¤
à§Ł à¦Ĺ
Ġà¦ıà¦ĩ à¦°à¦ķà¦®
Ġà¦ķà¦¤ à¦Ł
à¦ķà¦Ĩ à¦ª
Ġà¦ ĭ
à§ĩ à¦Ĥ
à¦ķ à¦ł
à¦¬ à¦ľà¦¨
à¦¸ à¦¡
Ġà¦¦ à¦¯
Ġà¦¤ à¦«
à¦ª à¦Ĺ
à¦¶ à¦°
Ġà¦ħ à¦¹à¦¨
à¦¥ à¦²
à¦Ń à¦¬à¦¤
Ġà¦ķà¦¦ à¦®
Ġà¦Ī à¦¶
Ġà¦Ĩ à¦Ń
Ġà¦¤ à¦¨
Ġà¦® à¦®à¦¤
Ġà¦¹ à¦ķ
à¦ľ à¦ķà¦°
à¦¶ à¦¤
à¦¶ à¦¦
Ġà¦ıà¦ķ à¦¥
à¦· à¦ªà¦°
Ġà¦ĸ à¦Ł
Ġà¦ĵ à¦Ń
Ġà¦Ľ à¦¨
Ġà¦¡ à¦ķ
à¦°à¦¤ à¦¬à¦°
Ġà¦¯à¦¤ à¦Ł
Ġà¦Ĩà¦¹ à¦¤
Ġà¦ Ĭ
à¦ķ à¦ĸ
à¦¯ à¦ľ
à¦Ľ à¦ª
à§Ł à¦²
à¦ī à¦¬
Ġà¦ĩ à¦¶
Ġà¦¹à§Ł à¦¤
à¦² à¦°
Ġà¦ķ à¦ķ
à¦ĩ à¦¸à¦¬
Ġà¦¤ à¦ķ
à¦ĸ à¦®à¦¯
Ġà¦¬à¦²à¦² à¦¬
Ġà¦Ĩà¦¨ à¦²
à¦¤ à¦§à¦¨
Ġà¦ı à¦ª
à¦ĵ à¦²
Ġà¦ıà¦ķ à¦ķ
Ġà¦¶ à¦ĸ
Ġà¦ī à¦ªà¦¨
Ġà¦¬à¦²à¦² à¦®
Ġà¦Ĩà¦² à¦¤
Ġà¦Ĩà¦² à¦«
Ġà¦ľà¦² à¦§à¦°
Ġà¦īà§İ à¦¸à¦¬
à¦² à¦®à¦¨
à¦¯ à¦ª
à¦¯ à¦°à¦ķà¦®
Ġà¦ķ à¦¬à¦°
à¦® à¦ĵ
à¦¬ à¦Ľà¦°
à¦¦ à¦ĺà¦°
Ġà¦ĵ à¦¹
Ġà¦¬à¦²à¦² à¦ı
Ġà¦ªà¦° à¦ªà¦°
à¦ī à¦¯
Ġà¦ĩà¦¨ à¦¸
¯ à§
Ġà¦ķ à§Ł
Ġà¦Ŀ à¦ķ
Ġà¦ıà¦ķà¦ľà¦¨ à¦ķ
à¦¤ à¦Ń
Ġà¦¸ à¦°à¦²
à¦ĩ à¦Ĺ
Ġà¦¤ à¦°à¦ķ
Ġà¦ľ à§ľ
à¦ł à¦¸
Ġà¦¸à¦¬ à¦¸à¦®à¦¯
à¦ķ à¦Ń
à¦¯ à¦®à¦¨à¦¸
à¦ĩ à¦ĵ
Ġà¦¦ à¦ĸà¦²
Ġà¦ı à¦£
à¦ľ à¦Ļ
Ġà¦ıà¦ķ à¦°à¦ķà¦®
Ġà¦ªà¦° à¦¤
à¦°à¦¸ à¦¨
Ġà¦ļ à¦ŀ
Ġà¦ľ à¦Ĺà¦¤
Ġà¦ħ à¦¯
Ġà¦ĵ à¦¡
Ġà¦ĩ à¦Ļ
Ġà¦¬à¦¸ à¦¨
à¦ĺ à¦Łà¦¨
Ġà¦Ĩà¦¨ à¦¬
à¦² à¦«
Ġà¦¦ à¦²à¦¨
Ġà¦Ĩà¦® à¦²
Ġà¦ªà¦° à¦¶
Ġà¦ħà¦¨ à¦¨
à¦°à¦¬ à¦°
à¦°à¦¸ à¦Ļ
Ġà¦īà¦ª à¦¦
à¦¨ à¦ĸ
Ġà¦ķ à¦Ļ
Ġà¦¸ à¦¸
à¦¼à¦¿ à¦Ĥ
Ġà¦ª à¦Ł
Ġà¦¹ à¦ĵ
à¦Ĺ à¦¦
Ġà¦¶ à¦¶
Ġà¦ĵ à¦°à¦ķà¦®
à¦£ à¦¦
Ġà¦ī à¦ĩà¦²
Ġà¦¬à¦²à¦² à¦«
Ġà¦ıà¦ĩ à¦¬
Ġà¦®à¦¨ à¦¸
Ġà¦¸à¦¹ à¦ª
Ġà¦¹à¦¤à¦Ń à¦®
Ġ Ġ
Ġà¦¸ à¦°à¦®
à¦ĩ à¦ıà¦°
à¦¶ à¦ª
à¦ĵ à¦¤
Ġà¦¬à¦²à¦² à¦Ń
Ġà¦®à¦¤ à¦²à¦¬
à¦¬à¦² à¦¤
à¦¨ à¦ı
à¦¯ à¦®à¦¯
à¦® à¦°à¦£
à¦® à¦ķà¦°
Ġà¦¬ à¦¦
Ġà¦¨ à¦ķà¦¶
Ġà¦® à¦°à¦¤
à¦¡ à¦ķ
à¦¡ à¦®
Ġà¦ļ à¦ĵà¦¡
Ġà¦ĺ à¦·
à¦Ŀ à¦ķ
à¦Ĩ à¦¸
Ġà¦Ĩà¦§ à¦ĸ
Ġà¦Ľà¦Ł à¦«à¦Ł
à¦¨ à¦¡à¦°
à¦¯ à§İ
à¦¼ à§į
Ġà¦¸ à¦ĩ
à¦Ľ à¦¬
à¦ĸ à¦ªà¦¤
Ġà¦Ĺ à¦¤à¦ķ
Ġà¦ªà¦° à¦ķ
à¦« à¦¦
Ġà¦Ĩà¦¬ à¦Ľ
à¦ĺ à¦¶
à¦° à§Ł
à¦Ł à¦Ĺ
à¦ĩ à¦¨à¦Ł
Ġà¦® à¦Ļ
Ġà¦¹ à¦¦
Ġà¦¹ à¦ĩà¦²
Ġà¦° à¦¤à¦¨
Ġà¦¶ à¦®
Ġà¦¬à¦ī à¦ķ
à¦® à¦ľ
Ġà¦¬ à¦®
à¦¸ à¦ªà¦¤
à¦¡ à¦¸
à¦Ĺ à¦£
à¦£ à¦®
Ġà¦¥ à¦²
Ġà¦ī à¦ķ
Ġà¦ªà¦° à¦¬
à¦¨à¦¸ à¦®
Ġà¦ Ķ
à§ Ĺ
à¦Ł à¦«
à¦¹ à¦®
Ġà¦ĵ à¦¬
Ġà¦« à¦¨
Ġà¦« à¦°à¦¸
Ġà¦§ à¦¡
à§İ à¦ĩ
à¦°à¦¬ à¦¤
Ġà¦ıà¦®à¦¨ à¦ĩ
Ġà¦¹à§Ł à¦¨
Ġà¦¯à¦¤ à¦¦
à§ĩ à§Ĺ
à¦° à¦ŀ
à¦¨ à¦¡
à¦² à¦®à¦²
à¦¤ à¦Ĺ
Ġà¦Ĺ à¦¦
Ġà¦Ĩà¦® à¦¨
Ġà¦Ń à¦²
Ġà¦ĸ à¦¦
à¦°à¦¤ à¦°
Ġà¦ªà§ľ à¦¤
Ġà¦ħà¦ľ à¦¸
à¦¨ à¦ĺà¦°
à¦² à¦¡
Ġà¦¸ à¦ľ
Ġà¦¨ à¦¸
Ġà¦¤ à¦¤à¦¦
Ġà¦ļ à§ľ
à¦¹ à¦ķ
Ġà¦ī à¦§
à§Ł à¦¦
Ġà¦§ à¦°à¦¬
Ġà¦¡ à¦Ĺ
Ġà¦ĩ à¦¦
Ġà¦ł à¦ķ
Ġà¦ıà¦®à¦¨ à¦Ń
Ġà¦ķà¦® à¦ª
Ġà¦Ĩà¦¤ à¦Ļ
à¦¤à¦® à¦¶
Ġà¦Ĩà¦ĩ à¦¡
Ġà§§à§ ¯à§
à¦® à¦ĩ
à¦ĩ à¦ĩ
à¦ĸ à¦ļ
à¦¡ à¦¶
à¦Ĺ à¦¸
Ġà¦Ĺ à¦¯
à¦ĵ à¦¦
à¦¥ à¦®
à¦§ à¦¨à¦¬
à¦· à§İ
à¦Ļ à¦°
Ġà¦Ł à¦®à¦Ł
Ġà¦ıà¦ĩ à¦ĸ
à¦°à¦£ à¦¬
à¦¨à¦ĵ à¦°à¦ķà¦®
Ġà¦Ŀà¦ķ à¦Ŀà¦ķ
à¦ Ī
à¦² à¦ĸ
à¦¯ à¦¯
à¦¤ à¦ĵ
Ġà¦Ĩ à¦¬à¦°
Ġà¦¸ à¦¤à¦°
Ġà¦¹ à¦ĩà¦¯
à¦ª à¦¶à¦¨
à¦Ĺ à¦ŀ
Ġà¦ļ à¦¬
Ġà¦° à¦¶
à¦· à¦¬
Ġà¦¶ à¦Ł
Ġà¦Ń à¦°à¦¤
Ġà¦ĸ à¦¡
à¦°à¦¬ à¦¨
à¦°à¦® à¦¥
Ġà¦®à¦¸ à¦ľ
Ġà¦Ī à¦·à§İ
à¦° à¦ĺà¦°
à¦¸ à¦°à¦£
Ġà¦¸ à¦²
à¦ª à§ľ
Ġà¦ħ à¦°à¦¬
Ġà¦ĵ à§Ł
à¦Ń à¦¯
à¦Ń à¦Ļ
Ġà¦¸à¦¬ à¦Ł
à§ľ à¦²
Ġà¦Ĩà¦² à¦Ĺ
à¦ı à¦ĸà¦¨
à¦°à¦ľ à¦¬
Ġà¦ķà¦² à¦®
Ġà¦Ĩà¦ļ à¦°à¦£
à¦ħ à¦²
à¦¯ à¦ĵ
à¦® à¦ķà¦²
Ġà¦® à¦°à¦¬
à¦¦ à¦ª
à¦ª à¦¦à¦°
à¦Ĺ à¦ĩ
Ġà¦ıà¦ķ à¦¤à¦²
à¦§ à¦¹
à¦Ļ à¦¤
à¦Ń à¦ķ
Ġà¦ķà¦ĸà¦¨ à¦ĩ
Ġà¦¬à¦ī à¦ł
Ġà¦¸à¦¹ à¦¸
Ġà§ ¨
Ġà¦ľà§Ł à¦¨
à§ ·
Ġà¦¬ à¦ľ
à¦Ł à¦ĵ
à¦ĩ à¦ľà¦¨
Ġà¦ı à¦ĵ
Ġà¦¤ à§İà¦ķ
à¦ª à¦¬
à¦¡ à¦Ń
Ġà¦Ľ à¦¦
à¦Ń à¦²à¦Ń
à¦²à¦ķ à¦¨
Ġà¦¸à¦¹ à¦ķà¦°
à¦¸à¦² à¦®
Ġà¦ıà¦¨ à¦°
à¦° à¦¡
à¦° à¦Ļ
à¦¬ à¦°à¦¬
à¦¸ à¦ĸ
Ġà¦¹ à¦ĵà§Ł
à¦ľ à¦ĸà¦¬à¦°
Ġà¦ħ à¦¹
Ġà¦ıà¦ķ à¦ľ
à¦· à¦Ĺ
Ġà¦Ĩà¦° à¦ľ
Ġà¦Ŀ à¦²à¦®à¦²
Ġà¦Ĩà¦¬ à¦¹
Ġà¦¬à¦ī à¦¯
Ġà¦ĩà¦¨ à¦ķ
Ġà¦ªà¦¥ à¦Ł
Ġà¦Ĳ à¦¤
à¦®à¦¹ à¦¤
à¦¤ à¦ĸ
à¦Ł à¦ĩ
Ġà¦¦ à¦¸
Ġà¦ı à¦ŀ
Ġà¦ı à¦°à¦ĩ
à¦ĸ à¦®
à¦ĵ à¦ķ
à¦§ à¦²
à¦§ à¦®
Ġà¦Ľ à¦®
Ġà¦¬à¦²à¦² à¦ª
Ġà¦§ à¦¨à¦¸à¦®
à¦¬à¦¨ à¦Ł
Ġà¦¯à¦¤ à¦ķ
Ġà¦¤à¦° à¦«à¦¦
Ġà¦ļà¦ķ à¦ļà¦ķ
à¦§à¦¹ à§Ł
à¦¨ à¦ľ
à¦¯ à¦Ń
à¦® à¦ĸ
à¦® à§İ
Ġà¦Ĩ à¦ĸ
Ġà¦¸ à¦ĸ
Ġà¦¨ à¦Ĺà¦°
Ġà¦® à¦°à¦£
Ġà¦¹ à¦¸
Ġà¦¹ à¦ĩà¦¬
à¦ľ à¦ĺ
à§Ģ à¦Ĥ
Ġà¦¬à¦² à¦°
Ġà¦ħ à¦·
Ġà¦ħ à¦Ĺà¦¤
Ġà¦¬à¦²à¦² à¦¦
Ġà¦¬à¦ī à¦Ł
Ġà¦Ĭ à¦°
à¦ķ à¦°à¦£
à¦¤ à¦¶
à¦¬ à¦īà¦¦
à¦ª à¦ĩ
à¦ľ à¦®à¦£
à¦ł à¦¨
Ġà¦¬à¦²à¦² à¦Ĩ
Ġà¦¹à¦² à¦¦
Ġà¦īà¦ª à¦¹
Ġà¦¬à¦° à¦«
Ġà¦Ĩà¦§ à¦ĺà¦£
Ġà¦¶à¦¤ à¦¦à¦²
Ġà¦ļà¦Ł à¦ªà¦Ł
à¦® à§Ł
à¦® à¦§à¦¨
à¦¸ à¦ĩ
à¦¸ à¦Ĺ
Ġà¦ª à¦¬
Ġà¦¨ à¦ĸ
à¦¡ à¦Ĺ
à¦ľ à¦ĵ
à¦ľ à¦§
Ġà¦¥ à¦®
Ġà¦ī à¦ªà¦¤
Ġà¦ī à¦ĩà¦¶
à¦ł à¦ķ
Ġà¦¬à¦²à¦² à¦¹
Ġà¦Ĩà¦¸ à¦°
Ġà¦Ŀ à¦²à¦ķ
à¦¬à¦° à¦Ł
Ġà¦¢ à¦²
à¦ı à¦Ł
à¦ı à¦«
à¦¶à¦¨ à¦Ł
Ġà¦īà¦ª à¦Ń
Ġà¦ıà¦ķà¦¦ à¦²
Ġà¦ĺà¦Ł à¦²
Ġà¦°à¦ķà¦® à¦ĩ
Ġà¦¸à¦ķà¦² à¦ķ
à¦ķà¦ĵ à¦¦
Ġà¦ĭ à¦·
à§ģ à¦Ĥ
Ġà¦ķ à¦¸
à§ĭ à¦Ĥ
Ġà¦ª à¦ļ
Ġà¦¹ à¦®
à¦ª à¦ľ
Ġà¦ļ à¦°à¦®
à¦ļ à¦®
à¦ļ à¦ĩ
Ġà¦ıà¦ķ à¦Ĺ
Ġà¦² à¦£
Ġà¦ªà¦° à¦²
Ġà¦ħà¦¤ à¦²
à¦¨ à¦ıà¦°
à¦¨ à¦Ĩà¦®
à¦¤ à¦Ľ
à¦¤ à¦ĸà¦¨
Ġà¦ķ à¦¨à¦¸
à¦® à¦®
à¦® à¦Ĺà¦¤
Ġà¦Ĩ à¦īà¦Ł
Ġà¦¸ à¦ł
Ġà¦ª à¦²à¦ķ
Ġà¦¹ à¦Ł
à¦Ĺ à¦ª
Ġà¦ıà¦ķ à¦¤
à¦· à¦ª
Ġà¦Ń à¦Ĺ
à¦¹ à¦¬
Ġà¦ĵ à¦®
Ġà¦« à¦¸à¦²
Ġà¦¬à¦²à¦² à¦¶
Ġà¦ªà¦° à¦ĵ
à¦®à¦¨ à¦ĩ
Ġà¦ĩ à¦¹
à¦°à¦¤ à¦²
Ġà¦ħà¦¬ à¦¸à¦°
à¦¶à¦¨ à¦®
à¦Ĺà¦ľ à¦ªà¦¤
à§¦ à§
à¦¯ à¦ķà¦°
à¦¯ à¦¤à¦®
Ġà¦ķ à¦¨à¦Ł
Ġà¦ķ à¦ĩà¦°
à¦¬ à¦®
Ġà¦¬ à§İà¦¸
à¦¸ à¦¹
Ġà¦¸ à¦ľà¦¨
Ġà¦¦ à¦®à¦ķ
à¦¦ à¦¦
à¦¶ à¦Ĺ
Ġà¦ļ à¦£
Ġà¦ıà¦ķ à¦§
Ġà¦Ń à¦Ł
à¦¹ à¦°à¦£
Ġà¦ī à¦ĩà¦ķ
Ġà¦¬à¦²à¦² à¦Ĩà¦®à¦°
Ġà¦Ł à¦°
Ġà¦¡ à¦²
à¦« à¦¸
Ġà¦ĩ à¦¡
à§ľ à¦¤
Ġà¦®à¦¤ à¦¨
Ġà¦Ŀ à¦Ł
Ġà¦Ĩà¦Ĺ à¦¨
à¦¨à¦ĵ à¦®à¦¤
à¦ı à¦¸à¦¬
Ġà¦ķà¦¤ à¦¬
à¦¯à¦¬ à¦¯
Ġà¦¦à¦¶ à¦¬
Ġà¦ªà§ľ à¦¬
Ġà¦ķ à¦ľà¦¨
à¦® à¦Ŀ
Ġà¦¬ à¦°à¦¦
Ġà¦Ĩ à§ľ
Ġà¦ª à§Łà¦¸
à¦¦ à¦ĵ
Ġà¦¹ à¦ľà¦®
Ġà¦ľ à¦ª
Ġà¦ħ à¦ļà¦²
Ġà¦ıà¦ķ à¦°
Ġà¦ıà¦ķ à¦¸
Ġà¦ĵ à¦¥
Ġà¦² à¦Ĺ
Ġà¦« à¦¤
à¦Ń à¦Ł
Ġà¦¬à¦²à¦² à¦¨
à¦ªà¦° à¦ķ
à¦°à¦£ à¦¤
à¦ı à¦ķà¦ľà¦¨
Ġà¦ıà¦¤ à¦ĩ
Ġà¦Ĩà¦¶ à¦ª
Ġà¦¬à¦ī à¦°
Ġà¦§à¦¨ à¦Ń
Ġà¦¤à¦¤ à¦ĩ
Ġà¦Łà¦®à¦Ł à¦®
à¦¨ à¦Ĺà¦°
Ġà¦¬ à¦¹à¦¨
à¦ĩ à¦ĵà¦¯
à¦ĩ à¦°à¦ķà¦®
Ġà¦¨ à¦ľ
Ġà¦¦ à¦«
à¦¶ à¦¬à¦¨
Ġà¦° à¦®
Ġà¦° à¦ļà¦¨
à¦§ à¦¦
Ġà¦ĵ à¦ľà¦¨
à¦£ à¦ªà¦£
Ġà¦¥ à¦°
Ġà¦« à¦²à¦ķ
Ġà¦ī à§İà¦ķ
à§Ł à¦¤
Ġà¦¬à¦²à¦² à¦¯
Ġà¦¬à¦²à¦² à¦¸
à§İ à¦ª
Ġà¦®à¦¤ à¦ĩ
Ġà¦ħà¦¸ à¦®à¦¯
Ġà¦Ĩà¦¶ à¦Ļ
à¦Ĩ à¦²
à¦ħ à¦°
Ġà¦īà§İ à¦ª
Ġà¦¶à¦¹ à¦°à¦Ł
à¦° à¦¦à¦°
à¦¨ à¦®à¦¨
Ġà¦¸ à¦ļ
Ġà¦¸ à§İ
Ġà¦¨ à¦ķà¦²
Ġà¦ı à¦«
Ġà¦® à¦°à¦²
à¦ª à¦Ŀ
à¦ĸ à¦¦
Ġà¦Ĺ à§ľ
à¦¹ à¦Ł
Ġà¦ĵ à¦²à¦Ł
Ġà¦Ľ à§ľ
Ġà¦¬à¦²à¦² à¦°
à¦ī à¦£
à¦Ŀ à¦¨
Ġà¦ľà¦¨ à¦®
à¦ı à¦®à¦¨
Ġà¦ıà¦¤ à¦Ĺ
à¦¬à¦² à¦²
Ġà¦ķà¦¤ à¦Ĺ
à¦°à¦¥ à¦°
Ġà¦īà¦ª à¦¯
Ġà¦ĺà¦Ł à¦¤
Ġà¦¬à¦ĩ à¦Ľ
® à§
à¦¨ à¦¶à¦¨
à¦ķ à¦¯
à¦ķ à¦®à¦¤
Ġà¦¬ à¦ŀ
Ġà¦¬ à¦Ĺà¦²
Ġà¦¬ à¦¦à¦®
Ġà¦Ĩ à§Ł
Ġà¦¸ à¦«à¦°
Ġà¦¹ à¦ĩà¦¤
à¦ª à¦ĵ
à¦¡ à¦¬
à¦ľ à¦ķà¦¨
à¦¶ à¦¸
Ġà¦¯ à¦ľ
Ġà¦° à¦®à¦²
à¦· à¦ĩ
Ġà¦ĸ à¦ļ
Ġà¦ĵ à¦¤
Ġà¦Ľ à¦²
Ġà¦² à¦ŀ
Ġà¦² à¦ĩà¦¯
Ġà¦¥ à¦°à¦¥à¦°
Ġà¦Ĩà¦° à¦¬
à¦ī à¦°à¦¤
à§ľ à¦Ľ
à¦¤à¦° à¦Ļ
à¦¨à¦ĵ à¦ķ
Ġà¦ħà¦¬ à¦ľ
à¦ı à¦¸
à¦°à¦® à¦¥à¦°
à¦Ĩ à¦§à¦Ł
Ġà¦ĵà¦ĩ à¦Ł
Ġà¦īà¦ª à¦ľ
Ġà¦ĩà¦¨ à¦«
Ġà¦ĺà¦Ł à¦¬
Ġà¦¹à¦° à¦«
Ġà¦Ī à¦Ĺà¦°
Ġà¦¹à¦ĩ à¦ļà¦ĩ
Ġà¦ĩà¦ī à¦°
Ġà¦ľà§Ł à¦¦
à¦° à¦ĺ
à¦ķ à¦°à¦¤
à¦¬ à¦ĵ
à¦¬ à§İ
à¦¬ à¦ĩà¦¨
à¦Ł à¦¹
à¦Ł à¦¬à¦²
Ġà¦¤ à¦¦
Ġà¦® à¦«à¦¸
à¦¶ à¦ĵ
Ġà¦Ĩà¦® à¦Ĺ
Ġà¦ľ à¦¹à¦°
Ġà¦ħ à¦Ŀ
Ġà¦ĸ à¦°
Ġà¦ĸ à¦²
Ġà¦² à¦Ļ
Ġà¦« à¦£
Ġà¦ī à¦ĩ
Ġà¦§ à¦¬
à¦ī à¦Łà¦°
Ġà¦ĩ à§Ł
Ġà¦ĩ à¦¨à¦Ł
à¦°à¦£ à¦Ł
à¦ı à¦ķà¦¬
à¦ı à¦ķà¦¦
à¦ķà¦² à¦¤
à¦¬à¦² à¦¨
Ġà¦ħà¦¸ à¦Ń
Ġà¦¶à¦° à§İ
Ġà¦ªà§ľ à¦Ľ
Ġà¦ķà¦¨ à¦«
Ġà¦¹à¦ķ à¦ļà¦ķ
à¦¨ à§Ł
à¦¨ à¦«
à¦¯ à¦¹
Ġà¦Ĩ à¦ªà¦¦
à¦¸ à¦¯
à¦¸ à¦Ń
Ġà¦¸ à¦¯
Ġà¦¸ à¦Ł
Ġà¦¸ à¦«
Ġà¦¸ à¦ĵà¦¯
Ġà¦¸ à¦«à¦²
Ġà¦ª à¦Ļ
à¦ĩ à¦¹
à¦ĩ à¦ªà¦°
Ġà¦¨ à¦ĵ
Ġà¦¦ à¦£
Ġà¦¤ à¦¦à¦¨
à¦ª à¦ķà¦ķ
à¦ľ à¦¡
à¦Ĺ à¦Ń
à¦¶ à¦ľà¦¨
à¦ļ à¦¶
Ġà¦ľ à¦ŀ
à¦ĵ à¦®
à¦· à¦¨
à¦· à§Ł
à¦· à¦ľà¦¨
à¦¹ à¦ĩ
Ġà¦« à¦¸
à¦ł à¦¤
Ġà¦ĺ à¦°à¦¬
Ġà¦Ł à¦¯
Ġà¦ªà¦° à¦¬à¦°
Ġà¦¡ à¦ľà¦¨
Ġà¦Ĩà¦Ľ à¦¡
Ġà¦ĩ à¦¸à¦²
à¦¬à¦¨ à¦¯
à¦¨à¦ĵ à¦Ł
Ġà¦ľà¦² à¦ª
Ġà¦ķà¦¤ à¦ķà¦Ĺ
Ġà¦¸à¦° à¦¸
Ġà¦ĵà¦ĩ à¦°à¦ķà¦®
à¦¤à¦² à¦Ł
Ġà¦¤à¦° à¦Ļ
Ġà¦ľà¦Ĺ à§İ
Ġà¦¥à¦® à¦¥à¦®
à¦ Ĳ
à¦° à¦Ĺà¦¤
à¦² à¦¹
à¦¯ à¦Ĺ
à¦® à§ľ
à¦¬ à¦°à¦¤
Ġà¦ª à¦¬à¦¨
à¦Ľ à¦ķ
Ġà¦ı à¦ľà¦¨
Ġà¦¤ à¦ªà¦¨
à¦¦ à¦ĸ
à¦ĸ à¦£
Ġà¦Ĺ à¦¹à¦¨
à¦ļ à¦¸
à¦ļ à¦Ľ
Ġà¦Ĩà¦® à¦¤
à¦ĵ à¦Ł
à¦ĵ à¦ĩ
à¦ĵ à¦ĸ
à¦· à¦¸à¦ķ
Ġà¦¶ à¦«
à¦£ à¦£
Ġà¦« à¦°à¦®
à¦Ń à¦¦
à¦ł à¦ķà¦ĸ
Ġà¦¬à¦²à¦² à¦Ĩà¦ªà¦¨
Ġà¦Ĩà¦° à¦¶
Ġà¦Ł à¦ªà¦ķ
Ġà¦®à¦¨ à¦ķ
à¦ı à¦®
à¦¬à¦² à¦ĩ
à¦Łà¦° à¦Ĺ
Ġà¦¬à¦ĩ à¦¤
à¦¨à¦ľà¦¨ à¦ķ
Ġà¦ķà¦¨ à¦ķà¦²à¦¤
Ġà¦Ĩà¦ĩ à¦ľ
Ġà¦Ĩà¦ĩ à¦¸à¦ķ
Ġà¦§à¦¨ à¦ŀ
à¦° à¦·
à¦² à¦Ļ
à¦¤ à¦ļ
Ġà¦¬ à¦¤
Ġà¦¸ à§Ł
Ġà¦¨ à¦Ĺ
Ġà¦¨ à¦°à¦ķ
à¦Ĺ à§ľ
à¦¶ à¦ĩ
Ġà¦ıà¦ķ à¦ļ
Ġà¦ıà¦ķ à¦¹
à¦¥ à¦¤
à¦· à¦ĵ
à¦¹ à¦ł
Ġà¦ĵ à¦²
Ġà¦Ľ à¦¤
à¦£ à¦ª
Ġà¦« à¦ķ
Ġà¦ī à¦·
Ġà¦ī à§ľ
Ġà¦¬à¦²à¦² à¦ıà¦ĩ
Ġà¦¸à¦® à¦¬
à¦°à¦¤ à¦¬
à¦¤à¦° à¦£
Ġà¦Ĩà¦Ĺ à¦²
Ġà¦Ĩà¦Ĺ à¦®à¦¨
Ġà¦¤à¦ĸà¦¨ à¦ķ
Ġà¦Ĩà¦¬ à¦¦
à¦ı à¦¤
Ġà¦ĩà¦¨ à¦Ń
Ġà¦¦à¦¶ à¦ľà¦¨
Ġà¦¬à¦ĩ à¦Ĺ
à¦ħ à¦¤
Ġà¦ĩà¦ī à¦ıà¦«
Ġà¦ľà¦Ĺ à¦¦
Ġà¦ĸà¦Ł à¦ĸà¦Ł
Ġà¦¬à§İà¦¸ à¦°
Ġà¦§à¦¬ à¦§à¦¬
à¦¨ à¦Ĩ
à¦¨ à¦ªà¦¤
à¦¨ à¦¸à¦¨
à¦¨ à¦Ĩà¦ªà¦¨
à¦ķ à¦£
à¦ķ à§ľ
à¦ķ à¦ªà¦ķ
à¦® à¦Ń
à¦¬ à¦ī
Ġà¦¬ à¦ĩà¦ķ
Ġà¦¬ à¦¦à¦¨
à¦Ł à¦Ń
à¦Ł à¦ľà¦¨
Ġà¦¸ à¦¯à¦¤
Ġà¦¸ à¦¶à¦¸
Ġà¦¨ à¦¨à¦¦
Ġà¦¦ à¦ª
Ġà¦¦ à§Ł
Ġà¦® à¦ĩ
Ġà¦® à¦Ĺ
Ġà¦® à¦ľà¦¬
à¦¦ à¦Ĺ
à¦Ĺ à¦Ļ
à¦ĵ à¦¹
Ġà¦ıà¦ķ à¦ĺ
Ġà¦° à¦Ł
Ġà¦ĵ à¦§
à¦£ à¦°
à¦£ à¦Ł
Ġà¦ī à¦¬
Ġà¦ī à¦Ĺ
à¦Ń à¦¶
Ġà¦Ĩà¦° à¦¤
à¦« à¦¨
à¦« à¦ª
Ġà¦¹à¦² à¦ĺà¦°
Ġà¦ĩ à¦Ľ
Ġà¦Ŀ à¦Łà¦ķ
Ġà¦ıà¦ĸà¦¨ à¦ķ
Ġà¦§à¦° à¦Ľ
à¦¬à¦° à¦ĩ
Ġà¦Ĩà¦² à¦Ł
à¦°à¦ªà¦° à¦ĩ
Ġà¦¬à¦Ľà¦° à¦ĸ
à¦Ĩ à¦¡
à¦°à¦¥à¦® à¦Ł
à¦¯à¦¬ à¦§
Ġà¦īà¦ª à¦²à¦¬
Ġà¦ĩà¦¤ à¦¸
à¦ªà¦ķ à¦¥
Ġà¦Ī à¦°
Ġà¦ĭ à¦£
Ġà¦īà§İà¦ķ à¦£
à¦° à¦ĵà¦¯
à¦° à¦§à¦¨
à¦² à¦¶
à¦¯ à¦Ļ
à¦¬ à¦ķà¦Ł
Ġà¦¬ à¦§
Ġà¦¬ à¦ķà¦¬
Ġà¦¬ à¦ľà¦°
Ġà¦Ĩ à¦·
Ġà¦¨ à¦¹
Ġà¦¤ à¦¡
Ġà¦¤ à¦°à¦²
Ġà¦¤ à¦¤à¦Ł
Ġà¦® à¦ķ
Ġà¦® à¦¹à¦²
Ġà¦¹ à¦°à¦®
à¦ª à¦ľà¦Ļ
à¦¡ à¦ī
à¦¡ à¦«
à¦¶ à¦Ľ
à¦¶ à¦«
Ġà¦Ĺ à¦ª
à¦ļ à¦°à¦£
Ġà¦ıà¦ķ à¦ıà¦ķà¦Ł
Ġà¦° à¦¹à¦®
Ġà¦Ľ à¦ķ
à¦£ à¦Ń
Ġà¦Ĩà¦° à¦ķ
Ġà¦Ł à¦²
Ġà¦ıà¦ĩ à¦¸à¦®à¦¯
à¦ľà¦¨ à¦¤
Ġà¦ĩ à¦Ĺ
Ġà¦Ŀ à¦ª
à¦ĺ à¦¬
à¦¨à¦¤ à¦²
à¦ķà¦° à¦¦
à¦ĩà¦² à¦Ł
à¦Ĩ à¦ĩà¦¨
à¦°à¦ľ à¦ķ
à¦°à¦¥ à¦®à¦¤
Ġà¦¯à¦ĸà¦¨ à¦ĩ
Ġà¦īà¦ª à¦²à¦ķ
à¦Ĺà¦ľ à¦Ĺ
Ġà¦¸à¦¹ à¦ķ
Ġà¦®à¦¶ à¦²
Ġà¦®à¦¦ à¦¨à¦ķ
à¦ľà¦Ĺ à¦ŀ
Ġà¦Ĩà¦« à¦¸
à§ ¨
à¦² à¦¥
à¦² à¦Ĩ
à¦² à¦ªà¦¤
à¦¯ à¦¶
à¦¯ à¦ľà¦¨
Ġà¦ķ à¦Ń
à¦® à¦°à¦ķ
à¦¬ à¦°à¦ķ
Ġà¦¬ à¦¶
à¦¸ à¦ıà¦°
à¦Ľ à¦¡
à¦ĩ à¦¸à¦Ļ
Ġà¦ı à¦Ľ
Ġà¦® à¦°à¦¦
à¦¦ à¦ĩ
à¦¦ à§Ł
Ġà¦¹ à¦ª
à¦ª à¦¬à¦¤
à¦ĸ à¦Ĺ
à¦¶ à¦Ń
Ġà¦ıà¦ķ à¦ıà¦ķ
Ġà¦° à¦ĺ
à¦¥ à¦ª
à¦§ à¦¸
à¦§ à¦ª
à¦§ à¦¶
Ġà¦² à¦Ł
Ġà¦« à¦²à¦Ł
Ġà¦« à¦¸à¦ķ
à¦ł à¦Ł
Ġà¦ħà¦¨ à¦²
à¦ī à¦¤
à¦ī à¦¶à¦¨
Ġà¦¡ à¦¬à¦²
à¦ľà¦¨ à¦¦
Ġà¦ĩ à¦®à¦¨
à¦°à¦ķ à¦²
Ġà¦¬à¦¸ à¦Ľ
Ġà¦ľà¦¨ à¦¨
Ġà¦Ŀ à¦°à¦Ľ
à¦ı à¦ĸ
à¦ĺ à¦¡
à¦²à¦ķ à¦ķ
à¦Ĩ à¦§
à¦°à¦¥à¦® à¦¬
Ġà¦ħà¦¤ à¦¸
à¦°à¦¶ à¦¸
Ġà¦ķà¦² à¦¸
Ġà¦ĩà¦¨ à¦¶
Ġà¦ħà¦ª à¦²à¦ķ
Ġà¦ķà¦¬ à¦ľ
Ġà¦ĸà¦¬à¦° à¦¦
à¦° à§İ
à¦² à¦ĵà¦¯
Ġà¦ķ à¦®à¦¨
Ġà¦ķ à¦¦à¦°
Ġà¦ķ à¦¨à¦ķ
à¦® à¦ļà¦¨
à¦¬ à¦Ĺ
à¦¬ à§ľ
Ġà¦¸ à¦²à¦ľ
Ġà¦ª à§Łà¦²
à¦Ľ à¦¤à¦²
Ġà¦¹ à¦°à¦²
Ġà¦¹ à¦¨à¦¨
à¦ª à¦¶
à¦¡ à¦ľ
Ġà¦Ĺ à¦Ł
Ġà¦ľ à¦¬à¦°
Ġà¦ľ à¦Ĺà¦¨
à¦ĵ à¦ª
Ġà¦ħ à¦®à¦°
Ġà¦° à¦ľà¦¨
à¦· à¦ľ
Ġà¦¶ à¦¸
à¦¹ à¦ª
Ġà¦ĸ à¦¨
Ġà¦ĸ à¦ª
Ġà¦ĸ à¦Łà¦ķ
à¦£ à¦ļ
à¦Ń à§İà¦¸
à¦ł à¦¬
Ġà¦¬à¦²à¦² à¦ıà¦ķà¦Ł
Ġà¦ĺ à§ľ
Ġà¦Ł à¦²à¦¤
Ġà¦ıà¦ĩ à¦®
Ġà¦§ à¦ª
à¦ī à¦Ĺ
Ġà¦¸à¦® à¦Ŀ
à¦ľà¦¨ à¦ĩ
Ġà¦¸à¦¬ à¦ľ
à§İ à¦ªà¦°
Ġà¦ľà¦¨ à¦ª
à§ľ à¦¬
Ġà¦Ŀ à¦²à¦¸
Ġà¦ĺà¦° à¦Ĺ
à¦¬à¦¨ à¦¦
Ġà¦ħà¦¬ à¦¹
à¦°à¦® à¦§
à¦°à¦® à¦¹à¦²
à¦ķà¦² à¦ķ
Ġà¦ıà¦®à¦¨ à¦Ł
à¦Ĩ à¦ķ
Ġà¦Ĩà¦¨ à¦®à¦¨
à¦ĩà¦¨ à¦ķ
à¦°à¦¸ à¦°
à¦°à¦¸ à¦¦à¦¨
à¦¸à¦¬ à¦ĩ
à¦²à¦¤ à¦²
Ġà¦ĺà¦Ł à¦Ľ
à¦°à¦ļ à¦¨
Ġà¦ªà¦¦ à¦ķ
Ġà¦Ĩà¦ĩ à¦¸
à¦ľà¦® à¦¹à¦²
Ġà¦¬à§ľ à¦ľà¦¨
Ġà¦Ńà¦¬ à¦®
Ġà¦¹à¦ĩ à¦¹à¦ĩ
à§ §à§
à¦² à¦¬à¦¨
à¦ķ à¦ľ
à¦¬ à¦ĸ
Ġà¦Ĩ à¦ĵà¦¡
Ġà¦¸ à¦°à¦¬à¦°
Ġà¦¦ à¦°à¦¦
Ġà¦¤ à¦ªà¦¸
à¦¦ à¦¹
à¦¦ à¦®à¦¸
à¦ª à¦ª
à¦ĸ à¦ĵ
à¦Ĺ à¦¤à¦°
à¦¶ à¦Ŀ
Ġà¦Ĺ à¦¹
Ġà¦ħ à¦¡
Ġà¦° à§Ł
Ġà¦ĸ à¦¯
Ġà¦ĵ à¦Ŀ
Ġà¦¥ à¦¤
à¦Ń à¦¸
Ġà¦¬à¦²à¦² à¦ĸ
à¦ĸà¦¨ à¦ĵ
Ġà¦Ł à¦ª
à¦®à¦¨ à¦Ł
à¦ī à§Ł
Ġà¦¸à¦® à¦¬à¦¯
à¦Ŀ à¦Ľ
Ġà¦ĩ à¦£
Ġà¦§à¦° à¦®
Ġà¦¬à¦¨ à¦²à¦¤
Ġà¦Ĩà¦² à¦¨
à¦ĺ à¦°à¦Ł
à¦¬à¦² à¦ľ
à¦Ĩ à¦ľ
à¦¨à¦Ł à¦¨
Ġà¦Ĩà¦¨ à¦Ľ
à¦ĩà¦¨ à¦¬
Ġà¦ħà¦ª à¦Ľà¦¨
à¦ªà¦¦ à¦ķ
à¦ªà¦¦ à¦¬
Ġà¦ķà¦ĸà¦¨à¦ĵ à¦ĩ
Ġà¦ħà¦² à¦¸
Ġà¦¸à¦¦ à¦¸
Ġà¦Ĭ à¦¨
Ġà¦ħà¦¹ à¦Ļ
Ġà¦ıà¦ķà¦§ à¦°à¦¨
Ġà¦Ŀà¦Ł à¦ªà¦Ł
à¦īà¦°à¦¤ à¦¨
à¦¡à¦ī à¦ĩà¦ļ
à¦¨ à¦°à¦ķà¦®
à¦² à¦®à¦¤
à¦¤ à¦ľà¦¨
à¦¤ à¦ļà¦°
à¦¤ à¦Ĺà¦¤
à¦® à¦ł
Ġà¦Ĩ à¦¤à¦°
Ġà¦Ĩ à¦ĵà§Ł
à¦¸ à¦ĵà¦¯
Ġà¦¸ à¦¶à¦¬
Ġà¦ı à¦§
à¦ľ à¦ĸ
à¦ľ à¦¶
Ġà¦Ĺ à¦¤à¦°
à¦ĵ à¦ł
à¦ĵ à¦°à¦¤
Ġà¦° à¦¥
à¦¥ à¦ªà¦°
Ġà¦¶ à¦²
Ġà¦ĸ à¦£
Ġà¦Ľ à¦²à¦Ľ
Ġà¦² à¦°
Ġà¦² à¦²
Ġà¦² à¦¸
à§Ł à¦°
à¦Ń à¦²
Ġà¦¬à¦²à¦² à¦ľ
Ġà¦¬à¦²à¦² à¦Ĩà¦°
Ġà¦ĺ à¦·à¦¤
Ġà¦ħà¦¨ à¦Łà¦¨
Ġà¦ıà¦ĩ à¦ľà¦¨
à§Ĥ à¦ģ
Ġà¦ĩ à¦ķ
Ġà¦ĩ à¦Ń
Ġà¦¸à¦¬ à¦¶
Ġà¦ľà¦¨ à¦¸
Ġà¦¬à¦¨ à¦¬
Ġà¦Ĩà¦² à¦¸
à¦°à¦® à¦ª
à¦Ĺà¦² à¦¬
à¦Ĺà¦² à¦Ł
Ġà¦¹à¦¤ à¦¬
Ġà¦ıà¦¤ à¦¬à¦¡
Ġà¦ľà¦² à¦ĸ
à¦Ĩ à¦¬
Ġà¦¸à¦° à¦ŀ
Ġà¦ĵà¦ĩ à¦Ń
Ġà¦¶à¦¬ à¦¬
à¦¬à¦¤ à¦ĩ
Ġà¦Ĳ à¦¦
à¦ħ à¦ª
Ġà¦¹à¦¨ à¦¹à¦¨
Ġà¦ıà¦® à¦ı
Ġà¦¹à¦ĩ à§Ł
Ġà¦Ĩà¦Ł à¦ľà¦¨
ĠĠ ĠĠ
à¦Ĺà¦Ń à¦¬à¦¨
Ġà¦Ľà¦²à¦Ľ à¦²
à§ Ŀ
à¦¤ à¦¡
Ġà¦ķ à§ľ
à¦® à¦«
à¦¬ à¦ķà¦°
Ġà¦Ĩ à¦«à¦Ł
Ġà¦ª à¦ª
à¦ĩ à¦ļà¦Ł
Ġà¦¦ à¦°à¦ĸ
Ġà¦ı à¦¶
Ġà¦ı à¦°à¦®à¦§
Ġà¦¤ à§İà¦ªà¦°
Ġà¦® à¦ł
Ġà¦® à¦°à¦Ľ
Ġà¦® à¦Ĺà¦ľ
à¦¦ à¦£
à¦¦ à¦°à¦¬à¦¨
à¦¦ à¦°à¦®à¦¹à¦²
Ġà¦¹ à¦¡
à¦Ĺ à¦ĵ
à¦¶ à¦ķà¦°
Ġà¦ľ à¦²à¦ķ
Ġà¦ľ à¦Łà¦²
Ġà¦ľ à¦ĸà¦®
Ġà¦ħ à¦¬à¦°
Ġà¦ıà¦ķ à¦«
à¦¥ à¦Ł
à¦¥ à¦¸
à¦¥ à¦°à¦Ł
à¦§ à¦Ľ
Ġà¦Ń à¦£
Ġà¦ĸ à¦¤à¦®
à¦£ à¦ķà¦²
Ġà¦ī à¦¹
à¦Ļ à¦¬
Ġà¦¬à¦²à¦² à¦Ĳ
Ġà¦ĺ à¦Łà¦ķ
Ġà¦Ł à¦ķ
Ġà¦Ł à¦Ļ
Ġà¦§ à¦ķà¦²
à¦ī à¦ļ
à¦ī à¦ıà¦°
à¦« à¦¡
à¦ŀ à¦¸
Ġà¦ıà¦¸ à¦¸
Ġà¦ļà¦² à¦¨
Ġà¦ĩ à¦Ĺà¦²
Ġà¦¸à¦¬ à¦Ĺ
Ġà¦¸à¦¬ à¦°à¦ķà¦®
Ġà¦Ĩà¦ªà¦¨ à¦®à¦¨
Ġà¦ľà¦¨ à¦ķ
Ġà¦ıà¦¬ à¦¡
Ġà¦Ĩà¦² à¦ªà¦¨
à¦°à¦ªà¦° à¦ĵ
Ġà¦Ĩà¦ľ à¦®
à¦ĺ à¦²
à¦ĺ à¦ķ
à¦ĺ à¦Ł
Ġà¦ľà¦² à¦¸
Ġà¦ľà¦² à¦¦
à¦Ĩ à¦ļ
à¦¯à¦¬ à¦¤
Ġà¦ıà¦Ĺ à¦ľ
Ġà¦ħà¦¤ à¦Ł
Ġà¦Ńà¦¦ à¦ķ
Ġà¦¸à¦¹ à¦¯
à¦ħ à¦®
à¦ħ à¦¸
Ġà¦¬à¦¹ à¦°à¦®à¦ª
à¦ľà¦¬ à¦īà¦¦
Ġà¦Ĩà¦ª à¦¶
Ġà§ ©
Ġà¦Ĺà¦Ń à¦°
à¦®à¦Ĺ à¦ŀ
Ġà¦ĸà¦¸ à¦ĸà¦¸
Ġà¦ķà¦¬à¦° à¦¸
Ġà¦Ķ à¦·
à§ Ń
à¦° à¦ªà¦¤
à¦¨ à¦¬à¦¨
à¦¨ à¦ıà¦ĩ
à¦¨ à¦Ĩà¦°
à¦² à¦ķà¦Ł
à¦² à¦ķà¦²
à¦ķ à¦·
à¦ķ à¦°à¦ķ
à¦¯ à¦¬à¦°
Ġà¦ķ à¦ĩà¦¤
à¦® à¦²à¦ķ
à¦® à¦ªà¦¤
Ġà¦¬ à§Ł
à¦Ł à¦¡
à¦Ł à¦¶
Ġà¦Ĩ à¦¦à¦²
à¦¸ à¦¶
Ġà¦¸ à¦¡
à¦Ľ à¦®
Ġà¦¨ à¦²
Ġà¦¤ à¦®
Ġà¦® à¦Łà¦ķ
à¦¦ à¦ĺ
à¦¦ à¦¨à¦ķ
à¦ĸ à¦ļà¦°
à¦¡ à¦ª
Ġà¦ķà¦° à¦¨
à¦Ĺ à¦°à¦ķ
à¦¶ à¦ĸ
à¦¶ à¦ķà¦¦
Ġà¦¯ à¦ķ
Ġà¦¯ à¦¶
Ġà¦ļ à¦°à¦£
à¦ļ à¦²à¦Ł
Ġà¦¬à¦² à¦Ł
Ġà¦ħ à¦ĸ
Ġà¦ħ à¦ĺà¦Łà¦¨
Ġà¦ıà¦ķ à¦Ŀ
à¦¼à¦¾ à¦Ĥ
Ġà¦ĸ à¦°à¦¸
Ġà¦ĸ à¦ļà¦°
à¦£ à¦¹
Ġà¦« à¦¯
Ġà¦ī à¦Ł
à¦Ļ à¦Ľ
Ġà¦¬à¦²à¦² à¦ł
Ġà¦Ł à¦¨
Ġà¦Ł à¦²à¦Ł
Ġà¦Ł à¦¨à¦Łà¦¨
Ġà¦ħà¦¨ à¦¡
Ġà¦ħà¦¨ à¦¬à¦°à¦¤
à¦ī à¦ł
Ġà¦¡ à¦°
à¦« à¦ķ
Ġà¦®à¦¨ à¦ĸ
Ġà¦ıà¦¸ à¦ª
Ġà¦ĵà¦° à¦ĩ
à¦°à¦¬ à¦§
à¦¬à¦¨ à¦ķ
Ġà¦ħà¦¬ à¦ķ
à§Ī à¦ĥ
à¦·à¦£ à¦ķ
à¦ķà¦° à¦Ł
Ġà¦ķà¦¤ à¦ľà¦¨
Ġà¦ıà¦®à¦¨ à¦ĵ
à¦Ĩ à¦¶
Ġà¦ĵà¦ĩ à¦¸à¦¬
Ġà¦ıà¦Ĺ à¦¤
à¦®à¦ķ à¦°à¦£
Ġà¦īà¦ª à¦¡
Ġà¦ķà¦² à¦Ļ
Ġà¦¬à¦ī à¦ıà¦°
à¦ļà¦¨ à¦ľà¦Ļ
Ġà¦¬à¦ĩ à¦ıà¦°
à¦®à¦¬ à¦Ļ
Ġà¦ĺà¦¨ à¦ĺà¦¨
à¦§à¦¬ à¦¦
Ġà¦ħà¦² à¦Ļ
Ġà¦®à¦¶ à¦Ĺ
à¦¨à¦ľà¦¨ à¦ĩ
à¦ªà¦¸ à¦¦
Ġà¦ıà¦ķà¦ĩ à¦Ń
Ġà§ °
Ġà§§à§¯à§ ®à§
Ġà¦Ķà¦· à¦§
Ġà¦ĸà¦ļà¦° à¦ĸà¦ļà¦°
Ġà¦Łà¦²à¦Ł à¦²
à§ «
à¦¨ à¦ĵà¦¯
à¦¨ à¦®à¦¤
à¦² à¦¬à¦°
à¦² à¦ĺ
à¦ķ à¦ªà¦Ł
à¦ķ à¦ıà¦°
à¦¤ à¦¹
à¦¤ à¦°à¦¬
à¦¤ à¦®à¦ķ
Ġà¦ķ à¦ĩà¦²
à¦® à¦ĵà¦¯
à¦¬ à¦ªà¦¨
Ġà¦¬ à¦°à¦¬
Ġà¦¬ à¦ĩà¦²
Ġà¦Ĩ à¦ĩà¦²
Ġà¦Ĩ à¦ªà¦¸
Ġà¦Ĩ à¦¬à¦°à¦£
Ġà¦¸ à¦°à¦¬
à¦Ľ à¦¯
à¦ĩ à¦ĺà¦°
Ġà¦¨ à¦Ń
Ġà¦¨ à¦ĵà¦²
Ġà¦¦ à¦ªà¦¦
Ġà¦ı à¦ĺà¦°
à¦¦ à¦¬à¦ª
à¦Ĺ à¦ķ
à¦Ĺ à¦°à¦¦
à¦¶ à¦¶
à¦¶ à¦ķà¦²
à¦¶ à¦®à¦¤
Ġà¦Ĺ à¦¤à¦¬
Ġà¦¬à¦² à¦¨
Ġà¦ħ à¦ĵà¦°à¦¤
Ġà¦° à¦¹
à¦§ à¦ĵ
Ġà¦Ń à¦¸
Ġà¦Ń à¦¡
Ġà¦Ń à¦¬à¦¨
à¦¹ à¦¨à¦ķ
Ġà¦ĸ à¦°à¦Ĺ
à¦£ à¦¸à¦Ļ
Ġà¦² à§ľ
Ġà¦¥ à¦ĩ
Ġà¦ī à¦Ńà¦¯
à§Ł à¦ķ
à§Ł à¦®
à§Ł à¦ĩ
à§Ł à¦ľà¦¨
Ġà¦¬à¦²à¦² à¦ļà¦²
Ġà¦Ĩà¦° à¦ıà¦ķà¦Ł
Ġà¦Ł à¦®
Ġà¦Ł à¦ķà¦Ł
Ġà¦¡ à¦Ł
Ġà¦ĩ à¦¬à¦¨
Ġà¦ĩ à¦Ńà¦¨
à¦°à¦ķ à¦°
à¦°à¦ķ à¦¯
Ġà¦ľà¦¨ à¦¤
Ġà¦ľà¦¨ à¦¶
Ġà¦ĺà¦° à¦¦
Ġà¦¬à¦¨ à¦Ĺ
Ġà¦ħà¦¬ à¦²
Ġà¦ħà¦¬ à¦²à¦®
Ġà¦Ĩà¦ľ à¦¬
Ġà¦ľà¦² à¦ĵ
à¦Ĩ à¦¤
à¦Ľà¦¨ à¦ª
à¦°à¦¸ à¦®
Ġà¦ķà¦® à¦¬
Ġà¦ķà¦® à¦ĩ
Ġà¦īà¦ª à¦¬
Ġà¦ħà¦ª à¦¦
Ġà¦ľà¦® à¦ľà¦®
à¦Łà¦² à¦®
à¦ľà¦² à¦¦
à¦®à¦¸ à¦®
Ġà¦¤à¦° à¦«
Ġà¦ķà¦¨ à¦¡
à¦°à¦ĸ à¦°
Ġà¦ħà¦ķ à¦¸
Ġà¦¬à¦Ł à¦Ĺ
Ġà¦ľà§Ł à¦ķ
à¦®à¦Ľ à¦®
Ġà¦ĩà¦Ł à¦¸
Ġà¦ªà¦°à¦ªà¦° à¦ĩ
Ġà¦°à¦¤à¦¨ à¦ķ
Ġà¦Łà¦®à¦Ł à¦®à¦Ł
Ġà§¨ à§¦
Ġà¦Ńà¦Ł à¦ļ
Ġà¦¨à¦ľ à¦°à¦¦
Ġà¦¬à¦ķà¦¬ à¦ķ
Ġà¦¥à¦¤ à¦®à¦¤
Ġà¦¦à¦ªà¦¦ à¦ª
Ġà¦Łà¦ķà¦Ł à¦ķ
à§ĩ à§ĩ
à¦° à¦Ŀ
à¦° à¦°à¦ķ
à¦¨ à¦¬à¦°
à¦¨ à¦ĺ
à¦² à¦¸à¦®
à§ģ à§ģ
à¦® à¦¬à¦°
à¦® à¦®à¦¤
à¦¬ à¦ķà¦¦
à¦Ł à¦ªà¦°
à¦Ł à¦ĵà¦¯
à¦¸ à¦ľ
à¦¸ à¦®à¦¸
Ġà¦¸ à¦ĩà¦¤
Ġà¦¸ à¦¶à¦°
à¦Ľ à¦Ń
Ġà¦¦ à¦ĸ
Ġà¦¦ à¦²à¦¬
Ġà¦¦ à¦²à¦Ł
Ġà¦ı à¦¹
Ġà¦¤ à¦²à¦¬
Ġà¦® à¦ľà¦²
Ġà¦¹ à¦ĩà¦¨
à¦ª à¦ŀ
à¦ĸ à¦¡
à¦¡ à¦¹
Ġà¦ļ à¦°à¦ķ
à¦ļ à¦ª
à¦ļ à¦¨à¦ķ
à¦ĵ à¦Ĺ
Ġà¦ħ à¦£
Ġà¦ħ à¦ĺ
Ġà¦ħ à¦¯à¦¥
Ġà¦ıà¦ķ à¦¨
Ġà¦° à¦ª
Ġà¦° à¦¡
Ġà¦° à¦Ĺà¦¡
à¦¥ à¦¹
à¦§ à¦Ń
à¦¹ à¦°à¦ķ
à¦£ à¦¸à¦®
Ġà¦² à¦¬
Ġà¦² à¦ĸ
Ġà¦« à¦¡
Ġà¦« à¦Łà¦ķ
Ġà¦ī à¦¸
Ġà¦ī à¦¤à¦²
à§Ł à¦¡à¦«
Ġà¦¬à¦²à¦² à¦ıà¦¬
Ġà¦ıà¦ĩ à¦ļ
à¦ī à¦°à¦²
à¦ľà¦¨ à¦ĵ
à¦Ŀ à¦®
Ġà¦ıà¦¸ à¦®à¦¯
à¦°à¦ķ à¦¨
Ġà¦Ŀ à§ľ
à¦°à¦£ à¦ķ
Ġà¦¢ à¦ķ
à¦ı à¦²
à¦ı à¦¦
à¦ĺ à¦¦
à¦°à¦® à¦°
à¦Ĺà¦² à¦ķ
à¦Ĺà¦² à¦ª
à¦°à¦² à¦¯
à¦¬à¦² à¦ª
Ġà¦ķà¦¤ à¦ĩ
Ġà¦ķà¦¤ à¦ĸ
Ġà¦ĵà¦ĩ à¦ĸ
à¦°à¦¸ à¦¬
à¦°à¦¥à¦® à¦ľà¦¨
Ġà¦ĩà¦¨ à¦¡
Ġà¦ħà¦ª à¦¬
Ġà¦ªà¦¥ à¦ļ
Ġà¦ħà¦® à¦Ļ
Ġà¦īà¦¦ à¦¯
Ġà¦Ĳ à¦Ł
Ġà¦Ŀà¦¨ à¦Ŀà¦¨
Ġà¦Ĩà¦¤ à¦¤
à¦ħ à¦Ń
Ġà¦Ĩà¦¦ à¦®
à¦ķà¦ľà¦¨ à¦ķ
Ġà¦Ĩà¦§ à¦Ł
à¦²à¦® à¦¹
Ġà¦°à¦¸ à¦Ĺ
Ġà¦ķà¦¨ à¦Ń
Ġà¦ķà¦Ł à¦®à¦Ł
à¦īà¦Ł à¦¨
Ġà¦®à¦ľ à¦¦
Ġà¦ĩà¦² à¦¶
à¦ľà¦¦ à¦°à¦¬
à¦°à¦®à¦£ à¦ķ
Ġà§§à§ Ń
Ġà¦Ĩà¦ĩà¦¨ à¦¸
à§¦à§ Ń
Ġà¦ĩà¦īà¦ıà¦« à¦ĵà¦°
à¦¾ à¦¾
à¦¨ à¦§
à¦¨ à¦ħ
à¦² à¦Ŀ
à¦ķ à¦Ŀ
à¦¯ à¦¦à¦²
à¦¼ à§Ĥ
à¦¤ à¦§
à¦¤ à¦°à¦ķ
à¦¤ à¦¨à¦Ł
à¦¤ à¦¦à¦¨
à¦¤ à¦¸à¦ķ
Ġà¦ķ à¦ĵ
Ġà¦ķ à¦ļà¦²
à¦® à¦Ĩ
à¦¬ à¦Ĺà¦¤
Ġà¦¬ à¦Ĺ
Ġà¦¬ à¦°à¦£
à¦Ł à¦®à¦£
à¦¸ à¦ļ
à¦¸ à¦§
à¦¸ à¦°à¦ķ
à¦¸ à¦ķà¦°
Ġà¦¸ à¦ļà¦°
à¦Ľ à¦ĵ
à¦ĩ à¦ªà¦Ł
à¦ĩ à¦¸à¦®à¦¯
Ġà¦¨ à¦¨à¦¸
Ġà¦¦ à¦ĩ
Ġà¦¦ à¦°à¦¬
Ġà¦¤ à¦°à¦¤à¦°
à¦¦ à¦°à¦Ł
à¦¦ à¦ªà¦¤
Ġà¦¹ à¦°à¦¤
Ġà¦¹ à¦ĩà¦Ľ
à¦ª à¦²à¦ķ
à¦ĸ à¦ĩ
à¦ĸ à¦§
à¦ĸ à¦ķà¦°
à¦ľ à§Ł
à¦ľ à¦Ń
à¦Ĺ à¦ł
à¦¶ à¦Ļ
Ġà¦ļ à¦ª
Ġà¦ļ à¦Łà¦ķ
Ġà¦Ĺ à¦Ĺà¦¨
à¦ļ à¦Ĺ
Ġà¦ľ à¦ĺà¦¨
à¦ĵ à¦Ľ
à¦ĵ à¦ıà¦°
Ġà¦¬à¦² à¦¦
Ġà¦ħ à¦Ľ
Ġà¦ıà¦ķ à¦Ĩà¦§à¦Ł
Ġà¦° à¦Łà¦¨
à¦¥ à¦ļ
Ġà¦¶ à¦ª
à¦¹ à¦«
à¦¹ à¦ķà¦°
Ġà¦ĵ à¦¨à¦²
Ġà¦Ľ à¦ª
Ġà¦Ľ à¦Łà¦ķ
Ġà¦Ľ à¦®à¦Ľà¦®
à¦£ à¦ļà¦¨
Ġà¦² à¦¬à¦£
Ġà¦ī à¦®
Ġà¦ī à¦ĩà¦¨
à¦Ń à¦°à¦¤
Ġà¦¬à¦²à¦² à¦ıà¦ķ
Ġà¦Ł à¦¹à¦²
Ġà¦ªà¦° à¦ª
Ġà¦§ à¦¸
à¦ī à¦¥
à¦ī à¦ŀ
à¦ī à¦¨à¦Ł
Ġà¦¡ à¦²à¦«
Ġà¦¸à¦® à¦¤à¦²
Ġà¦ĩ à¦ĵà¦°
à¦°à¦¤ à¦®
à¦°à¦¬ à¦£
Ġà¦ħà¦¬ à¦¯
Ġà¦Ĺà¦² à¦¤
à¦ı à¦Ĺ
à¦°à¦® à¦¤
à¦·à¦£ à¦ĩ
à¦¨à¦¤ à¦¤
à¦ĩà¦² à¦¨
à¦ĩà¦² à¦ļ
à¦Ĩ à¦¨
à¦Ĩ à¦ĩ
à¦Ĩ à¦Ļ
à¦®à¦¤ à¦²
Ġà¦¯à¦ĸà¦¨ à¦¤à¦ĸà¦¨
Ġà¦ħà¦Ń à¦¦
Ġà¦¶à¦¬ à¦¦
Ġà¦ķà¦® à¦ªà¦ķ
Ġà¦īà¦ª à¦Ĺ
à¦¹à¦° à¦¨
à¦²à¦² à¦ĵà¦¹
Ġà¦ħà¦® à¦²à¦ķ
Ġà¦¯à¦¤ à¦¬
Ġà¦¦à¦¶ à¦®
Ġà¦¦à¦¶ à¦¦
Ġà¦ıà¦¨ à¦¸
Ġà¦«à¦² à¦¸
Ġà¦ªà¦¦ à¦¬
Ġà¦ıà¦¸à¦¬ à¦ĩ
à¦ħ à¦¬à¦¸
Ġà¦Ĺà¦° à¦Ĺà¦°
Ġà¦ħà¦ľ à§Łà¦¦
Ġà§ ª
Ġà§ Ń
Ġà¦Ĺà¦® à¦Ĺà¦®
Ġà¦Ī à¦Ĺà¦°à¦ķ
à¦°à¦« à¦¤
Ġà¦Ŀà¦° à¦Ŀà¦°
Ġà§§à§ ¦
Ġà¦¶à¦¹ à¦°à¦¤à¦²
Ġà¦¬à¦²à¦²à¦ı à¦ĸ
Ġà¦Ĭà¦¨ à¦¸à¦¤
Ġà¦ıà¦ķà¦Ŀ à¦²à¦ķ
à§ ©
à§ ª
à¦° à¦®à¦¨
à¦° à¦ľà¦¨à¦ķ
à¦¨ à¦¥
à¦¨ à¦ªà¦°
à¦¨ à¦¸à¦¬
à¦² à¦§
à¦² à§Ł
à¦² à§İ
à¦¯ à§Ł
à¦¤ à¦Ĩ
à¦¤ à¦ļà¦²
Ġà¦ķ à¦ªà¦Ł
Ġà¦ķ à¦ĩà¦¬
à¦® à¦¥
à¦® à¦¹à¦²
à¦® à¦Ĩà¦®
à¦¬ à¦ķà¦¨
à¦¬ à¦ļà¦ķ
à¦Ł à¦ķà¦°
Ġà¦Ĩ à¦ī
Ġà¦Ĩ à¦ŀ
Ġà¦Ĩ à¦ĩà¦°
à¦¸ à¦ı
Ġà¦¸ à¦ļà¦²
à¦Ľ à¦¸
à¦ĩ à¦Ŀ
à¦ĩ à¦ı
Ġà¦¨ à¦°à¦¹à¦°
Ġà¦¦ à¦®à¦¦
Ġà¦ı à¦®à¦¬
Ġà¦® à¦°à¦Ł
à¦¦ à¦¡
à¦¦ à¦Ń
à¦ª à¦¬à¦¯
à¦ĸ à¦¶
à¦¡ à¦ĩ
à¦¡ à¦ĵ
à¦ľ à¦ªà¦¤
à¦ľ à¦Ĺà¦¤
Ġà¦ķà¦° à¦£
à¦Ĺ à¦®à¦¨
à¦Ĺ à¦¨à¦²
Ġà¦Ĺ à¦®à¦¨
à¦ļ à¦ł
à¦ļ à§ľ
Ġà¦ıà¦ķ à¦ķà¦¥
Ġà¦° à¦¦
Ġà¦° à¦Ĺ
à¦§ à¦ĩ
à¦§ à¦ªà¦¤
à¦§ à¦Ĺà¦®
à¦· à¦¬à¦¦
Ġà¦¶ à¦°à¦£
Ġà¦¶ à¦¤à¦ķ
Ġà¦¶ à¦°à¦¬à¦¤
Ġà¦¶ à§Łà¦¤
à¦¹ à¦ĸ
à¦¹ à¦®à¦¨
à¦¹ à¦Ĺà¦¨
Ġà¦ĸ à¦Ĺ
Ġà¦ĵ à¦ĺà¦°
Ġà¦Ľ à¦Ĺà¦¨à¦²
à¦£ à¦Ĺ
Ġà¦² à¦ĺ
Ġà¦² à§ľà¦Ľ
Ġà¦ī à¦¤à¦°
à¦ł à¦¶
Ġà¦¬à¦²à¦² à¦ļ
Ġà¦¬à¦²à¦² à¦ĵ
Ġà¦¬à¦²à¦² à¦¸à¦¬
Ġà¦ĺ à¦°à¦ķ
Ġà¦ħà¦¨ à¦°
Ġà¦ħà¦¨ à¦¶à¦¨
Ġà¦§ à¦ķ
Ġà¦Ĩà¦¸ à¦®
à¦« à¦¥
Ġà¦¹à¦² à¦Ł
à¦Ŀ à¦¬à¦¯
Ġà¦ļà¦² à¦ķ
Ġà¦ĩ à¦²à¦¸
Ġà¦¸à¦¬ à¦ķà¦Ł
à§İ à¦²
Ġà¦ĵà¦° à¦«
Ġà¦Ŀ à¦°à¦¨
Ġà¦Ŀ à¦Ĺà§ľ
à¦ķà¦Ł à¦°
Ġà¦§à¦° à¦£
à¦¬à¦° à¦ĵ
Ġà¦ĺà¦° à¦ĸ
Ġà¦ĺà¦° à¦®à¦¯
Ġà¦Ĩà¦² à¦ķ
Ġà¦Ĩà¦² à¦ĸ
à¦ķà¦² à¦®
à¦Ĺà¦² à¦¨
à¦²à¦ķ à¦ª
Ġà¦ıà¦¤ à¦ĸ
à¦¬à¦² à¦¬
Ġà¦ľà¦² à¦ľ
Ġà¦ľà¦² à¦¢
Ġà¦ķà¦¤ à¦°à¦ķà¦®
à¦Ĩ à¦ª
à¦Ĩ à¦ªà¦¦
Ġà¦Ĩà¦¨ à¦ľ
à¦ĩà¦° à¦¨
à¦°à¦¥à¦® à¦ª
Ġà¦ıà¦ķà¦ľà¦¨ à¦ĩ
à¦°à¦¦ à¦ķ
Ġà¦Ľà¦¬ à¦Ľà¦°
Ġà¦ħà¦¤ à¦¦
Ġà¦ħà¦¤ à¦Ĺ
à¦¬à¦¤ à¦¨
à¦¬à¦¤ à¦®
Ġà¦ķà¦² à¦°à¦¬
Ġà¦¬à¦° à¦¯
Ġà¦ħà¦ª à¦ļà¦¯
Ġà¦ķà¦¬ à¦Ľà¦°
à¦¬à¦ª à¦²
à§İà¦¸ à¦°
Ġà¦īà¦¦ à¦Ĺ
à¦°à¦ļ à¦²
Ġà¦ıà¦¨ à¦ľ
Ġà¦°à¦Ļ à¦Ł
à¦ªà¦Ł à¦ª
Ġà¦ªà¦¦ à¦¤
Ġà¦¬à¦ĩ à¦ĸ
Ġà¦¬à¦ĩ à¦ªà¦¤
à¦¤à¦® à¦£
à¦ħ à¦¬
à¦ħ à¦Ļ
Ġà¦Ĩà¦§ à¦ª
Ġà¦Ĩà¦§ à¦¶
Ġà¦ıà¦°à¦ķà¦® à¦ĩ
à¦Łà¦¬ à¦ī
Ġà§ «
Ġà§ ¬
à¦¬à¦Ł à¦¦
à¦ıà¦ĩ à¦ļ
à¦ĩà¦ª à¦ĩ
Ġà¦· à¦£
Ġà¦īà§İ à¦«
Ġà¦īà§İ à¦ªà¦¤
à¦²à¦ļ à¦²à¦¨
Ġà¦¬à¦²à¦²à¦ı à¦ĸà¦¨
Ġà¦Ŀà¦ķ à¦®à¦ķ
Ġà¦®à¦¤à¦²à¦¬ à¦Ł
Ġà¦Ķ à¦ľ
Ġà¦¶à¦°à§İ à¦ļà¦¨
Ġà¦¤à§İà¦ªà¦° à¦¤
Ġà§¨à§¦ à§¦à§
Ġà¦¦à¦®à¦¦ à¦®
à§ §
à¦¨ à¦ķà¦°
à¦¨ à¦ıà¦ķ
à¦² à¦ı
à¦² à¦Ĺà¦²
à¦² à¦ıà¦ĩ
à¦² à¦¶à¦¯
à¦ķ à¦®à¦²
à¦ķ à¦ļà¦°
à¦ķ à¦ħà¦¨
à¦¯ à¦§
à¦¯ à¦®à¦¨
à¦¯ à¦ľà¦¨à¦ķ
à¦¤ à¦«
à¦¤ à¦¬à¦°
à¦® à¦ŀ
à¦® à¦ĺ
à¦® à¦°à¦¸
à¦¬ à¦ªà¦¤
à¦¬ à¦Łà¦Ł
à¦¬ à¦īà¦®
Ġà¦¬ à¦ķà¦¶
à¦¸ à¦ĺ
Ġà¦¸ à¦®à¦¨
Ġà¦ª à¦¤à¦¨
Ġà¦ª à¦ĩà¦ªà¦ĩ
à¦Ľ à¦ĩ
à¦Ľ à¦¦
à¦ĩ à¦ķà¦Ł
Ġà¦¨ à¦¶
Ġà¦¨ à¦¬à¦¬
Ġà¦¦ à§ľ
Ġà¦ı à§Ł
Ġà¦ı à§ľ
Ġà¦ı à¦°à¦²
Ġà¦® à¦Ł
à¦¦ à¦°à¦¬
à¦¦ à¦°à¦²
à¦¦ à¦®à¦¤
à¦¦ à¦®à¦¯
à¦ª à¦§
à¦ª à¦ªà¦°
à¦ª à¦ī
à¦ª à¦ĺ
à¦ª à¦¢
à¦ĸ à¦ª
à¦ĸ à¦Ń
à¦¡ à¦²à¦ķ
à¦Ĺ à¦®à¦ª
à¦¶ à¦ľ
à¦¶ à§Ł
à¦¶ à¦®à¦¨
à¦¶ à¦¨à¦ĵ
Ġà¦ļ à¦·
Ġà¦ļ à¦ķà¦²
Ġà¦Ĺ à¦Ľ
Ġà¦ľ à¦®à¦²
Ġà¦ľ à¦®à¦¤
Ġà¦ľ à¦®à¦ķ
à¦ĵ à¦Ń
Ġà¦ħ à¦ķà¦²
Ġà¦ħ à¦ķà¦°
Ġà¦ıà¦ķ à¦®à¦¨
Ġà¦ıà¦ķ à¦®à¦¤
Ġà¦° à¦«
à¦¥ à¦ĩ
à¦¥ à¦ĵ
à¦§ à¦Ĺ
Ġà¦Ń à¦¬à¦¤
à¦¹ à¦ĵ
à¦¹ à¦ĵà¦¯
à¦¹ à¦ľà¦¨à¦ķ
Ġà¦ĸ à¦¨à¦¨
Ġà¦ĵ à¦®à¦¨
à¦£ à¦Ńà¦°
Ġà¦² à¦¯
Ġà¦ī à¦¶
Ġà¦ī à¦¥
Ġà¦ī à¦Łà¦ķ
Ġà¦ī à¦¸à¦ķ
Ġà¦ī à¦¶à¦ķ
à¦Ļ à¦ķ
à¦ł à¦°
à¦ł à¦ĸ
Ġà¦¬à¦²à¦² à¦¬à¦²
Ġà¦Ł à¦²à¦Ľ
Ġà¦Ł à¦²à¦®à¦²
à¦®à¦¨ à¦°
Ġà¦§ à¦²à¦¡
à¦ī à¦ª
à¦ī à¦¨à¦¸
Ġà¦¡ à¦¨
Ġà¦ļà¦² à¦®
Ġà¦ĩ à¦īà¦ķ
Ġà¦ĩ à¦¸à¦®
Ġà¦ĩ à¦«à¦°
Ġà¦Ĩà¦ªà¦¨ à¦ľà¦¨
à¦°à¦ķ à¦¬
Ġà¦ľà¦¨ à¦¬
Ġà¦ĵà¦° à¦ĵ
à§ľ à¦¦
à¦¤à¦° à¦¯
à¦¤à¦° à¦ŀ
Ġà¦¬à¦¨ à¦¶
Ġà¦¬à¦¨ à¦Ń
à¦°à¦£ à¦ĵ
Ġà¦Ĩà¦Ĺ à¦¤
à¦¬à¦¨ à¦ĩ
à¦¬à¦¨ à¦Ńà¦°
Ġà¦Ĩà¦² à¦¬à§İ
à¦ı à¦°à¦ķà¦®
à¦ĺ à¦®
à¦ĺ à¦ľ
Ġà¦ľà¦² à¦Ł
Ġà¦ľà¦² à¦Ńà¦°
à¦¦à¦° à¦ľ
à¦Ĩ à¦Ĺ
à¦Ĩ à¦¨à¦Ĺ
à¦ķà¦¤ à¦ķ
Ġà¦¸à¦° à¦·
à¦°à¦ľ à¦²
à¦Ľà¦¨ à¦¦
à¦ªà¦¤ à¦¨
à¦°à¦¥à¦® à¦¦
à¦²à¦¬ à¦ķ
Ġà¦®à¦¹ à¦¬
Ġà¦īà¦ªà¦° à¦¨
Ġà¦īà¦ªà¦° à¦ĩ
Ġà¦ħà¦¤ à¦¶à¦¤
Ġà¦Ĩà¦ķ à¦¬à¦°
Ġà¦¬à¦° à¦ŀ
à¦¨à¦¬ à¦¹
à¦ªà¦¦ à¦Ĩà¦ªà¦¦
Ġà¦Ĳ à¦°à¦ķà¦®
à¦ªà¦Ł à¦²
à¦¨à¦¸ à¦ĩ
Ġà¦ľà¦® à¦Ľ
à¦¸à¦ķ à¦®
à¦ħ à¦«
à¦ħ à¦¥à¦ļ
Ġà¦¹à¦° à¦°
Ġà¦ķà¦· à¦¤
à¦®à¦¸ à¦®à¦°
Ġà¦ħà¦§ à¦°
Ġà¦ħà¦² à¦°
à¦¢ à¦²
Ġà¦ħà¦ľ à§Ł
Ġà¦¬à¦ķ à¦Ľ
Ġà¦Ĩà¦ĩ à¦ļ
à¦Łà¦¬ à¦¡
Ġà¦ķà¦¦ à¦®à¦¬
Ġà¦¨à§Ł à¦¤
Ġà¦ĸà¦°à¦ļ à¦Ł
à¦¬à¦¶ à¦®
Ġà¦· à¦¡
Ġà¦· à¦·
Ġà¦ļà¦Ł à¦ľà¦²à¦¦
à¦ķà¦¶à¦¨ à¦Ł
Ġà¦ĩà¦ī à¦ľ
Ġà¦°à¦ľà¦¤ à¦¦
Ġà¦ĩà¦® à¦ªà¦°
à¦ľà¦¸ à¦Ń
Ġà¦¦à¦® à¦¬à¦¨
Ġà§§à§ ª
Ġà¦Ńà§Ł à¦Ļ
Ġà¦Ĩà¦ĩà¦¨ à¦ķ
à¦ĸà¦¬à¦° à¦Ł
Ġà¦Ĩà¦« à¦Ĺ
Ġà¦ĭ à¦¤
Ġà¦ªà¦Ł à¦Ń
Ġà¦Ķ à¦°
Ġà§§à§¯à§ Ń
Ġà§§à§¯à§ §à§
à¦Ī à¦¦
Ġà¦ĩà¦¨à¦« à¦°à¦®
à¦¶à¦ĵ à¦ª
Ġà¦īà¦ĩ à¦¥
à¦¨à§Ł à¦¬
Ġà¦¨à¦ĵ à¦ľ
Ġà¦ĩà¦īà¦ıà¦« à¦ĵ
Ġà¦®à¦°à¦Ł à¦¨
à¦ªà¦ī à¦ªà¦¨
à¦ Ĭ
à¦° à¦ı
à¦° à¦ıà¦°
à¦° à¦Ĩà¦®
à¦¨ à¦ł
à¦¨ à¦¬à¦¤
à¦¨ à¦ªà¦ķ
à¦¨ à¦ıà¦ķà¦Ł
à¦¨ à¦Ńà¦°
à¦¨ à¦Ĩà¦®à¦°
à¦¨ à¦Ĩà¦¸
à¦² à¦®à¦°
à¦² à¦Ĩà¦®
à¦² à¦¸à¦ķ
à¦² à¦Ĩà¦ªà¦¨
à¦ķ à¦ªà¦°
à¦ķ à¦¬à¦°
à¦ķ à¦¸à¦¨
à¦¯ à¦ŀ
à¦¯ à¦ķà¦²
à¦¯ à¦®à¦¤
à¦¯ à¦Łà¦ķ
à¦¤ à¦£
à¦¤ à¦Ŀ
à¦¤ à¦²à¦¤
Ġà¦ķ à¦¹
Ġà¦ķ à¦¸à¦®
à¦® à¦ľà¦¨
à¦® à¦°à¦¤
à¦¬ à¦ªà¦°
à¦¬ à¦¬à¦°
à¦¬ à¦ļà¦°
Ġà¦¬ à¦ļ
Ġà¦¬ à¦¹à¦°
à¦Ł à¦ľ
à¦Ł à¦ļ
à¦Ł à¦ł
à¦Ł à¦®à¦¨
à¦Ł à¦Ĩ
à¦Ł à¦ıà¦°
Ġà¦Ĩ à¦ĩà¦Ł
Ġà¦Ĩ à¦ĵà¦¤
à¦¸ à¦¬à¦¨
à¦¸ à¦®à¦¤
Ġà¦¸ à¦Ĺà¦°
Ġà¦ª à¦¸
Ġà¦ª à¦ľ
Ġà¦ª à¦ļà¦¨
à¦ĩ à¦§
à¦ĩ à¦¶à¦Ł
Ġà¦¨ à¦Ĺà¦¦
Ġà¦¤ à¦ĸ
Ġà¦¤ à¦Ľà¦¨
Ġà¦¤ à¦¸à¦¬
Ġà¦¤ à§İà¦¸
Ġà¦® à¦®
Ġà¦® à¦ĸ
Ġà¦® à§İ
Ġà¦® à§Łà¦¨
à¦¦ à¦ľ
Ġà¦¹ à¦°à¦¬
Ġà¦¹ à¦®à¦ķ
Ġà¦¹ à¦ķà¦¸
à¦ª à¦ĸ
à¦ĸ à¦¯
à¦¡ à¦¸à¦¨
à¦ľ à¦¹
à¦ľ à¦ªà¦¥
Ġà¦ķà¦° à¦®à¦°
à¦Ĺ à¦¯
à¦¶ à¦ļ
à¦¶ à¦¹à¦°
à¦¶ à¦§à¦°
à¦ļ à¦ľà¦¨à¦ķ
Ġà¦Ĩà¦® à¦¬
Ġà¦Ĩà¦® à¦¦
à¦ĵ à§ľ
Ġà¦ħ à¦¯à¦¤
Ġà¦ıà¦ķ à¦Ń
Ġà¦ıà¦ķ à¦°à¦¤
Ġà¦ıà¦ķ à¦Ĩ
Ġà¦° à¦¸à¦¬
à¦¥ à¦¡
à¦¥ à¦Ń
à¦¥ à¦ķà¦¤
à¦§ à¦ķà¦°
à¦· à¦Ń
à¦· à¦¤à¦¬
Ġà¦¶ à¦°à¦¤
Ġà¦¶ à¦°à¦¬
Ġà¦Ń à¦²à¦ķ
à¦¹ à¦¦
à¦¹ à¦ļà¦°
Ġà¦ĵ à¦ĵ
Ġà¦Ľ à¦ľà¦¨
Ġà¦Ľ à¦ĩà¦¯
à¦£ à¦¸
Ġà¦² à¦¹à¦®
Ġà¦« à¦²à¦¬
Ġà¦« à¦ľà¦°
Ġà¦ī à¦ĩà¦®
Ġà¦ī à¦¥à¦²
à§Ł à¦Ł
à¦Ń à¦®
à¦Ń à¦°à¦¶
Ġà¦¬à¦²à¦² à¦¡
Ġà¦ĺ à¦¸
Ġà¦Ł à¦¬
Ġà¦Ł à¦Ĺà¦¬
Ġà¦ªà¦° à¦ĸ
Ġà¦ªà¦° à¦ļ
à¦ªà¦° à¦¬
Ġà¦§ à¦¬à¦²
à¦ī à¦¬à¦¨
à¦ī à¦ĩà¦¯
à¦ī à¦¬à¦Ł
à¦« à¦¤
Ġà¦®à¦¨ à¦®à¦°
à¦Ŀ à¦ªà¦¥
à¦ŀ à¦¦
Ġà¦ĩ à¦°
Ġà¦ĩ à¦ķà¦¨
Ġà¦ĩ à¦¸à¦ª
Ġà¦¸à¦¬ à¦²
Ġà¦¸à¦¬ à¦¸
Ġà¦¸à¦¬ à¦ĸ
à¦°à¦ķ à¦¦
à¦°à¦ķ à¦£
à§İ à¦Ľà¦²
à¦°à¦¤ à¦ķ
Ġà¦Ŀ à¦®
Ġà¦ıà¦² à¦®
à¦¤à¦° à¦ĩ
à¦¤à¦° à¦ª
à¦¬à¦° à¦Ĺ
à¦¬à¦° à¦ļ
Ġà¦ĺà¦° à¦Ľ
à¦°à¦£ à¦¯
à¦¬à¦¨ à¦°
à¦¬à¦¨ à¦¬
à¦¨à¦ĵ à¦Ń
Ġà¦ħà¦¬ à¦¤
Ġà¦ħà¦¬ à¦ļ
Ġà¦ħà¦¬ à¦¸à¦¨
Ġà¦ħà¦¬ à¦¤à¦°à¦£
à¦°à¦ªà¦° à¦ıà¦ķà¦Ł
Ġà¦Ĩà¦ľ à¦Ĺ
à¦ĺ à¦Ĺ
à¦ķà¦² à¦¨
à¦ķà¦² à¦¸
à¦·à¦£ à¦¶
à¦Ĺà¦² à¦®
à¦Ĺà¦² à¦ĩ
Ġà¦¤à¦¬ à¦²
à¦¬à¦² à¦¸
Ġà¦ľà¦² à¦°
Ġà¦ħà¦¸ à¦¤
Ġà¦ħà¦¸ à§İ
Ġà¦¬à¦Ľà¦° à¦ĩ
à¦Ĩ à¦¦
à¦Ĩ à¦ĩà¦ª
Ġà¦īà¦łà¦² à¦¤
à¦ĩà¦¨ à¦®
à¦ĩà¦¨ à¦¹
Ġà¦ıà¦ķà¦ľà¦¨ à¦ĵ
à¦¯à¦¬ à¦ļ
Ġà¦ħà¦¤ à¦ķ
Ġà¦ķà¦® à¦Ľ
Ġà¦īà¦ª à¦ļ
à¦¬à¦¤ à¦¶
Ġà¦Ĩà¦ķ à¦¸
Ġà¦ķà¦² à¦®à¦Ł
Ġà¦ħà¦ª à¦¸
Ġà¦ħà¦ª à¦¹à¦°à¦£
à¦¨à¦¬ à¦ľ
à¦ªà¦¦ à¦¦
à¦¦à¦¨ à¦¦
à§İà¦¸ à¦ķ
Ġà¦Ĳ à¦ĸ
Ġà¦Ĳ à¦¶
à¦°à¦¹ à¦¸
Ġà¦¸à¦¹ à¦ļà¦°
à¦¸à¦° à¦ĺà¦°
à¦°à¦ª à¦ķ
à¦¤à¦ķ à¦£
Ġà¦ªà¦¦ à¦§
à¦¨à¦¦ à¦¶
Ġà¦Ĺà¦¨ à¦Ĺà¦¨
à¦ªà¦ķ à¦®
Ġà¦ĺà¦¨ à¦¶
Ġà¦ħà¦§ à¦¸
Ġà¦ħà¦² à¦Ĺ
à¦ķà¦¶ à¦ª
à¦ľà¦¬ à¦ī
Ġà¦°à¦¸ à¦¦
Ġà¦Ĩà¦ĩ à¦ı
Ġà¦ħà¦¶ à¦°
Ġà¦§à¦¨ à¦°à¦¤
Ġà¦ªà¦¤ à¦Ļ
Ġà¦¬à¦Ł à¦¤à¦²
Ġà¦ªà¦¨ à¦°
Ġà¦¸à¦¹à¦ľ à¦Ń
à¦¬à¦¶ à¦°
à¦¬à¦¶ à¦Ļ
Ġà¦ªà¦¶ à¦®
à¦°à¦®à¦¶ à¦ĩ
Ġà¦¶à¦¤ à¦ķà¦°
à¦ĩà¦ľ à¦¡
Ġà¦ıà¦Ń à¦°
Ġà¦¹à¦ĩ à¦ļ
Ġà¦Ĩà¦Ł à¦ª
Ġà¦Ĩà¦Ł à¦ļà¦²
Ġà¦īà§İ à¦°
Ġà¦īà§İ à¦ķà¦°
Ġà¦ıà¦ķà¦¶ à¦¤
Ġà¦ħà¦Ĺ à¦£
Ġà¦¸à¦Ń à¦¯
Ġà¦īà¦ªà¦ķ à¦°à¦£
Ġà¦¬à¦ĩà¦Ł à¦ĩ
Ġà¦°à¦£ à¦§
Ġà§§à§ ©
Ġà§§à§ ®à§
Ġà¦Ĺà¦ľ à¦Ĺà¦ľ
Ġà¦īà§İà¦¸ à¦°
Ġà¦ĸà¦¸ à¦¡
Ġà¦¯à¦® à¦ľ
à¦²à¦ĵ à¦Ń
à¦£à¦¨ à¦Ĺà¦°
Ġà¦Ĩà¦ĩà¦¨ à¦ľ
à¦īà¦¬ à¦ĵà¦¯
¯à§ «
Ġà¦Ķ à¦¦
à¦Ī à¦Ĺà¦°
Ġà§¨ à§¦à§
à¦ĩà¦ľà¦¨ à¦ĩ
Ġà¦¢à¦² à¦¢à¦²
Ġà¦ķà¦¸ à¦®à¦¸
Ġà¦ıà¦« à¦Ĩà¦°
Ġà¦ĸà¦ļ à¦ĸà¦ļ
à¦ħà¦¤ à¦ıà¦¬
Ġà¦ķà¦¨à¦ķ à¦¨
Ġà¦ľà¦¬à¦° à¦¦à¦¸
Ġà¦¸à¦®à¦Ŀ à¦¦
à¦²à§İ à¦ľ
à¦¬à¦ķà¦¨ à¦¶
Ġà¦Ĩà¦ī à¦¶
Ġà¦¤à¦Ľà¦¨ à¦Ľ
Ġà¦ĩà¦ķà¦¨ à¦®
Ġà§¨à§¦à§ §à§
® à§¦
à¦ ĭ
Ġà¦ ¾
à§ ¬
à¦¾ à§į
à¦° à¦Ĩ
à¦° à¦ħ
à¦¨ à¦·
à¦¨ à¦ľà¦°
à¦² à¦£
à¦² à¦ķà¦°
à¦² à¦ĺà¦°
à¦² à¦ıà¦°
à¦² à¦§à¦¨
à¦ķ à¦§
à¦ķ à¦¹
à¦ķ à¦°à¦ķà¦®
à¦ķ à¦¸à¦¬
à¦ķ à¦ļà¦ķ
à¦¯ à¦ļ
à¦¯ à¦°à¦ķ
à¦¤ à¦¯
à¦¤ à¦ĺ
à¦¤ à¦ķà¦¤
à§ģ à§Ĥ
Ġà¦ķ à¦ĵà¦¯
Ġà¦ķ à¦¬à¦²
Ġà¦ķ à¦®à¦¤
Ġà¦ķ à¦ĩà¦Ľ
à¦® à¦¹à¦°
à¦® à¦ĺà¦°
à¦® à¦Ĩà¦ªà¦¨
à¦¬ à¦¥
à¦¬ à¦ķà¦ķ
Ġà¦¬ à¦Ľ
Ġà¦¬ à¦°à¦ķ
à¦Ł à¦°à¦ķ
à¦Ł à¦Ĺà¦²
à¦Ł à¦°à¦¸
à¦Ł à¦¸à¦¤
Ġà¦Ĩ à¦ľà¦¨
à¦¸ à¦ĺà¦°
Ġà¦¸ à¦ªà¦°
Ġà¦¸ à¦°à¦¤
Ġà¦¸ à¦ļà¦ķ
Ġà¦¸ à¦ľà¦²
Ġà¦¸ à¦¸à¦®
Ġà¦¸ à¦°à¦¬à¦¤
à¦Ľ à¦¨à¦Ł
à¦ĩ à¦Ļ
à¦ĩ à¦ī
à¦ĩ à¦ŀ
à¦ĩ à¦®à¦¤
à¦ĩ à¦¸à¦¨
à¦ĩ à¦Ĩà¦®
Ġà¦¨ à§ľ
Ġà¦¨ à¦°à¦¨
Ġà¦¨ à¦Łà¦°
Ġà¦¨ à¦°à¦ª
Ġà¦ı à¦Ĺà¦²
Ġà¦ı à¦¨à¦ķ
Ġà¦ı à¦®à¦¡
Ġà¦¤ à¦°à¦¤
Ġà¦¤ à¦Łà¦¸
Ġà¦® à¦°à¦®
Ġà¦® à¦°à¦¶
Ġà¦® à¦¸à¦²
Ġà¦® à¦Łà¦°
Ġà¦® à¦²à¦®
à¦¦ à¦Ļ
à¦¦ à¦°à¦ķ
à¦¦ à¦¨à¦¬
à¦ª à¦ªà¦¤
à¦¡ à¦¦
à¦¡ à¦ıà¦°
à¦ľ à¦¬à¦¨
à¦ľ à¦īà¦¦
à¦Ĺ à¦°à¦¬
à¦Ĺ à¦°à¦ĵ
à¦Ĺ à¦Ńà¦Ļ
à¦Ĺ à¦łà¦¨
à¦¶ à¦¹
Ġà¦¯ à¦¬
Ġà¦ļ à¦ļ
Ġà¦ļ à¦ªà¦²
Ġà¦Ĺ à¦«
Ġà¦Ĺ à¦ľà¦°
à¦ļ à¦ķà¦°
Ġà¦Ĩà¦® à¦¹
Ġà¦ľ à¦¹
à¦ĵ à¦¬
à¦ĵ à¦°à¦ķ
à¦ĵ à¦²à¦ľ
Ġà¦¬à¦² à¦ĸ
Ġà¦ħ à¦ĸà¦£
Ġà¦ıà¦ķ à¦Ľ
Ġà¦ıà¦ķ à¦¤à¦°
Ġà¦ıà¦ķ à¦ĺà¦°
Ġà¦ıà¦ķ à¦Ĩà¦§
Ġà¦° à¦Łà¦²
à¦¥ à¦Ļ
à¦¥ à¦°à¦¬
à¦¥ à¦Ĺà¦ŀ
à¦§ à¦ĵà¦¯
à¦§ à¦¬à¦°
à¦· à¦²
à¦· à¦Ľ
à¦· à¦°à¦£
à¦· à¦ķà¦°
à¦· à¦°à¦Ĺ
Ġà¦Ń à¦¨
Ġà¦Ń à¦°à¦²
à¦¹ à§İ
Ġà¦ĸ à¦¤
Ġà¦ĵ à¦Ľ
Ġà¦ĵ à¦®à¦²
Ġà¦Ľ à¦¸
Ġà¦Ľ à¦ĩà¦ĵà¦¯
à¦£ à¦¯
Ġà¦² à¦ķà¦²à¦ķ
Ġà¦ī à¦®à¦¦
à§Ł à¦°à¦¤
à¦Ļ à¦¨
à¦Ļ à¦Ĺ
à¦Ļ à¦ļ
à¦Ń à¦§
à¦ł à¦ª
à¦ł à¦Ń
à¦ł à¦¨à¦Ł
Ġà¦¬à¦²à¦² à¦²
Ġà¦¬à¦²à¦² à¦Ĺ
Ġà¦¬à¦²à¦² à¦¥
Ġà¦¬à¦²à¦² à¦¯à¦¦
Ġà¦ħà¦¨ à¦¸
Ġà¦ħà¦¨ à¦§
Ġà¦ıà¦ĩ à¦°
à¦®à¦¨ à¦¦
à¦®à¦¨ à¦Ń
Ġà¦Ĩà¦¸ à¦ķ
à¦ī à¦°à¦ķ
à¦ī à¦¸à¦ķ
à¦ī à¦ľà¦Ł
à¦« à¦¶
à¦ªà¦¨ à¦ķ
à¦ªà¦¨ à¦Ł
Ġà¦®à¦¨ à¦Ĺà¦¡
Ġà¦¸à¦® à¦Ĺ
à¦ľà¦¨ à¦¨
Ġà¦ĩ à¦·
Ġà¦ĩ à¦¹à¦²
Ġà¦¸à¦¬ à¦¥
à¦°à¦¤ à¦¤
Ġà¦ľà¦¨ à¦ªà¦¦
Ġà¦ķà¦°à¦² à¦ķ
à§ľ à¦Ł
Ġà¦Ŀ à¦ŀ
Ġà¦Ŀ à¦®à¦Ŀ
à¦°à¦¬ à¦ķ
à¦¤à¦° à¦®
à¦¤à¦° à¦Ĺ
à¦¤à¦° à¦ªà¦¶
à¦¬à¦° à¦¦
Ġà¦¬à¦¨ à¦«
Ġà¦Ĩà¦Ĺ à¦¸
Ġà¦ħà¦¬ à¦¦
à¦°à¦ªà¦° à¦¨
à¦ı à¦Ń
à¦ı à¦ĩà¦Ł
à¦ķà¦² à¦¹
à¦·à¦£ à¦Ł
à¦¨à¦¤ à¦¨
à¦Ĺà¦² à¦¦
à¦Ĺà¦² à¦ļà¦ķ
à¦²à¦ķ à¦Ĺ
Ġà¦¹à¦¤ à¦ļ
à¦¬à¦² à¦Ł
Ġà¦ľà¦² à¦§
Ġà¦ľà¦² à¦¤à¦°à¦Ļ
Ġà¦ħà¦¸ à¦¨
à¦ĩà¦² à¦ĸ
Ġà¦ķà¦¤ à¦ľà¦¨à¦ķ
à¦Ĩ à¦¹
à¦Ĩ à¦°à¦ĵ
à¦Ĩ à¦¸à¦¤
à¦Ĩ à¦ľà¦ķ
à¦Ĩ à¦ĩà¦¡
à¦¨à¦Ł à¦°
Ġà¦¸à¦° à¦ľ
Ġà¦īà¦łà¦² à¦°
Ġà¦īà¦łà¦² à¦ĵà¦¹
à¦°à¦ľ à¦Ĺà¦¤
Ġà¦ĵà¦ªà¦° à¦ĵ
Ġà¦ĵà¦ªà¦° à¦¤à¦²
Ġà¦Ĩà¦¨ à¦ķ
à¦®à¦¤ à¦¨
à¦ĩà¦¨ à¦°
à¦ĩà¦¨ à¦²
à¦°à¦¸ à¦ľ
Ġà¦®à¦¹ à¦®
à¦°à¦¦ à¦¤
Ġà¦ķà¦® à¦¸
Ġà¦īà¦ª à¦®
Ġà¦ķà¦² à¦¨
Ġà¦ķà¦² à¦ķà¦²
Ġà¦¬à¦ī à§Ł
Ġà¦¬à¦ī à¦Ń
Ġà¦ıà¦ķà¦¬ à¦Ľà¦°
Ġà¦ĩà¦¨ à¦ķà¦°
Ġà¦ĩà¦¨ à¦«à¦°
Ġà¦ªà¦¥ à¦ĩ
Ġà¦ªà¦¥ à¦ª
Ġà¦ĵà¦ķ à¦¥
à¦¨à¦¬ à¦Ľà¦°
à¦ªà¦¦ à¦¸
à¦ªà¦¦ à¦ĩ
à¦¨à¦ķ à¦¯
à¦¨à¦ķ à¦¶
à¦ĩà¦Ł à¦¸
Ġà¦¦à¦¶ à¦ķ
à§İà¦ķ à¦®
à¦¤à¦¬ à¦¡
à¦Ĺà¦ľ à¦ķà¦²à¦®
Ġà¦ķà¦²à¦ķ à¦¬
Ġà¦°à¦ķà¦® à¦«
à¦°à¦ª à¦²
Ġà¦¤à¦² à¦ª
à¦ļà¦¨ à¦Ńà¦Ļ
Ġà¦«à¦² à¦®
Ġà¦ªà¦¦ à¦¸
Ġà¦ªà¦¦ à¦ļ
Ġà¦ªà¦¦ à¦¶à¦¬
Ġà¦ľà¦® à¦¬
Ġà¦¬à¦ĩ à¦®
Ġà¦¬à¦ĩ à¦ĵ
Ġà¦¬à¦ĩ à§Ł
à¦¸à¦ķ à¦·
à¦ħ à¦ľ
Ġà¦Ĩà¦¦ à¦ª
à¦ķà¦ľà¦¨ à¦ĵ
Ġà¦Ĩà¦§ à¦¬
Ġà¦Ĩà¦§ à¦®à¦°
à¦·à¦¤ à¦ļ
Ġà¦ıà¦ķà¦ĩ à¦°à¦ķà¦®
à¦ľà¦® à¦¶
Ġà¦Ĩà¦¹ à¦¤à¦¦
Ġà¦¬à§ľ à¦®
Ġà¦¬à§ľ à¦¬
Ġà¦ķà¦¦ à¦®à¦Ľ
Ġà§ ·
Ġà¦¸à¦®à§Ł à¦ĵ
à¦«à¦Ł à¦ı
à¦¨à¦® à¦Ĺ
Ġà¦ıà¦Ń à¦²
à¦¬à¦Ń à¦Ļ
Ġà¦ħà¦²à¦ķ à¦ķ
à¦°à¦®à¦£ à¦¬
à¦ľà¦¸ à¦ľ
Ġà§§à§ «
à¦°à¦¹à¦£ à¦¯
à¦ķà¦Ĩ à¦ªà¦Ł
à§¦ à§¦
à¦Łà¦¸ à¦ıà¦°
à¦¤à¦¸ à¦ĩ
Ġà¦Ĭ à¦¨à¦¬
Ġà¦ķà¦¬à¦° à¦Ł
Ġà¦¬à¦²à¦²à¦ı à¦ĸà¦¨à¦ĵ
Ġà¦īà¦ĩà¦² à¦Ł
Ġà¦Ĺà¦¦ à¦Ĺà¦¦
Ġà¦¬à¦²à¦²à¦Ĩ à¦ļ
à¦Ĺà¦ª à§İ
Ġà¦¦à¦« à¦¤à¦°
Ġà¦°à¦® à¦°à¦®
Ġà¦¬à¦Ĺà¦² à¦¦
Ġà¦ªà¦¬à¦¨ à¦¦
à¦¤à¦ļ à¦°à¦¬
Ġà¦ıà¦ķà¦ıà¦ķ à¦¸à¦®à¦¯
Ġà¦ķà¦¨à¦ķ à¦¦
Ġà¦§à¦ª à¦§à¦ª
Ġà¦¸à¦°à¦¬ à§İ
Ġà¦Ĺà¦®à¦¨ à¦ª
Ġà¦¤à§İà¦¸ à§İ
Ġà¦®à¦ĸ à¦®à¦²
Ġà¦ıà¦ķà¦Ĩ à¦§à¦¬
Ġà¦Łà¦Ĺà¦¬ à¦Ĺ
Ġà¦Ĺà¦« à¦°à¦Ĺ
Ġà¦ıà¦ķà¦¤à¦° à¦«
Ġà¦Ŀà¦®à¦Ŀ à¦®
à§ ®à§
à¦° à¦ªà¦¨
à¦° à¦ļà¦°
à¦° à¦īà¦¨
à¦¨ à¦°à¦ķ
à¦¨ à¦¤à¦°
à¦¨ à¦ĩà¦²
à¦¨ à¦°à¦°
à¦¨ à¦ļà¦¡
à¦² à¦ł
à¦² à¦ªà¦°
à¦² à¦¸à¦¬
à¦² à¦¸à¦¨
à¦² à¦ļà¦¨
à¦² à¦®à¦£
à¦² à¦ªà¦ķ
à¦² à¦¢
à¦² à¦ıà¦ķà¦Ł
à¦² à¦ĵà¦°
à¦ķ à§Ł
à¦ķ à¦ĵà¦¯
à¦ķ à¦¨à¦ķ
à¦ķ à¦¸à¦²
à¦ķ à¦Ĺà¦¨
à¦ķ à¦ĸà¦¨à¦ĵ
à¦¯ à¦²
à¦¯ à¦ĸà¦¨
à¦¯ à¦¬à¦¨
à¦¤ à¦¨à¦ĵ
à¦¤ à¦¸à¦°
à¦¤ à¦¸à¦¨
à¦¤ à¦ľà¦¬
à¦¤ à¦¬à¦°à¦£
à§ģ à§į
Ġà¦ķ à¦ĸ
Ġà¦ķ à¦ŀ
Ġà¦ķ à¦ĵà§Ł
Ġà¦ķ à¦ĩà¦¸
à¦® à¦ı
à¦® à¦°à¦Ł
à¦® à¦®à¦¯
à¦® à¦Ĺà¦¨
à¦® à¦Ńà¦Ļ
à¦® à¦Ńà¦ķ
à¦¬ à¦Ļ
à¦¬ à¦®à¦¨
à¦¬ à§İà¦¸
à¦¬ à¦ļà¦¨
à¦¬ à¦§à¦°
Ġà¦¬ à¦ķà¦¤
Ġà¦¬ à¦°à¦ķà¦¨
à§ĭ à¦ĥ
à¦Ł à¦°à¦¬
à¦Ł à¦ĺ
à¦Ł à¦°à¦Ł
à¦Ł à¦²à¦Ł
à¦Ł à¦¬à¦ķ
à¦Ł à¦¸à¦®
Ġà¦Ĩ à¦ĵ
Ġà¦Ĩ à¦ĩà¦¬
Ġà¦Ĩ à¦ªà¦ķ
Ġà¦Ĩ à§Łà¦¨
Ġà¦¸ à¦¶
Ġà¦¸ à¦ĩà¦²
Ġà¦¸ à¦ªà¦¤
Ġà¦¸ à¦Łà¦ķ
Ġà¦¸ à¦ĩà¦¬
Ġà¦¸ à¦ĩà¦Ľ
Ġà¦¸ à¦ĵà¦¦
Ġà¦ª à¦·
à¦Ľ à¦Ľ
à¦Ľ à¦²à¦¤
à¦ĩ à¦®à¦¬
à¦ĩ à¦ĵà¦¨
Ġà¦¨ à¦ĵà¦°
Ġà¦¨ à¦Ĺà¦£
Ġà¦¦ à¦Ĺ
Ġà¦¦ à¦¹à¦¨
Ġà¦ı à¦¥
Ġà¦¤ à¦ĸà¦²
Ġà¦¤ à¦¤à¦¬
Ġà¦® à¦¬
Ġà¦® à¦ļ
Ġà¦® à¦«
Ġà¦® à§ľ
Ġà¦® à¦Ĺà¦°
à¦¦ à¦¯à¦¨
Ġà¦¹ à¦Łà¦°
Ġà¦¹ à¦ĵà¦¨
à¦ª à¦Ń
à¦ª à¦¸à¦¨
à¦ĸ à¦ľ
à¦¡ à¦ı
à¦ľ à§İ
à¦ľ à¦ĺà¦°
Ġà¦ķà¦° à¦®
à¦Ĺ à¦¨à¦ķ
à¦Ĺ à¦¸à¦¨
à¦¶ à¦ļà¦²
Ġà¦¯ à¦¬à¦¨
Ġà¦ļ à¦®à¦¤
à¦ļ à¦£
à¦ļ à¦¤à¦²
à¦ļ à¦ķà¦¨
Ġà¦Ĩà¦® à¦¸
Ġà¦ľ à¦ĸ
à¦ĵ à¦¸
à¦ĵ à¦ĺà¦°
à¦ĵ à¦Ĩà¦®
Ġà¦ħ à¦¹à¦°
Ġà¦ħ à¦¥à¦°
Ġà¦ħ à¦²à¦®
Ġà¦ħ à¦¢
Ġà¦ıà¦ķ à¦¯
Ġà¦ıà¦ķ à¦¶à¦¬
Ġà¦ıà¦ķ à¦ĺà¦£
Ġà¦ıà¦ķ à¦ıà¦ķà¦ľà¦¨
Ġà¦° à¦ļ
Ġà¦° à¦ĵà§Ł
Ġà¦° à¦ĩà¦Ľ
à¦¥ à¦¯
à¦¥ à¦Ĺ
à¦¥ à¦ķà¦°
à¦§ à¦¯
à¦§ à¦¡
à¦§ à¦ľ
à¦§ à¦ªà¦°
à¦§ à¦®à¦¯
à¦· à¦Ļ
à¦· à¦°à¦ķ
à¦· à¦¬à¦°
à¦· à¦ķà¦¦
Ġà¦¶ à¦ĸà¦Ł
Ġà¦¶ à¦¤à¦°à¦ŀ
Ġà¦Ń à¦°à¦¬
Ġà¦Ń à¦°à¦¦
Ġà¦Ń à¦²à¦Ĺ
à¦¹ à¦¨à¦¤
à¦¹ à¦²à¦ķ
Ġà¦ĸ à¦ķ
Ġà¦ĸ à¦²à¦Ł
Ġà¦ĸ à¦°à¦ĸà¦°
Ġà¦ĵ à¦«
Ġà¦ĵ à¦ľà¦°
Ġà¦Ľ à¦°
Ġà¦Ľ à§Ł
Ġà¦Ľ à¦²à¦¨
à¦£ à¦ĩ
à¦£ à¦ĵ
à¦£ à¦¹à¦°
à¦£ à¦ªà¦ķ
à¦£ à¦¶à¦ķ
à¦£ à¦£à¦ķ
Ġà¦² à¦ĵ
Ġà¦² à¦Ń
Ġà¦¥ à¦ª
Ġà¦¥ à¦ªà¦¥
Ġà¦« à¦·
Ġà¦« à¦°à¦Ĺ
Ġà¦ī à¦Ľ
Ġà¦ī à¦ĩà¦¦
Ġà¦ī à¦¶à¦ĸ
à§Ł à¦¬
à§Ł à¦ª
à¦Ļ à¦¡
à¦Ń à¦¤
à¦Ń à¦Ń
à¦Ń à¦¬à¦¨
à¦Ń à¦ķà¦°
à¦Ń à¦²à¦¬
à¦ł à¦ķà¦°
Ġà¦¬à¦²à¦² à¦Ľ
Ġà¦¬à¦²à¦² à¦ªà¦°
Ġà¦¬à¦²à¦² à¦ķà¦¬
Ġà¦¬à¦²à¦² à¦¸à¦¤
Ġà¦¬à¦²à¦² à¦ħà¦¨
Ġà¦Ĩà¦° à¦ıà¦ķà¦¬
Ġà¦ĺ à¦¨à¦¤
Ġà¦ªà¦° à¦Ľ
Ġà¦ħà¦¨ à¦¤
Ġà¦ħà¦¨ à¦Ń
Ġà¦ıà¦ĩ à¦¤
Ġà¦ıà¦ĩ à¦ĩ
Ġà¦ıà¦ĩ à¦Ĺ
à¦®à¦¨ à¦ķ
Ġà¦§ à¦²
à¦ī à¦¹
à¦ī à¦¬à¦²
à¦« à¦ĵà¦¯
Ġà¦¹à¦² à¦ĵ
Ġà¦¹à¦² à¦«
Ġà¦®à¦¨ à¦ª
Ġà¦¸à¦® à¦°à¦ķ
à¦ľà¦¨ à¦Ł
à¦ľà¦¨ à¦®à¦¤
à¦Ŀ à§ľ
Ġà¦ļà¦² à¦ļ
Ġà¦ĩ à¦¤à¦°
Ġà¦ĩ à¦¸à¦°
Ġà¦ĩ à¦®à¦ª
Ġà¦¸à¦¬ à¦¦
à¦°à¦ķ à¦ķ
à¦°à¦ķ à¦Ł
à¦°à¦ķ à¦ª
Ġà¦ł à¦ķà¦¬
Ġà¦ľà¦¨ à¦¹
Ġà¦ľà¦¨ à¦Ĺà¦£
Ġà¦ķà¦°à¦² à¦«
à§ľ à¦¨
Ġà¦Ŀ à¦ķà¦®
à¦°à¦¬ à¦¸
à¦°à¦¬ à¦ļà¦¨
à¦°à¦¬ à¦²à¦Ń
Ġà¦§à¦° à¦¨à¦Ł
à¦¤à¦° à¦¦
Ġà¦ĺà¦° à¦ĩ
Ġà¦¬à¦¨ à¦¸
Ġà¦¬à¦¨ à¦®à¦¯
Ġà¦¬à¦¨ à¦ľà¦Ļ
à¦°à¦£ à¦ĩ
à¦°à¦£ à¦Ń
à¦¬à¦¨ à¦²
à¦¨à¦ĵ à¦°
à¦¨à¦ĵ à¦ĩ
Ġà¦ħà¦¬ à¦Ĺà¦¤
Ġà¦Ĩà¦² à¦¬
Ġà¦Ĩà¦² à¦ªà¦¥
à¦°à¦ªà¦° à¦®
à¦ı à¦ı
à¦ı à¦ķà¦ĩ
à¦ĺ à¦®à¦²
à¦ĺ à¦°à¦¦
à¦ķà¦² à¦¬
à¦¨à¦¤ à¦®
à¦ķà¦° à¦°
à¦²à¦ķ à¦¬
à§ģà¦ģ à¦ĥ
Ġà¦ıà¦¤ à¦¬
Ġà¦ľà¦² à¦¹
Ġà¦ľà¦² à¦ªà¦Ł
Ġà¦ľà¦² à¦Ŀà§ľ
Ġà¦ħà¦¸ à¦¤à¦°
à¦¶à¦¨ à¦°
à¦¶à¦¨ à¦ĩ
à¦¶à¦¨ à¦¦
à¦¶à¦¨ à¦Ĺ
Ġà¦ķà¦¤ à¦ķà¦Ł
à¦Ĩ à¦Ľ
à¦Ĩ à¦¨à¦¨
à¦Ĩ à¦¸à¦²
à¦Ĩ à¦Łà¦Ł
à¦ķà¦¤ à¦²
Ġà¦īà¦łà¦² à¦¸
à¦°à¦ľ à¦¯
Ġà¦Ĩà¦¨ à¦Ĩà¦ĩà¦¡
à¦®à¦¤ à¦®
à¦ĩà¦¨ à¦¸
à¦ĩà¦¨ à¦Ĺ
Ġà¦¸à¦¤ à¦¤
Ġà¦ıà¦Ĺ à¦¨
Ġà¦ıà¦Ĺ à¦ļ
à¦²à¦¬ à¦¦à¦²
Ġà¦®à¦¹ à§İ
à¦°à¦¦ à¦®
à¦¸à¦¬ à¦ķ
Ġà¦ħà¦¤ à¦¨
Ġà¦ħà¦¤ à¦ĩ
Ġà¦ķà¦® à¦£
Ġà¦Ĩà¦ķ à¦¨
Ġà¦ķà¦² à¦°
Ġà¦ķà¦² à¦ª
Ġà¦¬à¦ī à¦¡
Ġà¦ĩà¦¨ à¦¬à¦ķ
Ġà¦ħà¦ª à¦ĺ
Ġà¦ħà¦ª à¦¦à¦¸
Ġà¦ªà¦¥ à¦ĺ
à¦ĩà¦ķ à¦®
à¦¤à¦¨ à¦ķ
à¦¤à¦² à¦§
à¦Łà¦ķ à¦¯
à¦Łà¦ķ à¦¥
à¦¦à¦¨ à¦§
Ġà¦ĸà¦¬à¦° à¦ĩ
à¦ĩà¦Ł à¦²
à¦Ńà¦¬ à¦ĩ
Ġà¦Ĳ à¦¸à¦¬
Ġà¦¦à¦¶ à¦ªà¦¨
à¦Ĺà¦¤ à¦Ń
Ġà¦ķà¦²à¦ķ à¦ľ
Ġà¦ķà¦ĸà¦¨à¦ĵ à¦ķà¦ĸà¦¨à¦ĵ
Ġà¦«à¦² à¦Ĺ
Ġà¦ħà¦¦ à¦®
Ġà¦ħà¦¦ à¦²à¦¬à¦¦à¦²
à¦¬à¦¸ à¦®
à¦ħ à¦¶
à¦ħ à¦ļ
à¦ħ à¦¸à¦®
à¦ħ à¦¬à¦¶
à¦°à¦¯ à¦¤
à¦Łà¦² à¦ĵ
à¦ļà¦ķ à¦£
à¦ļà¦ķ à¦ļà¦ķ
à¦¤à¦¤ à¦¤
à¦§à¦¨ à¦¹
à¦®à¦£ à¦ķ
à¦°à¦Ń à¦¬à¦¨
Ġà¦ķà¦¨ à¦ľ
Ġà¦ħà¦ľ à¦¯
Ġà¦Ĩà¦ĩ à¦«
à¦Łà¦¬ à¦ĩ
Ġà¦¬à§ľ à¦²
Ġà¦ļà¦¨ à¦®à¦¨
Ġà¦ķà¦¦ à¦®à¦Ĺ
Ġà¦ħà¦ķ à¦¥
Ġà¦ħà¦ķ à¦ªà¦Ł
à¦¬à¦¶ à¦°à¦£
Ġà¦ĩà¦¸ à¦ķà¦¨
Ġà¦Ī à¦¦
Ġà¦ªà¦¶ à¦²
à¦°à¦« à§İ
Ġà¦· à¦ĸà¦¨
à¦®à¦ª à¦¥
Ġà¦ļà¦Ł à¦ķà¦²
Ġà¦Ĩà¦Ł à¦¦à¦¶
Ġà¦¤à¦¤ à¦ĸ
à¦īà¦¸ à¦«
à¦ĩà¦¶ à¦¤
à¦ĩà¦« à¦°à¦®
Ġà¦®à¦¦à¦¨ à¦®
Ġà¦ĩà¦® à¦ªà¦¸
Ġà¦¸à¦¦ à¦¯
à¦Ĺà¦® à¦ŀ
Ġà¦¨à¦¬ à¦¬à¦°
Ġà¦īà¦ªà¦ķ à¦¥
à¦°à¦®à¦£ à¦¸
à§° à¦ļ
Ġà§§à§ ¬
à¦¬à¦¹ à¦£
Ġà¦ªà¦°à¦® à¦®
à¦¨à¦¶ à¦°
à¦²à¦ĵ à¦¹
Ġà¦¶à¦¨ à¦¶à¦¨
Ġà¦Ĩà¦« à¦¶
Ġà¦ıà¦ĩà¦°à¦ķà¦® à¦ĩ
à¦ªà¦Ĺ à¦ª
Ġà¦¬à¦²à¦²à¦ı à¦ķà¦¦
à¦£à¦¦ à¦£
ĠĠ Ġ
à¦¨à¦ı à¦¤
à¦¨à¦ı à¦Ł
à¦¨à¦ı à¦¸à¦¬
Ġà¦ĺà¦· à¦Ľ
Ġà¦°à¦¤à¦¨ à¦ªà¦²
Ġà¦¥à¦² à¦¥à¦²
Ġà¦Ķ à§İà¦¸
à¦Łà¦« à¦°à¦®
Ġà¦ļà§ľ à¦¤
Ġà¦ļà§ľ à¦¬
Ġà§§à§¯à§ ¯à§
à¦Ī à¦ķ
à¦¡à¦Ń à¦£
à¦¤à¦ĸ à¦°à¦ļ
Ġà¦¬à¦²à¦²à¦Ĩ à¦ľ
Ġà¦¬à¦²à¦²à¦Ĩ à¦Ĺ
à¦®à§Ł à¦¬
Ġà¦¨à¦ĸ à¦¦à¦¨
Ġà¦ķà¦¸ à¦°à¦¤
à¦¤à¦ĸà¦¨ à¦ĩ
à¦¤à¦ĸà¦¨ à¦ĵ
Ġà¦ĩà¦¹ à¦ľà¦Ĺà¦¤
à¦īà¦°à¦¤ à¦¨à¦¬
Ġà¦¶à¦°à§İ à¦¬
à¦®à¦Ń à¦ľà¦¨
Ġà¦Ĺà¦Ł à¦Ĺà¦Ł
à§§à§ ®
à¦¥à¦ªà¦° à¦¤
à¦¬à¦ªà¦¨ à¦ķ
Ġà¦Ĺà¦¤à¦¬ à¦Ľà¦°
Ġà¦ıà¦ķà¦¨ à¦ľà¦°
Ġà¦²à¦¬ à¦Ļ
Ġà¦²à¦¬à¦£ à¦ĩà¦²
à¦¤à¦Ĩ à¦Ł
Ġà§« à§¦à§Ń
Ġà¦ľà¦¨à¦¬ à¦¸à¦¤
Ġà¦ªà¦ļà¦¨ à¦Ĺà¦²à¦¨
à¦ĭ à¦·
Ġà¦¬à¦Ľ à¦°à¦ķà¦¯
Ġà¦ħà¦¹à¦° à¦¹
Ġà¦¥à¦ªà¦¥ à¦ª
¨ à§¨
ª à§«
¯ à§¦
à¦° à¦Ĺà¦²
à¦° à¦²à¦ķ
à¦° à¦¨à¦Ł
à¦° à¦ĩà¦¨
à¦° à¦Ĺà¦°
à¦° à¦¢
à¦° à¦ıà¦ĸà¦¨
à¦° à¦ħà¦°
à¦° à¦Ĩà¦¨
à¦¿ à§į
à¦¨ à¦ĩà¦¨
à¦¨ à¦ķà¦¬
à¦¨ à¦°à¦¶
à¦¨ à¦ļà¦°
à¦¨ à¦ľà¦Ł
à¦¨ à¦ľà¦®
à¦¨ à¦ħà¦®
à¦² à¦¦à¦°
à¦² à¦ľà¦²
à¦² à¦Ĩà¦°
à¦² à¦ıà¦¬
à¦² à¦Ĩà¦®à¦°
à¦² à¦ħà¦°
à¦ķ à¦¤à¦°
à¦ķ à¦¯à¦¨
à¦ķ à¦¸à¦Ł
à¦ķ à¦Ĩà¦®
à¦ķ à¦ıà¦ĩ
à¦ķ à¦ļà¦¡
à¦ķ à¦Ĩà¦ªà¦¨
à¦¯ à¦ĺ
à¦¼ à¦ĥ
à¦¤ à¦°à¦¤
à¦¤ à¦¦à¦°
à¦¤ à¦¬à¦¤
à¦¤ à¦®à¦¯
à¦¤ à¦ļà¦ķ
à¦¤ à¦¸à¦®
à¦¤ à¦§à¦°
à¦¤ à¦·à¦Ł
à¦¤ à¦Ńà¦°
à¦¤ à¦¯à¦¶
Ġà¦ķ à¦¶
Ġà¦ķ à¦ªà¦°
Ġà¦ķ à¦ªà¦¨
Ġà¦ķ à¦ĩà¦¯
Ġà¦ķ à¦Łà¦ķ
à¦® à¦ļà¦°
à¦® à¦ıà¦°
à¦® à¦ļà¦²
à¦® à¦®à¦Ĺ
à¦® à¦ıà¦ĸà¦¨
à¦® à¦ĺà¦Ł
à¦® à¦ħà¦®
à¦® à¦Īà¦Ĺà¦°
à¦¬ à¦¹à¦°
à¦¬ à¦¦à¦¨
à¦¬ à¦Łà¦°
à¦¬ à¦¹à¦¨
à¦¬ à¦ħ
à¦¬ à¦ĩà¦¤
à¦¬ à¦¶à¦ķ
à¦¬ à¦«à¦²
à¦¬ à¦Ĺà¦ŀ
Ġà¦¬ à¦ķà¦²
Ġà¦¬ à¦ķà¦°
Ġà¦¬ à¦¦à¦°
Ġà¦¬ à¦ļà¦¨
Ġà¦¬ à¦Łà¦¬
Ġà¦¬ à¦ļà¦¸
à¦Ł à¦Ļ
à¦Ł à¦ķà¦Ł
à¦Ł à¦ı
à¦Ł à¦ªà¦¤
à¦Ł à¦¸à¦¨
Ġà¦Ĩ à¦¹à¦²
Ġà¦Ĩ à§İà¦ķ
Ġà¦Ĩ à¦ĸà¦°
Ġà¦Ĩ à¦īà¦Łà¦°
Ġà¦Ĩ à¦ĵà¦°à¦¤
à¦¸ à¦¥
à¦¸ à¦ªà¦°
à¦¸ à¦®à¦¨
à¦¸ à¦ªà¦¨
à¦¸ à¦°à¦¤
à¦¸ à§ľ
à¦¸ à¦®à¦°
à¦¸ à¦¨à¦ķ
à¦¸ à¦Ĩà¦®
à¦¸ à¦¹à¦¸
à¦¸ à¦ıà¦ķà¦Ł
à¦¸ à¦ĸà¦¨à¦ĵ
Ġà¦¸ à¦Ĺ
Ġà¦¸ à¦ĵà§Ł
Ġà¦¸ à¦²à¦Ń
Ġà¦¸ à¦ĸà¦¨à¦ĵ
Ġà¦ª à¦²à¦¤
Ġà¦ª à¦ļà¦¤
à¦ĩ à¦·
à¦ĩ à¦¨à¦ĵ
à¦ĩ à¦¸à¦²
à¦ĩ à¦īà¦¨
à¦ĩ à¦®à¦¸
à¦ĩ à¦ľà¦Ł
à¦ĩ à¦ıà¦ĩ
à¦ĩ à¦Ĩà¦°
à¦ĩ à¦Ĩà¦®à¦°
Ġà¦¨ à¦ļ
Ġà¦¨ à¦°à¦ĸ
Ġà¦¨ à¦²à¦ľ
Ġà¦¨ à¦°à¦¬à¦²
Ġà¦¦ à¦¨
Ġà¦¦ à¦°à¦®
Ġà¦¦ à¦²à¦ķ
Ġà¦¦ à¦®à¦ļ
Ġà¦ı à¦ĵà¦¯
Ġà¦ı à¦¨à¦²
Ġà¦ı à¦ĵà¦°
Ġà¦ı à¦®à¦ª
Ġà¦¤ à¦°à¦¬
Ġà¦¤ à¦¸à¦°
Ġà¦¤ à¦¦à¦¬
Ġà¦® à¦ĩà¦¯
Ġà¦® à¦īà¦®
Ġà¦® à§Łà¦²
à¦¦ à¦§
à¦¦ à¦ķà¦°
à¦¦ à¦ķà¦¤
Ġà¦¹ à¦°à¦£
Ġà¦¹ à¦¸à¦ª
Ġà¦¹ à¦°à¦¦à¦®
à¦ª à¦ķà¦°
à¦ª à¦®à¦¯
à¦ª à¦Ĩà¦²
à¦ĸ à¦¹à¦°
à¦ĸ à¦®à¦£
à¦ĸ à¦Ńà¦Ļ
à¦¡ à¦¤
à¦¡ à¦ĵà¦¯
à¦¡ à¦°à¦Ł
à¦¡ à¦¨à¦ķ
à¦¡ à¦ħà¦²
à¦ľ à¦ĵà¦¯
à¦ľ à§ľ
à¦ľ à¦ı
à¦ľ à¦²à¦ķ
à¦ľ à¦¸à¦°
Ġà¦ķà¦° à¦ª
Ġà¦ķà¦° à¦°à¦¸
à¦Ĺ à¦¶
à¦Ĺ à¦°à¦£
à¦Ĺ à¦®à¦¤
à¦Ĺ à¦ªà¦¤
à¦Ĺ à¦°à¦¸
à¦Ĺ à¦®à¦ķ
à¦Ĺ à¦°à¦ª
à¦Ĺ à¦Ńà¦°
à¦Ĺ à¦¶à¦¯
à¦¶ à¦·
à¦¶ à¦°à¦ķ
à¦¶ à¦ı
à¦¶ à¦Ĺà¦²
à¦¶ à¦Ĩ
à¦¶ à¦¬à¦¤
à¦¶ à¦¤à¦²
à¦¶ à¦ªà¦¥
Ġà¦ļ à¦°à¦²
Ġà¦Ĺ à¦Ĺà¦²
Ġà¦Ĺ à¦°à¦ľ
Ġà¦Ĺ à¦°à¦¦
Ġà¦Ĺ à¦łà¦¨
Ġà¦Ĺ à¦ªà¦Ĺà¦ª
à¦ļ à¦¦
à¦ļ à¦ĵ
à¦ļ à¦«
à¦ļ à¦²à¦¤
à¦ļ à¦Łà¦ķ
à¦ļ à¦¢
à¦ļ à¦ĵà¦¡
à¦ļ à¦¦à¦¶
à¦ļ à¦°à¦£à¦¬
Ġà¦ľ à¦ľ
à¦ĵ à¦¥
à¦ĵ à¦·
à¦ĵ à¦°à¦Ł
à¦ĵ à¦¸à¦¬
Ġà¦¬à¦² à¦¶
Ġà¦ħ à¦ĩà¦¯
Ġà¦ħ à¦²à¦Ł
Ġà¦ıà¦ķ à¦ªà¦°
Ġà¦ıà¦ķ à¦ļà¦²
Ġà¦ıà¦ķ à¦ıà¦ķà¦¦
Ġà¦° à¦ľ
Ġà¦° à¦®à¦¨
à¦¥ à¦°à¦ķ
à¦¥ à¦¬à¦¹
à¦¼à¦¾ à¦ģ
à¦§ à¦°à¦¤
à¦§ à¦¨à¦ĵ
à¦§ à¦¸à¦¤
à¦§ à¦ļà¦¨
à¦§ à¦¸à¦®
à¦§ à¦Ńà¦ķ
à¦· à¦¶
à¦· à¦¤à¦²
à¦· à¦ľà¦²
à¦· à¦§à¦°
Ġà¦¶ à¦°à¦®
Ġà¦¶ à¦¤à¦¬
Ġà¦¶ à¦ªà¦¥
Ġà¦Ń à¦ľ
Ġà¦Ń à¦ľà¦¨
Ġà¦Ń à¦ĩà¦²
à¦¹ à¦¶
à¦¹ à¦Ń
à¦¹ à¦ªà¦°
à¦¹ à¦®à¦¯
à¦¹ à¦¨à¦²
à¦¹ à¦§à¦¨
Ġà¦ĸ à¦ĩ
Ġà¦ĸ à¦¸à¦²
Ġà¦ĸ à¦¸à¦Ľ
Ġà¦ĵ à¦¸à¦®
Ġà¦Ľ à¦ķà¦Ł
Ġà¦Ľ à¦ĩà¦ıà¦°
à¦£ à¦ĸ
à¦£ à¦¶
à¦£ à¦§
à¦£ à¦¬à¦¨
à¦£ à¦®à¦¯
à¦£ à¦ªà¦¦
Ġà¦¥ à¦ķà¦¥
Ġà¦ī à¦Ń
Ġà¦ī à¦«
Ġà¦ī à¦®à¦°
Ġà¦ī à¦ĩà¦ļ
à§Ł à¦¡
à§Ł à¦ļ
à§Ł à¦ĵ
à¦Ļ à¦Ł
à¦Ļ à¦°à¦¹
à¦Ļ à¦ĵà¦Ń
à¦Ń à¦¡
à¦Ń à¦Ĺà¦¬
à¦ł à¦®
à¦ł à¦«
à¦ł à¦®à¦¤
à¦ł à¦ķà¦¦
à¦ł à¦¤à¦®
Ġà¦¬à¦²à¦² à¦ķà¦¤
Ġà¦¬à¦²à¦² à¦ıà¦°
Ġà¦¬à¦²à¦² à¦Ĩà¦¸
Ġà¦¬à¦²à¦² à¦ħà¦¸
Ġà¦Ĩà¦° à¦ıà¦ķ
Ġà¦Ł à¦¸
Ġà¦Ł à¦«
Ġà¦Ł à¦Ĺà¦°
Ġà¦ªà¦° à¦Ĺ
Ġà¦ªà¦° à¦®à¦¹
à¦ªà¦° à¦¦
à¦®à¦¨ à¦ħ
Ġà¦§ à¦®à¦¨
Ġà¦§ à¦¨à¦ķ
Ġà¦Ĩà¦¸ à¦¨à¦Ł
à¦ī à¦ĸ
à¦ī à¦ĵ
à¦ī à¦ªà¦°
à¦ī à¦Ĺà¦²
à¦ī à¦²à¦¤
à¦ī à¦®à¦Ĺ
Ġà¦¡ à¦¯
à¦« à¦ĵ
à¦« à¦Ŀà¦®
à¦ªà¦¨ à¦¦
Ġà¦¹à¦² à¦¨
Ġà¦¹à¦² à¦ķ
Ġà¦¹à¦² à¦¯
Ġà¦¹à¦² à¦®
Ġà¦¹à¦² à¦¬
Ġà¦¹à¦² à¦¸
Ġà¦®à¦¨ à¦®
Ġà¦¸à¦® à¦ķ
à¦Ŀ à¦¡
à¦Ŀ à¦ªà¦¨
à¦Ŀ à¦ŀ
à¦Ŀ à¦®à¦§
à¦Ŀ à¦Ĩà¦ķ
Ġà¦ıà¦¸ à¦¤
Ġà¦ĩ à¦¬
Ġà¦ĩ à¦«
Ġà¦īà¦ł à¦²à¦ķ
Ġà¦ł à¦Ĺ
Ġà¦ł à¦ķà¦ł
à§İ à¦°
à§İ à¦ļ
à§İ à¦ĵ
à§İ à¦¸à¦¬
à§İ à¦¨à¦¬
à§İ à¦Ĺà¦¤
à¦°à¦¤ à¦¨
à¦°à¦¤ à¦ªà¦ķ
Ġà¦ľà¦¨ à¦ķà¦¦
Ġà¦ľà¦¨ à¦¸à¦®
Ġà¦ķà¦°à¦² à¦¤
à§ľ à¦Ĺ
Ġà¦Ŀ à¦²
Ġà¦Ŀ à¦Ļ
à¦°à¦¬ à¦ļ
à¦°à¦¬ à¦£à¦¤
Ġà¦ıà¦² à¦ķ
à¦ķà¦Ł à¦¬à¦°
à¦¤à¦° à¦ĵ
à¦¤à¦° à¦ľà¦¨
à¦¤à¦° à¦ĸà¦£
Ġà¦ĺà¦° à¦Ń
Ġà¦ĺà¦° à¦ĺà¦°
Ġà¦¬à¦¨ à¦ķ
Ġà¦¬à¦¨ à¦®
Ġà¦¬à¦¨ à¦Ł
Ġà¦¬à¦¨ à¦ª
Ġà¦¬à¦¨ à¦Ŀ
Ġà¦¬à¦¨ à¦¤à¦²
Ġà¦Ĩà¦Ĺ à¦¬
Ġà¦Ĩà¦Ĺ à¦°à¦ĵà¦¯
à¦¬à¦¨ à¦®
à¦¬à¦¨ à¦®à¦¯
Ġà¦Ĩà¦¬ à¦²
à¦¨à¦ĵ à¦ĸ
Ġà¦ħà¦¬ à¦Ĺ
Ġà¦Ĩà¦² à¦¬à¦¤
à¦°à¦ªà¦° à¦¦
Ġà¦¢ à¦Ļ
Ġà¦Ĺà¦² à¦¨
Ġà¦Ĺà¦² à¦ķà¦®
Ġà¦Ĺà¦² à¦¦à¦ĺà¦°
à¦ı à¦ª
à¦ı à¦¡
à¦ı à¦ĵ
à¦ı à¦¤à¦ķ
à¦ı à¦¤à¦¦
à¦ĺ à¦·
à¦°à¦® à¦²
à¦°à¦® à¦¬
à¦°à¦® à§Ł
à¦°à¦® à¦¥à¦ķ
à¦ķà¦² à¦¶
à¦ķà¦² à¦Ļ
à¦·à¦£ à¦¸
à¦·à¦£ à¦ª
à¦·à¦£ à¦Ĺ
à¦·à¦£ à¦Ń
à¦¨à¦¤ à¦ĩ
à¦Ĺà¦² à¦«
à¦ķà¦° à¦²
à¦ķà¦° à¦Ń
à¦ĸà¦² à¦ķ
à¦ĸà¦² à¦¤
à¦ĸà¦² à¦ĺà¦°à¦Ł
à¦²à¦ķ à¦®
à¦²à¦ķ à¦§
à¦²à¦ķ à¦Ń
Ġà¦¹à¦¤ à¦ļà¦ķ
Ġà¦ıà¦¤ à¦ľà¦¨
à¦¬à¦² à¦¡
Ġà¦ľà¦² à¦¬
Ġà¦ľà¦² à¦ļ
Ġà¦ľà¦² à¦Łà¦²
Ġà¦ħà¦¸ à¦¹à¦¯
Ġà¦¬à¦Ľà¦° à¦ĵ
à¦ĩà¦² à¦¸
à¦¶à¦¨ à¦ķ
Ġà¦ķà¦¤ à¦Ń
Ġà¦ıà¦ĸ à¦ĸ
à¦Ĩ à¦ł
à¦Ĩ à¦īà¦Ł
Ġà¦īà¦łà¦² à¦¨
Ġà¦īà¦łà¦² à¦ĵ
Ġà¦ĵà¦ªà¦° à¦Ł
Ġà¦Ĩà¦¨ à¦ļ
Ġà¦Ĩà¦¨ à¦«
à¦°à¦¸ à¦ª
à¦®à¦° à¦§
à¦°à¦ĵ à¦§
Ġà¦ıà¦Ĺ à¦¬
à¦²à¦¬ à¦Ł
Ġà¦®à¦¹ à¦¡
à¦ķà¦¬ à¦¸à¦¤
Ġà¦¹à¦ł à¦ķ
à¦¸à¦¬ à¦¶
Ġà¦ħà¦¤ à¦¬à¦¡
Ġà¦ķà¦® à¦²à¦ķ
Ġà¦Ĩà¦ķ à¦£
à¦²à¦¤ à¦¦
Ġà¦ķà¦² à¦Ł
Ġà¦ķà¦² à¦¹
Ġà¦ķà¦² à¦ĺà¦°
Ġà¦¬à¦ī à¦ĵ
Ġà¦ħà¦ª à¦Ł
Ġà¦ħà¦ª à¦ķà¦°
Ġà¦ªà¦¥ à¦Ĺ
à¦ĩà¦ķ à¦ķ
à¦¨à¦¬ à¦¸
à¦¨à¦¬ à¦¦à¦²
à¦Łà¦ķ à¦®
à¦Łà¦ķ à¦¹
Ġà¦ķà¦¬ à¦ļ
à¦ªà¦¦ à¦Ł
à¦ªà¦¦ à¦Ĺ
Ġà¦īà¦¨ à¦ļà¦²
à¦¨à¦ķ à¦¥
à¦¬à¦ª à¦ķ
à¦¦à¦¨ à¦®
à§İà¦¸ à¦ķà¦°
Ġà¦ĸà¦¬à¦° à¦ĵ
à¦ĩà¦Ł à¦¨
à¦ĩà¦Ł à¦Ł
à¦ĩà¦Ł à¦ĵ
Ġà¦īà¦¦ à¦¦
Ġà¦īà¦¦ à¦Ĺà¦¤
Ġà¦¯à¦¤ à¦Ĺ
Ġà¦¦à¦¶ à¦ıà¦Ĺ
à¦°à¦¹ à¦Ł
à¦Ĺà¦¤ à¦ķ
à¦Ĺà¦¤ à¦¸
à¦¤à¦¬ à¦ķ
à¦¤à¦¬ à¦¸
à¦¤à¦¬ à¦¸à¦¨
à¦ĸà¦¬ à¦ĩ
à¦Ĺà¦ľ à¦ĵ
Ġà¦¨à¦¦ à¦¶
Ġà¦¸à¦¹ à¦§à¦°
à¦¸à¦¨ à¦ªà¦¤
Ġà¦°à¦ķà¦® à¦¸à¦ķà¦®
Ġà¦ķà¦ĸà¦¨à¦ĵ à¦¸à¦ĸà¦¨à¦ĵ
Ġà¦ıà¦¨ à¦Ĺ
Ġà¦ıà¦¨ à¦ľà¦¯
à¦Łà¦° à¦°
à¦¤à¦ķ à¦ª
Ġà¦Ĩà¦¤ à¦ª
Ġà¦°à¦Ļ à¦¬
à¦¥à¦° à¦Ĺ
à¦¨à¦¸ à¦Ļ
Ġà¦ªà¦¦ à¦Ł
à¦¦à¦² à¦¬à¦²
à¦ķà¦ķ à¦¥
à¦¬à¦¸ à¦Ń
à¦¸à¦ķ à¦¥
à¦Łà¦² à¦Ĺ
à¦¯à¦ķ à¦¥
Ġà¦Ĩà¦¦ à¦¤
Ġà¦Ĩà¦¦ à¦¬à¦ķ
à¦ľà¦² à¦Ń
à¦ķà¦ľà¦¨ à¦¦
Ġà¦Ĩà¦§ à¦ĺ
à¦ªà¦ķ à¦¥à¦¨
à¦²à¦® à¦¶à¦²
à¦¯à¦¸ à¦®
Ġà¦ĺà¦¨ à¦ĺ
Ġà¦ħà¦² à¦ĵà¦¯
à¦ķà¦¶ à¦ķ
à¦ľà¦¬ à¦īà¦®
à¦°à¦Ń à¦¯
Ġà¦ķà¦¨ à¦Ĺ
Ġà¦ıà¦°à¦ķà¦® à¦Ń
à¦¬à¦ķ à¦¥
à¦²à¦Ĺ à¦Ł
Ġà¦ļà¦®à¦ķ à¦ª
Ġà¦ħà¦ľ à¦Ĺà¦°
à¦²à¦¸ à¦ĵ
à¦²à¦¸ à¦ıà¦°
Ġà¦¬à§ľ à¦ķà¦°
Ġà¦¬à§ľ à¦¸à§ľ
Ġà¦®à¦¦ à¦¨à¦ĵ
à¦Łà¦¨ à¦Ĺà¦°
Ġà¦²à¦ľ à¦ı
à¦¤à¦¦ à¦¶
Ġà§ ¯à§«
à¦¬à¦Ł à¦Ĺ
à¦¡à¦² à¦Ļ
Ġà¦¸à¦®à§Ł à¦Ł
Ġà¦¸à¦®à§Ł à¦ĩ
Ġà¦¨à§Ł à¦¨
à¦¬à¦¶ à¦¤
à¦¬à¦¶ à¦¦
à¦ıà¦ĩ à¦¸à¦¬
Ġà¦Ī à¦Ĺà¦°à¦ĵ
à¦°à¦« à¦Łà¦Ł
Ġà¦Ńà¦¬ à¦ĺ
Ġà¦§à¦°à¦¨ à¦§
Ġà¦Ĺà¦£ à¦¨
Ġà¦Ĺà¦£ à¦ªà¦¤
à¦²à¦Ń à¦°
à¦²à¦Ń à¦ķ
à¦ķà¦¸ à¦ĵ
Ġà¦¹à¦ĩ à¦ĵ
Ġà¦ıà¦ķà¦¦à¦® à¦ĩ
Ġà¦Ĩà¦Ł à¦¦
Ġà¦Ĩà¦Ł à¦ĸ
Ġà¦Ĩà¦Ł à¦¶
Ġà¦ľà§Ł à¦ª
Ġà¦īà§İ à¦ķà¦Ł
Ġà¦°à¦ľà¦¤ à¦ĵ
Ġà¦¨à¦¬ à¦Ľà¦°
Ġà¦īà¦ªà¦ķ à¦£
à¦Ĺà¦Ł à¦Ĺà¦¬
Ġà¦ħà¦¬à¦¨ à¦¤
Ġà¦ľà¦Ĺ à¦Ŀà¦®
à¦¨à¦¹ à¦«
à¦ķà¦Ĩ à¦ĩà¦¯
Ġà¦¸à¦¦à¦° à¦ĺ
Ġà¦¸à¦¦à¦° à¦ħà¦¨
à¦ľà¦ĩ à¦īà¦¨
à¦Łà¦¸ à¦Ĺ
Ġà¦¶à¦¹ à¦°à¦ķ
Ġà¦ıà¦ķà¦ĸ à¦£
à¦¤à¦¸ à¦®à¦°
à¦¬à¦ľà¦¨ à¦°
à¦¬à¦ľà¦¨ à¦¦
Ġà¦ķà¦¦à¦® à¦«
Ġà¦ĸà¦Ł à¦®à¦Ł
Ġà¦Ĭ à¦¨à¦Ĩ
Ġà¦ķà¦¬à¦° à¦ĸ
Ġà¦¬à¦²à¦²à¦ı à¦¤
Ġà¦¬à¦²à¦²à¦ı à¦Ł
Ġà¦¬à¦²à¦²à¦ı à¦¦
Ġà¦¬à¦²à¦²à¦ı à¦ĩà¦¬
¯à§ ©
à¦¨à¦ĸ à¦ļ
Ġà¦ªà¦Ł à¦ªà¦Ł
à¦¨à¦ı à¦®à¦¨
Ġà¦Ķ à¦ªà¦¨
Ġà¦ļà§ľ à¦²
Ġà§§à§¯à§ ®à§¦
à¦Ī à¦¯
Ġà§¨ à§«
Ġà§¨ à§¦à§Ń
à¦ªà¦¬ à§Łà¦¸
Ġà¦Ĩà¦¬à¦¹ à¦¸à¦Ļ
Ġà¦®à¦°à¦£ à¦«
Ġà¦¬à¦²à¦²à¦Ĩ à¦¹
à¦ıà¦« à¦ĵ
Ġà¦¹à¦Ł à¦¡à¦Ĺ
Ġà¦ĵà¦²à¦Ł à¦ª
à¦ıà¦®à¦¨ à¦ķ
Ġà¦¹à¦°à¦« à¦Ĺ
Ġà¦®à¦«à¦¸ à¦¸à¦²
Ġà¦ĸà¦² à¦¬à¦²
Ġà¦¨à¦ĵ à¦Ĺ
à¦¬à¦°à¦¤ à¦¨
Ġà¦ªà¦¬à¦¨ à¦ª
à¦£à¦ª à¦¶
à¦¨à¦Ĩ à¦¦
Ġà¦ķà¦®à¦¨ à¦°
Ġà¦ħà¦®à¦° à¦¨
à§§à§ ¦
à§§à§ ªà§«
Ġà¦ĺà¦Łà¦ķ à¦®à¦¶
Ġà¦ļà¦°à¦£ à¦Ĺ
à¦ľà§Ł à¦¬
à¦ľà¦Ń à¦¬à¦¨
Ġà§ª à§«
Ġà¦°à¦Ĺ à¦ļà¦Ł
Ġà¦§à¦ķ à¦§à¦ķ
Ġà§¬ à§¦
Ġà§¨à§¦à§¦à§ ®
Ġà¦¨à¦¬à¦¬ à¦§
Ġà¦Ĩà¦ķà¦¬à¦° à¦Ń
à¦Łà¦Ĩ à¦²à¦®
Ġà¦¶à¦°à¦¬ à§İ
Ġà§§à§®à§ «
Ġà¦ıà¦«à¦Ĩà¦° à¦Ĩà¦ĩ
Ġà§¨à§¦à§§à§ ¨
à¦¾à§į à¦ģ
à¦°à¦Ĩ à¦ļà¦°à¦£
Ġà¦ľà¦¹ à¦°à¦¤
à¦²à¦ªà¦° à¦¶
à¦Łà¦ªà¦¤ à¦Ļ
à¦ľà¦¸à¦° à¦ŀ
à¦¶à¦Ĩ à¦Ł
Ġà¦ļà¦°à¦² à¦ĸ
Ġà¦Ĺà¦Ĺà¦² à¦¸
Ġà¦¥à¦ķà¦¥ à¦ķ
à¦®à¦¨à¦ħ à¦ľà¦°
Ġà¦łà¦ķà¦ł à¦ķ
Ġà¦Ĭà¦¨à¦Ĩ à¦¶
Ġà§¨à§¦à§Ń à§§à§ªà§«
¨ à§
ª à§§à§®
¯ à§¦à§
Ġ à§Ł
à§ ®
à¦¾ à¦¼
à§ĩ à§į
à§ĩ à§ģ
à§ĩ à¦ĥ
à¦° à¦ĸà¦¨
à¦° à¦ī
à¦° à¦¨à¦¤
à¦° à¦¶à¦¨
à¦° à¦§à¦°
à¦° à¦ıà¦ĩ
à¦° à¦Ĩà¦ªà¦¨
à¦° à¦Ĩà¦°
à¦° à¦ħà¦¨
à¦° à¦īà¦¦
à¦° à¦ĺà¦£
à¦° à¦¡à¦ķ
à¦° à¦ıà¦¸à¦¬
à¦° à¦īà¦¤
à¦¿ à¦¾
à¦¨ à¦ªà¦¨
à¦¨ à¦Ŀ
à¦¨ à¦°à¦¤
à¦¨ à¦°à¦®
à¦¨ à¦ķà¦²
à¦¨ à¦¨à¦¤
à¦¨ à¦ķà¦¤
à¦¨ à¦®à¦²
à¦¨ à¦®à¦°
à¦¨ à¦²à¦¤
à¦¨ à§İà¦¸
à¦¨ à¦ªà¦¡
à¦¨ à¦°à¦ª
à¦¨ à¦ļà¦²
à¦¨ à¦ļà¦ķ
à¦¨ à¦ľà¦²
à¦¨ à¦®à¦¸
à¦¨ à¦¹à¦¯
à¦¨ à¦¶à¦ķ
à¦¨ à¦¢
à¦¨ à¦¯à¦¦
à¦¨ à¦¬à¦²à¦Ľ
à¦¨ à¦¡à¦¨
à¦¨ à§Łà¦¨
à¦¨ à¦īà¦¡
à¦¨ à¦ħà¦¨
à¦¨ à¦ħà¦²
à¦¨ à¦ħà¦°
à¦¨ à¦ķà¦¤à¦ķ
à¦² à¦ŀ
à¦² à¦°à¦¬
à¦² à¦°à¦ķà¦®
à¦² à¦¨à¦ķ
à¦² à¦¸à¦¤
à¦² à¦¸à¦Ł
à¦² à¦ļà¦¡
à¦² à¦¡à¦°
à¦² à¦«à¦²
à¦² à¦Ĩà¦²
à¦² à¦ĺà¦¡
à¦ķ à¦ĸà¦¨
à¦ķ à¦®à¦¯
à¦ķ à¦¨à¦²
à¦ķ à¦¨à¦¸
à¦ķ à¦¸à¦ª
à¦ķ à¦¢
à¦ķ à¦¸à¦®
à¦ķ à¦¯à¦¦
à¦ķ à¦īà¦¦
à¦¯ à¦ĸ
à¦¯ à¦°à¦¤
à¦¯ à¦²à¦ķ
à¦¯ à¦ªà¦¤
à¦¯ à¦°à¦¸
à¦¯ à¦ķà¦¬
à¦¯ à¦°à¦ĩ
à¦¯ à¦¯à¦¨
à¦¯ à¦Ńà¦¬
à¦¯ à¦¤à¦ķ
à¦¯ à¦¶à¦ķ
à¦¯ à¦ıà¦ĩ
à¦¯ à¦ľà¦¯
à¦¯ à¦Ńà¦°
à¦¯ à¦ªà¦¥
à¦¯ à¦°à¦ļà¦¨
à¦¯ à¦ħà¦Ń
à¦¤ à¦ªà¦¨
à¦¤ à¦ĵà¦¯
à¦¤ à¦ı
à¦¤ à¦ķà¦°
à¦¤ à¦²à¦¬
à¦¤ à¦¤à¦®
à¦¤ à¦ĺà¦¡
à§ģ à§ĥ
Ġà¦ķ à¦ľ
Ġà¦ķ à§İ
Ġà¦ķ à¦²à¦¬
Ġà¦ķ à¦Łà¦°
Ġà¦ķ à¦ĩà¦®
Ġà¦ķ à¦ĩà¦ļ
Ġà¦ķ à¦ķà¦ª
Ġà¦ķ à§Łà¦²
Ġà¦ķ à¦²à¦¤à¦²
à¦® à¦ªà¦¨
à¦® à¦¦à¦°
à¦® à¦ķà¦¤
à¦® à¦¸à¦Ļ
à¦® à¦¹à¦¸
à¦® à¦§à¦°
à¦® à¦Ĩà¦°
à¦® à¦Ĩà¦®à¦°
à¦¬ à¦ĸà¦¨
à¦¬ à¦«
à¦¬ à¦¬à¦¨
à¦¬ à¦²à¦ķ
à¦¬ à¦¦à¦°
à¦¬ à¦®à¦¤
à¦¬ à¦ķà¦¬
à¦¬ à¦®à¦¯
à¦¬ à¦¯à¦¨
à¦¬ à¦ĩà¦Ł
à¦¬ à¦¸à¦¤
à¦¬ à¦ĺà¦°
à¦¬ à¦īà¦ķ
à¦¬ à¦ľà¦ķ
à¦¬ à¦ĩà¦Ń
à¦¬ à¦Ĩà¦ªà¦¨
à¦¬ à§°
à¦¬ à¦īà¦°
à¦¬ à§İà¦¸à¦°
à¦¬ à¦ħà¦Ļ
Ġà¦¬ à¦ĸ
Ġà¦¬ à¦£
Ġà¦¬ à¦ĩà¦¬
Ġà¦¬ à¦ľà¦¬
Ġà¦¬ à¦¬à¦ķ
Ġà¦¬ à¦Łà¦®
Ġà¦¬ à¦®à¦¶
Ġà¦¬ à¦Ĭ
Ġà¦¬ à¦ķà¦²à¦¸
à¦Ł à¦¯
à¦Ł à§Ł
à¦Ł à¦Ŀ
à¦Ł à¦¶à¦¨
à¦Ł à¦®à¦¤
à¦Ł à¦®à¦°
à¦Ł à¦²à¦¬
à¦Ł à¦®à¦¯
à¦Ł à¦¨à¦ķ
à¦Ł à¦ĺà¦°
à¦Ł à¦ħ
à¦Ł à¦§à¦°
à¦Ł à¦ıà¦ķ
à¦Ł à¦ıà¦¸à¦¬
à¦Ł à¦ıà¦®à¦¨
Ġà¦Ĩ à¦£
Ġà¦Ĩ à¦ķà¦¤
Ġà¦Ĩ à¦ĩà¦¯
Ġà¦Ĩ à¦īà¦¨
Ġà¦Ĩ à¦Łà¦²
Ġà¦Ĩ à¦ĩà¦Ľ
Ġà¦Ĩ à¦Łà¦¨
Ġà¦Ĩ à¦ĵà¦°
Ġà¦Ĩ à¦Ńà¦¨
Ġà¦Ĩ à¦īà¦°
Ġà¦Ĩ à¦£à¦¬
Ġà¦Ĩ à¦īà¦¡
à¦¸ à¦ĸà¦¨
à¦¸ à¦ľà¦¨
à¦¸ à¦ŀ
à¦¸ à§İ
à¦¸ à¦¬à¦°
à¦¸ à¦ķà¦²
à¦¸ à¦¨à¦Ł
à¦¸ à¦°à¦ĵ
à¦¸ à¦ħ
à¦¸ à¦ıà¦ĩ
à¦¸ à¦Ńà¦°
à¦¸ à¦Ĩà¦®à¦°
à¦¸ à¦Ĳ
à¦¸ à¦°à¦¸à¦ľ
Ġà¦¸ à¦°à¦£
Ġà¦¸ à¦ķà¦°
Ġà¦¸ à¦²à¦¤
Ġà¦¸ à¦ĩà¦¯
Ġà¦¸ à§İà¦ķ
Ġà¦¸ à¦ĩà¦¸
Ġà¦¸ à¦¦à¦²à¦¬à¦²
Ġà¦ª à¦®
Ġà¦ª à¦¹
Ġà¦ª à¦¹à¦²
Ġà¦ª à¦¹à¦°
Ġà¦ª à¦Łà¦ķ
Ġà¦ª à¦¸à¦°
à¦Ľ à¦ļ
à¦Ľ à¦ĵà¦¯
à¦Ľ à¦ķà¦ĩ
à¦Ľ à¦®à¦Ľà¦®
à¦ĩ à¦¥
à¦ĩ à¦£
à¦ĩ à¦®à¦¨
à¦ĩ à§ľ
à¦ĩ à¦ĺ
à¦ĩ à¦ķà¦²
à¦ĩ à¦ĸà¦¬
à¦ĩ à¦ĵà§Ł
à¦ĩ à¦ħ
à¦ĩ à¦ıà¦ķà¦Ł
à¦ĩ à¦ĵà¦°
à¦ĩ à¦ľà¦¨à¦ķ
à¦ĩ à¦ıà¦ķ
à¦ĩ à¦īà¦°
à¦ĩ à¦ıà¦ĸà¦¨
à¦ĩ à¦ıà¦¸à¦¬
à¦ĩ à¦Ĩà¦¡
Ġà¦¨ à¦¥
Ġà¦¨ à¦ķà¦ķ
Ġà¦¨ à¦§à¦°
Ġà¦¨ à¦¬à¦Ł
Ġà¦¨ à¦ĸà¦°
Ġà¦¨ à§ľà¦¤
Ġà¦¨ à§ľà¦Ľ
Ġà¦¨ à¦Ńà¦¶
Ġà¦¨ à§ľà¦¬
Ġà¦¦ à¦Ļ
Ġà¦¦ à¦®à¦¨
Ġà¦¦ à¦®à¦Ł
Ġà¦ı à¦°à¦¤
Ġà¦ı à¦ĺ
Ġà¦ı à¦ľà¦²
Ġà¦ı à¦ªà¦¸
Ġà¦ı à¦§à¦°
Ġà¦ı à¦ªà¦¥
Ġà¦ı à¦ħà¦¬à¦¸
Ġà¦¤ à§ľ
Ġà¦¤ à¦Ľà¦°
Ġà¦¤ à¦¨à¦¯
Ġà¦¤ à¦ķà¦®
Ġà¦¤ à¦ķà¦¤à¦ķ
Ġà¦® à¦°à¦ķ
Ġà¦® à§İà¦¸
Ġà¦® à¦°à¦¹
Ġà¦® à¦ķà¦¦
Ġà¦® à¦²à¦¯
Ġà¦® à¦Łà¦¨
Ġà¦® à¦Ĺà¦¡
Ġà¦® à¦Ľà¦²
Ġà¦® à¦īà¦²
Ġà¦® à¦°à¦£à¦¬
Ġà¦® à¦ĵà¦ķ
à¦¼à§ĩ à§ĩ
à¦¦ à¦ľà¦¨
à¦¦ à¦ĵà¦¯
à¦¦ à¦°à¦¤
à¦¦ à¦²à¦¬
à¦¦ à¦¨à¦¨
à¦¦ à¦²à¦Ł
à¦¦ à¦ķà¦¦
à¦¦ à¦ıà¦°
à¦¦ à¦®à¦¬
à¦¦ à¦ķà¦ĵ
à¦¦ à¦Ńà¦¦
à¦¦ à¦ĺà¦°à¦Ł
à¦¦ à¦ħà¦ª
Ġà¦¹ à¦ľ
Ġà¦¹ à¦¹
Ġà¦¹ à¦¸à¦¨
Ġà¦¹ à¦Łà¦¤
Ġà¦¹ à¦ªà¦Ĺ
à¦ª à¦¹
à¦ª à¦Ļ
à¦ª à¦«
à¦ª à¦Łà¦ķ
à¦ª à¦²à¦Ł
à¦ª à¦ļà¦°
à¦ª à¦ķà¦¦
à¦ª à¦ıà¦°
à¦ª à¦ľà¦²
à¦ª à¦§à¦°
à¦ª à§Łà¦¸
à¦ĸ à¦«
à¦ĸ à¦¬à¦¨
à¦ĸ à¦¦à¦°
à¦ĸ à¦°à¦¹
à¦ĸ à¦°à¦ļ
à¦ĸ à¦ķà¦¦
à¦ĸ à¦ķà¦ķ
à¦ĸ à¦ľà¦¨à¦ķ
à¦¡ à¦ĸ
à¦¡ à¦¡
à¦¡ à¦ļ
à¦¡ à¦¬à¦²
à¦¡ à¦¬à¦ķ
à¦¡ à¦¬à¦¡
à¦¡ à¦Ńà¦¨
à¦¡ à¦ķà¦Ń
à¦ľ à¦ľ
à¦ľ à¦ļ
à¦ľ à¦«
à¦ľ à¦ķà¦¤
à¦ľ à¦°à¦¸
à¦ľ à¦ıà¦°
à¦ľ à¦¶à¦Ł
à§Ģ à§Ģ
Ġà¦ķà¦° à¦§
Ġà¦ķà¦° à¦ķà¦°
Ġà¦ķà¦° à¦®à¦ļ
à¦Ĺ à¦¹
à¦Ĺ à¦«
à¦Ĺ à§İ
à¦Ĺ à¦ĺ
à¦Ĺ à¦°à¦®
à¦Ĺ à¦ħà¦¨
à¦Ĺ à¦ĺà¦Ł
à¦¶ à¦¡
à¦¶ à¦¦à¦°
à¦¶ à¦®à¦°
à¦¶ à¦ķà¦ķ
à¦¶ à¦Ĩà¦®
à¦¶ à¦¤à¦Ł
à¦¶ à¦ľà¦¨à¦ķ
à¦¶ à¦Ľà¦¤
Ġà¦¯ à¦·
Ġà¦¯ à¦®à¦°
Ġà¦¯ à§İà¦¸
Ġà¦ļ à¦¯
Ġà¦ļ à¦°à¦¸
Ġà¦ļ à¦ªà¦ķ
Ġà¦ļ à¦Łà¦¬
Ġà¦ļ à§°
Ġà¦Ĺ à¦ļ
Ġà¦Ĺ à§Ł
Ġà¦Ĺ à¦®à¦ķ
Ġà¦Ĺ à¦¤à¦®
Ġà¦Ĺ à¦ľà¦¬
à¦ļ à¦ļ
à¦ļ à¦Ŀ
à¦ļ à¦¤à¦°
à¦ļ à¦¨à¦ĵ
à¦ļ à¦ĺ
à¦ļ à¦ķà¦²
à¦ļ à¦®à¦¤
à¦ļ à¦ļà¦¨
à¦ļ à¦Ĺà¦¡
à¦ļ à¦ªà¦¦à¦¸
Ġà¦Ĩà¦® à¦ķ
Ġà¦Ĩà¦® à¦ľ
Ġà¦Ĩà¦® à¦²à¦ķ
Ġà¦Ĩà¦® à¦¸à¦¤
Ġà¦ľ à¦ķ
Ġà¦ľ à¦ĩà¦¨
Ġà¦ľ à¦ªà¦¤
Ġà¦ľ à¦ªà¦®
Ġà¦ľ à¦ĵà¦¹
à¦ĵ à¦¶
à¦ĵ à¦«
à¦ĵ à¦Ŀ
à¦ĵ à¦¢
à¦ĵ à¦ıà¦ķà¦Ł
Ġà¦¬à¦² à¦¯
Ġà¦ħ à¦ľà¦¨
Ġà¦ħ à¦¤à¦°
Ġà¦ħ à¦®à¦¤
Ġà¦ħ à¦¶à¦ķ
Ġà¦ıà¦ķ à¦ł
Ġà¦ıà¦ķ à¦Ĺà¦²
Ġà¦° à¦¬à¦°
Ġà¦° à¦ļà¦¯
Ġà¦° à¦¹à¦¨
Ġà¦° à¦ĩà¦¤
Ġà¦° à¦ĩà¦ļ
Ġà¦° à¦¸à¦ķà¦·
à¦¥ à¦¦
à¦¥ à¦¶
à¦¥ à¦ľà¦¨
à¦¥ à¦ªà¦¤
à¦¥ à¦ķà¦¦
à¦¥ à¦¸à¦®
à¦¥ à¦²à¦ľ
à¦§ à¦°à¦ķ
à¦§ à¦ķà¦¤
à¦§ à¦¨à¦Ł
à¦§ à¦°à¦¦
à¦§ à¦®à¦ķ
à¦§ à¦ħ
à¦§ à¦¶à¦ķ
à¦§ à¦Ńà¦°
à¦§ à¦ªà¦²
à¦§ à¦°à¦ªà¦²
à¦· à¦¡
à¦· à¦ļ
à¦· à¦¹
à¦· à¦°à¦Ł
à¦· à¦ķà¦¤
à¦· à¦¸à¦¨
à¦· à¦¤à¦ķ
à¦· à¦¸à¦®
à¦· à¦ĵà¦°
à¦· à¦ľà¦¨à¦ķ
à¦· à¦¶à¦¯
à¦· à¦²à¦§
Ġà¦¶ à¦¦
Ġà¦¶ à¦ļ
Ġà¦¶ à¦¬à¦°
Ġà¦¶ à¦°à¦¦
Ġà¦¶ à¦¶à¦¬
Ġà¦¶ à¦¤à¦¦
Ġà¦¶ à§°
à¦¹ à¦ľ
à¦¹ à¦Ĺ
à¦¹ à¦ļ
à¦¹ à¦£
à¦¹ à¦Ļ
à¦¹ à¦°à¦¬
à¦¹ à¦¬à¦¨
à¦¹ à¦¬à¦²
à¦¹ à¦°à¦Ł
à¦¹ à¦ķà¦¤
à¦¹ à¦ķà¦¦
à¦¹ à¦ĸà¦£
Ġà¦ĸ à¦ŀ
Ġà¦ĸ à¦ĩà¦¨
Ġà¦ĸ à¦¸à¦¬
Ġà¦ĵ à¦°à¦¤
Ġà¦ĵ à¦¬à¦²
Ġà¦Ľ à¦Ń
Ġà¦Ľ à¦«
Ġà¦Ľ à¦²à¦ķ
Ġà¦Ľ à¦°à¦°
Ġà¦Ľ à¦ªà¦Ľ
Ġà¦Ľ à¦Ĩà¦¨
à¦£ à¦ł
à¦£ à¦®à¦¨
Ġà¦² à¦ī
Ġà¦² à¦¹à¦°
Ġà¦² à¦Łà¦ķ
Ġà¦² à¦ĩà¦¬
Ġà¦² à¦ĩà¦Ľ
Ġà¦² à¦ĩà§Ł
Ġà¦² à§ľà¦¬
Ġà¦² à¦¬à¦¨à¦¦
Ġà¦¥ à¦¸
Ġà¦« à¦ķà¦°
Ġà¦« à¦²à¦¤
Ġà¦« à¦Łà¦°
Ġà¦« à¦ľà¦²
Ġà¦« à¦ķà¦«
Ġà¦ī à§Ł
Ġà¦ī à¦ŀ
Ġà¦ī à¦²à¦ķ
Ġà¦ī à¦Ĺà¦°
Ġà¦ī à¦¸à¦ª
Ġà¦ī à¦ĩà¦¡
Ġà¦ī à¦¸à¦ĸ
Ġà¦ī à§ľà¦Ľ
Ġà¦ī à¦ĵà¦®
à§Ł à¦¶
à§Ł à¦®à¦¨
à§Ł à¦¤à¦®
à¦Ļ à¦ıà¦°
à¦Ń à¦Ľ
à¦Ń à¦ĩ
à¦Ń à¦ª
à¦Ń à¦ĵ
à¦Ń à¦ľà¦¨
à¦Ń à¦ŀ
à¦Ń à¦°à¦£
à¦Ń à¦°à¦¸
à¦Ń à¦°à¦¯
à¦ł à¦¦
à¦ł à¦Ĺ
à¦ł à¦£
à¦ł à¦ł
à¦ł à¦ĺ
à¦ł à¦®à¦¯
à¦ł à¦ķà¦ķ
à¦ł à¦Ĺà¦¡
à¦ł à¦ķà¦ª
à¦ł à¦ĸà¦£
Ġà¦¬à¦²à¦² à¦®à¦¨
Ġà¦¬à¦²à¦² à¦°à¦¬
Ġà¦¬à¦²à¦² à¦¬à¦¨
Ġà¦¬à¦²à¦² à¦ĩà¦¨
Ġà¦¬à¦²à¦² à¦¤à¦¬
Ġà¦¬à¦²à¦² à¦§à¦°
Ġà¦¬à¦²à¦² à¦®à¦¹
Ġà¦¬à¦²à¦² à¦ĸà¦¬à¦°
Ġà¦¬à¦²à¦² à¦ĵà¦¦
Ġà¦¬à¦²à¦² à¦ħà¦²
Ġà¦¬à¦²à¦² à¦ħà¦¤
Ġà¦¬à¦²à¦² à¦¦à¦°à¦ľ
Ġà¦Ĩà¦° à¦£
Ġà¦Ĩà¦° à¦ıà¦ķà¦ľà¦¨
à¦¼à¦¿ à¦ģ
Ġà¦ĺ à¦¸à¦°
Ġà¦ĺ à¦·à¦°
Ġà¦ĺ à¦°à¦¬à¦¨
Ġà¦Ł à¦¨à¦Ł
Ġà¦Ł à¦¨à¦ķ
Ġà¦Ł à¦ĩà¦Ł
Ġà¦Ł à¦¨à¦¸
Ġà¦Ł à¦ķà¦®
Ġà¦Ł à¦²à¦°
Ġà¦Ł à¦ªà¦Łà¦ª
Ġà¦ªà¦° à¦Ĺà¦¨
Ġà¦ªà¦° à¦¬à¦Ł
Ġà¦ªà¦° à¦®à¦ª
Ġà¦ħà¦¨ à¦Ĺ
Ġà¦ħà¦¨ à¦Ļ
Ġà¦ħà¦¨ à¦ķà¦Ł
Ġà¦ħà¦¨ à¦¬à¦¦
à¦ªà¦° à¦ªà¦°
à¦ªà¦° à¦¬à¦¶
Ġà¦ıà¦ĩ à¦¯
Ġà¦ıà¦ĩ à¦¦
Ġà¦ıà¦ĩ à¦ļà¦Ł
à¦®à¦¨ à¦¤
à¦®à¦¨ à¦¤à¦°
Ġà¦§ à¦®
Ġà¦§ à¦°à¦ķ
Ġà¦Ĩà¦¸ à¦¨à¦¸
à¦ī à¦¶
à¦ī à§ľ
à¦ī à¦ĺ
à¦ī à¦ķà¦²
à¦ī à¦²à¦ķ
à¦ī à¦ĩà¦¨
à¦ī à¦ĩà¦Ł
à¦ī à¦¸à¦Ł
à¦ī à¦Łà¦²
à¦ī à¦ĩà¦¶
à¦ī à¦¡à¦¨
à¦ī à¦¬à¦¯
à¦ī à¦ªà¦¯
à¦ī à¦¡à¦²à¦Ļ
Ġà¦¡ à¦¬
Ġà¦¡ à¦²à¦¤
à¦« à¦¬
à¦« à¦Ļ
à¦« à¦¸à¦²
à¦« à¦Łà¦¨
Ġà¦¹à¦² à¦¹
Ġà¦¹à¦² à¦ı
Ġà¦¹à¦² à¦ıà¦ĸà¦¨
Ġà¦®à¦¨ à¦°
Ġà¦®à¦¨ à¦¨
Ġà¦®à¦¨ à¦ĵ
Ġà¦¸à¦® à¦§
Ġà¦¸à¦® à¦·
Ġà¦¸à¦® à¦ķà¦ķ
à¦ľà¦¨ à¦Ń
à¦ľà¦¨ à¦¨à¦¦
à¦Ŀ à¦¦
à¦Ŀ à¦ª
à¦Ŀ à¦Ĺ
à¦Ŀ à¦²à¦¬
à¦Ŀ à¦¨à¦¦
à¦ŀ à¦ķ
Ġà¦ļà¦² à¦²à¦ķ
Ġà¦ĩ à¦ķà¦¬
Ġà¦ĩ à¦¸à¦¬
Ġà¦ĩ à¦°à¦¶
Ġà¦ĩ à¦Łà¦Ł
Ġà¦ĩ à¦Ĺà¦¨
Ġà¦ĩ à¦īà¦Ł
Ġà¦ĩ à¦§à¦°
Ġà¦ĩ à¦Łà¦¬
Ġà¦ĩ à¦¡à¦²
Ġà¦¸à¦¬ à¦ĵ
Ġà¦¸à¦¬ à¦¸à¦¬
Ġà¦¸à¦¬ à¦ķà¦¥
à¦°à¦ķ à¦¤
à¦°à¦ķ à¦¸
à¦°à¦ķ à¦¨à¦¡
Ġà¦īà¦ł à¦¨
Ġà¦¹à¦¬ à¦¹à¦¬
Ġà¦¬à¦¸ à¦¬à¦¤
Ġà¦¬à¦¸ à¦¤à¦¬
à§İ à¦¬
à§İ à¦Ł
à§İ à¦ľ
à§İ à¦¶
à§İ à¦ªà¦¨
à§İ à¦ķà¦°
à§İ à¦ªà¦Ł
Ġà¦ķà¦°à¦¤ à¦²
Ġà¦ķà¦°à¦¤ à¦®
Ġà¦ľà¦¨ à¦°
Ġà¦ľà¦¨ à¦¯
Ġà¦ľà¦¨ à¦¸à¦Ń
Ġà¦ķà¦°à¦² à¦®
Ġà¦ķà¦°à¦² à¦Ĩà¦®
Ġà¦ĵà¦° à¦Ł
à§ľ à¦ķ
à§ľ à¦®
à§ľ à¦ĸ
à§ľ à¦ľ
Ġà¦®à¦¤ à¦¤
Ġà¦®à¦¤ à¦¬
Ġà¦®à¦¤ à¦¨à¦ĩ
Ġà¦Ŀ à¦¦
Ġà¦Ŀ à¦£
Ġà¦Ŀ à¦°à¦¤
à¦°à¦¬ à¦ĩ
à¦°à¦¬ à¦¦
Ġà¦ıà¦² à¦¸
Ġà¦ıà¦² à¦Ĺ
Ġà¦ıà¦² à¦Ń
Ġà¦ıà¦² à¦Ĩà¦®
à¦ķà¦Ł à¦²
à¦ķà¦Ł à¦®
à¦ķà¦Ł à¦°à¦¦
à¦ķà¦Ł à¦®à¦¯
à¦ķà¦Ł à¦ľà¦¨à¦¦
Ġà¦§à¦° à¦ª
Ġà¦§à¦° à¦¨à¦ĵ
à¦¬à¦° à¦²
à¦¬à¦° à¦Łà¦°
à¦¬à¦° à¦¦à¦¤
Ġà¦ĺà¦° à¦¸
Ġà¦ĺà¦° à¦ª
Ġà¦ĺà¦° à¦ĵ
Ġà¦ĺà¦° à¦£
Ġà¦¬à¦¨ à¦°
Ġà¦¬à¦¨ à¦Ľ
Ġà¦¬à¦¨ à¦ĵ
Ġà¦¬à¦¨ à¦¬à¦¨
Ġà¦¬à¦¨ à¦ªà¦¥
à¦°à¦£ à¦°
à¦°à¦£ à¦®
à¦°à¦£ à¦ªà¦¤
Ġà¦Ĩà¦Ĺ à¦°
à¦¬à¦¨ à¦¨
à¦¬à¦¨ à¦ĵ
à¦¬à¦¨ à¦§
à¦¬à¦¨ à¦¸à¦°
à¦¬à¦¨ à¦®à¦°à¦£
Ġà¦ıà¦¬ à¦®
Ġà¦ıà¦¬ à¦Ľà¦°
Ġà¦Ĩà¦¬ à¦ķ
Ġà¦Ĩà¦¬ à¦¡
à¦¨à¦ĵ à§Ł
à¦¨à¦ĵ à¦¸à¦¬
Ġà¦ħà¦¬ à¦¬
Ġà¦ħà¦¬ à¦Ń
Ġà¦Ĩà¦² à¦ľ
à¦°à¦ªà¦° à¦¤
à¦°à¦ªà¦° à¦ĺà¦£
Ġà¦Ĺà¦² à¦¬
à¦ı à¦¨
à¦ı à¦ķà¦²
à¦ı à¦°à¦ĵ
à¦ı à¦ĩà¦¬
à¦ı à¦¸à¦ª
à¦ı à¦Ńà¦°
à¦ĺ à¦Ľ
à¦ĺ à¦ĵ
à¦ĺ à§İ
à¦ĺ à§ľ
à¦ĺ à¦¸à¦®à¦¯
à¦ĺ à¦Ĭ
à¦°à¦® à¦ķ
à¦°à¦® à¦¯
à¦°à¦® à¦Ł
à¦ķà¦² à¦°
à¦ķà¦² à¦ª
à¦ķà¦² à¦Ń
à¦ķà¦² à¦«
à¦ķà¦² à¦°à¦¬
à¦·à¦£ à¦ľà¦¨
à¦¨à¦¤ à¦¬
à¦Ĺà¦² à¦¤
à¦Ĺà¦² à¦ĵ
à¦Ĺà¦² à¦¬à¦°
à¦Ĺà¦² à¦ĺ
à¦Ĺà¦² à¦¸à¦°
à¦Ĺà¦² à¦Ĩà¦®
à¦Ĺà¦² à¦ıà¦ĩ
à¦ķà¦° à¦¸
à¦ķà¦° à¦Ĺ
à¦ķà¦° à¦¶
à¦ķà¦° à¦ĵ
à¦ĸà¦² à¦¯
à¦ĸà¦² à¦ķà¦¬
à¦ĸà¦² à¦ıà¦ķà¦Ł
à¦ĸà¦² à¦ıà¦ķ
à¦ĸà¦² à¦Ĩà¦¨à¦Ĺ
à¦²à¦ķ à¦ĵ
à¦²à¦ķ à¦£
Ġà¦ķà¦°à¦Ľ à¦ĩ
Ġà¦ķà¦°à¦¬ à¦ķ
Ġà¦ķà¦°à¦¬ à¦¬
Ġà¦ķà¦°à¦¬ à¦ĩ
Ġà¦¹à¦¤ à¦ĩ
Ġà¦ıà¦¤ à¦²
Ġà¦ıà¦¤ à¦°à¦ķà¦®
à¦¬à¦² à¦®
à¦¬à¦² à¦ĵ
à¦¬à¦² à¦²à¦¨
Ġà¦ľà¦² à¦¯
Ġà¦ľà¦² à¦¤
Ġà¦ľà¦² à¦ļà¦°
Ġà¦ľà¦² à¦¹à¦¸
Ġà¦ľà¦² à¦ĺà¦¡
Ġà¦ħà¦¸ à¦¹à¦¨
à§ĭà¦ģ à¦Ĥ
à¦°à¦Ł à¦°
Ġà¦¬à¦Ľà¦° à¦Ł
à¦ĩà¦² à¦°
à¦ĩà¦² à¦Ĺ
à¦ĩà¦² à¦Łà¦°
Ġà¦Ĩà¦¶ à¦ķ
Ġà¦¬à¦²à¦¤ à¦¦
à¦¶à¦¨ à¦¬
à¦¶à¦¨ à¦¸
à¦¶à¦¨ à¦ıà¦°
à¦¶à¦¨ à¦ķà¦Ń
Ġà¦ıà¦®à¦¨ à¦§
Ġà¦ıà¦ĸ à¦¬à¦°
à¦Ĩ à§ľ
à¦Ĩ à¦°à¦¸
à¦Ĩ à¦°à¦ĩ
à¦Ĩ à¦°à¦ª
à¦Ĩ à¦¬à¦¹
à¦Ĩ à¦¦à¦®
à¦Ĩ à¦¦à¦¬
à¦Ĩ à¦ĩà¦ıà¦°
à¦ķà¦¤ à¦®
à¦ķà¦¤ à¦Ń
à¦®à¦² à¦¤
à¦®à¦² à¦ĩ
Ġà¦¸à¦° à¦Ľ
Ġà¦īà¦łà¦² à¦®
Ġà¦īà¦łà¦² à¦¹
Ġà¦īà¦łà¦² à¦«
Ġà¦īà¦łà¦² à¦¸à¦¬
Ġà¦īà¦łà¦² à¦Ĩà¦®
Ġà¦īà¦łà¦² à¦ıà¦ĩ
à¦°à¦ľ à¦¤
à¦°à¦ľ à¦Ĺà§İ
Ġà¦ĵà¦ªà¦° à¦ķ
Ġà¦ĵà¦ªà¦° à¦¦
Ġà¦Ĩà¦¨ à¦¡
à¦¹à¦² à¦Ł
à¦¹à¦² à¦¬à¦¶à¦¤
Ġà¦°à¦ķ à¦¬
à¦®à¦¤ à¦ĵ
à¦ĩà¦¨ à¦·
à¦ĩà¦¨ à¦ĵà¦¯
à¦ĩà¦¨ à¦ĩà¦²
Ġà¦ĵà¦ĩ à¦¦
à¦ĩà¦° à¦Ļ
Ġà¦¯à¦ĸà¦¨ à¦ķ
à¦°à¦¸ à¦¹
à¦°à¦¸ à¦Ń
à¦°à¦¸ à§İ
à¦¯à¦¬ à¦¶à¦¤
à¦°à¦ĵ à¦ķ
à¦°à¦ĵ à¦ĩ
à¦°à¦ĵ à§Ł
à¦°à¦ĵ à¦°à¦ĩ
à¦°à¦ĵ à¦ĺà¦°
à¦°à¦ĵ à¦¸à¦ª
à¦²à¦¬ à¦ª
Ġà¦®à¦¹ à¦ķ
Ġà¦®à¦¹ à¦¤
à¦°à¦¦ à¦Ł
à¦ķà¦¬ à¦¤
à¦ķà¦¬ à¦ĩ
à¦®à¦ķ à¦®
à¦®à¦ķ à¦¥
à¦®à¦ķ à¦¹
Ġà¦¶à¦° à¦¶à¦¯
à¦¸à¦¬ à¦¹
à¦¸à¦¬ à¦¶à¦¤
Ġà¦ķà¦® à¦¸à¦®
Ġà¦ķà¦® à¦¬à¦¯
Ġà¦īà¦ª à¦ª
Ġà¦īà¦ª à¦¦à¦²
à¦°à¦¶ à¦¬
à¦®à¦¯ à¦ľ
Ġà¦Ĩà¦ķ à¦Ľ
à¦²à¦¤ à¦¬
Ġà¦ķà¦² à¦ľ
Ġà¦ķà¦² à¦Ĺ
Ġà¦ķà¦² à¦®à¦¸
à¦¨à¦¨ à¦¬
Ġà¦¬à¦ī à¦¨
Ġà¦¬à¦ī à¦²
Ġà¦¬à¦ī à¦¬
Ġà¦¬à¦ī à¦ĩ
Ġà¦¬à¦° à¦·
Ġà¦ĩà¦¨ à¦²
Ġà¦ªà¦¥ à¦Ń
Ġà¦ıà¦° à¦ļ
à¦ĩà¦ķ à¦ª
à¦¤à¦¨ à¦Ń
à¦¨à¦¬ à¦ķ
à¦¨à¦¬ à¦¦
à¦¨à¦¬ à¦ľà¦¨
à¦¨à¦¬ à¦¸à¦®
à¦ªà¦¦ à¦Ńà¦ŀ
Ġà¦īà¦¨ à¦¸à¦¤
à¦²à¦² à¦ĵ
Ġà¦ħà¦® à¦¸
à¦¨à¦ķ à¦¨
à¦¨à¦ķ à¦ķ
à¦¨à¦ķ à¦¡
à¦¦à¦¨ à¦°à¦¤
à¦¦à¦¨ à¦ªà¦¤
à¦¦à¦¨ à¦®à¦¯
à§İà¦¸ à¦¨
à§İà¦¸ à¦²
Ġà¦ĸà¦¬à¦° à¦Ĺ
à¦ĩà¦Ł à¦°
à¦ĩà¦Ł à¦Ĺ
Ġà¦ħà¦« à¦¹
Ġà¦īà¦¦ à§Ł
Ġà¦īà¦¦ à¦Ń
Ġà¦īà¦¦ à§Łà¦ª
Ġà¦Ĳ à¦ķ
Ġà¦Ĳ à¦¯
Ġà¦Ĳ à¦ĩ
Ġà¦ĵà¦ł à¦¬
à¦°à¦¨ à¦Ĺà¦°
Ġà¦¦à¦¶ à¦ĸ
Ġà¦¦à¦¶ à¦¹
Ġà¦¦à¦¶ à¦°à¦¥
Ġà¦¦à¦¶ à¦¹à¦°
à¦°à¦¹ à¦¨
à¦°à¦¹ à¦ķ
à¦°à¦¹ à¦¤
à¦°à¦¹ à¦¬
à¦°à¦¹ à¦ĵ
à¦°à¦¹ à¦°à¦£
à¦°à¦¹ à¦°à¦ĩ
Ġà¦¬à¦²à¦¬ à¦¬à¦²à¦¬
à¦¤à¦¬ à¦¯
à¦¤à¦¬ à¦®
à¦Ĺà¦ľ à¦ķ
à¦Ĺà¦ľ à¦ĵà¦¯
Ġà¦¸à¦¹ à¦¨
Ġà¦¸à¦¹ à¦ľà¦²à¦Ń
Ġà¦¨à¦¤ à¦ľ
Ġà¦Ńà¦° à¦ª
Ġà¦Ĩà¦ļ à¦¡
Ġà¦ķà¦²à¦ķ à¦¬à¦ľ
à¦®à¦Ł à¦°
à¦°à¦ª à¦Ļ
à¦ķà¦¦ à¦²
à¦ķà¦¦ à¦£
à¦ļà¦¨ à¦ĩ
à¦ļà¦¨ à¦¦
Ġà¦ħà¦¬à¦¸ à¦°à¦ĵ
à¦ĺà¦° à¦Ĺ
à¦¥à¦° à¦Ĺà¦¤
à¦Ŀà¦² à¦¸
à¦Ŀà¦² à¦®à¦²
à¦²à¦¨ à¦ļ
à¦ªà¦Ł à¦Ń
à¦¨à¦¸ à¦«
à¦¨à¦¸ à¦¨à¦ķ
Ġà¦«à¦² à¦ĩ
Ġà¦«à¦² à¦ĵ
Ġà¦ªà¦¦ à¦ª
Ġà¦ªà¦¦ à¦Ĺ
Ġà¦ªà¦¦ à¦¤à¦²
Ġà¦ħà¦¦ à¦¡
Ġà¦¬à¦ĩ à¦¸
Ġà¦¬à¦ĩ à¦ı
à¦ļà¦² à¦Ľ
à¦Ĺà¦° à¦°
à¦Ĺà¦° à¦ĸ
à¦ķà¦¨ à¦¦
à¦¤à¦® à¦¸
à¦¤à¦® à¦ĵ
à¦¬à¦¸ à¦¹
Ġà¦¦à¦² à¦Ĺ
à¦¸à¦ķ à¦Ń
à¦ħ à¦ªà¦°
à¦ħ à¦®à¦¨
à¦ħ à¦ŀ
à¦ħ à¦ķà¦²
à¦ħ à¦²à¦ķ
à¦ħ à¦¹à¦¨
à¦Łà¦² à¦¸
Ġà¦¹à¦° à¦·
Ġà¦¹à¦° à¦§à¦¨
à¦¯à¦ķ à¦¶
à¦¯à¦ķ à¦Ń
à¦¯à¦ķ à¦°à¦£
Ġà¦ķà¦· à¦²
Ġà¦ķà¦· à¦Ľ
Ġà¦Ĩà¦¦ à¦°à¦Ł
Ġà¦Ĩà¦¦ à¦²à¦Ł
Ġà¦Ĺà¦° à¦°
à¦Ĺà¦¬ à¦ī
à¦ķà¦ľà¦¨ à¦ĩ
Ġà¦Ĩà¦§ à¦²
Ġà¦Ĩà¦§ à¦®
Ġà¦Ĩà¦§ à¦Ń
Ġà¦Ĩà¦§ à¦¬à¦¯
Ġà¦Ĩà¦§ à¦ĺà¦¨
à¦¤à¦¤ à¦°à¦ķ
à¦¤à¦¤ à¦ªà¦ķ
à¦§à¦¨ à¦®
à¦§à¦¨ à¦Ĺ
à¦§à¦¨ à¦Ńà¦ľà¦¨
Ġà¦ķà¦ª à¦ļ
Ġà¦¬à¦¹ à¦¤
Ġà¦¬à¦¹ à¦®
à¦®à¦¬ à¦¯
à¦®à¦¬ à¦¡
à¦¹à¦¸ à¦ĵ
Ġà¦īà¦¡ à¦ļ
à¦¯à¦¸ à¦Ń
Ġà¦Ĩà¦Ļ à¦°
Ġà¦ħà¦§ à¦®
Ġà¦ħà¦§ à¦®à¦ķ
à¦ľà¦¤ à¦ĸ
Ġà¦ħà¦ªà¦° à¦ķ
à¦ķà¦¶ à¦¨à¦ĵ
à¦ľà¦¬ à¦§
à¦¨à¦ľà¦¨ à¦ĵ
à¦ªà¦¸ à¦®
à¦ªà¦¸ à¦®à¦¯
à¦°à¦Ń à¦¨
à¦¯à¦¤ à¦¦
Ġà¦ķà¦¨ à¦¶
Ġà¦ıà¦°à¦ķà¦® à¦Ł
Ġà¦ķà¦Ł à¦ķà¦Ł
à¦¨à¦ĩ à¦ĸ
à¦¢ à¦ķ
à¦¢ à¦ª
à¦īà¦Ł à¦¨à¦ķ
à¦ĩà¦® à¦®
à¦ĩà¦® à¦ķà¦²
Ġà¦¬à¦ķ à¦Ĺ
Ġà¦Ĩà¦ĩ à¦ıà¦¸
à¦ľà¦® à¦®à¦¤
à¦ľà¦® à¦¹à¦²à¦ķ
à¦Łà¦® à¦ĩ
à¦ĩà¦Ń à¦¸
à¦ĩà¦Ń à¦ĩà¦¨
Ġà¦ħà¦¶ à¦¤
à¦Łà¦¬ à¦ĩà¦¯
à¦Łà¦¬ à¦ĩà¦Ł
Ġà¦Ĩà¦¹ à¦°à¦£
Ġà¦Ĩà¦ª à¦ľ
à¦¬à¦¬ à¦Ļ
Ġà¦®à¦¦ à¦¤
Ġà¦®à¦¦ à¦ĵà§Ł
à¦°à¦Ĺ à¦®
à¦°à¦Ĺ à¦¡
Ġà¦ļà¦ķ à¦®à¦ķ
à¦¬à¦Ł à¦ľà¦¨
à¦¬à¦Ł à¦¸à¦Ļ
à¦·à¦ķ à¦·
Ġà¦¨à§Ł à¦ĩ
Ġà¦¸à¦¹à¦ľ à¦ª
à¦¨à¦Ĺ à¦®
Ġà¦¨à¦ķ à¦¸
Ġà¦ĸà¦°à¦ļ à¦ĵ
Ġà¦ĸà¦°à¦ļ à¦ªà¦¤
à¦¬à¦¶ à¦¸
à¦¬à¦¶ à¦°à¦£à¦¬
Ġà¦Ī à¦¸
Ġà¦ªà¦¶ à¦°
Ġà¦¦à¦° à¦¦à¦°
Ġà¦¶à¦¤ à¦ĸ
Ġà¦¶à¦¤ à¦¸à¦¹à¦¸
Ġà¦Ĺà¦°à¦® à¦ķ
à¦ľà¦¨à¦ķ à¦Ń
à¦²à¦Ń à¦ĩ
à¦ķà¦¸ à¦ľ
à¦ķà¦¸ à¦Ń
à¦¬à¦¦ à¦ķ
à¦¬à¦¦ à¦®
Ġà¦ıà¦® à¦ıà¦°
Ġà¦ħà¦®à¦¨ à¦ĩ
à¦ıà¦ķ à¦®
Ġà¦ļà¦° à¦ļà¦°
Ġà¦ĩà¦ī à¦ª
Ġà¦ĩà¦ī à¦«
Ġà¦Ĩà¦Ł à¦ĺ
Ġà¦ľà§Ł à¦ıà¦°
Ġà¦ĵà¦¸à¦¬ à¦ĩ
Ġà¦ļà¦® à¦ķà¦Ł
à¦ĩà¦¶ à¦ļà¦¬
Ġà¦ıà¦ĩà¦¸à¦¬ à¦ĩ
à¦ĩà¦¡ à¦ķ
à¦ĩà¦¡ à¦Ł
Ġà¦Ĩà¦¸à¦¨ à¦ª
à¦ĩà¦« à¦ķ
à¦ĩà¦« à¦¯
Ġà¦Ĩà¦¦à¦° à¦¯à¦¤
à¦°à¦ľà¦¨ à¦ĩ
à¦ļà§Ł à¦²
à¦Ĩà¦° à¦ı
à¦Ĩà¦° à¦ıà¦¸
Ġà¦ħà¦²à¦ķ à¦ķà¦¬
à¦®à¦¹ à¦¨à¦¨
Ġà¦ħà¦Ĺ à¦¸
à¦Ĺà¦® à¦ĵ
Ġà¦¨à¦¬ à¦¬à¦²
à¦°à¦®à¦£ à¦Ł
à¦Łà¦ª à¦¹à¦°
à§° à¦ª
Ġà¦°à¦£ à¦ķ
Ġà¦°à¦£ à¦¬
Ġà¦¨à¦° à¦ĺ
Ġà¦¦à¦® à¦ķà¦²
à¦¯à¦® à§Ł
Ġà§§à§ ¨
Ġà§§à§ ¯à§¦à§
à¦ªà¦¥ à¦Ł
à¦¨à¦Ń à¦Ļ
à¦¨à¦Ń à¦ŀ
à¦īà¦¡ à¦¸
à¦¬à¦ľ à¦Ĺà¦¤
à¦ķà¦Ĩ à¦¶
Ġà¦¸à¦¦à¦° à¦ĸ
à¦ĩà¦ĸ à¦°à¦ļ
à¦·à¦¸ à¦Ĺ
à¦¶à¦² à¦§
Ġà¦Ĩà¦ĩà¦¨ à¦¸à¦®
Ġà¦¶à¦¹ à¦°à¦ĩ
Ġà¦¶à¦¹ à¦°à¦®à§Ł
à¦ĸà¦ķ à¦·
à¦£à¦ķ à¦£
Ġà¦ļà¦¶à¦® à¦ĸ
à¦¤à¦¸ à¦®à¦¸
à¦ķà¦Ĩà¦ª à¦ĩ
à¦¬à¦ľà¦¨ à¦¹
à¦¥à¦² à¦ļà¦°
à¦¯à¦ľ à¦Ĺà¦¤
à¦īà¦¬ à¦Ĺ
à¦²à¦° à¦Ļ
à¦ĩà¦¸à¦¬ à¦¸
à¦ĩà¦¸à¦¬ à¦«
à¦ĩà¦¸à¦¬ à¦ıà¦ĩ
à¦ĩà¦¸à¦¬ à¦Ĩà¦®à¦°
Ġà¦ıà¦ķà¦ķ à¦£
à¦²à¦®à¦¨ à¦ķ
à¦¯à¦°à¦ķà¦® à¦ĵ
Ġà¦¬à¦²à¦²à¦ı à¦¸à¦¬
Ġà¦¸à¦°à¦² à¦°
Ġà¦¸à¦°à¦² à¦¤
à¦¨à¦ĸ à¦¡
à¦¶à¦ª à¦ŀ
Ġà¦®à¦¤à¦²à¦¬ à¦ĸ
à¦¨à¦ı à¦ĸà¦¨
à¦®à¦°à¦£ à¦¶à¦ķ
Ġà¦¬à¦¦ à¦ĸ
Ġà¦¬à¦¦ à¦ĸà¦¤
Ġà¦¬à¦¦ à¦¸à¦Ļ
à¦¡à¦ķ à¦¬à¦¨
Ġà¦ĺà¦· à¦²
Ġà¦ĺà¦· à¦ĺà¦·
Ġà¦°à¦¤à¦¨ à¦²
Ġà¦Ĺà¦¦ à¦ĸ
Ġà§§à§¯à§ ¯à§«
Ġà§§à§¯à§ ¯à§¦
Ġà§§à§¯à§ ¨à§
à¦Ĺà¦¸ à¦ĩ
à¦Ĺà¦¸ à¦ľ
à¦Ĺà¦¸ à¦°à¦ķ
à¦Ī à¦ľ
à¦ªà¦¶à¦¨ à¦Ł
à¦ıà¦ĸà¦¨ à¦ĵ
Ġà¦Ĩà¦ļà¦°à¦£ à¦Ł
Ġà§¨ à§¨
Ġà§¨ à§Ń
Ġà§¨ à§ª
Ġà§¨ à§§
Ġà¦¬à¦²à¦²à¦Ĩ à¦¨
Ġà¦¬à¦²à¦²à¦Ĩ à¦°à¦ĵ
Ġà¦¬à¦²à¦²à¦Ĩ à¦¸à¦²
Ġà¦¬à¦²à¦²à¦Ĩ à¦¨à¦Ĺ
Ġà¦¬à¦°à¦« à¦ľà¦²
à¦¸à¦ĩ à¦īà¦ľ
Ġà¦¨à¦ĸ à¦¦à¦°
à¦ıà¦« à¦ĵà¦ķ
à¦®à¦® à¦Ń
Ġà¦¹à¦Ł à¦¬à¦ķ
à§¦à§ ¨à§¨
Ġà¦¬à§İà¦¸ à¦²
Ġà¦¬à§İà¦¸ à¦°à¦ĸ
Ġà¦ıà¦ķà¦§ à¦°à¦£
Ġà¦Ńà¦Ł à¦Ńà¦Ł
Ġà¦Ĩà§ľ à¦®
Ġà¦Ĩà§ľ à¦¨à§Łà¦¨
à¦ĩà¦°à¦ķà¦® à¦ĩ
Ġà¦¨à¦ľ à¦°à¦¬à¦¨
Ġà¦«à¦²à¦ķ à¦Ĺ
Ġà¦ľà¦¨à¦® à¦Ńà¦°
®à§ «
à¦¡à¦¬ à¦ľà¦¬
à¦īà¦°à¦¤ à¦¨à¦ľ
à¦Łà¦¬à¦² à¦Ł
Ġà¦ĸà¦² à¦ĸà¦²
Ġà¦īà¦ĩ à¦£
Ġà¦¶à¦°à§İ à¦¹
Ġà¦¸à¦« à¦²à¦¤
Ġà¦¨à¦ĵ à¦²à¦ķ
à¦·à¦¨ à¦ľà¦°
à¦·à§Ł à¦Ł
Ġà¦¡à¦ľà¦¨ à¦ĸ
Ġà¦ľà¦Ĺà§İ à¦ªà¦¤
Ġà¦ªà¦¬à¦¨ à¦ķ
Ġà¦®à¦¨à¦ķ à¦·
à¦ıà¦® à¦ıà¦¸
à¦¤à¦ļ à¦°à¦¦
Ġà¦¨à¦°à¦ķ à¦ķ
à¦¨à¦Ĩ à¦¤
à¦¨à¦Ĩ à¦ľ
à¦¨à¦Ĩ à¦Ĺ
à¦¨à¦ªà¦¤ à¦¨
à¦¡à¦ī à¦ĩà¦²
à¦ļà¦°à¦£ à¦¶
à¦²à¦Ĩ à¦¯
à¦²à¦Ĩ à¦ĩ
à¦²à¦Ĩ à¦¬à¦¡
Ġà¦¬à¦¶ à¦¬à¦°
Ġà¦®à¦°à¦¦ à¦ķ
à¦¦à§Ł à¦¬
Ġà¦ľà¦¬à¦° à¦ľ
Ġà¦ĺà§ľ à¦ĺà§ľ
Ġà¦¤à¦ªà¦¸ à¦¦
Ġà¦Ĭà¦¨ à¦ļà¦²
à¦¡à¦īà¦ĩà¦ļ à¦Ĺ
Ġà¦ıà¦§ à¦°à¦¨
Ġà¦ıà¦®à¦ı à¦¸à¦¸
ĠĠĠĠ ĠĠ
ĠĠĠĠ ĠĠĠĠ
ĠĠĠĠ ĠĠĠ
Ġà¦ªà¦ª à¦ķà¦°
Ġà¦ľà¦²à¦ķ à¦·
Ġà¦¬à¦²à¦²à¦Ĳ à¦¦
Ġà¦Łà¦Ļ à¦¸
à¦Ĩà¦ļ à¦®à¦ķ
Ġà§© à§¦à§¨à§¨
à§Ń à§¨
Ġà¦¬à§Ł à¦«
Ġà§§à§¯à§®à§ §
Ġà§§à§¯à§®à§ ¨
Ġà§§à§¯à§®à§ ©
Ġà§§à§¯à§®à§ «
Ġà§§à§¯à§®à§ ¬
Ġà¦¬à¦°à¦¬ à¦Ł
Ġà¦¥à¦ĩ à¦¥à¦ĩ
à¦Ĩà¦¤ à¦Ļ
Ġà¦¢à¦ķ à¦¢à¦ķ
Ġà¦ªà¦¥à¦ļ à¦²à¦¤
à¦¨à¦ħ à¦¬à¦¶
à¦¨à¦ħ à¦ªà¦®
à¦®à¦Ĩ à§Ł
Ġà¦¦à¦ĩ à¦ĩà¦²
à¦ĸà¦§ à¦¬à¦¨
Ġà¦Łà¦¹à¦² à¦¦
Ġà§Ń à§¦
Ġà§Ń à§®à§
Ġà§§à§¦ à§¦
à¦¤à¦Ĩ à¦Łà¦ľà¦¨
à¦¹à¦®à¦¨ à¦¹
à¦Ĺà¦²à¦¨ à¦°à¦°
Ġà§¨à§¦à§¦à§ ª
Ġà¦®à¦Ł à¦°à¦¦
Ġà¦ħà¦ķà¦² à¦Ļ
Ġà¦ĸà¦¨à¦¨ à¦ķ
Ġà¦Ĳà¦°à¦ķà¦® à¦ĩ
Ġà§§à§¯à§Ń à§¦
Ġà§§à§¯à§Ń à§§
Ġà§§à§¯à§§à§ §
Ġà§§à§¯à§§à§ ¯
Ġà§§à§¯à§§à§ ªà§§à§®
à¦Ĭ à¦°
à¦¯à¦Łà¦ķ à¦¦
à¦®à¦ľà¦¨ à¦°
Ġà¦¹à¦°à¦¬ à¦ķà¦¤
Ġà§§à§®à§ ¯à§©
Ġà¦ıà¦«à¦Ĩà¦° à¦Ĩà¦ĩà¦ıà¦°
Ġà¦Ĩà¦īà¦¶ à¦§
Ġà§¨à§¦à§§à§ ¦
à¦²à¦§à¦¨ à¦·
à¦ķà¦¸à¦¬ à¦ľ
Ġà¦Ńà¦¨ à¦Ńà¦¨
Ġà¦ªà¦¦à¦¸ à¦ŀ
à¦ķà¦¸à¦² à¦¸
à¦¬à§İà¦¸ à¦²
à¦¡à¦ı à¦ľ
Ġà¦ľà¦ĸ à¦®à¦Ł
Ġà¦ľà¦ĸ à¦®à¦ĵ
Ġà¦Ĩà¦Łà¦¦à¦¶ à¦ľà¦¨
Ġà§§à§¯à§¯à§ §
à¦°à¦Ĺà¦² à¦Ń
à¦ĩà¦· à¦·
à¦¶à¦ı à¦ķà¦¶
Ġà¦īà¦Ń à¦ļà¦°
Ġà¦Ŀà¦² à¦Ŀà¦²
Ġà§¯à§« à§Ń
Ġà¦Ĩà¦Łà¦¦ à¦¶à¦Ł
à¦Ĺà¦Łà¦Ĺà¦¬ à¦Ĺà¦Łà¦Ĺà¦¬
Ġà§ªà§« à§©
à§ĩà§į à¦ģ
à¦ķà¦¨à¦² à¦ľ
à¦¤à¦ı à¦¯
Ġà¦¬à¦ľà¦¬ à¦ľ
à¦Łà¦²à¦¬ à¦£
Ġà¦Ĩà¦ĵà¦° à¦Ļ
à¦ĩà¦ħ à¦ķ
Ġà¦ıà¦ĺ à¦°à¦ĵà¦ĺà¦°
à¦¦à¦¨à¦¨ à¦Ĺà¦°
à¦¦à¦ħà¦ª à¦Ľà¦¨
Ġà¦ľà¦ªà¦¤ à¦ª
Ġà¦ľà¦ĵà¦¹ à¦°à¦²
Ġà¦¶à¦¤à¦¦ à¦²à¦ķ
Ġà¦Ľà¦ªà¦Ľ à¦ª
Ġà¦²à¦ī à¦Ľ
Ġà¦«à¦ķà¦« à¦ķ
Ġà¦Łà¦¨à¦Ł à¦®
à¦ĺà¦Ĭ à¦ķ
Ġà§§à§¯à§¨à§ ¯
