{"[PAD]":0,"[UNK]":1,"[CLS]":2,"[SEP]":3,"!":4,"\"":5,"#":6,"$":7,"%":8,"&":9,"'":10,"(":11,")":12,"*":13,"+":14,",":15,"-":16,".":17,"/":18,"0":19,"1":20,"2":21,"3":22,"4":23,"5":24,"6":25,"7":26,"8":27,"9":28,":":29,";":30,"<":31,"=":32,">":33,"?":34,"@":35,"A":36,"B":37,"C":38,"D":39,"E":40,"F":41,"G":42,"H":43,"I":44,"J":45,"K":46,"L":47,"M":48,"N":49,"O":50,"P":51,"Q":52,"R":53,"S":54,"T":55,"U":56,"V":57,"W":58,"X":59,"Y":60,"Z":61,"[":62,"\\":63,"]":64,"^":65,"_":66,"`":67,"a":68,"b":69,"c":70,"d":71,"e":72,"f":73,"g":74,"h":75,"i":76,"j":77,"k":78,"l":79,"m":80,"n":81,"o":82,"p":83,"q":84,"r":85,"s":86,"t":87,"u":88,"v":89,"w":90,"x":91,"y":92,"z":93,"{":94,"|":95,"}":96,"~":97,"¡":98,"¢":99,"£":100,"¤":101,"¥":102,"¦":103,"§":104,"¨":105,"©":106,"ª":107,"«":108,"¬":109,"®":110,"¯":111,"°":112,"±":113,"²":114,"³":115,"´":116,"µ":117,"¶":118,"·":119,"¸":120,"¹":121,"º":122,"»":123,"¼":124,"½":125,"¾":126,"¿":127,"À":128,"Á":129,"Â":130,"Ã":131,"Ä":132,"Å":133,"Æ":134,"Ç":135,"È":136,"É":137,"Ê":138,"Ë":139,"Ì":140,"Í":141,"Î":142,"Ï":143,"Ð":144,"Ñ":145,"Ò":146,"Ó":147,"Ô":148,"Õ":149,"Ö":150,"×":151,"Ø":152,"Ù":153,"Ú":154,"Û":155,"Ü":156,"Ý":157,"Þ":158,"ß":159,"à":160,"á":161,"â":162,"ã":163,"ä":164,"å":165,"æ":166,"ç":167,"è":168,"é":169,"ê":170,"ë":171,"ì":172,"í":173,"î":174,"ï":175,"ð":176,"ñ":177,"ò":178,"ó":179,"ô":180,"õ":181,"ö":182,"÷":183,"ø":184,"ù":185,"ú":186,"û":187,"ü":188,"ý":189,"þ":190,"ÿ":191,"Ā":192,"ā":193,"Ă":194,"ă":195,"Ą":196,"ą":197,"Ć":198,"ć":199,"Ĉ":200,"ĉ":201,"Ċ":202,"ċ":203,"Č":204,"č":205,"Ď":206,"ď":207,"Đ":208,"đ":209,"Ē":210,"ē":211,"Ĕ":212,"ĕ":213,"Ė":214,"ė":215,"Ę":216,"ę":217,"Ě":218,"ě":219,"Ĝ":220,"ĝ":221,"Ğ":222,"ğ":223,"Ġ":224,"ġ":225,"Ģ":226,"ģ":227,"Ĥ":228,"ĥ":229,"Ħ":230,"ħ":231,"Ĩ":232,"ĩ":233,"Ī":234,"ī":235,"Ĭ":236,"ĭ":237,"Į":238,"į":239,"İ":240,"ı":241,"Ĳ":242,"ĳ":243,"Ĵ":244,"ĵ":245,"Ķ":246,"ķ":247,"ĸ":248,"Ĺ":249,"ĺ":250,"Ļ":251,"ļ":252,"Ľ":253,"ľ":254,"Ŀ":255,"ŀ":256,"Ł":257,"ł":258,"Ń":259,"à¦":260,"Ġà¦":261,"à§":262,"à¦¾":263,"à§ĩ":264,"à¦°":265,"à¦¿":266,"à§į":267,"à¦¨":268,"à¦²":269,"à¦ķ":270,"à¦¯":271,"à¦¼":272,"à¦¤":273,"à§ģ":274,"Ġà¦ķ":275,"à¦®":276,"à¦¬":277,"Ġà¦¬":278,"à§ĭ":279,"à¦Ł":280,"Ġà¦Ĩ":281,"à¦¸":282,"Ġà¦¸":283,"Ġà¦ª":284,"à¦Ľ":285,"à¦ĩ":286,"Ġà¦¨":287,"Ġà¦¦":288,"Ġà¦ı":289,"Ġà¦¤":290,"Ġà¦®":291,"à¦¼à§ĩ":292,"à¦¦":293,"Ġà¦¹":294,"à¦ª":295,"à¦ĸ":296,"à¦¡":297,"à¦ľ":298,"à§Ģ":299,"Ġà¦ķà¦°":300,"à¦Ĺ":301,"à¦¶":302,"Ġà¦¯":303,"Ġà¦ļ":304,"Ġà¦Ĺ":305,"à¦ļ":306,"Ġà¦Ĩà¦®":307,"Ġà¦ľ":308,"à¦ĵ":309,"Ġà¦¬à¦²":310,"Ġà¦ħ":311,"à¦ģ":312,"Ġà¦ıà¦ķ":313,"Ġà¦°":314,"à¦¥":315,"à¦¼à¦¾":316,"à¦§":317,"à¦·":318,"Ġà¦¶":319,"Ġà¦Ń":320,"à¦¹":321,"Ġà¦ĸ":322,"Ġà¦ĵ":323,"Ġà¦Ľ":324,"à¦£":325,"Ġà¦²":326,"à¦¾à¦ģ":327,"Ġà¦¥":328,"Ġà¦«":329,"Ġà¦¹à¦¯":330,"Ġà¦ī":331,"à§Ł":332,"à¦Ļ":333,"Ġà¦ıà¦ķà¦Ł":334,"à¦Ń":335,"à¦ł":336,"Ġà¦¬à¦²à¦²":337,"Ġà¦Ĩà¦°":338,"à¦¼à¦¿":339,"Ġà¦ĺ":340,"à¦ĸà¦¨":341,"à¦Ĥ":342,"Ġà¦Ł":343,"Ġà¦ªà¦°":344,"Ġà¦ħà¦¨":345,"à¦ªà¦°":346,"Ġà¦ıà¦ĩ":347,"à¦®à¦¨":348,"Ġà¦§":349,"Ġà¦Ĩà¦¸":350,"Ġà¦ķà¦¥":351,"à¦ī":352,"à§Ĥ":353,"Ġà¦¡":354,"à¦«":355,"à¦ªà¦¨":356,"Ġà¦¹à¦²":357,"Ġà¦®à¦¨":358,"Ġà¦¸à¦®":359,"à¦ľà¦¨":360,"Ġà¦Ĩà¦Ľ":361,"Ġà¦ªà¦¡":362,"à¦Ŀ":363,"à§ĥ":364,"à¦ŀ":365,"Ġà¦ıà¦¸":366,"Ġà¦ļà¦²":367,"à¦ĵà¦¯":368,"Ġà¦ĩ":369,"Ġà¦¸à¦¬":370,"Ġà¦Ĩà¦ªà¦¨":371,"Ġà¦¸à¦Ļ":372,"à¦°à¦ķ":373,"Ġà¦īà¦ł":374,"Ġà¦¹à¦¬":375,"Ġà¦ł":376,"Ġà¦¬à¦¸":377,"à§İ":378,"Ġà¦ķà¦°à¦¤":379,"à¦°à¦¤":380,"Ġà¦ľà¦¨":381,"Ġà¦ķà¦°à¦²":382,"Ġà¦ĵà¦°":383,"à§ľ":384,"Ġà¦®à¦¤":385,"Ġà¦Ŀ":386,"à¦°à¦¬":387,"Ġà¦ıà¦²":388,"Ġà¦ıà¦ĸà¦¨":389,"à¦ķà¦Ł":390,"Ġà¦§à¦°":391,"à¦¤à¦°":392,"à§Į":393,"à¦¬à¦°":394,"Ġà¦®à¦§":395,"Ġà¦ĺà¦°":396,"Ġà¦¬à¦¨":397,"à¦°à¦£":398,"Ġà¦Ĩà¦Ĺ":399,"à¦¬à¦¨":400,"Ġà¦¤à¦ĸà¦¨":401,"Ġà¦ıà¦¬":402,"Ġà¦Ĩà¦¬":403,"à¦¨à¦ĵ":404,"Ġà¦ħà¦¬":405,"Ġà¦Ĩà¦²":406,"à¦°à¦ªà¦°":407,"Ġà¦¢":408,"Ġà¦Ĩà¦ľ":409,"Ġà¦Ĺà¦²":410,"à¦ı":411,"à¦ĺ":412,"à¦°à¦®":413,"à§Ī":414,"Ġà¦¨à¦¯":415,"à¦ķà¦²":416,"à¦ĸà¦¤":417,"à¦·à¦£":418,"à¦¨à¦¤":419,"à¦Ĺà¦²":420,"à¦¿à¦Ĥ":421,"Ġà¦¬à¦¡":422,"Ġà¦Ĩà¦®à¦°":423,"à¦ķà¦°":424,"à¦ĸà¦²":425,"Ġà¦¸à¦®à¦¯":426,"à¦²à¦ķ":427,"Ġà¦ķà¦°à¦Ľ":428,"à§ģà¦ģ":429,"Ġà¦ķà¦°à¦¬":430,"Ġà¦¹à¦¤":431,"à§ĩà¦ģ":432,"Ġà¦¤à¦¬":433,"à¦°à¦²":434,"Ġà¦ıà¦¤":435,"à¦¬à¦²":436,"Ġà¦¸à¦¨":437,"à¦Ľà¦°":438,"Ġà¦ľà¦²":439,"Ġà¦ħà¦¸":440,"à§ĭà¦ģ":441,"à¦°à¦Ł":442,"Ġà¦¯à¦¦":443,"Ġà¦¬à¦Ľà¦°":444,"à¦ĩà¦²":445,"à¦¦à¦°":446,"Ġà¦Ĩà¦¶":447,"Ġà¦¬à¦²à¦¤":448,"à¦¶à¦¨":449,"Ġà¦ķà¦¤":450,"Ġà¦ıà¦®à¦¨":451,"Ġà¦ıà¦ĸ":452,"à¦Ĩ":453,"à¦ķà¦¤":454,"à¦®à¦²":455,"à¦¨à¦Ł":456,"Ġà¦¸à¦°":457,"Ġà¦īà¦łà¦²":458,"Ġà¦¹à¦ļ":459,"à¦ĥ":460,"à¦°à¦ľ":461,"Ġà¦ĵà¦ªà¦°":462,"Ġà¦Ĩà¦¨":463,"à¦¹à¦²":464,"Ġà¦°à¦ķ":465,"à¦Ľà¦¨":466,"à¦¼à§ĭ":467,"à¦®à¦¤":468,"à¦ĩà¦¨":469,"à¦ªà¦¤":470,"Ġà¦¬à¦²à¦Ľ":471,"Ġà¦ĵà¦ĩ":472,"Ġà¦¹à§Ł":473,"à¦°à¦¥":474,"Ġà¦¸à¦¤":475,"à¦ĩà¦°":476,"Ġà¦¯à¦ĸà¦¨":477,"à¦¾à¦Ĥ":478,"à¦°à¦¸":479,"à¦®à¦°":480,"à¦°à¦¥à¦®":481,"Ġà¦ıà¦ķà¦ľà¦¨":482,"Ġà¦ķà¦ĸà¦¨":483,"à¦¯à¦¬":484,"à¦°à¦ĵ":485,"Ġà¦ıà¦Ĺ":486,"à¦²à¦¬":487,"Ġà¦®à¦¹":488,"Ġà¦ħà¦Ń":489,"Ġà¦¦à¦°à¦ľ":490,"Ġà¦ıà¦Ł":491,"à¦°à¦¦":492,"à¦ķà¦¬":493,"Ġà¦ĵà¦¦":494,"à¦°à¦ķà¦®":495,"Ġà¦¶à¦¬":496,"à¦®à¦ķ":497,"Ġà¦¹à¦ł":498,"Ġà¦¶à¦°":499,"Ġà¦ķà¦¯":500,"à¦°à¦ĩ":501,"à¦¸à¦¬":502,"Ġà¦Ľà¦¬":503,"Ġà¦īà¦ªà¦°":504,"Ġà¦ħà¦¤":505,"Ġà¦ķà¦®":506,"Ġà¦īà¦ª":507,"à¦°à¦¶":508,"à¦¬à¦¤":509,"à¦®à¦¯":510,"Ġà¦Ĩà¦ķ":511,"à¦²à¦¤":512,"Ġà¦ıà¦ķà¦¦":513,"Ġà¦ķà¦²":514,"à¦¨à¦¨":515,"Ġà¦¬à¦ī":516,"Ġà¦¬à¦¯":517,"Ġà¦¬à¦°":518,"Ġà¦ıà¦ķà¦¬":519,"Ġà¦ĩà¦¨":520,"Ġà¦ħà¦ª":521,"Ġà¦ªà¦¥":522,"à¦¯à¦¨":523,"à¦°à¦Ľ":524,"Ġà¦ıà¦°":525,"à¦ĩà¦ķ":526,"à¦¹à¦°":527,"Ġà¦Ĩà¦¸à¦Ľ":528,"à¦ļà¦¯":529,"à¦¤à¦¨":530,"à¦ĸà¦Ľ":531,"Ġà¦ĵà¦ķ":532,"à¦ĩà¦¯":533,"à¦¤à¦²":534,"à¦¨à¦¬":535,"à¦Ŀà¦¤":536,"à¦Łà¦ķ":537,"Ġà¦ķà¦¬":538,"Ġà¦ħà¦°":539,"Ġà¦Ńà¦¯":540,"à¦ªà¦¦":541,"Ġà¦īà¦¨":542,"à¦²à¦Ł":543,"à¦¨à¦²":544,"à¦²à¦²":545,"Ġà¦ħà¦®":546,"à¦¨à¦ķ":547,"Ġà¦Ńà¦¦":548,"à¦¬à¦ª":549,"Ġà¦ĩà¦ļ":550,"Ġà¦Ĩà¦¸à¦¤":551,"à¦¦à¦¨":552,"à§İà¦¸":553,"Ġà¦¸à¦ķ":554,"Ġà¦ĺà¦Ł":555,"Ġà¦ĸà¦¬à¦°":556,"à¦ĩà¦Ł":557,"Ġà¦ħà¦«":558,"Ġà¦īà¦¤":559,"Ġà¦Ĩà¦¸à¦¬":560,"à¦Ńà¦¬":561,"Ġà¦¦à¦°à¦ķ":562,"Ġà¦īà¦¦":563,"Ġà¦Ĳ":564,"Ġà¦ĵà¦ł":565,"Ġà¦¯à¦¤":566,"à¦°à¦¨":567,"Ġà¦¦à¦¶":568,"à§İà¦ķ":569,"à¦ļà¦°":570,"à¦°à¦¹":571,"à¦Ĺà¦¤":572,"Ġà¦°à¦¯":573,"Ġà¦¬à¦²à¦¬":574,"à¦¤à¦¬":575,"à¦§à¦ķ":576,"à¦ĸà¦¬":577,"à§Įà¦ģ":578,"Ġà¦Ĩà¦°à¦ĵ":579,"Ġà¦Ŀà¦¨":580,"à¦Ĺà¦ľ":581,"à¦¸à¦¤":582,"Ġà¦¨à¦¦":583,"Ġà¦®à¦°":584,"Ġà¦ıà¦ĸà¦¨à¦ĵ":585,"Ġà¦¸à¦¹":586,"à¦¸à¦²":587,"Ġà¦¨à¦¤":588,"Ġà¦Ńà¦°":589,"Ġà¦²à¦ķ":590,"à¦°à¦ļ":591,"Ġà¦Ĩà¦ļ":592,"à¦¸à¦°":593,"à¦¸à¦¨":594,"Ġà¦ķà¦²à¦ķ":595,"à¦®à¦Ł":596,"Ġà¦°à¦ķà¦®":597,"Ġà¦ķà¦ĸà¦¨à¦ĵ":598,"Ġà¦¸à¦®à¦¸":599,"à¦ªà¦¡":600,"Ġà¦ıà¦¨":601,"à¦Łà¦°":602,"Ġà¦Ĩà¦¡":603,"à¦°à¦ª":604,"Ġà¦¤à¦²":605,"Ġà¦ªà§ľ":606,"à¦¿à¦ģ":607,"à¦¯à¦¬à¦¸":608,"à¦ķà¦¦":609,"à¦ļà¦¨":610,"Ġà¦ĵà¦ĸ":611,"Ġà¦¶à¦¹à¦°":612,"à¦¤à¦ķ":613,"Ġà¦ħà¦¬à¦¸":614,"à¦ĺà¦°":615,"à¦Łà¦¤":616,"Ġà¦Ĩà¦¤":617,"Ġà¦°à¦Ļ":618,"à¦¥à¦°":619,"à¦Ŀà¦²":620,"à¦²à¦¨":621,"à¦ªà¦Ł":622,"Ġà¦ħà¦¥":623,"à¦¨à¦¸":624,"à¦ľà¦°":625,"Ġà¦«à¦²":626,"Ġà¦ıà¦¦":627,"Ġà¦ªà¦ķ":628,"Ġà¦ªà¦¦":629,"Ġà¦ľà¦®":630,"à¦ĩà¦¬":631,"Ġà¦ħà¦¦":632,"à¦īà¦¨":633,"Ġà¦ĩà¦¤":634,"à¦¦à¦²":635,"Ġà¦°à¦ĩà¦²":636,"Ġà¦¬à¦ĩ":637,"Ġà¦¬à¦¸à¦²":638,"à¦ıà¦°":639,"Ġà¦ľà¦¬":640,"à¦ķà¦ķ":641,"à¦ļà¦²":642,"Ġà¦ħà¦¬à¦¶":643,"à¦Ĺà¦°":644,"à¦ĵà§Ł":645,"à¦¸à¦Ł":646,"Ġà¦Ĩà¦¸à¦²":647,"Ġà¦ıà¦¸à¦¬":648,"à¦ķà¦¨":649,"à¦¤à¦®":650,"à¦¬à¦¸":651,"à¦¨à¦¦":652,"à¦Ĩà¦®":653,"Ġà¦¦à¦²":654,"à¦¹à¦¨":655,"à¦Ĺà¦Ľ":656,"à¦¸à¦ķ":657,"à¦ħ":658,"Ġà¦¯à¦¨":659,"Ġà¦ļà¦¡":660,"à¦¸à¦Ļ":661,"Ġà¦īà¦ļ":662,"à¦ĩà¦¤":663,"à¦°à¦¯":664,"à¦Łà¦²":665,"à¦¿à¦ĥ":666,"Ġà¦¹à¦°":667,"Ġà¦Ĺà¦¨":668,"à¦¯à¦ķ":669,"à§ģà¦ĥ":670,"Ġà¦ľà¦¡":671,"Ġà¦ķà¦·":672,"Ġà¦Ĩà¦¯":673,"à¦ļà¦ķ":674,"Ġà¦Ĩà¦¦":675,"à¦¸à¦ª":676,"à¦ľà¦²":677,"Ġà¦°à¦¬":678,"Ġà¦¶à¦ķ":679,"à¦®à¦¸":680,"Ġà¦Ĺà¦°":681,"Ġà¦Ĩà¦¨à¦¨":682,"à¦Łà¦Ł":683,"Ġà¦¹à¦ĵà¦¯":684,"à¦Ĺà¦¬":685,"Ġà¦ĵà¦Ł":686,"à¦ķà¦ľà¦¨":687,"Ġà¦Ĩà¦§":688,"Ġà¦ļà¦²à¦²":689,"à¦¤à¦¤":690,"Ġà¦¸à¦ķà¦²":691,"à¦§à¦¨":692,"Ġà¦¤à¦°":693,"à¦¹à¦¯":694,"Ġà¦Ĩà¦ľà¦ķ":695,"Ġà¦ķà¦ª":696,"Ġà¦ĵà¦¯":697,"à¦¤à¦Ł":698,"Ġà¦¬à¦¹":699,"à¦®à¦¬":700,"à¦¹à¦¸":701,"à¦īà¦ķ":702,"Ġà¦īà¦¡":703,"Ġà¦ħà¦¥à¦ļ":704,"à¦®à¦£":705,"Ġà¦ĺà¦£":706,"à¦ªà¦ķ":707,"à¦²à¦®":708,"à¦¯à¦¸":709,"Ġà¦ĺà¦¨":710,"à¦¶à¦¬":711,"à¦§à¦¬":712,"Ġà¦ªà¦¯":713,"Ġà¦Ĩà¦Ļ":714,"Ġà¦ĺà¦Łà¦¨":715,"Ġà¦Ĺà¦¤":716,"à¦¯à¦°":717,"à¦§à¦¹à¦¯":718,"Ġà¦ħà¦§":719,"Ġà¦ħà¦²":720,"à¦ľà¦¤":721,"Ġà¦ħà¦ªà¦°":722,"à¦ķà¦¶":723,"Ġà¦®à¦¶":724,"à¦ľà¦Ł":725,"à¦¾à¦ĥ":726,"à¦ľà¦¬":727,"à¦Ĺà¦¨":728,"à¦¨à¦ľà¦¨":729,"à¦ªà¦¸":730,"Ġà¦°à¦¸":731,"Ġà¦²à¦®":732,"à¦°à¦Ń":733,"à¦¯à¦¤":734,"Ġà¦ķà¦¨":735,"Ġà¦ıà¦°à¦ķà¦®":736,"Ġà¦Ľà¦¡":737,"à¦¬à¦ķ":738,"Ġà¦Ĺà¦¡":739,"à¦²à¦Ĺ":740,"à¦¼à§Ģ":741,"à¦·à¦¤":742,"à¦¶à¦ķ":743,"Ġà¦ķà¦Ł":744,"à¦¨à¦ĩ":745,"Ġà¦ıà¦ķà¦ĩ":746,"à¦¢":747,"à¦°à¦ĸ":748,"à¦®à¦¡":749,"Ġà¦ļà¦®à¦ķ":750,"Ġà¦¸à¦°à¦ķ":751,"Ġà¦ªà¦Ľà¦¨":752,"Ġà¦ľà¦¯":753,"à¦¤à¦ª":754,"Ġà¦¬à¦¦à¦²":755,"à¦īà¦Ł":756,"Ġà¦ªà¦ŀ":757,"à¦ĩà¦®":758,"à¦ľà¦ķ":759,"à¦ĩà¦Ľ":760,"Ġà¦ķà¦®à¦²":761,"Ġà¦ħà¦ľ":762,"Ġà¦§à¦°à¦²":763,"à¦¸à¦®à¦¯":764,"Ġà¦ĩà¦¯":765,"Ġà¦¬à¦ķ":766,"à¦¼à§ģ":767,"Ġà¦Ĩà¦ĩ":768,"à¦ľà¦®":769,"à¦¸à¦®":770,"à¦¬à¦Ľ":771,"Ġà¦²à¦¤":772,"à¦Łà¦®":773,"Ġà¦«à¦Ł":774,"à¦§à¦°":775,"à¦ĩà¦Ń":776,"Ġà¦²à¦¡":777,"Ġà¦ħà¦¶":778,"Ġà¦¤à¦ĸà¦¨à¦ĩ":779,"à¦Łà¦¬":780,"Ġà¦¨à¦¨":781,"à¦²à¦¯":782,"à¦²à¦¸":783,"Ġà¦Ĩà¦¹":784,"à¦¯à¦¦":785,"Ġà¦īà¦łà¦¤":786,"Ġà¦¬à§ľ":787,"Ġà¦Ĩà¦ª":788,"à¦ªà¦·":789,"à¦¬à¦¬":790,"Ġà¦ļà¦¨":791,"Ġà¦¨à¦®":792,"Ġà¦ķà¦¦":793,"Ġà¦ıà¦ķà¦®":794,"Ġà¦ĵà¦·":795,"Ġà¦īà¦²":796,"Ġà¦§à¦¨":797,"Ġà¦®à¦¦":798,"à¦ķà¦¡":799,"à¦Łà¦¨":800,"Ġà¦¬à¦īà¦¦":801,"à¦°à¦°":802,"à¦®à¦¶":803,"à¦¬à¦ĩ":804,"Ġà¦²à¦ľ":805,"à¦°à¦Ĺ":806,"à¦²à¦Ľ":807,"à¦¬à¦£":808,"à¦¤à¦¦":809,"Ġà§":810,"à¦ķà¦ĩ":811,"Ġà¦ļà¦ķ":812,"à¦Ĺà¦¡":813,"Ġà¦Ĺà¦®":814,"Ġà¦ľà¦°":815,"Ġà¦ļà¦²à¦Ľ":816,"à¦¬à¦Ł":817,"Ġà¦ħà¦ķ":818,"Ġà¦¸à¦¬à¦ļ":819,"Ġà¦ªà¦¤":820,"Ġà¦®à¦ľ":821,"Ġà¦¬à¦Ł":822,"Ġà¦°à¦ŀ":823,"Ġà¦Ĺà¦Ń":824,"à¦¯à¦¬à¦¹":825,"Ġà¦Ĩà¦ªà¦¤":826,"Ġà¦®à¦¸":827,"à¦ļà¦Ł":828,"à¦·à¦ķ":829,"à¦·à¦Ł":830,"à¦ĸà¦Ł":831,"à¦¶à¦Ł":832,"à¦ĵà¦¨":833,"Ġà¦ªà¦¨":834,"à¦¡à¦²":835,"Ġà¦¸à¦®à§Ł":836,"à¦¯à¦ĩ":837,"à¦·à¦¯":838,"à¦ķà¦Ľ":839,"Ġà¦¹à¦¨":840,"Ġà¦ĩà¦²":841,"à¦¨à¦¯":842,"à¦¨à¦°":843,"Ġà¦¨à¦¡":844,"à¦Ŀà¦ĸ":845,"à¦²à¦ª":846,"Ġà¦«à¦°":847,"à¦¬à¦¡":848,"Ġà¦¨à§Ł":849,"à¦«à¦Ł":850,"Ġà¦ļà¦²à¦¤":851,"Ġà¦¸à¦¹à¦ľ":852,"à¦¨à¦Ĺ":853,"Ġà¦ķà¦£":854,"Ġà¦ĵà¦ª":855,"Ġà¦¸à¦¬à¦ĩ":856,"Ġà¦¨à¦ķ":857,"Ġà¦ĸà¦°à¦ļ":858,"à¦ıà¦ķà¦Ł":859,"à¦¬à¦¶":860,"Ġà¦ĩà¦¸":861,"à¦ıà¦ĩ":862,"Ġà¦ħà¦Ļ":863,"à¦ĵà¦°":864,"à¦¨à¦®":865,"Ġà¦Ī":866,"Ġà¦ªà¦¶":867,"Ġà¦ħà¦®à¦²":868,"à¦°à¦«":869,"Ġà¦Ńà¦¬":870,"Ġà¦§à¦°à¦¨":871,"Ġà¦ľà¦Ļ":872,"Ġà¦¦à¦°":873,"Ġà¦ķà¦«":874,"Ġà¦Ĺà¦£":875,"à¦ĩà¦ª":876,"à¦°à¦®à¦¶":877,"Ġà¦ıà¦¤à¦ķ":878,"à¦ĩà¦¸":879,"Ġà¦¶à¦¤":880,"Ġà¦Ĺà¦°à¦®":881,"Ġà¦ıà¦ķà¦¸à¦Ļ":882,"à¦ľà¦¨à¦ķ":883,"à¦²à¦Ń":884,"à¦ĩà¦ľ":885,"Ġà¦·":886,"Ġà¦¤à¦ĸà¦¨à¦ĵ":887,"Ġà¦®à¦²":888,"Ġà¦¬à¦¸à¦¤":889,"Ġà¦ħà¦¸à¦®":890,"à¦Łà¦Ľ":891,"Ġà¦°à¦¤":892,"à¦ķà¦¸":893,"à¦®à¦ª":894,"à¦¬à¦¦":895,"à¦¨à¦Ľ":896,"à¦²à¦ĩ":897,"Ġà¦ļà¦Ł":898,"Ġà¦ħà¦¬à¦§":899,"à¦¦à¦Ł":900,"Ġà¦ĺà¦°à¦Ł":901,"à¦®à¦§":902,"à¦ķà¦¶à¦¨":903,"Ġà¦ıà¦®":904,"Ġà¦ĺà¦¡":905,"Ġà¦ıà¦¤à¦¦":906,"à¦¯à¦¥":907,"Ġà¦ıà¦Ń":908,"à¦¯à¦Ł":909,"Ġà¦¤à¦¥":910,"Ġà¦®à¦£":911,"Ġà¦ªà¦°à¦¨":912,"Ġà¦ļà¦²à¦¬":913,"Ġà¦¹à¦ĩ":914,"Ġà¦Ĩà¦Łà¦ķ":915,"à¦«à¦°":916,"Ġà¦ħà¦®à¦¨":917,"à¦ıà¦ķ":918,"à¦¬à¦²à¦Ľ":919,"Ġà¦ıà¦ķà¦¦à¦®":920,"Ġà¦ļà¦°":921,"à¦·à¦®":922,"Ġà¦¨à¦Ł":923,"Ġà¦ĩà¦ī":924,"à¦ķà¦Ĺ":925,"à¦ªà¦ļ":926,"Ġà¦īà¦łà¦Ľ":927,"Ġà¦¯à¦¥":928,"à¦°à¦¹à¦°":929,"Ġà¦Ĩà¦Ł":930,"à¦ľà¦Ĺ":931,"Ġà¦Ľà¦Ł":932,"Ġà¦¨à¦ľà¦°":933,"Ġà¦¤à¦¤":934,"à¦ľà¦¯":935,"Ġà¦ľà§Ł":936,"Ġà¦Ŀà¦°":937,"Ġà¦¦à¦ķ":938,"à¦Ńà¦°":939,"à¦īà¦¸":940,"à¦®à¦¦":941,"à¦¸à¦¦":942,"à¦·à¦®à¦¤":943,"à¦®à¦Ĺ":944,"à¦ļà¦¡":945,"Ġà¦Ĩà¦ĵà¦¯":946,"à¦Ľà¦²":947,"Ġà¦Ńà¦Ļ":948,"Ġà¦ªà¦²":949,"à¦¶à¦¯":950,"Ġà¦ĵà¦¸à¦¬":951,"Ġà¦ļà¦®":952,"Ġà¦¶à¦Ļ":953,"Ġà¦¨à¦·":954,"à¦¸à¦«":955,"Ġà¦Ĩà¦²à¦®":956,"à¦ľà¦¦":957,"à¦¬à¦Ń":958,"Ġà¦§à¦°à¦¤":959,"§à§":960,"à¦²à¦¦":961,"à¦ĩà¦¶":962,"Ġà¦ħà¦ŀ":963,"à§Łà¦¸":964,"Ġà¦ªà¦°à¦¦":965,"Ġà¦ıà¦ĩà¦¸à¦¬":966,"à¦ĩà¦¡":967,"à¦§à¦¤":968,"à¦Ńà¦¨":969,"Ġà¦Ĩà¦¸à¦¨":970,"à¦¸à¦Ľ":971,"à¦ĩà¦«":972,"Ġà¦ıà¦ķà¦¸à¦®à¦¯":973,"à¦¥à¦¨":974,"à¦īà¦ľ":975,"Ġà¦¸à¦ª":976,"Ġà¦Ĩà¦¦à¦°":977,"Ġà¦īà§İ":978,"à¦Ĩà¦ªà¦¨":979,"à¦°à¦ľà¦¨":980,"à¦Łà¦¦":981,"à¦ªà¦£":982,"à¦¡à¦°":983,"Ġà¦ıà¦ķà¦¶":984,"Ġà¦¦à¦¡":985,"Ġà¦®à¦¦à¦¨":986,"à¦ļà§Ł":987,"Ġà¦°à¦ľà¦¤":988,"Ġà¦ĩà¦®":989,"à¦Ĩà¦°":990,"à¦®à¦Ľ":991,"à¦ªà¦²":992,"à¦°à¦ļà¦£":993,"à¦²à¦ļ":994,"Ġà¦ħà¦²à¦ķ":995,"Ġà¦ıà¦ķà¦²":996,"Ġà¦°à¦¹à¦¸":997,"Ġà¦¬à¦²à¦²à¦¤":998,"à¦®à¦¹":999,"Ġà¦¸à¦¦":1000,"Ġà¦īà¦łà¦¬":1001,"à¦ıà¦¬":1002,"Ġà¦Ĺà¦Ļ":1003,"Ġà¦ħà¦Ĺ":1004,"à¦¨à¦ª":1005,"à¦¨à¦ļ":1006,"à¦ķà¦ļ":1007,"Ġà¦ķà¦¡":1008,"à¦¬à¦§":1009,"Ġà¦¸à¦Ń":1010,"à¦Ĺà¦®":1011,"Ġà¦Ĩà¦¨à¦¤":1012,"Ġà¦¨à¦¬":1013,"Ġà¦¤à¦¤à¦ķ":1014,"Ġà¦®à¦¨à¦Ł":1015,"Ġà¦¦à¦¶à¦Ł":1016,"à¦Ľà¦Ł":1017,"Ġà¦Ĺà¦¬":1018,"à¦ĩà¦¦":1019,"Ġà¦ıà¦°à¦ªà¦°":1020,"à¦ľà¦Ľ":1021,"Ġà¦ļà¦¤":1022,"Ġà¦īà¦ªà¦ķ":1023,"Ġà¦ħà¦¥à¦¬":1024,"à¦¤à¦ľ":1025,"à¦¡à¦¨":1026,"à¦¶à¦®":1027,"Ġà¦Ńà¦ķ":1028,"à¦°à¦®à¦£":1029,"Ġà¦¦à¦¤":1030,"à¦ĵà¦¡":1031,"à¦°à¦§":1032,"Ġà¦¬à¦ĩà¦Ł":1033,"à¦Łà¦ª":1034,"à¦¦à¦¯":1035,"Ġà¦īà¦²à¦Ł":1036,"Ġà¦Ĩà¦°à¦®":1037,"Ġà¦ıà¦ĩà¦Ł":1038,"à§°":1039,"à¦¤à¦ĩ":1040,"à¦®à¦ļ":1041,"Ġà¦Ńà¦Ĺà¦¬":1042,"Ġà¦īà¦ľ":1043,"Ġà¦ħà¦¸à¦¹":1044,"à¦Ĺà¦Ł":1045,"à¦¼à¦Ĥ":1046,"à¦ľà¦¸":1047,"à¦·à¦°":1048,"Ġà¦īà¦°":1049,"à¦īà¦°":1050,"Ġà¦ķà¦¤à¦ķ":1051,"Ġà¦°à¦£":1052,"Ġà¦ĩà¦ľ":1053,"Ġà¦ļà¦®à§İà¦ķ":1054,"Ġà¦¨à¦°":1055,"Ġà¦¨à¦ĩà¦²":1056,"Ġà¦ªà¦£":1057,"Ġà¦¦à¦®":1058,"Ġà¦°à¦¨":1059,"à¦£à¦¤":1060,"Ġà¦ıà¦ĩà¦Ń":1061,"à¦¬à¦¯":1062,"Ġà¦ľà¦Ł":1063,"Ġà¦¬à¦¸à¦¬":1064,"à¦°à¦®à¦¹":1065,"à¦¯à¦®":1066,"Ġà¦®à¦¯":1067,"Ġà¦ħà¦¬à¦¨":1068,"à¦£à¦¬":1069,"Ġà¦ĩà¦ŀ":1070,"Ġà§§à§":1071,"à¦ķà¦®":1072,"à¦ĩà¦ļ":1073,"Ġà¦ıà¦®à¦¨à¦ķ":1074,"à¦°à¦¹à¦£":1075,"Ġà¦ľà¦Ĺ":1076,"Ġà¦ĵà¦¨":1077,"Ġà¦¸à¦®à¦°":1078,"Ġà¦ĩà¦Ł":1079,"Ġà¦Ĺà¦ľ":1080,"Ġà¦Ĺà¦ŀ":1081,"Ġà¦ĵà¦Ĺ":1082,"Ġà¦°à¦ĵà¦¨":1083,"Ġà¦īà§İà¦¸":1084,"à¦®à¦¨à¦¸":1085,"à¦ŀà¦¤":1086,"Ġà¦ĩà¦īà¦¨":1087,"à¦ķà¦¥":1088,"Ġà¦¸à¦ŀ":1089,"à¦ªà¦¥":1090,"à§Łà¦¨":1091,"Ġà¦Ŀà¦Ĺà¦¡":1092,"Ġà¦ķà¦ĩ":1093,"à¦¬à¦¹":1094,"Ġà¦®à¦ŀ":1095,"Ġà¦ħà¦Ł":1096,"Ġà¦ıà¦ķà¦ª":1097,"à¦§à¦Ł":1098,"à¦«à¦²":1099,"Ġà¦Ĩà¦ľà¦ĵ":1100,"à¦¨à¦Ń":1101,"Ġà¦ķà¦ł":1102,"à¦¦à¦¸":1103,"à¦ĸà¦¸":1104,"à¦ĸà¦ĸ":1105,"Ġà¦§à¦®à¦ķ":1106,"Ġà¦ķà¦¤à¦¦":1107,"à¦²à¦ľ":1108,"à¦ķà¦ĵ":1109,"Ġà¦¨à¦ĩ":1110,"à¦ªà¦Ľ":1111,"à¦¹à¦¨à¦¬":1112,"Ġà¦¥à¦®à¦ķ":1113,"Ġà¦ªà¦°à¦®":1114,"Ġà¦ħà¦Ńà¦¯":1115,"Ġà¦ªà§ľà¦²":1116,"à¦¦à¦®":1117,"à¦¥à¦ķ":1118,"Ġà¦¬à¦²à¦²à¦ķ":1119,"Ġà¦īà¦ªà¦¸":1120,"à¦ķà¦ı":1121,"Ġà¦¨à¦®à¦¸":1122,"à¦¦à¦ķ":1123,"à¦Łà¦«à¦°":1124,"Ġà¦ıà¦¡":1125,"à¦ļà¦¤":1126,"Ġà¦ĸà¦¸":1127,"Ġà¦ĵà¦¸":1128,"à¦īà¦¡":1129,"à¦Ľà¦¤":1130,"Ġà¦¯à¦®":1131,"Ġà¦ħà¦ļ":1132,"Ġà¦Ńà§Ł":1133,"Ġà¦ıà¦ĸà¦¨à¦ĩ":1134,"à¦Ĩà¦®à¦°":1135,"à¦ħà¦¨":1136,"à¦¨à¦¶":1137,"à¦¬à¦ľ":1138,"Ġà¦Ĩà¦Łà¦Ł":1139,"à¦¡à¦Ł":1140,"Ġà¦Ĩà¦¨à¦Ĺ":1141,"à¦²à¦ĵ":1142,"Ġà¦²à¦¨":1143,"à¦°à¦¬à¦²":1144,"à¦¨à¦¹":1145,"à¦ķà¦Ĩ":1146,"Ġà¦¬à¦ĩà¦¯":1147,"Ġà¦¸à¦¦à¦°":1148,"Ġà¦®à¦¡":1149,"à¦ľà¦ĩ":1150,"à¦Ĺà¦Ĺ":1151,"Ġà¦¶à¦¨":1152,"Ġà¦ªà¦°à¦ĩ":1153,"à¦¨à¦ĵà¦¦":1154,"Ġà¦ĩà¦¨à¦ľ":1155,"à¦ķà¦«":1156,"Ġà¦ķà¦ļ":1157,"à¦ĩà¦ĸ":1158,"à¦¥à¦¬":1159,"à¦·à¦¸":1160,"à¦£à¦¨":1161,"à¦Ŀà¦°":1162,"à¦¤à¦°à¦Ł":1163,"Ġà¦ħà¦ªà¦®":1164,"à¦Ĺà¦ľà¦Ł":1165,"Ġà¦Ĩà¦ł":1166,"à¦¦à¦Ľ":1167,"à¦īà¦¦":1168,"Ġà¦¬à¦īà¦®":1169,"Ġà¦Ĩà¦ļà¦®à¦ķ":1170,"à§¦":1171,"Ġà¦Ĩà¦ĺ":1172,"à¦¦à¦¶":1173,"à¦ªà¦®":1174,"à¦īà¦²":1175,"Ġà¦Ĩà¦ľà¦ĩ":1176,"Ġà¦¹à¦¤à¦Ń":1177,"à¦ķà¦ª":1178,"à¦Łà¦¸":1179,"à¦¦à¦¤":1180,"à¦ªà¦¯":1181,"à¦ļà¦ľà¦¨":1182,"à¦Ŀà¦¬":1183,"Ġà¦¸à¦¬à¦ķ":1184,"Ġà¦¦à¦²à¦ªà¦¤":1185,"Ġà¦¨à¦°à¦®":1186,"Ġà¦¬à§Łà¦¸":1187,"à¦Ľà¦Ĺ":1188,"à¦ĩà§Ł":1189,"Ġà¦ıà¦¯":1190,"Ġà¦ıà¦ľ":1191,"à¦Ĺà¦ļ":1192,"à¦¶à¦²":1193,"à¦¸à¦ĵ":1194,"à¦ĸà¦°":1195,"Ġà¦Ŀà¦¡":1196,"à¦ĺà¦¨":1197,"à¦ļà§Łà¦ĩ":1198,"Ġà¦Ĩà¦ķà¦°":1199,"Ġà¦Ĩà¦ĩà¦¨":1200,"à¦¸à¦¸":1201,"à¦¦à¦¬":1202,"Ġà¦¶à¦¯":1203,"Ġà¦ıà¦¤à¦Ł":1204,"Ġà¦¬à¦¬":1205,"Ġà¦°à¦®à¦£":1206,"Ġà¦¶à¦¹":1207,"à¦īà¦ĩ":1208,"à¦ĺà¦£":1209,"Ġà¦ħà¦¤à¦ıà¦¬":1210,"à¦¨à¦®à¦¯":1211,"à¦Łà¦ĸ":1212,"Ġà¦¨à¦°à¦°":1213,"Ġà¦¤à¦ª":1214,"à¦ĸà¦¬à¦°":1215,"à¦ļà¦¬":1216,"Ġà¦ıà¦ķà¦ĸ":1217,"Ġà¦Ľà¦¯":1218,"à¦Ļà¦²":1219,"Ġà¦¯à¦¤à¦ĩ":1220,"Ġà¦ªà¦°à¦¸":1221,"Ġà¦ĸà¦¬à¦°à¦Ł":1222,"Ġà¦Ĩà¦«":1223,"à¦ĸà¦ķ":1224,"à¦ľà¦ª":1225,"Ġà¦Ńà¦°à¦¸":1226,"à¦£à¦ķ":1227,"à¦ľà¦¨à¦¬":1228,"à¦ķà¦°à¦¬":1229,"à¦¬à¦ļ":1230,"Ġà¦¬à¦Ļ":1231,"Ġà¦ļà¦¶à¦®":1232,"à¦·à¦¦":1233,"Ġà¦¬à¦²à¦²à¦Ĩà¦®":1234,"à¦īà¦®":1235,"à¦¬à¦°à¦£":1236,"Ġà¦ľà¦²à¦¦à¦¸":1237,"à¦¤à¦¸":1238,"Ġà¦ħà¦°à¦£":1239,"à¦¹à¦¤":1240,"à§Łà¦Ĺ":1241,"Ġà¦ıà¦ĩà¦°à¦ķà¦®":1242,"Ġà¦ķà¦¤à¦Ł":1243,"à¦ķà¦Ĩà¦ª":1244,"Ġà¦ĭ":1245,"à§ĩà¦Ĥ":1246,"à¦ķà¦ł":1247,"à¦¬à¦ľà¦¨":1248,"à¦¸à¦¡":1249,"Ġà¦¦à¦¯":1250,"Ġà¦¤à¦«":1251,"à¦ªà¦Ĺ":1252,"à¦¶à¦°":1253,"Ġà¦ħà¦¹à¦¨":1254,"à¦¥à¦²":1255,"à¦Ńà¦¬à¦¤":1256,"Ġà¦ķà¦¦à¦®":1257,"Ġà¦Īà¦¶":1258,"Ġà¦Ĩà¦Ń":1259,"Ġà¦¤à¦¨":1260,"Ġà¦®à¦®à¦¤":1261,"Ġà¦¹à¦ķ":1262,"à¦ľà¦ķà¦°":1263,"à¦¶à¦¤":1264,"à¦¶à¦¦":1265,"Ġà¦ıà¦ķà¦¥":1266,"à¦·à¦ªà¦°":1267,"Ġà¦ĸà¦Ł":1268,"Ġà¦ĵà¦Ń":1269,"Ġà¦Ľà¦¨":1270,"Ġà¦¡à¦ķ":1271,"à¦°à¦¤à¦¬à¦°":1272,"Ġà¦¯à¦¤à¦Ł":1273,"Ġà¦Ĩà¦¹à¦¤":1274,"Ġà¦Ĭ":1275,"à¦ķà¦ĸ":1276,"à¦¯à¦ľ":1277,"à¦Ľà¦ª":1278,"à§Łà¦²":1279,"à¦īà¦¬":1280,"Ġà¦ĩà¦¶":1281,"Ġà¦¹à§Łà¦¤":1282,"à¦²à¦°":1283,"Ġà¦ķà¦ķ":1284,"à¦ĩà¦¸à¦¬":1285,"Ġà¦¤à¦ķ":1286,"à¦ĸà¦®à¦¯":1287,"Ġà¦¬à¦²à¦²à¦¬":1288,"Ġà¦Ĩà¦¨à¦²":1289,"à¦¤à¦§à¦¨":1290,"Ġà¦ıà¦ª":1291,"à¦ĵà¦²":1292,"Ġà¦ıà¦ķà¦ķ":1293,"Ġà¦¶à¦ĸ":1294,"Ġà¦īà¦ªà¦¨":1295,"Ġà¦¬à¦²à¦²à¦®":1296,"Ġà¦Ĩà¦²à¦¤":1297,"Ġà¦Ĩà¦²à¦«":1298,"Ġà¦ľà¦²à¦§à¦°":1299,"Ġà¦īà§İà¦¸à¦¬":1300,"à¦²à¦®à¦¨":1301,"à¦¯à¦ª":1302,"à¦¯à¦°à¦ķà¦®":1303,"Ġà¦ķà¦¬à¦°":1304,"à¦®à¦ĵ":1305,"à¦¬à¦Ľà¦°":1306,"à¦¦à¦ĺà¦°":1307,"Ġà¦ĵà¦¹":1308,"Ġà¦¬à¦²à¦²à¦ı":1309,"Ġà¦ªà¦°à¦ªà¦°":1310,"à¦īà¦¯":1311,"Ġà¦ĩà¦¨à¦¸":1312,"¯à§":1313,"Ġà¦ķà§Ł":1314,"Ġà¦Ŀà¦ķ":1315,"Ġà¦ıà¦ķà¦ľà¦¨à¦ķ":1316,"à¦¤à¦Ń":1317,"Ġà¦¸à¦°à¦²":1318,"à¦ĩà¦Ĺ":1319,"Ġà¦¤à¦°à¦ķ":1320,"Ġà¦ľà§ľ":1321,"à¦łà¦¸":1322,"Ġà¦¸à¦¬à¦¸à¦®à¦¯":1323,"à¦ķà¦Ń":1324,"à¦¯à¦®à¦¨à¦¸":1325,"à¦ĩà¦ĵ":1326,"Ġà¦¦à¦ĸà¦²":1327,"Ġà¦ıà¦£":1328,"à¦ľà¦Ļ":1329,"Ġà¦ıà¦ķà¦°à¦ķà¦®":1330,"Ġà¦ªà¦°à¦¤":1331,"à¦°à¦¸à¦¨":1332,"Ġà¦ļà¦ŀ":1333,"Ġà¦ľà¦Ĺà¦¤":1334,"Ġà¦ħà¦¯":1335,"Ġà¦ĵà¦¡":1336,"Ġà¦ĩà¦Ļ":1337,"Ġà¦¬à¦¸à¦¨":1338,"à¦ĺà¦Łà¦¨":1339,"Ġà¦Ĩà¦¨à¦¬":1340,"à¦²à¦«":1341,"Ġà¦¦à¦²à¦¨":1342,"Ġà¦Ĩà¦®à¦²":1343,"Ġà¦ªà¦°à¦¶":1344,"Ġà¦ħà¦¨à¦¨":1345,"à¦°à¦¬à¦°":1346,"à¦°à¦¸à¦Ļ":1347,"Ġà¦īà¦ªà¦¦":1348,"à¦¨à¦ĸ":1349,"Ġà¦ķà¦Ļ":1350,"Ġà¦¸à¦¸":1351,"à¦¼à¦¿à¦Ĥ":1352,"Ġà¦ªà¦Ł":1353,"Ġà¦¹à¦ĵ":1354,"à¦Ĺà¦¦":1355,"Ġà¦¶à¦¶":1356,"Ġà¦ĵà¦°à¦ķà¦®":1357,"à¦£à¦¦":1358,"Ġà¦īà¦ĩà¦²":1359,"Ġà¦¬à¦²à¦²à¦«":1360,"Ġà¦ıà¦ĩà¦¬":1361,"Ġà¦®à¦¨à¦¸":1362,"Ġà¦¸à¦¹à¦ª":1363,"Ġà¦¹à¦¤à¦Ńà¦®":1364,"ĠĠ":1365,"Ġà¦¸à¦°à¦®":1366,"à¦ĩà¦ıà¦°":1367,"à¦¶à¦ª":1368,"à¦ĵà¦¤":1369,"Ġà¦¬à¦²à¦²à¦Ń":1370,"Ġà¦®à¦¤à¦²à¦¬":1371,"à¦¬à¦²à¦¤":1372,"à¦¨à¦ı":1373,"à¦¯à¦®à¦¯":1374,"à¦®à¦°à¦£":1375,"à¦®à¦ķà¦°":1376,"Ġà¦¬à¦¦":1377,"Ġà¦¨à¦ķà¦¶":1378,"Ġà¦®à¦°à¦¤":1379,"à¦¡à¦ķ":1380,"à¦¡à¦®":1381,"Ġà¦ļà¦ĵà¦¡":1382,"Ġà¦ĺà¦·":1383,"à¦Ŀà¦ķ":1384,"à¦Ĩà¦¸":1385,"Ġà¦Ĩà¦§à¦ĸ":1386,"Ġà¦Ľà¦Łà¦«à¦Ł":1387,"à¦¨à¦¡à¦°":1388,"à¦¯à§İ":1389,"à¦¼à§į":1390,"Ġà¦¸à¦ĩ":1391,"à¦Ľà¦¬":1392,"à¦ĸà¦ªà¦¤":1393,"Ġà¦Ĺà¦¤à¦ķ":1394,"Ġà¦ªà¦°à¦ķ":1395,"à¦«à¦¦":1396,"Ġà¦Ĩà¦¬à¦Ľ":1397,"à¦ĺà¦¶":1398,"à¦°à§Ł":1399,"à¦Łà¦Ĺ":1400,"à¦ĩà¦¨à¦Ł":1401,"Ġà¦®à¦Ļ":1402,"Ġà¦¹à¦¦":1403,"Ġà¦¹à¦ĩà¦²":1404,"Ġà¦°à¦¤à¦¨":1405,"Ġà¦¶à¦®":1406,"Ġà¦¬à¦īà¦ķ":1407,"à¦®à¦ľ":1408,"Ġà¦¬à¦®":1409,"à¦¸à¦ªà¦¤":1410,"à¦¡à¦¸":1411,"à¦Ĺà¦£":1412,"à¦£à¦®":1413,"Ġà¦¥à¦²":1414,"Ġà¦īà¦ķ":1415,"Ġà¦ªà¦°à¦¬":1416,"à¦¨à¦¸à¦®":1417,"Ġà¦Ķ":1418,"à§Ĺ":1419,"à¦Łà¦«":1420,"à¦¹à¦®":1421,"Ġà¦ĵà¦¬":1422,"Ġà¦«à¦¨":1423,"Ġà¦«à¦°à¦¸":1424,"Ġà¦§à¦¡":1425,"à§İà¦ĩ":1426,"à¦°à¦¬à¦¤":1427,"Ġà¦ıà¦®à¦¨à¦ĩ":1428,"Ġà¦¹à§Łà¦¨":1429,"Ġà¦¯à¦¤à¦¦":1430,"à§ĩà§Ĺ":1431,"à¦°à¦ŀ":1432,"à¦¨à¦¡":1433,"à¦²à¦®à¦²":1434,"à¦¤à¦Ĺ":1435,"Ġà¦Ĺà¦¦":1436,"Ġà¦Ĩà¦®à¦¨":1437,"Ġà¦Ńà¦²":1438,"Ġà¦ĸà¦¦":1439,"à¦°à¦¤à¦°":1440,"Ġà¦ªà§ľà¦¤":1441,"Ġà¦ħà¦ľà¦¸":1442,"à¦¨à¦ĺà¦°":1443,"à¦²à¦¡":1444,"Ġà¦¸à¦ľ":1445,"Ġà¦¨à¦¸":1446,"Ġà¦¤à¦¤à¦¦":1447,"Ġà¦ļà§ľ":1448,"à¦¹à¦ķ":1449,"Ġà¦īà¦§":1450,"à§Łà¦¦":1451,"Ġà¦§à¦°à¦¬":1452,"Ġà¦¡à¦Ĺ":1453,"Ġà¦ĩà¦¦":1454,"Ġà¦łà¦ķ":1455,"Ġà¦ıà¦®à¦¨à¦Ń":1456,"Ġà¦ķà¦®à¦ª":1457,"Ġà¦Ĩà¦¤à¦Ļ":1458,"à¦¤à¦®à¦¶":1459,"Ġà¦Ĩà¦ĩà¦¡":1460,"Ġà§§à§¯à§":1461,"à¦®à¦ĩ":1462,"à¦ĩà¦ĩ":1463,"à¦ĸà¦ļ":1464,"à¦¡à¦¶":1465,"à¦Ĺà¦¸":1466,"Ġà¦Ĺà¦¯":1467,"à¦ĵà¦¦":1468,"à¦¥à¦®":1469,"à¦§à¦¨à¦¬":1470,"à¦·à§İ":1471,"à¦Ļà¦°":1472,"Ġà¦Łà¦®à¦Ł":1473,"Ġà¦ıà¦ĩà¦ĸ":1474,"à¦°à¦£à¦¬":1475,"à¦¨à¦ĵà¦°à¦ķà¦®":1476,"Ġà¦Ŀà¦ķà¦Ŀà¦ķ":1477,"à¦Ī":1478,"à¦²à¦ĸ":1479,"à¦¯à¦¯":1480,"à¦¤à¦ĵ":1481,"Ġà¦Ĩà¦¬à¦°":1482,"Ġà¦¸à¦¤à¦°":1483,"Ġà¦¹à¦ĩà¦¯":1484,"à¦ªà¦¶à¦¨":1485,"à¦Ĺà¦ŀ":1486,"Ġà¦ļà¦¬":1487,"Ġà¦°à¦¶":1488,"à¦·à¦¬":1489,"Ġà¦¶à¦Ł":1490,"Ġà¦Ńà¦°à¦¤":1491,"Ġà¦ĸà¦¡":1492,"à¦°à¦¬à¦¨":1493,"à¦°à¦®à¦¥":1494,"Ġà¦®à¦¸à¦ľ":1495,"Ġà¦Īà¦·à§İ":1496,"à¦°à¦ĺà¦°":1497,"à¦¸à¦°à¦£":1498,"Ġà¦¸à¦²":1499,"à¦ªà§ľ":1500,"Ġà¦ħà¦°à¦¬":1501,"Ġà¦ĵà§Ł":1502,"à¦Ńà¦¯":1503,"à¦Ńà¦Ļ":1504,"Ġà¦¸à¦¬à¦Ł":1505,"à§ľà¦²":1506,"Ġà¦Ĩà¦²à¦Ĺ":1507,"à¦ıà¦ĸà¦¨":1508,"à¦°à¦ľà¦¬":1509,"Ġà¦ķà¦²à¦®":1510,"Ġà¦Ĩà¦ļà¦°à¦£":1511,"à¦ħà¦²":1512,"à¦¯à¦ĵ":1513,"à¦®à¦ķà¦²":1514,"Ġà¦®à¦°à¦¬":1515,"à¦¦à¦ª":1516,"à¦ªà¦¦à¦°":1517,"à¦Ĺà¦ĩ":1518,"Ġà¦ıà¦ķà¦¤à¦²":1519,"à¦§à¦¹":1520,"à¦Ļà¦¤":1521,"à¦Ńà¦ķ":1522,"Ġà¦ķà¦ĸà¦¨à¦ĩ":1523,"Ġà¦¬à¦īà¦ł":1524,"Ġà¦¸à¦¹à¦¸":1525,"Ġà§¨":1526,"Ġà¦ľà§Łà¦¨":1527,"à§·":1528,"Ġà¦¬à¦ľ":1529,"à¦Łà¦ĵ":1530,"à¦ĩà¦ľà¦¨":1531,"Ġà¦ıà¦ĵ":1532,"Ġà¦¤à§İà¦ķ":1533,"à¦ªà¦¬":1534,"à¦¡à¦Ń":1535,"Ġà¦Ľà¦¦":1536,"à¦Ńà¦²à¦Ń":1537,"à¦²à¦ķà¦¨":1538,"Ġà¦¸à¦¹à¦ķà¦°":1539,"à¦¸à¦²à¦®":1540,"Ġà¦ıà¦¨à¦°":1541,"à¦°à¦¡":1542,"à¦°à¦Ļ":1543,"à¦¬à¦°à¦¬":1544,"à¦¸à¦ĸ":1545,"Ġà¦¹à¦ĵà§Ł":1546,"à¦ľà¦ĸà¦¬à¦°":1547,"Ġà¦ħà¦¹":1548,"Ġà¦ıà¦ķà¦ľ":1549,"à¦·à¦Ĺ":1550,"Ġà¦Ĩà¦°à¦ľ":1551,"Ġà¦Ŀà¦²à¦®à¦²":1552,"Ġà¦Ĩà¦¬à¦¹":1553,"Ġà¦¬à¦īà¦¯":1554,"Ġà¦ĩà¦¨à¦ķ":1555,"Ġà¦ªà¦¥à¦Ł":1556,"Ġà¦Ĳà¦¤":1557,"à¦®à¦¹à¦¤":1558,"à¦¤à¦ĸ":1559,"à¦Łà¦ĩ":1560,"Ġà¦¦à¦¸":1561,"Ġà¦ıà¦ŀ":1562,"Ġà¦ıà¦°à¦ĩ":1563,"à¦ĸà¦®":1564,"à¦ĵà¦ķ":1565,"à¦§à¦²":1566,"à¦§à¦®":1567,"Ġà¦Ľà¦®":1568,"Ġà¦¬à¦²à¦²à¦ª":1569,"Ġà¦§à¦¨à¦¸à¦®":1570,"à¦¬à¦¨à¦Ł":1571,"Ġà¦¯à¦¤à¦ķ":1572,"Ġà¦¤à¦°à¦«à¦¦":1573,"Ġà¦ļà¦ķà¦ļà¦ķ":1574,"à¦§à¦¹à§Ł":1575,"à¦¨à¦ľ":1576,"à¦¯à¦Ń":1577,"à¦®à¦ĸ":1578,"à¦®à§İ":1579,"Ġà¦Ĩà¦ĸ":1580,"Ġà¦¸à¦ĸ":1581,"Ġà¦¨à¦Ĺà¦°":1582,"Ġà¦®à¦°à¦£":1583,"Ġà¦¹à¦¸":1584,"Ġà¦¹à¦ĩà¦¬":1585,"à¦ľà¦ĺ":1586,"à§Ģà¦Ĥ":1587,"Ġà¦¬à¦²à¦°":1588,"Ġà¦ħà¦·":1589,"Ġà¦ħà¦Ĺà¦¤":1590,"Ġà¦¬à¦²à¦²à¦¦":1591,"Ġà¦¬à¦īà¦Ł":1592,"Ġà¦Ĭà¦°":1593,"à¦ķà¦°à¦£":1594,"à¦¤à¦¶":1595,"à¦¬à¦īà¦¦":1596,"à¦ªà¦ĩ":1597,"à¦ľà¦®à¦£":1598,"à¦łà¦¨":1599,"Ġà¦¬à¦²à¦²à¦Ĩ":1600,"Ġà¦¹à¦²à¦¦":1601,"Ġà¦īà¦ªà¦¹":1602,"Ġà¦¬à¦°à¦«":1603,"Ġà¦Ĩà¦§à¦ĺà¦£":1604,"Ġà¦¶à¦¤à¦¦à¦²":1605,"Ġà¦ļà¦Łà¦ªà¦Ł":1606,"à¦®à§Ł":1607,"à¦®à¦§à¦¨":1608,"à¦¸à¦ĩ":1609,"à¦¸à¦Ĺ":1610,"Ġà¦ªà¦¬":1611,"Ġà¦¨à¦ĸ":1612,"à¦¡à¦Ĺ":1613,"à¦ľà¦ĵ":1614,"à¦ľà¦§":1615,"Ġà¦¥à¦®":1616,"Ġà¦īà¦ªà¦¤":1617,"Ġà¦īà¦ĩà¦¶":1618,"à¦łà¦ķ":1619,"Ġà¦¬à¦²à¦²à¦¹":1620,"Ġà¦Ĩà¦¸à¦°":1621,"Ġà¦Ŀà¦²à¦ķ":1622,"à¦¬à¦°à¦Ł":1623,"Ġà¦¢à¦²":1624,"à¦ıà¦Ł":1625,"à¦ıà¦«":1626,"à¦¶à¦¨à¦Ł":1627,"Ġà¦īà¦ªà¦Ń":1628,"Ġà¦ıà¦ķà¦¦à¦²":1629,"Ġà¦ĺà¦Łà¦²":1630,"Ġà¦°à¦ķà¦®à¦ĩ":1631,"Ġà¦¸à¦ķà¦²à¦ķ":1632,"à¦ķà¦ĵà¦¦":1633,"Ġà¦ĭà¦·":1634,"à§ģà¦Ĥ":1635,"Ġà¦ķà¦¸":1636,"à§ĭà¦Ĥ":1637,"Ġà¦ªà¦ļ":1638,"Ġà¦¹à¦®":1639,"à¦ªà¦ľ":1640,"Ġà¦ļà¦°à¦®":1641,"à¦ļà¦®":1642,"à¦ļà¦ĩ":1643,"Ġà¦ıà¦ķà¦Ĺ":1644,"Ġà¦²à¦£":1645,"Ġà¦ªà¦°à¦²":1646,"Ġà¦ħà¦¤à¦²":1647,"à¦¨à¦ıà¦°":1648,"à¦¨à¦Ĩà¦®":1649,"à¦¤à¦Ľ":1650,"à¦¤à¦ĸà¦¨":1651,"Ġà¦ķà¦¨à¦¸":1652,"à¦®à¦®":1653,"à¦®à¦Ĺà¦¤":1654,"Ġà¦Ĩà¦īà¦Ł":1655,"Ġà¦¸à¦ł":1656,"Ġà¦ªà¦²à¦ķ":1657,"Ġà¦¹à¦Ł":1658,"à¦Ĺà¦ª":1659,"Ġà¦ıà¦ķà¦¤":1660,"à¦·à¦ª":1661,"Ġà¦Ńà¦Ĺ":1662,"à¦¹à¦¬":1663,"Ġà¦ĵà¦®":1664,"Ġà¦«à¦¸à¦²":1665,"Ġà¦¬à¦²à¦²à¦¶":1666,"Ġà¦ªà¦°à¦ĵ":1667,"à¦®à¦¨à¦ĩ":1668,"Ġà¦ĩà¦¹":1669,"à¦°à¦¤à¦²":1670,"Ġà¦ħà¦¬à¦¸à¦°":1671,"à¦¶à¦¨à¦®":1672,"à¦Ĺà¦ľà¦ªà¦¤":1673,"à§¦à§":1674,"à¦¯à¦ķà¦°":1675,"à¦¯à¦¤à¦®":1676,"Ġà¦ķà¦¨à¦Ł":1677,"Ġà¦ķà¦ĩà¦°":1678,"à¦¬à¦®":1679,"Ġà¦¬à§İà¦¸":1680,"à¦¸à¦¹":1681,"Ġà¦¸à¦ľà¦¨":1682,"Ġà¦¦à¦®à¦ķ":1683,"à¦¦à¦¦":1684,"à¦¶à¦Ĺ":1685,"Ġà¦ļà¦£":1686,"Ġà¦ıà¦ķà¦§":1687,"Ġà¦Ńà¦Ł":1688,"à¦¹à¦°à¦£":1689,"Ġà¦īà¦ĩà¦ķ":1690,"Ġà¦¬à¦²à¦²à¦Ĩà¦®à¦°":1691,"Ġà¦Łà¦°":1692,"Ġà¦¡à¦²":1693,"à¦«à¦¸":1694,"Ġà¦ĩà¦¡":1695,"à§ľà¦¤":1696,"Ġà¦®à¦¤à¦¨":1697,"Ġà¦Ŀà¦Ł":1698,"Ġà¦Ĩà¦Ĺà¦¨":1699,"à¦¨à¦ĵà¦®à¦¤":1700,"à¦ıà¦¸à¦¬":1701,"Ġà¦ķà¦¤à¦¬":1702,"à¦¯à¦¬à¦¯":1703,"Ġà¦¦à¦¶à¦¬":1704,"Ġà¦ªà§ľà¦¬":1705,"Ġà¦ķà¦ľà¦¨":1706,"à¦®à¦Ŀ":1707,"Ġà¦¬à¦°à¦¦":1708,"Ġà¦Ĩà§ľ":1709,"Ġà¦ªà§Łà¦¸":1710,"à¦¦à¦ĵ":1711,"Ġà¦¹à¦ľà¦®":1712,"Ġà¦ľà¦ª":1713,"Ġà¦ħà¦ļà¦²":1714,"Ġà¦ıà¦ķà¦°":1715,"Ġà¦ıà¦ķà¦¸":1716,"Ġà¦ĵà¦¥":1717,"Ġà¦²à¦Ĺ":1718,"Ġà¦«à¦¤":1719,"à¦Ńà¦Ł":1720,"Ġà¦¬à¦²à¦²à¦¨":1721,"à¦ªà¦°à¦ķ":1722,"à¦°à¦£à¦¤":1723,"à¦ıà¦ķà¦ľà¦¨":1724,"Ġà¦ıà¦¤à¦ĩ":1725,"Ġà¦Ĩà¦¶à¦ª":1726,"Ġà¦¬à¦īà¦°":1727,"Ġà¦§à¦¨à¦Ń":1728,"Ġà¦¤à¦¤à¦ĩ":1729,"Ġà¦Łà¦®à¦Łà¦®":1730,"à¦¨à¦Ĺà¦°":1731,"Ġà¦¬à¦¹à¦¨":1732,"à¦ĩà¦ĵà¦¯":1733,"à¦ĩà¦°à¦ķà¦®":1734,"Ġà¦¨à¦ľ":1735,"Ġà¦¦à¦«":1736,"à¦¶à¦¬à¦¨":1737,"Ġà¦°à¦®":1738,"Ġà¦°à¦ļà¦¨":1739,"à¦§à¦¦":1740,"Ġà¦ĵà¦ľà¦¨":1741,"à¦£à¦ªà¦£":1742,"Ġà¦¥à¦°":1743,"Ġà¦«à¦²à¦ķ":1744,"Ġà¦īà§İà¦ķ":1745,"à§Łà¦¤":1746,"Ġà¦¬à¦²à¦²à¦¯":1747,"Ġà¦¬à¦²à¦²à¦¸":1748,"à§İà¦ª":1749,"Ġà¦®à¦¤à¦ĩ":1750,"Ġà¦ħà¦¸à¦®à¦¯":1751,"Ġà¦Ĩà¦¶à¦Ļ":1752,"à¦Ĩà¦²":1753,"à¦ħà¦°":1754,"Ġà¦īà§İà¦ª":1755,"Ġà¦¶à¦¹à¦°à¦Ł":1756,"à¦°à¦¦à¦°":1757,"à¦¨à¦®à¦¨":1758,"Ġà¦¸à¦ļ":1759,"Ġà¦¸à§İ":1760,"Ġà¦¨à¦ķà¦²":1761,"Ġà¦ıà¦«":1762,"Ġà¦®à¦°à¦²":1763,"à¦ªà¦Ŀ":1764,"à¦ĸà¦¦":1765,"Ġà¦Ĺà§ľ":1766,"à¦¹à¦Ł":1767,"Ġà¦ĵà¦²à¦Ł":1768,"Ġà¦Ľà§ľ":1769,"Ġà¦¬à¦²à¦²à¦°":1770,"à¦īà¦£":1771,"à¦Ŀà¦¨":1772,"Ġà¦ľà¦¨à¦®":1773,"à¦ıà¦®à¦¨":1774,"Ġà¦ıà¦¤à¦Ĺ":1775,"à¦¬à¦²à¦²":1776,"Ġà¦ķà¦¤à¦Ĺ":1777,"à¦°à¦¥à¦°":1778,"Ġà¦īà¦ªà¦¯":1779,"Ġà¦ĺà¦Łà¦¤":1780,"Ġà¦¬à¦ĩà¦Ľ":1781,"®à§":1782,"à¦¨à¦¶à¦¨":1783,"à¦ķà¦¯":1784,"à¦ķà¦®à¦¤":1785,"Ġà¦¬à¦ŀ":1786,"Ġà¦¬à¦Ĺà¦²":1787,"Ġà¦¬à¦¦à¦®":1788,"Ġà¦Ĩà§Ł":1789,"Ġà¦¸à¦«à¦°":1790,"Ġà¦¹à¦ĩà¦¤":1791,"à¦ªà¦ĵ":1792,"à¦¡à¦¬":1793,"à¦ľà¦ķà¦¨":1794,"à¦¶à¦¸":1795,"Ġà¦¯à¦ľ":1796,"Ġà¦°à¦®à¦²":1797,"à¦·à¦ĩ":1798,"Ġà¦ĸà¦ļ":1799,"Ġà¦ĵà¦¤":1800,"Ġà¦Ľà¦²":1801,"Ġà¦²à¦ŀ":1802,"Ġà¦²à¦ĩà¦¯":1803,"Ġà¦¥à¦°à¦¥à¦°":1804,"Ġà¦Ĩà¦°à¦¬":1805,"à¦īà¦°à¦¤":1806,"à§ľà¦Ľ":1807,"à¦¤à¦°à¦Ļ":1808,"à¦¨à¦ĵà¦ķ":1809,"Ġà¦ħà¦¬à¦ľ":1810,"à¦ıà¦¸":1811,"à¦°à¦®à¦¥à¦°":1812,"à¦Ĩà¦§à¦Ł":1813,"Ġà¦ĵà¦ĩà¦Ł":1814,"Ġà¦īà¦ªà¦ľ":1815,"Ġà¦ĩà¦¨à¦«":1816,"Ġà¦ĺà¦Łà¦¬":1817,"Ġà¦¹à¦°à¦«":1818,"Ġà¦Īà¦Ĺà¦°":1819,"Ġà¦¹à¦ĩà¦ļà¦ĩ":1820,"Ġà¦ĩà¦īà¦°":1821,"Ġà¦ľà§Łà¦¦":1822,"à¦°à¦ĺ":1823,"à¦ķà¦°à¦¤":1824,"à¦¬à¦ĵ":1825,"à¦¬à§İ":1826,"à¦¬à¦ĩà¦¨":1827,"à¦Łà¦¹":1828,"à¦Łà¦¬à¦²":1829,"Ġà¦¤à¦¦":1830,"Ġà¦®à¦«à¦¸":1831,"à¦¶à¦ĵ":1832,"Ġà¦Ĩà¦®à¦Ĺ":1833,"Ġà¦ľà¦¹à¦°":1834,"Ġà¦ħà¦Ŀ":1835,"Ġà¦ĸà¦°":1836,"Ġà¦ĸà¦²":1837,"Ġà¦²à¦Ļ":1838,"Ġà¦«à¦£":1839,"Ġà¦īà¦ĩ":1840,"Ġà¦§à¦¬":1841,"à¦īà¦Łà¦°":1842,"Ġà¦ĩà§Ł":1843,"Ġà¦ĩà¦¨à¦Ł":1844,"à¦°à¦£à¦Ł":1845,"à¦ıà¦ķà¦¬":1846,"à¦ıà¦ķà¦¦":1847,"à¦ķà¦²à¦¤":1848,"à¦¬à¦²à¦¨":1849,"Ġà¦ħà¦¸à¦Ń":1850,"Ġà¦¶à¦°à§İ":1851,"Ġà¦ªà§ľà¦Ľ":1852,"Ġà¦ķà¦¨à¦«":1853,"Ġà¦¹à¦ķà¦ļà¦ķ":1854,"à¦¨à§Ł":1855,"à¦¨à¦«":1856,"à¦¯à¦¹":1857,"Ġà¦Ĩà¦ªà¦¦":1858,"à¦¸à¦¯":1859,"à¦¸à¦Ń":1860,"Ġà¦¸à¦¯":1861,"Ġà¦¸à¦Ł":1862,"Ġà¦¸à¦«":1863,"Ġà¦¸à¦ĵà¦¯":1864,"Ġà¦¸à¦«à¦²":1865,"Ġà¦ªà¦Ļ":1866,"à¦ĩà¦¹":1867,"à¦ĩà¦ªà¦°":1868,"Ġà¦¨à¦ĵ":1869,"Ġà¦¦à¦£":1870,"Ġà¦¤à¦¦à¦¨":1871,"à¦ªà¦ķà¦ķ":1872,"à¦ľà¦¡":1873,"à¦Ĺà¦Ń":1874,"à¦¶à¦ľà¦¨":1875,"à¦ļà¦¶":1876,"Ġà¦ľà¦ŀ":1877,"à¦ĵà¦®":1878,"à¦·à¦¨":1879,"à¦·à§Ł":1880,"à¦·à¦ľà¦¨":1881,"à¦¹à¦ĩ":1882,"Ġà¦«à¦¸":1883,"à¦łà¦¤":1884,"Ġà¦ĺà¦°à¦¬":1885,"Ġà¦Łà¦¯":1886,"Ġà¦ªà¦°à¦¬à¦°":1887,"Ġà¦¡à¦ľà¦¨":1888,"Ġà¦Ĩà¦Ľà¦¡":1889,"Ġà¦ĩà¦¸à¦²":1890,"à¦¬à¦¨à¦¯":1891,"à¦¨à¦ĵà¦Ł":1892,"Ġà¦ľà¦²à¦ª":1893,"Ġà¦ķà¦¤à¦ķà¦Ĺ":1894,"Ġà¦¸à¦°à¦¸":1895,"Ġà¦ĵà¦ĩà¦°à¦ķà¦®":1896,"à¦¤à¦²à¦Ł":1897,"Ġà¦¤à¦°à¦Ļ":1898,"Ġà¦ľà¦Ĺà§İ":1899,"Ġà¦¥à¦®à¦¥à¦®":1900,"à¦Ĳ":1901,"à¦°à¦Ĺà¦¤":1902,"à¦²à¦¹":1903,"à¦¯à¦Ĺ":1904,"à¦®à§ľ":1905,"à¦¬à¦°à¦¤":1906,"Ġà¦ªà¦¬à¦¨":1907,"à¦Ľà¦ķ":1908,"Ġà¦ıà¦ľà¦¨":1909,"Ġà¦¤à¦ªà¦¨":1910,"à¦¦à¦ĸ":1911,"à¦ĸà¦£":1912,"Ġà¦Ĺà¦¹à¦¨":1913,"à¦ļà¦¸":1914,"à¦ļà¦Ľ":1915,"Ġà¦Ĩà¦®à¦¤":1916,"à¦ĵà¦Ł":1917,"à¦ĵà¦ĩ":1918,"à¦ĵà¦ĸ":1919,"à¦·à¦¸à¦ķ":1920,"Ġà¦¶à¦«":1921,"à¦£à¦£":1922,"Ġà¦«à¦°à¦®":1923,"à¦Ńà¦¦":1924,"à¦łà¦ķà¦ĸ":1925,"Ġà¦¬à¦²à¦²à¦Ĩà¦ªà¦¨":1926,"Ġà¦Ĩà¦°à¦¶":1927,"Ġà¦Łà¦ªà¦ķ":1928,"Ġà¦®à¦¨à¦ķ":1929,"à¦ıà¦®":1930,"à¦¬à¦²à¦ĩ":1931,"à¦Łà¦°à¦Ĺ":1932,"Ġà¦¬à¦ĩà¦¤":1933,"à¦¨à¦ľà¦¨à¦ķ":1934,"Ġà¦ķà¦¨à¦ķà¦²à¦¤":1935,"Ġà¦Ĩà¦ĩà¦ľ":1936,"Ġà¦Ĩà¦ĩà¦¸à¦ķ":1937,"Ġà¦§à¦¨à¦ŀ":1938,"à¦°à¦·":1939,"à¦²à¦Ļ":1940,"à¦¤à¦ļ":1941,"Ġà¦¬à¦¤":1942,"Ġà¦¸à§Ł":1943,"Ġà¦¨à¦Ĺ":1944,"Ġà¦¨à¦°à¦ķ":1945,"à¦Ĺà§ľ":1946,"à¦¶à¦ĩ":1947,"Ġà¦ıà¦ķà¦ļ":1948,"Ġà¦ıà¦ķà¦¹":1949,"à¦¥à¦¤":1950,"à¦·à¦ĵ":1951,"à¦¹à¦ł":1952,"Ġà¦ĵà¦²":1953,"Ġà¦Ľà¦¤":1954,"à¦£à¦ª":1955,"Ġà¦«à¦ķ":1956,"Ġà¦īà¦·":1957,"Ġà¦īà§ľ":1958,"Ġà¦¬à¦²à¦²à¦ıà¦ĩ":1959,"Ġà¦¸à¦®à¦¬":1960,"à¦°à¦¤à¦¬":1961,"à¦¤à¦°à¦£":1962,"Ġà¦Ĩà¦Ĺà¦²":1963,"Ġà¦Ĩà¦Ĺà¦®à¦¨":1964,"Ġà¦¤à¦ĸà¦¨à¦ķ":1965,"Ġà¦Ĩà¦¬à¦¦":1966,"à¦ıà¦¤":1967,"Ġà¦ĩà¦¨à¦Ń":1968,"Ġà¦¦à¦¶à¦ľà¦¨":1969,"Ġà¦¬à¦ĩà¦Ĺ":1970,"à¦ħà¦¤":1971,"Ġà¦ĩà¦īà¦ıà¦«":1972,"Ġà¦ľà¦Ĺà¦¦":1973,"Ġà¦ĸà¦Łà¦ĸà¦Ł":1974,"Ġà¦¬à§İà¦¸à¦°":1975,"Ġà¦§à¦¬à¦§à¦¬":1976,"à¦¨à¦Ĩ":1977,"à¦¨à¦ªà¦¤":1978,"à¦¨à¦¸à¦¨":1979,"à¦¨à¦Ĩà¦ªà¦¨":1980,"à¦ķà¦£":1981,"à¦ķà§ľ":1982,"à¦ķà¦ªà¦ķ":1983,"à¦®à¦Ń":1984,"à¦¬à¦ī":1985,"Ġà¦¬à¦ĩà¦ķ":1986,"Ġà¦¬à¦¦à¦¨":1987,"à¦Łà¦Ń":1988,"à¦Łà¦ľà¦¨":1989,"Ġà¦¸à¦¯à¦¤":1990,"Ġà¦¸à¦¶à¦¸":1991,"Ġà¦¨à¦¨à¦¦":1992,"Ġà¦¦à¦ª":1993,"Ġà¦¦à§Ł":1994,"Ġà¦®à¦ĩ":1995,"Ġà¦®à¦Ĺ":1996,"Ġà¦®à¦ľà¦¬":1997,"à¦¦à¦Ĺ":1998,"à¦Ĺà¦Ļ":1999,"à¦ĵà¦¹":2000,"Ġà¦ıà¦ķà¦ĺ":2001,"Ġà¦°à¦Ł":2002,"Ġà¦ĵà¦§":2003,"à¦£à¦°":2004,"à¦£à¦Ł":2005,"Ġà¦īà¦¬":2006,"Ġà¦īà¦Ĺ":2007,"à¦Ńà¦¶":2008,"Ġà¦Ĩà¦°à¦¤":2009,"à¦«à¦¨":2010,"à¦«à¦ª":2011,"Ġà¦¹à¦²à¦ĺà¦°":2012,"Ġà¦ĩà¦Ľ":2013,"Ġà¦Ŀà¦Łà¦ķ":2014,"Ġà¦ıà¦ĸà¦¨à¦ķ":2015,"Ġà¦§à¦°à¦Ľ":2016,"à¦¬à¦°à¦ĩ":2017,"Ġà¦Ĩà¦²à¦Ł":2018,"à¦°à¦ªà¦°à¦ĩ":2019,"Ġà¦¬à¦Ľà¦°à¦ĸ":2020,"à¦Ĩà¦¡":2021,"à¦°à¦¥à¦®à¦Ł":2022,"à¦¯à¦¬à¦§":2023,"Ġà¦īà¦ªà¦²à¦¬":2024,"Ġà¦ĩà¦¤à¦¸":2025,"à¦ªà¦ķà¦¥":2026,"Ġà¦Īà¦°":2027,"Ġà¦ĭà¦£":2028,"Ġà¦īà§İà¦ķà¦£":2029,"à¦°à¦ĵà¦¯":2030,"à¦°à¦§à¦¨":2031,"à¦²à¦¶":2032,"à¦¯à¦Ļ":2033,"à¦¬à¦ķà¦Ł":2034,"Ġà¦¬à¦§":2035,"Ġà¦¬à¦ķà¦¬":2036,"Ġà¦¬à¦ľà¦°":2037,"Ġà¦Ĩà¦·":2038,"Ġà¦¨à¦¹":2039,"Ġà¦¤à¦¡":2040,"Ġà¦¤à¦°à¦²":2041,"Ġà¦¤à¦¤à¦Ł":2042,"Ġà¦®à¦ķ":2043,"Ġà¦®à¦¹à¦²":2044,"Ġà¦¹à¦°à¦®":2045,"à¦ªà¦ľà¦Ļ":2046,"à¦¡à¦ī":2047,"à¦¡à¦«":2048,"à¦¶à¦Ľ":2049,"à¦¶à¦«":2050,"Ġà¦Ĺà¦ª":2051,"à¦ļà¦°à¦£":2052,"Ġà¦ıà¦ķà¦ıà¦ķà¦Ł":2053,"Ġà¦°à¦¹à¦®":2054,"Ġà¦Ľà¦ķ":2055,"à¦£à¦Ń":2056,"Ġà¦Ĩà¦°à¦ķ":2057,"Ġà¦Łà¦²":2058,"Ġà¦ıà¦ĩà¦¸à¦®à¦¯":2059,"à¦ľà¦¨à¦¤":2060,"Ġà¦ĩà¦Ĺ":2061,"Ġà¦Ŀà¦ª":2062,"à¦ĺà¦¬":2063,"à¦¨à¦¤à¦²":2064,"à¦ķà¦°à¦¦":2065,"à¦ĩà¦²à¦Ł":2066,"à¦Ĩà¦ĩà¦¨":2067,"à¦°à¦ľà¦ķ":2068,"à¦°à¦¥à¦®à¦¤":2069,"Ġà¦¯à¦ĸà¦¨à¦ĩ":2070,"Ġà¦īà¦ªà¦²à¦ķ":2071,"à¦Ĺà¦ľà¦Ĺ":2072,"Ġà¦¸à¦¹à¦ķ":2073,"Ġà¦®à¦¶à¦²":2074,"Ġà¦®à¦¦à¦¨à¦ķ":2075,"à¦ľà¦Ĺà¦ŀ":2076,"Ġà¦Ĩà¦«à¦¸":2077,"à§¨":2078,"à¦²à¦¥":2079,"à¦²à¦Ĩ":2080,"à¦²à¦ªà¦¤":2081,"à¦¯à¦¶":2082,"à¦¯à¦ľà¦¨":2083,"Ġà¦ķà¦Ń":2084,"à¦®à¦°à¦ķ":2085,"à¦¬à¦°à¦ķ":2086,"Ġà¦¬à¦¶":2087,"à¦¸à¦ıà¦°":2088,"à¦Ľà¦¡":2089,"à¦ĩà¦¸à¦Ļ":2090,"Ġà¦ıà¦Ľ":2091,"Ġà¦®à¦°à¦¦":2092,"à¦¦à¦ĩ":2093,"à¦¦à§Ł":2094,"Ġà¦¹à¦ª":2095,"à¦ªà¦¬à¦¤":2096,"à¦ĸà¦Ĺ":2097,"à¦¶à¦Ń":2098,"Ġà¦ıà¦ķà¦ıà¦ķ":2099,"Ġà¦°à¦ĺ":2100,"à¦¥à¦ª":2101,"à¦§à¦¸":2102,"à¦§à¦ª":2103,"à¦§à¦¶":2104,"Ġà¦²à¦Ł":2105,"Ġà¦«à¦²à¦Ł":2106,"Ġà¦«à¦¸à¦ķ":2107,"à¦łà¦Ł":2108,"Ġà¦ħà¦¨à¦²":2109,"à¦īà¦¤":2110,"à¦īà¦¶à¦¨":2111,"Ġà¦¡à¦¬à¦²":2112,"à¦ľà¦¨à¦¦":2113,"Ġà¦ĩà¦®à¦¨":2114,"à¦°à¦ķà¦²":2115,"Ġà¦¬à¦¸à¦Ľ":2116,"Ġà¦ľà¦¨à¦¨":2117,"Ġà¦Ŀà¦°à¦Ľ":2118,"à¦ıà¦ĸ":2119,"à¦ĺà¦¡":2120,"à¦²à¦ķà¦ķ":2121,"à¦Ĩà¦§":2122,"à¦°à¦¥à¦®à¦¬":2123,"Ġà¦ħà¦¤à¦¸":2124,"à¦°à¦¶à¦¸":2125,"Ġà¦ķà¦²à¦¸":2126,"Ġà¦ĩà¦¨à¦¶":2127,"Ġà¦ħà¦ªà¦²à¦ķ":2128,"Ġà¦ķà¦¬à¦ľ":2129,"Ġà¦ĸà¦¬à¦°à¦¦":2130,"à¦°à§İ":2131,"à¦²à¦ĵà¦¯":2132,"Ġà¦ķà¦®à¦¨":2133,"Ġà¦ķà¦¦à¦°":2134,"Ġà¦ķà¦¨à¦ķ":2135,"à¦®à¦ļà¦¨":2136,"à¦¬à¦Ĺ":2137,"à¦¬à§ľ":2138,"Ġà¦¸à¦²à¦ľ":2139,"Ġà¦ªà§Łà¦²":2140,"à¦Ľà¦¤à¦²":2141,"Ġà¦¹à¦°à¦²":2142,"Ġà¦¹à¦¨à¦¨":2143,"à¦ªà¦¶":2144,"à¦¡à¦ľ":2145,"Ġà¦Ĺà¦Ł":2146,"Ġà¦ľà¦¬à¦°":2147,"Ġà¦ľà¦Ĺà¦¨":2148,"à¦ĵà¦ª":2149,"Ġà¦ħà¦®à¦°":2150,"Ġà¦°à¦ľà¦¨":2151,"à¦·à¦ľ":2152,"Ġà¦¶à¦¸":2153,"à¦¹à¦ª":2154,"Ġà¦ĸà¦¨":2155,"Ġà¦ĸà¦ª":2156,"Ġà¦ĸà¦Łà¦ķ":2157,"à¦£à¦ļ":2158,"à¦Ńà§İà¦¸":2159,"à¦łà¦¬":2160,"Ġà¦¬à¦²à¦²à¦ıà¦ķà¦Ł":2161,"Ġà¦ĺà§ľ":2162,"Ġà¦Łà¦²à¦¤":2163,"Ġà¦ıà¦ĩà¦®":2164,"Ġà¦§à¦ª":2165,"à¦īà¦Ĺ":2166,"Ġà¦¸à¦®à¦Ŀ":2167,"à¦ľà¦¨à¦ĩ":2168,"Ġà¦¸à¦¬à¦ľ":2169,"à§İà¦ªà¦°":2170,"Ġà¦ľà¦¨à¦ª":2171,"à§ľà¦¬":2172,"Ġà¦Ŀà¦²à¦¸":2173,"Ġà¦ĺà¦°à¦Ĺ":2174,"à¦¬à¦¨à¦¦":2175,"Ġà¦ħà¦¬à¦¹":2176,"à¦°à¦®à¦§":2177,"à¦°à¦®à¦¹à¦²":2178,"à¦ķà¦²à¦ķ":2179,"Ġà¦ıà¦®à¦¨à¦Ł":2180,"à¦Ĩà¦ķ":2181,"Ġà¦Ĩà¦¨à¦®à¦¨":2182,"à¦ĩà¦¨à¦ķ":2183,"à¦°à¦¸à¦°":2184,"à¦°à¦¸à¦¦à¦¨":2185,"à¦¸à¦¬à¦ĩ":2186,"à¦²à¦¤à¦²":2187,"Ġà¦ĺà¦Łà¦Ľ":2188,"à¦°à¦ļà¦¨":2189,"Ġà¦ªà¦¦à¦ķ":2190,"Ġà¦Ĩà¦ĩà¦¸":2191,"à¦ľà¦®à¦¹à¦²":2192,"Ġà¦¬à§ľà¦ľà¦¨":2193,"Ġà¦Ńà¦¬à¦®":2194,"Ġà¦¹à¦ĩà¦¹à¦ĩ":2195,"à§§à§":2196,"à¦²à¦¬à¦¨":2197,"à¦ķà¦ľ":2198,"à¦¬à¦ĸ":2199,"Ġà¦Ĩà¦ĵà¦¡":2200,"Ġà¦¸à¦°à¦¬à¦°":2201,"Ġà¦¦à¦°à¦¦":2202,"Ġà¦¤à¦ªà¦¸":2203,"à¦¦à¦¹":2204,"à¦¦à¦®à¦¸":2205,"à¦ªà¦ª":2206,"à¦ĸà¦ĵ":2207,"à¦Ĺà¦¤à¦°":2208,"à¦¶à¦Ŀ":2209,"Ġà¦Ĺà¦¹":2210,"Ġà¦ħà¦¡":2211,"Ġà¦°à§Ł":2212,"Ġà¦ĸà¦¯":2213,"Ġà¦ĵà¦Ŀ":2214,"Ġà¦¥à¦¤":2215,"à¦Ńà¦¸":2216,"Ġà¦¬à¦²à¦²à¦ĸ":2217,"à¦ĸà¦¨à¦ĵ":2218,"Ġà¦Łà¦ª":2219,"à¦®à¦¨à¦Ł":2220,"à¦īà§Ł":2221,"Ġà¦¸à¦®à¦¬à¦¯":2222,"à¦Ŀà¦Ľ":2223,"Ġà¦ĩà¦£":2224,"Ġà¦§à¦°à¦®":2225,"Ġà¦¬à¦¨à¦²à¦¤":2226,"Ġà¦Ĩà¦²à¦¨":2227,"à¦ĺà¦°à¦Ł":2228,"à¦¬à¦²à¦ľ":2229,"à¦Ĩà¦ľ":2230,"à¦¨à¦Łà¦¨":2231,"Ġà¦Ĩà¦¨à¦Ľ":2232,"à¦ĩà¦¨à¦¬":2233,"Ġà¦ħà¦ªà¦Ľà¦¨":2234,"à¦ªà¦¦à¦ķ":2235,"à¦ªà¦¦à¦¬":2236,"Ġà¦ķà¦ĸà¦¨à¦ĵà¦ĩ":2237,"Ġà¦ħà¦²à¦¸":2238,"Ġà¦¸à¦¦à¦¸":2239,"Ġà¦Ĭà¦¨":2240,"Ġà¦ħà¦¹à¦Ļ":2241,"Ġà¦ıà¦ķà¦§à¦°à¦¨":2242,"Ġà¦Ŀà¦Łà¦ªà¦Ł":2243,"à¦īà¦°à¦¤à¦¨":2244,"à¦¡à¦īà¦ĩà¦ļ":2245,"à¦¨à¦°à¦ķà¦®":2246,"à¦²à¦®à¦¤":2247,"à¦¤à¦ľà¦¨":2248,"à¦¤à¦ļà¦°":2249,"à¦¤à¦Ĺà¦¤":2250,"à¦®à¦ł":2251,"Ġà¦Ĩà¦¤à¦°":2252,"Ġà¦Ĩà¦ĵà§Ł":2253,"à¦¸à¦ĵà¦¯":2254,"Ġà¦¸à¦¶à¦¬":2255,"Ġà¦ıà¦§":2256,"à¦ľà¦ĸ":2257,"à¦ľà¦¶":2258,"Ġà¦Ĺà¦¤à¦°":2259,"à¦ĵà¦ł":2260,"à¦ĵà¦°à¦¤":2261,"Ġà¦°à¦¥":2262,"à¦¥à¦ªà¦°":2263,"Ġà¦¶à¦²":2264,"Ġà¦ĸà¦£":2265,"Ġà¦Ľà¦²à¦Ľ":2266,"Ġà¦²à¦°":2267,"Ġà¦²à¦²":2268,"Ġà¦²à¦¸":2269,"à§Łà¦°":2270,"à¦Ńà¦²":2271,"Ġà¦¬à¦²à¦²à¦ľ":2272,"Ġà¦¬à¦²à¦²à¦Ĩà¦°":2273,"Ġà¦ĺà¦·à¦¤":2274,"Ġà¦ħà¦¨à¦Łà¦¨":2275,"Ġà¦ıà¦ĩà¦ľà¦¨":2276,"à§Ĥà¦ģ":2277,"Ġà¦ĩà¦ķ":2278,"Ġà¦ĩà¦Ń":2279,"Ġà¦¸à¦¬à¦¶":2280,"Ġà¦ľà¦¨à¦¸":2281,"Ġà¦¬à¦¨à¦¬":2282,"Ġà¦Ĩà¦²à¦¸":2283,"à¦°à¦®à¦ª":2284,"à¦Ĺà¦²à¦¬":2285,"à¦Ĺà¦²à¦Ł":2286,"Ġà¦¹à¦¤à¦¬":2287,"Ġà¦ıà¦¤à¦¬à¦¡":2288,"Ġà¦ľà¦²à¦ĸ":2289,"à¦Ĩà¦¬":2290,"Ġà¦¸à¦°à¦ŀ":2291,"Ġà¦ĵà¦ĩà¦Ń":2292,"Ġà¦¶à¦¬à¦¬":2293,"à¦¬à¦¤à¦ĩ":2294,"Ġà¦Ĳà¦¦":2295,"à¦ħà¦ª":2296,"Ġà¦¹à¦¨à¦¹à¦¨":2297,"Ġà¦ıà¦®à¦ı":2298,"Ġà¦¹à¦ĩà§Ł":2299,"Ġà¦Ĩà¦Łà¦ľà¦¨":2300,"ĠĠĠĠ":2301,"à¦Ĺà¦Ńà¦¬à¦¨":2302,"Ġà¦Ľà¦²à¦Ľà¦²":2303,"à§Ŀ":2304,"à¦¤à¦¡":2305,"Ġà¦ķà§ľ":2306,"à¦®à¦«":2307,"à¦¬à¦ķà¦°":2308,"Ġà¦Ĩà¦«à¦Ł":2309,"Ġà¦ªà¦ª":2310,"à¦ĩà¦ļà¦Ł":2311,"Ġà¦¦à¦°à¦ĸ":2312,"Ġà¦ıà¦¶":2313,"Ġà¦ıà¦°à¦®à¦§":2314,"Ġà¦¤à§İà¦ªà¦°":2315,"Ġà¦®à¦ł":2316,"Ġà¦®à¦°à¦Ľ":2317,"Ġà¦®à¦Ĺà¦ľ":2318,"à¦¦à¦£":2319,"à¦¦à¦°à¦¬à¦¨":2320,"à¦¦à¦°à¦®à¦¹à¦²":2321,"Ġà¦¹à¦¡":2322,"à¦Ĺà¦ĵ":2323,"à¦¶à¦ķà¦°":2324,"Ġà¦ľà¦²à¦ķ":2325,"Ġà¦ľà¦Łà¦²":2326,"Ġà¦ľà¦ĸà¦®":2327,"Ġà¦ħà¦¬à¦°":2328,"Ġà¦ıà¦ķà¦«":2329,"à¦¥à¦Ł":2330,"à¦¥à¦¸":2331,"à¦¥à¦°à¦Ł":2332,"à¦§à¦Ľ":2333,"Ġà¦Ńà¦£":2334,"Ġà¦ĸà¦¤à¦®":2335,"à¦£à¦ķà¦²":2336,"Ġà¦īà¦¹":2337,"à¦Ļà¦¬":2338,"Ġà¦¬à¦²à¦²à¦Ĳ":2339,"Ġà¦ĺà¦Łà¦ķ":2340,"Ġà¦Łà¦ķ":2341,"Ġà¦Łà¦Ļ":2342,"Ġà¦§à¦ķà¦²":2343,"à¦īà¦ļ":2344,"à¦īà¦ıà¦°":2345,"à¦«à¦¡":2346,"à¦ŀà¦¸":2347,"Ġà¦ıà¦¸à¦¸":2348,"Ġà¦ļà¦²à¦¨":2349,"Ġà¦ĩà¦Ĺà¦²":2350,"Ġà¦¸à¦¬à¦Ĺ":2351,"Ġà¦¸à¦¬à¦°à¦ķà¦®":2352,"Ġà¦Ĩà¦ªà¦¨à¦®à¦¨":2353,"Ġà¦ľà¦¨à¦ķ":2354,"Ġà¦ıà¦¬à¦¡":2355,"Ġà¦Ĩà¦²à¦ªà¦¨":2356,"à¦°à¦ªà¦°à¦ĵ":2357,"Ġà¦Ĩà¦ľà¦®":2358,"à¦ĺà¦²":2359,"à¦ĺà¦ķ":2360,"à¦ĺà¦Ł":2361,"Ġà¦ľà¦²à¦¸":2362,"Ġà¦ľà¦²à¦¦":2363,"à¦Ĩà¦ļ":2364,"à¦¯à¦¬à¦¤":2365,"Ġà¦ıà¦Ĺà¦ľ":2366,"Ġà¦ħà¦¤à¦Ł":2367,"Ġà¦Ńà¦¦à¦ķ":2368,"Ġà¦¸à¦¹à¦¯":2369,"à¦ħà¦®":2370,"à¦ħà¦¸":2371,"Ġà¦¬à¦¹à¦°à¦®à¦ª":2372,"à¦ľà¦¬à¦īà¦¦":2373,"Ġà¦Ĩà¦ªà¦¶":2374,"Ġà§©":2375,"Ġà¦Ĺà¦Ńà¦°":2376,"à¦®à¦Ĺà¦ŀ":2377,"Ġà¦ĸà¦¸à¦ĸà¦¸":2378,"Ġà¦ķà¦¬à¦°à¦¸":2379,"Ġà¦Ķà¦·":2380,"à§Ń":2381,"à¦°à¦ªà¦¤":2382,"à¦¨à¦¬à¦¨":2383,"à¦¨à¦ıà¦ĩ":2384,"à¦¨à¦Ĩà¦°":2385,"à¦²à¦ķà¦Ł":2386,"à¦²à¦ķà¦²":2387,"à¦ķà¦·":2388,"à¦ķà¦°à¦ķ":2389,"à¦¯à¦¬à¦°":2390,"Ġà¦ķà¦ĩà¦¤":2391,"à¦®à¦²à¦ķ":2392,"à¦®à¦ªà¦¤":2393,"Ġà¦¬à§Ł":2394,"à¦Łà¦¡":2395,"à¦Łà¦¶":2396,"Ġà¦Ĩà¦¦à¦²":2397,"à¦¸à¦¶":2398,"Ġà¦¸à¦¡":2399,"à¦Ľà¦®":2400,"Ġà¦¨à¦²":2401,"Ġà¦¤à¦®":2402,"Ġà¦®à¦Łà¦ķ":2403,"à¦¦à¦ĺ":2404,"à¦¦à¦¨à¦ķ":2405,"à¦ĸà¦ļà¦°":2406,"à¦¡à¦ª":2407,"Ġà¦ķà¦°à¦¨":2408,"à¦Ĺà¦°à¦ķ":2409,"à¦¶à¦ĸ":2410,"à¦¶à¦ķà¦¦":2411,"Ġà¦¯à¦ķ":2412,"Ġà¦¯à¦¶":2413,"Ġà¦ļà¦°à¦£":2414,"à¦ļà¦²à¦Ł":2415,"Ġà¦¬à¦²à¦Ł":2416,"Ġà¦ħà¦ĸ":2417,"Ġà¦ħà¦ĺà¦Łà¦¨":2418,"Ġà¦ıà¦ķà¦Ŀ":2419,"à¦¼à¦¾à¦Ĥ":2420,"Ġà¦ĸà¦°à¦¸":2421,"Ġà¦ĸà¦ļà¦°":2422,"à¦£à¦¹":2423,"Ġà¦«à¦¯":2424,"Ġà¦īà¦Ł":2425,"à¦Ļà¦Ľ":2426,"Ġà¦¬à¦²à¦²à¦ł":2427,"Ġà¦Łà¦¨":2428,"Ġà¦Łà¦²à¦Ł":2429,"Ġà¦Łà¦¨à¦Łà¦¨":2430,"Ġà¦ħà¦¨à¦¡":2431,"Ġà¦ħà¦¨à¦¬à¦°à¦¤":2432,"à¦īà¦ł":2433,"Ġà¦¡à¦°":2434,"à¦«à¦ķ":2435,"Ġà¦®à¦¨à¦ĸ":2436,"Ġà¦ıà¦¸à¦ª":2437,"Ġà¦ĵà¦°à¦ĩ":2438,"à¦°à¦¬à¦§":2439,"à¦¬à¦¨à¦ķ":2440,"Ġà¦ħà¦¬à¦ķ":2441,"à§Īà¦ĥ":2442,"à¦·à¦£à¦ķ":2443,"à¦ķà¦°à¦Ł":2444,"Ġà¦ķà¦¤à¦ľà¦¨":2445,"Ġà¦ıà¦®à¦¨à¦ĵ":2446,"à¦Ĩà¦¶":2447,"Ġà¦ĵà¦ĩà¦¸à¦¬":2448,"Ġà¦ıà¦Ĺà¦¤":2449,"à¦®à¦ķà¦°à¦£":2450,"Ġà¦īà¦ªà¦¡":2451,"Ġà¦ķà¦²à¦Ļ":2452,"Ġà¦¬à¦īà¦ıà¦°":2453,"à¦ļà¦¨à¦ľà¦Ļ":2454,"Ġà¦¬à¦ĩà¦ıà¦°":2455,"à¦®à¦¬à¦Ļ":2456,"Ġà¦ĺà¦¨à¦ĺà¦¨":2457,"à¦§à¦¬à¦¦":2458,"Ġà¦ħà¦²à¦Ļ":2459,"Ġà¦®à¦¶à¦Ĺ":2460,"à¦¨à¦ľà¦¨à¦ĩ":2461,"à¦ªà¦¸à¦¦":2462,"Ġà¦ıà¦ķà¦ĩà¦Ń":2463,"Ġà§°":2464,"Ġà§§à§¯à§®à§":2465,"Ġà¦Ķà¦·à¦§":2466,"Ġà¦ĸà¦ļà¦°à¦ĸà¦ļà¦°":2467,"Ġà¦Łà¦²à¦Łà¦²":2468,"à§«":2469,"à¦¨à¦ĵà¦¯":2470,"à¦¨à¦®à¦¤":2471,"à¦²à¦¬à¦°":2472,"à¦²à¦ĺ":2473,"à¦ķà¦ªà¦Ł":2474,"à¦ķà¦ıà¦°":2475,"à¦¤à¦¹":2476,"à¦¤à¦°à¦¬":2477,"à¦¤à¦®à¦ķ":2478,"Ġà¦ķà¦ĩà¦²":2479,"à¦®à¦ĵà¦¯":2480,"à¦¬à¦ªà¦¨":2481,"Ġà¦¬à¦°à¦¬":2482,"Ġà¦¬à¦ĩà¦²":2483,"Ġà¦Ĩà¦ĩà¦²":2484,"Ġà¦Ĩà¦ªà¦¸":2485,"Ġà¦Ĩà¦¬à¦°à¦£":2486,"Ġà¦¸à¦°à¦¬":2487,"à¦Ľà¦¯":2488,"à¦ĩà¦ĺà¦°":2489,"Ġà¦¨à¦Ń":2490,"Ġà¦¨à¦ĵà¦²":2491,"Ġà¦¦à¦ªà¦¦":2492,"Ġà¦ıà¦ĺà¦°":2493,"à¦¦à¦¬à¦ª":2494,"à¦Ĺà¦ķ":2495,"à¦Ĺà¦°à¦¦":2496,"à¦¶à¦¶":2497,"à¦¶à¦ķà¦²":2498,"à¦¶à¦®à¦¤":2499,"Ġà¦Ĺà¦¤à¦¬":2500,"Ġà¦¬à¦²à¦¨":2501,"Ġà¦ħà¦ĵà¦°à¦¤":2502,"Ġà¦°à¦¹":2503,"à¦§à¦ĵ":2504,"Ġà¦Ńà¦¸":2505,"Ġà¦Ńà¦¡":2506,"Ġà¦Ńà¦¬à¦¨":2507,"à¦¹à¦¨à¦ķ":2508,"Ġà¦ĸà¦°à¦Ĺ":2509,"à¦£à¦¸à¦Ļ":2510,"Ġà¦²à§ľ":2511,"Ġà¦¥à¦ĩ":2512,"Ġà¦īà¦Ńà¦¯":2513,"à§Łà¦ķ":2514,"à§Łà¦®":2515,"à§Łà¦ĩ":2516,"à§Łà¦ľà¦¨":2517,"Ġà¦¬à¦²à¦²à¦ļà¦²":2518,"Ġà¦Ĩà¦°à¦ıà¦ķà¦Ł":2519,"Ġà¦Łà¦®":2520,"Ġà¦Łà¦ķà¦Ł":2521,"Ġà¦¡à¦Ł":2522,"Ġà¦ĩà¦¬à¦¨":2523,"Ġà¦ĩà¦Ńà¦¨":2524,"à¦°à¦ķà¦°":2525,"à¦°à¦ķà¦¯":2526,"Ġà¦ľà¦¨à¦¤":2527,"Ġà¦ľà¦¨à¦¶":2528,"Ġà¦ĺà¦°à¦¦":2529,"Ġà¦¬à¦¨à¦Ĺ":2530,"Ġà¦ħà¦¬à¦²":2531,"Ġà¦ħà¦¬à¦²à¦®":2532,"Ġà¦Ĩà¦ľà¦¬":2533,"Ġà¦ľà¦²à¦ĵ":2534,"à¦Ĩà¦¤":2535,"à¦Ľà¦¨à¦ª":2536,"à¦°à¦¸à¦®":2537,"Ġà¦ķà¦®à¦¬":2538,"Ġà¦ķà¦®à¦ĩ":2539,"Ġà¦īà¦ªà¦¬":2540,"Ġà¦ħà¦ªà¦¦":2541,"Ġà¦ľà¦®à¦ľà¦®":2542,"à¦Łà¦²à¦®":2543,"à¦ľà¦²à¦¦":2544,"à¦®à¦¸à¦®":2545,"Ġà¦¤à¦°à¦«":2546,"Ġà¦ķà¦¨à¦¡":2547,"à¦°à¦ĸà¦°":2548,"Ġà¦ħà¦ķà¦¸":2549,"Ġà¦¬à¦Łà¦Ĺ":2550,"Ġà¦ľà§Łà¦ķ":2551,"à¦®à¦Ľà¦®":2552,"Ġà¦ĩà¦Łà¦¸":2553,"Ġà¦ªà¦°à¦ªà¦°à¦ĩ":2554,"Ġà¦°à¦¤à¦¨à¦ķ":2555,"Ġà¦Łà¦®à¦Łà¦®à¦Ł":2556,"Ġà§¨à§¦":2557,"Ġà¦Ńà¦Łà¦ļ":2558,"Ġà¦¨à¦ľà¦°à¦¦":2559,"Ġà¦¬à¦ķà¦¬à¦ķ":2560,"Ġà¦¥à¦¤à¦®à¦¤":2561,"Ġà¦¦à¦ªà¦¦à¦ª":2562,"Ġà¦Łà¦ķà¦Łà¦ķ":2563,"à§ĩà§ĩ":2564,"à¦°à¦Ŀ":2565,"à¦°à¦°à¦ķ":2566,"à¦¨à¦¬à¦°":2567,"à¦¨à¦ĺ":2568,"à¦²à¦¸à¦®":2569,"à§ģà§ģ":2570,"à¦®à¦¬à¦°":2571,"à¦®à¦®à¦¤":2572,"à¦¬à¦ķà¦¦":2573,"à¦Łà¦ªà¦°":2574,"à¦Łà¦ĵà¦¯":2575,"à¦¸à¦ľ":2576,"à¦¸à¦®à¦¸":2577,"Ġà¦¸à¦ĩà¦¤":2578,"Ġà¦¸à¦¶à¦°":2579,"à¦Ľà¦Ń":2580,"Ġà¦¦à¦ĸ":2581,"Ġà¦¦à¦²à¦¬":2582,"Ġà¦¦à¦²à¦Ł":2583,"Ġà¦ıà¦¹":2584,"Ġà¦¤à¦²à¦¬":2585,"Ġà¦®à¦ľà¦²":2586,"Ġà¦¹à¦ĩà¦¨":2587,"à¦ªà¦ŀ":2588,"à¦ĸà¦¡":2589,"à¦¡à¦¹":2590,"Ġà¦ļà¦°à¦ķ":2591,"à¦ļà¦ª":2592,"à¦ļà¦¨à¦ķ":2593,"à¦ĵà¦Ĺ":2594,"Ġà¦ħà¦£":2595,"Ġà¦ħà¦ĺ":2596,"Ġà¦ħà¦¯à¦¥":2597,"Ġà¦ıà¦ķà¦¨":2598,"Ġà¦°à¦ª":2599,"Ġà¦°à¦¡":2600,"Ġà¦°à¦Ĺà¦¡":2601,"à¦¥à¦¹":2602,"à¦§à¦Ń":2603,"à¦¹à¦°à¦ķ":2604,"à¦£à¦¸à¦®":2605,"Ġà¦²à¦¬":2606,"Ġà¦²à¦ĸ":2607,"Ġà¦«à¦¡":2608,"Ġà¦«à¦Łà¦ķ":2609,"Ġà¦īà¦¸":2610,"Ġà¦īà¦¤à¦²":2611,"à§Łà¦¡à¦«":2612,"Ġà¦¬à¦²à¦²à¦ıà¦¬":2613,"Ġà¦ıà¦ĩà¦ļ":2614,"à¦īà¦°à¦²":2615,"à¦ľà¦¨à¦ĵ":2616,"à¦Ŀà¦®":2617,"Ġà¦ıà¦¸à¦®à¦¯":2618,"à¦°à¦ķà¦¨":2619,"Ġà¦Ŀà§ľ":2620,"à¦°à¦£à¦ķ":2621,"Ġà¦¢à¦ķ":2622,"à¦ıà¦²":2623,"à¦ıà¦¦":2624,"à¦ĺà¦¦":2625,"à¦°à¦®à¦°":2626,"à¦Ĺà¦²à¦ķ":2627,"à¦Ĺà¦²à¦ª":2628,"à¦°à¦²à¦¯":2629,"à¦¬à¦²à¦ª":2630,"Ġà¦ķà¦¤à¦ĩ":2631,"Ġà¦ķà¦¤à¦ĸ":2632,"Ġà¦ĵà¦ĩà¦ĸ":2633,"à¦°à¦¸à¦¬":2634,"à¦°à¦¥à¦®à¦ľà¦¨":2635,"Ġà¦ĩà¦¨à¦¡":2636,"Ġà¦ħà¦ªà¦¬":2637,"Ġà¦ªà¦¥à¦ļ":2638,"Ġà¦ħà¦®à¦Ļ":2639,"Ġà¦īà¦¦à¦¯":2640,"Ġà¦Ĳà¦Ł":2641,"Ġà¦Ŀà¦¨à¦Ŀà¦¨":2642,"Ġà¦Ĩà¦¤à¦¤":2643,"à¦ħà¦Ń":2644,"Ġà¦Ĩà¦¦à¦®":2645,"à¦ķà¦ľà¦¨à¦ķ":2646,"Ġà¦Ĩà¦§à¦Ł":2647,"à¦²à¦®à¦¹":2648,"Ġà¦°à¦¸à¦Ĺ":2649,"Ġà¦ķà¦¨à¦Ń":2650,"Ġà¦ķà¦Łà¦®à¦Ł":2651,"à¦īà¦Łà¦¨":2652,"Ġà¦®à¦ľà¦¦":2653,"Ġà¦ĩà¦²à¦¶":2654,"à¦ľà¦¦à¦°à¦¬":2655,"à¦°à¦®à¦£à¦ķ":2656,"Ġà§§à§Ń":2657,"Ġà¦Ĩà¦ĩà¦¨à¦¸":2658,"à§¦à§Ń":2659,"Ġà¦ĩà¦īà¦ıà¦«à¦ĵà¦°":2660,"à¦¾à¦¾":2661,"à¦¨à¦§":2662,"à¦¨à¦ħ":2663,"à¦²à¦Ŀ":2664,"à¦ķà¦Ŀ":2665,"à¦¯à¦¦à¦²":2666,"à¦¼à§Ĥ":2667,"à¦¤à¦§":2668,"à¦¤à¦°à¦ķ":2669,"à¦¤à¦¨à¦Ł":2670,"à¦¤à¦¦à¦¨":2671,"à¦¤à¦¸à¦ķ":2672,"Ġà¦ķà¦ĵ":2673,"Ġà¦ķà¦ļà¦²":2674,"à¦®à¦Ĩ":2675,"à¦¬à¦Ĺà¦¤":2676,"Ġà¦¬à¦Ĺ":2677,"Ġà¦¬à¦°à¦£":2678,"à¦Łà¦®à¦£":2679,"à¦¸à¦ļ":2680,"à¦¸à¦§":2681,"à¦¸à¦°à¦ķ":2682,"à¦¸à¦ķà¦°":2683,"Ġà¦¸à¦ļà¦°":2684,"à¦Ľà¦ĵ":2685,"à¦ĩà¦ªà¦Ł":2686,"à¦ĩà¦¸à¦®à¦¯":2687,"Ġà¦¨à¦¨à¦¸":2688,"Ġà¦¦à¦ĩ":2689,"Ġà¦¦à¦°à¦¬":2690,"Ġà¦¤à¦°à¦¤à¦°":2691,"à¦¦à¦°à¦Ł":2692,"à¦¦à¦ªà¦¤":2693,"Ġà¦¹à¦°à¦¤":2694,"Ġà¦¹à¦ĩà¦Ľ":2695,"à¦ªà¦²à¦ķ":2696,"à¦ĸà¦ĩ":2697,"à¦ĸà¦§":2698,"à¦ĸà¦ķà¦°":2699,"à¦ľà§Ł":2700,"à¦ľà¦Ń":2701,"à¦Ĺà¦ł":2702,"à¦¶à¦Ļ":2703,"Ġà¦ļà¦ª":2704,"Ġà¦ļà¦Łà¦ķ":2705,"Ġà¦Ĺà¦Ĺà¦¨":2706,"à¦ļà¦Ĺ":2707,"Ġà¦ľà¦ĺà¦¨":2708,"à¦ĵà¦Ľ":2709,"à¦ĵà¦ıà¦°":2710,"Ġà¦¬à¦²à¦¦":2711,"Ġà¦ħà¦Ľ":2712,"Ġà¦ıà¦ķà¦Ĩà¦§à¦Ł":2713,"Ġà¦°à¦Łà¦¨":2714,"à¦¥à¦ļ":2715,"Ġà¦¶à¦ª":2716,"à¦¹à¦«":2717,"à¦¹à¦ķà¦°":2718,"Ġà¦ĵà¦¨à¦²":2719,"Ġà¦Ľà¦ª":2720,"Ġà¦Ľà¦Łà¦ķ":2721,"Ġà¦Ľà¦®à¦Ľà¦®":2722,"à¦£à¦ļà¦¨":2723,"Ġà¦²à¦¬à¦£":2724,"Ġà¦īà¦®":2725,"Ġà¦īà¦ĩà¦¨":2726,"à¦Ńà¦°à¦¤":2727,"Ġà¦¬à¦²à¦²à¦ıà¦ķ":2728,"Ġà¦Łà¦¹à¦²":2729,"Ġà¦ªà¦°à¦ª":2730,"Ġà¦§à¦¸":2731,"à¦īà¦¥":2732,"à¦īà¦ŀ":2733,"à¦īà¦¨à¦Ł":2734,"Ġà¦¡à¦²à¦«":2735,"Ġà¦¸à¦®à¦¤à¦²":2736,"Ġà¦ĩà¦ĵà¦°":2737,"à¦°à¦¤à¦®":2738,"à¦°à¦¬à¦£":2739,"Ġà¦ħà¦¬à¦¯":2740,"Ġà¦Ĺà¦²à¦¤":2741,"à¦ıà¦Ĺ":2742,"à¦°à¦®à¦¤":2743,"à¦·à¦£à¦ĩ":2744,"à¦¨à¦¤à¦¤":2745,"à¦ĩà¦²à¦¨":2746,"à¦ĩà¦²à¦ļ":2747,"à¦Ĩà¦¨":2748,"à¦Ĩà¦ĩ":2749,"à¦Ĩà¦Ļ":2750,"à¦®à¦¤à¦²":2751,"Ġà¦¯à¦ĸà¦¨à¦¤à¦ĸà¦¨":2752,"Ġà¦ħà¦Ńà¦¦":2753,"Ġà¦¶à¦¬à¦¦":2754,"Ġà¦ķà¦®à¦ªà¦ķ":2755,"Ġà¦īà¦ªà¦Ĺ":2756,"à¦¹à¦°à¦¨":2757,"à¦²à¦²à¦ĵà¦¹":2758,"Ġà¦ħà¦®à¦²à¦ķ":2759,"Ġà¦¯à¦¤à¦¬":2760,"Ġà¦¦à¦¶à¦®":2761,"Ġà¦¦à¦¶à¦¦":2762,"Ġà¦ıà¦¨à¦¸":2763,"Ġà¦«à¦²à¦¸":2764,"Ġà¦ªà¦¦à¦¬":2765,"Ġà¦ıà¦¸à¦¬à¦ĩ":2766,"à¦ħà¦¬à¦¸":2767,"Ġà¦Ĺà¦°à¦Ĺà¦°":2768,"Ġà¦ħà¦ľà§Łà¦¦":2769,"Ġà§ª":2770,"Ġà§Ń":2771,"Ġà¦Ĺà¦®à¦Ĺà¦®":2772,"Ġà¦Īà¦Ĺà¦°à¦ķ":2773,"à¦°à¦«à¦¤":2774,"Ġà¦Ŀà¦°à¦Ŀà¦°":2775,"Ġà§§à§¦":2776,"Ġà¦¶à¦¹à¦°à¦¤à¦²":2777,"Ġà¦¬à¦²à¦²à¦ıà¦ĸ":2778,"Ġà¦Ĭà¦¨à¦¸à¦¤":2779,"Ġà¦ıà¦ķà¦Ŀà¦²à¦ķ":2780,"à§©":2781,"à§ª":2782,"à¦°à¦®à¦¨":2783,"à¦°à¦ľà¦¨à¦ķ":2784,"à¦¨à¦¥":2785,"à¦¨à¦ªà¦°":2786,"à¦¨à¦¸à¦¬":2787,"à¦²à¦§":2788,"à¦²à§Ł":2789,"à¦²à§İ":2790,"à¦¯à§Ł":2791,"à¦¤à¦Ĩ":2792,"à¦¤à¦ļà¦²":2793,"Ġà¦ķà¦ªà¦Ł":2794,"Ġà¦ķà¦ĩà¦¬":2795,"à¦®à¦¥":2796,"à¦®à¦¹à¦²":2797,"à¦®à¦Ĩà¦®":2798,"à¦¬à¦ķà¦¨":2799,"à¦¬à¦ļà¦ķ":2800,"à¦Łà¦ķà¦°":2801,"Ġà¦Ĩà¦ī":2802,"Ġà¦Ĩà¦ŀ":2803,"Ġà¦Ĩà¦ĩà¦°":2804,"à¦¸à¦ı":2805,"Ġà¦¸à¦ļà¦²":2806,"à¦Ľà¦¸":2807,"à¦ĩà¦Ŀ":2808,"à¦ĩà¦ı":2809,"Ġà¦¨à¦°à¦¹à¦°":2810,"Ġà¦¦à¦®à¦¦":2811,"Ġà¦ıà¦®à¦¬":2812,"Ġà¦®à¦°à¦Ł":2813,"à¦¦à¦¡":2814,"à¦¦à¦Ń":2815,"à¦ªà¦¬à¦¯":2816,"à¦ĸà¦¶":2817,"à¦¡à¦ĩ":2818,"à¦¡à¦ĵ":2819,"à¦ľà¦ªà¦¤":2820,"à¦ľà¦Ĺà¦¤":2821,"Ġà¦ķà¦°à¦£":2822,"à¦Ĺà¦®à¦¨":2823,"à¦Ĺà¦¨à¦²":2824,"Ġà¦Ĺà¦®à¦¨":2825,"à¦ļà¦ł":2826,"à¦ļà§ľ":2827,"Ġà¦ıà¦ķà¦ķà¦¥":2828,"Ġà¦°à¦¦":2829,"Ġà¦°à¦Ĺ":2830,"à¦§à¦ĩ":2831,"à¦§à¦ªà¦¤":2832,"à¦§à¦Ĺà¦®":2833,"à¦·à¦¬à¦¦":2834,"Ġà¦¶à¦°à¦£":2835,"Ġà¦¶à¦¤à¦ķ":2836,"Ġà¦¶à¦°à¦¬à¦¤":2837,"Ġà¦¶à§Łà¦¤":2838,"à¦¹à¦ĸ":2839,"à¦¹à¦®à¦¨":2840,"à¦¹à¦Ĺà¦¨":2841,"Ġà¦ĸà¦Ĺ":2842,"Ġà¦ĵà¦ĺà¦°":2843,"Ġà¦Ľà¦Ĺà¦¨à¦²":2844,"à¦£à¦Ĺ":2845,"Ġà¦²à¦ĺ":2846,"Ġà¦²à§ľà¦Ľ":2847,"Ġà¦īà¦¤à¦°":2848,"à¦łà¦¶":2849,"Ġà¦¬à¦²à¦²à¦ļ":2850,"Ġà¦¬à¦²à¦²à¦ĵ":2851,"Ġà¦¬à¦²à¦²à¦¸à¦¬":2852,"Ġà¦ĺà¦°à¦ķ":2853,"Ġà¦ħà¦¨à¦°":2854,"Ġà¦ħà¦¨à¦¶à¦¨":2855,"Ġà¦§à¦ķ":2856,"Ġà¦Ĩà¦¸à¦®":2857,"à¦«à¦¥":2858,"Ġà¦¹à¦²à¦Ł":2859,"à¦Ŀà¦¬à¦¯":2860,"Ġà¦ļà¦²à¦ķ":2861,"Ġà¦ĩà¦²à¦¸":2862,"Ġà¦¸à¦¬à¦ķà¦Ł":2863,"à§İà¦²":2864,"Ġà¦ĵà¦°à¦«":2865,"Ġà¦Ŀà¦°à¦¨":2866,"Ġà¦Ŀà¦Ĺà§ľ":2867,"à¦ķà¦Łà¦°":2868,"Ġà¦§à¦°à¦£":2869,"à¦¬à¦°à¦ĵ":2870,"Ġà¦ĺà¦°à¦ĸ":2871,"Ġà¦ĺà¦°à¦®à¦¯":2872,"Ġà¦Ĩà¦²à¦ķ":2873,"Ġà¦Ĩà¦²à¦ĸ":2874,"à¦ķà¦²à¦®":2875,"à¦Ĺà¦²à¦¨":2876,"à¦²à¦ķà¦ª":2877,"Ġà¦ıà¦¤à¦ĸ":2878,"à¦¬à¦²à¦¬":2879,"Ġà¦ľà¦²à¦ľ":2880,"Ġà¦ľà¦²à¦¢":2881,"Ġà¦ķà¦¤à¦°à¦ķà¦®":2882,"à¦Ĩà¦ª":2883,"à¦Ĩà¦ªà¦¦":2884,"Ġà¦Ĩà¦¨à¦ľ":2885,"à¦ĩà¦°à¦¨":2886,"à¦°à¦¥à¦®à¦ª":2887,"Ġà¦ıà¦ķà¦ľà¦¨à¦ĩ":2888,"à¦°à¦¦à¦ķ":2889,"Ġà¦Ľà¦¬à¦Ľà¦°":2890,"Ġà¦ħà¦¤à¦¦":2891,"Ġà¦ħà¦¤à¦Ĺ":2892,"à¦¬à¦¤à¦¨":2893,"à¦¬à¦¤à¦®":2894,"Ġà¦ķà¦²à¦°à¦¬":2895,"Ġà¦¬à¦°à¦¯":2896,"Ġà¦ħà¦ªà¦ļà¦¯":2897,"Ġà¦ķà¦¬à¦Ľà¦°":2898,"à¦¬à¦ªà¦²":2899,"à§İà¦¸à¦°":2900,"Ġà¦īà¦¦à¦Ĺ":2901,"à¦°à¦ļà¦²":2902,"Ġà¦ıà¦¨à¦ľ":2903,"Ġà¦°à¦Ļà¦Ł":2904,"à¦ªà¦Łà¦ª":2905,"Ġà¦ªà¦¦à¦¤":2906,"Ġà¦¬à¦ĩà¦ĸ":2907,"Ġà¦¬à¦ĩà¦ªà¦¤":2908,"à¦¤à¦®à¦£":2909,"à¦ħà¦¬":2910,"à¦ħà¦Ļ":2911,"Ġà¦Ĩà¦§à¦ª":2912,"Ġà¦Ĩà¦§à¦¶":2913,"Ġà¦ıà¦°à¦ķà¦®à¦ĩ":2914,"à¦Łà¦¬à¦ī":2915,"Ġà§«":2916,"Ġà§¬":2917,"à¦¬à¦Łà¦¦":2918,"à¦ıà¦ĩà¦ļ":2919,"à¦ĩà¦ªà¦ĩ":2920,"Ġà¦·à¦£":2921,"Ġà¦īà§İà¦«":2922,"Ġà¦īà§İà¦ªà¦¤":2923,"à¦²à¦ļà¦²à¦¨":2924,"Ġà¦¬à¦²à¦²à¦ıà¦ĸà¦¨":2925,"Ġà¦Ŀà¦ķà¦®à¦ķ":2926,"Ġà¦®à¦¤à¦²à¦¬à¦Ł":2927,"Ġà¦Ķà¦ľ":2928,"Ġà¦¶à¦°à§İà¦ļà¦¨":2929,"Ġà¦¤à§İà¦ªà¦°à¦¤":2930,"Ġà§¨à§¦à§¦à§":2931,"Ġà¦¦à¦®à¦¦à¦®":2932,"à§§":2933,"à¦¨à¦ķà¦°":2934,"à¦¨à¦ıà¦ķ":2935,"à¦²à¦ı":2936,"à¦²à¦Ĺà¦²":2937,"à¦²à¦ıà¦ĩ":2938,"à¦²à¦¶à¦¯":2939,"à¦ķà¦®à¦²":2940,"à¦ķà¦ļà¦°":2941,"à¦ķà¦ħà¦¨":2942,"à¦¯à¦§":2943,"à¦¯à¦®à¦¨":2944,"à¦¯à¦ľà¦¨à¦ķ":2945,"à¦¤à¦«":2946,"à¦¤à¦¬à¦°":2947,"à¦®à¦ŀ":2948,"à¦®à¦ĺ":2949,"à¦®à¦°à¦¸":2950,"à¦¬à¦ªà¦¤":2951,"à¦¬à¦Łà¦Ł":2952,"à¦¬à¦īà¦®":2953,"Ġà¦¬à¦ķà¦¶":2954,"à¦¸à¦ĺ":2955,"Ġà¦¸à¦®à¦¨":2956,"Ġà¦ªà¦¤à¦¨":2957,"Ġà¦ªà¦ĩà¦ªà¦ĩ":2958,"à¦Ľà¦ĩ":2959,"à¦Ľà¦¦":2960,"à¦ĩà¦ķà¦Ł":2961,"Ġà¦¨à¦¶":2962,"Ġà¦¨à¦¬à¦¬":2963,"Ġà¦¦à§ľ":2964,"Ġà¦ıà§Ł":2965,"Ġà¦ıà§ľ":2966,"Ġà¦ıà¦°à¦²":2967,"Ġà¦®à¦Ł":2968,"à¦¦à¦°à¦¬":2969,"à¦¦à¦°à¦²":2970,"à¦¦à¦®à¦¤":2971,"à¦¦à¦®à¦¯":2972,"à¦ªà¦§":2973,"à¦ªà¦ªà¦°":2974,"à¦ªà¦ī":2975,"à¦ªà¦ĺ":2976,"à¦ªà¦¢":2977,"à¦ĸà¦ª":2978,"à¦ĸà¦Ń":2979,"à¦¡à¦²à¦ķ":2980,"à¦Ĺà¦®à¦ª":2981,"à¦¶à¦ľ":2982,"à¦¶à§Ł":2983,"à¦¶à¦®à¦¨":2984,"à¦¶à¦¨à¦ĵ":2985,"Ġà¦ļà¦·":2986,"Ġà¦ļà¦ķà¦²":2987,"Ġà¦Ĺà¦Ľ":2988,"Ġà¦ľà¦®à¦²":2989,"Ġà¦ľà¦®à¦¤":2990,"Ġà¦ľà¦®à¦ķ":2991,"à¦ĵà¦Ń":2992,"Ġà¦ħà¦ķà¦²":2993,"Ġà¦ħà¦ķà¦°":2994,"Ġà¦ıà¦ķà¦®à¦¨":2995,"Ġà¦ıà¦ķà¦®à¦¤":2996,"Ġà¦°à¦«":2997,"à¦¥à¦ĩ":2998,"à¦¥à¦ĵ":2999,"à¦§à¦Ĺ":3000,"Ġà¦Ńà¦¬à¦¤":3001,"à¦¹à¦ĵ":3002,"à¦¹à¦ĵà¦¯":3003,"à¦¹à¦ľà¦¨à¦ķ":3004,"Ġà¦ĸà¦¨à¦¨":3005,"Ġà¦ĵà¦®à¦¨":3006,"à¦£à¦Ńà¦°":3007,"Ġà¦²à¦¯":3008,"Ġà¦īà¦¶":3009,"Ġà¦īà¦¥":3010,"Ġà¦īà¦Łà¦ķ":3011,"Ġà¦īà¦¸à¦ķ":3012,"Ġà¦īà¦¶à¦ķ":3013,"à¦Ļà¦ķ":3014,"à¦łà¦°":3015,"à¦łà¦ĸ":3016,"Ġà¦¬à¦²à¦²à¦¬à¦²":3017,"Ġà¦Łà¦²à¦Ľ":3018,"Ġà¦Łà¦²à¦®à¦²":3019,"à¦®à¦¨à¦°":3020,"Ġà¦§à¦²à¦¡":3021,"à¦īà¦ª":3022,"à¦īà¦¨à¦¸":3023,"Ġà¦¡à¦¨":3024,"Ġà¦ļà¦²à¦®":3025,"Ġà¦ĩà¦īà¦ķ":3026,"Ġà¦ĩà¦¸à¦®":3027,"Ġà¦ĩà¦«à¦°":3028,"Ġà¦Ĩà¦ªà¦¨à¦ľà¦¨":3029,"à¦°à¦ķà¦¬":3030,"Ġà¦ľà¦¨à¦¬":3031,"Ġà¦ĵà¦°à¦ĵ":3032,"à§ľà¦¦":3033,"à¦¤à¦°à¦¯":3034,"à¦¤à¦°à¦ŀ":3035,"Ġà¦¬à¦¨à¦¶":3036,"Ġà¦¬à¦¨à¦Ń":3037,"à¦°à¦£à¦ĵ":3038,"Ġà¦Ĩà¦Ĺà¦¤":3039,"à¦¬à¦¨à¦ĩ":3040,"à¦¬à¦¨à¦Ńà¦°":3041,"Ġà¦Ĩà¦²à¦¬à§İ":3042,"à¦ıà¦°à¦ķà¦®":3043,"à¦ĺà¦®":3044,"à¦ĺà¦ľ":3045,"Ġà¦ľà¦²à¦Ł":3046,"Ġà¦ľà¦²à¦Ńà¦°":3047,"à¦¦à¦°à¦ľ":3048,"à¦Ĩà¦Ĺ":3049,"à¦Ĩà¦¨à¦Ĺ":3050,"à¦ķà¦¤à¦ķ":3051,"Ġà¦¸à¦°à¦·":3052,"à¦°à¦ľà¦²":3053,"à¦Ľà¦¨à¦¦":3054,"à¦ªà¦¤à¦¨":3055,"à¦°à¦¥à¦®à¦¦":3056,"à¦²à¦¬à¦ķ":3057,"Ġà¦®à¦¹à¦¬":3058,"Ġà¦īà¦ªà¦°à¦¨":3059,"Ġà¦īà¦ªà¦°à¦ĩ":3060,"Ġà¦ħà¦¤à¦¶à¦¤":3061,"Ġà¦Ĩà¦ķà¦¬à¦°":3062,"Ġà¦¬à¦°à¦ŀ":3063,"à¦¨à¦¬à¦¹":3064,"à¦ªà¦¦à¦Ĩà¦ªà¦¦":3065,"Ġà¦Ĳà¦°à¦ķà¦®":3066,"à¦ªà¦Łà¦²":3067,"à¦¨à¦¸à¦ĩ":3068,"Ġà¦ľà¦®à¦Ľ":3069,"à¦¸à¦ķà¦®":3070,"à¦ħà¦«":3071,"à¦ħà¦¥à¦ļ":3072,"Ġà¦¹à¦°à¦°":3073,"Ġà¦ķà¦·à¦¤":3074,"à¦®à¦¸à¦®à¦°":3075,"Ġà¦ħà¦§à¦°":3076,"Ġà¦ħà¦²à¦°":3077,"à¦¢à¦²":3078,"Ġà¦ħà¦ľà§Ł":3079,"Ġà¦¬à¦ķà¦Ľ":3080,"Ġà¦Ĩà¦ĩà¦ļ":3081,"à¦Łà¦¬à¦¡":3082,"Ġà¦ķà¦¦à¦®à¦¬":3083,"Ġà¦¨à§Łà¦¤":3084,"Ġà¦ĸà¦°à¦ļà¦Ł":3085,"à¦¬à¦¶à¦®":3086,"Ġà¦·à¦¡":3087,"Ġà¦·à¦·":3088,"Ġà¦ļà¦Łà¦ľà¦²à¦¦":3089,"à¦ķà¦¶à¦¨à¦Ł":3090,"Ġà¦ĩà¦īà¦ľ":3091,"Ġà¦°à¦ľà¦¤à¦¦":3092,"Ġà¦ĩà¦®à¦ªà¦°":3093,"à¦ľà¦¸à¦Ń":3094,"Ġà¦¦à¦®à¦¬à¦¨":3095,"Ġà§§à§ª":3096,"Ġà¦Ńà§Łà¦Ļ":3097,"Ġà¦Ĩà¦ĩà¦¨à¦ķ":3098,"à¦ĸà¦¬à¦°à¦Ł":3099,"Ġà¦Ĩà¦«à¦Ĺ":3100,"Ġà¦ĭà¦¤":3101,"Ġà¦ªà¦Łà¦Ń":3102,"Ġà¦Ķà¦°":3103,"Ġà§§à§¯à§Ń":3104,"Ġà§§à§¯à§§à§":3105,"à¦Īà¦¦":3106,"Ġà¦ĩà¦¨à¦«à¦°à¦®":3107,"à¦¶à¦ĵà¦ª":3108,"Ġà¦īà¦ĩà¦¥":3109,"à¦¨à§Łà¦¬":3110,"Ġà¦¨à¦ĵà¦ľ":3111,"Ġà¦ĩà¦īà¦ıà¦«à¦ĵ":3112,"Ġà¦®à¦°à¦Łà¦¨":3113,"à¦ªà¦īà¦ªà¦¨":3114,"à¦Ĭ":3115,"à¦°à¦ı":3116,"à¦°à¦ıà¦°":3117,"à¦°à¦Ĩà¦®":3118,"à¦¨à¦ł":3119,"à¦¨à¦¬à¦¤":3120,"à¦¨à¦ªà¦ķ":3121,"à¦¨à¦ıà¦ķà¦Ł":3122,"à¦¨à¦Ńà¦°":3123,"à¦¨à¦Ĩà¦®à¦°":3124,"à¦¨à¦Ĩà¦¸":3125,"à¦²à¦®à¦°":3126,"à¦²à¦Ĩà¦®":3127,"à¦²à¦¸à¦ķ":3128,"à¦²à¦Ĩà¦ªà¦¨":3129,"à¦ķà¦ªà¦°":3130,"à¦ķà¦¬à¦°":3131,"à¦ķà¦¸à¦¨":3132,"à¦¯à¦ŀ":3133,"à¦¯à¦ķà¦²":3134,"à¦¯à¦®à¦¤":3135,"à¦¯à¦Łà¦ķ":3136,"à¦¤à¦£":3137,"à¦¤à¦Ŀ":3138,"à¦¤à¦²à¦¤":3139,"Ġà¦ķà¦¹":3140,"Ġà¦ķà¦¸à¦®":3141,"à¦®à¦ľà¦¨":3142,"à¦®à¦°à¦¤":3143,"à¦¬à¦ªà¦°":3144,"à¦¬à¦¬à¦°":3145,"à¦¬à¦ļà¦°":3146,"Ġà¦¬à¦ļ":3147,"Ġà¦¬à¦¹à¦°":3148,"à¦Łà¦ľ":3149,"à¦Łà¦ļ":3150,"à¦Łà¦ł":3151,"à¦Łà¦®à¦¨":3152,"à¦Łà¦Ĩ":3153,"à¦Łà¦ıà¦°":3154,"Ġà¦Ĩà¦ĩà¦Ł":3155,"Ġà¦Ĩà¦ĵà¦¤":3156,"à¦¸à¦¬à¦¨":3157,"à¦¸à¦®à¦¤":3158,"Ġà¦¸à¦Ĺà¦°":3159,"Ġà¦ªà¦¸":3160,"Ġà¦ªà¦ľ":3161,"Ġà¦ªà¦ļà¦¨":3162,"à¦ĩà¦§":3163,"à¦ĩà¦¶à¦Ł":3164,"Ġà¦¨à¦Ĺà¦¦":3165,"Ġà¦¤à¦ĸ":3166,"Ġà¦¤à¦Ľà¦¨":3167,"Ġà¦¤à¦¸à¦¬":3168,"Ġà¦¤à§İà¦¸":3169,"Ġà¦®à¦®":3170,"Ġà¦®à¦ĸ":3171,"Ġà¦®à§İ":3172,"Ġà¦®à§Łà¦¨":3173,"à¦¦à¦ľ":3174,"Ġà¦¹à¦°à¦¬":3175,"Ġà¦¹à¦®à¦ķ":3176,"Ġà¦¹à¦ķà¦¸":3177,"à¦ªà¦ĸ":3178,"à¦ĸà¦¯":3179,"à¦¡à¦¸à¦¨":3180,"à¦ľà¦¹":3181,"à¦ľà¦ªà¦¥":3182,"Ġà¦ķà¦°à¦®à¦°":3183,"à¦Ĺà¦¯":3184,"à¦¶à¦ļ":3185,"à¦¶à¦¹à¦°":3186,"à¦¶à¦§à¦°":3187,"à¦ļà¦ľà¦¨à¦ķ":3188,"Ġà¦Ĩà¦®à¦¬":3189,"Ġà¦Ĩà¦®à¦¦":3190,"à¦ĵà§ľ":3191,"Ġà¦ħà¦¯à¦¤":3192,"Ġà¦ıà¦ķà¦Ń":3193,"Ġà¦ıà¦ķà¦°à¦¤":3194,"Ġà¦ıà¦ķà¦Ĩ":3195,"Ġà¦°à¦¸à¦¬":3196,"à¦¥à¦¡":3197,"à¦¥à¦Ń":3198,"à¦¥à¦ķà¦¤":3199,"à¦§à¦ķà¦°":3200,"à¦·à¦Ń":3201,"à¦·à¦¤à¦¬":3202,"Ġà¦¶à¦°à¦¤":3203,"Ġà¦¶à¦°à¦¬":3204,"Ġà¦Ńà¦²à¦ķ":3205,"à¦¹à¦¦":3206,"à¦¹à¦ļà¦°":3207,"Ġà¦ĵà¦ĵ":3208,"Ġà¦Ľà¦ľà¦¨":3209,"Ġà¦Ľà¦ĩà¦¯":3210,"à¦£à¦¸":3211,"Ġà¦²à¦¹à¦®":3212,"Ġà¦«à¦²à¦¬":3213,"Ġà¦«à¦ľà¦°":3214,"Ġà¦īà¦ĩà¦®":3215,"Ġà¦īà¦¥à¦²":3216,"à§Łà¦Ł":3217,"à¦Ńà¦®":3218,"à¦Ńà¦°à¦¶":3219,"Ġà¦¬à¦²à¦²à¦¡":3220,"Ġà¦ĺà¦¸":3221,"Ġà¦Łà¦¬":3222,"Ġà¦Łà¦Ĺà¦¬":3223,"Ġà¦ªà¦°à¦ĸ":3224,"Ġà¦ªà¦°à¦ļ":3225,"à¦ªà¦°à¦¬":3226,"Ġà¦§à¦¬à¦²":3227,"à¦īà¦¬à¦¨":3228,"à¦īà¦ĩà¦¯":3229,"à¦īà¦¬à¦Ł":3230,"à¦«à¦¤":3231,"Ġà¦®à¦¨à¦®à¦°":3232,"à¦Ŀà¦ªà¦¥":3233,"à¦ŀà¦¦":3234,"Ġà¦ĩà¦°":3235,"Ġà¦ĩà¦ķà¦¨":3236,"Ġà¦ĩà¦¸à¦ª":3237,"Ġà¦¸à¦¬à¦²":3238,"Ġà¦¸à¦¬à¦¸":3239,"Ġà¦¸à¦¬à¦ĸ":3240,"à¦°à¦ķà¦¦":3241,"à¦°à¦ķà¦£":3242,"à§İà¦Ľà¦²":3243,"à¦°à¦¤à¦ķ":3244,"Ġà¦Ŀà¦®":3245,"Ġà¦ıà¦²à¦®":3246,"à¦¤à¦°à¦ĩ":3247,"à¦¤à¦°à¦ª":3248,"à¦¬à¦°à¦Ĺ":3249,"à¦¬à¦°à¦ļ":3250,"Ġà¦ĺà¦°à¦Ľ":3251,"à¦°à¦£à¦¯":3252,"à¦¬à¦¨à¦°":3253,"à¦¬à¦¨à¦¬":3254,"à¦¨à¦ĵà¦Ń":3255,"Ġà¦ħà¦¬à¦¤":3256,"Ġà¦ħà¦¬à¦ļ":3257,"Ġà¦ħà¦¬à¦¸à¦¨":3258,"Ġà¦ħà¦¬à¦¤à¦°à¦£":3259,"à¦°à¦ªà¦°à¦ıà¦ķà¦Ł":3260,"Ġà¦Ĩà¦ľà¦Ĺ":3261,"à¦ĺà¦Ĺ":3262,"à¦ķà¦²à¦¨":3263,"à¦ķà¦²à¦¸":3264,"à¦·à¦£à¦¶":3265,"à¦Ĺà¦²à¦®":3266,"à¦Ĺà¦²à¦ĩ":3267,"Ġà¦¤à¦¬à¦²":3268,"à¦¬à¦²à¦¸":3269,"Ġà¦ľà¦²à¦°":3270,"Ġà¦ħà¦¸à¦¤":3271,"Ġà¦ħà¦¸à§İ":3272,"Ġà¦¬à¦Ľà¦°à¦ĩ":3273,"à¦Ĩà¦¦":3274,"à¦Ĩà¦ĩà¦ª":3275,"Ġà¦īà¦łà¦²à¦¤":3276,"à¦ĩà¦¨à¦®":3277,"à¦ĩà¦¨à¦¹":3278,"Ġà¦ıà¦ķà¦ľà¦¨à¦ĵ":3279,"à¦¯à¦¬à¦ļ":3280,"Ġà¦ħà¦¤à¦ķ":3281,"Ġà¦ķà¦®à¦Ľ":3282,"Ġà¦īà¦ªà¦ļ":3283,"à¦¬à¦¤à¦¶":3284,"Ġà¦Ĩà¦ķà¦¸":3285,"Ġà¦ķà¦²à¦®à¦Ł":3286,"Ġà¦ħà¦ªà¦¸":3287,"Ġà¦ħà¦ªà¦¹à¦°à¦£":3288,"à¦¨à¦¬à¦ľ":3289,"à¦ªà¦¦à¦¦":3290,"à¦¦à¦¨à¦¦":3291,"à§İà¦¸à¦ķ":3292,"Ġà¦Ĳà¦ĸ":3293,"Ġà¦Ĳà¦¶":3294,"à¦°à¦¹à¦¸":3295,"Ġà¦¸à¦¹à¦ļà¦°":3296,"à¦¸à¦°à¦ĺà¦°":3297,"à¦°à¦ªà¦ķ":3298,"à¦¤à¦ķà¦£":3299,"Ġà¦ªà¦¦à¦§":3300,"à¦¨à¦¦à¦¶":3301,"Ġà¦Ĺà¦¨à¦Ĺà¦¨":3302,"à¦ªà¦ķà¦®":3303,"Ġà¦ĺà¦¨à¦¶":3304,"Ġà¦ħà¦§à¦¸":3305,"Ġà¦ħà¦²à¦Ĺ":3306,"à¦ķà¦¶à¦ª":3307,"à¦ľà¦¬à¦ī":3308,"Ġà¦°à¦¸à¦¦":3309,"Ġà¦Ĩà¦ĩà¦ı":3310,"Ġà¦ħà¦¶à¦°":3311,"Ġà¦§à¦¨à¦°à¦¤":3312,"Ġà¦ªà¦¤à¦Ļ":3313,"Ġà¦¬à¦Łà¦¤à¦²":3314,"Ġà¦ªà¦¨à¦°":3315,"Ġà¦¸à¦¹à¦ľà¦Ń":3316,"à¦¬à¦¶à¦°":3317,"à¦¬à¦¶à¦Ļ":3318,"Ġà¦ªà¦¶à¦®":3319,"à¦°à¦®à¦¶à¦ĩ":3320,"Ġà¦¶à¦¤à¦ķà¦°":3321,"à¦ĩà¦ľà¦¡":3322,"Ġà¦ıà¦Ńà¦°":3323,"Ġà¦¹à¦ĩà¦ļ":3324,"Ġà¦Ĩà¦Łà¦ª":3325,"Ġà¦Ĩà¦Łà¦ļà¦²":3326,"Ġà¦īà§İà¦°":3327,"Ġà¦īà§İà¦ķà¦°":3328,"Ġà¦ıà¦ķà¦¶à¦¤":3329,"Ġà¦ħà¦Ĺà¦£":3330,"Ġà¦¸à¦Ńà¦¯":3331,"Ġà¦īà¦ªà¦ķà¦°à¦£":3332,"Ġà¦¬à¦ĩà¦Łà¦ĩ":3333,"Ġà¦°à¦£à¦§":3334,"Ġà§§à§©":3335,"Ġà§§à§®à§":3336,"Ġà¦Ĺà¦ľà¦Ĺà¦ľ":3337,"Ġà¦īà§İà¦¸à¦°":3338,"Ġà¦ĸà¦¸à¦¡":3339,"Ġà¦¯à¦®à¦ľ":3340,"à¦²à¦ĵà¦Ń":3341,"à¦£à¦¨à¦Ĺà¦°":3342,"Ġà¦Ĩà¦ĩà¦¨à¦ľ":3343,"à¦īà¦¬à¦ĵà¦¯":3344,"¯à§«":3345,"Ġà¦Ķà¦¦":3346,"à¦Īà¦Ĺà¦°":3347,"Ġà§¨à§¦à§":3348,"à¦ĩà¦ľà¦¨à¦ĩ":3349,"Ġà¦¢à¦²à¦¢à¦²":3350,"Ġà¦ķà¦¸à¦®à¦¸":3351,"Ġà¦ıà¦«à¦Ĩà¦°":3352,"Ġà¦ĸà¦ļà¦ĸà¦ļ":3353,"à¦ħà¦¤à¦ıà¦¬":3354,"Ġà¦ķà¦¨à¦ķà¦¨":3355,"Ġà¦ľà¦¬à¦°à¦¦à¦¸":3356,"Ġà¦¸à¦®à¦Ŀà¦¦":3357,"à¦²à§İà¦ľ":3358,"à¦¬à¦ķà¦¨à¦¶":3359,"Ġà¦Ĩà¦īà¦¶":3360,"Ġà¦¤à¦Ľà¦¨à¦Ľ":3361,"Ġà¦ĩà¦ķà¦¨à¦®":3362,"Ġà§¨à§¦à§§à§":3363,"®à§¦":3364,"à¦ĭ":3365,"Ġà¦¾":3366,"à§¬":3367,"à¦¾à§į":3368,"à¦°à¦Ĩ":3369,"à¦°à¦ħ":3370,"à¦¨à¦·":3371,"à¦¨à¦ľà¦°":3372,"à¦²à¦£":3373,"à¦²à¦ķà¦°":3374,"à¦²à¦ĺà¦°":3375,"à¦²à¦ıà¦°":3376,"à¦²à¦§à¦¨":3377,"à¦ķà¦§":3378,"à¦ķà¦¹":3379,"à¦ķà¦°à¦ķà¦®":3380,"à¦ķà¦¸à¦¬":3381,"à¦ķà¦ļà¦ķ":3382,"à¦¯à¦ļ":3383,"à¦¯à¦°à¦ķ":3384,"à¦¤à¦¯":3385,"à¦¤à¦ĺ":3386,"à¦¤à¦ķà¦¤":3387,"à§ģà§Ĥ":3388,"Ġà¦ķà¦ĵà¦¯":3389,"Ġà¦ķà¦¬à¦²":3390,"Ġà¦ķà¦®à¦¤":3391,"Ġà¦ķà¦ĩà¦Ľ":3392,"à¦®à¦¹à¦°":3393,"à¦®à¦ĺà¦°":3394,"à¦®à¦Ĩà¦ªà¦¨":3395,"à¦¬à¦¥":3396,"à¦¬à¦ķà¦ķ":3397,"Ġà¦¬à¦Ľ":3398,"Ġà¦¬à¦°à¦ķ":3399,"à¦Łà¦°à¦ķ":3400,"à¦Łà¦Ĺà¦²":3401,"à¦Łà¦°à¦¸":3402,"à¦Łà¦¸à¦¤":3403,"Ġà¦Ĩà¦ľà¦¨":3404,"à¦¸à¦ĺà¦°":3405,"Ġà¦¸à¦ªà¦°":3406,"Ġà¦¸à¦°à¦¤":3407,"Ġà¦¸à¦ļà¦ķ":3408,"Ġà¦¸à¦ľà¦²":3409,"Ġà¦¸à¦¸à¦®":3410,"Ġà¦¸à¦°à¦¬à¦¤":3411,"à¦Ľà¦¨à¦Ł":3412,"à¦ĩà¦Ļ":3413,"à¦ĩà¦ī":3414,"à¦ĩà¦ŀ":3415,"à¦ĩà¦®à¦¤":3416,"à¦ĩà¦¸à¦¨":3417,"à¦ĩà¦Ĩà¦®":3418,"Ġà¦¨à§ľ":3419,"Ġà¦¨à¦°à¦¨":3420,"Ġà¦¨à¦Łà¦°":3421,"Ġà¦¨à¦°à¦ª":3422,"Ġà¦ıà¦Ĺà¦²":3423,"Ġà¦ıà¦¨à¦ķ":3424,"Ġà¦ıà¦®à¦¡":3425,"Ġà¦¤à¦°à¦¤":3426,"Ġà¦¤à¦Łà¦¸":3427,"Ġà¦®à¦°à¦®":3428,"Ġà¦®à¦°à¦¶":3429,"Ġà¦®à¦¸à¦²":3430,"Ġà¦®à¦Łà¦°":3431,"Ġà¦®à¦²à¦®":3432,"à¦¦à¦Ļ":3433,"à¦¦à¦°à¦ķ":3434,"à¦¦à¦¨à¦¬":3435,"à¦ªà¦ªà¦¤":3436,"à¦¡à¦¦":3437,"à¦¡à¦ıà¦°":3438,"à¦ľà¦¬à¦¨":3439,"à¦ľà¦īà¦¦":3440,"à¦Ĺà¦°à¦¬":3441,"à¦Ĺà¦°à¦ĵ":3442,"à¦Ĺà¦Ńà¦Ļ":3443,"à¦Ĺà¦łà¦¨":3444,"à¦¶à¦¹":3445,"Ġà¦¯à¦¬":3446,"Ġà¦ļà¦ļ":3447,"Ġà¦ļà¦ªà¦²":3448,"Ġà¦Ĺà¦«":3449,"Ġà¦Ĺà¦ľà¦°":3450,"à¦ļà¦ķà¦°":3451,"Ġà¦Ĩà¦®à¦¹":3452,"Ġà¦ľà¦¹":3453,"à¦ĵà¦¬":3454,"à¦ĵà¦°à¦ķ":3455,"à¦ĵà¦²à¦ľ":3456,"Ġà¦¬à¦²à¦ĸ":3457,"Ġà¦ħà¦ĸà¦£":3458,"Ġà¦ıà¦ķà¦Ľ":3459,"Ġà¦ıà¦ķà¦¤à¦°":3460,"Ġà¦ıà¦ķà¦ĺà¦°":3461,"Ġà¦ıà¦ķà¦Ĩà¦§":3462,"Ġà¦°à¦Łà¦²":3463,"à¦¥à¦Ļ":3464,"à¦¥à¦°à¦¬":3465,"à¦¥à¦Ĺà¦ŀ":3466,"à¦§à¦ĵà¦¯":3467,"à¦§à¦¬à¦°":3468,"à¦·à¦²":3469,"à¦·à¦Ľ":3470,"à¦·à¦°à¦£":3471,"à¦·à¦ķà¦°":3472,"à¦·à¦°à¦Ĺ":3473,"Ġà¦Ńà¦¨":3474,"Ġà¦Ńà¦°à¦²":3475,"à¦¹à§İ":3476,"Ġà¦ĸà¦¤":3477,"Ġà¦ĵà¦Ľ":3478,"Ġà¦ĵà¦®à¦²":3479,"Ġà¦Ľà¦¸":3480,"Ġà¦Ľà¦ĩà¦ĵà¦¯":3481,"à¦£à¦¯":3482,"Ġà¦²à¦ķà¦²à¦ķ":3483,"Ġà¦īà¦®à¦¦":3484,"à§Łà¦°à¦¤":3485,"à¦Ļà¦¨":3486,"à¦Ļà¦Ĺ":3487,"à¦Ļà¦ļ":3488,"à¦Ńà¦§":3489,"à¦łà¦ª":3490,"à¦łà¦Ń":3491,"à¦łà¦¨à¦Ł":3492,"Ġà¦¬à¦²à¦²à¦²":3493,"Ġà¦¬à¦²à¦²à¦Ĺ":3494,"Ġà¦¬à¦²à¦²à¦¥":3495,"Ġà¦¬à¦²à¦²à¦¯à¦¦":3496,"Ġà¦ħà¦¨à¦¸":3497,"Ġà¦ħà¦¨à¦§":3498,"Ġà¦ıà¦ĩà¦°":3499,"à¦®à¦¨à¦¦":3500,"à¦®à¦¨à¦Ń":3501,"Ġà¦Ĩà¦¸à¦ķ":3502,"à¦īà¦°à¦ķ":3503,"à¦īà¦¸à¦ķ":3504,"à¦īà¦ľà¦Ł":3505,"à¦«à¦¶":3506,"à¦ªà¦¨à¦ķ":3507,"à¦ªà¦¨à¦Ł":3508,"Ġà¦®à¦¨à¦Ĺà¦¡":3509,"Ġà¦¸à¦®à¦Ĺ":3510,"à¦ľà¦¨à¦¨":3511,"Ġà¦ĩà¦·":3512,"Ġà¦ĩà¦¹à¦²":3513,"Ġà¦¸à¦¬à¦¥":3514,"à¦°à¦¤à¦¤":3515,"Ġà¦ľà¦¨à¦ªà¦¦":3516,"Ġà¦ķà¦°à¦²à¦ķ":3517,"à§ľà¦Ł":3518,"Ġà¦Ŀà¦ŀ":3519,"Ġà¦Ŀà¦®à¦Ŀ":3520,"à¦°à¦¬à¦ķ":3521,"à¦¤à¦°à¦®":3522,"à¦¤à¦°à¦Ĺ":3523,"à¦¤à¦°à¦ªà¦¶":3524,"à¦¬à¦°à¦¦":3525,"Ġà¦¬à¦¨à¦«":3526,"Ġà¦Ĩà¦Ĺà¦¸":3527,"Ġà¦ħà¦¬à¦¦":3528,"à¦°à¦ªà¦°à¦¨":3529,"à¦ıà¦Ń":3530,"à¦ıà¦ĩà¦Ł":3531,"à¦ķà¦²à¦¹":3532,"à¦·à¦£à¦Ł":3533,"à¦¨à¦¤à¦¨":3534,"à¦Ĺà¦²à¦¦":3535,"à¦Ĺà¦²à¦ļà¦ķ":3536,"à¦²à¦ķà¦Ĺ":3537,"Ġà¦¹à¦¤à¦ļ":3538,"à¦¬à¦²à¦Ł":3539,"Ġà¦ľà¦²à¦§":3540,"Ġà¦ľà¦²à¦¤à¦°à¦Ļ":3541,"Ġà¦ħà¦¸à¦¨":3542,"à¦ĩà¦²à¦ĸ":3543,"Ġà¦ķà¦¤à¦ľà¦¨à¦ķ":3544,"à¦Ĩà¦¹":3545,"à¦Ĩà¦°à¦ĵ":3546,"à¦Ĩà¦¸à¦¤":3547,"à¦Ĩà¦ľà¦ķ":3548,"à¦Ĩà¦ĩà¦¡":3549,"à¦¨à¦Łà¦°":3550,"Ġà¦¸à¦°à¦ľ":3551,"Ġà¦īà¦łà¦²à¦°":3552,"Ġà¦īà¦łà¦²à¦ĵà¦¹":3553,"à¦°à¦ľà¦Ĺà¦¤":3554,"Ġà¦ĵà¦ªà¦°à¦ĵ":3555,"Ġà¦ĵà¦ªà¦°à¦¤à¦²":3556,"Ġà¦Ĩà¦¨à¦ķ":3557,"à¦®à¦¤à¦¨":3558,"à¦ĩà¦¨à¦°":3559,"à¦ĩà¦¨à¦²":3560,"à¦°à¦¸à¦ľ":3561,"Ġà¦®à¦¹à¦®":3562,"à¦°à¦¦à¦¤":3563,"Ġà¦ķà¦®à¦¸":3564,"Ġà¦īà¦ªà¦®":3565,"Ġà¦ķà¦²à¦¨":3566,"Ġà¦ķà¦²à¦ķà¦²":3567,"Ġà¦¬à¦īà§Ł":3568,"Ġà¦¬à¦īà¦Ń":3569,"Ġà¦ıà¦ķà¦¬à¦Ľà¦°":3570,"Ġà¦ĩà¦¨à¦ķà¦°":3571,"Ġà¦ĩà¦¨à¦«à¦°":3572,"Ġà¦ªà¦¥à¦ĩ":3573,"Ġà¦ªà¦¥à¦ª":3574,"Ġà¦ĵà¦ķà¦¥":3575,"à¦¨à¦¬à¦Ľà¦°":3576,"à¦ªà¦¦à¦¸":3577,"à¦ªà¦¦à¦ĩ":3578,"à¦¨à¦ķà¦¯":3579,"à¦¨à¦ķà¦¶":3580,"à¦ĩà¦Łà¦¸":3581,"Ġà¦¦à¦¶à¦ķ":3582,"à§İà¦ķà¦®":3583,"à¦¤à¦¬à¦¡":3584,"à¦Ĺà¦ľà¦ķà¦²à¦®":3585,"Ġà¦ķà¦²à¦ķà¦¬":3586,"Ġà¦°à¦ķà¦®à¦«":3587,"à¦°à¦ªà¦²":3588,"Ġà¦¤à¦²à¦ª":3589,"à¦ļà¦¨à¦Ńà¦Ļ":3590,"Ġà¦«à¦²à¦®":3591,"Ġà¦ªà¦¦à¦¸":3592,"Ġà¦ªà¦¦à¦ļ":3593,"Ġà¦ªà¦¦à¦¶à¦¬":3594,"Ġà¦ľà¦®à¦¬":3595,"Ġà¦¬à¦ĩà¦®":3596,"Ġà¦¬à¦ĩà¦ĵ":3597,"Ġà¦¬à¦ĩà§Ł":3598,"à¦¸à¦ķà¦·":3599,"à¦ħà¦ľ":3600,"Ġà¦Ĩà¦¦à¦ª":3601,"à¦ķà¦ľà¦¨à¦ĵ":3602,"Ġà¦Ĩà¦§à¦¬":3603,"Ġà¦Ĩà¦§à¦®à¦°":3604,"à¦·à¦¤à¦ļ":3605,"Ġà¦ıà¦ķà¦ĩà¦°à¦ķà¦®":3606,"à¦ľà¦®à¦¶":3607,"Ġà¦Ĩà¦¹à¦¤à¦¦":3608,"Ġà¦¬à§ľà¦®":3609,"Ġà¦¬à§ľà¦¬":3610,"Ġà¦ķà¦¦à¦®à¦Ľ":3611,"Ġà§·":3612,"Ġà¦¸à¦®à§Łà¦ĵ":3613,"à¦«à¦Łà¦ı":3614,"à¦¨à¦®à¦Ĺ":3615,"Ġà¦ıà¦Ńà¦²":3616,"à¦¬à¦Ńà¦Ļ":3617,"Ġà¦ħà¦²à¦ķà¦ķ":3618,"à¦°à¦®à¦£à¦¬":3619,"à¦ľà¦¸à¦ľ":3620,"Ġà§§à§«":3621,"à¦°à¦¹à¦£à¦¯":3622,"à¦ķà¦Ĩà¦ªà¦Ł":3623,"à§¦à§¦":3624,"à¦Łà¦¸à¦ıà¦°":3625,"à¦¤à¦¸à¦ĩ":3626,"Ġà¦Ĭà¦¨à¦¬":3627,"Ġà¦ķà¦¬à¦°à¦Ł":3628,"Ġà¦¬à¦²à¦²à¦ıà¦ĸà¦¨à¦ĵ":3629,"Ġà¦īà¦ĩà¦²à¦Ł":3630,"Ġà¦Ĺà¦¦à¦Ĺà¦¦":3631,"Ġà¦¬à¦²à¦²à¦Ĩà¦ļ":3632,"à¦Ĺà¦ªà§İ":3633,"Ġà¦¦à¦«à¦¤à¦°":3634,"Ġà¦°à¦®à¦°à¦®":3635,"Ġà¦¬à¦Ĺà¦²à¦¦":3636,"Ġà¦ªà¦¬à¦¨à¦¦":3637,"à¦¤à¦ļà¦°à¦¬":3638,"Ġà¦ıà¦ķà¦ıà¦ķà¦¸à¦®à¦¯":3639,"Ġà¦ķà¦¨à¦ķà¦¦":3640,"Ġà¦§à¦ªà¦§à¦ª":3641,"Ġà¦¸à¦°à¦¬à§İ":3642,"Ġà¦Ĺà¦®à¦¨à¦ª":3643,"Ġà¦¤à§İà¦¸à§İ":3644,"Ġà¦®à¦ĸà¦®à¦²":3645,"Ġà¦ıà¦ķà¦Ĩà¦§à¦¬":3646,"Ġà¦Łà¦Ĺà¦¬à¦Ĺ":3647,"Ġà¦Ĺà¦«à¦°à¦Ĺ":3648,"Ġà¦ıà¦ķà¦¤à¦°à¦«":3649,"Ġà¦Ŀà¦®à¦Ŀà¦®":3650,"à§®à§":3651,"à¦°à¦ªà¦¨":3652,"à¦°à¦ļà¦°":3653,"à¦°à¦īà¦¨":3654,"à¦¨à¦°à¦ķ":3655,"à¦¨à¦¤à¦°":3656,"à¦¨à¦ĩà¦²":3657,"à¦¨à¦°à¦°":3658,"à¦¨à¦ļà¦¡":3659,"à¦²à¦ł":3660,"à¦²à¦ªà¦°":3661,"à¦²à¦¸à¦¬":3662,"à¦²à¦¸à¦¨":3663,"à¦²à¦ļà¦¨":3664,"à¦²à¦®à¦£":3665,"à¦²à¦ªà¦ķ":3666,"à¦²à¦¢":3667,"à¦²à¦ıà¦ķà¦Ł":3668,"à¦²à¦ĵà¦°":3669,"à¦ķà§Ł":3670,"à¦ķà¦ĵà¦¯":3671,"à¦ķà¦¨à¦ķ":3672,"à¦ķà¦¸à¦²":3673,"à¦ķà¦Ĺà¦¨":3674,"à¦ķà¦ĸà¦¨à¦ĵ":3675,"à¦¯à¦²":3676,"à¦¯à¦ĸà¦¨":3677,"à¦¯à¦¬à¦¨":3678,"à¦¤à¦¨à¦ĵ":3679,"à¦¤à¦¸à¦°":3680,"à¦¤à¦¸à¦¨":3681,"à¦¤à¦ľà¦¬":3682,"à¦¤à¦¬à¦°à¦£":3683,"à§ģà§į":3684,"Ġà¦ķà¦ĸ":3685,"Ġà¦ķà¦ŀ":3686,"Ġà¦ķà¦ĵà§Ł":3687,"Ġà¦ķà¦ĩà¦¸":3688,"à¦®à¦ı":3689,"à¦®à¦°à¦Ł":3690,"à¦®à¦®à¦¯":3691,"à¦®à¦Ĺà¦¨":3692,"à¦®à¦Ńà¦Ļ":3693,"à¦®à¦Ńà¦ķ":3694,"à¦¬à¦Ļ":3695,"à¦¬à¦®à¦¨":3696,"à¦¬à§İà¦¸":3697,"à¦¬à¦ļà¦¨":3698,"à¦¬à¦§à¦°":3699,"Ġà¦¬à¦ķà¦¤":3700,"Ġà¦¬à¦°à¦ķà¦¨":3701,"à§ĭà¦ĥ":3702,"à¦Łà¦°à¦¬":3703,"à¦Łà¦ĺ":3704,"à¦Łà¦°à¦Ł":3705,"à¦Łà¦²à¦Ł":3706,"à¦Łà¦¬à¦ķ":3707,"à¦Łà¦¸à¦®":3708,"Ġà¦Ĩà¦ĵ":3709,"Ġà¦Ĩà¦ĩà¦¬":3710,"Ġà¦Ĩà¦ªà¦ķ":3711,"Ġà¦Ĩà§Łà¦¨":3712,"Ġà¦¸à¦¶":3713,"Ġà¦¸à¦ĩà¦²":3714,"Ġà¦¸à¦ªà¦¤":3715,"Ġà¦¸à¦Łà¦ķ":3716,"Ġà¦¸à¦ĩà¦¬":3717,"Ġà¦¸à¦ĩà¦Ľ":3718,"Ġà¦¸à¦ĵà¦¦":3719,"Ġà¦ªà¦·":3720,"à¦Ľà¦Ľ":3721,"à¦Ľà¦²à¦¤":3722,"à¦ĩà¦®à¦¬":3723,"à¦ĩà¦ĵà¦¨":3724,"Ġà¦¨à¦ĵà¦°":3725,"Ġà¦¨à¦Ĺà¦£":3726,"Ġà¦¦à¦Ĺ":3727,"Ġà¦¦à¦¹à¦¨":3728,"Ġà¦ıà¦¥":3729,"Ġà¦¤à¦ĸà¦²":3730,"Ġà¦¤à¦¤à¦¬":3731,"Ġà¦®à¦¬":3732,"Ġà¦®à¦ļ":3733,"Ġà¦®à¦«":3734,"Ġà¦®à§ľ":3735,"Ġà¦®à¦Ĺà¦°":3736,"à¦¦à¦¯à¦¨":3737,"Ġà¦¹à¦Łà¦°":3738,"Ġà¦¹à¦ĵà¦¨":3739,"à¦ªà¦Ń":3740,"à¦ªà¦¸à¦¨":3741,"à¦ĸà¦ľ":3742,"à¦¡à¦ı":3743,"à¦ľà§İ":3744,"à¦ľà¦ĺà¦°":3745,"Ġà¦ķà¦°à¦®":3746,"à¦Ĺà¦¨à¦ķ":3747,"à¦Ĺà¦¸à¦¨":3748,"à¦¶à¦ļà¦²":3749,"Ġà¦¯à¦¬à¦¨":3750,"Ġà¦ļà¦®à¦¤":3751,"à¦ļà¦£":3752,"à¦ļà¦¤à¦²":3753,"à¦ļà¦ķà¦¨":3754,"Ġà¦Ĩà¦®à¦¸":3755,"Ġà¦ľà¦ĸ":3756,"à¦ĵà¦¸":3757,"à¦ĵà¦ĺà¦°":3758,"à¦ĵà¦Ĩà¦®":3759,"Ġà¦ħà¦¹à¦°":3760,"Ġà¦ħà¦¥à¦°":3761,"Ġà¦ħà¦²à¦®":3762,"Ġà¦ħà¦¢":3763,"Ġà¦ıà¦ķà¦¯":3764,"Ġà¦ıà¦ķà¦¶à¦¬":3765,"Ġà¦ıà¦ķà¦ĺà¦£":3766,"Ġà¦ıà¦ķà¦ıà¦ķà¦ľà¦¨":3767,"Ġà¦°à¦ļ":3768,"Ġà¦°à¦ĵà§Ł":3769,"Ġà¦°à¦ĩà¦Ľ":3770,"à¦¥à¦¯":3771,"à¦¥à¦Ĺ":3772,"à¦¥à¦ķà¦°":3773,"à¦§à¦¯":3774,"à¦§à¦¡":3775,"à¦§à¦ľ":3776,"à¦§à¦ªà¦°":3777,"à¦§à¦®à¦¯":3778,"à¦·à¦Ļ":3779,"à¦·à¦°à¦ķ":3780,"à¦·à¦¬à¦°":3781,"à¦·à¦ķà¦¦":3782,"Ġà¦¶à¦ĸà¦Ł":3783,"Ġà¦¶à¦¤à¦°à¦ŀ":3784,"Ġà¦Ńà¦°à¦¬":3785,"Ġà¦Ńà¦°à¦¦":3786,"Ġà¦Ńà¦²à¦Ĺ":3787,"à¦¹à¦¨à¦¤":3788,"à¦¹à¦²à¦ķ":3789,"Ġà¦ĸà¦ķ":3790,"Ġà¦ĸà¦²à¦Ł":3791,"Ġà¦ĸà¦°à¦ĸà¦°":3792,"Ġà¦ĵà¦«":3793,"Ġà¦ĵà¦ľà¦°":3794,"Ġà¦Ľà¦°":3795,"Ġà¦Ľà§Ł":3796,"Ġà¦Ľà¦²à¦¨":3797,"à¦£à¦ĩ":3798,"à¦£à¦ĵ":3799,"à¦£à¦¹à¦°":3800,"à¦£à¦ªà¦ķ":3801,"à¦£à¦¶à¦ķ":3802,"à¦£à¦£à¦ķ":3803,"Ġà¦²à¦ĵ":3804,"Ġà¦²à¦Ń":3805,"Ġà¦¥à¦ª":3806,"Ġà¦¥à¦ªà¦¥":3807,"Ġà¦«à¦·":3808,"Ġà¦«à¦°à¦Ĺ":3809,"Ġà¦īà¦Ľ":3810,"Ġà¦īà¦ĩà¦¦":3811,"Ġà¦īà¦¶à¦ĸ":3812,"à§Łà¦¬":3813,"à§Łà¦ª":3814,"à¦Ļà¦¡":3815,"à¦Ńà¦¤":3816,"à¦Ńà¦Ń":3817,"à¦Ńà¦¬à¦¨":3818,"à¦Ńà¦ķà¦°":3819,"à¦Ńà¦²à¦¬":3820,"à¦łà¦ķà¦°":3821,"Ġà¦¬à¦²à¦²à¦Ľ":3822,"Ġà¦¬à¦²à¦²à¦ªà¦°":3823,"Ġà¦¬à¦²à¦²à¦ķà¦¬":3824,"Ġà¦¬à¦²à¦²à¦¸à¦¤":3825,"Ġà¦¬à¦²à¦²à¦ħà¦¨":3826,"Ġà¦Ĩà¦°à¦ıà¦ķà¦¬":3827,"Ġà¦ĺà¦¨à¦¤":3828,"Ġà¦ªà¦°à¦Ľ":3829,"Ġà¦ħà¦¨à¦¤":3830,"Ġà¦ħà¦¨à¦Ń":3831,"Ġà¦ıà¦ĩà¦¤":3832,"Ġà¦ıà¦ĩà¦ĩ":3833,"Ġà¦ıà¦ĩà¦Ĺ":3834,"à¦®à¦¨à¦ķ":3835,"Ġà¦§à¦²":3836,"à¦īà¦¹":3837,"à¦īà¦¬à¦²":3838,"à¦«à¦ĵà¦¯":3839,"Ġà¦¹à¦²à¦ĵ":3840,"Ġà¦¹à¦²à¦«":3841,"Ġà¦®à¦¨à¦ª":3842,"Ġà¦¸à¦®à¦°à¦ķ":3843,"à¦ľà¦¨à¦Ł":3844,"à¦ľà¦¨à¦®à¦¤":3845,"à¦Ŀà§ľ":3846,"Ġà¦ļà¦²à¦ļ":3847,"Ġà¦ĩà¦¤à¦°":3848,"Ġà¦ĩà¦¸à¦°":3849,"Ġà¦ĩà¦®à¦ª":3850,"Ġà¦¸à¦¬à¦¦":3851,"à¦°à¦ķà¦ķ":3852,"à¦°à¦ķà¦Ł":3853,"à¦°à¦ķà¦ª":3854,"Ġà¦łà¦ķà¦¬":3855,"Ġà¦ľà¦¨à¦¹":3856,"Ġà¦ľà¦¨à¦Ĺà¦£":3857,"Ġà¦ķà¦°à¦²à¦«":3858,"à§ľà¦¨":3859,"Ġà¦Ŀà¦ķà¦®":3860,"à¦°à¦¬à¦¸":3861,"à¦°à¦¬à¦ļà¦¨":3862,"à¦°à¦¬à¦²à¦Ń":3863,"Ġà¦§à¦°à¦¨à¦Ł":3864,"à¦¤à¦°à¦¦":3865,"Ġà¦ĺà¦°à¦ĩ":3866,"Ġà¦¬à¦¨à¦¸":3867,"Ġà¦¬à¦¨à¦®à¦¯":3868,"Ġà¦¬à¦¨à¦ľà¦Ļ":3869,"à¦°à¦£à¦ĩ":3870,"à¦°à¦£à¦Ń":3871,"à¦¬à¦¨à¦²":3872,"à¦¨à¦ĵà¦°":3873,"à¦¨à¦ĵà¦ĩ":3874,"Ġà¦ħà¦¬à¦Ĺà¦¤":3875,"Ġà¦Ĩà¦²à¦¬":3876,"Ġà¦Ĩà¦²à¦ªà¦¥":3877,"à¦°à¦ªà¦°à¦®":3878,"à¦ıà¦ı":3879,"à¦ıà¦ķà¦ĩ":3880,"à¦ĺà¦®à¦²":3881,"à¦ĺà¦°à¦¦":3882,"à¦ķà¦²à¦¬":3883,"à¦¨à¦¤à¦®":3884,"à¦ķà¦°à¦°":3885,"à¦²à¦ķà¦¬":3886,"à§ģà¦ģà¦ĥ":3887,"Ġà¦ıà¦¤à¦¬":3888,"Ġà¦ľà¦²à¦¹":3889,"Ġà¦ľà¦²à¦ªà¦Ł":3890,"Ġà¦ľà¦²à¦Ŀà§ľ":3891,"Ġà¦ħà¦¸à¦¤à¦°":3892,"à¦¶à¦¨à¦°":3893,"à¦¶à¦¨à¦ĩ":3894,"à¦¶à¦¨à¦¦":3895,"à¦¶à¦¨à¦Ĺ":3896,"Ġà¦ķà¦¤à¦ķà¦Ł":3897,"à¦Ĩà¦Ľ":3898,"à¦Ĩà¦¨à¦¨":3899,"à¦Ĩà¦¸à¦²":3900,"à¦Ĩà¦Łà¦Ł":3901,"à¦ķà¦¤à¦²":3902,"Ġà¦īà¦łà¦²à¦¸":3903,"à¦°à¦ľà¦¯":3904,"Ġà¦Ĩà¦¨à¦Ĩà¦ĩà¦¡":3905,"à¦®à¦¤à¦®":3906,"à¦ĩà¦¨à¦¸":3907,"à¦ĩà¦¨à¦Ĺ":3908,"Ġà¦¸à¦¤à¦¤":3909,"Ġà¦ıà¦Ĺà¦¨":3910,"Ġà¦ıà¦Ĺà¦ļ":3911,"à¦²à¦¬à¦¦à¦²":3912,"Ġà¦®à¦¹à§İ":3913,"à¦°à¦¦à¦®":3914,"à¦¸à¦¬à¦ķ":3915,"Ġà¦ħà¦¤à¦¨":3916,"Ġà¦ħà¦¤à¦ĩ":3917,"Ġà¦ķà¦®à¦£":3918,"Ġà¦Ĩà¦ķà¦¨":3919,"Ġà¦ķà¦²à¦°":3920,"Ġà¦ķà¦²à¦ª":3921,"Ġà¦¬à¦īà¦¡":3922,"Ġà¦ĩà¦¨à¦¬à¦ķ":3923,"Ġà¦ħà¦ªà¦ĺ":3924,"Ġà¦ħà¦ªà¦¦à¦¸":3925,"Ġà¦ªà¦¥à¦ĺ":3926,"à¦ĩà¦ķà¦®":3927,"à¦¤à¦¨à¦ķ":3928,"à¦¤à¦²à¦§":3929,"à¦Łà¦ķà¦¯":3930,"à¦Łà¦ķà¦¥":3931,"à¦¦à¦¨à¦§":3932,"Ġà¦ĸà¦¬à¦°à¦ĩ":3933,"à¦ĩà¦Łà¦²":3934,"à¦Ńà¦¬à¦ĩ":3935,"Ġà¦Ĳà¦¸à¦¬":3936,"Ġà¦¦à¦¶à¦ªà¦¨":3937,"à¦Ĺà¦¤à¦Ń":3938,"Ġà¦ķà¦²à¦ķà¦ľ":3939,"Ġà¦ķà¦ĸà¦¨à¦ĵà¦ķà¦ĸà¦¨à¦ĵ":3940,"Ġà¦«à¦²à¦Ĺ":3941,"Ġà¦ħà¦¦à¦®":3942,"Ġà¦ħà¦¦à¦²à¦¬à¦¦à¦²":3943,"à¦¬à¦¸à¦®":3944,"à¦ħà¦¶":3945,"à¦ħà¦ļ":3946,"à¦ħà¦¸à¦®":3947,"à¦ħà¦¬à¦¶":3948,"à¦°à¦¯à¦¤":3949,"à¦Łà¦²à¦ĵ":3950,"à¦ļà¦ķà¦£":3951,"à¦ļà¦ķà¦ļà¦ķ":3952,"à¦¤à¦¤à¦¤":3953,"à¦§à¦¨à¦¹":3954,"à¦®à¦£à¦ķ":3955,"à¦°à¦Ńà¦¬à¦¨":3956,"Ġà¦ķà¦¨à¦ľ":3957,"Ġà¦ħà¦ľà¦¯":3958,"Ġà¦Ĩà¦ĩà¦«":3959,"à¦Łà¦¬à¦ĩ":3960,"Ġà¦¬à§ľà¦²":3961,"Ġà¦ļà¦¨à¦®à¦¨":3962,"Ġà¦ķà¦¦à¦®à¦Ĺ":3963,"Ġà¦ħà¦ķà¦¥":3964,"Ġà¦ħà¦ķà¦ªà¦Ł":3965,"à¦¬à¦¶à¦°à¦£":3966,"Ġà¦ĩà¦¸à¦ķà¦¨":3967,"Ġà¦Īà¦¦":3968,"Ġà¦ªà¦¶à¦²":3969,"à¦°à¦«à§İ":3970,"Ġà¦·à¦ĸà¦¨":3971,"à¦®à¦ªà¦¥":3972,"Ġà¦ļà¦Łà¦ķà¦²":3973,"Ġà¦Ĩà¦Łà¦¦à¦¶":3974,"Ġà¦¤à¦¤à¦ĸ":3975,"à¦īà¦¸à¦«":3976,"à¦ĩà¦¶à¦¤":3977,"à¦ĩà¦«à¦°à¦®":3978,"Ġà¦®à¦¦à¦¨à¦®":3979,"Ġà¦ĩà¦®à¦ªà¦¸":3980,"Ġà¦¸à¦¦à¦¯":3981,"à¦Ĺà¦®à¦ŀ":3982,"Ġà¦¨à¦¬à¦¬à¦°":3983,"Ġà¦īà¦ªà¦ķà¦¥":3984,"à¦°à¦®à¦£à¦¸":3985,"à§°à¦ļ":3986,"Ġà§§à§¬":3987,"à¦¬à¦¹à¦£":3988,"Ġà¦ªà¦°à¦®à¦®":3989,"à¦¨à¦¶à¦°":3990,"à¦²à¦ĵà¦¹":3991,"Ġà¦¶à¦¨à¦¶à¦¨":3992,"Ġà¦Ĩà¦«à¦¶":3993,"Ġà¦ıà¦ĩà¦°à¦ķà¦®à¦ĩ":3994,"à¦ªà¦Ĺà¦ª":3995,"Ġà¦¬à¦²à¦²à¦ıà¦ķà¦¦":3996,"à¦£à¦¦à¦£":3997,"ĠĠĠ":3998,"à¦¨à¦ıà¦¤":3999,"à¦¨à¦ıà¦Ł":4000,"à¦¨à¦ıà¦¸à¦¬":4001,"Ġà¦ĺà¦·à¦Ľ":4002,"Ġà¦°à¦¤à¦¨à¦ªà¦²":4003,"Ġà¦¥à¦²à¦¥à¦²":4004,"Ġà¦Ķà§İà¦¸":4005,"à¦Łà¦«à¦°à¦®":4006,"Ġà¦ļà§ľà¦¤":4007,"Ġà¦ļà§ľà¦¬":4008,"Ġà§§à§¯à§¯à§":4009,"à¦Īà¦ķ":4010,"à¦¡à¦Ńà¦£":4011,"à¦¤à¦ĸà¦°à¦ļ":4012,"Ġà¦¬à¦²à¦²à¦Ĩà¦ľ":4013,"Ġà¦¬à¦²à¦²à¦Ĩà¦Ĺ":4014,"à¦®à§Łà¦¬":4015,"Ġà¦¨à¦ĸà¦¦à¦¨":4016,"Ġà¦ķà¦¸à¦°à¦¤":4017,"à¦¤à¦ĸà¦¨à¦ĩ":4018,"à¦¤à¦ĸà¦¨à¦ĵ":4019,"Ġà¦ĩà¦¹à¦ľà¦Ĺà¦¤":4020,"à¦īà¦°à¦¤à¦¨à¦¬":4021,"Ġà¦¶à¦°à§İà¦¬":4022,"à¦®à¦Ńà¦ľà¦¨":4023,"Ġà¦Ĺà¦Łà¦Ĺà¦Ł":4024,"à§§à§®":4025,"à¦¥à¦ªà¦°à¦¤":4026,"à¦¬à¦ªà¦¨à¦ķ":4027,"Ġà¦Ĺà¦¤à¦¬à¦Ľà¦°":4028,"Ġà¦ıà¦ķà¦¨à¦ľà¦°":4029,"Ġà¦²à¦¬à¦Ļ":4030,"Ġà¦²à¦¬à¦£à¦ĩà¦²":4031,"à¦¤à¦Ĩà¦Ł":4032,"Ġà§«à§¦à§Ń":4033,"Ġà¦ľà¦¨à¦¬à¦¸à¦¤":4034,"Ġà¦ªà¦ļà¦¨à¦Ĺà¦²à¦¨":4035,"à¦ĭà¦·":4036,"Ġà¦¬à¦Ľà¦°à¦ķà¦¯":4037,"Ġà¦ħà¦¹à¦°à¦¹":4038,"Ġà¦¥à¦ªà¦¥à¦ª":4039,"¨à§¨":4040,"ªà§«":4041,"¯à§¦":4042,"à¦°à¦Ĺà¦²":4043,"à¦°à¦²à¦ķ":4044,"à¦°à¦¨à¦Ł":4045,"à¦°à¦ĩà¦¨":4046,"à¦°à¦Ĺà¦°":4047,"à¦°à¦¢":4048,"à¦°à¦ıà¦ĸà¦¨":4049,"à¦°à¦ħà¦°":4050,"à¦°à¦Ĩà¦¨":4051,"à¦¿à§į":4052,"à¦¨à¦ĩà¦¨":4053,"à¦¨à¦ķà¦¬":4054,"à¦¨à¦°à¦¶":4055,"à¦¨à¦ļà¦°":4056,"à¦¨à¦ľà¦Ł":4057,"à¦¨à¦ľà¦®":4058,"à¦¨à¦ħà¦®":4059,"à¦²à¦¦à¦°":4060,"à¦²à¦ľà¦²":4061,"à¦²à¦Ĩà¦°":4062,"à¦²à¦ıà¦¬":4063,"à¦²à¦Ĩà¦®à¦°":4064,"à¦²à¦ħà¦°":4065,"à¦ķà¦¤à¦°":4066,"à¦ķà¦¯à¦¨":4067,"à¦ķà¦¸à¦Ł":4068,"à¦ķà¦Ĩà¦®":4069,"à¦ķà¦ıà¦ĩ":4070,"à¦ķà¦ļà¦¡":4071,"à¦ķà¦Ĩà¦ªà¦¨":4072,"à¦¯à¦ĺ":4073,"à¦¼à¦ĥ":4074,"à¦¤à¦°à¦¤":4075,"à¦¤à¦¦à¦°":4076,"à¦¤à¦¬à¦¤":4077,"à¦¤à¦®à¦¯":4078,"à¦¤à¦ļà¦ķ":4079,"à¦¤à¦¸à¦®":4080,"à¦¤à¦§à¦°":4081,"à¦¤à¦·à¦Ł":4082,"à¦¤à¦Ńà¦°":4083,"à¦¤à¦¯à¦¶":4084,"Ġà¦ķà¦¶":4085,"Ġà¦ķà¦ªà¦°":4086,"Ġà¦ķà¦ªà¦¨":4087,"Ġà¦ķà¦ĩà¦¯":4088,"Ġà¦ķà¦Łà¦ķ":4089,"à¦®à¦ļà¦°":4090,"à¦®à¦ıà¦°":4091,"à¦®à¦ļà¦²":4092,"à¦®à¦®à¦Ĺ":4093,"à¦®à¦ıà¦ĸà¦¨":4094,"à¦®à¦ĺà¦Ł":4095,"à¦®à¦ħà¦®":4096,"à¦®à¦Īà¦Ĺà¦°":4097,"à¦¬à¦¹à¦°":4098,"à¦¬à¦¦à¦¨":4099,"à¦¬à¦Łà¦°":4100,"à¦¬à¦¹à¦¨":4101,"à¦¬à¦ħ":4102,"à¦¬à¦ĩà¦¤":4103,"à¦¬à¦¶à¦ķ":4104,"à¦¬à¦«à¦²":4105,"à¦¬à¦Ĺà¦ŀ":4106,"Ġà¦¬à¦ķà¦²":4107,"Ġà¦¬à¦ķà¦°":4108,"Ġà¦¬à¦¦à¦°":4109,"Ġà¦¬à¦ļà¦¨":4110,"Ġà¦¬à¦Łà¦¬":4111,"Ġà¦¬à¦ļà¦¸":4112,"à¦Łà¦Ļ":4113,"à¦Łà¦ķà¦Ł":4114,"à¦Łà¦ı":4115,"à¦Łà¦ªà¦¤":4116,"à¦Łà¦¸à¦¨":4117,"Ġà¦Ĩà¦¹à¦²":4118,"Ġà¦Ĩà§İà¦ķ":4119,"Ġà¦Ĩà¦ĸà¦°":4120,"Ġà¦Ĩà¦īà¦Łà¦°":4121,"Ġà¦Ĩà¦ĵà¦°à¦¤":4122,"à¦¸à¦¥":4123,"à¦¸à¦ªà¦°":4124,"à¦¸à¦®à¦¨":4125,"à¦¸à¦ªà¦¨":4126,"à¦¸à¦°à¦¤":4127,"à¦¸à§ľ":4128,"à¦¸à¦®à¦°":4129,"à¦¸à¦¨à¦ķ":4130,"à¦¸à¦Ĩà¦®":4131,"à¦¸à¦¹à¦¸":4132,"à¦¸à¦ıà¦ķà¦Ł":4133,"à¦¸à¦ĸà¦¨à¦ĵ":4134,"Ġà¦¸à¦Ĺ":4135,"Ġà¦¸à¦ĵà§Ł":4136,"Ġà¦¸à¦²à¦Ń":4137,"Ġà¦¸à¦ĸà¦¨à¦ĵ":4138,"Ġà¦ªà¦²à¦¤":4139,"Ġà¦ªà¦ļà¦¤":4140,"à¦ĩà¦·":4141,"à¦ĩà¦¨à¦ĵ":4142,"à¦ĩà¦¸à¦²":4143,"à¦ĩà¦īà¦¨":4144,"à¦ĩà¦®à¦¸":4145,"à¦ĩà¦ľà¦Ł":4146,"à¦ĩà¦ıà¦ĩ":4147,"à¦ĩà¦Ĩà¦°":4148,"à¦ĩà¦Ĩà¦®à¦°":4149,"Ġà¦¨à¦ļ":4150,"Ġà¦¨à¦°à¦ĸ":4151,"Ġà¦¨à¦²à¦ľ":4152,"Ġà¦¨à¦°à¦¬à¦²":4153,"Ġà¦¦à¦¨":4154,"Ġà¦¦à¦°à¦®":4155,"Ġà¦¦à¦²à¦ķ":4156,"Ġà¦¦à¦®à¦ļ":4157,"Ġà¦ıà¦ĵà¦¯":4158,"Ġà¦ıà¦¨à¦²":4159,"Ġà¦ıà¦ĵà¦°":4160,"Ġà¦ıà¦®à¦ª":4161,"Ġà¦¤à¦°à¦¬":4162,"Ġà¦¤à¦¸à¦°":4163,"Ġà¦¤à¦¦à¦¬":4164,"Ġà¦®à¦ĩà¦¯":4165,"Ġà¦®à¦īà¦®":4166,"Ġà¦®à§Łà¦²":4167,"à¦¦à¦§":4168,"à¦¦à¦ķà¦°":4169,"à¦¦à¦ķà¦¤":4170,"Ġà¦¹à¦°à¦£":4171,"Ġà¦¹à¦¸à¦ª":4172,"Ġà¦¹à¦°à¦¦à¦®":4173,"à¦ªà¦ķà¦°":4174,"à¦ªà¦®à¦¯":4175,"à¦ªà¦Ĩà¦²":4176,"à¦ĸà¦¹à¦°":4177,"à¦ĸà¦®à¦£":4178,"à¦ĸà¦Ńà¦Ļ":4179,"à¦¡à¦¤":4180,"à¦¡à¦ĵà¦¯":4181,"à¦¡à¦°à¦Ł":4182,"à¦¡à¦¨à¦ķ":4183,"à¦¡à¦ħà¦²":4184,"à¦ľà¦ĵà¦¯":4185,"à¦ľà§ľ":4186,"à¦ľà¦ı":4187,"à¦ľà¦²à¦ķ":4188,"à¦ľà¦¸à¦°":4189,"Ġà¦ķà¦°à¦ª":4190,"Ġà¦ķà¦°à¦°à¦¸":4191,"à¦Ĺà¦¶":4192,"à¦Ĺà¦°à¦£":4193,"à¦Ĺà¦®à¦¤":4194,"à¦Ĺà¦ªà¦¤":4195,"à¦Ĺà¦°à¦¸":4196,"à¦Ĺà¦®à¦ķ":4197,"à¦Ĺà¦°à¦ª":4198,"à¦Ĺà¦Ńà¦°":4199,"à¦Ĺà¦¶à¦¯":4200,"à¦¶à¦·":4201,"à¦¶à¦°à¦ķ":4202,"à¦¶à¦ı":4203,"à¦¶à¦Ĺà¦²":4204,"à¦¶à¦Ĩ":4205,"à¦¶à¦¬à¦¤":4206,"à¦¶à¦¤à¦²":4207,"à¦¶à¦ªà¦¥":4208,"Ġà¦ļà¦°à¦²":4209,"Ġà¦Ĺà¦Ĺà¦²":4210,"Ġà¦Ĺà¦°à¦ľ":4211,"Ġà¦Ĺà¦°à¦¦":4212,"Ġà¦Ĺà¦łà¦¨":4213,"Ġà¦Ĺà¦ªà¦Ĺà¦ª":4214,"à¦ļà¦¦":4215,"à¦ļà¦ĵ":4216,"à¦ļà¦«":4217,"à¦ļà¦²à¦¤":4218,"à¦ļà¦Łà¦ķ":4219,"à¦ļà¦¢":4220,"à¦ļà¦ĵà¦¡":4221,"à¦ļà¦¦à¦¶":4222,"à¦ļà¦°à¦£à¦¬":4223,"Ġà¦ľà¦ľ":4224,"à¦ĵà¦¥":4225,"à¦ĵà¦·":4226,"à¦ĵà¦°à¦Ł":4227,"à¦ĵà¦¸à¦¬":4228,"Ġà¦¬à¦²à¦¶":4229,"Ġà¦ħà¦ĩà¦¯":4230,"Ġà¦ħà¦²à¦Ł":4231,"Ġà¦ıà¦ķà¦ªà¦°":4232,"Ġà¦ıà¦ķà¦ļà¦²":4233,"Ġà¦ıà¦ķà¦ıà¦ķà¦¦":4234,"Ġà¦°à¦ľ":4235,"Ġà¦°à¦®à¦¨":4236,"à¦¥à¦°à¦ķ":4237,"à¦¥à¦¬à¦¹":4238,"à¦¼à¦¾à¦ģ":4239,"à¦§à¦°à¦¤":4240,"à¦§à¦¨à¦ĵ":4241,"à¦§à¦¸à¦¤":4242,"à¦§à¦ļà¦¨":4243,"à¦§à¦¸à¦®":4244,"à¦§à¦Ńà¦ķ":4245,"à¦·à¦¶":4246,"à¦·à¦¤à¦²":4247,"à¦·à¦ľà¦²":4248,"à¦·à¦§à¦°":4249,"Ġà¦¶à¦°à¦®":4250,"Ġà¦¶à¦¤à¦¬":4251,"Ġà¦¶à¦ªà¦¥":4252,"Ġà¦Ńà¦ľ":4253,"Ġà¦Ńà¦ľà¦¨":4254,"Ġà¦Ńà¦ĩà¦²":4255,"à¦¹à¦¶":4256,"à¦¹à¦Ń":4257,"à¦¹à¦ªà¦°":4258,"à¦¹à¦®à¦¯":4259,"à¦¹à¦¨à¦²":4260,"à¦¹à¦§à¦¨":4261,"Ġà¦ĸà¦ĩ":4262,"Ġà¦ĸà¦¸à¦²":4263,"Ġà¦ĸà¦¸à¦Ľ":4264,"Ġà¦ĵà¦¸à¦®":4265,"Ġà¦Ľà¦ķà¦Ł":4266,"Ġà¦Ľà¦ĩà¦ıà¦°":4267,"à¦£à¦ĸ":4268,"à¦£à¦¶":4269,"à¦£à¦§":4270,"à¦£à¦¬à¦¨":4271,"à¦£à¦®à¦¯":4272,"à¦£à¦ªà¦¦":4273,"Ġà¦¥à¦ķà¦¥":4274,"Ġà¦īà¦Ń":4275,"Ġà¦īà¦«":4276,"Ġà¦īà¦®à¦°":4277,"Ġà¦īà¦ĩà¦ļ":4278,"à§Łà¦¡":4279,"à§Łà¦ļ":4280,"à§Łà¦ĵ":4281,"à¦Ļà¦Ł":4282,"à¦Ļà¦°à¦¹":4283,"à¦Ļà¦ĵà¦Ń":4284,"à¦Ńà¦¡":4285,"à¦Ńà¦Ĺà¦¬":4286,"à¦łà¦®":4287,"à¦łà¦«":4288,"à¦łà¦®à¦¤":4289,"à¦łà¦ķà¦¦":4290,"à¦łà¦¤à¦®":4291,"Ġà¦¬à¦²à¦²à¦ķà¦¤":4292,"Ġà¦¬à¦²à¦²à¦ıà¦°":4293,"Ġà¦¬à¦²à¦²à¦Ĩà¦¸":4294,"Ġà¦¬à¦²à¦²à¦ħà¦¸":4295,"Ġà¦Ĩà¦°à¦ıà¦ķ":4296,"Ġà¦Łà¦¸":4297,"Ġà¦Łà¦«":4298,"Ġà¦Łà¦Ĺà¦°":4299,"Ġà¦ªà¦°à¦Ĺ":4300,"Ġà¦ªà¦°à¦®à¦¹":4301,"à¦ªà¦°à¦¦":4302,"à¦®à¦¨à¦ħ":4303,"Ġà¦§à¦®à¦¨":4304,"Ġà¦§à¦¨à¦ķ":4305,"Ġà¦Ĩà¦¸à¦¨à¦Ł":4306,"à¦īà¦ĸ":4307,"à¦īà¦ĵ":4308,"à¦īà¦ªà¦°":4309,"à¦īà¦Ĺà¦²":4310,"à¦īà¦²à¦¤":4311,"à¦īà¦®à¦Ĺ":4312,"Ġà¦¡à¦¯":4313,"à¦«à¦ĵ":4314,"à¦«à¦Ŀà¦®":4315,"à¦ªà¦¨à¦¦":4316,"Ġà¦¹à¦²à¦¨":4317,"Ġà¦¹à¦²à¦ķ":4318,"Ġà¦¹à¦²à¦¯":4319,"Ġà¦¹à¦²à¦®":4320,"Ġà¦¹à¦²à¦¬":4321,"Ġà¦¹à¦²à¦¸":4322,"Ġà¦®à¦¨à¦®":4323,"Ġà¦¸à¦®à¦ķ":4324,"à¦Ŀà¦¡":4325,"à¦Ŀà¦ªà¦¨":4326,"à¦Ŀà¦ŀ":4327,"à¦Ŀà¦®à¦§":4328,"à¦Ŀà¦Ĩà¦ķ":4329,"Ġà¦ıà¦¸à¦¤":4330,"Ġà¦ĩà¦¬":4331,"Ġà¦ĩà¦«":4332,"Ġà¦īà¦łà¦²à¦ķ":4333,"Ġà¦łà¦Ĺ":4334,"Ġà¦łà¦ķà¦ł":4335,"à§İà¦°":4336,"à§İà¦ļ":4337,"à§İà¦ĵ":4338,"à§İà¦¸à¦¬":4339,"à§İà¦¨à¦¬":4340,"à§İà¦Ĺà¦¤":4341,"à¦°à¦¤à¦¨":4342,"à¦°à¦¤à¦ªà¦ķ":4343,"Ġà¦ľà¦¨à¦ķà¦¦":4344,"Ġà¦ľà¦¨à¦¸à¦®":4345,"Ġà¦ķà¦°à¦²à¦¤":4346,"à§ľà¦Ĺ":4347,"Ġà¦Ŀà¦²":4348,"Ġà¦Ŀà¦Ļ":4349,"à¦°à¦¬à¦ļ":4350,"à¦°à¦¬à¦£à¦¤":4351,"Ġà¦ıà¦²à¦ķ":4352,"à¦ķà¦Łà¦¬à¦°":4353,"à¦¤à¦°à¦ĵ":4354,"à¦¤à¦°à¦ľà¦¨":4355,"à¦¤à¦°à¦ĸà¦£":4356,"Ġà¦ĺà¦°à¦Ń":4357,"Ġà¦ĺà¦°à¦ĺà¦°":4358,"Ġà¦¬à¦¨à¦ķ":4359,"Ġà¦¬à¦¨à¦®":4360,"Ġà¦¬à¦¨à¦Ł":4361,"Ġà¦¬à¦¨à¦ª":4362,"Ġà¦¬à¦¨à¦Ŀ":4363,"Ġà¦¬à¦¨à¦¤à¦²":4364,"Ġà¦Ĩà¦Ĺà¦¬":4365,"Ġà¦Ĩà¦Ĺà¦°à¦ĵà¦¯":4366,"à¦¬à¦¨à¦®":4367,"à¦¬à¦¨à¦®à¦¯":4368,"Ġà¦Ĩà¦¬à¦²":4369,"à¦¨à¦ĵà¦ĸ":4370,"Ġà¦ħà¦¬à¦Ĺ":4371,"Ġà¦Ĩà¦²à¦¬à¦¤":4372,"à¦°à¦ªà¦°à¦¦":4373,"Ġà¦¢à¦Ļ":4374,"Ġà¦Ĺà¦²à¦¨":4375,"Ġà¦Ĺà¦²à¦ķà¦®":4376,"Ġà¦Ĺà¦²à¦¦à¦ĺà¦°":4377,"à¦ıà¦ª":4378,"à¦ıà¦¡":4379,"à¦ıà¦ĵ":4380,"à¦ıà¦¤à¦ķ":4381,"à¦ıà¦¤à¦¦":4382,"à¦ĺà¦·":4383,"à¦°à¦®à¦²":4384,"à¦°à¦®à¦¬":4385,"à¦°à¦®à§Ł":4386,"à¦°à¦®à¦¥à¦ķ":4387,"à¦ķà¦²à¦¶":4388,"à¦ķà¦²à¦Ļ":4389,"à¦·à¦£à¦¸":4390,"à¦·à¦£à¦ª":4391,"à¦·à¦£à¦Ĺ":4392,"à¦·à¦£à¦Ń":4393,"à¦¨à¦¤à¦ĩ":4394,"à¦Ĺà¦²à¦«":4395,"à¦ķà¦°à¦²":4396,"à¦ķà¦°à¦Ń":4397,"à¦ĸà¦²à¦ķ":4398,"à¦ĸà¦²à¦¤":4399,"à¦ĸà¦²à¦ĺà¦°à¦Ł":4400,"à¦²à¦ķà¦®":4401,"à¦²à¦ķà¦§":4402,"à¦²à¦ķà¦Ń":4403,"Ġà¦¹à¦¤à¦ļà¦ķ":4404,"Ġà¦ıà¦¤à¦ľà¦¨":4405,"à¦¬à¦²à¦¡":4406,"Ġà¦ľà¦²à¦¬":4407,"Ġà¦ľà¦²à¦ļ":4408,"Ġà¦ľà¦²à¦Łà¦²":4409,"Ġà¦ħà¦¸à¦¹à¦¯":4410,"Ġà¦¬à¦Ľà¦°à¦ĵ":4411,"à¦ĩà¦²à¦¸":4412,"à¦¶à¦¨à¦ķ":4413,"Ġà¦ķà¦¤à¦Ń":4414,"Ġà¦ıà¦ĸà¦ĸ":4415,"à¦Ĩà¦ł":4416,"à¦Ĩà¦īà¦Ł":4417,"Ġà¦īà¦łà¦²à¦¨":4418,"Ġà¦īà¦łà¦²à¦ĵ":4419,"Ġà¦ĵà¦ªà¦°à¦Ł":4420,"Ġà¦Ĩà¦¨à¦ļ":4421,"Ġà¦Ĩà¦¨à¦«":4422,"à¦°à¦¸à¦ª":4423,"à¦®à¦°à¦§":4424,"à¦°à¦ĵà¦§":4425,"Ġà¦ıà¦Ĺà¦¬":4426,"à¦²à¦¬à¦Ł":4427,"Ġà¦®à¦¹à¦¡":4428,"à¦ķà¦¬à¦¸à¦¤":4429,"Ġà¦¹à¦łà¦ķ":4430,"à¦¸à¦¬à¦¶":4431,"Ġà¦ħà¦¤à¦¬à¦¡":4432,"Ġà¦ķà¦®à¦²à¦ķ":4433,"Ġà¦Ĩà¦ķà¦£":4434,"à¦²à¦¤à¦¦":4435,"Ġà¦ķà¦²à¦Ł":4436,"Ġà¦ķà¦²à¦¹":4437,"Ġà¦ķà¦²à¦ĺà¦°":4438,"Ġà¦¬à¦īà¦ĵ":4439,"Ġà¦ħà¦ªà¦Ł":4440,"Ġà¦ħà¦ªà¦ķà¦°":4441,"Ġà¦ªà¦¥à¦Ĺ":4442,"à¦ĩà¦ķà¦ķ":4443,"à¦¨à¦¬à¦¸":4444,"à¦¨à¦¬à¦¦à¦²":4445,"à¦Łà¦ķà¦®":4446,"à¦Łà¦ķà¦¹":4447,"Ġà¦ķà¦¬à¦ļ":4448,"à¦ªà¦¦à¦Ł":4449,"à¦ªà¦¦à¦Ĺ":4450,"Ġà¦īà¦¨à¦ļà¦²":4451,"à¦¨à¦ķà¦¥":4452,"à¦¬à¦ªà¦ķ":4453,"à¦¦à¦¨à¦®":4454,"à§İà¦¸à¦ķà¦°":4455,"Ġà¦ĸà¦¬à¦°à¦ĵ":4456,"à¦ĩà¦Łà¦¨":4457,"à¦ĩà¦Łà¦Ł":4458,"à¦ĩà¦Łà¦ĵ":4459,"Ġà¦īà¦¦à¦¦":4460,"Ġà¦īà¦¦à¦Ĺà¦¤":4461,"Ġà¦¯à¦¤à¦Ĺ":4462,"Ġà¦¦à¦¶à¦ıà¦Ĺ":4463,"à¦°à¦¹à¦Ł":4464,"à¦Ĺà¦¤à¦ķ":4465,"à¦Ĺà¦¤à¦¸":4466,"à¦¤à¦¬à¦ķ":4467,"à¦¤à¦¬à¦¸":4468,"à¦¤à¦¬à¦¸à¦¨":4469,"à¦ĸà¦¬à¦ĩ":4470,"à¦Ĺà¦ľà¦ĵ":4471,"Ġà¦¨à¦¦à¦¶":4472,"Ġà¦¸à¦¹à¦§à¦°":4473,"à¦¸à¦¨à¦ªà¦¤":4474,"Ġà¦°à¦ķà¦®à¦¸à¦ķà¦®":4475,"Ġà¦ķà¦ĸà¦¨à¦ĵà¦¸à¦ĸà¦¨à¦ĵ":4476,"Ġà¦ıà¦¨à¦Ĺ":4477,"Ġà¦ıà¦¨à¦ľà¦¯":4478,"à¦Łà¦°à¦°":4479,"à¦¤à¦ķà¦ª":4480,"Ġà¦Ĩà¦¤à¦ª":4481,"Ġà¦°à¦Ļà¦¬":4482,"à¦¥à¦°à¦Ĺ":4483,"à¦¨à¦¸à¦Ļ":4484,"Ġà¦ªà¦¦à¦Ł":4485,"à¦¦à¦²à¦¬à¦²":4486,"à¦ķà¦ķà¦¥":4487,"à¦¬à¦¸à¦Ń":4488,"à¦¸à¦ķà¦¥":4489,"à¦Łà¦²à¦Ĺ":4490,"à¦¯à¦ķà¦¥":4491,"Ġà¦Ĩà¦¦à¦¤":4492,"Ġà¦Ĩà¦¦à¦¬à¦ķ":4493,"à¦ľà¦²à¦Ń":4494,"à¦ķà¦ľà¦¨à¦¦":4495,"Ġà¦Ĩà¦§à¦ĺ":4496,"à¦ªà¦ķà¦¥à¦¨":4497,"à¦²à¦®à¦¶à¦²":4498,"à¦¯à¦¸à¦®":4499,"Ġà¦ĺà¦¨à¦ĺ":4500,"Ġà¦ħà¦²à¦ĵà¦¯":4501,"à¦ķà¦¶à¦ķ":4502,"à¦ľà¦¬à¦īà¦®":4503,"à¦°à¦Ńà¦¯":4504,"Ġà¦ķà¦¨à¦Ĺ":4505,"Ġà¦ıà¦°à¦ķà¦®à¦Ń":4506,"à¦¬à¦ķà¦¥":4507,"à¦²à¦Ĺà¦Ł":4508,"Ġà¦ļà¦®à¦ķà¦ª":4509,"Ġà¦ħà¦ľà¦Ĺà¦°":4510,"à¦²à¦¸à¦ĵ":4511,"à¦²à¦¸à¦ıà¦°":4512,"Ġà¦¬à§ľà¦ķà¦°":4513,"Ġà¦¬à§ľà¦¸à§ľ":4514,"Ġà¦®à¦¦à¦¨à¦ĵ":4515,"à¦Łà¦¨à¦Ĺà¦°":4516,"Ġà¦²à¦ľà¦ı":4517,"à¦¤à¦¦à¦¶":4518,"Ġà§¯à§«":4519,"à¦¬à¦Łà¦Ĺ":4520,"à¦¡à¦²à¦Ļ":4521,"Ġà¦¸à¦®à§Łà¦Ł":4522,"Ġà¦¸à¦®à§Łà¦ĩ":4523,"Ġà¦¨à§Łà¦¨":4524,"à¦¬à¦¶à¦¤":4525,"à¦¬à¦¶à¦¦":4526,"à¦ıà¦ĩà¦¸à¦¬":4527,"Ġà¦Īà¦Ĺà¦°à¦ĵ":4528,"à¦°à¦«à¦Łà¦Ł":4529,"Ġà¦Ńà¦¬à¦ĺ":4530,"Ġà¦§à¦°à¦¨à¦§":4531,"Ġà¦Ĺà¦£à¦¨":4532,"Ġà¦Ĺà¦£à¦ªà¦¤":4533,"à¦²à¦Ńà¦°":4534,"à¦²à¦Ńà¦ķ":4535,"à¦ķà¦¸à¦ĵ":4536,"Ġà¦¹à¦ĩà¦ĵ":4537,"Ġà¦ıà¦ķà¦¦à¦®à¦ĩ":4538,"Ġà¦Ĩà¦Łà¦¦":4539,"Ġà¦Ĩà¦Łà¦ĸ":4540,"Ġà¦Ĩà¦Łà¦¶":4541,"Ġà¦ľà§Łà¦ª":4542,"Ġà¦īà§İà¦ķà¦Ł":4543,"Ġà¦°à¦ľà¦¤à¦ĵ":4544,"Ġà¦¨à¦¬à¦Ľà¦°":4545,"Ġà¦īà¦ªà¦ķà¦£":4546,"à¦Ĺà¦Łà¦Ĺà¦¬":4547,"Ġà¦ħà¦¬à¦¨à¦¤":4548,"Ġà¦ľà¦Ĺà¦Ŀà¦®":4549,"à¦¨à¦¹à¦«":4550,"à¦ķà¦Ĩà¦ĩà¦¯":4551,"Ġà¦¸à¦¦à¦°à¦ĺ":4552,"Ġà¦¸à¦¦à¦°à¦ħà¦¨":4553,"à¦ľà¦ĩà¦īà¦¨":4554,"à¦Łà¦¸à¦Ĺ":4555,"Ġà¦¶à¦¹à¦°à¦ķ":4556,"Ġà¦ıà¦ķà¦ĸà¦£":4557,"à¦¤à¦¸à¦®à¦°":4558,"à¦¬à¦ľà¦¨à¦°":4559,"à¦¬à¦ľà¦¨à¦¦":4560,"Ġà¦ķà¦¦à¦®à¦«":4561,"Ġà¦ĸà¦Łà¦®à¦Ł":4562,"Ġà¦Ĭà¦¨à¦Ĩ":4563,"Ġà¦ķà¦¬à¦°à¦ĸ":4564,"Ġà¦¬à¦²à¦²à¦ıà¦¤":4565,"Ġà¦¬à¦²à¦²à¦ıà¦Ł":4566,"Ġà¦¬à¦²à¦²à¦ıà¦¦":4567,"Ġà¦¬à¦²à¦²à¦ıà¦ĩà¦¬":4568,"¯à§©":4569,"à¦¨à¦ĸà¦ļ":4570,"Ġà¦ªà¦Łà¦ªà¦Ł":4571,"à¦¨à¦ıà¦®à¦¨":4572,"Ġà¦Ķà¦ªà¦¨":4573,"Ġà¦ļà§ľà¦²":4574,"Ġà§§à§¯à§®à§¦":4575,"à¦Īà¦¯":4576,"Ġà§¨à§«":4577,"Ġà§¨à§¦à§Ń":4578,"à¦ªà¦¬à§Łà¦¸":4579,"Ġà¦Ĩà¦¬à¦¹à¦¸à¦Ļ":4580,"Ġà¦®à¦°à¦£à¦«":4581,"Ġà¦¬à¦²à¦²à¦Ĩà¦¹":4582,"à¦ıà¦«à¦ĵ":4583,"Ġà¦¹à¦Łà¦¡à¦Ĺ":4584,"Ġà¦ĵà¦²à¦Łà¦ª":4585,"à¦ıà¦®à¦¨à¦ķ":4586,"Ġà¦¹à¦°à¦«à¦Ĺ":4587,"Ġà¦®à¦«à¦¸à¦¸à¦²":4588,"Ġà¦ĸà¦²à¦¬à¦²":4589,"Ġà¦¨à¦ĵà¦Ĺ":4590,"à¦¬à¦°à¦¤à¦¨":4591,"Ġà¦ªà¦¬à¦¨à¦ª":4592,"à¦£à¦ªà¦¶":4593,"à¦¨à¦Ĩà¦¦":4594,"Ġà¦ķà¦®à¦¨à¦°":4595,"Ġà¦ħà¦®à¦°à¦¨":4596,"à§§à§¦":4597,"à§§à§ªà§«":4598,"Ġà¦ĺà¦Łà¦ķà¦®à¦¶":4599,"Ġà¦ļà¦°à¦£à¦Ĺ":4600,"à¦ľà§Łà¦¬":4601,"à¦ľà¦Ńà¦¬à¦¨":4602,"Ġà§ªà§«":4603,"Ġà¦°à¦Ĺà¦ļà¦Ł":4604,"Ġà¦§à¦ķà¦§à¦ķ":4605,"Ġà§¬à§¦":4606,"Ġà§¨à§¦à§¦à§®":4607,"Ġà¦¨à¦¬à¦¬à¦§":4608,"Ġà¦Ĩà¦ķà¦¬à¦°à¦Ń":4609,"à¦Łà¦Ĩà¦²à¦®":4610,"Ġà¦¶à¦°à¦¬à§İ":4611,"Ġà§§à§®à§«":4612,"Ġà¦ıà¦«à¦Ĩà¦°à¦Ĩà¦ĩ":4613,"Ġà§¨à§¦à§§à§¨":4614,"à¦¾à§įà¦ģ":4615,"à¦°à¦Ĩà¦ļà¦°à¦£":4616,"Ġà¦ľà¦¹à¦°à¦¤":4617,"à¦²à¦ªà¦°à¦¶":4618,"à¦Łà¦ªà¦¤à¦Ļ":4619,"à¦ľà¦¸à¦°à¦ŀ":4620,"à¦¶à¦Ĩà¦Ł":4621,"Ġà¦ļà¦°à¦²à¦ĸ":4622,"Ġà¦Ĺà¦Ĺà¦²à¦¸":4623,"Ġà¦¥à¦ķà¦¥à¦ķ":4624,"à¦®à¦¨à¦ħà¦ľà¦°":4625,"Ġà¦łà¦ķà¦łà¦ķ":4626,"Ġà¦Ĭà¦¨à¦Ĩà¦¶":4627,"Ġà§¨à§¦à§Ńà§§à§ªà§«":4628,"¨à§":4629,"ªà§§à§®":4630,"¯à§¦à§":4631,"Ġà§Ł":4632,"à§®":4633,"à¦¾à¦¼":4634,"à§ĩà§į":4635,"à§ĩà§ģ":4636,"à§ĩà¦ĥ":4637,"à¦°à¦ĸà¦¨":4638,"à¦°à¦ī":4639,"à¦°à¦¨à¦¤":4640,"à¦°à¦¶à¦¨":4641,"à¦°à¦§à¦°":4642,"à¦°à¦ıà¦ĩ":4643,"à¦°à¦Ĩà¦ªà¦¨":4644,"à¦°à¦Ĩà¦°":4645,"à¦°à¦ħà¦¨":4646,"à¦°à¦īà¦¦":4647,"à¦°à¦ĺà¦£":4648,"à¦°à¦¡à¦ķ":4649,"à¦°à¦ıà¦¸à¦¬":4650,"à¦°à¦īà¦¤":4651,"à¦¿à¦¾":4652,"à¦¨à¦ªà¦¨":4653,"à¦¨à¦Ŀ":4654,"à¦¨à¦°à¦¤":4655,"à¦¨à¦°à¦®":4656,"à¦¨à¦ķà¦²":4657,"à¦¨à¦¨à¦¤":4658,"à¦¨à¦ķà¦¤":4659,"à¦¨à¦®à¦²":4660,"à¦¨à¦®à¦°":4661,"à¦¨à¦²à¦¤":4662,"à¦¨à§İà¦¸":4663,"à¦¨à¦ªà¦¡":4664,"à¦¨à¦°à¦ª":4665,"à¦¨à¦ļà¦²":4666,"à¦¨à¦ļà¦ķ":4667,"à¦¨à¦ľà¦²":4668,"à¦¨à¦®à¦¸":4669,"à¦¨à¦¹à¦¯":4670,"à¦¨à¦¶à¦ķ":4671,"à¦¨à¦¢":4672,"à¦¨à¦¯à¦¦":4673,"à¦¨à¦¬à¦²à¦Ľ":4674,"à¦¨à¦¡à¦¨":4675,"à¦¨à§Łà¦¨":4676,"à¦¨à¦īà¦¡":4677,"à¦¨à¦ħà¦¨":4678,"à¦¨à¦ħà¦²":4679,"à¦¨à¦ħà¦°":4680,"à¦¨à¦ķà¦¤à¦ķ":4681,"à¦²à¦ŀ":4682,"à¦²à¦°à¦¬":4683,"à¦²à¦°à¦ķà¦®":4684,"à¦²à¦¨à¦ķ":4685,"à¦²à¦¸à¦¤":4686,"à¦²à¦¸à¦Ł":4687,"à¦²à¦ļà¦¡":4688,"à¦²à¦¡à¦°":4689,"à¦²à¦«à¦²":4690,"à¦²à¦Ĩà¦²":4691,"à¦²à¦ĺà¦¡":4692,"à¦ķà¦ĸà¦¨":4693,"à¦ķà¦®à¦¯":4694,"à¦ķà¦¨à¦²":4695,"à¦ķà¦¨à¦¸":4696,"à¦ķà¦¸à¦ª":4697,"à¦ķà¦¢":4698,"à¦ķà¦¸à¦®":4699,"à¦ķà¦¯à¦¦":4700,"à¦ķà¦īà¦¦":4701,"à¦¯à¦ĸ":4702,"à¦¯à¦°à¦¤":4703,"à¦¯à¦²à¦ķ":4704,"à¦¯à¦ªà¦¤":4705,"à¦¯à¦°à¦¸":4706,"à¦¯à¦ķà¦¬":4707,"à¦¯à¦°à¦ĩ":4708,"à¦¯à¦¯à¦¨":4709,"à¦¯à¦Ńà¦¬":4710,"à¦¯à¦¤à¦ķ":4711,"à¦¯à¦¶à¦ķ":4712,"à¦¯à¦ıà¦ĩ":4713,"à¦¯à¦ľà¦¯":4714,"à¦¯à¦Ńà¦°":4715,"à¦¯à¦ªà¦¥":4716,"à¦¯à¦°à¦ļà¦¨":4717,"à¦¯à¦ħà¦Ń":4718,"à¦¤à¦ªà¦¨":4719,"à¦¤à¦ĵà¦¯":4720,"à¦¤à¦ı":4721,"à¦¤à¦ķà¦°":4722,"à¦¤à¦²à¦¬":4723,"à¦¤à¦¤à¦®":4724,"à¦¤à¦ĺà¦¡":4725,"à§ģà§ĥ":4726,"Ġà¦ķà¦ľ":4727,"Ġà¦ķà§İ":4728,"Ġà¦ķà¦²à¦¬":4729,"Ġà¦ķà¦Łà¦°":4730,"Ġà¦ķà¦ĩà¦®":4731,"Ġà¦ķà¦ĩà¦ļ":4732,"Ġà¦ķà¦ķà¦ª":4733,"Ġà¦ķà§Łà¦²":4734,"Ġà¦ķà¦²à¦¤à¦²":4735,"à¦®à¦ªà¦¨":4736,"à¦®à¦¦à¦°":4737,"à¦®à¦ķà¦¤":4738,"à¦®à¦¸à¦Ļ":4739,"à¦®à¦¹à¦¸":4740,"à¦®à¦§à¦°":4741,"à¦®à¦Ĩà¦°":4742,"à¦®à¦Ĩà¦®à¦°":4743,"à¦¬à¦ĸà¦¨":4744,"à¦¬à¦«":4745,"à¦¬à¦¬à¦¨":4746,"à¦¬à¦²à¦ķ":4747,"à¦¬à¦¦à¦°":4748,"à¦¬à¦®à¦¤":4749,"à¦¬à¦ķà¦¬":4750,"à¦¬à¦®à¦¯":4751,"à¦¬à¦¯à¦¨":4752,"à¦¬à¦ĩà¦Ł":4753,"à¦¬à¦¸à¦¤":4754,"à¦¬à¦ĺà¦°":4755,"à¦¬à¦īà¦ķ":4756,"à¦¬à¦ľà¦ķ":4757,"à¦¬à¦ĩà¦Ń":4758,"à¦¬à¦Ĩà¦ªà¦¨":4759,"à¦¬à§°":4760,"à¦¬à¦īà¦°":4761,"à¦¬à§İà¦¸à¦°":4762,"à¦¬à¦ħà¦Ļ":4763,"Ġà¦¬à¦ĸ":4764,"Ġà¦¬à¦£":4765,"Ġà¦¬à¦ĩà¦¬":4766,"Ġà¦¬à¦ľà¦¬":4767,"Ġà¦¬à¦¬à¦ķ":4768,"Ġà¦¬à¦Łà¦®":4769,"Ġà¦¬à¦®à¦¶":4770,"Ġà¦¬à¦Ĭ":4771,"Ġà¦¬à¦ķà¦²à¦¸":4772,"à¦Łà¦¯":4773,"à¦Łà§Ł":4774,"à¦Łà¦Ŀ":4775,"à¦Łà¦¶à¦¨":4776,"à¦Łà¦®à¦¤":4777,"à¦Łà¦®à¦°":4778,"à¦Łà¦²à¦¬":4779,"à¦Łà¦®à¦¯":4780,"à¦Łà¦¨à¦ķ":4781,"à¦Łà¦ĺà¦°":4782,"à¦Łà¦ħ":4783,"à¦Łà¦§à¦°":4784,"à¦Łà¦ıà¦ķ":4785,"à¦Łà¦ıà¦¸à¦¬":4786,"à¦Łà¦ıà¦®à¦¨":4787,"Ġà¦Ĩà¦£":4788,"Ġà¦Ĩà¦ķà¦¤":4789,"Ġà¦Ĩà¦ĩà¦¯":4790,"Ġà¦Ĩà¦īà¦¨":4791,"Ġà¦Ĩà¦Łà¦²":4792,"Ġà¦Ĩà¦ĩà¦Ľ":4793,"Ġà¦Ĩà¦Łà¦¨":4794,"Ġà¦Ĩà¦ĵà¦°":4795,"Ġà¦Ĩà¦Ńà¦¨":4796,"Ġà¦Ĩà¦īà¦°":4797,"Ġà¦Ĩà¦£à¦¬":4798,"Ġà¦Ĩà¦īà¦¡":4799,"à¦¸à¦ĸà¦¨":4800,"à¦¸à¦ľà¦¨":4801,"à¦¸à¦ŀ":4802,"à¦¸à§İ":4803,"à¦¸à¦¬à¦°":4804,"à¦¸à¦ķà¦²":4805,"à¦¸à¦¨à¦Ł":4806,"à¦¸à¦°à¦ĵ":4807,"à¦¸à¦ħ":4808,"à¦¸à¦ıà¦ĩ":4809,"à¦¸à¦Ńà¦°":4810,"à¦¸à¦Ĩà¦®à¦°":4811,"à¦¸à¦Ĳ":4812,"à¦¸à¦°à¦¸à¦ľ":4813,"Ġà¦¸à¦°à¦£":4814,"Ġà¦¸à¦ķà¦°":4815,"Ġà¦¸à¦²à¦¤":4816,"Ġà¦¸à¦ĩà¦¯":4817,"Ġà¦¸à§İà¦ķ":4818,"Ġà¦¸à¦ĩà¦¸":4819,"Ġà¦¸à¦¦à¦²à¦¬à¦²":4820,"Ġà¦ªà¦®":4821,"Ġà¦ªà¦¹":4822,"Ġà¦ªà¦¹à¦²":4823,"Ġà¦ªà¦¹à¦°":4824,"Ġà¦ªà¦Łà¦ķ":4825,"Ġà¦ªà¦¸à¦°":4826,"à¦Ľà¦ļ":4827,"à¦Ľà¦ĵà¦¯":4828,"à¦Ľà¦ķà¦ĩ":4829,"à¦Ľà¦®à¦Ľà¦®":4830,"à¦ĩà¦¥":4831,"à¦ĩà¦£":4832,"à¦ĩà¦®à¦¨":4833,"à¦ĩà§ľ":4834,"à¦ĩà¦ĺ":4835,"à¦ĩà¦ķà¦²":4836,"à¦ĩà¦ĸà¦¬":4837,"à¦ĩà¦ĵà§Ł":4838,"à¦ĩà¦ħ":4839,"à¦ĩà¦ıà¦ķà¦Ł":4840,"à¦ĩà¦ĵà¦°":4841,"à¦ĩà¦ľà¦¨à¦ķ":4842,"à¦ĩà¦ıà¦ķ":4843,"à¦ĩà¦īà¦°":4844,"à¦ĩà¦ıà¦ĸà¦¨":4845,"à¦ĩà¦ıà¦¸à¦¬":4846,"à¦ĩà¦Ĩà¦¡":4847,"Ġà¦¨à¦¥":4848,"Ġà¦¨à¦ķà¦ķ":4849,"Ġà¦¨à¦§à¦°":4850,"Ġà¦¨à¦¬à¦Ł":4851,"Ġà¦¨à¦ĸà¦°":4852,"Ġà¦¨à§ľà¦¤":4853,"Ġà¦¨à§ľà¦Ľ":4854,"Ġà¦¨à¦Ńà¦¶":4855,"Ġà¦¨à§ľà¦¬":4856,"Ġà¦¦à¦Ļ":4857,"Ġà¦¦à¦®à¦¨":4858,"Ġà¦¦à¦®à¦Ł":4859,"Ġà¦ıà¦°à¦¤":4860,"Ġà¦ıà¦ĺ":4861,"Ġà¦ıà¦ľà¦²":4862,"Ġà¦ıà¦ªà¦¸":4863,"Ġà¦ıà¦§à¦°":4864,"Ġà¦ıà¦ªà¦¥":4865,"Ġà¦ıà¦ħà¦¬à¦¸":4866,"Ġà¦¤à§ľ":4867,"Ġà¦¤à¦Ľà¦°":4868,"Ġà¦¤à¦¨à¦¯":4869,"Ġà¦¤à¦ķà¦®":4870,"Ġà¦¤à¦ķà¦¤à¦ķ":4871,"Ġà¦®à¦°à¦ķ":4872,"Ġà¦®à§İà¦¸":4873,"Ġà¦®à¦°à¦¹":4874,"Ġà¦®à¦ķà¦¦":4875,"Ġà¦®à¦²à¦¯":4876,"Ġà¦®à¦Łà¦¨":4877,"Ġà¦®à¦Ĺà¦¡":4878,"Ġà¦®à¦Ľà¦²":4879,"Ġà¦®à¦īà¦²":4880,"Ġà¦®à¦°à¦£à¦¬":4881,"Ġà¦®à¦ĵà¦ķ":4882,"à¦¼à§ĩà§ĩ":4883,"à¦¦à¦ľà¦¨":4884,"à¦¦à¦ĵà¦¯":4885,"à¦¦à¦°à¦¤":4886,"à¦¦à¦²à¦¬":4887,"à¦¦à¦¨à¦¨":4888,"à¦¦à¦²à¦Ł":4889,"à¦¦à¦ķà¦¦":4890,"à¦¦à¦ıà¦°":4891,"à¦¦à¦®à¦¬":4892,"à¦¦à¦ķà¦ĵ":4893,"à¦¦à¦Ńà¦¦":4894,"à¦¦à¦ĺà¦°à¦Ł":4895,"à¦¦à¦ħà¦ª":4896,"Ġà¦¹à¦ľ":4897,"Ġà¦¹à¦¹":4898,"Ġà¦¹à¦¸à¦¨":4899,"Ġà¦¹à¦Łà¦¤":4900,"Ġà¦¹à¦ªà¦Ĺ":4901,"à¦ªà¦¹":4902,"à¦ªà¦Ļ":4903,"à¦ªà¦«":4904,"à¦ªà¦Łà¦ķ":4905,"à¦ªà¦²à¦Ł":4906,"à¦ªà¦ļà¦°":4907,"à¦ªà¦ķà¦¦":4908,"à¦ªà¦ıà¦°":4909,"à¦ªà¦ľà¦²":4910,"à¦ªà¦§à¦°":4911,"à¦ªà§Łà¦¸":4912,"à¦ĸà¦«":4913,"à¦ĸà¦¬à¦¨":4914,"à¦ĸà¦¦à¦°":4915,"à¦ĸà¦°à¦¹":4916,"à¦ĸà¦°à¦ļ":4917,"à¦ĸà¦ķà¦¦":4918,"à¦ĸà¦ķà¦ķ":4919,"à¦ĸà¦ľà¦¨à¦ķ":4920,"à¦¡à¦ĸ":4921,"à¦¡à¦¡":4922,"à¦¡à¦ļ":4923,"à¦¡à¦¬à¦²":4924,"à¦¡à¦¬à¦ķ":4925,"à¦¡à¦¬à¦¡":4926,"à¦¡à¦Ńà¦¨":4927,"à¦¡à¦ķà¦Ń":4928,"à¦ľà¦ľ":4929,"à¦ľà¦ļ":4930,"à¦ľà¦«":4931,"à¦ľà¦ķà¦¤":4932,"à¦ľà¦°à¦¸":4933,"à¦ľà¦ıà¦°":4934,"à¦ľà¦¶à¦Ł":4935,"à§Ģà§Ģ":4936,"Ġà¦ķà¦°à¦§":4937,"Ġà¦ķà¦°à¦ķà¦°":4938,"Ġà¦ķà¦°à¦®à¦ļ":4939,"à¦Ĺà¦¹":4940,"à¦Ĺà¦«":4941,"à¦Ĺà§İ":4942,"à¦Ĺà¦ĺ":4943,"à¦Ĺà¦°à¦®":4944,"à¦Ĺà¦ħà¦¨":4945,"à¦Ĺà¦ĺà¦Ł":4946,"à¦¶à¦¡":4947,"à¦¶à¦¦à¦°":4948,"à¦¶à¦®à¦°":4949,"à¦¶à¦ķà¦ķ":4950,"à¦¶à¦Ĩà¦®":4951,"à¦¶à¦¤à¦Ł":4952,"à¦¶à¦ľà¦¨à¦ķ":4953,"à¦¶à¦Ľà¦¤":4954,"Ġà¦¯à¦·":4955,"Ġà¦¯à¦®à¦°":4956,"Ġà¦¯à§İà¦¸":4957,"Ġà¦ļà¦¯":4958,"Ġà¦ļà¦°à¦¸":4959,"Ġà¦ļà¦ªà¦ķ":4960,"Ġà¦ļà¦Łà¦¬":4961,"Ġà¦ļà§°":4962,"Ġà¦Ĺà¦ļ":4963,"Ġà¦Ĺà§Ł":4964,"Ġà¦Ĺà¦®à¦ķ":4965,"Ġà¦Ĺà¦¤à¦®":4966,"Ġà¦Ĺà¦ľà¦¬":4967,"à¦ļà¦ļ":4968,"à¦ļà¦Ŀ":4969,"à¦ļà¦¤à¦°":4970,"à¦ļà¦¨à¦ĵ":4971,"à¦ļà¦ĺ":4972,"à¦ļà¦ķà¦²":4973,"à¦ļà¦®à¦¤":4974,"à¦ļà¦ļà¦¨":4975,"à¦ļà¦Ĺà¦¡":4976,"à¦ļà¦ªà¦¦à¦¸":4977,"Ġà¦Ĩà¦®à¦ķ":4978,"Ġà¦Ĩà¦®à¦ľ":4979,"Ġà¦Ĩà¦®à¦²à¦ķ":4980,"Ġà¦Ĩà¦®à¦¸à¦¤":4981,"Ġà¦ľà¦ķ":4982,"Ġà¦ľà¦ĩà¦¨":4983,"Ġà¦ľà¦ªà¦¤":4984,"Ġà¦ľà¦ªà¦®":4985,"Ġà¦ľà¦ĵà¦¹":4986,"à¦ĵà¦¶":4987,"à¦ĵà¦«":4988,"à¦ĵà¦Ŀ":4989,"à¦ĵà¦¢":4990,"à¦ĵà¦ıà¦ķà¦Ł":4991,"Ġà¦¬à¦²à¦¯":4992,"Ġà¦ħà¦ľà¦¨":4993,"Ġà¦ħà¦¤à¦°":4994,"Ġà¦ħà¦®à¦¤":4995,"Ġà¦ħà¦¶à¦ķ":4996,"Ġà¦ıà¦ķà¦ł":4997,"Ġà¦ıà¦ķà¦Ĺà¦²":4998,"Ġà¦°à¦¬à¦°":4999,"Ġà¦°à¦ļà¦¯":5000,"Ġà¦°à¦¹à¦¨":5001,"Ġà¦°à¦ĩà¦¤":5002,"Ġà¦°à¦ĩà¦ļ":5003,"Ġà¦°à¦¸à¦ķà¦·":5004,"à¦¥à¦¦":5005,"à¦¥à¦¶":5006,"à¦¥à¦ľà¦¨":5007,"à¦¥à¦ªà¦¤":5008,"à¦¥à¦ķà¦¦":5009,"à¦¥à¦¸à¦®":5010,"à¦¥à¦²à¦ľ":5011,"à¦§à¦°à¦ķ":5012,"à¦§à¦ķà¦¤":5013,"à¦§à¦¨à¦Ł":5014,"à¦§à¦°à¦¦":5015,"à¦§à¦®à¦ķ":5016,"à¦§à¦ħ":5017,"à¦§à¦¶à¦ķ":5018,"à¦§à¦Ńà¦°":5019,"à¦§à¦ªà¦²":5020,"à¦§à¦°à¦ªà¦²":5021,"à¦·à¦¡":5022,"à¦·à¦ļ":5023,"à¦·à¦¹":5024,"à¦·à¦°à¦Ł":5025,"à¦·à¦ķà¦¤":5026,"à¦·à¦¸à¦¨":5027,"à¦·à¦¤à¦ķ":5028,"à¦·à¦¸à¦®":5029,"à¦·à¦ĵà¦°":5030,"à¦·à¦ľà¦¨à¦ķ":5031,"à¦·à¦¶à¦¯":5032,"à¦·à¦²à¦§":5033,"Ġà¦¶à¦¦":5034,"Ġà¦¶à¦ļ":5035,"Ġà¦¶à¦¬à¦°":5036,"Ġà¦¶à¦°à¦¦":5037,"Ġà¦¶à¦¶à¦¬":5038,"Ġà¦¶à¦¤à¦¦":5039,"Ġà¦¶à§°":5040,"à¦¹à¦ľ":5041,"à¦¹à¦Ĺ":5042,"à¦¹à¦ļ":5043,"à¦¹à¦£":5044,"à¦¹à¦Ļ":5045,"à¦¹à¦°à¦¬":5046,"à¦¹à¦¬à¦¨":5047,"à¦¹à¦¬à¦²":5048,"à¦¹à¦°à¦Ł":5049,"à¦¹à¦ķà¦¤":5050,"à¦¹à¦ķà¦¦":5051,"à¦¹à¦ĸà¦£":5052,"Ġà¦ĸà¦ŀ":5053,"Ġà¦ĸà¦ĩà¦¨":5054,"Ġà¦ĸà¦¸à¦¬":5055,"Ġà¦ĵà¦°à¦¤":5056,"Ġà¦ĵà¦¬à¦²":5057,"Ġà¦Ľà¦Ń":5058,"Ġà¦Ľà¦«":5059,"Ġà¦Ľà¦²à¦ķ":5060,"Ġà¦Ľà¦°à¦°":5061,"Ġà¦Ľà¦ªà¦Ľ":5062,"Ġà¦Ľà¦Ĩà¦¨":5063,"à¦£à¦ł":5064,"à¦£à¦®à¦¨":5065,"Ġà¦²à¦ī":5066,"Ġà¦²à¦¹à¦°":5067,"Ġà¦²à¦Łà¦ķ":5068,"Ġà¦²à¦ĩà¦¬":5069,"Ġà¦²à¦ĩà¦Ľ":5070,"Ġà¦²à¦ĩà§Ł":5071,"Ġà¦²à§ľà¦¬":5072,"Ġà¦²à¦¬à¦¨à¦¦":5073,"Ġà¦¥à¦¸":5074,"Ġà¦«à¦ķà¦°":5075,"Ġà¦«à¦²à¦¤":5076,"Ġà¦«à¦Łà¦°":5077,"Ġà¦«à¦ľà¦²":5078,"Ġà¦«à¦ķà¦«":5079,"Ġà¦īà§Ł":5080,"Ġà¦īà¦ŀ":5081,"Ġà¦īà¦²à¦ķ":5082,"Ġà¦īà¦Ĺà¦°":5083,"Ġà¦īà¦¸à¦ª":5084,"Ġà¦īà¦ĩà¦¡":5085,"Ġà¦īà¦¸à¦ĸ":5086,"Ġà¦īà§ľà¦Ľ":5087,"Ġà¦īà¦ĵà¦®":5088,"à§Łà¦¶":5089,"à§Łà¦®à¦¨":5090,"à§Łà¦¤à¦®":5091,"à¦Ļà¦ıà¦°":5092,"à¦Ńà¦Ľ":5093,"à¦Ńà¦ĩ":5094,"à¦Ńà¦ª":5095,"à¦Ńà¦ĵ":5096,"à¦Ńà¦ľà¦¨":5097,"à¦Ńà¦ŀ":5098,"à¦Ńà¦°à¦£":5099,"à¦Ńà¦°à¦¸":5100,"à¦Ńà¦°à¦¯":5101,"à¦łà¦¦":5102,"à¦łà¦Ĺ":5103,"à¦łà¦£":5104,"à¦łà¦ł":5105,"à¦łà¦ĺ":5106,"à¦łà¦®à¦¯":5107,"à¦łà¦ķà¦ķ":5108,"à¦łà¦Ĺà¦¡":5109,"à¦łà¦ķà¦ª":5110,"à¦łà¦ĸà¦£":5111,"Ġà¦¬à¦²à¦²à¦®à¦¨":5112,"Ġà¦¬à¦²à¦²à¦°à¦¬":5113,"Ġà¦¬à¦²à¦²à¦¬à¦¨":5114,"Ġà¦¬à¦²à¦²à¦ĩà¦¨":5115,"Ġà¦¬à¦²à¦²à¦¤à¦¬":5116,"Ġà¦¬à¦²à¦²à¦§à¦°":5117,"Ġà¦¬à¦²à¦²à¦®à¦¹":5118,"Ġà¦¬à¦²à¦²à¦ĸà¦¬à¦°":5119,"Ġà¦¬à¦²à¦²à¦ĵà¦¦":5120,"Ġà¦¬à¦²à¦²à¦ħà¦²":5121,"Ġà¦¬à¦²à¦²à¦ħà¦¤":5122,"Ġà¦¬à¦²à¦²à¦¦à¦°à¦ľ":5123,"Ġà¦Ĩà¦°à¦£":5124,"Ġà¦Ĩà¦°à¦ıà¦ķà¦ľà¦¨":5125,"à¦¼à¦¿à¦ģ":5126,"Ġà¦ĺà¦¸à¦°":5127,"Ġà¦ĺà¦·à¦°":5128,"Ġà¦ĺà¦°à¦¬à¦¨":5129,"Ġà¦Łà¦¨à¦Ł":5130,"Ġà¦Łà¦¨à¦ķ":5131,"Ġà¦Łà¦ĩà¦Ł":5132,"Ġà¦Łà¦¨à¦¸":5133,"Ġà¦Łà¦ķà¦®":5134,"Ġà¦Łà¦²à¦°":5135,"Ġà¦Łà¦ªà¦Łà¦ª":5136,"Ġà¦ªà¦°à¦Ĺà¦¨":5137,"Ġà¦ªà¦°à¦¬à¦Ł":5138,"Ġà¦ªà¦°à¦®à¦ª":5139,"Ġà¦ħà¦¨à¦Ĺ":5140,"Ġà¦ħà¦¨à¦Ļ":5141,"Ġà¦ħà¦¨à¦ķà¦Ł":5142,"Ġà¦ħà¦¨à¦¬à¦¦":5143,"à¦ªà¦°à¦ªà¦°":5144,"à¦ªà¦°à¦¬à¦¶":5145,"Ġà¦ıà¦ĩà¦¯":5146,"Ġà¦ıà¦ĩà¦¦":5147,"Ġà¦ıà¦ĩà¦ļà¦Ł":5148,"à¦®à¦¨à¦¤":5149,"à¦®à¦¨à¦¤à¦°":5150,"Ġà¦§à¦®":5151,"Ġà¦§à¦°à¦ķ":5152,"Ġà¦Ĩà¦¸à¦¨à¦¸":5153,"à¦īà¦¶":5154,"à¦īà§ľ":5155,"à¦īà¦ĺ":5156,"à¦īà¦ķà¦²":5157,"à¦īà¦²à¦ķ":5158,"à¦īà¦ĩà¦¨":5159,"à¦īà¦ĩà¦Ł":5160,"à¦īà¦¸à¦Ł":5161,"à¦īà¦Łà¦²":5162,"à¦īà¦ĩà¦¶":5163,"à¦īà¦¡à¦¨":5164,"à¦īà¦¬à¦¯":5165,"à¦īà¦ªà¦¯":5166,"à¦īà¦¡à¦²à¦Ļ":5167,"Ġà¦¡à¦¬":5168,"Ġà¦¡à¦²à¦¤":5169,"à¦«à¦¬":5170,"à¦«à¦Ļ":5171,"à¦«à¦¸à¦²":5172,"à¦«à¦Łà¦¨":5173,"Ġà¦¹à¦²à¦¹":5174,"Ġà¦¹à¦²à¦ı":5175,"Ġà¦¹à¦²à¦ıà¦ĸà¦¨":5176,"Ġà¦®à¦¨à¦°":5177,"Ġà¦®à¦¨à¦¨":5178,"Ġà¦®à¦¨à¦ĵ":5179,"Ġà¦¸à¦®à¦§":5180,"Ġà¦¸à¦®à¦·":5181,"Ġà¦¸à¦®à¦ķà¦ķ":5182,"à¦ľà¦¨à¦Ń":5183,"à¦ľà¦¨à¦¨à¦¦":5184,"à¦Ŀà¦¦":5185,"à¦Ŀà¦ª":5186,"à¦Ŀà¦Ĺ":5187,"à¦Ŀà¦²à¦¬":5188,"à¦Ŀà¦¨à¦¦":5189,"à¦ŀà¦ķ":5190,"Ġà¦ļà¦²à¦²à¦ķ":5191,"Ġà¦ĩà¦ķà¦¬":5192,"Ġà¦ĩà¦¸à¦¬":5193,"Ġà¦ĩà¦°à¦¶":5194,"Ġà¦ĩà¦Łà¦Ł":5195,"Ġà¦ĩà¦Ĺà¦¨":5196,"Ġà¦ĩà¦īà¦Ł":5197,"Ġà¦ĩà¦§à¦°":5198,"Ġà¦ĩà¦Łà¦¬":5199,"Ġà¦ĩà¦¡à¦²":5200,"Ġà¦¸à¦¬à¦ĵ":5201,"Ġà¦¸à¦¬à¦¸à¦¬":5202,"Ġà¦¸à¦¬à¦ķà¦¥":5203,"à¦°à¦ķà¦¤":5204,"à¦°à¦ķà¦¸":5205,"à¦°à¦ķà¦¨à¦¡":5206,"Ġà¦īà¦łà¦¨":5207,"Ġà¦¹à¦¬à¦¹à¦¬":5208,"Ġà¦¬à¦¸à¦¬à¦¤":5209,"Ġà¦¬à¦¸à¦¤à¦¬":5210,"à§İà¦¬":5211,"à§İà¦Ł":5212,"à§İà¦ľ":5213,"à§İà¦¶":5214,"à§İà¦ªà¦¨":5215,"à§İà¦ķà¦°":5216,"à§İà¦ªà¦Ł":5217,"Ġà¦ķà¦°à¦¤à¦²":5218,"Ġà¦ķà¦°à¦¤à¦®":5219,"Ġà¦ľà¦¨à¦°":5220,"Ġà¦ľà¦¨à¦¯":5221,"Ġà¦ľà¦¨à¦¸à¦Ń":5222,"Ġà¦ķà¦°à¦²à¦®":5223,"Ġà¦ķà¦°à¦²à¦Ĩà¦®":5224,"Ġà¦ĵà¦°à¦Ł":5225,"à§ľà¦ķ":5226,"à§ľà¦®":5227,"à§ľà¦ĸ":5228,"à§ľà¦ľ":5229,"Ġà¦®à¦¤à¦¤":5230,"Ġà¦®à¦¤à¦¬":5231,"Ġà¦®à¦¤à¦¨à¦ĩ":5232,"Ġà¦Ŀà¦¦":5233,"Ġà¦Ŀà¦£":5234,"Ġà¦Ŀà¦°à¦¤":5235,"à¦°à¦¬à¦ĩ":5236,"à¦°à¦¬à¦¦":5237,"Ġà¦ıà¦²à¦¸":5238,"Ġà¦ıà¦²à¦Ĺ":5239,"Ġà¦ıà¦²à¦Ń":5240,"Ġà¦ıà¦²à¦Ĩà¦®":5241,"à¦ķà¦Łà¦²":5242,"à¦ķà¦Łà¦®":5243,"à¦ķà¦Łà¦°à¦¦":5244,"à¦ķà¦Łà¦®à¦¯":5245,"à¦ķà¦Łà¦ľà¦¨à¦¦":5246,"Ġà¦§à¦°à¦ª":5247,"Ġà¦§à¦°à¦¨à¦ĵ":5248,"à¦¬à¦°à¦²":5249,"à¦¬à¦°à¦Łà¦°":5250,"à¦¬à¦°à¦¦à¦¤":5251,"Ġà¦ĺà¦°à¦¸":5252,"Ġà¦ĺà¦°à¦ª":5253,"Ġà¦ĺà¦°à¦ĵ":5254,"Ġà¦ĺà¦°à¦£":5255,"Ġà¦¬à¦¨à¦°":5256,"Ġà¦¬à¦¨à¦Ľ":5257,"Ġà¦¬à¦¨à¦ĵ":5258,"Ġà¦¬à¦¨à¦¬à¦¨":5259,"Ġà¦¬à¦¨à¦ªà¦¥":5260,"à¦°à¦£à¦°":5261,"à¦°à¦£à¦®":5262,"à¦°à¦£à¦ªà¦¤":5263,"Ġà¦Ĩà¦Ĺà¦°":5264,"à¦¬à¦¨à¦¨":5265,"à¦¬à¦¨à¦ĵ":5266,"à¦¬à¦¨à¦§":5267,"à¦¬à¦¨à¦¸à¦°":5268,"à¦¬à¦¨à¦®à¦°à¦£":5269,"Ġà¦ıà¦¬à¦®":5270,"Ġà¦ıà¦¬à¦Ľà¦°":5271,"Ġà¦Ĩà¦¬à¦ķ":5272,"Ġà¦Ĩà¦¬à¦¡":5273,"à¦¨à¦ĵà§Ł":5274,"à¦¨à¦ĵà¦¸à¦¬":5275,"Ġà¦ħà¦¬à¦¬":5276,"Ġà¦ħà¦¬à¦Ń":5277,"Ġà¦Ĩà¦²à¦ľ":5278,"à¦°à¦ªà¦°à¦¤":5279,"à¦°à¦ªà¦°à¦ĺà¦£":5280,"Ġà¦Ĺà¦²à¦¬":5281,"à¦ıà¦¨":5282,"à¦ıà¦ķà¦²":5283,"à¦ıà¦°à¦ĵ":5284,"à¦ıà¦ĩà¦¬":5285,"à¦ıà¦¸à¦ª":5286,"à¦ıà¦Ńà¦°":5287,"à¦ĺà¦Ľ":5288,"à¦ĺà¦ĵ":5289,"à¦ĺà§İ":5290,"à¦ĺà§ľ":5291,"à¦ĺà¦¸à¦®à¦¯":5292,"à¦ĺà¦Ĭ":5293,"à¦°à¦®à¦ķ":5294,"à¦°à¦®à¦¯":5295,"à¦°à¦®à¦Ł":5296,"à¦ķà¦²à¦°":5297,"à¦ķà¦²à¦ª":5298,"à¦ķà¦²à¦Ń":5299,"à¦ķà¦²à¦«":5300,"à¦ķà¦²à¦°à¦¬":5301,"à¦·à¦£à¦ľà¦¨":5302,"à¦¨à¦¤à¦¬":5303,"à¦Ĺà¦²à¦¤":5304,"à¦Ĺà¦²à¦ĵ":5305,"à¦Ĺà¦²à¦¬à¦°":5306,"à¦Ĺà¦²à¦ĺ":5307,"à¦Ĺà¦²à¦¸à¦°":5308,"à¦Ĺà¦²à¦Ĩà¦®":5309,"à¦Ĺà¦²à¦ıà¦ĩ":5310,"à¦ķà¦°à¦¸":5311,"à¦ķà¦°à¦Ĺ":5312,"à¦ķà¦°à¦¶":5313,"à¦ķà¦°à¦ĵ":5314,"à¦ĸà¦²à¦¯":5315,"à¦ĸà¦²à¦ķà¦¬":5316,"à¦ĸà¦²à¦ıà¦ķà¦Ł":5317,"à¦ĸà¦²à¦ıà¦ķ":5318,"à¦ĸà¦²à¦Ĩà¦¨à¦Ĺ":5319,"à¦²à¦ķà¦ĵ":5320,"à¦²à¦ķà¦£":5321,"Ġà¦ķà¦°à¦Ľà¦ĩ":5322,"Ġà¦ķà¦°à¦¬à¦ķ":5323,"Ġà¦ķà¦°à¦¬à¦¬":5324,"Ġà¦ķà¦°à¦¬à¦ĩ":5325,"Ġà¦¹à¦¤à¦ĩ":5326,"Ġà¦ıà¦¤à¦²":5327,"Ġà¦ıà¦¤à¦°à¦ķà¦®":5328,"à¦¬à¦²à¦®":5329,"à¦¬à¦²à¦ĵ":5330,"à¦¬à¦²à¦²à¦¨":5331,"Ġà¦ľà¦²à¦¯":5332,"Ġà¦ľà¦²à¦¤":5333,"Ġà¦ľà¦²à¦ļà¦°":5334,"Ġà¦ľà¦²à¦¹à¦¸":5335,"Ġà¦ľà¦²à¦ĺà¦¡":5336,"Ġà¦ħà¦¸à¦¹à¦¨":5337,"à§ĭà¦ģà¦Ĥ":5338,"à¦°à¦Łà¦°":5339,"Ġà¦¬à¦Ľà¦°à¦Ł":5340,"à¦ĩà¦²à¦°":5341,"à¦ĩà¦²à¦Ĺ":5342,"à¦ĩà¦²à¦Łà¦°":5343,"Ġà¦Ĩà¦¶à¦ķ":5344,"Ġà¦¬à¦²à¦¤à¦¦":5345,"à¦¶à¦¨à¦¬":5346,"à¦¶à¦¨à¦¸":5347,"à¦¶à¦¨à¦ıà¦°":5348,"à¦¶à¦¨à¦ķà¦Ń":5349,"Ġà¦ıà¦®à¦¨à¦§":5350,"Ġà¦ıà¦ĸà¦¬à¦°":5351,"à¦Ĩà§ľ":5352,"à¦Ĩà¦°à¦¸":5353,"à¦Ĩà¦°à¦ĩ":5354,"à¦Ĩà¦°à¦ª":5355,"à¦Ĩà¦¬à¦¹":5356,"à¦Ĩà¦¦à¦®":5357,"à¦Ĩà¦¦à¦¬":5358,"à¦Ĩà¦ĩà¦ıà¦°":5359,"à¦ķà¦¤à¦®":5360,"à¦ķà¦¤à¦Ń":5361,"à¦®à¦²à¦¤":5362,"à¦®à¦²à¦ĩ":5363,"Ġà¦¸à¦°à¦Ľ":5364,"Ġà¦īà¦łà¦²à¦®":5365,"Ġà¦īà¦łà¦²à¦¹":5366,"Ġà¦īà¦łà¦²à¦«":5367,"Ġà¦īà¦łà¦²à¦¸à¦¬":5368,"Ġà¦īà¦łà¦²à¦Ĩà¦®":5369,"Ġà¦īà¦łà¦²à¦ıà¦ĩ":5370,"à¦°à¦ľà¦¤":5371,"à¦°à¦ľà¦Ĺà§İ":5372,"Ġà¦ĵà¦ªà¦°à¦ķ":5373,"Ġà¦ĵà¦ªà¦°à¦¦":5374,"Ġà¦Ĩà¦¨à¦¡":5375,"à¦¹à¦²à¦Ł":5376,"à¦¹à¦²à¦¬à¦¶à¦¤":5377,"Ġà¦°à¦ķà¦¬":5378,"à¦®à¦¤à¦ĵ":5379,"à¦ĩà¦¨à¦·":5380,"à¦ĩà¦¨à¦ĵà¦¯":5381,"à¦ĩà¦¨à¦ĩà¦²":5382,"Ġà¦ĵà¦ĩà¦¦":5383,"à¦ĩà¦°à¦Ļ":5384,"Ġà¦¯à¦ĸà¦¨à¦ķ":5385,"à¦°à¦¸à¦¹":5386,"à¦°à¦¸à¦Ń":5387,"à¦°à¦¸à§İ":5388,"à¦¯à¦¬à¦¶à¦¤":5389,"à¦°à¦ĵà¦ķ":5390,"à¦°à¦ĵà¦ĩ":5391,"à¦°à¦ĵà§Ł":5392,"à¦°à¦ĵà¦°à¦ĩ":5393,"à¦°à¦ĵà¦ĺà¦°":5394,"à¦°à¦ĵà¦¸à¦ª":5395,"à¦²à¦¬à¦ª":5396,"Ġà¦®à¦¹à¦ķ":5397,"Ġà¦®à¦¹à¦¤":5398,"à¦°à¦¦à¦Ł":5399,"à¦ķà¦¬à¦¤":5400,"à¦ķà¦¬à¦ĩ":5401,"à¦®à¦ķà¦®":5402,"à¦®à¦ķà¦¥":5403,"à¦®à¦ķà¦¹":5404,"Ġà¦¶à¦°à¦¶à¦¯":5405,"à¦¸à¦¬à¦¹":5406,"à¦¸à¦¬à¦¶à¦¤":5407,"Ġà¦ķà¦®à¦¸à¦®":5408,"Ġà¦ķà¦®à¦¬à¦¯":5409,"Ġà¦īà¦ªà¦ª":5410,"Ġà¦īà¦ªà¦¦à¦²":5411,"à¦°à¦¶à¦¬":5412,"à¦®à¦¯à¦ľ":5413,"Ġà¦Ĩà¦ķà¦Ľ":5414,"à¦²à¦¤à¦¬":5415,"Ġà¦ķà¦²à¦ľ":5416,"Ġà¦ķà¦²à¦Ĺ":5417,"Ġà¦ķà¦²à¦®à¦¸":5418,"à¦¨à¦¨à¦¬":5419,"Ġà¦¬à¦īà¦¨":5420,"Ġà¦¬à¦īà¦²":5421,"Ġà¦¬à¦īà¦¬":5422,"Ġà¦¬à¦īà¦ĩ":5423,"Ġà¦¬à¦°à¦·":5424,"Ġà¦ĩà¦¨à¦²":5425,"Ġà¦ªà¦¥à¦Ń":5426,"Ġà¦ıà¦°à¦ļ":5427,"à¦ĩà¦ķà¦ª":5428,"à¦¤à¦¨à¦Ń":5429,"à¦¨à¦¬à¦ķ":5430,"à¦¨à¦¬à¦¦":5431,"à¦¨à¦¬à¦ľà¦¨":5432,"à¦¨à¦¬à¦¸à¦®":5433,"à¦ªà¦¦à¦Ńà¦ŀ":5434,"Ġà¦īà¦¨à¦¸à¦¤":5435,"à¦²à¦²à¦ĵ":5436,"Ġà¦ħà¦®à¦¸":5437,"à¦¨à¦ķà¦¨":5438,"à¦¨à¦ķà¦ķ":5439,"à¦¨à¦ķà¦¡":5440,"à¦¦à¦¨à¦°à¦¤":5441,"à¦¦à¦¨à¦ªà¦¤":5442,"à¦¦à¦¨à¦®à¦¯":5443,"à§İà¦¸à¦¨":5444,"à§İà¦¸à¦²":5445,"Ġà¦ĸà¦¬à¦°à¦Ĺ":5446,"à¦ĩà¦Łà¦°":5447,"à¦ĩà¦Łà¦Ĺ":5448,"Ġà¦ħà¦«à¦¹":5449,"Ġà¦īà¦¦à§Ł":5450,"Ġà¦īà¦¦à¦Ń":5451,"Ġà¦īà¦¦à§Łà¦ª":5452,"Ġà¦Ĳà¦ķ":5453,"Ġà¦Ĳà¦¯":5454,"Ġà¦Ĳà¦ĩ":5455,"Ġà¦ĵà¦łà¦¬":5456,"à¦°à¦¨à¦Ĺà¦°":5457,"Ġà¦¦à¦¶à¦ĸ":5458,"Ġà¦¦à¦¶à¦¹":5459,"Ġà¦¦à¦¶à¦°à¦¥":5460,"Ġà¦¦à¦¶à¦¹à¦°":5461,"à¦°à¦¹à¦¨":5462,"à¦°à¦¹à¦ķ":5463,"à¦°à¦¹à¦¤":5464,"à¦°à¦¹à¦¬":5465,"à¦°à¦¹à¦ĵ":5466,"à¦°à¦¹à¦°à¦£":5467,"à¦°à¦¹à¦°à¦ĩ":5468,"Ġà¦¬à¦²à¦¬à¦¬à¦²à¦¬":5469,"à¦¤à¦¬à¦¯":5470,"à¦¤à¦¬à¦®":5471,"à¦Ĺà¦ľà¦ķ":5472,"à¦Ĺà¦ľà¦ĵà¦¯":5473,"Ġà¦¸à¦¹à¦¨":5474,"Ġà¦¸à¦¹à¦ľà¦²à¦Ń":5475,"Ġà¦¨à¦¤à¦ľ":5476,"Ġà¦Ńà¦°à¦ª":5477,"Ġà¦Ĩà¦ļà¦¡":5478,"Ġà¦ķà¦²à¦ķà¦¬à¦ľ":5479,"à¦®à¦Łà¦°":5480,"à¦°à¦ªà¦Ļ":5481,"à¦ķà¦¦à¦²":5482,"à¦ķà¦¦à¦£":5483,"à¦ļà¦¨à¦ĩ":5484,"à¦ļà¦¨à¦¦":5485,"Ġà¦ħà¦¬à¦¸à¦°à¦ĵ":5486,"à¦ĺà¦°à¦Ĺ":5487,"à¦¥à¦°à¦Ĺà¦¤":5488,"à¦Ŀà¦²à¦¸":5489,"à¦Ŀà¦²à¦®à¦²":5490,"à¦²à¦¨à¦ļ":5491,"à¦ªà¦Łà¦Ń":5492,"à¦¨à¦¸à¦«":5493,"à¦¨à¦¸à¦¨à¦ķ":5494,"Ġà¦«à¦²à¦ĩ":5495,"Ġà¦«à¦²à¦ĵ":5496,"Ġà¦ªà¦¦à¦ª":5497,"Ġà¦ªà¦¦à¦Ĺ":5498,"Ġà¦ªà¦¦à¦¤à¦²":5499,"Ġà¦ħà¦¦à¦¡":5500,"Ġà¦¬à¦ĩà¦¸":5501,"Ġà¦¬à¦ĩà¦ı":5502,"à¦ļà¦²à¦Ľ":5503,"à¦Ĺà¦°à¦°":5504,"à¦Ĺà¦°à¦ĸ":5505,"à¦ķà¦¨à¦¦":5506,"à¦¤à¦®à¦¸":5507,"à¦¤à¦®à¦ĵ":5508,"à¦¬à¦¸à¦¹":5509,"Ġà¦¦à¦²à¦Ĺ":5510,"à¦¸à¦ķà¦Ń":5511,"à¦ħà¦ªà¦°":5512,"à¦ħà¦®à¦¨":5513,"à¦ħà¦ŀ":5514,"à¦ħà¦ķà¦²":5515,"à¦ħà¦²à¦ķ":5516,"à¦ħà¦¹à¦¨":5517,"à¦Łà¦²à¦¸":5518,"Ġà¦¹à¦°à¦·":5519,"Ġà¦¹à¦°à¦§à¦¨":5520,"à¦¯à¦ķà¦¶":5521,"à¦¯à¦ķà¦Ń":5522,"à¦¯à¦ķà¦°à¦£":5523,"Ġà¦ķà¦·à¦²":5524,"Ġà¦ķà¦·à¦Ľ":5525,"Ġà¦Ĩà¦¦à¦°à¦Ł":5526,"Ġà¦Ĩà¦¦à¦²à¦Ł":5527,"Ġà¦Ĺà¦°à¦°":5528,"à¦Ĺà¦¬à¦ī":5529,"à¦ķà¦ľà¦¨à¦ĩ":5530,"Ġà¦Ĩà¦§à¦²":5531,"Ġà¦Ĩà¦§à¦®":5532,"Ġà¦Ĩà¦§à¦Ń":5533,"Ġà¦Ĩà¦§à¦¬à¦¯":5534,"Ġà¦Ĩà¦§à¦ĺà¦¨":5535,"à¦¤à¦¤à¦°à¦ķ":5536,"à¦¤à¦¤à¦ªà¦ķ":5537,"à¦§à¦¨à¦®":5538,"à¦§à¦¨à¦Ĺ":5539,"à¦§à¦¨à¦Ńà¦ľà¦¨":5540,"Ġà¦ķà¦ªà¦ļ":5541,"Ġà¦¬à¦¹à¦¤":5542,"Ġà¦¬à¦¹à¦®":5543,"à¦®à¦¬à¦¯":5544,"à¦®à¦¬à¦¡":5545,"à¦¹à¦¸à¦ĵ":5546,"Ġà¦īà¦¡à¦ļ":5547,"à¦¯à¦¸à¦Ń":5548,"Ġà¦Ĩà¦Ļà¦°":5549,"Ġà¦ħà¦§à¦®":5550,"Ġà¦ħà¦§à¦®à¦ķ":5551,"à¦ľà¦¤à¦ĸ":5552,"Ġà¦ħà¦ªà¦°à¦ķ":5553,"à¦ķà¦¶à¦¨à¦ĵ":5554,"à¦ľà¦¬à¦§":5555,"à¦¨à¦ľà¦¨à¦ĵ":5556,"à¦ªà¦¸à¦®":5557,"à¦ªà¦¸à¦®à¦¯":5558,"à¦°à¦Ńà¦¨":5559,"à¦¯à¦¤à¦¦":5560,"Ġà¦ķà¦¨à¦¶":5561,"Ġà¦ıà¦°à¦ķà¦®à¦Ł":5562,"Ġà¦ķà¦Łà¦ķà¦Ł":5563,"à¦¨à¦ĩà¦ĸ":5564,"à¦¢à¦ķ":5565,"à¦¢à¦ª":5566,"à¦īà¦Łà¦¨à¦ķ":5567,"à¦ĩà¦®à¦®":5568,"à¦ĩà¦®à¦ķà¦²":5569,"Ġà¦¬à¦ķà¦Ĺ":5570,"Ġà¦Ĩà¦ĩà¦ıà¦¸":5571,"à¦ľà¦®à¦®à¦¤":5572,"à¦ľà¦®à¦¹à¦²à¦ķ":5573,"à¦Łà¦®à¦ĩ":5574,"à¦ĩà¦Ńà¦¸":5575,"à¦ĩà¦Ńà¦ĩà¦¨":5576,"Ġà¦ħà¦¶à¦¤":5577,"à¦Łà¦¬à¦ĩà¦¯":5578,"à¦Łà¦¬à¦ĩà¦Ł":5579,"Ġà¦Ĩà¦¹à¦°à¦£":5580,"Ġà¦Ĩà¦ªà¦ľ":5581,"à¦¬à¦¬à¦Ļ":5582,"Ġà¦®à¦¦à¦¤":5583,"Ġà¦®à¦¦à¦ĵà§Ł":5584,"à¦°à¦Ĺà¦®":5585,"à¦°à¦Ĺà¦¡":5586,"Ġà¦ļà¦ķà¦®à¦ķ":5587,"à¦¬à¦Łà¦ľà¦¨":5588,"à¦¬à¦Łà¦¸à¦Ļ":5589,"à¦·à¦ķà¦·":5590,"Ġà¦¨à§Łà¦ĩ":5591,"Ġà¦¸à¦¹à¦ľà¦ª":5592,"à¦¨à¦Ĺà¦®":5593,"Ġà¦¨à¦ķà¦¸":5594,"Ġà¦ĸà¦°à¦ļà¦ĵ":5595,"Ġà¦ĸà¦°à¦ļà¦ªà¦¤":5596,"à¦¬à¦¶à¦¸":5597,"à¦¬à¦¶à¦°à¦£à¦¬":5598,"Ġà¦Īà¦¸":5599,"Ġà¦ªà¦¶à¦°":5600,"Ġà¦¦à¦°à¦¦à¦°":5601,"Ġà¦¶à¦¤à¦ĸ":5602,"Ġà¦¶à¦¤à¦¸à¦¹à¦¸":5603,"Ġà¦Ĺà¦°à¦®à¦ķ":5604,"à¦ľà¦¨à¦ķà¦Ń":5605,"à¦²à¦Ńà¦ĩ":5606,"à¦ķà¦¸à¦ľ":5607,"à¦ķà¦¸à¦Ń":5608,"à¦¬à¦¦à¦ķ":5609,"à¦¬à¦¦à¦®":5610,"Ġà¦ıà¦®à¦ıà¦°":5611,"Ġà¦ħà¦®à¦¨à¦ĩ":5612,"à¦ıà¦ķà¦®":5613,"Ġà¦ļà¦°à¦ļà¦°":5614,"Ġà¦ĩà¦īà¦ª":5615,"Ġà¦ĩà¦īà¦«":5616,"Ġà¦Ĩà¦Łà¦ĺ":5617,"Ġà¦ľà§Łà¦ıà¦°":5618,"Ġà¦ĵà¦¸à¦¬à¦ĩ":5619,"Ġà¦ļà¦®à¦ķà¦Ł":5620,"à¦ĩà¦¶à¦ļà¦¬":5621,"Ġà¦ıà¦ĩà¦¸à¦¬à¦ĩ":5622,"à¦ĩà¦¡à¦ķ":5623,"à¦ĩà¦¡à¦Ł":5624,"Ġà¦Ĩà¦¸à¦¨à¦ª":5625,"à¦ĩà¦«à¦ķ":5626,"à¦ĩà¦«à¦¯":5627,"Ġà¦Ĩà¦¦à¦°à¦¯à¦¤":5628,"à¦°à¦ľà¦¨à¦ĩ":5629,"à¦ļà§Łà¦²":5630,"à¦Ĩà¦°à¦ı":5631,"à¦Ĩà¦°à¦ıà¦¸":5632,"Ġà¦ħà¦²à¦ķà¦ķà¦¬":5633,"à¦®à¦¹à¦¨à¦¨":5634,"Ġà¦ħà¦Ĺà¦¸":5635,"à¦Ĺà¦®à¦ĵ":5636,"Ġà¦¨à¦¬à¦¬à¦²":5637,"à¦°à¦®à¦£à¦Ł":5638,"à¦Łà¦ªà¦¹à¦°":5639,"à§°à¦ª":5640,"Ġà¦°à¦£à¦ķ":5641,"Ġà¦°à¦£à¦¬":5642,"Ġà¦¨à¦°à¦ĺ":5643,"Ġà¦¦à¦®à¦ķà¦²":5644,"à¦¯à¦®à§Ł":5645,"Ġà§§à§¨":5646,"Ġà§§à§¯à§¦à§":5647,"à¦ªà¦¥à¦Ł":5648,"à¦¨à¦Ńà¦Ļ":5649,"à¦¨à¦Ńà¦ŀ":5650,"à¦īà¦¡à¦¸":5651,"à¦¬à¦ľà¦Ĺà¦¤":5652,"à¦ķà¦Ĩà¦¶":5653,"Ġà¦¸à¦¦à¦°à¦ĸ":5654,"à¦ĩà¦ĸà¦°à¦ļ":5655,"à¦·à¦¸à¦Ĺ":5656,"à¦¶à¦²à¦§":5657,"Ġà¦Ĩà¦ĩà¦¨à¦¸à¦®":5658,"Ġà¦¶à¦¹à¦°à¦ĩ":5659,"Ġà¦¶à¦¹à¦°à¦®à§Ł":5660,"à¦ĸà¦ķà¦·":5661,"à¦£à¦ķà¦£":5662,"Ġà¦ļà¦¶à¦®à¦ĸ":5663,"à¦¤à¦¸à¦®à¦¸":5664,"à¦ķà¦Ĩà¦ªà¦ĩ":5665,"à¦¬à¦ľà¦¨à¦¹":5666,"à¦¥à¦²à¦ļà¦°":5667,"à¦¯à¦ľà¦Ĺà¦¤":5668,"à¦īà¦¬à¦Ĺ":5669,"à¦²à¦°à¦Ļ":5670,"à¦ĩà¦¸à¦¬à¦¸":5671,"à¦ĩà¦¸à¦¬à¦«":5672,"à¦ĩà¦¸à¦¬à¦ıà¦ĩ":5673,"à¦ĩà¦¸à¦¬à¦Ĩà¦®à¦°":5674,"Ġà¦ıà¦ķà¦ķà¦£":5675,"à¦²à¦®à¦¨à¦ķ":5676,"à¦¯à¦°à¦ķà¦®à¦ĵ":5677,"Ġà¦¬à¦²à¦²à¦ıà¦¸à¦¬":5678,"Ġà¦¸à¦°à¦²à¦°":5679,"Ġà¦¸à¦°à¦²à¦¤":5680,"à¦¨à¦ĸà¦¡":5681,"à¦¶à¦ªà¦ŀ":5682,"Ġà¦®à¦¤à¦²à¦¬à¦ĸ":5683,"à¦¨à¦ıà¦ĸà¦¨":5684,"à¦®à¦°à¦£à¦¶à¦ķ":5685,"Ġà¦¬à¦¦à¦ĸ":5686,"Ġà¦¬à¦¦à¦ĸà¦¤":5687,"Ġà¦¬à¦¦à¦¸à¦Ļ":5688,"à¦¡à¦ķà¦¬à¦¨":5689,"Ġà¦ĺà¦·à¦²":5690,"Ġà¦ĺà¦·à¦ĺà¦·":5691,"Ġà¦°à¦¤à¦¨à¦²":5692,"Ġà¦Ĺà¦¦à¦ĸ":5693,"Ġà§§à§¯à§¯à§«":5694,"Ġà§§à§¯à§¯à§¦":5695,"Ġà§§à§¯à§¨à§":5696,"à¦Ĺà¦¸à¦ĩ":5697,"à¦Ĺà¦¸à¦ľ":5698,"à¦Ĺà¦¸à¦°à¦ķ":5699,"à¦Īà¦ľ":5700,"à¦ªà¦¶à¦¨à¦Ł":5701,"à¦ıà¦ĸà¦¨à¦ĵ":5702,"Ġà¦Ĩà¦ļà¦°à¦£à¦Ł":5703,"Ġà§¨à§¨":5704,"Ġà§¨à§Ń":5705,"Ġà§¨à§ª":5706,"Ġà§¨à§§":5707,"Ġà¦¬à¦²à¦²à¦Ĩà¦¨":5708,"Ġà¦¬à¦²à¦²à¦Ĩà¦°à¦ĵ":5709,"Ġà¦¬à¦²à¦²à¦Ĩà¦¸à¦²":5710,"Ġà¦¬à¦²à¦²à¦Ĩà¦¨à¦Ĺ":5711,"Ġà¦¬à¦°à¦«à¦ľà¦²":5712,"à¦¸à¦ĩà¦īà¦ľ":5713,"Ġà¦¨à¦ĸà¦¦à¦°":5714,"à¦ıà¦«à¦ĵà¦ķ":5715,"à¦®à¦®à¦Ń":5716,"Ġà¦¹à¦Łà¦¬à¦ķ":5717,"à§¦à§¨à§¨":5718,"Ġà¦¬à§İà¦¸à¦²":5719,"Ġà¦¬à§İà¦¸à¦°à¦ĸ":5720,"Ġà¦ıà¦ķà¦§à¦°à¦£":5721,"Ġà¦Ńà¦Łà¦Ńà¦Ł":5722,"Ġà¦Ĩà§ľà¦®":5723,"Ġà¦Ĩà§ľà¦¨à§Łà¦¨":5724,"à¦ĩà¦°à¦ķà¦®à¦ĩ":5725,"Ġà¦¨à¦ľà¦°à¦¬à¦¨":5726,"Ġà¦«à¦²à¦ķà¦Ĺ":5727,"Ġà¦ľà¦¨à¦®à¦Ńà¦°":5728,"®à§«":5729,"à¦¡à¦¬à¦ľà¦¬":5730,"à¦īà¦°à¦¤à¦¨à¦ľ":5731,"à¦Łà¦¬à¦²à¦Ł":5732,"Ġà¦ĸà¦²à¦ĸà¦²":5733,"Ġà¦īà¦ĩà¦£":5734,"Ġà¦¶à¦°à§İà¦¹":5735,"Ġà¦¸à¦«à¦²à¦¤":5736,"Ġà¦¨à¦ĵà¦²à¦ķ":5737,"à¦·à¦¨à¦ľà¦°":5738,"à¦·à§Łà¦Ł":5739,"Ġà¦¡à¦ľà¦¨à¦ĸ":5740,"Ġà¦ľà¦Ĺà§İà¦ªà¦¤":5741,"Ġà¦ªà¦¬à¦¨à¦ķ":5742,"Ġà¦®à¦¨à¦ķà¦·":5743,"à¦ıà¦®à¦ıà¦¸":5744,"à¦¤à¦ļà¦°à¦¦":5745,"Ġà¦¨à¦°à¦ķà¦ķ":5746,"à¦¨à¦Ĩà¦¤":5747,"à¦¨à¦Ĩà¦ľ":5748,"à¦¨à¦Ĩà¦Ĺ":5749,"à¦¨à¦ªà¦¤à¦¨":5750,"à¦¡à¦īà¦ĩà¦²":5751,"à¦ļà¦°à¦£à¦¶":5752,"à¦²à¦Ĩà¦¯":5753,"à¦²à¦Ĩà¦ĩ":5754,"à¦²à¦Ĩà¦¬à¦¡":5755,"Ġà¦¬à¦¶à¦¬à¦°":5756,"Ġà¦®à¦°à¦¦à¦ķ":5757,"à¦¦à§Łà¦¬":5758,"Ġà¦ľà¦¬à¦°à¦ľ":5759,"Ġà¦ĺà§ľà¦ĺà§ľ":5760,"Ġà¦¤à¦ªà¦¸à¦¦":5761,"Ġà¦Ĭà¦¨à¦ļà¦²":5762,"à¦¡à¦īà¦ĩà¦ļà¦Ĺ":5763,"Ġà¦ıà¦§à¦°à¦¨":5764,"Ġà¦ıà¦®à¦ıà¦¸à¦¸":5765,"ĠĠĠĠĠĠ":5766,"ĠĠĠĠĠĠĠĠ":5767,"ĠĠĠĠĠĠĠ":5768,"Ġà¦ªà¦ªà¦ķà¦°":5769,"Ġà¦ľà¦²à¦ķà¦·":5770,"Ġà¦¬à¦²à¦²à¦Ĳà¦¦":5771,"Ġà¦Łà¦Ļà¦¸":5772,"à¦Ĩà¦ļà¦®à¦ķ":5773,"Ġà§©à§¦à§¨à§¨":5774,"à§Ńà§¨":5775,"Ġà¦¬à§Łà¦«":5776,"Ġà§§à§¯à§®à§§":5777,"Ġà§§à§¯à§®à§¨":5778,"Ġà§§à§¯à§®à§©":5779,"Ġà§§à§¯à§®à§«":5780,"Ġà§§à§¯à§®à§¬":5781,"Ġà¦¬à¦°à¦¬à¦Ł":5782,"Ġà¦¥à¦ĩà¦¥à¦ĩ":5783,"à¦Ĩà¦¤à¦Ļ":5784,"Ġà¦¢à¦ķà¦¢à¦ķ":5785,"Ġà¦ªà¦¥à¦ļà¦²à¦¤":5786,"à¦¨à¦ħà¦¬à¦¶":5787,"à¦¨à¦ħà¦ªà¦®":5788,"à¦®à¦Ĩà§Ł":5789,"Ġà¦¦à¦ĩà¦ĩà¦²":5790,"à¦ĸà¦§à¦¬à¦¨":5791,"Ġà¦Łà¦¹à¦²à¦¦":5792,"Ġà§Ńà§¦":5793,"Ġà§Ńà§®à§":5794,"Ġà§§à§¦à§¦":5795,"à¦¤à¦Ĩà¦Łà¦ľà¦¨":5796,"à¦¹à¦®à¦¨à¦¹":5797,"à¦Ĺà¦²à¦¨à¦°à¦°":5798,"Ġà§¨à§¦à§¦à§ª":5799,"Ġà¦®à¦Łà¦°à¦¦":5800,"Ġà¦ħà¦ķà¦²à¦Ļ":5801,"Ġà¦ĸà¦¨à¦¨à¦ķ":5802,"Ġà¦Ĳà¦°à¦ķà¦®à¦ĩ":5803,"Ġà§§à§¯à§Ńà§¦":5804,"Ġà§§à§¯à§Ńà§§":5805,"Ġà§§à§¯à§§à§§":5806,"Ġà§§à§¯à§§à§¯":5807,"Ġà§§à§¯à§§à§ªà§§à§®":5808,"à¦Ĭà¦°":5809,"à¦¯à¦Łà¦ķà¦¦":5810,"à¦®à¦ľà¦¨à¦°":5811,"Ġà¦¹à¦°à¦¬à¦ķà¦¤":5812,"Ġà§§à§®à§¯à§©":5813,"Ġà¦ıà¦«à¦Ĩà¦°à¦Ĩà¦ĩà¦ıà¦°":5814,"Ġà¦Ĩà¦īà¦¶à¦§":5815,"Ġà§¨à§¦à§§à§¦":5816,"à¦²à¦§à¦¨à¦·":5817,"à¦ķà¦¸à¦¬à¦ľ":5818,"Ġà¦Ńà¦¨à¦Ńà¦¨":5819,"Ġà¦ªà¦¦à¦¸à¦ŀ":5820,"à¦ķà¦¸à¦²à¦¸":5821,"à¦¬à§İà¦¸à¦²":5822,"à¦¡à¦ıà¦ľ":5823,"Ġà¦ľà¦ĸà¦®à¦Ł":5824,"Ġà¦ľà¦ĸà¦®à¦ĵ":5825,"Ġà¦Ĩà¦Łà¦¦à¦¶à¦ľà¦¨":5826,"Ġà§§à§¯à§¯à§§":5827,"à¦°à¦Ĺà¦²à¦Ń":5828,"à¦ĩà¦·à¦·":5829,"à¦¶à¦ıà¦ķà¦¶":5830,"Ġà¦īà¦Ńà¦ļà¦°":5831,"Ġà¦Ŀà¦²à¦Ŀà¦²":5832,"Ġà§¯à§«à§Ń":5833,"Ġà¦Ĩà¦Łà¦¦à¦¶à¦Ł":5834,"à¦Ĺà¦Łà¦Ĺà¦¬à¦Ĺà¦Łà¦Ĺà¦¬":5835,"Ġà§ªà§«à§©":5836,"à§ĩà§įà¦ģ":5837,"à¦ķà¦¨à¦²à¦ľ":5838,"à¦¤à¦ıà¦¯":5839,"Ġà¦¬à¦ľà¦¬à¦ľ":5840,"à¦Łà¦²à¦¬à¦£":5841,"Ġà¦Ĩà¦ĵà¦°à¦Ļ":5842,"à¦ĩà¦ħà¦ķ":5843,"Ġà¦ıà¦ĺà¦°à¦ĵà¦ĺà¦°":5844,"à¦¦à¦¨à¦¨à¦Ĺà¦°":5845,"à¦¦à¦ħà¦ªà¦Ľà¦¨":5846,"Ġà¦ľà¦ªà¦¤à¦ª":5847,"Ġà¦ľà¦ĵà¦¹à¦°à¦²":5848,"Ġà¦¶à¦¤à¦¦à¦²à¦ķ":5849,"Ġà¦Ľà¦ªà¦Ľà¦ª":5850,"Ġà¦²à¦īà¦Ľ":5851,"Ġà¦«à¦ķà¦«à¦ķ":5852,"Ġà¦Łà¦¨à¦Łà¦®":5853,"à¦ĺà¦Ĭà¦ķ":5854,"Ġà§§à§¯à§¨à§¯":5855}