#version: 0.2 - Trained by `huggingface/tokenizers`
à ¦
à §
Ġ à¦
à¦ ¾
à§ ĩ
à¦ °
à§ į
à¦ ¿
à¦ ¨
à¦ ¤
à¦ ²
à¦ ķ
à¦ ¯
à§ ģ
à¦ ¬
à¦ ¼
à¦ ®
à§ ĭ
Ġà¦ ķ
Ġà¦ ¬
Ġà¦ ¸
à ¥
à¥ ¤
à¦ ¸
Ġà¦ ª
Ġà¦ Ĩ
à¦ ¦
à¦ Ł
Ġà¦ ¨
Ġà¦ ®
à¦ ª
à¦ ĩ
à§ Ģ
à¦ Ľ
Ġà¦ ¦
à¦ ľ
Ġà¦ ¹
Ġà¦ ¤
Ġà¦ ı
à¦ ¶
à¦¼ à§ĩ
Ġà¦ ħ
à¦ ĸ
à¦ Ĺ
à¦ ·
à¦ §
â Ģ
à¦ ¡
Ġà¦ ¯
à¦ ļ
à¦ ¹
Ġà¦ķ à¦°
à§ Ł
Ġà¦ Ĺ
à¦ £
à¦ ģ
à¦ ¥
Ġà¦ ¶
Ġà¦ ľ
Ġà¦ ļ
Ġà¦ Ń
Ġà¦ °
à§ĩ à¥¤
à¦ ĵ
à¦ Ń
Ġà¦ı à¦ķ
à¦¼ à¦¾
à§ ĥ
Ġ Ġ
Ġà¦ Ľ
Ġà¦Ĩ à¦®
à¦ ł
Ġà¦ ī
à¦ Ĥ
à§ Ĥ
à¦¾ à¦ģ
à¦ Ļ
Ġà¦ ²
Ġà¦ ĵ
Ġà¦ ¥
à§ĩ ,
Ġà¦¬ à¦²
Ġà¦ «
Ġà¦Ĩ à¦°
Ġà¦ ĸ
à¦° à¦¤
Ġà¦ħ à¦¨
à¦¾ à¥¤
Ġà¦¹ à¦¯
Ġà¦ §
Ġà¦ª à¦°
âĢ Ķ
Ġà¦¸ à¦®
à¦¾ ,
Ġ âĢ
à¦¬ à¦¨
à¦¼ à¦¿
à§ ľ
à¦ĸ à¦¨
Ġà¦ ĺ
Ġà¦® à¦¨
à¦ª à¦°
Ġà¦ıà¦ķ à¦Ł
à¦° à¦£
Ġà¦ı à¦ĩ
à¦¿ à¥¤
à¦® à¦¨
à¦ Ŀ
à¦ľ à¦¨
à¦ ŀ
à¦¤ à¦°
à¦ «
à¦ ī
à¦¿ ,
à¦ª à¦¨
Ġà¦Ĩ à¦²
à¦° à¦¬
à¦ Ĩ
à§ İ
à¦ ı
âĢ Ŀ
à¦° à¦ķ
Ġà¦¸ à¦¬
à¦¬ à¦°
Ġà¦¬à¦² à¦²
Ġà¦Ĩ à¦¸
Ġà¦ Ł
Ġà¦Ĩ à¦Ľ
âĢ Ļ
Ġà¦ķ à¦¥
à¦¼ à¥¤
Ġà¦¹ à¦²
Ġà¦ī à¦ł
Ġà¦ ¡
ĠâĢ ľ
à§ Ī
Ġà¦ ĩ
Â ł
Ġà¦ª à¦¡
à¦ ĺ
Ġà¦® à¦¤
Ġà¦¸ à¦Ļ
à¦ĵ à¦¯
à§ Į
Ġà¦ľ à¦¨
Ġà¦¹ à¦¬
ĠĠ Ċ
Ġà¦§ à¦°
Ġà¦ Ŀ
à¦¬ à¦²
Ġà¦ı à¦¬
à¦¼ ,
ĠâĢ ĺ
à¦¬ à¦ª
Ġà¦ħ à¦¬
Ġà¦ķà¦° à¦¤
à¦° à¦®
à§ģ à¦ģ
Ġà¦ļ à¦²
Âł Âł
Ġà¦ ł
à¦· à¦£
à¦¨ à¦¤
Ġà¦ķà¦° à¦²
Ġà¦ı à¦¸
âĢ ĵ
Ġà¦¬ à¦¸
Ġà¦® à¦§
Ġà¦Ĩ à¦ľ
Ġà¦ ¢
à¦¤ à¦¨
à¦ ĥ
à§ĭ à¦ģ
à¦ ħ
Ġà¦¬ à¦¨
Ġà¦¨ à¦¤
à¦ķ à¦²
Ġà¦Ĩ à¦¬
Ġà¦ª à¦¥
Ġà¦ħ à¦®
Ġà¦Ĩ à¦Ĺ
Ġà¦Ĩà¦® à¦°
Ġà¦¨ à¦¯
Ġà¦Ĺ à¦²
à¦ķ à¦°
Ġà¦¹ à§Ł
Ġà¦ĵ à¦ł
à¦ķ à¦Ł
à¦¸ à¦¬
à¦° à¦¨
Ġà¦ħ à¦¸
à¦¯ à¦¬
Ġà¦¤ à¦¬
à§ĩ à¦ģ
à§ĭ à¥¤
à¦° à¦¥
Ġà¦Ĩ à¦ķ
à¦¤ à¦¬
à¦° à¦¸
à¦² à¦ķ
à¦¨ à¦¬
à¦¾ à¦Ĥ
à§ĭ ,
Ġà¦Ĩ à¦¶
Ġà¦Ĩ à¦ªà¦¨
à¦¦ à¦¨
à¦ķ à¦¤
Ġà¦¹ à¦¤
Ġà¦¬ à¦°
à¦°à¦¥ à¦®
Ġà¦¤ à¦ĸà¦¨
Ġà¦¸ à¦¤
Ġà¦ı à¦ĸà¦¨
à§ĩ ?
Ġà¦ı à¦²
Ġà¦ħ à¦¦
Ġà¦Ĩ à¦¨
à¦Ĩ à¦®
Ġà¦ī à¦¦
Ġà¦ķà¦° à¦Ľ
à¦¦ à¦°
Ġà¦ħ à¦°
à¦¾ -
à¦Ĺ à¦²
Ġà¦ħ à¦Ń
Ġà¦ľ à¦²
à¦² à¦¤
à¦Ĺ à¦¤
à¦¦ à¦¯
Ġà¦¸à¦® à¦¯
Ġà¦¶ à¦¬
à¦¿ à¦Ĥ
à¦¶ à¦¨
à¦® à¦¤
Ġà¦ħ à¦¤
à¦¯ à¦ķ
Ġà¦¸ à¦¨
à¦§ à¦ķ
à¦° à¦¹
Ġà¦ĺ à¦°
Ġà¦¯ à¦¦
Ġà¦īà¦ł à¦²
Ġà¦° à¦ķ
à¦¹ à¦¸
à¦ļ à¦¨
à¦² à¦¨
Ġà¦ķà¦° à¦¬
Ġà¦® à¦¹
Ġà¦ī à¦ª
Ġà¦¸ à¦°
à¦° à¦¶
à¦ĸ à¦¤
à¦° à¦¯
à¦¬ à¦¤
Ġà¦¯ à¦ĸà¦¨
à¦¨ à¦ĵ
à¦Ľ à¦¨
à¦ĩ à¦²
à¦® à¦²
à¦¯ à¦¤
à¦ĸ à¦²
à¦§ à¦¨
à¦® à¦¯
à¦² à¦¬
à§ĩ âĢĶ
Ġà¦¨ à¦¦
à¦° à¦¦
à¦° à¦ľ
Ġà¦¬ à¦¡
Ġà¦ħ à¦ª
Ġà¦ı à¦®à¦¨
à¦° à¦²
Ġà¦ķ à¦²
Ġà¦ħ à¦§
à¦¼ à§ĭ
à¦ļ à¦²
Ġà¦¸ à¦¹
à¦ĵ à§Ł
à¦ª à¦¤
à¦® à¦ķ
Ġà¦¹ à¦ļ
à¦° à¦ĩ
Ġà¦ķ à¦ĸà¦¨
ÂłÂł ÂłÂł
à¦¹ à¦°
Ġà¦ī à¦¤
Ġà¦Ĩ à¦¤
Ġà¦ı à¦¤
à¦¿ à¦ĥ
Ġà¦ĵ à¦°
à¦¸ à¦¨
Ġà¦Ń à¦°
à¦ĩ à¦¨
Ġà¦¶ à¦ķ
à¦ķ à¦¬
à¦¨ à¦¨
à¦ı à¦ĩ
Ġà¦ľ à¦®
Ġà¦ħ à¦ļ
Ġà¦ķ à¦£
à§ĩ -
Ġà¦ķ à¦¬
Ġà¦¹ à¦ł
à¦° à¦ªà¦°
à¦¸ à¦®
à¦Ń à¦¬
à§Ģ ,
à¦¿ -
Ġà¦Ĺ à¦¡
à¦Ł à¦ķ
Ġà¦ı à¦ĸ
à¦Ľ à¦°
Ġà¦ª à§ľ
Ġà¦ħ à¦ľ
à¦¹ à¦²
Ġà¦ĺ à¦Ł
Ġà¦ī à¦¨
Ġà¦ĵ à¦ªà¦°
Ġà¦ĩ à¦¤
Ġà¦ Ĳ
à¦¯ à¦¨
Ġà¦ķ à¦¤
âĢ ¦
Ġà¦ķ à¦®
Ġà¦¬à¦² à¦¤
à¦¤ à¦²
Ġà¦¬ à¦¹
Ġà¦Ľ à¦¡
à¦¾ âĢĶ
à¦Ĺ à¦¨
Ġà¦¬ à¦¯
Ġà¦¤ à¦°
Ġà¦¬ à¦Ľà¦°
à¦Ĺ à¦°
à§ĩ !
Ġà¦° à¦Ļ
Ġà¦¸ à¦ķ
Ġà¦¯ à¦¤
Ġà¦ī à§İ
Ġà¦¸à¦® à¦¸
Ġà¦ª à¦¦
Ġà¦ı à¦Ĺ
à¦® à¦°
à¦¸ à¦°
Ġà¦ī à¦ļ
à¦° à¦Ń
Ġà¦ı à¦Ł
âĢ ľ
à¦ª à¦¦
Ġà¦¦ à¦°à¦ľ
Ġà¦Ń à¦¯
à¦¦ à§Ł
Ġà¦¶ à¦°
à¦° à¦ĵ
à¦¶ à¦¬
Ġà¦ħ à¦Ĺ
à¦ª à¦¥
Ġà¦¨ à§Ł
à¦¼à§ĩ à¥¤
Ġà¦ħà¦® à¦²
à¦® à¦£
à¦¿ ?
à¦ı à¦ķ
Ġà¦ħ à¦¥
âĢ Į
Ġà¦Ĩà¦° à¦ĵ
à¦¾ ?
Ġà¦ı à¦°
à¥¤ âĢĿ
Ġà¦Ĺ à¦¨
Ġà¦® à¦°
à¦¨ à¦ķ
Ġà¦ħ à¦ķ
Ġà¦¶ à¦¹à¦°
Ġà¦Ĺ à¦°
à¦¦ à¦²
Ġà¦Ĺ à¦Ń
à¦° à¦ª
Ġà¦¬ à¦ĩ
à¦¬ à¦¸
Ġà¦ħ à¦ªà¦°
à¦Ł à¦²
à§Ģ à¥¤
à¦ĩ à¦°
à¦· à¦¤
à§į âĢĮ
à¦¬ à¦¦
Ġà¦« à¦²
à¦· à¦ķ
Ġà¦Ľ à¦¬
à¦¸ à¦¤
à¦¯ à¦®
à§ §
à¦ļ à¦¯
à¦¤ à¦ķ
Ġà¦² à¦ķ
à¦° à¦Ł
à§ģ ,
à¦¿ à¦ģ
à§İ à¦ķ
à¦¨ à¦Ł
à¦Ŀ à¦¤
à§ģ à¦ĥ
Ġà¦¬à¦² à¦Ľ
à¦ħ à¦¨
Ġà¦ĵ à¦ĩ
à¦¤ à¦®
à¦¿ âĢĶ
à¦¾ !
à¦ļ à¦ķ
à¦¯à¦¬ à¦¸
à¦ľ à¦²
à¦² à¦²
à¦¼à§ĩ ,
à¦® à¦¬
Ġà¦ħà¦¨ à¦¨
à¦ª à¦ķ
Ġà¦Ĩà¦¨ à¦¨
à¦· à¦¯
Ġ Ċ
Ġà¦ħ à¦¶
à¦¬ à¦ķ
à¦¸ à¦²
Ġà¦ĩ à¦¨
à¦¨ à¦¦
à§ĩ ;
à¦°à¦¬ à¦¤
à¦ļ à¦°
Ġà¦° à¦¬
à¦£ à¦¤
à¦¶ à¦ķ
à¦¸ à¦Ļ
à¦¯à¦¬ à¦¹
Ġà¦ķ à¦¯
Ġà¦ıà¦ķ à¦¦
à¦ ¢
à¦° à¦ļ
à¦° à¦Ľ
Ġà¦Ĩ à¦§
à¦¤ à¦¤
à§Ł à¦¨
Ġà¦ĩ à¦ļ
à¦ĩ à¦ķ
à§ģ âĢĻ
à¦°à¦ķ à¦®
Ġà¦Ĩà¦¸ à¦Ľ
Ġà¦ħà¦¬ à¦¸
Ġà¦ħ à¦²
à¦¯ à¦¸
à¦¬ à¦¬
Ġà¦ıà¦ķ à¦¬
Ġà¦ī à¦ªà¦°
Ġà¦ıà¦ķ à¦ľà¦¨
à§Į à¦ģ
à¦§ à¦¤
à¦ĩ à¦¯
Ġà¦Ń à¦¬
à¦¹ à¦¨
Ġà¦Ĩà¦ľ à¦ķ
Ġà¦Ĩà¦¸ à¦²
Ġà¦Ĩ à¦¡
Ġà¦ħ à¦Ļ
à¦¯ à¦¦
Ġ (
à§ĩà¥¤ âĢĿ
à¦ª à¦Ł
à¦¼ à§ģ
à¦¬ à¦¯
Ġà¦Ĺ à¦¤
Ġà¦ħà¦¬ à¦¶
à¦ľ à¦°
à¦ĸ à¦¬
! âĢĿ
à¦ķ à¦¨
Ġà¦° à¦¹à¦¸
à¦¸ à¦ķ
Ġà¦ª à¦¤
à§ °
Ġà¦Ŀ à¦°
à¦¸ à¦«
à¦ĺ à¦°
Ġà¦¶ à¦¤
Ġà¦ī à¦²
à§§ à§
à§ģ -
Ġà¦¦ à¦²
à§ģ à¥¤
Ġà¦¨ à¦¬
à¦¨ à¦²
Ġà¦ī à¦ľ
Ġà¦¸ à¦ķà¦²
Ġà¦Ĩ à¦ļ
à¦§ à¦°
Ġà¦¬ à¦¦à¦²
à¦Ł à¦¤
Ġà¦¤ à¦²
Ġà¦ī à¦¡
à¦· à¦°
à¦¨ à¦¸
à¦¼ à§Ģ
à¦¼à¦¾ ,
Ġà¦° à¦¯
Ġà¦ª à¦ķ
à¦ĩ à¦¤
à¦ª à¦¸
à¦ĸ à¦Ľ
à¦¯ à¦¥
? âĢĿ
à¦¬ à¦¶
à¦Ĩ à¦ľ
Ġà¦ħà¦¥ à¦ļ
à¦¨ à¦°
à¦¥ à¦¨
Ġà¦¹ à¦ĵà¦¯
Ġà¦Ĩ à¦Ļ
Ġà¦Ĩ à¦¯
à¦° à¦ľà¦¨
à¥¤ âĢĻ
Ġ à¥¤
à¦¯ à¦°
à¦¨ à¦Ĺ
Ġà¦ĵ à¦¦
Ġà¦Ĺ à§ľ
à¦« à¦²
à¦¥ à¦°
à¦ĩ à¦Ł
à¦¨à¦¬ à¦¤
Ġà¦Ĩ à¦¦
à¦ª à¦·
Ġà¦¸à¦¹ à¦ľ
à¦Ĺ à¦ľ
Ġà¦ķ à¦ł
Ġà¦¸à¦® à§Ł
à¦° à¦§
Ġà¦Ĩ à¦¹
Ġà¦ħ à¦«
à§İ à¦¸
Ġà¦ı à¦¦
à¦¼à¦¾ à¥¤
à¦² à¦Ľ
Ġà¦¤ à¦¥
à¦ª à¦¡
Ġà¦ ĭ
à§ĩ âĢĵ
à¦°à¦¹ à¦£
à¦Ĩ à¦°
à¦Ł à¦¬
à¦Ŀ à¦²
Ġà¦Ĩà¦¸ à¦¬
Ġà¦ıà¦ķ à¦ĩ
à¦ī à¦¨
? âĢĻ
à¦ı à¦ķà¦Ł
Ġà¦¬à¦² à¦¬
Ġà¦ľ à¦¡
à¦ī à¦²
Ġà¦° à¦ĩà¦²
à¦¿ !
Ġ ,
à¦Ń à¦°
à¦ĩ à¦¬
à¦ľ à¦¤
ÂłÂłÂłÂł ÂłÂłÂłÂł
Ġà¦ĺ à¦¨
Ġà¦ĺà¦Ł à¦¨
Ġà¦ķ à¦¨
Ġà¦ĸ à¦¬à¦°
Ġà¦ķ à¦·
Ġà¦Ľ à§ľ
à¦Ĺ à¦¬
Ġà¦Ĩ à¦Łà¦ķ
Ġà¦ıà¦ĸà¦¨ à¦ĵ
à¦° à¦Ĺ
Ġà¦ª à¦²
à¦°à¦® à¦£
Ġà¦Ľ à¦¨
à¦ķ à¦¶
à¦· à¦®
à¦ı à¦¬
à¦¯ à¦ĩ
à¦ľ à¦¸
Ġà¦ı à¦¨
Ġà¦¯ à¦¥
Ġà¦Ĩà¦¸ à¦¤
ĠâĢ ĵ
à¦¹ à¦¤
Ġà¦¦ à¦°à¦ķ
à¦§ à¦¬
à¦ľ à¦¯
Ġà¦¤à¦ĸà¦¨ à¦ĩ
à§ĭ âĢĶ
Ġà¦°à¦ķ à¦®
à¦¨ à¦¯
à¦· à¦®à¦¤
Ġà¦Ĳ à¦¤
à¦ı à¦°
Ġà¦¦ à¦¶
à§ ¨
à¦® à§Ł
à¦® à¦¸
Ġà¦¤ à¦¤
à¦ķ à¦¦
Ġà¦īà§İ à¦¸
à¦ķ à¦ķ
Ġà¦ħà¦¦ à¦®
Ġà¦¦ à¦°
Ġà¦ķà¦ĸà¦¨ à¦ĵ
Ġà¦¬ à¦Ł
Ġà¦¹ à¦°
à¦Ĩ à¦²
Ġ à§§à§
à¦¾ ;
à¦ķ à¦¡
Ġà¦¸ à¦ļ
Ġà¦ļ à¦°
Ġà¦Ĩ à¦Ń
Ġà¦ľ à¦°
à¦¯ à¦¯
Ġà¦Ĺ à¦£
Ġà¦¬ à¦ķ
à¦¾ âĢĵ
Ġà¦ªà¦° à¦¬à¦°
à§Ģ -
Ġà¦¯ à¦¨
à¦Ĩà¦® à¦°
Ġà¦ħà¦¥ à¦¬
Ġà¦¨ à¦°à¦®
Ġ âĢĶ
Ġà¦¸ à¦°à¦ķ
Ġà¦¸à¦¬ à¦ļ
à§ĭ ?
âĢĶ âĢľ
à¦Ł à¦¨
à¦® à¦§
Ġà¦ļ à¦ķ
Ġà¦¬ à§Ł
à¦ľ à¦¬
à¦® à¦Ł
à¦¦ à¦®
à§ĭ -
à¦¸à¦¬ à¦ĩ
Ġà¦ķ à¦²à¦ķ
Ġà¦Ń à§Ł
Ġà¦Ĩ à¦¦à¦°
Ġà¦¬ à¦ī
Ġà¦ľ à¦¯
à¦¶ à¦ª
à¦Ł à¦°
à¦® à¦°à¦£
Ġà¦¸ à¦ŀ
à¦² à¦®
à¦² à¦¯
à¦ŀ à¦¤
Ġà¦ħ à¦Łà¦²
âĢ ĺ
à¦¾à¥¤ âĢĿ
à¦Ĺ à¦®
à¦¨ à¦ĩ
Ġà¦ıà¦¸ à¦¬
à¦² à¦¸
Ġà¦Ń à¦¦
à¦ĩ à¦Ľ
Ġà¦§ à¦¨
Ġà¦īà¦ł à¦¤
à¦² à¦Ĺ
Ġà¦¬ à§ľ
Ġà¦ĵ à¦ķ
à¦ª à¦£
Ġà¦īà§İ à¦¸à¦¬
Ġà¦° à¦ĵ
à¦¹ à¦°à¦£
Ġà¦īà¦ª à¦¸
à¦¼ ?
à¦® à¦Ĺ
à¦² à¦Ł
Ġà¦¸à¦¤ à¦¤
à¦¸ à¦®à¦¯
à¦¦ à¦¸
Ġà¦° à¦ļà¦¨
à¦Ŀ à¦°
à¦¸ à¦ª
Ġà¦° à¦¸
à¦® à¦¹
à¦ĸ à¦°
Ġà¦ª à¦¶
à¦° à§Ł
à¦¼ -
à¦¹ à¦ł
à¦Ĩ à¦ªà¦¨
à¦°à¦¹ à¦°
à¦Ł à¦«
Ġà¦¦ à¦ķ
à¦¡ à¦²
à¦¹ à¦¯
à¦ł à¦¨
à¦¼ âĢĶ
Ġà¦Ĩà¦ľ à¦ĵ
Ġà¦īà¦ł à¦Ľ
Ġà¦Ĩ à¦ª
Ġà¦² à¦¡
à§ ¦
Ġà¦¸ à¦Ń
Ġà¦ıà¦ķ à¦¸à¦Ļ
à§Ł à¦¤
Ġà¦² à¦ľ
Ġà¦§à¦° à¦¨
Ġà¦ Ī
à¦¨ à¦Ń
à¦¥ à¦ķ
à¦ľ à¦ķ
à¦¯ à¦ª
à¦Ĩ à¦ķ
à¦¸ à¦Ł
à¦¾ âĢĻ
Ġà¦§à¦° à¦²
à¦Ĺ à¦Ľ
à¦ļ à¦¡
Ġà¦ķ à¦ª
Ġà¦® à¦ľ
Ġà¦ħ à¦ŀ
Ġà¦¨ à¦¨
Ġà¦¨ à¦®
Ġà¦Ĩ à¦ĵà¦¯
à¦² à¦®à¦²
- -
Ġà¦¯ à¦ľ
Ġà¦¬à¦¸ à¦²
Ġà¦ļà¦² à¦Ľ
à¦° à¦°
Ġà¦ī à¦ªà¦¨
Ġà¦ªà¦° à¦®
à ¤
à¦ķ à¦°à¦£
Ġà¦ıà¦ķ à¦®
Ġà¦ħà¦¸ à¦®
Ġà¦¸à¦¬ à¦ĩ
à§ «
à¦Ń à¦¯
à¦¿ ;
Ġà¦ªà¦¦ à¦ķ
à¦¬ à¦ļ
à¦¬ à¦Ľ
à¦¾à¦ģ ,
à¦ķ à¦¸
à¦¶ à¦²
à¦¯ à¦Ĺ
à¦¬ à¦ĩ
à¦¤ à¦Ł
à§Ģ ?
à¦ª à¦²
Ġà¦® à¦ŀ
Ġà¦¶ à¦¹
à¦¬ à¦¹
Ġà¦°à¦ĵ à¦¶à¦¨
à¦¬ à¦£
Ġà¦ī à¦·
Ġà¦¥ à¦®à¦ķ
à¦ł à¦¸
Ġà¦® à¦£
à§ĩ? âĢĿ
Ġà¦ļ à¦®à¦ķ
à¦ł à¦ķ
à¦ľ à¦®
à¦ķ à¦¥
à¦¼ ;
à¦Ľ à¦¬
Ġà¦¨ à¦ľà¦°
Ġà¦Ĺ à¦°à¦®
Ġà¦ľ à¦¬
Ġà¦¸à¦® à¦¨
à¦¿ âĢĵ
à¦ī à¦ķ
Ġà¦® à¦²
Ġà¦ª à¦ŀ
à¦· à¦¦
à¦ª à¦ļ
Ġà¦ľ à§Ł
Ġà¦ı à¦Ń
Ġà¦ĵ à¦Ł
à¦¶ à¦®
à¦ķ à¦Ľ
à¦ķ à¦ľà¦¨
à¦ī à¦¯
Ġà¦Ĺ à¦¬
Ġà¦Ĺ à¦®
à¦Ŀ à¦ĸ
à¦£ à¦¨
à¦ķ à¦Ń
à¦® à¦¶
Ġà¦ī à¦°
à¦¤ à¦ª
à¦ĩ à¦Ń
Ġà¦ĺ à¦£
à¦ı à¦¸à¦¬
à¦ĩ à¦¡
à¦° à¦Ĺà¦¤
à¦ı à¦Ł
Ġà¦¦ à¦®
à§ĩà¥¤ âĢĻ
à¦® à¦¦
à¦¾à¥¤ âĢĻ
à§ĩ âĢ¦
à¦¤ à¦¦
à¦¹ à¦®
Ġà¦Ĺ à¦¹
à¦¥ à¦²
à¦° à¦¬à¦¨
à¦¼ à¦Ĥ
Ġà¦īà¦ł à¦¬
Ġà¦® à¦¸
Ġà¦Ŀ à¦²à¦®à¦²
Ġà¦¯à¦¤ à¦ĩ
Ġà¦ħ à¦Ł
Ġà¦ļ à¦¡
Ġà§§à§ ¯
Ġà¦¤à¦° à¦Ļ
Ġà¦¸à¦° à¦²
à§ ©
à¦¤ à¦¨à¦¤
Ġà¦ªà§ľ à¦²
Ġà¦Ĳ à¦ķ
à§ Ŀ
à¦° à¦ĸ
à¦ı à¦ĸà¦¨
à¦ļ à¦¤
à¦ĵ à¦°
Ġà¦ıà¦ķ à¦¤
à¦¿à¥¤ âĢĿ
à¦¬ à¦Ń
Ġà¦ľ à¦Ł
à¦¦ à¦Ĺ
Ġ t
à¦¨ à¦¶
à¦® à¦ª
à¦ı à¦ĸ
à¦ĩ à§Ł
à¦£ à¦¬
à¦¿ âĢĻ
à¦Ľ à¦²
Ġà¦Ĩà¦° à¦®
à§ Ń
Ġà¦Ń à¦Ļ
à¦ª à¦®
Ġà¦¸ à¦ª
Ġà¦ļ à¦¨
à¦ĺ à¦¨
Ġà¦ªà¦° à¦¶
Ġà¦ļà¦² à¦¤
à¦² à¦Ń
à¦® à¦ľ
à¦¯ à¦Ń
à¦ĩ à¦¸
Ġà¦² à¦®
Ġà¦° à¦®à¦£
à¦¤ à¦¹
à¦¸ à¦¹
à§ĭ !
Ġà¦ħ à¦°à¦£
Ġà¦ľ à¦Ĺà¦¤
Ġà¦ĵ à¦¯
à¦¸ à¦Ľ
à¦¶ à¦¯
Ġà¦ĵ à¦ĸ
à¦ħ à¦°
à¦¯ à§İ
à¦¬ à¦§
Ġà¦¨ à¦ķ
à¦¼à¦¿ à¥¤
Ġà¦®à¦¤ à¦¨
à¦ĥ à¥¤
Ġà¦ª à¦£
Ġà¦ª à¦Ľà¦¨
à§ ª
à¦ķ à¦Ĺ
à¦Ł à¦Ľ
à¦ķ à¦£
Ġà¦¸ à¦¦
à¦°à¦¬ à¦²
Ġà¦ħ à¦¹
à¦· à¦Ł
à¦ľà¦¨ à¦ķ
Ġà¦ļà¦² à¦²
Ġà¦¹ à¦¸
à¦ī à¦Ł
à¦ķ à¦ĩ
à¦ľ à¦Ł
à¦ļ à¦Ł
Ġà¦¬ à¦ľ
Ġà¦¸ à¦ł
à¦° à¦«
Ġà¦Ĩ à¦ĺ
à¦ĺ à¦²
à¦Ĺ à¦£
Ġà¦¹ à¦ĩ
à¦ľ à¦Ľ
h e
Ġà¦ħà¦ľ à¦¸
Ġà¦« à¦°
Ġà¦ħà¦¤ à¦ıà¦¬
à¦ļ à§Ł
Ġà¦¬à¦¸ à¦¨
à¦· à§Ł
à¦¬ à¦Ł
, âĢĿ
âĢĿ à¥¤
à¦¶ à¦°
Ġà¦¸à¦¬ à¦ķ
Ġà¦ıà¦®à¦¨ à¦ķ
Ġà¦¨ à¦¡
Ġà¦¨ à¦·
à¦ª à¦Ľ
Ġà¦Ĩ à¦ĩà¦¨
à¦¬ à¦¡
i n
à§ĩ :
à¦² à¦ļ
à¦¦ à¦Ł
à¦ī à¦°
à¦² à¦ª
à¦ķ à¦®
Ġà¦® à¦®à¦¤
à¦Ł à¦Ł
à¦¤ à¦Ń
à¦¦ à¦ķ
Ġà¦ ·
à¦® à¦¡
à¦Ĩ à¦Ĺ
Ġà¦īà¦ª à¦²à¦¬
à¦¨ à¦ª
Ġà¦Ŀ à¦¡
Ġà¦ķ à§Ł
Ġà¦Ĩ à¦ķà¦°
à¦¥ à¦®
Ġà¦ī à§ľ
à§ĩ? âĢĻ
à¦° à¦¦à¦°
à¦ľ à§Ł
à¦Ń à¦Ļ
Ġà¦ĩ à¦¯
Ġà¦¨ à¦Ĺà¦°
à¦¤ à¦¸
Ġà¦Ĩ à¦¨à¦¤
à¦¬à¦² à¦¤
Ġ -
à¦Ł à¦®
à¦§ à¦¹à¦¯
a n
à¦¨ à¦Ľ
à¦ī à¦¦
à¦®à¦¨ à¦ĩ
à¦°à¦¬ à¦°
Ġà¦¸ à¦ľ
à¦¼à¦¿ ,
à¦¨ à¦ļ
. .
à¦Ľ à¦¤
Ġà¦ľ à¦Ļ
à¦ľ à¦Ĺ
à¦£ à¦ķ
à¦ĩ à¦®
Ġà¦² à¦¤
Ġà¦¬à¦ĩ à¦¯
à§ĩ à¦¾
à¦ĩ à¦ľ
à¦Ł à¦ª
Ġà¦¹ à¦¨
Ġà¦Ń à¦ķ
Ġà¦ĩ à¦²
à¦Ĺ à¦¡
Ġà¦¸ à§İ
Ġà¦ĵ à¦ª
à¦¶ à¦¤
Ġà¦Ĺ à¦Ļ
à§ĩ! âĢĿ
à¦° à¦Ļ
à¦¤ à¦ĸà¦¨
Ġà¦ħà¦¨ à¦²
à¦ķ à¦ļ
à¦¬ à¦®
Ġà¦ª à¦²à¦ķ
Ġà¦ĭ à¦·
à¦¶ à¦Ĺ
à¦¶ à¦Ł
o n
Ġà¦ħà¦¤ à¦²
à¦ĸ à¦ķ
âĢ¦ âĢĿ
à¦°à¦® à¦¶
à¦¬ à¦ľ
à¦°à¦¸ à¦Ļ
Ġà¦ª à¦¯
à¦¿à¥¤ âĢĻ
à¦ķ à§ľ
à¦¨ à§Łà¦¨
Ġà¦īà§İ à¦ª
Ġà¦§ à¦°à¦¤
Ġà¦ħà¦® à¦°
à¦¼ !
Ġà¦ĩ à¦¸
à¦¦ à¦¬
Ġà¦Ŀ à¦¨
Ġà¦ļà¦² à¦¬
Ġà¦¶ à¦ªà¦¥
Ġà¦¶ à¦Ļ
à¦ħ à¦¤
Ġà¦ħà¦¸ à¦¹
à¦ħ à¦¸
à¦¯ à¦®à¦¯
Ġà¦ļ à¦Ł
Ġà¦® à¦¦
Ġà¦° à§Ł
Ġà¦ķà¦¤ à¦Ł
à¦® à¦ļ
à¦¤à¦¬ à¦¤
à¦¥ à¦¤
Ġà¦® à¦¯
à§Ģ !
à¦¤ à¦ĩ
Ġà¦¬à¦¸ à¦¤
à¦¸à¦¬ à¦ķ
Ġà¦° à¦ļ
à¦¦ à¦¶
Ġà¦¸à¦® à¦°
à¦¬ à¦ľà¦¨
Ġà¦ķ à¦ļ
à¦¬à¦² à¦Ľ
à¦¬à¦² à¦ľ
Ġà¦¹à§Ł à¦¤
Ġà¦ Ĭ
Ġà¦Ĩà¦¬ à¦¦
Ġà¦ķ à¦«
Ġ à§¨
Ġà¦Ī à¦¶
Ġà¦Ĩà¦ļ à¦°à¦£
Ġà¦Ĩ à§ľ
Ġà¦¤à¦ĸà¦¨ à¦ĵ
r e
Ġà¦® à¦¶
Ġà¦ıà¦ķ à¦¸
à¦¯ à¦Ł
Ġà¦ľ à¦Ĺ
Ġà¦ı à¦°à¦ķà¦®
à¦Ĺ à¦°à¦£
Ġà¦®à¦¨ à¦¨
à¦¯à¦¤ à¦®
Ġà¦ĸ à¦°à¦ļ
Ġà¦¹ à¦ĵà§Ł
à¦°à¦ķ à¦²
à¦ª à§ľ
à¦¥ à¦¬
à¦Ĩ à¦¶
Ġà¦ª à¦Ł
à¦ħ à¦ļ
à¦¤ à¦Ĺ
Ġà¦ĸ à¦¸
à¦² à¦ľ
Ġà¦¤ à¦¨
à¦® à¦Ľ
Ġà¦ķà¦² à¦®
à¦¾ à¦ĥ
à¦¨ à¦®
Ġà¦ķ à¦®à¦²
à¦ķ à¦ª
à¦ī à§Ł
à§ĭà¥¤ âĢĿ
à§ ¬
Ġà¦ĩ à¦Ļ
à¦¼à¦¾ -
à¦ķ à¦ĸà¦¨
à¦ħ à¦¬
à¦® à¦®
Ġà¦¬ à¦Ļ
à¦¸ à¦¦
Ġà¦¸à¦¹ à¦¯
a t
à¦Łà¦« à¦°
à¦¾ :
Ġà¦« à¦¸à¦²
à¦¼ âĢĵ
à¦Ĩ à¦¬
Ġà¦¸à¦® à¦Ĺ
à¦ī à¦ľ
âĢĻ à¥¤
Ġà¦ļ à¦¤
a l
à¦¯ à¦ķà¦°
Ġà¦ķ à¦¹
Ġà¦ªà¦° à¦¸
Ġà¦ħ à¦¬à¦¨
à¦ĸ à¦Ł
à¦Ń à¦ķ
à¦¿? âĢĿ
à¦ī à¦¡
Ġ !
à¦¸à¦® à§Ł
à¦ıà¦ķ à¦¦
à¦¨à¦¬ à¦ľ
Ġà¦ıà¦¤ à¦Ł
à¦¬à¦² à¦¨
à¦² à§Ł
ÂłÂł Âł
Ġà¦®à¦¨ à¦¸
Ġà¦ıà¦¤ à¦ķ
à¦¬ à¦°à¦¤
à¦² à¦ĩ
à¦¯ à¦ĸà¦¨
Ġà¦ª à¦¨
à¦¬à¦¨ à¦¯
Ġà¦ħà¦¬ à¦§
Ġà¦¸à¦¹ à¦®à¦°
Ġà¦ķ à¦Ł
à¦¯ à¦ľ
Ġà¦¸ à¦¤à¦°
à¦ļ à¦¬
à¦Ĩà¦ľ à¦ķ
Ġà¦« à¦Ł
Ġà¦Ĩà¦¸ à¦¨
à¦« à¦Ł
à¦ľà¦¨ à¦¶
Ġà¦¬à¦¹ à¦¨
à¦ı à¦¸
à¦ĩ à¦ª
Ġà¦ıà¦ĩ à¦¸à¦¬
à¦Ĺ à¦Ń
à§Ł à¦®
Ġà¦ıà¦¤ à¦¦
à¦® à¦ªà¦°
Ġà¦Ĩ à§Ł
Ġ '
à¦Ń à¦¬à¦¤
à¦¬ à¦°à¦£
Ġà¦ħ à¦¬à¦²
à§ ¯
à¦¨ à¦ľà¦¨
à¦ı à¦Ń
Ġà¦Ĩ à¦¬à¦°
à¦¦ à¦¤
à¦¯à¦¬ à¦¤
à§ ®
Ġà¦ķ à¦¡
à¦¤ à¦ľ
Ġà¦¢ à¦²
Ġà¦ļ à¦°à¦®
Ġà¦° à¦«
Ġà¦ĺ à¦¡
Ġà¦ļ à¦®
à¦ļ à§ľ
à¦ı à¦®à¦¨
à¦ĵ à¦ĩ
Ġà¦¬à¦¸ à¦¬
! âĢĻ
à¦¾ âĢĿ
à§ĩâĢĶ âĢľ
Ġà¦¨ à¦¹
Ġà¦ľà¦¨ à¦¨
à¦¸ à¦ķà¦²
Ġà¦ı à¦¡
Ġà¦Ł à¦°
Ġà¦¬à¦ĩ à§Ł
Ġà¦Ŀ à¦²à¦ķ
à¦ĸ à¦£
à¦¡ à¦¬
à¦¾à¦ģ à¥¤
à¦°à¦¤ à¦°
e r
à¦² à¦¦
e n
i s
Ġà¦®à¦¨ à¦Ł
à¦¾? âĢĻ
Ġà¦¨ à¦ĩà¦²
à¦ħ à¦¬à¦¶
à¦Ĩ à¦¸
Ġà¦ķ à¦ķ
Ġà¦ı à¦°à¦ªà¦°
Ġà¦° à¦¤
Ġà¦° à¦ŀ
Ġà¦Ĩà¦® à¦¨
à¦°à¦¥à¦® à¦¬
Ġà¦ĸ à¦£
à¦ľ à¦ª
à¦ Ĳ
Ġà¦® à¦Ļ
Ġà¦Ĩà¦® à¦²
Ġà¦ļ à¦°à¦£
à¦Ń à§Ł
Ġà¦Ĩà¦² à¦®
i t
Ġà¦¬ à¦ŀ
à¦¶ à¦¹à¦°
Ġt he
à¦Ľ à¦Ł
à¦¾ âĢ¦
à¦¾! âĢĿ
à¦² à¦«
Ġà¦¸ à¦ĸ
Ġà¦ĵ à¦·
à¦¸ à¦¸
à¦Ĺ à¦łà¦¨
Ġà¦° à¦ľà¦¤
Ġà¦° à¦¹
à¦ī à¦¸
à¦£ à¦¦
Ġà¦ľ à§ľ
Ġà¦Ń à¦°à¦¸
à¦¶ à¦¦
Ġà¦ħ à¦®à¦¨
Ġà¦Ń à¦Ĺà¦¬
Ġà¦² à§ľ
Ġà¦Ĩ à¦ĵà§Ł
à¦Ŀ à¦¬
à¦ª à¦Ĺ
à¦Ļ à¦²
Ġà¦ħà¦¬ à¦¹
Ġ ?
Ġà¦Ĺ à¦łà¦¨
à¦¨ à¦¹
à¦¬ à§Ł
Ġà¦Ĩ à¦ªà¦¤
Ġà¦ıà¦ķ à¦¥
à¦¸à¦¤ à¦¤
à¦¬à¦¨ à¦ķ
Ġ :
Ġà¦ľà¦¨ à¦¸
Ġ o
Ġà¦®à¦¨ à¦ķ
à¦« à¦°
à¦Ń à¦¨
Ġà¦Ĩ à¦Ł
à¦ļ à¦°à¦£
Ġà¦ļ à¦ŀ
Ġà¦ļ à¦¶à¦®
à§ĩ âĢĻ
à¦¤à¦° à¦Ļ
à¦¹ à¦ķ
Ġà¦¸ à¦¹à¦¸
à§Ł à¦Ĺ
Ġà¦° à¦¤à¦¨
Ġà¦ Ķ
à§ĭ ?âĢĿ
Ġà¦ĩ à¦¶
à¦¯ à¦¹
à¦¯ à§Ł
Ġà¦ªà¦¦ à¦ļ
Ġà¦¨ à¦ķà¦¶
à¦Ł à¦¸
Ġà¦ĩ à¦īà¦¨
Ġà¦ħà¦¬ à¦¦
à¦ħ à¦®
Ġ s
à¦ħ à¦¶
Ġà¦Ĩà¦¨ à¦²
Ġà¦ıà¦ķà¦¦ à¦®
à¦¦ à¦¦
à¦°à¦¸ à¦°
Ġà¦Ĩ à¦ĩ
Ġà¦Ŀ à¦°à¦¨
à¦¯ à¦ĵ
à¦ª à¦¶
Ġà¦¤ à¦ªà¦¨
à¦ı à¦¤
à§ĭ ;
Ġà¦ª à¦¬
Ġà¦Ĩà¦° à¦ľ
Ġà¦ªà¦¥ à¦ļà¦²
à¥ ¥
Ġà¦¦ à¦ĸà¦²
Ġà¦ĩ à¦ŀ
à¦ª à¦¯
Ġà¦Ĩà¦¤ à¦Ļ
Ġà¦¬à¦Ł à¦Ĺ
Ġà¦¯ à¦®
Ġà¦ĩ à¦Ł
à¦¤ à¦°à¦£
à¦¸à¦² à¦®
à¦¦ à¦¹
à¦ª à¦¬
âĢ į
à¦° à¦·
à¦¸ à¦Ń
Ġà¦¤ à¦ªà¦¸
Ġà¦ħà¦ª à¦®
à¦· à¦¬
Ġà¦¶ à¦¸
à¦ĺ à¦¶
Ġà¦¨ à¦ĩ
Ġà¦Ĺ à¦ľ
Ġà¦Ĩ à¦ĸ
à¦¦ à¦ª
à¦Ł à¦Ĺ
à¦ı à¦¸à¦¬à¦ĩ
Ġà¦ıà¦®à¦¨ à¦ĩ
Ġà¦ıà¦ķ à¦²
Ġà¦¬ à¦¦
Ġà¦® à¦¡
à¦ľ à¦¦
Ġà¦īà¦ª à¦¯
Ġ ;
à¦ī à¦ĩ
Ġà¦¯à¦¤ à¦Ł
à¦¤ à¦Ľ
à¦² à¦¬à¦¨
Ġà¦Ĭ à¦°
à¦ĺ à¦®
à¦¿? âĢĻ
Ġà¦ľà¦Ĺ à§İ
à¦¸ à¦°à¦£
à¦§ à¦®
Ġà¦īà¦¦ à¦¯
à¦ķ à¦ł
à¦® à¦ŀ
à¦¡ à¦¨
à¦°à¦ļ à¦£
à§Ģ âĢĶ
à¦¼à¥¤ âĢĿ
Ġà¦Ĩ à¦¨à¦¬
à¦¿ âĢ¦
à¦ĩ à¦¦
à¦Ĺ à¦¦
à§İ à¦ª
à¦ĩ à¦«
Ġà¦¦ à¦¯
Ġà¦° à¦ľ
Ġà¦Ń à¦Ĺ
Ġà¦° à¦¥
Ġà¦ıà¦ķ à¦ķ
à¦Ľ à¦ª
Ġà¦ıà¦ĩ à¦Ń
Ġà¦¬ à¦ªà¦¨
à¦® à¦ĩ
Ġà¦ıà¦ķ à¦¶
à¦°à¦¥à¦® à¦¤
Ġà¦ıà¦ķ à¦ª
à¦ħ à¦¦
Ġà¦¶ à¦¤à¦ķ
Ġà¦īà¦ª à¦¹
Ġà¦ī à¦Ńà¦¯
Ġà¦Ĩ à¦«
à¦ªà¦ķ à¦¥
Ġ a
Ġà¦īà¦ª à¦ķ
à¦¯ à¦¶
Ġà¦ľà¦¨ à¦®
Ġà¦ħ à¦ļà¦²
à§ĩ, âĢĿ
Ġ c
à¦¡ à¦°
à§İ à¦ĩ
Ġà¦ľà¦² à¦°
Ġà¦ĭ à¦¤
Ġà¦¸ à¦°à¦¸
à¦ĸ à¦¸
Ġà¦ľà¦² à¦¬
Ġà¦ļà¦® à§İà¦ķ
ÂłÂłÂłÂłÂłÂłÂłÂł ÂłÂłÂłÂł
à¦ķ à¦¶à¦¨
Ġà¦® à¦°à¦£
Ġà¦Ń à¦°à¦¤
Ġà¦ıà¦ĩ à¦°à¦ķà¦®
Ġà¦ĭ à¦£
à¦¬ à¦¤à¦¨
Ġà¦° à¦¶
à¦Ŀ à¦ķ
âĢĻ ,
Ġà¦Ŀ à¦ķ
à§į à¥¤
Ġà¦ıà¦ķ à¦¸à¦®à¦¯
à§İ à¦ªà¦°
Ġà¦ħ à¦¯
Ġà¦Ĩà¦¬ à¦¹
Ġà¦ĩ à¦®
à§ģ !
Ġà¦° à¦¹à¦®
Ġà¦¸à¦® à¦¤
Ġà¦¦ à¦¤
à¦°à¦¤ à¦¬à¦°
Ġà¦ıà¦ĩ à¦Ł
à¦Ľ à¦Ĺ
Ġà¦ħà¦¬ à¦ķ
Ġà¦¬à§Ł à¦¸
Ġà¦¸ à¦«à¦²
Ġà¦Ĩà¦¬ à¦Ľ
Ġà¦ķà¦² à¦°à¦¬
à¦Ĺ à¦¸
Ġà¦° à¦®
à¦¯ à¦°à¦ķà¦®
Ġà¦¨ à¦°
Ġà¦Ĳ à¦¶
Ġà¦¨à¦¬ à¦ľ
a r
Ġà¦Ĩà¦ľ à¦ĩ
à¦¾? âĢĿ
à¦ħ à¦Ń
à¦¬ à¦Ĺ
Ġà¦° à¦£
à¦ī à¦¤
Ġà¦ķ à¦¦
Ġà¦ĺà¦° à¦Ł
e s
à¦¸ à¦°à¦ķ
à¦Ł à¦ĸ
à¦· à¦¸
Ġà¦² à¦¯
o r
à§ģ âĢĶ
à¦Ĩ à¦¨
Ġ w
Ġà¦ı à¦®
Ġà¦ıà¦ĸà¦¨ à¦ĩ
à¦® à¦Ń
à¦Ĺ à¦Ł
Ġà¦Ĩà¦° à¦£
à¦ĩ à¦ľà¦¨
à¦¿ :
à¦Ĩ à¦¤
Ġà¦Ĺ à¦¦
Ġà¦īà¦² à¦Ł
Ġà¦ķ à¦ĩ
à¦¿ !âĢĿ
à¦¶ à¦ĩ
à¦°à¦£ à¦¯
Ġà¦¤ à¦¤à¦ķ
à¦ĵ à¦¡
à¦ľ à¦Ĺà¦¤
à¦ļ à¦®
Ġà¦¶ à¦¯
Ġà¦¸à¦® à¦¬
à¦ĩ à¦ļ
Ġà¦Ĩà¦° à¦¬
à§İ à¦¸à¦¬
à¦¬ à¦ªà¦¨
Ġo f
à¦ĩ à¦¶
à¦« à¦²à¦¨
Ġà¦Ĩà¦² à¦¤
Ġ m
Ġà¦Ŀ à§ľ
Ġà¦¦ à¦¡
à¦Ĩ à¦¨à¦¨
à¦ ĭ
Ġà¦ĵ à¦¡
à¦¶ à¦¸
à¦ı à¦Ĺ
Ġà¦Ľ à¦²
Ġà¦¬ à¦¶
Ġà¦¯ à¦¯
Ġà¦ļà¦ķ à¦ļà¦ķ
à¦· à¦ª
à¦¿ âĢĿ
à¦Ł à¦¦
Ġà¦¤ à¦ķ
Ġà¦² à¦²
à¦Ĺ à¦Ĺ
Ġà¦ĩ à¦¹
Ġà¦Ĩà¦¶ à¦Ļ
Ġà¦¦à¦¶ à¦Ł
à¦¹ à§İ
Ġà¦ªà¦° à¦¦
à¦ħ à¦²
à¦° à¦ļà¦²
Ġà¦ĵ à¦Ĺ
à¦ħ à¦ª
Ġà¦¬à¦ī à¦¦
à§ģ ?
à§İ à¦¸à¦°
Ġà¦¬à¦° à¦«
Ġ b
Ġ p
Ġà¦Ľ à¦¯
Ġà¦¤ à§İà¦ķ
Ġà¦Ĺ à¦Ĺà¦¨
à¦¤ à¦¶
Ġà¦® à¦Ĺ
à¦Ĩ à¦§
Ġà¦Ĩà¦Ĺ à¦®à¦¨
Ġà¦īà¦ª à¦Ń
à¦¯à¦® à§Ł
à§ģ à¦Ĥ
à¦ħ à¦Ĺ
à¦¼à§ĩ -
Ġà¦§ à¦°à¦£
à¦Ĩ à¦ļ
Ġà¦ĩ à¦¸à¦²
à¦ĵ à¦²
à¦Ļ à¦¤
âĢĶ âĢĺ
à¦ħ à¦ľ
à¦ķ à¦¹
Ġà¦¹ à¦ĵ
à¦· à¦ĩ
à¦¹ à¦¬
Ġà¦¹à§Ł à¦¨
à¦ª à¦ĩ
à¦¿ .
Ġà¦ªà¦° à¦¨
à¦ľà¦¨ à¦¤
à¦ķà¦¸ à¦ĩ
à¦® à¦²à¦¤
Ġà¦ıà¦ķ à¦ĸ
à¦ī à¦ł
an d
à¦°à¦¸ à¦¨
Ġà¦ħ à¦¬à¦°
Ġà¦Ń à¦¬à¦¨
à¦ĺ à¦Łà¦¨
Ġà¦ªà§ľ à¦Ľ
à¦Ĺ à¦ķ
à¦£ à¦Ĺ
Ġà¦¹ à¦ķ
Ġà¦ıà¦ķ à¦°
Ġà¦¸à¦¬ à¦¸à¦®à¦¯
à¦ªà¦ķ à¦¥à¦¨
.. .
Ġà¦ħà¦¬ à¦¤
Ġà¦Ŀà¦ķ à¦Ŀà¦ķ
Ġà¦Ĩ à§Łà¦¨
Ġà¦ı à¦°à¦ĩ
à¦ĵ à¦¨
à¦ıà¦ķ à¦ľà¦¨
à¦ĩ à¦ĸ
Ġà¦ħ à¦·
à¦¾, âĢĿ
à¦®à¦¨ à¦¸
Ġà¦ľà¦¨ à¦¤
Ġà¦īà¦ª à¦¦
à¦® à¦ĵ
à¦ķ à¦«
à¦¬ à¦Ľà¦°
à¦¼ à§į
à¦ħ à¦ķ
Ġà¦Ĺà¦£ à¦¤à¦¨
Ġà¦¬ à¦§
à¦ľ à¦ĩ
à§Ł à¦ķ
à¦°à¦¤ à¦®
à¦ķ à¦ĵ
à¦¯à¦¬ à¦¦
i c
Ġà¦Ĩà¦ļ à¦®à¦ķ
in g
à¦¨ à¦Ĺà¦°
à¦¦ à¦Ľ
Ġà¦¤ à¦ª
Ġà¦ħ à¦²à¦ķ
Ġà¦Ŀ à¦²à¦¸
Ġà¦¥ à¦®
à§Ī à¦ĥ
i on
Ġ à§©
l e
Ġà¦¹ à¦ĩà¦²
à¦¡ à¦¬à¦¦
Ġ "
à¦ª à¦ľ
à¦ļ à¦Ľ
Ġà¦² à§Ł
Ġà¦¹à¦¤ à¦Ń
o u
Ġà¦¬ à¦°à¦£
Ġà¦¸ à¦¸
à¦¶ à¦¹
à§Ł à¦¬
Ġà¦°à¦ĵ à¦¨
à¦¸ à¦ĩ
à¦ĸ à¦ĸ
âĢį à§į
Ġà¦ª à¦°à¦¤
à¦· à¦¨
Ġà¦° à¦¨
à¦¿à¦Ĥ ,
Ġà¦§ à¦°à¦¬
à¦¼à¦¿ à¦Ĥ
Ġà¦ĺà¦Ł à¦²
) ,
à¦ķ à¦·
à¦Ń à¦°à¦¤
Ġà¦§ à¦®à¦ķ
à¦Łà¦« à¦Ł
à¦® à¦Ŀ
Ġà¦¯ à¦¬
à¦ĵ à¦Ĺ
à¦°à¦¬ à¦£à¦¤
ÂłÂłÂłÂłÂłÂłÂłÂł ÂłÂłÂłÂłÂłÂłÂłÂł
à¦¤ à¦ļ
à¦² à¦°
Ġà¦ķ à¦Ń
à¦Ĩ à¦ª
à§ ·
Ġà¦¤ à¦¦
Ġà¦ªà§ľ à¦¤
Ġà¦¤à¦¤ à¦ĩ
a s
à§ĭ âĢĵ
Ġà¦² à¦¹à¦°
Ġ f
Ġà¦ħà¦¨ à¦¬à¦¦
Ġà¦ıà¦ĩ à¦ĸ
à¦ĺ à¦¦
Ġà¦Ŀ à¦Ĺà¦¡
à¦¸ à¦ĵ
Ġà¦® à¦®
à¦ī à¦®
à¦¿à¦Ĥ -
Ġà¦Ĩ à¦ł
Ġà¦¨ à¦Ł
Ġà¦¯à¦¤ à¦¦
) à¥¤
Ġà¦ķ à¦¬à¦°
à¦¡ à¦ķ
Ġà¦¶ à¦¨
à¦Ń à¦¸
Ġà¦Ľ à¦Ł
Ġà¦ĵ à¦¸à¦¬
Ġà¦ħà¦Ĺ à¦£
Ġà¦ĭ à¦Ĺ
e d
à¦¨ à¦ľ
à¦¬ à§ľ
Ġà¦¸ à¦«
à¦ľ à¦Ļ
à¦ļ à¦¶
à¦¼à¦¾ âĢĶ
à¦ī à¦ļ
à¦ħ à¦¨à¦¨
Ġà¦Ĩà¦¬ à¦¶
Ġà¦ķà¦¤ à¦¦
Ġà¦¨ à§ľ
Ġà¦ªà¦° à¦ĩ
Ġà¦Ĩà¦ķ à¦¸
Ġ d
Ġà¦¦ à¦Ĺ
Ġà¦¦ à¦¶à¦ķ
Ġà¦ī à¦ķ
à¦ħ à¦ªà¦°
Ġà¦¸ à¦¦à¦¸
à¥¤ à¥¤
Ġà¦Ľ à¦Łà¦«à¦Ł
Ġà¦ħà¦¨ à¦¬à¦°à¦¤
à¦ı à¦²
à¦² à¦ĸ
Ġà¦® à§İà¦¸
Ġà¦ı à¦¯
à¦Ĩ à¦¯
Ġà¦ĩ à¦ī
à¦¦ à¦£
Ġà¦¶ à¦¶
Ġà¦¶ à¦«
Ġà¦ĸ à¦¡
Ġà¦ħà¦¬à¦² à¦®
à¦Ĺ à¦ĩ
Ġà§§à§¯ à§Ń
Ġà¦ķ à¦¦à¦®
à¦¤ à¦ĵ
Ġà¦Ĩà¦¬ à¦°à¦£
à¦¸à¦® à¦¸
Ġà¦¹ à¦Ł
à¦¬à¦¨ à¦Ł
à¦¦ à¦ĩ
Ġà¦¬à¦ĩ à¦Ł
Ġ Âł
à¦· à¦Ń
à¦£ à¦®
Ġà¦ĸ à¦°
Ġà¦® à¦¦à¦¨
à¦ļ à¦¸
Ġà¦Ĺ à¦¤à¦ķ
Ġà¦ļ à§ľ
à¦ĵ à¦¦
à¦¬ à¦¸à¦¨
à¦£ à¦¬à¦¨
Ġà¦² à¦¨
Ġà¦ªà¦° à¦ķ
Ġ h
à¦® à¦¸à¦®
Ġà¦¬ à¦£
Ġà¦ħà¦§ à¦°
à¦² à¦ĵ
à¦ľ à¦§
Ġà¦¯à¦¤ à¦ķ
à¦¬ à¦ĵ
à¦· à¦Ĺ
à¦ī à¦¬
Ġà¦¥à¦® à¦¥à¦®
à§ĩ âĢĿ
Ġà¦¹ à¦ĩà¦¤
à¦Ĩ à¦¹
à¦¯ à¦Ļ
Ġà¦ıà¦¤ à¦ĩ
Ġà¦¨ à¦²
Ġà¦¹ à¦ĩà¦¯
à¦ł à¦¤
Ġà¦« à¦ķ
Ġà¦Ĩà¦Ľ à¦¡
Ġà¦ĩ à¦ľ
Ġà§¨ à§¦
Ġà¦ıà¦ķ à¦Ĺ
à¦ķà¦² à¦®
à§Ģ âĢĻ
à¦ĸ à¦¯
à¦ĸ à¦Ĺ
à¦Ļ à¦¨
Ġà¦ĵ à§Ł
Ġà¦ı à¦Ľ
à§ľ à¦¤
à¦Ŀ à¦¡
Ġ à¤
à¦¸ à¦¡
à¦ĸ à¦¬à¦°
à¦· à¦ªà¦°
Ġà¦Ĩà¦° à¦¤
à¦°à¦¥ à¦°
Ġà¦ķà¦¤ à¦ķ
à¦¾ à¦ĥà¥¤
à§Ģ âĢĵ
à¦ĺ à¦£
à¦Ĺ à¦ł
Ġà¦ķà¦² à¦Ļ
Ġà¦ªà¦Ł à¦Ń
à¦¨ à¦®à¦¯
Ġà¦ķ à¦Ļ
Ġà¦ıà¦ķ à¦¦à¦²
à¦¿, âĢĿ
à¦¹ à¦¦
Ġà¦ī à¦Ĺ
Ġà¦² à¦Ļ
Ġà¦Ĩ à¦Łà¦Ł
à¦¤à¦° à¦Ł
Ġà¦®à¦¸ à¦ľ
à¦Ł à¦ĵà¦¯
à¦£ à¦°
à¦£ à¦Ń
à¦Ĩ à¦ĩ
à¦¹à¦°à¦£ à¦¸
à¦ķ à¦¬à¦°
à§ĩ- -
Ġà¦ħ à¦£
Ġà¦ħà¦¥ à¦°
Ġà¦Ĩà¦¹ à¦¤
à¦ķ à¦ľ
Ġà¦ª à¦Ļ
Ġà¦¦ à¦®à¦¨
Ġà¦¤ à¦°à¦²
à¦¶ à¦Ŀ
Ġà¦¥ à¦°à¦¥à¦°
à¦²à¦Ľ à¦²
o m
à¦ľ à¦ĵ
Ġà¦ı à¦ª
Ġà¦¸ à¦²
à§Ģ à¦Ĥ
à¦¼à¦¿ -
à¦ı à¦¦
Ġà¦ħà¦¬ à¦¸à¦°
Ġà¦ªà¦¥ à¦ļ
Ġà¦¤à¦° à¦«
c t
à¦§ à¦Ł
à§ľ à¦ķ
à¦°à¦£ à¦¤
Ġà¦ł à¦ķ
à¦ħ à¦§
à§ĭ âĢ¦
à§ĭ !âĢĿ
Ġà¦¦ à¦«
ĠĠĊ ĠĠ
Ġà¦ķ à¦²à¦¤
à¦ł à¦¶
âĢĻ -
à¦·à¦° à¦Ĺ
à§ĭ à¦Ĥ
à¦¦ à¦ĵ
à¦ª à¦ķà¦²
à§Ģ ;
à¦ı à¦ķà¦¬
Ġà¦ıà¦®à¦¨ à¦Ń
Ġà¦ħà¦² à¦¸
Ġà¦Ŀà¦° à¦Ŀà¦°
à¦·à¦ķ à¦¦
v e
à§Ł à¦²
à¦°à¦ķ à¦Ł
Ġà¦¶à¦° à§İ
à¦ķ à¦ĸ
Ġà¦¦ à¦ĩ
à¦ĵ à¦¤
à§ľ à¦¨
Ġà¦§à¦° à¦Ľ
-- -
à¦¼à§ĩ âĢĶ
à¦°à¦¬ à¦£
à¦ħà¦¤ à¦ıà¦¬
à¦¤à¦° à¦ķ
Ġà¦¸à¦¹ à¦ķà¦°
à¦¯ à¦°à¦¸
à¦£ à¦ª
Ġà¦¶ à¦®
Ġà¦ķ à§ľ
Ġà¦ª à¦¹
Ġà¦§ à¦¡
Ġà¦Ĩà¦¨ à¦Ľ
Ġà¦ľà¦² à¦§
Ġà¦¬à¦ĩ à¦Ľ
Ġ in
Ġà¦Ĺ à¦¹à¦¨
à¦¬à¦° à¦²
Ġà¦ľà¦¨ à¦Ĺà¦£
à¦¤à¦ĸà¦¨ à¦ĩ
Ġ and
à¦¯ à¦ŀ
Ġà¦¨ à¦®à¦¸
Ġà¦® à¦ľà¦¬
à¦Ĺ à¦®à¦¨
à¦¼ :
Ġà¦ļà¦² à¦®
Ġà¦ĺà¦Ł à¦¬
Ġ n
Ġà¦¦ à¦£
à¦« à¦¸
à¦Ĩ à¦¦
Ġà¦ħà¦¬ à¦ļ
à¦ķ à¦®à¦¤
à¦¶ à¦Ĺà¦¤
Ġà¦° à¦ľà¦¨
Ġà¦Ľ à¦¦
à¦ī à¦ªà¦¸
à¦¨à¦¤ à¦®
à¦°à¦¶ à¦¸
* *
à¦¤ à¦²à¦¤
Ġà¦® à¦¥
Ġà¦ĸ à¦¨
à¦ Ī
à¦¬ à§İ
à¦® à¦ļà¦¨
Ġà¦¦ à¦¸
à¦ĸ à¦ļ
à§Ł à¦¸
Ġà¦ĵ à¦¸
Ġà¦Ī à¦¦
à¦¡ à¦Ĺ
à§Ł à¦°
à§Ł à¦¦
Ġà¦Ĩà¦¸ à¦°
à¦¬à¦² à¦®
Ġà¦ªà¦¥ à¦ª
à¦¦à¦° à¦ľ
Ġà¦ªà§ľ à¦¬
Ġà¦¹à¦¤à¦Ń à¦®
à¦° à¦¸à¦¬
Ġà¦¸ à¦¡
Ġà¦Ľ à¦²à¦Ľà¦²
Ġ l
à§Ł à¦¬à¦¦
à¦Ŀ à¦¨
Ġ à§§
à¦ķ à¦¯
à¦Ĺ à¦ª
Ġà¦ĩà¦¨ à¦¸
à¦§ à¦²
Ġà¦Ľ à¦¤
Ġà¦ī à¦§
à§ľ à¦Ľ
à¦°à¦® à¦¹
Ġà¦¸ à¦¦à¦°
à¦ªà¦Ł à¦ª
à¦° à¦ŀ
Ġà¦¨ à¦Ĺ
à¦Ľ à¦¡
Ġà¦ĵ à¦ľà¦¨
à¦°à¦£ à¦¨
Ġà¦Ł à¦²à¦®à¦²
à¦¨à¦ĵ à¦¦
Ġ I
Ġà¦¬ à§İà¦¸à¦°
à¦ª à¦ª
à¦ĺ à¦ķ
à§ĭà¥¤ âĢĻ
Â Ń
Ġà¦¬ à¦Łà¦¬
Ġà¦ıà¦ķ à¦ľ
à¦°à¦¤ à¦²
Ġà¦ªà¦° à¦ĵ
âĢĻ âĢĶ
Ġà¦¬à¦ĩ à¦¤
Ġà§§à§¯ à§«
à§ĭ :
Ġà¦¨ à¦ĸ
à¦Ĺ à¦ŀ
à¦¥ à¦ª
à¦Ĩ à¦Ļ
à¦¼à¥¤ âĢĻ
à¦¨ à¦ĸ
à¦¡ à¦ª
Ġà¦¸à¦° à¦²à¦¤
Ġà¦ĭ à¦¦
Ġà¦¤à¦¤ à¦Ł
à§Ĥ à¦ģ
à¦ī à§İà¦¸à¦¬
Ġà¦Ĩà¦¶ à¦ª
à¦¾âĢĶ âĢľ
Ġà§§à§¯à§Ń à§§
à¦¬ à¦ļà¦¨
à¦¸ à¦¹à¦¸
Ġà¦ľà¦¨ à¦Ĺ
Ġà¦īà§İ à¦¸à¦°
Ġà¦Ī à¦°
o t
à¦¸ à¦¯
à¦Ł à¦Ń
Ġà¦Ľ à¦²à¦¨
Ġà¦¨ à¦¥
à¦ĩ à¦¸à¦¬
à¦Ĺ à¦¯
à¦¹ à§Ł
Ġà¦ıà¦ķ à¦°à¦ķà¦®
Ġà¦ľà¦² à¦ª
Ġà¦ĺà¦Ł à¦¤
Ġ à§«
à§ĭ ?âĢĻ
à¦Ľ à¦ķ
Ġà¦¦ à¦¹à¦¨
à¦Ĥ ,
Ġà¦ªà¦° à¦ªà¦°
Ġà¦ľà¦¨ à¦ª
Ġà¦®à¦¹ à¦°
à¦§à¦¨ à¦ķ
Ġà¦ķà¦² à¦ķà¦²
, âĢĻ
à¦¨ à¦¸à¦®
Ġà¦¶ à¦ĸ
à§§à§ ¯
Ġt h
à¦¯ à¦²
à¦¸ à¦ĸ
à¦¸ à¦Ĺ
r a
à¦Ł à¦ĩ
à¦¡ à¦Ł
Ġà¦¯ à¦¶
Ġà¦ķà¦¤ à¦Ĺ
Ġà¦¸à¦« à¦²à¦¤
à¦² à¦®à¦¨
à¦¬ à¦Ļ
à¦· à¦ķà¦°
Ġà¦Ĺ à¦¯
âĢĿ âĢĶ
à¦ķà¦Ł à¦ķ
Ġà¦ľà¦² à¦ľ
à¦¿à¦Ĥ à¥¤
à¦ıà¦ķ à¦ĩ
à¦ľ à¦¡
à¦¤ à¦§
à¦ľ à¦ķà¦°
à¦¬à¦¨ à¦§
Ġà¦¸à¦¬ à¦Ł
Ġà¦¡ à¦Ĺ
Ġà¦ħà¦² à¦Ļ
Ġà¦ķ à¦¨à¦¸
à¦¼à§ĩ ?
à¦ļ à§Łà¦¤
Ġà¦² à¦¬à¦£
Ġà¦ªà¦° à¦²
à¦¬ à¦¬à¦°
Ġà¦¨ à¦¬à¦¦
à¦ĩ à¦ĩ
Ġà¦ı à¦ľ
à¦¹ à§Łà¦¤
Ġà¦¨à§Ł à¦¨
o l
Ġà¦¨ à¦ķà¦²
à¦ī à¦ª
Ġà¦ĩ à¦¦
Ġà¦¯à¦ĸà¦¨ à¦ĩ
Ġà¦Ńà¦° à¦ª
Ġà¦¬à¦¹ à¦®
à¦¾! âĢĻ
Ġà¦ĸà¦¬à¦° à¦Ł
al l
à¦® à¦¹à¦¤
à¦¶ à¦ĵ
à¦Ĺ à§ľ
à¦· à¦ľ
Ġà¦Ł à¦²
s t
à¦Ĩ à¦¸à¦²
à¦ĺ à¦¡
Ġà¦ħà¦ª à¦¬
Ġà¦· à¦¡
Ġ M
à¦² à¦Ļ
Ġà¦§ à¦¨à¦¤
à¦ľà¦¨ à¦ĩ
ĠĠĊ Ġ
à§° à¦¤
à¦¨ à¦¶à¦¨
à¦ķ à¦®à¦²
Ġà¦¸ à¦¯à¦¤
à¦Ł à¦¹
e l
Ġà¦®à¦¹ à§İ
Ġà§§à§ ©
à¦ĭ à¦·
Ġ à§ª
Ġà¦¤ à¦¦à¦¨
à¦§ à¦¦
Ġà¦ĵ à¦¹
Ġà¦ªà¦¥ à¦Ł
à¦°à¦² à¦¯
à¦ľà¦Ĺ à§İ
Ġ A
à¦· à¦Ļ
Ġà¦ķà¦° à¦£
Ġà¦¸à¦¹ à¦ª
à¦® à¦®à¦¤
à¦· à¦ĵ
à¦£ à¦¯
à§ĩà¥¤ à¥¤
Ġà¦¤ à¦«
à¦§ à¦¸
Ġà¦īà¦ª à¦ľ
Ġà¦¤à¦°à¦« à¦¦
à§į -
à¦® à¦«
à§ĭ âĢĻ
Ġà¦Ĩ à¦ŀ
Ġà¦¨ à¦°à¦ķ
à¦¶ à¦Ļ
à¦ļ à¦ľà¦¨
à¦ł à¦°
à¦¬à¦² à¦²
à¦ħ à¦®à¦²
Ġà¦īà¦ª à¦ķà¦°à¦£
en t
e t
à¦® à§ľ
Ġà¦ıà¦ķ à¦¯
à¦°à¦¬ à¦§
Ġà¦®à¦¤ à¦ĩ
à§° à¦¹
Ġà¦¤à¦¤ à¦¦
à¦ľ à¦ªà¦¥
à¦¯ à¦¬à¦°
à¦® à¦ķà¦°
Ġà¦ĵ à¦Ń
Ġà¦ĺ à¦·
Ġà¦ħà¦¸ à¦Ń
à¦®à¦£ à¦¦
à§§à§ ¦
u t
à¦¹ à¦¨à¦¬
Ġà¦ĩ à¦īà¦°
à¦ĺ à¦Ł
Ġà¦¸à¦¹ à¦ķ
Ġ P
à¦¿ '
à¦¼ à§ģ,
Ġà¦Ĩ à¦ĩà¦¡
à¦ª à¦Ļ
à¦£ à¦¸
Ġà¦¬à¦° à¦ŀ
Ġà¦Ĺà¦£ à¦®
Ġt o
à¦¾ )
à§ĩ à¦¾à¦ģ
Ġà¦¬ à¦®
Ġà¦¸ à¦«à¦°
Ġà¦ª à¦¤à¦¨
à¦¥ à¦¹
à¦¼à¦¾ !
Ġà¦² à¦£
Ġà¦Ŀ à¦Ł
Ġà¦ħà¦ªà¦° à¦ķ
i l
à¦¸ à¦ªà¦¤
à¦£ à¦Ĺà¦¤
à¦®à¦¨ à¦Ł
Ġà¦Ŀ à¦°à¦Ľ
à¦Ĳ à¦¤
à¦¤ à¦¯
à¦¬ à¦¹à¦¨
à¦ł à¦ķà¦ķ
à¦ªà¦° à¦®
à¦« à¦¨
à§¦ à§¦
à¦¨ à¦¬à¦°
à¦ª à¦ŀ
à§Ģ ?âĢĻ
Ġà¦ļ à¦£
Ġà¦ĸ à¦Ł
à¦Ĩ à¦Ľ
à¦Ĩ à¦¡
Ġà¦īà¦ª à¦®
Ġ .
Ġà¦¹ à¦¤à¦¬
à¦§ à¦ķà¦¤
à¦¹ à¦Ł
Ġà¦¥ à¦°
Ġà¦¸à¦® à¦·
ĠâĢ ¦
à¦¬à¦¨ à¦¬
à§ľ à¦²
Ġà¦¬à¦¨ à¦Ń
à¦¤ à¦ªà¦ķ
à¦¦ à¦®à¦¯
Ġà¦® à¦¶à¦²
à¦ª à¦ĵ
Ġà¦¥ à¦²
à§ĩ )
à§į !
à¦¨ à¦¤à¦°
à¦¯ à¦ļ
Ġà¦ķ à¦¤à¦¬
à¦¬à¦² à¦ĩ
à¦Ĺà¦ľ à¦ªà¦¤
ÂłÂłÂłÂłÂłÂłÂłÂł Âł
Ġ B
à¦¼ âĢ¦
à¦® à¦ĸ
Ġà¦¹ à¦ĩà¦¬
à¦Ĺ à¦¬à¦¤
Ġà¦Ĺ à¦£à¦¤
à¦ħ à¦«
Ġà¦¨ à¦ĵ
Ġà¦¦ à¦°à¦¬
à¦§ à¦¶
à¦¥ à¦ķà¦¤
Ġà¦Ń à¦Ł
Ġà¦ªà¦¦ à¦§
Ġà¦Ĩà¦« à¦¸
à§ģ âĢĵ
Ġà¦¦ à¦®à¦ķ
à¦¡ à¦®
à¦¡ à¦¸
à¦²à¦ķ à¦£
à§Ŀ à¦¤
Ġ /
Ġà¦ª à¦ļ
Ġà¦Ĩ à¦·
Ġà¦« à¦¡
Ġà¦ĺ à§ľ
Ġà¦¡ à¦²
Ġà¦®à¦¤ à¦¬
à¦ħ à¦°à¦£
Ġà¦ľà¦² à¦¦
Ġà¦ĺà¦Ł à¦Ľ
à¦¨ à§Ł
à¦ĸ à¦®
à¦· à§İ
à¦Ĺà¦ľ à¦Ł
Ġà¦® à¦°à¦¤
Ġà¦ħ à¦Ŀ
Ġà¦ħ à§Łà¦¨
à¦ľà¦¨ à¦¨
à¦Ĩ à¦ĩà¦¨
à§ĭ, âĢĿ
Ġà§§à§¯à§« à§¨
_ _
à¦ĩ à¦Ĺ
Ġà¦¤ à¦®
Ġà¦ı à¦ĵ
à¦°à¦¤ à¦¨
Ġà¦ıà¦ĩ à¦¬
Ġà¦Ĩà¦² à¦Ĺ
Ġà¦ľà¦¨ à¦ªà¦¦
Ġà§§à§ ¦
Ġ S
Ġà¦® à¦°à¦®
à¦ĩ à¦¹
à¦¶ à¦ªà¦¥
à¦ĸ à¦®à¦¯
à¦¥ à¦¸
à¦« à¦¡
Ġà¦®à¦¹ à¦¤
u n
à¦¼à§ĩ ;
Ġà¦ī à¦ĩà¦²
à¦¯à¦¬ à¦§
à¦ Ĭ
Ġà¦¦ à§Ł
à¦¹ à¦ĩ
à¦£ à¦Ł
à¦Ń à¦°à¦¶
Ġà¦ħà¦Ń à¦¯
Ġ is
à¦¨ à¦¡
à¦¼ à§Ģ,
Ġà¦¹à¦² à¦¦
à¦ĥ ,
ÂłÂłÂłÂł ÂłÂł
a y
Ġ e
à¦¼ à§Ģà¥¤
Ġà¦¨ à¦Ń
Ġà¦¨ à¦¬à¦ķ
à¦¨ à¦®à¦¨
à¦¤ à¦¥
à¦¯ à¦ľà¦¨
à¦¸ à¦ľ
à¦¶ à§Ł
Ġà¦Ĺ à¦ł
à¦Ĥ à¥¤
à¦ī à¦¶à¦¨
Ġà¦ıà¦ĸà¦¨ à¦ķ
Ġà¦®à¦¹ à¦²
Ġà¦ķà¦ĸà¦¨ à¦ĩ
à¦®à¦¬ à¦Ļ
à¦ļà§Ł à¦ĩ
Ġà¦¸ à¦ĩ
à¦¶ à¦Ń
à¦£ à¦ļ
Ġà¦®à¦¨ à¦¨à¦¶
Ġà¦¡ à¦ķ
Ġ à§Ń
à¦ķ à¦°à¦¬
à¦Ł à¦¬à¦²
à¦ª à¦¶à¦¨
Ġà¦ħ à¦¡
à¦ĵ à¦Ł
à¦¤à¦° à¦ĩ
à¦ħ à¦Ļ
Ġà¦¸à¦ķà¦² à¦ķ
à¦¾ âĢ¦âĢĿ
à¦Ł à¦ĵ
à¦Ļ à¦°
à¦Ŀ à¦ªà¦¥
à¦·à¦£ à¦¸
à¦ħ à¦¥
à¦¦à¦¨ à¦¶
à¦²à¦¨ à¦®
à¦°à¦ªà¦° à¦ĵ
à¦ĩ à¦°à¦ķà¦®
Ġà¦¤ à¦°à¦ķ
Ġà¦² à¦¬
Ġà¦Ĩà¦Ĺ à¦²
ÂłÂłÂłÂł Âł
ÂłÂłÂłÂł ÂłÂłÂł
Ġà¦ķà¦¨ à¦«
à¦² à¦¶
à¦² à¦¡
Ġà¦² à¦ĺ
Ġà¦¸à¦® à¦ķ
à¦ı à¦ķà¦¤
Ġà¦ĩ à¦°
à¦Ĺà¦² à¦Ł
à§ĩâĢĶ âĢĺ
Ġà¦¶à¦°à§İ à¦ļà¦¨
i g
à§ĩ à¦Ĥ
à¦¯ à¦®à¦¨à¦¸
Ġà¦ħ à¦°à¦¬
Ġà¦ħ à¦ĸà¦£
à§ľ à¦¬
à¦¼à§ĩ !
Ġà¦ļ à¦¬
Ġà¦« à¦£
Ġà¦īà§İ à¦ķà¦£
Ġà¦¬à¦ī à¦®
à§į ,
Ġà¦ķ à¦¸
Ġà¦¸ à¦¯
à¦§ à¦ĩ
Ġà¦ļ à¦ĵà¦¡
Ġà¦² à¦Ĺ
Ġà¦ķà¦² à¦¸
à§ĩâĢ¦ âĢĿ
à¦° à¦¡
à¦° à¦ĸà¦°
à¦¶ à¦«
à¦¹ à¦£
Ġà¦ī à¦Ńà§Ł
Ġà¦ħà¦¬ à¦ľ
âĢĵ âĢĵ
Ġà¦¤à¦ĸà¦¨ à¦ķ
à¦¬à¦ķ à¦¦
à¤ ¾
à¦Ĺ à¦ĵ
à¦¹ à¦Ļ
Ġà¦ªà¦° à¦¬
à¦ªà¦° à¦ķ
à¦°à¦¹ à¦¸
Ġà¦īà¦ª à¦¤
Ġà¦ħà¦¬à¦¨ à¦¤
Ġà¦Ķ à¦ªà¦¨
à§ģ ;
à¦¼ à§ĭà¥¤
à¦ĸ à¦¦
à¦Ń à¦Ł
Ġà¦² à¦°
Ġà¦ıà¦ķà¦ľà¦¨ à¦ķ
à¦¸à¦ķ à¦·
, -
u r
æ Ń
Ġ re
à§ĩ âĢĿà¥¤
à¦® à¦ļà¦°
à¦Ł à¦ĵà§Ł
Ġà¦¨ à¦¸
Ġà¦¦ à¦°à¦¦
à¦Ĺ à¦Ļ
à¦£ à¦ªà¦£
à¦Ļ à¦¬
à¦ªà¦° à¦¦
Ġà¦¸à¦¬ à¦ľ
à§ĭâĢĶ âĢľ
Ġà¦ľà§Ł à¦Ĺ
à¦¾à¦ĥ ,
æŃ ĵ
á ĥ
à¦¸ à¦ļ
à¦Ĺ à¦¬à¦¨
Ġà¦ľ à¦®à¦¤
à¦Ŀ à¦°à¦¨
à¦·à¦£ à¦ķ
Ġà¦ĩà¦¨ à¦ľ
ĠÂł ĠÂł
æŃĵ æŃĵ
à¦¼ à§ĭ,
à¦¸ à¦ŀ
à¦¸ à§İ
Ġà¦ı à¦ľà¦¨
à¦§ à¦ĵ
à¦§ à¦Ń
ĠĠ ĠĠ
Ġà¦Ĩà¦® à¦Ĺ
Ġà¦ĵ à¦®
à¦¬à¦¨ à¦®
à¦¬à¦¤ à¦ĩ
à§ĩ! âĢĻ
Ġà¦¶à¦¹à¦° à¦Ł
Ġà¦Ŀà¦¨ à¦Ŀà¦¨
Ġà¦Ĩà¦ĸ à¦¡
à¦¨ à¦·
à¦¯ à¦ķà¦²
à¦¼ ?âĢĿ
à¥ į
à¦ª à¦Ŀ
Ġà¦¹ à¦¦
Ġà¦¤ à¦Ł
à¦¶ à¦Ľ
à¦ĸ à¦¡
à¦Ń à¦¦
à¦ī à¦Ĺ
à¦ī à¦ªà¦°
à¦°à¦® à¦°
à¦ķà¦° à¦¶
à§§à§ Ń
à¦°à¦¹à¦£ à¦¯
Ġ T
à¦° à¦ļà¦¨
à¦¬ à¦°à¦¬
à¦· à¦ľà¦¨
à¦ļ à¦ĩ
Ġà¦ĵ à¦¨
Ġà¦ľà¦¨ à¦ľ
Ġà¦ĩà¦¤ à¦¸
at ion
à¦¨ à¦Ńà¦°
à¦ĩ à¦ĵ
à¦§ à¦Ľ
à¦£ à¦¹
Ġà¦² à¦Ń
à¦ªà¦° à¦¬à¦°
à¦ħ à¦ľà¦¸
Ġb e
Ġ R
à¦¤ à¦ĸ
à¦¸ à¦°à¦²
à¦ª à¦¤à¦¨
à¦Ĺ à¦ļ
à¦¡ à¦¶
Ġà¦¸à¦® à¦Ŀ
Ġà¦ľà¦² à¦¸
Ġà¦Ī à¦·à§İ
à¦® à¦¹à¦°
à¦°à¦ķ à¦°
à¦¨à¦ķ à¦¥
à¦Ĩà¦ľ à¦ĵ
ÂŃ ÂŃ
o s
à§ĭ âĢ¦âĢĿ
Ġà¦ķ à¦¬à¦²
à¦ª à¦¹
Ġà¦¹ à¦°à¦£
Ġà¦ı à¦¶
à¦ī à¦·
Ġà¦Ł à¦®
à¦¨à¦¬ à¦¦
Ġà¦Ĩà¦¨ à¦®à¦¨
Ġà¦¦à¦® à¦¬à¦¨
c h
à¦° à¦ĺ
à¦¯ à¦§
à¦Ń à¦ľ
à¦¼à¦¾ ?
Ġà¦Ľ à¦ķ
Ġà¦Ĩà¦° à¦ķ
à¦°à¦£ à¦ķ
à¦°à¦® à¦¬à¦°
à¦°à¦¸ à¦®
Ġà¦Ĩà¦¹ à¦¬
à§ Ĺ
à¦° à¦Ŀ
à¦¬ à¦¦à¦²
à¦Ĺ à¦¹
à¦·à¦£ à¦ĩ
Ġà¦Ĳ à¦¨
à¦¾âĢĻ à¥¤
Ġà§§à§¯ à§ª
à¦¸à¦¹ à¦ľ
à§ģ à¥¤âĢĿ
à¦¬ à¦Ĺà¦¤
Ġà¦¤ à¦¸
Ġà¦ı à¦«
à¦¶ à¦¬à¦¨
à¦¡ à¦Ń
Ġà¦¶ à¦°à¦£
Ġà¦ĵ à¦°à¦ķà¦®
à¦ħ à¦¥à¦¬
Ġà¦¦à¦¶ à¦®
à¦¾ âĢĿà¥¤
à¦¼ ?âĢĻ
Ġà¦¹ à¦¨à¦¨
à¦· à¦§
Ġà¦Ń à¦¸
à¦°à¦£ à¦Ł
à¦¬à¦² à¦¬
Ġà¦ľà¦® à¦ľà¦®
à§° à¦ķ
i d
i m
à¦² à¦ªà¦¤
à¦® à¦¹à¦²
Ġà¦ķ à¦¨à¦ķ
Ġà¦¸ à¦ľà¦²
Ġà¦Ĺ à¦ŀ
Ġà¦¸à¦¬ à¦¸à¦®à§Ł
Ġà¦Ĩà¦ķ à¦¬à¦°
à¦¤à¦¬ à¦ķ
à¦°à¦ªà¦° à¦ĩ
Ġà¦Ĭ à¦·
Ġà¦¹à¦ķ à¦ļà¦ķ
à¦¿ âĢ¦âĢĿ
à¦¬ à¦°à¦ķ
à¦¼ à§Ĥ
Ġà¦¬ à¦¬
à¦¦ à¦Ń
Ġà¦¨ à¦ľ
à¦§ à¦°à¦¨
Ġà¦ĸ à¦²
Ġà¦Ĩà¦² à¦¸
Ġà¦Ŀ à¦Ļ
à¦¦à¦° à¦¬à¦¨
à§Ģ ?âĢĿ
Ġà¦Ł à¦ķà¦Łà¦ķ
Ġà¦ļà¦² à¦¨
Ġà¦īà¦¦ à§Ł
à¦¿- -
ĠĠĊĠĠ Ġ
Ġ g
à¦² à¦Ĺà¦°
à¦¹ à¦Ń
à¦Ń à¦¬à¦¨
Ġà¦¬à¦² à¦°
à¦¬à¦° à¦ĩ
à¦ľà¦¸ à¦Ń
c e
i ve
Ġà¦¬ à¦ļà¦¨
à¦ł à¦ª
à¦ĺ à¦¬
Ġà¦ħà¦¬ à§Łà¦¬
à§įâĢĮ à¥¤
Ġà¦¶à¦¤ à¦¬à¦°
o w
Ġ D
Ġ |
Ġ à§¬
à§ĩ à¦ĥ
à¦° à¦ªà¦¤
à¦² à¦¹
à¦¬ à¦¦à¦¨
à¦ļ à¦²à¦¤
à¦¥ à¦Ĺ
Ġà¦ıà¦ķ à¦ļ
Ġà¦« à¦¤
à¦¤à¦° à¦ĵ
à¦¤à¦¨ à¦Ń
Ġà¦īà¦ª à¦²à¦ķ
à¦ĩà¦¨ à¦Ł
à¦®à¦£ à¦¸
à¦° à¦®à¦¨
à¦¤ à¦¬à¦°
Ġà¦Ĩ à¦ªà¦¸
à¦ª à¦ķà¦°
Ġà¦ħ à¦ĺ
à¦Ĥ -
à¦¬à¦¨ à¦ĩ
Ġà¦ıà¦ĩ à¦ľà¦¨
Ġà¦ľà¦¨ à¦ķ
Ġà¦¬à¦ĩ à¦Ĺ
à§§à§ ¨
ÂłÂłÂłÂłÂłÂłÂłÂłÂłÂłÂłÂł ÂłÂłÂł
à¦¤ à¦Ĺà¦¤
à¥¤ âĢĺ
à¦Ł à¦Ĺà¦²
Ġà¦¶ à¦ļ
à¦Ŀ à§ľ
à¦¬à¦° à¦Ł
Ġà¦¬à¦²à¦² à¦¤
à¦¿âĢĶ âĢľ
Ġà¦Ĩà¦¹ à¦®
à¦ħà¦¥ à¦ļ
u s
à§ģ :
à¦¦ à¦¬à¦¦
à¦¶ à¦¶
Ġà¦¯ à¦ķ
Ġà¦ľ à¦ª
Ġà¦ľ à¦ŀ
Ġà¦ļ à¦ķà¦²
âĢĿ âĢĵ
à¦°à¦® à¦¬
Ġà¦ħà¦® à¦°à¦¤
Ġà¦ķà¦¤ à¦ĸ
Ġà¦¬à¦ī à¦¯
Ġà¦ĸà¦¸ à¦ĸà¦¸
a m
ç ľ
à¦¤ à¦Ńà¦°
à¦ķ à¦¤à¦°
Ġà¦ķ à¦ļà¦ķ
Ġà¦ª à¦¬à¦¨
Ġà¦Ĩ à¦¦à¦²
à¦Ľ à¦¦
à¦¶ à¦ľ
à¦¼à§ĩ âĢĵ
Ġà¦¸à¦® à¦¤à¦²
à¦²à¦¨ à¦ķ
Ġà¦¦à¦² à¦ªà¦¤
o d
Ġ C
à§ĩ à§Ĺ
à¦¿ )
à¦¯ à¦ļà¦°
à¦¯ à¦ªà¦Ł
à¦¬ à¦ŀ
à¦¼ !âĢĿ
Ġà¦Ĩ à¦īà¦Ł
Ġà¦® à¦°à¦¬
à¦¥ à¦Ł
à¦¼à¦¾ âĢĵ
Ġà¦Ŀ à¦ŀ
à¦¤à¦¨ à¦¶
Ġà¦Ĺà¦² à¦¦
Ġà¦¸à¦¹ à¦¨à¦¶
à¦ıà¦ķ à¦¸
Ġà¦¨à¦¬ à¦¬à¦°
Ġà§§à§ ®
à¦® à¦°à¦ķ
à¦§ à¦ª
à¦Ļ à¦Ľ
Ġà¦« à¦¨
Ġà¦ĸ à§ľ
Ġà¦¡ à¦°
Ġà¦ĩ à¦ķ
à¦¸à¦¬ à¦¶
Ġà¦īà§İ à¦ªà¦¤
Ġw h
à¦¤ à¦¡
Ġà¦¦ à¦²à¦¬
à¦· à¦¶
à¦§ à¦ķà¦°
à¦¡ à¦¬à¦°
à¦£ à¦ĵ
Ġà¦§ à¦¸
à¦°à¦ľ à¦¬
Ġà¦¬à¦ī à¦ķ
Ġà¦°à¦¸ à¦Ĺ
Ġ à§¯
à¦® à¦ĺ
Ġà¦¸ à¦°à¦¬à¦°
Ġà¦¸ à¦«à¦Ł
Ġà¦Ĩ à¦ªà¦¡
Ġà¦¨ à¦¬à¦¯
à§Ģ à¥¤âĢĿ
Ġà¦° à¦ĺ
Ġà¦ıà¦ķ à¦Ŀ
Ġà¦ĸ à¦ļ
Ġà¦Ĩà¦² à¦ªà¦¨
à§İ à¦¸à¦ķ
Ġà¦ķà¦® à¦¬
Ġà¦Ĺà§ľ à¦¤
Ġà¦ķ à¦¦à¦°
Ġà¦¬ à¦¦à¦¨
à¦ľ à¦¶
Ġà¦ı à¦ŀ
Ġà¦ħ à¦¯à¦¤
à¦ļ à¦¤à¦°
Ġà¦Ń à¦£
Ġà¦ħà¦¬ à¦Ĺ
Ġà¦¬à¦¨ à¦¬
à¦ķà¦² à¦¨
à¦¤à¦¬ à¦¡
à¦ıà¦ĩ à¦¸à¦¬
à¦ªà¦ķ à¦¦
à¦· à¦¹
Ġà¦¶ à¦ª
Ġà¦ī à¦¥à¦²
Ġà¦² à¦ĩà¦¯
Ġà¦ħà¦¨ à¦¡
à¦¬à¦¨ à¦¦
à¦¤à¦° à¦¸
à¦°à¦¬ à¦®à¦¯
à¦ķà¦² à¦ķ
Ġà¦ħà¦ª à¦ļà¦¯
Ġà¦«à¦² à¦¶
à§§ à§§
Ġà¦Ĺà¦£ à¦¨
Ġà¦ĩà¦¸ à¦®à¦¤
ÂłÂłÂłÂłÂłÂłÂłÂłÂłÂłÂłÂł Âł
v er
à¦¹ à¦ª
Ġà¦ļ à¦ª
Ġà¦Ľ à§Ł
Ġà¦ħà¦¨ à¦¸
à¦°à¦£ à¦Ń
à¦Ŀ à¦ŀ
Ġà¦®à¦¤ à¦²à¦¬
Ġà¦ħà¦® à¦Ļ
Ġà¦¸à¦¹ à¦ļà¦°
Ġà¦ķà¦¤ à¦ķà¦Ĺ
à¦ªà¦¦ à¦ķ
à¦ıà¦ķ à¦¸à¦Ļ
Ġà¦¶à¦¤ à¦ªà¦¥
Ġà¦ıà¦ķà¦ĩ à¦Ń
à¦¿! âĢĻ
Ġà§§à§¯ à§¯
u l
Ġ it
à¦¨ à¦®à§Ł
Ġà¦ķ à¦ªà¦Ł
Ġà¦¸ à¦ļà¦²
à¦Ĺ à¦²à¦ķ
Ġà¦¶ à¦°à¦¤
Ġà¦ľ à¦®à¦²
Ġà¦Ń à¦°à¦¦
à¦ĵ à¦ķ
à¦ł à¦¦
Ġà¦ĵ à§ľ
à¦ħ à¦¦à¦®
à¦¨à¦¬ à¦¸
à¦®à¦ķ à¦°à¦£
ÂłÂłÂłÂłÂłÂłÂłÂłÂłÂłÂłÂł ÂłÂł
à¦¿ âĢĿà¥¤
à§ģ âĢ¦
à¦¬ à¦ķà¦Ł
Ġà¦¸ à¦¶à¦¸
Ġà¦¦ à¦²à¦¨
Ġà¦¹ à¦ĩà§Ł
âĢ ķ
à¦¹ à¦ļà¦°
Ġà¦¶ à¦ĵ
Ġà¦² à¦ŀ
à§ĩ, âĢĻ
à¦ī à§ľ
à¦°à¦® à¦¯
à¦Ĺà¦¤ à¦Ń
à¦ĩà¦² à¦Ł
Ġà¦ıà¦®à¦¨ à¦Ł
à§° à¦¬
Ġà¦Ĩà¦¹ à¦°à¦£
ÂłÂłÂłÂłÂłÂłÂłÂł ÂłÂł
ÂłÂłÂłÂłÂłÂłÂłÂł ÂłÂłÂł
Ġà¦°à¦ķà¦® à¦ĩ
Ġà¦ķ à¦¨à¦°
à¦ª à¦²à¦ķ
à¦ĸ à¦ķà¦¦
à¦§ à¦Ĺ
à§Ł à¦ĩ
Ġà¦° à¦ª
à¦ł à¦¬
à¦« à¦¤
à¦ı à¦¨
Ġà¦Ł à¦ª
Ġà¦ķà¦² à¦¹
Ġà¦Ķ à¦°à¦¸
i f
à¦¨ à¦¬à¦¨
à¦® à¦§à¦¨
à¦¦ à¦°à¦®
à¦Ľ à¦¯
Ġà¦¤ à¦¡
à¦ł à¦Ł
Ġà¦ĵ à¦²
Ġà¦« à¦°à¦®
à¦ī à¦ªà¦¨
à¦Ĩ à¦¦à¦°
Ġà¦¸à¦° à¦ŀ
âĢ¦ à¥¤
Ġà¦ķà¦® à¦Ľ
Ġà¦īà§İ à¦ķà¦°
à¦Łà¦¤ à¦ĩ
Ġà¦¹à¦° à¦«
à¦®à¦Ľ à¦®
à¦ľ à¦ķà¦¨
à¦ĸ à¦ª
à¦Ń à§İà¦¸
Ġà¦ıà¦ķ à¦ĺ
Ġà¦ī à¦®
à¦ªà¦° à¦¶
à¦ľà¦¨ à¦¬
à¦« à¦ķ
à¦·à¦£ à¦¶
à¦Ĺà¦¤ à¦ķ
Ġà¦īà¦ª à¦ļ
à¦¿à¦ĥ à¥¤
Ġà¦¬à¦ī à¦Ł
à¤ °
à§ĩ à¥¥
à¦ķ à¦§
à¦ķ à¦°à¦ķ
à¦¬ à¦ķà¦°
à¦¼ âĢĻ
à¦ĵ à¦¹
Ġà¦Ĩà¦® à¦¦
Ġà¦« à¦Łà¦ķ
Ġà¦ħà¦¨ à¦°
à¦°à¦¬ à¦ļ
à¦ı à¦ķà¦²
Ġà¦ĩ à¦¡
Ġà¦ħà¦¬ à¦¯
Ġà¦ļà¦² à¦ļ
Ġà¦ħà¦ª à¦²à¦ķ
Ġà¦ħà¦ļ à¦ŀ
Ġà¦ĩà¦¨ à¦«
Ġth at
Ġ N
Ġ à¥¥
Ġà¦¬ à¦¦à¦®
Ġà¦® à¦Ľ
Ġà¦¯ à¦¤à¦¬
à¦ļ à¦¬à¦°
à¦£ à¦ĩ
Ġà¦ľ à¦Ĺà¦¨
Ġà¦Ń à¦²
à¦Ń à¦Ĺ
à¦Ń à¦²à¦Ń
Ġà¦ī à¦ĩà¦¨
Ġà¦§ à¦ķ
à¦ı à¦®
à¦ķà¦² à¦Ļ
Ġà¦ªà¦¥ à¦ĩ
à¦²à¦ķ à¦¨
à¦¾- -
à¦°à¦®à¦£ à¦ķ
Ġà§§à§ ¨
Ġà¦ħà¦¹ à¦Ļ
à¦°à¦« à¦¤
** **
à¦¥à¦ª à¦°à¦¤
à¦° à¦¦à¦¯
à¦ķ à¦°à¦¤
à¦¯ à¦¸à¦®
Ġà¦® à¦Ĺà¦ľ
à¦Ľ à¦¤à¦²
Ġà¦« à¦¯
Ġà¦Ĩà¦¸ à¦ķ
Ġà¦Ł à¦ķ
Ġà¦ħà¦¬ à¦¸à¦¨
à¦ħ à¦¹
à¦¬à¦® à¦ŀ
. âĢĿ
à¦¤ à¦§à¦¨
à¦ķ à¦Ĩà¦ª
à¦¼à¦¾ à¦Ĥ
Ġà¦« à¦°à¦¸
Ġà¦ĸ à¦¦
Ġà¦ĺà¦° à¦Ĺ
Ġà¦Ńà§Ł à¦Ļ
Ġà¦ľà§Ł à¦§
à¦¦à¦°à¦® à¦¹à¦²
r o
à§į âĢį
à¦¯ à¦Ĺà¦¤
à¦¸ à¦ĺ
à¦¶ à¦§
à§Ł à¦£
Ġà¦ī à¦ĩ
à§Ĥ -
Ġà¦² à¦¸
à¦°à¦£ à¦ĵ
à¦ħ à¦ŀ
Ġà¦ħà¦¸ à§İ
à¦ıà¦ĩ à¦ļ
Ġà¦ķà¦® à¦ª
à§įâĢĮ ,
Ġà§§à§ «
Ġà¦°à¦ĵà¦¶à¦¨ à¦ķ
Ġà¦· à¦·
à¦¬à¦ľ à¦Ĺà¦¤
Ġà¦¶à¦ĵ à¦ķà¦¤
à¦¦ à¦®à¦¨
à¦ª à¦ªà¦¤
à¦ľ à¦¤à¦¨
à¦¶ à¦°à¦¤
à¦¾à¦ģ -
Ġà¦² à¦¹à¦®
à§ĩ, -
Ġà¦§ à¦¬
à¦°à¦® à¦¤
Ġà¦«à¦² à¦¸
à¦¾ '
à¦¨ à¦ªà¦¥
Ġà¦¬ à¦Ĺà¦²
Ġà¦® à¦ķ
à§Ģ âĢĿ
à¦ľ à¦ĸà¦¬à¦°
à¦¶ à¦ļ
à¦ĸ à¦ĩ
à¦ļ à¦Ń
à¦¹ à¦®à¦¯
à¦£ à¦®à¦¯
Ġà¦ıà¦ķ à¦«
Ġà¦ıà¦ķ à¦¤à¦²
Ġà¦Ľ à¦®à¦Ľà¦®
Ġà¦ĺ à¦°à¦¬
à¦°à¦£ à§Ł
Ġà¦¬à¦²à¦² à¦ķ
Ġà¦Ĩà¦¸ à¦®
Ġà¦īà¦ª à¦¬
Ġà¦ħà¦¶ à¦°
l y
à¦° à¦ªà¦¥
à¦ķ à¦¸à¦Ļ
Ġà¦¬ à¦¤
Ġà¦¬ à¦¹à¦°
à¦§ à¦¹à§Ł
Ġà¦ľ à¦¸
Ġà¦ıà¦ķ à¦¨
Ġà¦« à¦ľà¦²
Ġà¦Ł à¦ªà¦ķ
Ġà¦Ĩà¦Ĺ à¦¨
à¦¦à¦¨ à¦ķ
à¦¨à¦ĵ à¦°à¦ķà¦®
à¦¿âĢĻ à¥¤
Ġà¦¹à¦ĩ à¦ļà¦ĩ
h a
Ġ à§®
à¦² à¦ĺ
à¦¯ à¦¬à¦¨
à¦¼ à¦ĥ
Ġà¦¤ à¦°à¦¬
Ġà¦ı à¦£
Ġà¦ħ à¦¯à¦¥
Ġà¦ıà¦ķ à¦¸à¦®à§Ł
Ġà¦ī à¦¹
Ġà¦®à¦¨ à¦®
à¦°à¦£ à¦Ĺ
à¦¤à¦° à¦ª
Ġà¦Ĩà¦² à¦«
à¦¸à¦¬ à¦ĸ
à¦¯à¦¬ à¦¯
à¦¨à¦ĵ à¦Ń
Ġà¦ıà¦¤ à¦Ĺ
à¦ĩà¦¨ à¦Ĺ
Ġà¦¯à¦¤ à¦ĸ
Ġn ot
i r
Ġ =
à¦ª à¦Ń
à¦ľ à¦Ń
Ġà¦ı à§ľ
à¦· à¦°à¦¤
à¦¥ à¦ĩ
Ġà¦ľ à§Łà¦¨
Ġà¦° à¦Ł
à¦ľà¦¨ à¦¦
à¦°à¦¬ à¦ķ
à¦°à¦¬ à¦¦
à¦¬à¦° à¦¹
âĢĵ âĢĻ
à¦°à¦² à§Ł
à¦¨à¦Ł à¦¨
à¦Ŀà¦² à¦®à¦²
c i
Ġ H
à¦¬ à¦®à¦¯
à¦¬ à¦¸à¦®
à¦¬ à¦¶à¦ķ
Ġà¦ķ à¦®à¦¤
Ġà¦ª à¦Łà¦²
Ġà¦® à¦ł
à¦ª à¦ĸ
Ġà¦ı à¦·
Ġà¦ħ à¦¹à¦¨
à¦ļ à¦ŀ
à¦£ à¦¶
Ġà¦Ń à¦ľ
à¦ĵ à§ľ
Ġà¦Ĩà¦° à¦¶
Ġà¦ĸ à¦¤
à¦¾, âĢĻ
à¦°à¦ķ à¦¨
Ġà¦ħà¦¸ à¦¨
à¦¨à¦¬ à¦¸à¦®
Ġà¦īà¦¦ à¦Ĺ
Ġà¦ıà¦®à¦¨ à¦ĵ
Ġà¦īà¦¤ à¦Ļ
Ġà¦īà§İ à¦ķ
Ġà¦ħà¦ķ à¦ªà¦Ł
à§§à§ ¬
à¦Ĺà¦® à¦ŀ
à¦¾âĢĻ ,
it y
... âĢĿ
ay a
Ġà¦§à¦¬ à¦§à¦¬
! !
; -
a d
à¦¨ à¦«
à¦¦ à¦ªà¦¤
à¦ĩ à¦¨à¦¬
à¦§ à¦¹
Ġà¦¯ à¦¬à¦¨
Ġà¦ľ à¦²à¦ķ
à¦ĺ à¦¤à¦®
Ġà¦ľà¦² à¦¦à¦¸
à¦§à¦¨ à¦¹
Ġf or
e m
à¦¤ à¦«
à¦² à¦Ŀ
à¦® à¦Ļ
à¦® à¦ķà¦²
à¦® à¦Ĺà¦¤
Ġà¦Ĩ à¦ĩà¦¸
à¦ļ à¦ª
Ġà¦° à¦ļà¦¯
Ġà¦ıà¦ĩ à¦®
à¦Ŀ à¦Ľ
âĢĿ ,
à¦¬à¦° à¦ª
Ġà¦¬à¦° à¦·
âĢ¦ âĢĻ
Ġà¦ªà¦¦ à¦¬
Ġà¦ªà¦Ł à¦ļ
e ct
à¦¾ à§ĩ
à¦¸ à¦®à¦¤
à¦¦ à¦°à¦¬
Ġà¦® à§Łà¦²
à¦Ľ à§ľ
Ġà¦¦ à¦ª
Ġà¦¹ à¦®
Ġà¦ħ à¦ĸ
à¦¥ à¦ªà¦°
à¦¤à¦° à¦¬
à¦Ĩ à§Ł
à¦Ĩ à¦ļà¦°à¦£
Ġà¦Ł à¦¯
Ġà¦Ĩà¦ľ à¦¬
Ġà¦ħà¦¸ à¦®à¦¯
Ġà¦ķà¦¤ à¦ĩ
Ġà¦ħà¦ªà¦° à¦¦
à§įâĢĮ -
à¤ ¤
es s
Ġ Ñ
à¦¬ à¦ī
Ġà¦¬ à¦ķà¦¬
Ġà¦¸ à¦ªà¦ķ
Ġà¦ª à¦¦à¦¯
Ġà¦ª à§Łà¦¸
Ġà¦¨ à¦®à¦¨
Ġà¦® à¦«à¦¸
à¦ĩ à¦ĵà¦¯
à¦¹ à¦¹
Ġà¦ĩ à¦®à¦¨
à¦¶à¦¨ à¦Ł
à¦ıà¦ĩ à¦Ń
à§ģà¥¤ âĢĻ
Ġc on
Ġà¦§à¦¨à¦¤ à¦¨
à¦ķ à§Ł
à¦® à¦ªà¦¨
Ġà¦ĩ à¦¨à¦ķ
à¦ĺ à¦¸
à§ģà¦ģ à¥¤
à¦ħ à¦Łà¦²
à¦²à¦¤ à¦²
Ġà¦ħà¦ķ à¦¥
à§§à§ ©
à§§à§ «
à¦ķà¦ľà¦¨ à¦ķ
ĠM aya
Ġ G
à¦ķ à¦ı
Ġà¦¸ à¦ªà¦¨
Ġà¦® à§Łà¦¦
à¦¶ à¦ķà¦°
Ġà¦° à¦¡
à¦¼à¦¾ âĢĻ
Ġà¦² à¦Ł
à¦Ĩ à¦°à¦ĵ
à§İ à¦ªà¦¤
Ġà¦ĩ à¦ľà¦°
à¦°à¦¶ à¦ķ
à¦®à¦£ à¦°
à¦¨à¦¦ à¦£
Ġà¦¤à¦² à¦¦
Ġà¦Ĺà§ľ à¦¬
Ġà¦ıà¦¨ à¦ľ
à¦ıà¦ĸà¦¨ à¦ĩ
Ġà¦ľà¦Ĺ à¦¦
à¦¤ à¦ľà¦¨
à¦¯ à¦Łà¦ķ
à¦® à¦®à¦°
à¦ľ à¦¹
Ġà¦ı à¦Ĩà¦ĩ
à¦ĸ à¦ķà¦°
à¦¡ à¦īà¦ĩ
à¦¹ à¦ķà¦°
Ġà¦ıà¦ķ à¦Ń
Ġà¦ī à¦¥
Ġà¦« à¦²à¦¨
à¦¾à¥¤ à¥¤
à¦ĺ à¦¬à¦¦
à¦ħ à¦¬à¦¸
Ġà¦ĵà¦ł à¦²
Ġà¦īà¦¦ à¦ĺ
Ġà¦Ĩà¦§ à¦ĸ
à¦¼à§ģ à¥¤
Ġà§§à§ Ń
Ġà¦¶à¦¹ à¦°à¦¤à¦²
Ġà§§à§¯ à§®
he r
Ġà¦Ķ à¦¦
à¦² à¦¥
à¦¯ à¦®à¦¨
Ġà¦ª à§°
à¦ļ à¦Ĺ
à¦£ à¦§
Ġà¦ľ à¦¹
à¦ı à¦«
Ġà¦¸à¦¬ à¦²
Ġà¦Ŀ à¦Łà¦ķ
à¦¨à¦¤ à¦²
à¦ħ à¦®à¦¨
Ġà¦ľà¦® à¦Ľ
à¦Łà¦¬ à¦ĩ
à¤ ¿
à¦¿âĢĻ ,
à¦·à§Ł à¦ķ
is t
à¦Ĳ à¦ķ
Ġà¦Ķ à¦·à¦§
a g
n d
u re
à§ĩ /
Ġà¦ķ à¦¦à¦¬
Ġà¦Ĩ à¦ĩà¦²
Ġà¦¨ à¦¬à¦°
Ġà¦¨ à¦¬à¦¬
à¦¡ à¦«
à¦°à¦¤ à¦ķ
Ġà¦¸à¦¬ à¦ĸ
Ġà¦¬à¦²à¦² à¦Ĩà¦®
Ġà¦Ĩà¦Ľ à§ľ
Ġà¦ľà¦¨ à¦¸à¦®
à¦°à¦¥à¦® à¦Ł
à¦¨à¦ĵ à¦Ł
Ġà¦ħà¦§ à¦®
à¦°à¦®à¦¶ à¦ĩ
Ġà§¨ à§§
Ġà¦¦à¦Ĺ à¦¦à¦Ĺ
à¦®à¦¸à¦® à¦°
à¦° à¦ĵà¦¯
à¦® à¦īà¦¦
à¥¤ '
à¦ľ à§ľ
Ġà¦ħ à¦ķà¦²
à¦ĸ à¦Ń
à¦Ĺ à¦Ĺà¦¨
Ġà¦« à¦²à¦¤
ĠâĢ Ŀ
Ġà¦Ł à¦¨à¦Łà¦¨
âĢĻ âĢĵ
à¦ķà¦° à¦¦
à¦¨à¦¬ à¦ķ
à¦¾à¦Ĥ ,
à§° à¦¸
Ġà¦¨à¦¬ à¦®
Ġà¦ļà¦Ł à¦ªà¦Ł
Ġà¦ĸà¦¸ à¦¡
Ġ y
à¦² à¦§
à¦ª à¦¬à¦¯
Ġà¦¹ à¦ľà¦®
à¦§ à¦°à¦£
à¦¥ à¦¯
Ġà¦ļ à¦Łà¦ķ
Ġà¦² à¦ĵ
Ġà¦ĸ à¦¨à¦¨
à¦°à¦£ à¦®à¦¯
Ġà¦Ł à¦¹à¦²
Ġà¦ĩ à¦īà¦Ł
à¦ĺ à¦Ĺ
à¦ĺ à§ľ
à¦°à¦® à¦¥
Ġà¦¬à¦° à¦¦
Ġà¦ľà¦² à¦§à¦°
à¦ªà¦¦ à¦¬
Ġà¦ħà¦ķ à¦¸
Ġà¦ķà¦ĸà¦¨à¦ĵ à¦ĩ
à¦ķà¦ĸà¦¨ à¦ĵ
à¦¬à§Ł à¦¸
à¦Ĭ à¦°
i p
i v
Ø §
Ġ E
Ġ L
à§ģ '
à¦® à¦®à¦¯
à¦® à¦ªà¦¤
Ġà¦ķ à¦ĩà¦°
Ġà¦¸ à¦ľà¦¨
Ġà¦® à¦°à¦²
à¦¶ à¦Ńà¦ķ
à¦ĵ à¦ł
à¦Ń à¦²
Ġà¦ĵ à¦²à¦Ł
à§İ à¦¸à¦²
Ġà¦¸à¦¬ à¦Ĺ
Ġà¦Ł à¦®à¦Ł
âĢ¦ .
Ġà¦īà§İ à¦ªà¦¨
à§§à§ ª
à¦¨à¦¸ à¦ªà¦Ł
Ġà¦Ĺà¦£ à¦ªà¦°
Ġà¦Ńà¦°à¦¤ à¦¬
à¦° à¦ĺà¦°
à¦¨ à¦§
à¦¨ à¦°à¦®
à¦² à¦ķà¦Ł
Ġà¦¬ à¦¦à¦°
Ġà¦¸ à§ľà¦ķ
Ġà¦Ĩ à¦ľà¦¨
Ġà¦¦ à¦ĸ
Ġà¦¦ à§ľ
à¦¶ à¦§à¦°
Ġà¦ħ à¦°à¦¨
à¦· à¦°à¦£
à¦¹ à¦°à¦¨
à¦¥ à¦Ń
à¦Ń à¦°à¦¯
à¦¼à¦¿ âĢĶ
à¦ľà¦¨ à¦ĵ
à¦ı à¦°à¦ªà¦°
Ġà¦Ł à¦¨
Ġà¦Ĩà¦ľ à¦®à¦²
à¦ħ à¦¸à¦®
à¦°à¦¥à¦® à¦¦
à¦¼à§ģ -
à§¨ à§¦
Ġà¦Łà¦² à¦Łà¦²
âĢķ âĢķ
a b
à§ĩ .
à¦¨ à¦ªà¦¤
à¦² à¦§à¦¨
à¦¯ à¦¦à¦²
à¦¬ à§°
Ġà¦¸ à¦Ł
à¦¦ à¦ĺà¦°
Ġà¦¨ à¦°à¦°
Ġà¦¦ à¦¹
Ġà¦¹ à¦ľ
Ġà¦ľ à¦²à¦ķà¦£
Ġà¦ıà¦ķ à¦®à¦¤
Ġà¦§ à§ľ
Ġà¦¸à¦® à¦¬à¦¯
à¦¬à¦¨ à¦¦à¦°
à¦°à¦£ à¦¬
à¦ī à¦¹
Ġà¦¸à¦¬ à¦¥
à¦¬à¦ª à¦¤
Ġà¦ħà¦¬ à¦®
Ġà¦ħà¦ª à¦¸
à¦¼à§ĩà¥¤ âĢĿ
Ġà¦Ĩà¦§ à¦ĺà¦£
Ġà§§à§ ª
Ġà¦¦à¦« à¦¤à¦°
r om
Ġ v
à¦¨ à¦ľà¦¨à¦ķ
à¦¤ à¦ķà¦¤
à¦¯ à¦ªà¦°
à¦¯ à¦§à¦°
à¦¬ à¦īà¦¦
Ġà¦¸ à¦ĩà¦¤
à¦ĸ à¦ĵ
à¦§ à¦Ĺà¦®
Ġà¦Ĺ à¦®à¦¨
à¦£ à¦¶à¦ķ
Ġà¦ĵ à¦¤
Ġà¦« à¦²à¦ķ
Ġà¦§ à¦ª
à¦ľà¦¨ à¦®
à¦®à¦¤ à¦¤
à¦ĩà¦¨ à¦¸
à¦¦à§Ł à¦ķ
Ġà¦¶à¦¤ à¦¦à¦²
Ġà§§à§¯ à§¬
Ġà¦Ĺà¦łà¦¨ à¦®
Ġs t
Ġà¦Ĩà¦ĩ à¦¸à¦ķ
à¦Ī à¦¶
à¦¨ à¦¸à¦¨
à¦¨ à¦ļà¦°
à¦¤ à¦ļà¦°
à§ģ !âĢĿ
à¦¼ âĢĶâĢľ
Ġà¦ķ à¦®à¦¨
Ġà¦¬ à¦°à¦®
à¦¦ à¦§
Ġà¦Ń à¦ľà¦¨
Ġà¦° à¦£à¦ķ
à§ĥ -
Ġà¦ī à¦¬
Ġà¦ĵ à¦¸à¦®
Ġà¦¬à¦² à¦¯
Ġà¦ħà¦¨ à¦Ń
ĠâĢ Ļ
Ġà¦®à¦¨ à¦¤
à¦ī à¦£
à¦°à¦ķ à¦£
à¦°à¦¸ à¦Ń
à¦¦à¦¯ à¦¨
à¦¤à¦² à¦Ł
Ġà¦ªà¦¦ à¦ķà¦°
Ġà¦¨à¦¬ à¦ľà¦¨
æŃĵæŃĵ æŃĵæŃĵ
Ġà¦¦à¦²à¦¬ à¦¦
à¦¡à¦īà¦ĩ à¦ļ
= =
à¦ķ à¦§à¦°
Ġà¦® à¦¸à¦²
à¦ľ à¦ķà¦¤
à¦ĸ à¦ªà¦¤
Ġà¦Ĺ à¦ļ
à¦ĵ à¦ĸ
à¦¾à¦ģ ?
Ġà¦§ à¦®à¦¨
Ġà¦§ à¦¬à¦²
à¦°à¦£ à¦ĩ
Ġà¦Ł à¦¬
Ġà¦¬à¦¸ à¦Ľ
Ġà¦ħà¦¸ à¦¤
Ġà¦Ĩà¦¨ à¦Ĺ
à¦Ĺà¦² à¦ª
à¦ıà¦ĩ à¦Ł
à¦ľà¦² à¦Ń
Ġà¦īà¦² à¦Ļ
Ġà¦§à¦¨ à¦¸à¦®
en d
o p
u p
Ġ on
à¦¬ à¦§à¦°
Ġà¦ķ à¦¶
à¦¸ à¦ł
à¦ª à¦¬à¦¤
à¦ĩ à¦ŀ
à¦ľ à¦¬à¦¨
à¦Ĺ à¦Ńà¦Ļ
Ġà¦§ à¦ķà¦²
Ġà¦ĺ à¦·à¦¤
à¦Ĩ à¦¸à¦¨
à¦ĺ à¦°à¦Ł
à¦·à¦£ à¦®
à¦¤à¦¨ à¦ķ
à¦ħ à¦®à¦°
à¦Ĺà¦¤ à¦®
Ġà¦ħà¦ª à¦Ľà¦¨
à¦¼à§ĭ -
à¦®à¦ķ à¦¥
Ġà¦ħà¦ľ à¦¯
Ġà¦¶à¦¤ à¦ķà¦°
Ġà¦īà§İà¦¸à¦¬ à¦®
à¦ķà¦Ľ à¦Ł
in d
à¦ĭ à¦¤
Ġà§¨à§¦ à§¦
h t
r i
à¦¯ à¦°à¦¶
à¦¯ à¦ªà¦¥
Ġà¦ķ à¦ľà¦¨
Ġà¦¸ à¦°à¦®
à¦¦ à¦®à§Ł
Ġà¦¹ à¦ĩà¦Ľ
à¦¶ à¦¤à¦²
à¦ĸ à¦®à¦£
à¦ļ à¦®à¦ķ
à¦¹ à¦Ĺ
à¦¥ à¦¬à¦¹
à§ĩà¥¤ âĢĺ
Ġà¦ıà¦ķ à¦²à¦¬
à¦¼à¦¾ ;
Ġà¦« à¦¸à¦ķ
Ġà¦ªà¦° à¦ª
à¦ī à§İà¦¸
Ġà¦ķà¦¥ à¦ķ
à¦·à¦£ à¦Ĺ
à¦¨à¦¬ à¦®à¦¨
à¦¨à¦¬ à¦¸à¦Ń
à¦¶à¦¨ à¦ķ
à¤ ¨
à§ĭ! âĢĻ
Ġà¦ħà¦¹ à¦°à¦¹
à¦ĭ à¦£
Ġà¦¨à§ľ à¦¬à§ľ
Ġà§§à§¯à§¯ à§¦
Ġ Ð
à¦® à¦¥
Ġà¦ķ à¦¨à¦Ł
Ġà¦ª à¦ª
à¦Ĺ à¦°à¦®
Ġà¦¯ à¦¤à¦¨
à§Ł à¦Ń
Ġà¦Ĺ à¦«
à¦ĵ à¦ª
Ġà¦ĵ à¦®à¦°
à¦Ĩ à¦Ł
à¦°à¦® à¦ľ
Ġà¦īà¦¤ à¦²
Ġà¦¦à¦² à¦Ł
?âĢĿ âĢĶ
à¦ķà¦¶ à¦ª
is m
Ġà¦®à¦Ĺ à¦§
Ġà¦ķà¦¨à¦ķ à¦¨
Ġà¦¬à¦ķà¦¬ à¦ķ
a c
Ġ an
à§ĩ '
à¦¨ à¦ĺà¦°
à¦¤ à¦®à¦¯
à¦¤ à¦Ŀà¦°
à¦¯ à¦¤à¦°
à§ĭ âĢĿ
Ġà¦¤ à¦¬à¦²
Ġà¦ħ à¦Ĺà¦¤
à¦§ à¦¨à¦¬
Ġà¦¶ à¦Ł
Ġà¦ļ à¦°à¦ķ
à¦Ļ à¦ļ
Ġà¦®à¦¨ à¦ĸ
à¦¼à¥¤ à¥¤
à¦°à¦¦ à¦ķ
Ġà¦¸à¦¹ à¦ľà¦²à¦Ń
à¦ıà¦ĩ à¦¬
Ġà¦Ĳ à¦¤à¦°
à¦®à¦£ à¦ķ
Ġà¦ĵà¦ĩ à¦Ł
Ġà¦¹à¦° à¦·
Ġà¦¬à¦ī à¦°
à¦Ŀà¦° à¦Ŀà¦°
à¤ ķ
à¦ıà¦ĸà¦¨ à¦ĵ
o re
Ġ --
à¦° à¦§à¦°
à¦¯ à¦ĸ
à¦¯ à¦¸à¦¨
à¦¯ à¦ľà¦¨à¦ķ
à¦® à¦·
Ġà¦¸ à§Ł
à¦ª à¦¦à¦°
Ġà¦¦ à¦¨
à¦· à¦¤à¦¬
à¦§ à¦¯
à¦ļ à¦¤à¦²
à¦£ à¦«
Ġà¦ľ à¦¹à¦°
à¦Ļ à¦ķ
Ġà¦« à¦¸
à¦°à¦£ à§Łà¦¨
à¦¤à¦° à¦Ĺ
à¦Ĩ à¦Ń
à¦ı à¦°à¦ĩ
Ġà¦ĩ à¦ĵà¦°
à¦°à¦® à¦§
à¦ħ à¦¤à¦²
Ġà¦ľà¦² à¦ĸ
à§ĩ- --
Ġà¦¬à¦ĩ à¦ķ
!âĢĿ âĢĶ
à§° à¦®
à§§à§ ®
Ġà¦ĸà¦¬à¦° à¦¦
Ġà¦¦à¦¶ à¦ľà¦¨
Ġà¦¯à¦ľ à¦®
à¤ ²
à¦¯à¦ĸà¦¨ à¦ĩ
Ġa s
ÂłÂłÂłÂłÂłÂłÂłÂłÂłÂłÂłÂłÂłÂłÂłÂł Âł
Ġà¦ĸà¦Ł à¦ĸà¦Ł
à¦¿ à¦¾
à¦¨ à¦®à¦¤
à¦ķ à¦®à¦¯
à¦¯ à¦Ŀ
à¦¼ )
Ġà¦¬ à¦Ĺ
Ġà¦¸ à¦ļà¦°
à¦¸ à¦¶
Ġà¦ª à¦łà¦¨
à¦¦ à¦ĸ
à¦ľ à¦ľ
à¦ľ à¦ĸ
Ġà¦¤ à¦°à¦£
à¦· à¦ķà¦¤
à¦ĵ à¦®
Ġà¦ĸ à¦ª
à¦°à¦¬ à¦¸
Ġà¦¬à¦²à¦² à¦¬
à¦ħ à¦¸à¦¹
Ġà¦ħà¦¸ à¦Ļ
à¦ķà¦¤ à¦ķ
à¦§à¦¨ à¦ĩ
Ġà¦ľà¦® à¦¶
Ġà¦ħà¦ľ à¦ª
Ġà¦ķà¦¤ à¦ľà¦¨
Ġà¦¬à¦ĩ à¦®
Ġà¦«à¦² à¦ª
à¦¤à¦® à¦¶
à§ĩ; -
à§° à¦¨
à¦°à¦Ĺ à¦£
Ġà¦īà§ľ à¦¤
it h
u m
Ð ¾
à¦¨ à¦ľà¦°
à¦¨ à¦ľà¦Ł
à¦¤ à¦¸à¦®
à¦® à§İ
à¦® à¦ĵà¦¯
à¦® à¦¶à¦ķ
Ġà¦¬ à§İà¦¸
Ġà¦® à§Ł
à¦ĸ à¦¶
à¦ļ à¦¦
à¦£ à¦¬à¦°
Ġà¦ĸ à¦¯
Ġà¦¸à¦® à¦Ń
à¦¬à¦¨ à¦¸
à¦¤à¦° à¦ķà¦®
à¦ı à¦Ľ
Ġà¦¬à¦²à¦² à¦®
Ġà¦¡ à¦ľà¦¨
Ġà¦¬à¦¨ à¦¸
à¦¸à¦¬ à¦ľ
à¦²à¦ķ à¦§
à¦ıà¦ĩ à¦ĸ
Ġà¦ªà¦¤ à¦Ļ
à¦¬à¦¶ à¦¤
Ġà¦ĭ à¦Ĺà¦¬
Ġà¦ıà¦ķà¦ĩ à¦¸à¦Ļ
à¦łà¦ķ à¦ĸ
an t
Ġ Ø
à§ĩ âĢĻà¥¤
à¦° à¦§à¦¨
à¦¤ à¦ªà¦¨
à¦² à¦ªà¦¥
à¦ķ à¦ļà¦ķ
Ġà¦¬ à¦Ľ
Ġà¦Ĩ à¦ĵà¦¤
Ġà¦ħ à¦ĩ
Ġà¦Ĺ à¦ª
Ġà¦Ĺ à¦°à¦ľ
Ġà¦¶ à¦²
Ġà¦° à¦¸à¦¨
à¦ĵ à¦¬
à¦¤à¦° à¦Ń
à¦Ĩ à¦°à¦ľ
Ġà¦¸à¦¬ à¦¶
à¦¬à¦° à¦Ĺ
à¦ĺ à¦Ľ
à¦¼, âĢĿ
à¦°à¦® à¦ķ
à¦°à¦¸ à¦¹
à¦Ĺà¦² à¦¬
à¦¯à¦¤ à¦ķ
à¦¯à¦¤ à¦ĩ
à¦°à¦² à¦¸
Ġà¦ķà¦¬ à¦ľ
Ġà¦ĩà¦¨ à¦Ń
Ġà¦¸à¦®à§Ł à¦ĩ
er s
à¦Ĩà¦§ à¦Ł
Ġn e
ĠÑ ģ
k e
à¦¤ à¦ªà¦¸
Ġà¦¸ à¦°à¦¤
à¥¤ "
à¦¸ à¦ĵà¦¯
Ġà¦Ĩ à¦ĩà¦Ł
à¦Ł à¦ķà¦°
Ġà¦® à¦ĵà¦²
à¦¡ à¦ķà¦°
à¦¥ à¦ĵ
Ġà¦ľ à¦ĺà¦¨
Ġà¦ıà¦ķ à¦§à¦°à¦¨
à¦¬à¦¨ à¦¬à¦¤
à¦®à¦¨ à¦¨
à¦Ĩ à¦°à¦¬
à¦ı à¦¤à¦¦
Ġà¦Ĩà¦¸ à¦Ĺà¦°
Ġà¦¡ à¦¬à¦²
à¦·à¦£ à¦ĵ
à¦¦à¦° à¦Ł
à¦¿à¦Ĥ âĢĻ
à¦ľà¦² à¦¦
Ġà¦¦à¦² à¦Ĺà¦¤
à§« à§¦
à¦ķà¦¸ à¦ľ
re s
Ġà¦ľà¦¨à¦¸ à¦ļ
Ġh a
il l
ÂŃÂŃ ÂŃÂŃ
o g
º çľ
Ġ 1
à¦² à¦ķà¦°
Ġà¦Ĩ à¦ªà¦¦
Ġà¦Ĩ à¦īà¦²
à¦Ł à¦ļ
Ġà¦® à¦ľà¦²
Ġà¦¤ à§ľ
Ġà¦ļ à¦ªà¦²
Ġà¦Ń à¦¬à¦¤
à§ĩà¥¤ "
à¦Ń à¦Ĺà¦¬
Ġà¦Ĩà¦® à¦¤
Ġà¦¥ à¦¤
à¦« à¦®
à¦« à§ľ
à¦ī à§İà¦¸à¦°
Ġà¦ĩ à¦·
Ġà¦ĩ à¦¨à¦Ł
à¦ħ à¦¯
à¦¨à¦¬ à¦ķà¦²
Ġà¦ħà¦¤ à¦Ł
Ġà¦Ĺà¦Ń à¦°
Ġà¦ıà¦¸à¦¬ à¦ĩ
Ġà¦ļà¦®à¦ķ à¦ª
à¦ľà¦® à¦¹à¦²
à§© à§¦
Ġà¦Ĩà§ľ à¦®
à¦¾à¦ĥ !
à¦¾âĢĿ âĢĶ
Ġà¦Ķ à¦ľ
Ġà¦¸à¦°à¦¸ à¦¤
Ġb y
à§ĩâĢĿ âĢĶ
à¦ķà¦ľ à¦®à¦ķ
ĠĠĠĠ ĠĠĠĠ
Ġà¦Łà¦®à¦Ł à¦®
· çľ
à ¸
Ġ un
à¦² à¦¬à¦°
à¦² à¦ľà¦¯
à¦ķ à¦¸à¦®
à¦¬ à¦¦à¦°
Ġà¦¸ à¦ĵà¦Ĺ
à¦¸ à¦°à¦¸
Ġà¦¨ à¦Ĺà¦£
Ġà¦¨ à¦Ĺà¦¦
Ġà¦ı à¦¹
Ġà¦ķà¦° à¦¨
à§ĩà¥¤ '
Ġà¦ī à¦¸à¦ķ
à§ľ à¦®
Ġà¦ĩ à§Ł
Ġà¦ĩ à¦®à¦ª
à¦¬à¦ª à¦ķ
Ġà¦¬à¦¨ à¦®
Ġà¦ªà¦¥ à¦¹
à¦¤à¦¬ à¦¬
Ġà¦īà¦ª à¦¡
Ġà¦ħà¦§ à¦¸
Ġà¦ħà¦ľ à§Ł
à¦ªà¦¦ à¦¸
Ġà¥¤ à¥¤
Ġà¦ĺà¦¨ à¦ĺà¦¨
à¦Ĺà¦¬ à¦Ĺ
à§« à§Ń
Ġà¦¶à¦¹ à¦°à¦ķ
Ġà§§à§¯ à§¨
Ġà¦Ĩà¦« à¦ľ
es t
Ġà¦¨à¦ľ à¦°à¦¦
ºçľ ºçľ
l d
à¦¨ à¦§à¦°
à¦² à¦ĵà¦¯
à¦² à¦®à¦£
à¦¯ à¦¨à¦¤
à§ģ à§į
à¦¬ à¦ĩà¦¯
Ġà¦¸ à¦°à¦¬
Ġà¦¸ à¦ĵà¦¯
à¥ ĩ
Ġà¦Ĩ à¦¹à¦¸
Ġà¦¹ à¦«à¦®
Ġà¦ı à¦¨à¦ķ
Ġà¦ı à¦¤à¦¬à¦¡
à¦ļ à¦²à¦¬
à¦¹ à¦ľ
Ġà¦Ĩà¦® à¦¬
à¦ł à¦¹
à¦°à¦¤ à¦¬
à¦¤à¦° à¦«
à¦°à¦¬ à¦Ĺ
Ġà¦¡ à¦¯
Ġà¦Ŀ à¦°à¦¤
Ġà¦¢ à¦Ļ
Ġà¦ħà¦¸ à¦¹à¦¯
à¦¬à¦¤ à¦®
à¦¯à¦¤ à¦¦
Ġà¦ıà¦¤ à¦ĸ
à¦ªà¦¦ à¦ª
à¦¬à¦¸ à¦¤
à¦·à¦ķ à¦ķ
à¦¤à¦ķ à¦°à¦£
Ġà¦Ĩà¦¦ à¦¤
à¦¾âĢĻ âĢĶ
âĢĵâĢĵ âĢĵâĢĵ
Ġà¦¸à¦«à¦Ł à¦ĵà¦¯
Ġy ou
·çľ ·çľ
l a
n t
à¦¤ à§ľ
à¦ķ à¦Ŀ
à¦¬ à¦ĸ
à¦¼ âĢĿ
à¦® à¦®à¦¨
Ġà¦¸ à¦Ĺ
à¥ Ģ
Ġà¦Ĩ à§Łà¦¤
Ġà¦Ĩ à¦ĵà¦¡
à¦¦ à¦ľ
à¦¦ à¦°à¦ķ
Ġà¦Ĺ à¦¤à¦°
Ġà¦¶ à¦°à¦¦
Ġà¦ľ à¦ĸà¦®
Ġà¦ıà¦ķ à¦¹
à¦ł à¦Ĺ
Ġà¦ī à¦¤à¦°
Ġà¦² à¦¹
âĢĶ âĢĻ
à¦¼à¦¿ ?
à¦¿à¥¤ à¥¤
à¦®à¦¨ à¦ķ
à¦ŀ à¦ª
à¦¿, âĢĻ
à¦ı à¦®à¦¨à¦ĩ
Ġà¦¬à¦²à¦² à¦Ń
Ġà¦ĩ à¦¬
Ġà¦ĩ à¦¤à¦°
à¦ħ à¦§à¦°
Ġà¦Ĩà¦Ĺ à¦¤
à¦²à¦ķ à¦¦
à¦ªà¦¤ à¦Ļ
Ġà¦ĭ à¦ľ
à¦ķà¦ķ à¦¥
Ġà¦Ńà§Ł à¦ķ
à¦®à¦Ĺ à¦ŀ
Ġà¦Ĺà¦® à¦Ĺà¦®
Ġà§¨ à§«
Ġm an
Ġà¦ªà¦Ļ à¦ķ
Ġà§« à§¦
Ġà¦Ŀà¦Ł à¦ªà¦Ł
Ñ Ĩ
Ġ k
à¦® à¦°à¦¤
Ġà¦¬ à¦°à¦¬
Ġà¦¸ à¦°à¦£
à¦ĩ à¦¸à¦Ļ
à¦Ľ à¦ĩ
Ġà¦¤ à§İ
à¦¶ à¦ĸ
âĢ ī
à¦¡ à¦ļ
Ġà¦¯ à¦®à¦ľ
à¦¥ à¦°à¦Ł
Ġà¦ľ à¦¬à¦°
Ġà¦ľ à¦®à¦ķ
Ġà¦° à¦Ĺ
Ġà¦ĸ à¦°à¦Ĺ
à¦¼à¦¿ !
à¦Ĩ à¦¸à¦¬
âĢĿ -
Ġà¦Ł à¦Ĺà¦¬à¦Ĺ
Ġà¦ľà¦¨ à¦®à¦¤
à¦ĥ âĢĵ
Ġà¦Ĩà¦Ĺ à¦¸
âĢĮ à§į
Ġà¦īà§ľ à¦¨
Ġà§¨ à§¨
Ġo r
Ġà¦Ĩà¦ĩ à¦¶
ic h
Ġà§© à§¦
as s
Ð °
à¦° à¦ļà¦°
à¦¯ à¦®à¦£
à¦® à¦°à¦¨
à¦® à¦ļà¦ķ
Ġà¦¸ à¦¦à¦¯
Ġà¦Ĩ à¦ĩà¦ľ
à¦¦ à¦¬à¦°
à¦Ł à¦°à¦Ĺ
Ġà¦® à¦ĩ
à¦ĩ à¦ħà¦ķ
Ġà¦¹ à¦ĩà¦¨
Ġà¦¤ à§İà¦ª
à¦ļ à¦ķà¦°
à¦¥ à¦¶
Ġà¦¶ à¦°à¦®
Ġà¦° à¦¸à¦¬
à¦Ń à¦®
Ġà¦ī à¦ĩà¦ķ
Ġà¦ĸ à¦Łà¦ķ
à¦ī à¦Ńà¦¯
à¦ı à¦¤à¦ķ
Ġà¦¬à¦²à¦² à¦«
à§Ī -
à¦ħ à¦·
à¦¸à¦¬ à¦ļ
à¦¨à¦¬ à¦¹
à¦§à¦¨ à¦¸à¦Ļ
Ġà¦ķà¦¤ à¦ķà¦Ł
à¦ªà¦¥ à¦Ĺ
Ġà¦ĵà¦ĩ à¦°à¦ķà¦®
à¦ľà¦² à¦°
à¦¢ à¦²
Ġà¦ħà¦² à¦¸à¦¤
à¦Ĩà¦ľ à¦ĩ
à¦īà¦² à¦¦
à¦ľà¦¸ à¦ľ
à¦®à§Ł à¦ķà¦°
Ġà¦Ńà¦Ĺ à¦¬à¦¤
' '
Ġ he
à¦¨ à¦ĺ
à¦¤ à¦¤à¦°
à¦Ł à¦¯
à¦Ľ à¦Ľ
à¦Ľ à¦²à¦¤
Ġà¦ħ à¦¤à¦°
à¦· à¦ªà¦¥
à¦§ à¦ļ
à¦§ à¦¬à¦¦
à¦¡ à¦ľ
à¦¹ à¦¶
à¦¥ à¦¦
à¦ł à¦Ń
Ġà¦ī à¦ĩà¦¶
à¦¬à¦¨ à¦ªà¦¥
âĢĻ !
Ġà¦ĩ à¦Ľ
Ġà¦Ŀ à¦ª
à¦ħ à¦Ł
Ġà¦Ĺà¦² à¦¤
à¦ķà¦Ł à¦¬à¦°
Ġà¦ľà¦² à¦Ľà¦¬
à¦°à¦¹ à¦¨
à¦¨à¦ĵ à¦®à¦¤
à¦°à¦¦ à¦¤
à¦ıà¦ķ à¦®
Ġà¦¬à¦ĩ à¦ĸ
à¦¤à¦ķ à¦¡
à¦°à¦ļ à¦²à¦¨
Ġà¦¬à¦Ł à¦¤à¦²
Ġà§§à§¯ à§©
ar t
s e
Ġ W
Ġ __
à¦¤ à¦¤à¦¨
à¦ķ à¦Ńà¦°
à¦¬ à¦ľà¦Ĺà§İ
à§ĭ à¦ĥ
Ġà¦¸ à¦²à¦ľ
Ġà¦¨ à¦¬à¦¨
Ġà¦¨ à¦°à¦¨
Ġà¦® à¦Ł
à¦ĩ à¦ıà¦°
Ġà¦¦ à¦ªà¦¦à¦ª
Ġà¦ı à¦¨à¦°
à¦ĸ à§ľ
à¦¡ à¦¹
à¦ļ à¦£
à¦£ à¦ļà¦¨
à¦£ à¦¸à¦®
Ġà¦Ń à¦°à¦²
Ġà¦ī à¦¸
Ġà¦ĸ à¦¤à¦®
à¦°à¦¤ à¦¤
Ġà¦®à¦¨ à¦ĵ
à¦« à¦ª
Ġà¦ĩ à¦Ń
à¦¤à¦¨ à¦ĩ
Ġà¦ªà¦¥ à¦ĺ
Ġà¦ľà¦² à¦°à¦Ļ
Ġà¦īà¦ª à¦ªà¦¤
à¦¨à¦ĵ à¦ķ
Ġà¦ħà¦ª à¦¦
Ġà¦¬à¦Ľà¦° à¦ĸ
Ġà¦¬à¦ĩ à¦ªà¦¤
à¦·à¦¤ à¦Ĺ
à¦¤à¦ķ à¦£
à¦¶à¦ķ à¦¦
Ġà¦īà¦ªà¦° à¦¨
à¦°à¦ľà¦¨ à¦¨
à¦¥à¦° à¦Ĺ
Ġà¦¸à¦¹à¦ľ à¦Ń
à¦ĩà¦ľ à¦¡
Ġà§¨ à§ª
at e
Ġa re
as t
ĠÑģ ÑĨ
T he
e re
Ð µ
à§ĩ ...
à¦¨ à¦ķà¦²
à¦¤ à¦®à¦¨
à¦¤ à¦ķà¦°
à¦¤ à¦¤à¦®
à¦ķ à¦¢
à¥¤ (
à§Ģ :
à¦ľ à¦²à¦¬
Ġà¦¤ à¦¤à¦¬
à¦¶ à¦ľà¦¨
à¦¶ à¦°à¦ķ
Ġà¦ħ à¦¶à¦¨
Ġà¦ħ à¦ĺà¦Łà¦¨
à¦¹ à¦°à¦ķ
à¦£ à¦Ńà¦°
Ġà¦¶ à¦°à¦¬à¦¤
à¦Ń à¦¤
à¦Ń à¦§
à¦¬à¦¨ à¦ĵ
à¦ªà¦° à¦¬
à¦Ĩ à¦¬à¦°
à¦ĺ à¦Łà¦ķ
à¦·à¦£ à¦ľà¦¨
Ġà¦Ĺà¦² à¦Ĺà¦²
à¦¦à¦° à¦¦
à¦®à¦¤ à¦²
à¦°à¦¹ à¦¸à¦¨
à¦¾âĢĶ âĢĺ
à¦¦à§Ł à¦Ł
Ġà¦®à¦° à¦Ľ
à§ģà¦ĥ à¥¤
à¦ħà¦¨ à¦²
à¦ªà¦ķ à¦Ń
à¦¬à¦ķ à¦¥
Ġ( âĢĺ
on t
à¦¯à¦¶ à¦¸
Ġà¦ıà¦ĩà¦°à¦ķà¦® à¦ĩ
Ġà¦ªà¦°à¦ªà¦° à¦ĩ
p p
q u
Ġ r
à¦¨ à¦¬à¦ª
à¦¤ à¦ļà¦ķ
à¦² à¦ŀ
à¦¯ à¦ªà¦¨
à¦¯ à¦Łà¦¨
à¦¼ à¦ĥà¥¤
Ġà¦¬ à¦ļ
Ġà¦¸ à¦Ĺà¦°
à¦¸ à¦¨à¦¬
à¦¦ à¦ļ
Ġà¦¨ à¦ª
Ġà¦¨ à¦²à¦ķ
Ġà¦® à§Łà¦¨
à¦ĩ à¦ī
à¦Ľ à¦¸
à¦ľ à¦ļ
Ġà¦¹ à¦°à¦®
à¦¶ à¦®à¦¯
à¦· à¦¸à¦¦
à¦¡ à¦ĵ
à¦¹ à¦ĵ
à§Ł à¦¤à¦®
à¦£ à¦ķà¦°
Ġà¦¶ à§Łà¦¤
à¦¾à¦ģ !
Ġà¦ĵ à¦¬
à¦ªà¦° à¦¸
Ġà¦Ĩà¦² à¦¬
à¦°à¦¬ à¦®à§Ł
à§Į à¥¤
à¦°à¦® à¦ª
Ġà¦ªà¦¥ à¦Ĺ
à¦°à¦ľ à¦²
Ġà¦īà§İ à¦«
à¦ıà¦ķ à¦¸à¦®à¦¯
à§įâĢĮ !
à¦¬à¦¶ à¦°
Ġà¦¸à¦®à§Ł à¦Ł
-- --
à¦·à§Ł à¦Ĺ
à§ĩâĢĻ ,
Ġs e
le ct
Ġà§§à§¯à§ª à§Ń
1 0
h ing
i a
Ġ [
à¦® à¦¶à¦²
Ġà¦ķ à¦ĵ
Ġà¦ķ à¦²à¦¨
à¦¸ à¦°à¦¤
Ġà¦ª à§Ł
Ġà¦ª à¦ļà¦¨
à¦¦ à¦®à¦¸
Ġà¦¤ à¦¨à¦¯
à¦¶ à¦®à¦¨
à¦¼à§ĩ âĢ¦
âĢ Ĳ
à¦ļ à¦²à¦¨
à§Ł à¦ªà¦°
à¦¥ à¦ªà¦¤
à¦ł à¦ķà¦¦
Ġà¦ī à¦Ł
Ġà¦Ĩà¦° à¦¨
à¦ŀ à¦ķ
à¦¤à¦° à¦®
à¦¤à¦° à¦¦
à¦Ĩ à¦īà¦Ł
âĢĿ !
Ġà¦¸à¦¬ à¦¦
Ġà¦ķà¦¥ à¦¨
Ġà¦Ŀ à¦²
à¦ħ à¦ªà¦®
Ġà¦¬à¦¨ à¦ľ
à¦²à¦ķ à¦ķ
Ġà¦īà¦ª à¦®à¦¹
à¦°à¦¶ à¦®
à¦°à¦¦ à§Ł
Ġà¦ªà¦¦ à¦¤à¦²
Ġà¦ĩà¦¨ à¦²
à¦Ĺà¦ľ à¦Ĺ
Ġà¦ĭ à¦ķ
Ġà¦¬à§ľ à¦¦
Ġt r
Ġw ith
ÂłÂłÂłÂłÂłÂłÂłÂłÂłÂłÂłÂłÂłÂłÂłÂł ÂłÂł
Ġà§§à§¦ à§¦
ĠT he
Ġha ve
g e
ã ģ
Ġ O
Ġ ì
à§į âĢĻ
à¦¤ à¦°à¦¤
à¦² à¦ļà¦°
à¦¬ à¦ļà¦ķ
à¦® à¦°à¦®
Ġà¦¸ à¦¶à¦¬
à¥¤ âĢ¦
Ġà¦ª à¦ľ
Ġà¦Ĩ à¦Łà¦ª
à¦Ł à¦ľ
à¦Ł à¦¶
à¦Ł à¦ķà¦²
à¦ĩ à¦Ļ
Ġà¦ı à¦°à¦®à¦§
Ġà¦ħ à¦¹à¦°
à¦§ à¦§à¦°
à¦¹ à¦ļ
à¦¹ à¦¨à¦ķ
à¦£ à¦²
à¦£ à¦¬à¦¦
Ġà¦ľ à¦Łà¦²
Ġà¦Ľ à¦®
à¦ł à¦®
à¦ł à¦Ĺà¦¡
Ġà¦¥ à¦ķ
Ġà¦¬à¦² à§Ł
à¦¬à¦¨ à¦ª
à§ľ à¦Ŀ
à¦ŀ à¦¬à¦²
à¦¤à¦° à¦ľ
à¦« à¦¸à¦²
à¦°à¦¬ à¦ŀ
à¦Ĩ à¦·
à¦Ĩ à¦¸à¦Ľ
Ġà¦ªà¦¥ à¦Ń
à¦¯à¦¬ à¦ĩ
Ġà¦ľà¦² à¦ĵ
à¦¹à¦¸ à¦ĩ
Ġà¦īà¦ª à¦Ĺ
à¦²à¦¬ à¦§
à¦ĩà¦¨ à¦®
Ġà¦ķà¦® à¦ĩ
Ġà¦¨à§Ł à¦¤
à§¨ à§Ń
Ġà§§à§ ¬
Ġà¦¬à¦ī à§Ł
Ġà¦¬à¦ī à¦ł
à¦¨à¦Ń à¦Ļ
à¤ ¯
Ġà¦¹à¦ĩ à¦¹à¦ĩ
à¦·à§Ł à¦Ł
Ġà¦Ĩà¦ĩà¦¨ à¦ľ
Ġà¦Ĭ à¦¨
Ġà¦ıà¦ķà¦ª à¦²à¦ķ
Ġc om
Ġm e
Ġd e
Ġà§§ à§§
Ġà§§à§© à§§à§Ń
Ġe x
**** ****
, âĢĵ
p t
Ø ±
Ġ F
à¦¾ à¥¥
à§ģ !âĢĻ
à¦¬ à¦ªà¦°
à¦¬ à¦ķà¦²
Ġà¦¸ à¦ļà¦ķ
Ġà¦® à¦ļ
à¦ĸ à¦ľ
à¦ĸ à¦§
à¦¹ à¦¬à¦§
Ġà¦ıà¦ķ à¦ķà¦¥
Ġà¦ĵ à¦¤à¦ª
Ġà¦ªà¦° à¦ĸ
à¦ī à¦²à¦ķ
à¦ı à¦ª
Ġà¦¸à¦¬ à¦ķà¦Ł
Ġà¦¸à¦¬ à¦°à¦ķà¦®
à¦¬à¦° à¦¦
Ġà¦ħà¦¬ à¦¤à¦°à¦£
Ġà¦¬à¦¨ à¦²à¦¤
Ġà¦Ĺà¦² à¦Ľ
Ġà¦īà¦¦ à¦°
Ġà¦ľà¦² à¦Ľ
à¦®à¦² à¦¬
à¦ļà¦² à¦Ł
à¦¸à¦¨ à¦ķ
Ġà¦ľà¦® à¦¬
Ġà¦ķà¦¬ à¦ļ
Ġà¦ķà¦® à¦ªà¦ķ
à¦ıà¦ķ à¦¦à¦®
Ġà¦¬à¦ĩ à¦¬
Ġà¦ĵà¦ĩ à¦¸à¦¬
à¦¬à¦ķ à¦ķ
à§Łà¦¨ à¦¯
à¦ķà¦¦ à¦®
Ġà¦īà§ľ à¦Ľ
Ġà¦ĸà¦¸ à§ľ
ou s
Ġà¦¸à¦«à¦Ł à¦ĵà§Ł
i e
à¦° à§İ
à¦¨ à¦ķà¦°
à¦¨ à¦®à¦Ĺ
à¦ķ à¦¤à¦¬
Ġà¦ķ à¦ŀ
Ġà¦ķ à¦¤à¦°à¦ķà¦®
à¦Ł à¦ľà¦¨
Ġà¦® à¦²à¦¯
à¦ĩ à¦¸à¦²
à¦ľ à¦®à¦£
Ġà¦¹ à¦¡
à¦Ĺ à¦®à¦¯
Ġà¦Ĺ à¦¤à¦¬
à¦¾à¦ģ à¥¤âĢĻ
Ġà¦¬à¦² à¦¦
Ġà¦ħà¦¨ à¦¤
à¦¬à¦¨ à¦¡
à¦¬à¦¨ à¦ļà¦ķ
à¦ŀ à¦¦
à¦ŀ à¦§à¦°
à¦ī à¦¦à¦¯
à¦ı à¦°à¦ķà¦®
Ġà¦ľà¦¨ à¦¶
ĠâĢĺ âĢĺ
Ġà¦ķà¦°à¦¤ à¦²
à¦¨à¦¤ à¦¤
à¦ĥ -
à¦ħ à¦²à¦¸
à¦°à¦¸ à¦¤
Ġà¦Ĩà¦¶ à¦«
Ġà¦ľà¦² à¦Ń
à¦¿à¦Ĥ âĢĶ
à¦°à¦¹ à¦¶
à¦°à¦¹ à¦°à¦Ĺ
à¦ļà¦¨ à¦ķ
à¦²à¦¨ à¦¸
à¦ĩà¦² à¦¸
Ġà¦ħà¦Ĺ à¦Ń
à¦ľà¦² à¦§
Ġà¦¦à¦² à¦¬à¦²
à¦°à¦Ĺ à¦®
à§¨ à§§
à§¨ à§¨
à§¨ à§«
Ġà¦°à¦ĵà¦¶à¦¨ à¦¦
on g
en ce
Ġp ro
à¦Ĺà¦ł à¦¨à¦Ĺ
m ent
o ci
s el
y a
Ñ Ģ
Ġ Ù
à¦¾ /
à§ĩ à§ĩ
à¦° à¦Ĺà¦²
à¦¤ à¦¦à¦¨
à¦² à¦ľà¦²
à¦® à¦¤à¦¨
à¦® à¦¦à¦°
Ġà¦Ĩ à¦ī
à¦¦ à¦ĺ
à¦Ł à¦¡
Ġà¦® à¦°à¦¦
Ġà¦® à¦Ĺà¦¨
à¦ľ à¦ĺ
à¦ľ à¦§à¦°
Ġà¦ħ à¦¤à¦¨
Ġà¦ħ à¦¹à¦®
à¦Ĺ à¦§
à¦¹ à¦ľà¦¨à¦ķ
Ġà¦ıà¦ķ à¦®à¦¨
Ġà¦ĵ à¦°à¦ĩ
Ġà¦ĺ à¦Łà¦ķ
à¦ŀ à¦¸
à¦« à¦²à¦ķ
à¦°à¦¬ à¦Ń
à¦¬à¦° à¦ĵ
Ġà¦Ł à¦²à¦¤
à¦¬à¦² à¦ķ
à§ģà¦ģ ,
Ġà¦ĵà¦ł à¦¬
à¦¸à¦¬ à¦®
à¦²à¦ķ à¦ļ
à¦Ĺà¦² à¦¦
Ġà¦ħà¦Ń à¦¦
à¦®à¦² à¦Ĺ
à¦²à¦¬ à¦¶à¦¤
à¦Ńà¦¬ à¦ķ
à¦ıà¦ķ à¦¶
Ġà¦¶à¦¹à¦° à¦Ĺ
à§ģâĢĻ -
à¦¬à¦¬ à¦Ļ
Ġà¦Ĩà¦¦ à¦®
à¦¼- -
Ġà¦· à¦£
Ġà¦¸à§İ à¦¤
Ġw as
à¦Ĺà¦ª à§İ
Ġà¦ķà¦ļà¦ķ à¦ļ
Ġà¦§à§ľ à¦«à§ľ
Ð¾ Ð
Ġà¦¤à§İà¦ª à¦°à¦¤
a in
h ar
i b
à ª
à¦° à¦ªà¦¨
à¦¨ à¦ĵà¦¯
à¦ķ à¦¸à¦¬
à¦¯ à¦¯à¦¨
à¦® à¦°à¦¸
à¦® à¦ªà¦¥
Ġà¦ķ à¦¸à¦®
Ġà¦¬ à¦ĩà¦²
Ġà¦¸ à¦ĵà¦¦
à¦¦ à¦¨à¦¬
Ġà¦¨ à¦ļ
Ġà¦¹ à¦°à¦¤
Ġà¦¹ à¦īà¦ķ
Ġà¦¤ à¦°à¦¤à¦°
à¦Ĺ à¦°à¦ķ
à¦§ à¦ļà¦¨
à¦¡ à¦ĩ
à¦¹ à¦¬à¦¨
Ġà¦ī à¦¯
Ġà¦² à¦ĩà§Ł
Ġà¦ĺ à¦°à¦ķ
à¦°à¦¬ à¦²à¦Ń
Ġà¦¬à¦²à¦² à¦¦
Ġà¦Ł à¦ªà¦Łà¦ª
Ġà¦§à¦° à¦®
à¦¨à¦¤ à¦¨
Ġà¦Ĺà¦² à¦¨
Ġà¦ħà¦¸ à¦¹à¦¨
à¦²à¦ķ à¦Ń
Ġà¦¬à¦° à¦¯
à¦°à¦¦ à¦²
Ġà¦ħà¦ª à¦ļà§Ł
à¦¿- --
à¦¦à§Ł à¦¸
à¦®à¦£ à¦Ĺ
Ġà¦«à¦² à¦Ł
Ġà¦°à¦¸ à¦¸
à¦¾à¦ģ, âĢĿ
à¦¯à¦Ĺ à¦£
Ġà¦¸à¦°à¦² à¦Ń
à§ª à§«
à¦¬à¦Ł à¦Ĺ
Ġà¦ķà§Ł à¦²
Ġs p
ic al
ÂłÂłÂłÂłÂłÂłÂłÂłÂłÂłÂłÂłÂłÂłÂłÂł ÂłÂłÂł
Ġf rom
Ġwh ich
Ġà¦ıà¦ķà¦Ŀ à¦²à¦ķ
à§įâĢį âĢĮ
i es
o is
o st
t h
Ġ all
à¦° à¦Ĺà¦°
à¦¿ ...
à¦¨ à¦¡à¦°
à¦² à¦ľà§Ł
à¦¬ à¦ļà¦°
à¦® à¦ł
à¦® à¦¬à¦²
Ġà¦¸ à§İà¦ķ
à¥ ĭ
Ġà¦ª à¦¸
à¦¦ à¦Ļ
à¦Ł à¦ķà¦Ł
Ġà¦¨ à¦¶
Ġà¦¹ à¦ª
Ġà¦¤ à¦²à¦¬
à¦Ĺ à¦¤à¦°
à¦ļ à¦¦à¦¶
à¦¹ à¦®à§Ł
Ġà¦ľ à¦¤
ĠĠ ĠĠĊ
Ġà¦¸à¦® à¦®
à¦¬à¦¨ à¦°
à¦¬à¦¨ à¦Ńà¦°
Ġà¦ĺ à¦¨à¦¤
à¦°à¦£ à¦®
à¦¤à¦° à¦¬à¦Ļ
à¦ī à¦ĩà¦¯
à¦Ĩ à§Łà¦¨
à¦Ĩ à¦¬à¦Ľ
à§İ à¦¬
à¦ı à¦Ĩà¦ĩ
Ġà¦¹à¦² à¦ĺà¦°
à§Ī à¦ĥà¥¤
âĢĵ âĢľ
Ġà¦ħà¦Ń à§Ł
à¦¶à¦¨ à¦®
à¦®à¦¤ à¦®
Ġà¦ħà¦¤ à¦¸
à¦¸à¦¨ à¦¯à¦¨
Ġà¦ħà¦ľ à¦Ĺà¦°
Ġà¦Ĳ à¦°à¦ķà¦®
Ġà¦°à¦Ļ à¦Ł
à§° à¦¯
Ġà¦¦à¦¶ à¦¦
à§ĩ?âĢĿ âĢĶ
à¦¦à¦Ĺ à¦¦
Ġà¦Ĩà¦ĩà¦¨ à¦ķ
à§Ģ! âĢĻ
it er
Ġà¦°à¦¤à¦¨ à¦ķ
Ġa b
or d
à¦¿âĢĿ âĢĶ
Ġin d
Ġin t
ig ht
os s
Ġà¦Ķà¦°à¦¸ à¦ľ
Ġà¦¨à¦¬à¦¬ à¦§
Ġà¦¥à¦¤ à¦®à¦¤
! )
! -
r y
u st
Ġ *
à¦¨ à¦¥
à¦¨ à¦Ĺà¦¤
à¦¨ à¦ľà¦²
à¦ķ à¦ªà¦Ł
à§ģ âĢĿ
à§ģ ?âĢĻ
Ġà¦ķ à¦·à¦¤
Ġà¦¸ à¦ĩà¦¬
à¦¸ à¦ľà¦¨
à¦¸ à¦ķà¦°
à¦¦ à¦ĺà¦¨
à¦Ł à¦Ĩà¦ª
Ġà¦¨ à¦¬à¦¸
Ġà¦® à¦²à¦®
à¦ª à¦§
à¦ª à¦¬à¦°
à¦ª à¦®à¦¯
Ġà¦¹ à¦°à¦²
Ġà¦¤ à§İà¦ªà¦°
Ġà¦¤ à¦¹à¦¬
à¦· à¦²
à¦· à¦°à¦¹
à¦§ à¦¡
à¦§ à¦ªà¦°
à§Ł à¦¶
à¦£ à¦ľ
Ġà¦ļ à¦·
Ġà¦Ń à¦°à¦£
à¦Ń à¦¶
à¦¼à¦¾ à¥¤âĢĻ
Ġà¦Ĩà¦® à¦²à¦ķ
Ġà¦ī à¦¶
à¦¬à¦¨ à¦Ń
à¦°à¦£ à¦ªà¦¤
à¦ī à¦Łà¦°
à¦Ĩ à¦ł
à¦Ĩ à¦°à¦£
Ġà¦¬à¦²à¦² à¦ª
Ġà¦¬à¦²à¦² à¦¹
âĢĻ !âĢĿ
Ġà¦ĩ à¦¸à¦°
à¦ĥ !
à¦ķà¦° à¦Ń
à¦°à¦¨ à¦Ĺà¦°
Ġà¦®à¦¹ à¦®
à¦¬à¦¤ à¦¶
à¦Ľà¦¨ à¦¦
à¦¸à¦® à¦Ĺ
Ġà¦ĵà¦ªà¦° à¦ĩ
Ġà¦ªà¦¦ à¦¸
Ġà¦ħà¦Ĺ à¦£à¦¨
à¦ªà¦¥ à¦¹
à¦°à¦ª à¦Ł
à¦¸à¦ķ à¦¦
à§¨ à§ª
à§¨ à§®
à§¦ à§«
à¦¬à¦ĩ à§Ł
à¦¿âĢĻ âĢĶ
Ġà¦¹à¦¨ à¦¹à¦¨
al i
Ġthe y
ou g
à§§à§¯ à§Ń
1 6
r it
u al
Ù Ħ
à¦¾ .
à¦¨ à¦°à¦ķà¦®
à¦¤ à¦£
à¦² à¦¤à¦°
à¦² à¦ªà¦¦
à¦² à¦Ńà¦°
à¦ķ à¦¤à¦¨
à¦¯ à¦Ĺà¦¨
à§ģ à§ģ
à¦¼ à§įâĢĮ
à¦® à¦¬à¦¨
à¦® à¦ľà¦¨
à¦® à¦ĺà¦Ł
Ġà¦¸ à¦¶
Ġà¦¸ à¦ķà¦°
à¥ ģ
à¦¸ à¦ľà¦²
à¦¸ à¦¹à¦¯
à¦¦ à¦¡
à¦¦ à¦®à¦¤
à¦Ł à¦§à¦°
à¦ª à¦¬à¦¨
à¦ľ à¦ªà¦¤
à¦¶ à¦ķà¦²
Ġà¦ħ à¦ķà¦°
à¦· à¦¸à¦ķ
à¦§ à¦¨à¦ĵ
âĢ ¢
à¦¹ à¦ĸ
à§Ł à¦ĵ
à§Ł à¦£à¦¤
Ġà¦Ĺ à¦¦à¦Ĺà¦¦
à¦£ à§Ł
Ġà¦ĵ à¦¥
Ġà¦ħà¦¨ à¦Łà¦¨
à¦¬à¦¨ à¦ľ
Ġà¦ıà¦ĩ à¦ļ
à¦ī à¦Ńà§Ł
à¦¿, -
à¦¬à¦° à¦¨
Ġà¦Ł à¦Ļ
Ġà¦ĩ à¦£
Ġà¦ĩ à¦¸à¦®
à¦·à¦£ à¦Ł
à¦ķà¦² à¦¤
à¦ķà¦² à¦¸
Ġà¦ªà¦¥ à¦ĵ
Ġà¦Ĩà¦¶ à¦¯
à¦ķà¦¤ à¦¦
à¦ķà¦¤ à¦Ł
à¦§à¦ķ à¦¦
à¦§à¦¨ à¦Ł
Ġà¦¸à¦¹ à¦¬
à¦ĩà¦¨ à¦«
Ġà¦Ĳ à¦¸à¦¬
Ġà¦ħà¦Ĺ à¦¸
Ġà¦Ĩà¦§ à¦Ł
Ġà¦¦à¦² à¦Ĺ
Ġà¦Ĺà¦£ à¦ľ
à¦¾âĢĻ -
à§« à§¨
à¦®à¦¦ à¦ķ
à¦²à¦ļ à¦²à¦¨
an s
Ġà¦Ĭ à¦¨à¦¬
à¦ıà¦®à¦¨ à¦ķ
Ġà¦ľà¦Ĺà§İ à¦Ł
Ġà¦°à¦® à¦°à¦®
à¦ĩà¦ľà¦¨ à¦ĩ
Ġm y
Ġà¦®à¦¦à¦¨ à¦ķ
ct ion
à§°à¦¹ à¦£
à§ĩà§Ĺ à¦ģ
âĢķâĢķ âĢķâĢķ
Ġà¦¬à¦Ľ à¦°à¦ĩ
! '
a p
e ar
Ġ +
Ġ ×
à¦¨ à¦ĩà¦²
à¦² à¦ĺà¦°
à¦ķ à¦ªà¦ķ
à§ģ ?âĢĿ
à¦® à¦²à¦ķ
à¦® à¦ĺà¦°
à§ĭ âĢĻà¥¤
à¦¦ à¦¹à¦¨
Ġà¦¨ à¦¨à¦¦
à¦ª à¦Łà¦²
à¦Ľ à¦ĵ
Ġà¦¦ à¦²à¦ķ
à¦ľ à¦¶à¦ķ
Ġà¦ħ à¦¢
à¦ĸ à¦¢
à¦Ĺ à¦¹à¦¨
à¦· à¦¡
à¦· à¦§à¦°
à¦§ à¦®à¦¯
à¦§ à¦¶à¦¤
à¦¡ à¦ĵà¦¯
à¦£ à¦ł
Ġà¦Ń à¦¡
à¦Ń à¦ľà¦¨
à¦Ń à¦°à¦¸
Ġà¦ıà¦ķ à¦¤à¦°à¦«
Ġà¦ī à¦ľà¦²
Ġà¦² à¦ĩ
à§ĩ, âĢĵ
Ġà¦ªà¦° à¦®à¦¹
Ġà¦¸à¦® à¦ľà¦¦
à¦¬à¦¨ à¦Ĺ
à§ľ à¦¯à¦¨
à¦°à¦£ à¦¹
à¦ī à¦¥
à¦ī à¦Ń
Ġà¦Ĩà¦² à¦Ł
à¦Ĩ à¦²à¦¤
à§Ī à¥¤
Ġà¦ĩ à¦¹à¦²
à¦ĺ à¦ľ
Ġà¦ıà¦¬ à¦¡
à¦ħ à¦ļà¦²
Ġà¦¨à¦¤ à¦ľ
à¦ķà¦° à¦Ł
Ġà¦¶à¦¬ à¦¦
à¦¿à¦Ĥ !
à¦²à¦¨ à¦ĩ
Ġà¦ħà¦ª à¦Ł
Ġà¦ķà¦² à¦°
à¦ļà¦² à¦®
à¦¬à¦¸ à¦Ļ
Ġà¦ĵà¦ĩ à¦ĸ
à¦¤à¦® à§Ł
à¦¤à¦¤ à¦¤
Ġà¦¶à¦¤ à¦¶
à§ĩâĢĵ âĢĻ
à§Ģ- -
à¦ľà¦¬ à¦§
Ġà¦§à¦¨ à¦Ń
Ġà¦§à¦¨ à¦ŀ
à¤ ®
à¦¬à¦¹ à¦®
Ġà¦¦à¦® à¦¦à¦®
à§ĩâĢ¦ à¥¤
à¦¥à¦² à¦ľ
à¦Łà¦® à¦¹à¦²
Ġà¦¸à§İ à¦Ń
à¦¬à¦ľà¦¨ à¦¦
à§¬ à§¦
à¦¨à¦ľà¦¨ à¦ĩ
à¦¾âĢĿ âĢĵ
it ion
Ġp H
Ġh as
Ġà¦ľà¦¨à¦ªà¦¦ à¦¬
Ġà¦¸à¦¬à¦¸à¦®à§Ł à¦ĩ
æŃĵæŃĵæŃĵæŃĵ æŃĵæŃĵæŃĵæŃĵ
res s
! âĢĵ
T E
a k
a ch
w e
Ġ V
à¦¨ à¦°à¦ķ
à¦® à¦ĵà§Ł
à¦® à¦¸à¦¨
à¦® à¦Ĺà¦¨
Ġà¦ķ à¦ĩà¦¤
Ġà¦¬ à¦ª
Ġà¦ª à¦¸à¦°
Ġà¦Ĩ à¦¤à¦°
à¦¦ à¦¶à¦Ł
à¦Ł à¦°à¦¶
Ġà¦® à¦ľà¦¨
à¦ª à¦²à¦¬
à¦ĩ à¦īà¦¨
à§Ģ !âĢĿ
Ġà¦¦ à¦¶à¦¬
Ġà¦¤ à¦°à¦¤
à¦¶ à¦¡
à¦Ĺ à¦¶
à¦· à¦¤à¦²
à¦§ à¦ľà¦¯
à¦¡ à¦¤
à¦¹ à¦Ńà¦°
à§Ł à¦Ł
Ġà¦Ĺ à¦ľà¦²
à¦£ à¦¤à¦°
Ġà¦ıà¦ķ à¦§
Ġà¦ıà¦ķ à¦ĸà¦£
Ġà¦ıà¦ķ à¦ĺà¦£
ĠĠ ĠĊ
à¦ł à¦ĵ
à§ĩ, âĢĶ
Ġà¦¬à¦² à¦Ł
Ġà¦« à¦²à¦¬
à¦¾à¥¤ âĢĺ
Ġà¦ıà¦ĩ à¦Ĺ
à¦Ŀ à¦®
à¦ľà¦¨ à¦¸
à¦¤à¦° à¦²
à¦ī à¦¨à¦²
à¦ī à§İà¦ª
à¦Ĩ à¦ĺ
à§İ à¦ľ
à¦°à¦® à¦¸
à¦°à¦® à¦¥à¦°
à§ģà¦ģ à¥¤âĢĻ
à¦·à¦£ à¦¤
à¦¨à¦¤ à¦¤à¦°
à¦ħ à¦²à¦ķ
Ġà¦¬à¦¨ à¦ªà¦¥
Ġà¦Ĩà¦¬ à¦¹à¦®
à¦ķà¦Ł à¦°
Ġà¦ħà¦¸ à¦¦
Ġà¦Ĩà¦ªà¦¨ à¦®à¦¨
Ġà¦ľà¦² à¦¢
Ġà¦ľà¦² à¦Ńà¦°
à¦°à¦¶ à¦¬
à¦§à¦¨ à¦Ĺ
à¦²à¦¬ à¦ķ
Ġà¦ħà¦ª à¦ķ
à¦ĩà¦¨ à¦ķ
à¦ıà¦ĩ à¦°à¦ķà¦®
Ġà¦ªà§ľ à¦¨
Ġà¦¬à¦Ľà¦° à¦Ĺ
à¦°à¦Ń à¦°
à¦ıà¦ķ à¦ķ
à¦ıà¦ķ à¦ĸ
à¦ıà¦ķ à¦¥
à¦ªà¦ķ à¦ķ
à§ĩ; âĢĶ
à¦¹à¦¨ à¦²
Ġà¦ıà¦ķà¦ĩ à¦°à¦ķà¦®
à¦°à¦®à¦£ à¦ª
à§ĭâĢĶ âĢĺ
Ġà¦¤à¦¤ à¦ĸ
Ġà¦ªà¦¶ à¦®
à¤ ¹
à§© à§ª
,âĢĿ âĢĶ
Ġà¦ľà¦Ĺ à§İà¦ķ
Ġà¦ıà¦°à¦ķà¦® à¦ĩ
Ġs u
Ġà¦Ĺà¦ľ à¦Ĺà¦ľ
Ġc an
Ġb ut
ha k
- '
. âĢĻ
1 2
b ut
i k
æ Ĺ
Ġ K
Ġ at
à¦¿ à¥¥
à¦¨ à¦°à¦¤
à¦¤ à¦®à¦ķ
à¦¤ à¦¤à¦ķ
à¦² à¦ķà¦²
à¦² à¦®à¦¤
à¦² à¦ļà¦ķ
à¦ķ à¦¸à¦¨
à¦ķ à¦¨à¦ķ
à¦® à§İà¦¸
Ġà¦¸ à¦¸à¦®
à¦¸ à¦ªà¦¨
Ġà¦Ĩ à¦ĵ
Ġà¦Ĩ à¦«à¦Ł
à¦¦ à¦¬à¦ª
à¦¦ à¦ķà¦¤
Ġà¦® à¦ķà¦¬
à§Ģ âĢ¦
à¦ľ à¦®à¦¹
Ġà¦ı à¦¥
à¦ĸ à¦°à¦¤
à¦Ĺ à¦°à¦¬
à¦Ĺ à¦«à¦²
à¦§ à¦¬à¦¤
à¦¡ à¦¦
à¦¹ à¦ĵà¦¯
à¦£ à¦¬à¦¤
Ġà¦¶ à¦®à¦¶
Ġà¦ļ à¦ļ
Ġà¦Ń à¦¨
Ġà¦° à¦ĩà¦¬
à¦ĵ à¦Ľ
à¦ĵ à¦Ń
à¦Ń à¦ľà¦¨à¦ķ
Ġà¦ĸ à¦ŀ
Ġà¦ħà¦¨ à¦Ĺ
âĢĶ âĢĿ
à¦¬à¦¨ à¦ļ
à¦Ŀ à¦¬à¦¯
à¦¤à¦° à¦¯
à¦« à¦£
à¦Ĩ à§ľ
à§İ à¦¸à¦¨
à¦°à¦ķ à¦¦
à¦¬à¦° à¦·
Ġà¦¬à¦²à¦² à¦°
Ġà¦¬à¦²à¦² à¦¨
Ġà¦¬à¦²à¦² à¦¸
Ġà¦¬à¦²à¦² à¦Ĩà¦ªà¦¨
Ġà¦ķà¦¥ à¦ķà¦¤
à§Į -
à¦¬à¦² à¦¦
à¦°à¦® à¦ĩ
à¦·à¦£ à¦Ń
Ġà¦ĵà¦ł à¦¤
Ġà¦ħà¦¸ à¦¤à¦¤
à¦¯à¦¬ à¦ĩà§Ł
à¦¨à¦¬ à¦ļ
Ġà¦ľà¦² à¦Ľà¦Ł
à¦§à¦ķ à¦ķ
Ġà¦¸à¦° à¦¦
Ġà¦ħà¦ª à¦ķà¦°
Ġà¦¸à¦¹ à¦¨
Ġà¦¸à¦¹ à¦¦
à¦¸à¦® à¦°
Ġà¦Ĳ à¦¦
à¦ªà¦¦ à¦ļ
à§įâĢĮ âĢĮ
à§ģ, âĢĿ
à§İà¦ķ à¦®
Ġà¦īà¦ªà¦° à¦ĩ
à¦ĺà¦° à¦Ĺ
à¦°à¦ľà¦¨ à¦ķ
à¦īà¦² à¦°
ÂłÂłÂłÂłÂłÂłÂłÂł ÂłÂłÂłÂłÂłÂłÂłÂłÂłÂłÂłÂł
à¦°à¦®à¦£ à¦ĩ
Ġà¦¦à¦° à¦ĸ
Ġà¦ľà¦° à¦®à¦¨
Ġà¦Ĩà¦ª à¦²
Ġà¦¶à¦¹ à¦°à¦¬
à¦£à¦¨ à¦Ĺà¦°
Ġà¦ªà¦°à¦¶ à¦®à¦£
Ġà¦· à§ľà¦¯à¦¨
à¦ľà§Ł à¦ķ
Ġà§¨ à§¬
à¦¿?âĢĿ âĢĶ
à¦ıà¦¸ à¦¸
ing s
ou r
Ġà¦¹à¦ľ à¦°à¦¤
Ġà¦ľà¦¬à¦° à¦¦à¦¸
sel f
- âĢĺ
1 7
o ve
Ð ½
Ġ im
à§ ±
à¦° à¦ªà¦¦
à¦¤ à¦ĺ
à¦² à¦¹à¦°
à¦¬ à¦¥
à¦¬ à¦¤à¦°
à¦¬ à¦ķà¦¬
à§ĭ âĢĿà¥¤
Ġà¦¬ à¦°à¦ķ
Ġà¦¸ à¦ªà¦¤
Ġà¦Ĩ à¦ĸà¦°
à¦ª à¦ļà¦°
Ġà¦¤ à¦¯
Ġà¦¤ à¦Ľà¦¨
Ġà¦¤ à¦®à¦¸
Ġà¦¤ à¦ķà¦®
à§Ł à¦¹
à¦¥ à¦¡
à¦Ń à¦ª
Ġà¦ī à¦Ľà¦²
Ġà¦ĵ à¦Ŀ
âĢĶ âĢĶ
à¦Ŀ à¦Ł
à¦« à¦²à¦¤
à¦Ĩ à¦ªà¦¦
à¦Ĩ à¦¸à¦¤
à¦°à¦ķ à¦¯
à¦°à¦ķ à¦°à¦£
Ġà¦¬à¦²à¦² à¦Ĩà¦®à¦°
Ġà¦Ŀ à¦°à¦¬
à¦¬à¦² à§Ł
à¦°à¦® à¦²
à¦°à¦® à§Ł
à¦ħ à¦¬à¦¹
à¦°à¦¸ à¦Ĺ
à¦¨à¦¬ à¦®
à¦¯à¦ķ à¦¥
Ġà¦¸à¦¨ à¦¦
Ġà¦ĺà¦° à¦Ľ
à¦²à¦¨ à¦ļ
Ġà¦¸à¦° à¦·
à¦°à¦² à¦®
à¦ĩà¦¨ à¦°
Ġà¦Ĳ à¦ĸ
à¦¨à¦ķ à¦ķ
à¦¸à¦« à¦²à¦¤
à§¨ à§©
Ġà¦ļà¦ķ à¦®à¦ķ
Ġà¦īà§İà¦¸à¦¬ à¦Ĺ
Ġà¦¸à¦Ń à¦¯
à¤ Ĥ
à¦¬à¦¹ à¦£
à§ª à§Ń
à¦ľà§Ł à¦Ĺ
à¦¬à¦ľà¦¨ à¦ª
à¦Ĳ à¦¶
Ġà¦°à¦¹ à¦®à¦¤
Ġà¦¤à¦ªà¦¨ à¦¬
Ġà¦Ĩà¦« à¦Ĺ
Ġc ol
Ġà¦®à¦Ĺ à¦§à¦°
ou nd
ou ld
Ġà¦ľà¦¨à¦Ĺà¦£ à¦ķ
à¦Ī à¦¦
el l
if e
ab le
ãģ ®
æĹ ¥
Ġà¦¤à¦Ľà¦¨ à¦Ľ
1 1
1 4
1 5
1 9
2 0
2 3
2 4
n ow
o c
Å ĵ
Ċ Ċ
à¦¾ à¦¾
à¦¤ à¦ªà¦¥
à¦² à¦£
à¦² à¦Ĺà¦¤
à¦² à¦®à¦°
à¦ķ à¦Ļ
à¦¯ à¦Ńà¦°
à¦¼ à§Ī
Ġà¦ķ à¦ļà¦²
Ġà¦¸ à¦¶à¦°
à¥¤ )
à¦¦ à¦¸à¦®
Ġà¦® à¦°à¦¸
Ġà¦® à¦°à¦¶
Ġà¦® à¦Łà¦ķ
Ġà¦® à¦¶à¦Ĺ
à¦ª à¦ªà¦°
Ġà¦¤ à§İà¦¸
à¦Ĺ à¦°à¦¤
Ġà¦¯ à¦¶à¦¸
à¦ļ à¦°à¦ķ
à¦¹ à¦¨à¦¦
Ġà¦Ĺ à¦°à¦¬
à¦£ à¦®à¦¨
à¦£ à¦ªà¦¨
Ġà¦¶ à¦¤à¦¬
Ġà¦° à¦ĩ
à¦ĵ à¦¸
à¦Ń à¦ĩ
à¦Ń à¦²à¦¬
à¦ł à¦«
Ġà¦ī à¦ĩà¦¸
Ġà¦² à¦ĩà¦¬
Ġà¦« à§ľ
Ġà¦« à¦¸à¦«
à¦°à¦¤ à¦Ń
Ġà¦ħà¦¨ à§ľ
Ġà¦¸à¦® à¦¦
à¦¬à¦¨ à¦²à¦¤
Ġà¦ıà¦ĩ à¦°
à¦®à¦¨ à¦Ń
à¦ľà¦¨ à¦Ł
à¦¤à¦° à¦¹
à§İ à¦¶
Ġà¦ĩ à¦®à¦°
à¦ĺ à¦ª
Ġà¦Ŀ à¦°à¦²
à¦ħ à¦¬à¦²
Ġà¦¬à¦¨ à¦Ĺ
à¦ķà¦² à¦¹
Ġà¦ªà¦¥ à¦°
Ġà¦ªà¦¥ à¦ķ
Ġà¦ħà¦¸ à¦®à¦¤
à¦²à¦ķ à¦ª
à¦²à¦¤ à¦®
à¦ļà¦¨ à¦ľà¦Ļ
à¦°à¦¶ à¦®à¦¨
à¦¯à¦¤ à¦¤
à¦ķà¦¬ à¦ļ
Ġà¦ħà¦ľ à¦°
à¦¹à¦² à¦¦
à¦°à¦ĵ à¦¶à¦¨
à¦ªà¦¥ à¦ļà¦²
Ġà¦¬à¦ĩ à¦ªà§ľ
à§Ģà¥¤ âĢĻ
Ġà¦«à¦² à¦®
à¦ļà¦ķ à¦£
à¦¼à¦¾, âĢĿ
à§¨ à§¬
à¦Ĩà¦² à¦®
Ġà¦°à¦¸ à¦¦
à¦¾âĢĻ âĢĵ
à¦·à¦¦ à¦Ĺ
à¦¨à¦ª à¦ŀ
Ġà¦¸à§İ à¦ļ
on e
Ġà¦ĵà¦· à¦§
Ġs h
Ġà¦ıà¦ķà¦¦à¦® à¦ĩ
or y
Ġà¦¬à¦¶ à¦¬à¦°
à¦ķà¦ĵ à¦¦
Ġà¦ĸà¦ļ à¦ĸà¦ļ
Ġà¦Ľà§Ł à¦Ł
ul t
iv id
ois hak
æĹ¥ ãģ®
oishak h
) âĢĵ
1 8
2 5
o he
u d
Ġ j
Ġ ë
Ġ le
à¦° à¦ħ
à¦¨ à¦Ŀ
à¦¨ à¦Ĩà¦®
à¦¨ à¦®à¦£
à¦¤ à¦ªà¦¦
à¦² à¦¨à¦¬
à¦¯ à¦¤à¦¨
à¦¯ à¦®à¦¤
à¦¬ à¦ĩà¦¨
à¦® à¦¬à¦°
à¦® à¦¹à¦¸
à§ĭ à§ĩ
Ġà¦¬ à¦Ń
à¦¸ à¦®à¦¨
à¦¸ à¦¤à¦°
à¦¦ à¦«
à¦ĩ à¦ªà¦°
à§Ģ âĢĻà¥¤
à¦Ľ à¦²à¦Ľà¦²
à¦ľ à§Łà¦¨
Ġà¦ı à§Ł
Ġà¦ı à¦¤à¦¬
à¦¼à§ĩ :
Ġà¦ħ à§Ł
à¦· à¦ļ
à¦· à¦°à¦ķ
à¦ļ à¦ķà¦²
Ġà¦Ĺ à¦°à¦²
à¦£ à¦ķà¦²
à¦£ à¦Ńà¦ķ
Ġà¦¶ à¦¤à¦°
Ġà¦ľ à¦ľ
Ġà¦ļ à¦¯
Ġà¦ıà¦ķ à¦°à¦¤
à¦¼à¦¾ âĢ¦
Ġà¦Ĩà¦® à§ľ
Ġà¦² à¦²à¦¨
Ġà¦ĵ à¦§
Ġà¦ĵ à§ľà¦¨
Ġà¦¥ à¦ĩ
Ġà¦ĸ à¦ĩ
Ġà¦ĸ à¦²à¦¨
Ġà¦§ à¦®
Ġà¦ªà¦° à¦Ľ
à¦¼à¦¿ âĢĵ
Ġà¦®à¦¨ à¦ª
Ġà¦®à¦¨ à¦¨à¦ķ
à¦Ŀ à¦²à¦ķ
à¦ī à¦¨à¦Ł
Ġà¦Ĩà¦² à¦ª
Ġà¦Ĩà¦² à¦Ļ
à¦ı à¦¨à¦ľ
à¦ĺ à¦¤à¦°
Ġà¦ħà¦¬ à¦Ĺà¦¤
Ġà¦¬à¦¸ à¦¤à¦¬
à¦ħ à¦£
Ġà¦¬à¦¨ à¦«
Ġà¦ħà¦¸ à¦ļ
à¦¨à¦¬ à¦¬
à¦¨à¦¬ à¦ľà¦¨
Ġà¦ħà¦¦ à¦ķ
Ġà¦Ĩà¦¨ à¦ķ
à¦¶à¦¨ à¦ĩ
Ġà¦ħà¦¤ à¦²à¦¸
à¦°à¦¹ à¦ķ
à¦°à¦¹ à¦¬
Ġà¦īà¦ª à¦ķà¦¥
Ġà¦īà¦ª à¦ķà¦£
à¦°à¦¯ à¦¨
à¦®à¦ķ à¦Ń
Ġà¦ĵà¦° à¦«
à¦Ńà¦¬ à¦ªà¦°
Ġà¦ħà¦ľ à¦®
Ġà¦Ĳ à¦°
Ġà¦Ĳ à¦Ł
Ġà¦ķà¦® à¦°
à¦°à¦Ń à¦Ļ
à¦ªà¦¦ à¦ĵ
à¦ªà¦¥ à¦ļ
à¦¼à§ĩà¥¤ âĢĻ
à¦Łà¦² à¦Ĺ
à§° à¦¬à¦¨
à¦Ĩà¦² à¦¸
à¤ ¦
Ġà¦ľà§Ł à¦¯
à§ª à§¦
an g
on s
Ġà¦ļà¦Ł à¦ľà¦²à¦¦
re t
er n
Ġthe ir
Ġà¦°à¦£ à¦ľ
à¦¿âĢĿ âĢĵ
ou nt
Ġà¤ ¸
ĠI nd
Ġà§ª à§«
ut h
ĠB oishakh
us e
ect ive
Ø§ Ø
== ==
ont u
lect ive
' à¥¤
1 3
; âĢĵ
i ya
u e
u g
Ð ¸
Ú ©
Ġ U
Ġ ..
à¦¾ âĢĮ
à¦° à¦°à¦ķ
à¦¿ à§ĩ
à¦¨ à¦ªà¦¨
à¦¤ à¦®à¦£
à¦¤ à§İà¦ķ
à¦² à¦¸à¦®
à¦ķ à¦ĺà¦°
à¦¯ à¦ªà¦¤
à¦¯ à¦¸à¦Ļ
à¦¬ à¦®à¦¨
à¦¬ à¦Ĺà¦£
Ġà¦ķ à¦ĩà¦²
Ġà¦Ĩ à¦Łà¦²
Ġà¦¨ à¦¬à¦ª
à¦ª à¦¸à¦®
à¦ĩ à¦Ŀ
à¦ĩ à¦ļà¦°à¦£
à§Ģ )
à§Ģ à¦ĥ
à§Ģ à¥¥
à¦ľ à¦ªà¦°
à¦ľ à¦¸à¦®
à¦ľ à¦īà¦¦
à¦¶ à¦®à¦¤
à¦¶ à¦ļà¦¨
Ġà¦ħ à¦ľà¦¨
à¦Ĺ à¦°à¦¦
à¦Ĺ à¦¸à¦¨
à¦§ à¦ľ
à¦¡ à¦²à¦ķ
à¦ļ à¦Ļ
à¦¹ à¦®à¦¨
à¦¹ à¦¤à¦¤
à§Ł à¦ļ
Ġà¦Ĺ à§Łà¦¨
à¦£ à¦¤à¦®
Ġà¦¶ à¦¶à¦¬
Ġà¦¶ à§Łà¦¨
Ġà¦° à¦®à¦¨
à§ĩà¥¤ )
à¦Ń à¦ªà¦¤
à§Ĥ à¥¤
Ġà¦ĸ à¦°à¦¸
à¦¾, -
à§ľ à¦Ĺ
Ġà¦ıà¦ĩ à¦¸à¦®à¦¯
à¦ŀ à¦Ń
à¦Ĩ à¦ĸ
à§İ à¦°
à¦ı à¦¡
Ġà¦¬à¦²à¦² à¦ıà¦ĩ
Ġà¦Ŀ à¦Ĺà§ľ
à¦¬à¦² à¦¯
Ġà¦¢ à¦ķ
à¦¤à¦¨ à¦Ł
à¦ħ à¦¬à¦¨
Ġà¦Ĩà¦ķ à¦£
à¦¤à¦¬ à¦¯
à¦¤à¦¬ à¦°à¦£
à¦¨à¦¬ à¦¯
à¦°à¦¥à¦® à¦ľ
à¦Ĺà¦² à¦¸
à¦Ĺà¦² à¦Ĺ
Ġà¦ľà¦² à¦Ł
Ġà¦ľà¦² à¦¹
Ġà¦ľà¦² à¦ªà¦¥
Ġà¦¶à¦¬ à¦¬
à¦°à¦¹ à¦¤
à¦°à¦¹ à¦Ł
à¦°à¦¹ à¦°à¦£
Ġà¦ĺà¦° à¦ĸ
Ġà¦ıà¦¤ à¦¸à¦¬
Ġà¦Ĳ à¦¹
Ġà¦¬à¦¹ à¦°à¦®à¦ª
à§ĩ! -
Ġà¦ħà¦Ĺ à¦®
à¦®à¦£ à¦¤
à¦ıà¦ķ à¦ľ
à¦¬à¦¦ à¦°à¦¬
à¦¿âĢĶ âĢĺ
à¦¬à¦ķ à¦£
Ġà¦ıà¦ķà¦ľà¦¨ à¦ĩ
Ġà¦Ńà¦¬ à¦ĺ
à¦¸à¦« à¦²
à¦ĩà¦Ł à¦¸
Ġà¦¸à¦®à§Ł à¦ķ
Ġà¦¬à¦ķ à¦Ľ
Ġà¦Ńà¦¦ à¦ķ
Ġà¦¬à§ľ à¦ĩ
Ġà¦Ĩà¦ª à¦¶
Ġà¦Ī à¦Ĺà¦°
à¤ µ
à¤ Ł
à§ĩâĢ¦ âĢĻ
à§ª à§¨
in t
à¦ľà¦Ĺ à¦ŀ
re d
is h
à¦Łà¦¸ à¦ħ
à¦ľà¦¦ à¦°à¦¬
Ġw e
Ġd o
Ġà¦łà¦ķ à¦łà¦ķ
ol og
Ġwh o
Ġà¦ĵà¦²à¦Ł à¦ª
ÂŃÂŃÂŃÂŃ ÂŃÂŃÂŃÂŃ
ºçľºçľ ºçľºçľ
âĢĵâĢĵâĢĵâĢĵ âĢĵâĢĵâĢĵâĢĵ
·çľ·çľ ·çľ·çľ
Ġà¦¥à¦ķ à¦¥à¦ķ
Ġcol lective
ohe la
' ,
2 1
2 2
3 0
a f
a ct
e c
i al
i ke
u b
Ð »
Ù ħ
Ġ à§°
Ġ al
Ġ ---
Ġ áĥ
à¦¾ )à¥¤
à¦¤ à¦ĺà¦¡
à¦ķ à¦¦à¦°
à¦¯ à¦ªà¦¦
à¦¯ à§İà¦ķ
à¦® à¦ªà¦¦
Ġà¦ķ à§°
à¥¤ âĢĵ
Ġà¦ª à§Łà¦²
Ġà¦Ĩ à¦ĩà¦ķ
à¦Ł à¦°à¦¸
Ġà¦® à¦ĩà¦¨
Ġà¦® à¦ļà¦ķ
à¦ª à¦¤à¦°
à¦ª à¦«
à¦ª à¦ķà¦¤
à¦ľ à¦®à¦¨
à¦ľ à¦²à¦ķ
à¦ľ à¦Ńà¦¬à¦¨
Ġà¦¤ à¦Łà¦¸
à¦¶ à¦ªà¦°à¦®
à¦¼à§ĩ âĢĻ
à¦ĸ à¦Ńà¦°
à¦Ĺ à¦®à¦ķ
à¦· à¦Ľ
à¦§ à¦¸à¦®
Ġà¦¯ à¦¸
Ġà¦¯ à§İà¦¸
à¦ļ à¦ĸ
à¦ļ à¦ĵ
à¦ļ à¦¤à¦®
à¦ļ à¦ªà¦²
à¦¹ à¦Ĺà¦¨
Ġà¦ķà¦° à¦®à¦°
à¦£ à¦®à§Ł
Ġà¦¶ à¦ķà¦Ł
Ġà¦° à¦®à¦²
Ġà¦° à¦Łà¦¨
Ġà¦° à¦Ĺà¦¡
à§ĩà¥¤ âĢ¦
à¦¼à¦¾ --
à¦ł à¦¤à¦®
Ġà¦ī à¦Łà¦ķ
à§Ĥ ,
Ġà¦ĵ à¦ľ
Ġà¦« à¦ľà¦°
Ġà¦ħà¦¨ à¦®
à¦¾à¥¤ "
Ġà¦§ à¦²
à¦¬à¦¨ à¦¹
à§ľ à¦¸
Ġà¦®à¦¨ à¦Ń
à¦ľà¦¨ à¦¹
à¦ŀ à¦°
à¦ŀ à¦¬
à¦ī à¦ªà¦ķ
à¦ªà¦¨ à¦ķ
à¦Ĩ à¦°à¦¤
à§İ à¦ļ
à§İ à¦ķà¦°
à¦°à¦ķ à¦¥
Ġà¦¬à¦²à¦² à¦¶
Ġà¦ķà¦¥ à¦ŀ
Ġà¦¡ à¦Ł
Ġà¦Ŀ à¦°à¦£
Ġà¦Ĩà¦ľ à¦®
à§ĭà¦ģ -
à¦ħ à¦ķà¦¸
Ġà¦¬à¦¨ à¦ľà¦Ļ
Ġà¦ªà¦¥ à¦¨
à¦ķà¦° à¦ĵ
à¦¨à¦¬ à¦¸à¦¤
à¦¾- --
à¦Ĺà¦² à¦¬à¦¨
à¦¶à¦¨ à¦Ĺ
à¦§à¦¨ à¦®
Ġà¦ķà¦² à¦ªà¦¨
à¦ļà¦² à¦Ĺ
Ġà¦Ĩà¦¤ à¦¶à¦¬
Ġà¦Ńà¦° à¦Ľ
Ġà¦¹à¦ł à¦ķ
à§Ģ, âĢĿ
à¦Ĺà¦° à¦ª
Ġà¦īà§İ à¦ķà¦Ł
à¦ªà¦¦ à¦ĩ
à¦·à¦¤ à¦ļ
à¦ļà¦ķ à¦¦
à¦ľà¦² à¦ª
Ġà¦ĩà¦¨ à¦¡
à¦¥à¦¨ à¦¯
à¦®à¦¸ à¦ľ
Ġà¦¬à§ľ à¦¬
Ġà¦Ī à¦ª
à¦¤à¦¦ à¦¶
Ġà¦Ĩà¦ĩà¦¨ à¦¶
à¦¤à¦ĸà¦¨ à¦ĵ
Ġà§¨ à§®
at ure
à§ĩâĢĻ âĢĶ
Ġà¦°à¦¤à¦¨ à¦¬
Ġs om
Ġà¦Ńà¦Ĺ à¦¬à¦¦
Ġc h
à¦Ŀà¦ķ à¦Ŀà¦ķ
Ġà¦Ŀà¦ķ à¦®à¦ķ
Ġà¦¸à¦«à¦² à¦Ń
ar n
Ġd is
Ġh is
Ġl ife
à§§à§¯ à§«à§¨
Ġà§§à§© à§§à§¬
Ġà§ª à§¦
Ġà¦īà¦Ńà§Ł à¦ĩ
, --
2 6
; âĢĶ
a h
Ù Ī
Ġ J
Ġ à§Ł
à¦ Ķ
à¦¾ ),
à¦¨ à¦ı
à¦¨ à¦¸à¦°
à¦¤ à¦ļà¦¨
à¦ķ à¦¬à¦¨
à¦ķ à¦°à¦ķà¦®
Ġà¦¬ à¦ķà¦°
à¥ Ĥ
à¦¸ à§ľ
à¦Ł à¦¤à¦°
Ġà¦® à¦ĸ
à¦ĩ à¦ľà¦²
à¦Ľ à§Ł
Ġà¦¹ à¦Łà¦¬
Ġà¦¤ à¦ªà¦¤
Ġà¦¤ à¦ªà¦¶
Ġà¦ħ à¦Ľ
Ġà¦ħ à¦¹à¦²
à¦ĸ à¦°à¦ļ
à¦· à¦«
à¦· à¦ľà¦¨à¦ķ
à¦£ à¦£
à¦£ à¦¬à¦¸
Ġà¦ļ à¦ĸ
Ġà¦° à¦¦
Ġà¦° à¦ĵà¦¯
à¦ĵ à¦ľ
à¦ĵ à¦¸à¦¬
à¦Ń à¦¡
à¦Ń à¦°à¦£
à¦Ń à¦¨à¦²
à¦¼à¦¾ à¥¤âĢĿ
Ġà¦¬à¦² à¦¨
Ġà¦§ à§°
Ġà¦ªà¦° à¦°
ĠâĢ ¢
à¦¼à¦¿ âĢĻ
Ġà¦®à¦¨ à¦Ĺ
Ġà¦ıà¦ĩ à¦¤
à¦ľà¦¨ à¦ľ
à¦ľà¦¨ à¦Ĺ
à¦ľà¦¨ à¦ķà¦Ń
à¦ŀ à¦Ĺ
à¦ªà¦¨ à¦¤
à§İ à¦²
Ġà¦Ĩà¦ľ à¦Ĺ
à¦¤à¦¨ à¦ĵ
à¦ħ à¦¬à¦¤
à¦ķà¦² à¦°à¦¬
Ġà¦ªà¦¥ à¦¶
à¦ķà¦Ł à¦¤à¦®
à¦¯à¦¬ à¦¶à¦¤
à¦ķà¦¤ à¦ĩ
Ġà¦¹à¦¤ à¦ļà¦ķ
à¦Ĩà¦® à¦²
à¦Ĺà¦² à¦®à¦¯
Ġà¦ľà¦² à¦®
à¦¿à¦Ĥ âĢĿ
à¦¨à¦ĵ à¦°
à¦²à¦¬ à¦£
à¦°à¦ľ à¦¤
Ġà¦ħà¦ª à¦¹à¦°à¦£
Ġà¦ħà¦ª à¦¦à¦¸
à¦¹à¦° à¦·
Ġà¦Ĩà¦¤ à¦¤
à¦¦à§Ł à¦¬
à¦°à¦ĵ à¦°
Ġà¦ıà¦° à¦ļ
à¦ļà¦ķ à¦ļà¦ķ
à§° à¦ľ
Ġà¦¶à¦¤ à¦ª
Ġà¦¶à¦¤ à¦Ń
Ġà¦¨à¦¬ à¦ļ
à¦¨à¦¸ à¦ĩ
Ġà¦ķà¦¨ à¦Ń
à¦°à¦®à¦£ à¦Ł
Ġà¦ªà¦¶ à¦²
à¦¥à¦ķ à¦Ń
à¤ ¬
à¤ ľ
Ġà¦¶à¦¹ à¦°à¦ľ
Ġà§§à§¯ à§¦à§«
à§© à§¨
à§© à§©
à¦°à¦« à¦°
he d
he n
in k
à¦¼! âĢĻ
Ġà¦Ĩà¦ļà¦°à¦£ à¦¬
à¦¯à¦ľ à¦Ĺà¦¤
à¦ıà¦®à¦¨ à¦Ł
à¦¾âĢĿ ,
Ġthe re
Ġà¦ľà¦¨à¦¸ à¦Ń
Ġà¦Ĩà¦Ł à¦ľà¦¨
Ġà¦Ĩà¦ĩ à¦ļ
Ġà¦°à¦ľ à¦¤à¦ķ
Ġà¦°à¦¥ à¦¯
Ġà¤ ª
à¦īà¦ª à¦¹
all y
ĠA I
ĠP ohela
à¦ĩà¦°à¦ķà¦® à¦ĩ
ĠT h
ver y
Ġcon t
Ġà¦ļà¦Łà¦ķ à¦¦
, âĢĶ
2 8
2 9
a v
f or
o k
p l
t le
Ã ©
Ñ ģ
Û Į
Ġ à§¦
à§ĩ ..
à§ĩ )à¥¤
à¦° à¦°à¦¥
à¦° à¦²à¦ķ
à¦° à¦¡à¦ķ
à¦¿ /
à¦¿ âĢĮ
à¦¨ à¦ıà¦°
à¦ķ à¦¶à¦ķ
à¦¯ à¦£
à¦¯ à¦¸à¦¬
à¦¯ à¦²à¦ķ
à¦¯ à¦ªà¦ķ
à¦¯ à§Łà¦¨
à¦¬ à¦¹à¦¤
à¦¬ à¦īà¦®
à¦¼ /
à¦¼ âĢĿà¥¤
à¦¼ ),
Ġà¦¬ à¦ľà¦°
Ġà¦¬ à¦īà¦²
Ġà¦¸ à¦ªà¦°
Ġà¦¸ à¦Łà¦ķ
Ġà¦¸ à§°
Ġà¦¸ à¦ĺà¦¨
Ġà¦ª à¦Łà¦ķ
Ġà¦Ĩ à¦£
Ġà¦Ĩ à¦ĩà¦°
Ġà¦Ĩ à¦£à¦¬
à¦¦ à¦Ńà¦°
à¦Ł à¦ªà¦°
à¦Ł à¦°à¦¬
Ġà¦¦ à¦ĩà§Ł
à¦ľ à¦ķà¦²
Ġà¦¹ à¦Łà¦²
à¦¶ à¦°à¦®
à¦¶ à¦²à¦¤
Ġà¦ħ à¦°à¦ķ
Ġà¦ħ à¦«à¦²
à¦· à¦®à¦¯
âĢ ¨
à¦ļ à¦ķà¦¤
Ġà¦ķà¦° à¦ª
Ġà¦Ĺ à¦Ł
à¦¥ à¦¸à¦®
Ġà¦¶ à¦¬à¦°
Ġà¦Ń à¦°à¦¬
à¦Ń à¦ķà¦°
à§ĥ à¦Ĥ
à¦ł à¦ķà¦°
à¦ł à¦¨à¦Ł
Ġà¦² à¦ĩà¦²
Ġà¦« à¦ĸà¦°
Ġà¦ĸ à¦Ĺ
Ġà¦ħà¦¨ à¦¶à¦¨
à¦¬à¦¨ à¦¶
à§ľ à¦Ł
Ġà¦®à¦¨ à¦¯
Ġà¦®à¦¨ à¦ľ
Ġà¦®à¦¨ à¦®à¦°
à¦¿à¥¤ "
à¦¿à¥¤ âĢĺ
à¦ī à¦¬à¦¨
à¦ī à¦ŀ
à¦ī à¦¦à§Ł
Ġà¦Ĩà¦² à¦¨
à¦°à¦¬ à¦ļà¦¨
à¦ı à¦·
à¦ı à¦ĵ
à¦¬à¦° à¦ļ
à¦¬à¦° à¦«
Ġà¦¬à¦²à¦² à¦¯
Ġà¦¹à¦² à¦ķ
Ġà¦¹à¦² à¦«
Ġà¦¡ à¦²à¦«
à¦ĺ à¦¸à¦®à¦¯
Ġà¦ľà¦¨ à¦¹
à¦¬à¦² à¦¸
à¦°à¦® à¦®
à¦·à¦£ à¦¹
à¦ħ à¦¬à¦°
à¦¸à¦¬ à¦Ł
à¦¯à¦¬ à¦ĩà¦¯
à¦²à¦ķ à¦¬
Ġà¦Ĩà¦ªà¦¨ à¦ľà¦¨
à¦¦à¦¨ à¦Ĺ
à¦°à¦¥à¦® à¦ľà¦¨
Ġà¦ľà¦² à¦ĩ
à¦¶à¦¨ à¦ĵ
Ġà¦ĺà¦° à¦¦
à¦²à¦¨ à¦Ĺ
Ġà¦¸à¦° à¦Ľ
à¦®à¦² à¦Ń
à¦§à¦¨ à¦¶
à¦²à¦¬ à¦¦
à¦°à¦ľ à¦°
à¦ıà¦ĩ à¦¤
Ġà¦Ĺà¦¨ à¦Ĺà¦¨
Ġà¦®à¦° à¦ļ
à¦¬à¦¦ à¦¤
à¦ľà¦² à¦¸
à¦ľà¦² à¦ľ
à¦°à¦ķà¦® à¦ĩ
Ġà¦ıà¦ķà¦ľà¦¨ à¦ĵ
Ġà¦¤à¦² à¦¸
à¦¯à¦¥ à¦Ń
Ġà¦¸à¦®à§Ł à¦®à¦¤
Ġà¦ĸà¦¬à¦° à¦ĵ
à¦®à§Ł à¦¤
à¦®à¦¸ à¦ļ
Ġà¦¦à¦° à¦¦à¦°
à¤ £
à§« à§¬
Ġà¦ľà§Ł à¦²
à§ĩâĢ¦ à¥¤âĢĿ
à¦¬à¦Ń à¦Ļ
à¦¸à¦¹ à¦®à¦°
Ġà¦ľà¦Ĺà¦¤ à¦Ł
à¦Ĺà¦£ à¦¤à¦¨
Ġà¦¸à§İ à¦ķà¦°
Ġà¦¸à§İ à¦ļà¦°
à¦Ĺà¦Ń à¦¬à¦¨
à¦¾âĢ¦ à¥¤
à¦¶à¦¦ à¦Ń
à¦¬à§Ł à¦¬
à¦¿âĢ¦ à¥¤
à§ĩ,âĢĿ âĢĶ
ar y
Ġw ill
Ġà¦Ĺà¦Ĺà¦¨ à¦ļ
Ġà§© à§¨
Ġà§© à§«
âĢįà§į âĢį
à¦¬à§İ à¦¸à¦²
Ġà¦¨à¦ĸ à¦¦à¦°
st ra
Ġà¦®à¦°à¦® à¦°
Ġà¦ļà¦ª à¦²à¦¤
Ġit self
Ġà§® à§¦
Ġon e
um an
oug h
à§§à§¯à§Ń à§§
2 7
c c
h y
m at
p er
Ù Ĩ
à °
Ġ )
à§ĩ ...âĢĿ
à¦° à¦ĩà¦²
à¦° à¦ĵà§Ł
à¦¨ à¦ªà¦¦
à¦¨ à¦®à¦¸
à¦¤ à¦ªà¦°
à¦² à¦¦à¦²
à¦¬ à§İà¦¸
à¦¬ à¦ľà¦¯
à¦® à¦¦à¦¨
à¦® à¦«à¦²
Ġà¦¸ à¦ĩà¦¯
à¦¸ à§ľà¦ķ
à¦¦ à¦ªà¦¦
à¦Ł à¦ªà¦¤à¦Ļ
Ġà¦® à¦«
Ġà¦® à¦°à¦¨
Ġà¦® à¦Łà¦°
à¦ª à¦Łà¦ķ
à¦ª à¦¬à§Łà¦¸
à¦ĩ à¦®à¦¤
à¦ĩ à¦®à¦¸
à¦ĩ à¦īà¦°
à§Ģ âĢĻ,
Ġà¦¦ à¦§
Ġà¦¤ à¦ĸ
Ġà¦ı à¦°à¦ĵ
Ġà¦ı à¦¨à¦¸
Ġà¦ı à¦®à¦ª
à¦ĸ à¦ķà¦ķ
à¦Ĺ à¦°à¦¸
à¦Ĺ à¦§à¦°
à¦Ĺ à¦ĺà¦¨
à¦· à¦²à¦§
à¦¡ à¦¡
à¦ļ à¦ļ
à¦¹ à¦«
à¦¥ à¦°à¦ķ
à¦Ń à¦ĵ
à¦¼à¦¾ âĢĿ
Ġà¦Ľ à¦ª
à¦ł à¦ľ
à¦ł à¦ĸ
à¦ł à¦ļ
Ġà¦² à¦¬à¦Ļ
Ġà¦ħà¦¨ à¦§
à¦¾à¥¤ âĢ¦
Ġà¦ªà¦° à¦ľ
Ġà¦¸à¦® à¦ķà¦ķ
ĠâĢ Į
ĠâĢ ŀ
Ġà¦®à¦¨ à¦ĩ
Ġà¦ıà¦ĩ à¦ĩ
à¦ľà¦¨ à¦®à¦¤
à¦ľà¦¨ à¦ªà¦¦à¦¬
à¦¤à¦° à¦¶
à¦« à¦«
à¦ī à¦¶
à¦ī à¦Łà¦¨
à¦ī à¦ľà¦Ł
à¦°à¦¬ à¦¹à¦®
à¦Ĩ à¦°à¦ķ
à¦Ĩ à¦ĩà¦¸
Ġà¦¡ à¦¨
Ġà¦ĩ à¦Ĺ
Ġà¦ĩ à¦¥
Ġà¦ĩ à¦¶à¦¤
Ġà¦®à¦¤ à¦Ń
Ġà¦ľà¦¨ à¦¶à¦ķ
à¦·à¦£ à¦ľ
Ġà¦ıà¦¸ à¦®à¦¯
Ġà¦¬à¦¨ à¦°
à¦¨à¦¬ à¦¶
à§ĭ, âĢĻ
à¦¦à¦¨ à¦ĩ
Ġà¦¬à¦° à¦ªà¦ķ
Ġà¦ıà¦² à¦¸
Ġà¦ıà¦² à¦ĩà¦¡
Ġà¦īà¦¦ à¦Ń
Ġà¦ľà¦² à¦¨
Ġà¦ĺà¦° à¦ľ
Ġà¦®à¦¹ à¦ķ
à¦°à¦¶ à¦¯
à¦ĩà¦² à¦¶
à¦®à¦¯ à¦ľ
à¦ļà¦² à¦Ľ
âĢ¦ à¥¤âĢĿ
à¦¤à¦² à¦Ĺ
Ġà¦¶à¦° à§İà¦ķ
à¦ªà¦¥ à¦Ł
à¦°à¦ª à¦²
Ġà¦ĵà¦ĩ à¦Ń
Ġà¦Ĩà¦§ à¦ª
à§° à¦¦
à§° à¦ĩ
à§° à¦ļ
à§° à¦Ń
Ġà¦¸à¦ķà¦² à¦ĩ
à¦¯à¦° à¦ļà¦¨
Ġà¦Ĺà§ľ à¦Ĺà§ľ
Ġà¦Ĩà¦¦ à¦ª
à¦¼à¦¾à¥¤ à¥¤
à¦°à¦¹à¦£ à¦ķ
Ġà¦ķà¦¨ à¦ķà¦²à¦¤
Ġà¦¦à¦¶ à¦°à¦¥
Ġà¦¦à¦° à¦¶à¦¨
à§© à§§
à¦¿âĢĻ !
à¦¿âĢĻ -
he re
à¦¶à¦° à§İ
Ġà¦Ĩà¦ĩà¦¨ à¦¸
à¦īà¦¡ à¦¸
Ġà¦¢à¦² à¦¢à¦²
Ġo ur
Ġà¦Ĩà¦Ł à¦ļà¦²
à§ĭ?âĢĿ âĢĶ
Ġc l
ar d
ar k
à¦Ĩà¦¨ à¦®à¦¨
Ġb et
Ġp r
ic t
Ġà§© à§«à§¦
ou t
à§ĩâĢĿ âĢĵ
Ġà§¨à§¦ à§§à§§
à¦¬à¦°à¦² à¦¹à¦°
à¦Ī à¦¨
Ġà§« à§¦à§¦
à¦¿' à¥¤
Ġbe c
os e
à¦¡à¦Ń à¦£
ĠG od
Ġà¦¹à¦ľ à¦¸à¦¨
Ġà¦§à¦ª à¦§à¦ª
Ġk now
Ġ__ __
3 1
? "
A I
a w
e k
m p
o y
p or
Ñ Ĥ
Ø ´
á Ģ
Ġ #
à§ĩ à§Ģ
à§į âĢĵ
à¦¿ )à¥¤
à¦¨ à¦¸à¦¤
à¦² à¦¬à¦ª
à¦² à¦ļà¦¨
à¦² à¦Ŀà¦°
à¦ķ à¦ķà¦²
à¦¯ à¦°à¦¤
à¦¯ à¦°à¦ķ
à¦¯ à¦¬à¦²
à¦¬ à¦Łà¦¬
à¦® à¦ľà¦²
à¦® à¦§à¦°
Ġà¦ķ à¦ĵà¦¯
Ġà¦ķ à¦ĩà¦¬
à¦¸ à¦Ńà¦°
Ġà¦ª à¦ªà¦ķà¦°
à¦¦ à¦¶à¦®
à¦ª à¦ľà¦¨
à¦ĩ à¦¡à¦²
à¦Ľ à¦Ń
Ġà¦¦ à¦¬
Ġà¦¦ à¦¦
Ġà¦¦ à¦ĩà¦¯
Ġà¦¹ à¦Łà¦¤
Ġà¦¤ à¦ľ
Ġà¦¤ à¦°à¦®
à¦¶ à¦®à¦£
à¦ĸ à¦²à¦¨
à¦ĸ à¦ľà¦¨à¦ķ
à¦§ à¦ªà¦¤
à¦ļ à¦ĵà¦¡
à¦¹ à¦ªà¦°
Ġà¦ķà¦° à¦®
Ġà¦Ĺ à¦¸
à¦£ à¦²à¦¤
à¦£ à¦®à¦£
à¦ĵ à¦«
à¦ł à¦ĩ
Ġà¦ī à¦Ĺà¦°
à¦Ĥ âĢ¦
à¦Ļ à¦Ł
Ġà¦ĵ à¦ħà¦°
Ġà¦¬à¦² à¦¶
à¦¬à¦¨ à¦¨
à¦¼à¦¿ ;
à§ľ à¦¹
Ġà¦ıà¦ĩ à¦¦
à¦¤à¦° à¦ŀ
à¦ī à¦¤à¦°
à¦ī à¦ªà¦¤
Ġà¦Ĩà¦² à¦ĸ
à¦Ĩ à¦Łà¦ķ
Ġà¦¸à¦¬ à¦¸
Ġà¦Ł à¦Ĺà¦°
Ġà¦ĩ à¦īà¦ľ
Ġà¦§à¦° à¦¨à¦Ł
à¦¬à¦² à¦°
à¦¬à¦² à¦Ł
à¦·à¦£ à¦ª
à¦ħ à¦¸à¦¤
à¦ħ à¦Ĺà¦£
Ġà¦¬à¦¨ à¦Ł
Ġà¦¨à¦¤ à¦¶
Ġà¦ħà¦® à¦¤
Ġà¦Ĩà¦Ĺ à¦®
à¦ķà¦Ł à¦®
à¦°à¦¸ à¦¦à¦¨
à¦¨à¦¬ à¦Ĺ
à¦¦à¦¨ à¦¦
à¦¦à¦¨ à¦ª
Ġà¦¬à¦° à¦²
à§ĩ? "
Ġà¦īà¦ª à¦¸à¦°
Ġà¦īà¦ª à¦¶à¦®
à¦¯à¦¤ à¦²
Ġà¦ħà¦ª à¦ª
à¦ļà¦² à¦Ń
Ġà¦¸à¦¹ à¦§à¦°
Ġà¦ĵà¦ªà¦° à¦ĵ
Ġà¦¬à¦Ľà¦° à¦ĵ
Ġà¦°à¦Ļ à¦§à¦¨
Ġà¦¯à¦¤ à¦Ĺ
Ġà¦ªà¦¦ à¦ª
Ġà¦ıà¦Ĺ à¦ľ
à¦ªà¦¦ à¦Ł
à¦ªà¦¦ à¦Ĺ
à¦ªà¦¥ à¦Ń
Ġà¦ħà¦ªà¦° à¦ªà¦ķ
Ġà¦«à¦² à¦Ĺ
à¦¤à¦ķ à¦°à¦¬
Ġà¦²à¦ķ à¦¡
Ġà¦ªà¦¤ à¦ŀ
Ġà¦¤à¦² à¦ª
Ġà¦¸à¦®à§Ł à¦¸
Ġà¦ĺà¦¨ à¦ĺ
à¦¹à¦¤ à¦Ń
Ġà¦Ī à¦®
Ġà¦īà¦ªà¦¨ à¦¯
à¤ Ĺ
Ġà¦®à¦² à§Ł
Ġà¦ľà§Ł à¦¦
Ġà§§à§¯ à§§à§Ń
à§© à§«
à§© à§¯
on d
âĢ¦âĢĿ âĢĶ
at ed
à¦¸à¦ķà¦² à¦ķ
Ġà¦¦à¦ĸà¦² à¦¦
Ġa pp
Ġw or
à¦ļà¦® à§İà¦ķ
à¦ĭ à¦¦
à¦Ĩà¦ļ à¦®à¦ķ
ic e
le d
Ġà¦ķà¦¬à¦° à¦¸
Ġà¦¨à§ľ à¦Ľ
Ġà¦®à¦¦à¦¨ à¦®
Ġà¦ķà§ľ à¦ķà§ľ
Ġl iter
Ġth is
Ġà§Ń à§¦
ig o
Ġà¦¸à¦®à¦Ŀ à¦¦
am e
Ġà¦ķà¦ªà¦Ł à¦¤
ag e
ĠĠĠĠĠĠĠĠ ĠĠĠĠĠĠĠĠ
Ġà¦®à¦ĸ à¦®à¦²
" à¥¤
3 4
I N
c le
e p
f f
o od
r u
t er
t her
u c
à ´
à¦° à¦Ŀà¦°
à§į à§į
à¦¿ ÂŃ
à¦¨ à¦ł
à¦¨ à¦Ĩà¦ªà¦¨
à¦¤ à¦Ļ
à¦¤ à¦ªà¦²
à¦² à¦ªà¦°
à¦¯ à¦¦à¦°
à¦¬ à§İà¦¸à¦°
à¦® à¦®à§Ł
Ġà¦¬ à¦°à¦¨
Ġà¦¬ à¦ļà¦¸
Ġà¦¸ à¦¦à¦¨
Ġà¦¸ à¦°à¦¸à¦°
à¦¸ à¦¬à¦¨
Ġà¦¨ à¦ĵà¦°
Ġà¦® à§ľ
à¦ª à¦¬à¦¦
à¦ĩ à¦·
à¦ĩ à¦¸à¦®à¦¯
à¦ĩ à¦¸à¦Ł
à§Ģ âĢĿà¥¤
à¦Ľ à¦ļ
à¦ľ à¦°à¦£
Ġà¦¹ à¦°à¦ª
Ġà¦ı à¦§
Ġà¦ı à¦Ļ
Ġà¦ı à¦®à¦¬
à¦¼à§ĩ ?âĢĿ
Ġà¦ħ à§°
Ġà¦ħ à¦®à¦¨à¦ĩ
à¦Ĺ à¦°à¦ľ
à¦Ĺ à¦ªà¦¥
à¦Ĺ à¦®à§Ł
à¦¡ à¦ĵà§Ł
à¦ļ à¦°à¦®
à¦ļ à¦ªà¦¦à¦¸
à¦¹ à¦§
à¦¹ à¦²à¦ķ
Ġà¦ķà¦° à¦¹
à§Ł à¦ľ
à§Ł à¦ľà¦¨
à§Ł à¦¤à¦¨
Ġà¦Ĺ à¦Ĺ
à¦£ à¦ļà¦°
à¦¥ à¦Ľ
à¦¥ à¦°à¦¬
Ġà¦° à¦¥à¦¬
à¦¼à¦¾ à¦ģ
à¦¼à¦¾ à¦ĥ
à§ĥ à§į
Ġà¦Ľ à¦²à¦ķ
à¦Ĥ âĢĶ
à¦¾à¦ģ âĢ¦
Ġà¦¬à¦² à¦ª
Ġà¦ĸ à§ľà¦ķ
à¦°à¦¤ à¦Ł
Ġà¦ħà¦¨ à¦®à¦¨
à¦ľà¦¨ à¦§à¦°
à¦« à¦¦
à¦ī à¦«
à¦ªà¦¨ à¦Ł
à¦°à¦¬ à§İ
à¦Ĩ à¦«
à¦Ĩ à¦¹à¦¤
à¦ı à¦¤à¦Ł
à¦ı à¦¤à¦ĩ
à¦¬à¦° à¦ļà¦¨
Ġà¦Ĩà¦¸ à¦¨à¦Ł
Ġà¦¹à¦² à¦Ł
Ġà¦ĩ à¦Łà¦¸
Ġà¦®à¦¤ à¦ª
Ġà¦ľà¦¨ à¦¬
Ġà¦Ŀ à¦®
à¦¬à¦² à¦ª
Ġà¦ļà¦² à¦ķ
Ġà¦ıà¦¸ à¦ª
à¦¤à¦¨ à¦¦
Ġà¦¨à¦¤ à¦®
à¦ķà¦² à¦¬
Ġà¦ªà¦¥ à¦¯
Ġà¦ħà¦® à¦²à¦¤
Ġà¦Ĺà¦² à¦²
Ġà¦ĵà¦ł à¦Ľ
à¦ķà¦Ł à¦²
à¦ķà¦Ł à¦®à¦¯
à¦¸à¦¬ à¦¹
Ġà¦Ĩà¦ķ à¦¨
à¦¾à¦Ĥ -
à¦¾à¦Ĥ à¥¤
à¦¦à¦¨ à¦ĵ
à¦ķà¦¤ à¦®
à¦¦à¦° à¦Ń
à¦Ĺà¦¤ à¦ĩ
à¦®à¦¤ à¦Ń
à¦°à¦¹ à¦ĩ
à¦°à¦¹ à¦ĵ
Ġà¦īà¦ª à¦¶
à¦ĩà¦² à¦ĸ
à¦°à¦¦ à¦®
à¦°à¦ľ à¦Ĺà¦¤
Ġà¦ķà¦² à¦ľ
Ġà¦Ĩà¦¤ à¦ª
à¦ĩà¦¨ à¦²
à¦ıà¦ĩ à¦°
à¦Ńà¦¬ à¦ĩ
à¦Ńà¦¬ à§İ
Ġà¦Ĳ à¦²
à§ĩ! '
à¦ıà¦ķ à¦¸à¦®à§Ł
Ġà¦¬à¦ĩ à¦¸
Ġà¦¬à¦ĩ à¦ª
Ġà¦¬à¦ĩ à¦ĩ
à¦¬à¦¸ à¦Ń
à¦Łà¦² à¦®
à¦Łà¦² à¦®à¦²
Ġà¦«à¦² à¦¦
Ġà¦«à¦² à¦ĵ
à¦¯à¦® à¦ĩ
à¦¬à¦ķ à¦¨
à¦¤à¦¤ à¦¸
à§° à¦§
à¦ªà¦¸ à¦¦
à¦Łà¦¬ à¦¡
à¦īà¦² à¦Ĺ
Ġà¦ĺà¦¨ à¦ĺà¦Ł
Ġà¦ķà¦¨ à¦¡
à§¨ à§¯
Ġà¦¹à¦° à¦°
Ġà¦Ĩà¦Ń à¦°à¦£
à¤ ª
à¦®à¦¦ à¦¤
à§ĩâĢ¦ )
à§© à§Ń
Ġà¦Ĩà¦ĩà¦¨ à¦Ĺà¦¤
à¦ľà¦Ĺ à§İà¦ķ
à¦¨à§Łà¦¨ à¦¶
à¦¬à¦ľà¦¨ à¦¨
Ġà¦Ĩà§ľ à¦·
à¦ħà¦¬ à¦¸à¦°
at h
à¦¬à¦°à¦£ à¦ķ
en g
is e
Ġà¦ļà¦°à¦£ à¦¤à¦²
Ġà¦Ķ à§İà¦¸
Ġs o
à¦¦à¦ª à¦¤à¦¨
à¦ľà¦¦ à¦£
Ġà¦°à¦ľ à¦¤à¦¬
Ġa m
à¦¾?âĢĿ âĢĶ
à¦Ĩà¦¤ à¦Ļ
à¦īà¦ł à¦¤
Ġà¦¨à¦Ł à¦¬à¦°
Ġà§¨à§¦ à§§à§¨
Ġà¤ ¬
à¦ĸà¦¬à¦° à¦Ł
Ġà¦ħà¦¬à¦¸à¦° à¦ª
à¦°à¦¬à¦£ à¦¶à¦ķ
à§§à§¯ à§¬
Ġth ings
ra d
et ective
ĠB e
Ġà¦¨à¦ĵ à¦¶
Ġe v
ĠR up
ow n
ĠD e
Ġà§§à§® à§«à§Ń
Ġwh at
Ġà¦Łà¦¹à¦² à¦¦
Ġà§¨à§¦à§¦ à§¯
Ġ__ _
Ġtr ans
! âĢĶ
) ;
3 2
3 5
T I
f rom
j ect
l l
n e
o b
p H
w ay
Ñ ĥ
à ®
Ġ if
à§ĩ ),
à¦° à¦Ĺà¦¨
à¦¨ à¦ªà¦ķ
à¦¨ à§Łà¦¬
à¦¤ à¦¬à¦¨
à¦¤ à¦Ĺà¦£
à¦¤ à¦¶à¦¤
à¦² à¦®à¦§
à¦ķ à¦ªà¦°
à¦ķ à¦¬à¦²
à¦ķ à¦¸à¦¬à¦ľ
à¦¯ à¦¡
à§ģ )
à¦¬ à¦ĺ
à¦¬ à¦°à¦¬à¦°
à¦¼ âĢĻà¥¤
à¦® à¦®à¦£
à§ĭ )
Ġà¦¬ à¦ĸ
Ġà¦¬ à¦ªà¦£
Ġà¦¸ à¦ĵà§Ł
à¦¸ à¦¬à¦²
à¦¸ à¦®à¦ķ
à¦¸ à¦¯à¦ľ
Ġà¦Ĩ à¦ĵà§ľ
à¦¦ à¦ĸà¦²
à¦Ł à¦°à¦Ł
Ġà¦¨ à¦°à¦¹à¦°
Ġà¦® à¦Ĺà¦ľà¦Ł
à¦ª à¦®à¦£
à¦ª à§°
à¦ª à¦¯à¦ľ
à¦ĩ à¦²à¦¨
à¦ĩ à¦ĺà¦°
à¦ĩ à¦ļà¦Ł
à¦Ľ à¦²à¦¨
à¦ľ à¦¦à¦°
Ġà¦¹ à¦¦à¦¯
à¦¶ à¦²à¦¯
Ġà¦ħ à¦¤à¦¬à¦¡
à¦ĸ à¦¹
à¦Ĺ à§İ
à¦Ĺ à¦Ńà¦°
à¦§ à¦¤à¦°
à¦§ à¦¬à¦°
à¦ļ à¦²à¦ķ
à¦ļ à¦¶à¦®
Ġà¦ķà¦° à¦¦
à¦£ à¦ĸ
à¦£ à¦ªà¦ķ
à¦¥ à¦ļ
Ġà¦¶ à¦¤à¦°à¦Ļ
Ġà¦ľ à¦Ĺà¦ľ
Ġà¦ľ à¦łà¦°
Ġà¦° à¦²
à¦ĵ à¦²à¦ľ
Ġà¦ıà¦ķ à¦¶à¦¬
Ġà¦ıà¦ķ à¦ĺà¦°
Ġà¦Ĩà¦® à¦¸
Ġà¦ī à¦ĩà¦¦
à¦Ļ à¦¡
Ġà¦² à¦ķà¦²à¦ķ
à§ĩ, --
Ġà¦ĸ à§Ł
à¦°à¦¤ à¦ª
à¦¬à¦¨ à¦ĸ
à¦¬à¦¨ à¦ļà¦°
à§ľ à¦Ń
à¦ī à¦ĸ
à¦ī à¦°à¦¤à¦¨
à¦Ĩ à¦ĩà¦¡
à¦¬à¦° à¦¸
Ġà¦¬à¦²à¦² à¦ıà¦ķà¦Ł
Ġà¦Ł à§Łà¦²
Ġà¦ĩ à¦®à¦¤
Ġà¦ľà¦¨ à¦®à¦¨
Ġà¦ľà¦¨ à¦¬à¦¸à¦¤
à¦¬à¦ª à¦¦
à¦°à¦® à¦¦
à¦°à¦® à¦¶à¦ķ
à¦¤à¦¨ à¦Ĺ
à¦ħ à¦ĸà¦£
à¦¤à¦¬ à¦®
à¦Ĺà¦² à¦ĩ
à¦¹à¦¸ à¦ĵ
Ġà¦®à¦¹ à¦¡
à¦Ľà¦¨ à¦Ł
à¦§à¦¨ à¦Ńà¦ľà¦¨
à¦°à¦ľ à¦ķ
Ġà¦īà§İ à¦ĸ
Ġà¦Ĺà¦° à¦Ĺà¦°
à¦¯à¦® à¦ŀ
à¦¤à¦ķ à¦¦
à¦¤à¦ķ à§ľ
à¦¤à¦® à¦ľ
Ġà¦ĩà¦¨ à¦¶
Ġà¦ħà¦² à¦°
à¦ķà¦¨ à¦¸
à¦¸à¦ķ à¦Ĺ
à§° à¦¥à¦®
Ġà¦¶à¦¤ à¦Ĺ
Ġà¦Ĩà¦ļ à¦®
Ġà¦Ĩà¦¦ à¦°à¦£
à¦Ĺà¦ľ à¦ĸ
Ġà¦Ĩà¦¹ à¦®à¦¦
Ġà¦ĸà¦¬à¦° à¦ĩ
Ġà¦ķà¦· à¦²
Ġà¦¨à¦°à¦® à¦¤
à¦ľà¦¬ à¦ī
à¦ľà¦¬ à¦īà¦¦
à¦®à¦Ł à¦®
à§ĭ- -
Ġà¦¬à§ľ à¦°
Ġà¦®à¦ľ à¦¦
à¦°à¦° à¦Ļ
à¤ ¸
à¦ķà¦¸ à¦Ń
à¦¿âĢĻ âĢĵ
à§Ń à§¦
à§ĩ!âĢĿ âĢĶ
Ġà¦ļà¦Ł à¦ļà¦Ł
Ġà¦®à¦¶ à¦ķà¦°
at er
at ive
al ity
Ġà¦Ĩà§Ł à¦¤à¦¨
er t
Ġthe m
à¦¾âĢ¦ âĢĻ
Ġà¦²à§ľ à¦Ľ
Ġs oci
à¦ĩà¦« à¦¯
ar g
Ġà¦°à¦£ à¦¸
Ġà¦Ńà¦¬à¦¨ à¦Ł
à¦¾,âĢĿ âĢĶ
ion s
à¦ªà¦ľ à¦Ļ
Ġf re
Ġà¦®à¦¦à¦¨ à¦¦
Ġh ad
Ġh uman
Ġl ove
Ġl ike
ĠI s
ĠA r
__ __
à¦Ĭ à¦·
áĥ ĺ
Ġà¦ĸà¦² à¦ĸà¦²
Ġà§§à§¯à§¯ à§«
Ġon ly
ers on
à¦ķà¦Ŀ à¦²à¦ķ
Ġà¦°à¦¸à¦¬ à¦¤
Ġab stra
Ġdis c
! (
, ---
3 3
3 7
5 5
? -
T h
a ke
c y
h in
m an
o ore
Ġ `
Ġ â
à§ »
à¦° à¦¡à¦¬
à§į âĢ¦
à¦¿ à§Ģ
à¦¨ à¦¶à¦ķ
à¦¤ à§İ
à¦¤ à¦¸à¦¨
à¦¤ à§°
à¦² à¦Ĺà¦²
à¦² à¦°à¦ķà¦®
à¦² à¦ªà¦®
à¦ķ à¦ĵà¦¯
à¦ķ à¦ªà¦¥
à¦¯ à¦·
à¦¬ à¦ĩà¦Ł
à¦® à¦ªà¦ķ
à¦® à¦¸à¦Ļ
Ġà¦ķ à¦Ľ
Ġà¦ķ à¦ĩà¦Ľ
Ġà¦¬ à¦Łà¦²
Ġà¦¬ à§°
à¥¤ ]
à¦¸ à¦ĵà§Ł
à¦¸ à§İà¦ķ
à¦¸ à¦¹à¦¨
Ġà¦Ĩ à¦ĩà¦ª
à¦¦ à¦¬à¦¨
à¦¦ à¦ļà¦¯
à¦¦ æĹ¥ãģ®
à¦Ł à¦¤à¦®
Ġà¦¨ à¦°à¦¸
Ġà¦® à¦¬
à¦ª à¦¹à¦°
à¦ĩ à¦®à¦¨
à¦ĩ à¦ªà¦Ł
à¦ĩ à¦¶à¦Ł
à§Ģ âĢ¦âĢĿ
à¦Ľ à¦®
à¦ľ à¦ªà¦¦
Ġà¦ı à¦ĺà¦°
Ġà¦ı à¦Ńà¦°
à¦¶ à¦°à¦£
à¦¶ à¦¸à¦®
à¦¶ à§Łà¦¨
Ġà¦ħ à¦ªà¦¨
à¦ĸ à¦¬à¦¨
à¦ĸ à¦®à§Ł
à¦Ĺ à¦ªà¦¤
à¦· à¦¬à¦°à¦£
Ġà¦¯ à¦ľà¦¨
à§Ł à¦¸à¦Ļ
Ġà¦Ĺ à¦ľà¦¬
Ġà¦¶ à¦¬à¦¨à¦®
à¦ĵ à¦·
à¦ĵ à¦ĵ
à¦Ń à¦ŀ
Ġà¦ıà¦ķ à¦ªà¦°
Ġà¦Ĩà¦® à¦ľà¦¨à¦¤
à¦ł à¦§
à¦ł à¦¤à¦°
à¦ł à¦ļà¦ķ
Ġà¦ĵ à¦ľà¦¸
à¦°à¦¤ à¦ĵ
à§ľ à¦¦
à¦ªà¦° à¦Ł
à¦¿à¥¤ '
à¦®à¦¨ à¦Ĺà¦°
à¦ľà¦¨ à¦¬à¦°
à¦ī à¦¬à¦²
à¦ī à¦ĩà¦¨
à¦ī à¦¤à¦²
Ġà¦Ĩà¦² à§Ł
à¦°à¦¬ à¦¬
à¦°à¦¬ à¦ª
à¦Ĩ à¦°à¦®
à¦°à¦ķ à¦ķ
Ġà¦¬à¦²à¦² à¦ıà¦¬
Ġà¦¬à¦²à¦² à¦Ĳ
Ġà¦Ł à¦¨à¦ķ
âĢĻ )
âĢĻ à¥¤âĢĿ
Ġà¦ĩ à¦¬à¦¨
Ġà¦ĩ à¦īà¦ķ
Ġà¦ĩ à¦¶à¦°
Ġà¦ĩ à¦Ńà¦¨
Ġà¦ĩ à¦¨à¦¬à¦ķ
à¦ĺ à¦·
à¦ĺ à¦ļ
à¦¬à¦² à¦Ń
Ġà¦ł à¦ķà¦¬
à¦¤à¦¨ à¦¬
à¦ħ à¦«à¦²
Ġà¦¬à¦¨ à¦ķ
Ġà¦¬à¦¨ à¦¦
à¦ķà¦² à¦ľ
à¦ķà¦° à¦Ľ
à¦ķà¦Ł à¦¸
Ġà¦ħà¦¸ à¦¤à¦°
à¦¤à¦¬ à¦Ĺ
à¦¨à¦¬ à¦§à¦°
à¦¦à¦¨ à¦®
Ġà¦¬à¦° à¦ĩ
à§ĩ? âĢĵ
Ġà¦Ĩà¦¨ à¦¯
Ġà¦Ĩà¦¨ à¦¸
à¦Ĺà¦² à¦¨
à¦Ĺà¦² à¦Ľ
à¦Ĺà¦² à¦®à§Ł
Ġà¦ľà¦² à¦®à¦Ĺ
à¦¿à¦Ĥ !âĢĿ
à¦¶à¦¨ à¦¸
à¦¶à¦¨ à¦¶
Ġà¦ħà¦¤ à¦ĸ
Ġà¦¸à¦° à¦Ĺà¦°à¦®
à¦Ľà¦¨ à¦ª
à¦ĩà¦² à¦Ĺ
à¦ĩà¦² à¦«à¦²à¦ķ
à§ĩâĢĶ âĢĻ
Ġà¦ħà¦ª à¦²
Ġà¦ıà¦®à¦¨ à¦¤à¦°
Ġà¦¸à¦¹ à¦®à¦¤
Ġà¦ĵà¦° à¦ĵ
à¦Ńà¦¬ à¦ĵ
à¦¹à¦² à¦¹
âĢ¦ âĢ¦
âĢ¦ à¥¤âĢĻ
Ġà¦ķà¦® à¦£
à¦Ĺà¦¨ à¦¸
Ġà¦ªà¦¦ à¦¶à¦¬
à¦°à¦ª à¦Ļ
Ġà¦¬à¦ĩ à¦ĵ
à¦·à¦¤ à¦®
à¦·à¦ķ à¦¥
à¦¶à¦ķ à¦ķ
Ġà¦Ĩà¦¡ à¦®
à¦¸à¦ķ à¦¦à¦²
à¦¨à¦¸ à¦¹
à¦¨à¦° à¦°
à¦ĩà¦Ł à¦Ł
à¦ĩà¦Ł à¦Ĺ
à¦Łà¦¨ à¦®
à¦²à¦Ĺ à¦ŀ
à¤ ·
à¦ķà¦°à¦£ à¦Ĺà¦¤
Ġà¦°à¦ĵà¦¶à¦¨ à¦ĩ
à§ĩâĢ¦ .
Ġà¦ħà¦Ł à¦²à¦¤
à¦¯à¦Ń à¦Ļ
à¦°à¦« à¦°à¦®
à¦ļà§Ł à¦ķ
à¦·à§Ł à¦¬à¦¸
en s
en er
à¦Ńà§Ł à¦ķ
it al
Ġthe se
Ġà¦°à¦ľà¦¤ à¦¦
Ġà¦Ĩà¦Ł à¦¶
à§ĩâĢĻ âĢĵ
Ġs ol
Ġà¦Ĩà¦ĩ à¦ĵà¦Ł
à§İà¦ª à§°
à¦ĩà¦« à¦¸
à§ģ! )
Ġà¦ıà¦® à¦ı
à¦ħà¦² à¦Ļ
à¦ħà¦ª à¦²à¦ķ
Ġp art
à¦ħà¦Ĺ à¦£à¦¨
à¦®à¦Ŀ à¦®
Ġà§§à§¯à§Ń à§¦
Ġà¦ĸà¦° à¦ĸà¦°
Ġh im
Ġà¤ Ĩ
om p
ve l
Ġà¦¶à¦°à§İ à¦¬
à§§à§¯ à§®
il y
à§į! !
Ġà¦¨à¦ĵ à¦ľ
Ġà§Ń à§«
Ġà¦ķà¦¸ à¦°à¦¤
Ġre s
ce pt
Ġit s
Ġcon s
Ġà§§à§¯à§® à§¯
Ġà§§à§¯à§¬ à§®
Ð° Ð
Ġà¦®à¦ļ à¦®à¦ļ
Ġind igo
ivid ual
) -
- âĢľ
3 6
? '
? âĢĶ
a re
c l
d v
h il
i z
i an
m a
m er
n ot
p ect
s h
u ra
u hin
x x
Â «
Ñ ĭ
à ¨
Ġ ...
à¦° à¦²à¦¤
à¦° à¦ļà¦ķ
à¦° à¦ĭà¦£
à§į ?
à§į âĢĶ
à¦¨ à¦ļà¦¨
à¦¨ à¦ļà¦ķ
à¦¨ à¦ªà¦Ł
à¦¤ à¦¦à¦°
à¦¤ à¦ªà¦¤
à¦¤ à¦¤à¦²
à¦¤ à¦°à¦¤à¦®
à¦² à¦§à¦°
à¦² à¦Łà¦¨
à¦² à¦¶à¦¯
à¦ķ à¦¥à¦¨
à¦¯ à¦ĺ
à¦¯ à¦¹à¦¤
à¦¬ à¦ľà§Ł
à¦¼ âĢ¦âĢĿ
Ġà¦¬ à¦ķà¦¶
à¥ ĥ
à¦¸ à¦ĺà¦°
à¦¸ à¦¸à¦¹
Ġà¦Ĩ à¦¹à¦²
à¦Ł à¦§
à¦Ł à¦ĺ
à¦Ł à¦¦à¦²
Ġà¦® à¦°à¦ķ
Ġà¦® à¦²à¦¤
Ġà¦® à¦Ĺà¦Ł
à¦ª à¦Ĺà¦¤
à¦ª à¦£à¦¤
à¦ª à§Łà¦¸
à¦ĩ à¦§
à¦ĩ à¦¥
à¦ĩ à¦°à¦¨
à¦ĩ à¦®à¦²
à¦ĩ à¦īà¦ľ
à¦ľ à¦¹à¦°
à¦ľ à¦Ĺà¦£
Ġà¦¤ à¦¦à¦¬
Ġà¦ı à¦®à¦¤
Ġà¦ı à¦§à¦°à¦¨
à¦ĸ à¦²à¦¤
à¦Ĺ à¦¸à¦®
à¦Ĺ à¦ľà¦¨à¦ķ
à¦§ à¦°à¦¤
à¦§ à¦®à¦ķ
Ġà¦¯ à§İ
Ġà¦¯ à¦®à¦¦
à¦¹ à¦¨à¦¤
Ġà¦ķà¦° à¦ľ
Ġà¦ķà¦° à¦£à¦ķ
à¦£ à¦ķà¦¥
à¦£ à¦ķà¦£
Ġà¦¶ à¦ķà¦¤
Ġà¦¶ à¦°à¦¶à¦¯
Ġà¦Ń à¦ķà¦¤
Ġà¦° à¦°
à§ĩà¥¤ (
à¦Ń à¦£
Ġà¦ıà¦ķ à¦¤à¦®
Ġà¦ıà¦ķ à¦ıà¦ķà¦Ł
Ġà¦ıà¦ķ à¦ķà¦Ń
à¦¼à¦¾ ?âĢĻ
Ġà¦Ľ à¦Łà¦ķ
Ġà¦Ľ à¦²à¦ļ
Ġà¦ī à¦«
à¦Ĥ âĢĵ
à¦Ļ à§ľ
Ġà¦² à¦Łà¦ķ
Ġà¦Ĩà¦° à¦¬à¦°
Ġà¦Ĩà¦° à¦¬à¦¦
Ġà¦ĸ à¦ķ
Ġà¦§ à¦¨à¦¬
Ġà¦¸à¦® à¦ªà¦°
à¦¬à¦¨ à¦Ĺà¦°
Ġà¦ĺ à¦°à¦®à¦¯
Ġà¦®à¦¨ à¦°
à¦®à¦¨ à¦¦
à¦ľà¦¨ à¦ª
à¦ľà¦¨ à¦Ĺà¦£
à¦¤à¦° à¦¨
à¦ī à¦§
à¦ī à¦ĩà¦²
Ġà¦Ĩà¦² à¦¯
à¦Ĩ à¦ĩà¦²
à§İ à¦«
Ġà¦¸à¦¬ à¦®
Ġà¦¬à¦²à¦² à¦ĸ
Ġà¦¡ à¦Ļ
Ġà¦ĩ à¦«
Ġà¦ªà¦¡ à¦ķ
à¦ĺ à¦¦à¦²
Ġà¦®à¦¤ à¦¨à¦ĩ
à¦°à¦® à¦ĵ
à¦·à¦£ à¦¬
Ġà¦ıà¦¸ à¦¸
à¦ĥ âĢĻ
à¦ħ à§Łà¦¨
à¦ħ à¦¥à¦°
Ġà¦Ĩà¦Ĺ à¦®à¦£
à¦²à¦ķ à¦Ĺ
Ġà¦Ĩà¦¨ à¦ļ
à¦¦à¦° à¦²
à¦Ĺà¦² à¦ĵ
Ġà¦ħà¦¤ à¦¦
à¦§à¦ķ à¦°à¦£
à¦¹à¦¸ à¦ķ
à¦ļà¦¨ à¦Ńà¦Ļ
à¦®à¦² à¦¯
à¦®à¦² à¦¦
Ġà¦ħà¦ª à¦¤
Ġà¦ħà¦ª à¦ĺ
Ġà¦ķà¦² à¦Ł
Ġà¦ķà¦² à¦®à¦Ł
à¦ıà¦ĩ à¦ĩ
à¦°à¦ªà¦° à¦¨
à¦Łà¦ķ à¦¥
Ġà¦¬à¦¹ à¦¨à¦ķ
à§ĩ! )
Ġà¦ªà¦¦ à¦¤
à¦®à¦£ à¦¬
à¦®à¦£ à¦ĩ
à¦ıà¦ķ à¦ª
à¦ıà¦ķ à¦Ĺ
à¦ıà¦ķ à¦¦à¦²
à¦¨à¦ķ à¦£
à¦°à¦ª à¦ķ
à¦¬à¦¦ à¦®
à§İà¦ķ à¦£
Ġà¦Ĩà¦§ à¦¶
à¦¤à¦¤ à¦ĩ
Ġà¦Ńà¦¬ à¦®
à¦ªà¦Ł à¦Ń
à¦ķà¦¨ à¦®
Ġà¦¦à¦² à¦ĩ
Ġà¦¨à¦¬ à¦Ĺ
à¦¨à¦¸ à¦Ń
à¦¬à¦¶ à¦Ļ
à¦¨à¦° à¦Ļ
à¦īà¦² à¦Ł
à¦°à¦®à¦£ à¦¬
à¦°à¦®à¦£ à¦Ń
Ġà¦Ĺà¦£ à¦¸
Ġà¦Ĺà¦£ à¦ªà¦¤
Ġà¦Ĺà¦£ à¦¹à¦¤
à¦¦à¦® à¦¬à¦¨
à¦²à¦® à¦¹
Ġà¦§à¦¨ à¦°à¦¤
à¦¹à¦°à¦£ à¦ĩ
à¤ ¶
à¤ ļ
à¦¿; -
à¦¯à¦Ĺ à¦łà¦¨
Ġà¦ľà§Ł à¦ķ
Ġà¦Ĺà¦¹ à¦¬à¦°
Ġà¦Ĳà¦ķ à¦®à¦¤
à§Ŀ à¦ļ
à¦ıà¦ĸà¦¨ à¦ķ
Ġt e
Ġà¦ļà¦¨ à¦®à¦¨
à¦¸à¦¹ à¦¦
à¦ķà¦Ĺ à¦£
he s
in e
à¦¨à¦ª à¦¤à¦¨
à¦¤à¦¸ à¦ĩ
à¦¶à¦¤ à¦ªà¦¥
Ġà¦ªà¦²à¦ķ à¦¹
Ġà¦®à¦¦ à¦¤
Ġà¦Ĩà¦ļà¦°à¦£ à¦ķ
à¦Ĩà¦¶ à¦Ļ
is s
Ġà¦ıà¦°à¦ªà¦° à¦ĩ
Ġà¦²à§ľ à¦¬
Ġà¦Ķ à¦°
Ġà¦Ĩà¦« à¦¨
Ġa r
Ġc ult
Ġà¦®à¦°à¦£ à¦ķ
Ġà¦ĩà¦® à¦ªà¦¸
es c
Ġw ere
à§ģà¦Ĥ -
à¦īà¦ł à¦¬
ic ation
Ġà§© à§§
Ġà§© à§Ń
à¦£à¦Ń à¦Ł
à¦°à¦ķà¦Ł à¦Ń
à¦Ī à¦°
à¦¬à§İ à¦¸à¦®
Ġà¦¨à¦Ĺ à¦°à¦ķ
ĠI n
Ġà§« à§«
à§§à§¯ à§ªà§Ń
Ġth an
ra g
ol d
et y
à¦¿' ,
ĠâĢ¦ à¥¤
Ġà¦ķà¦¤à¦¬ à¦¡
ĠS oci
Ġe very
ig h
Ġre l
áĥ Ĳ
ĠR e
Ġà§§à§¯à§ª à§¨
Ġà§§à§¯à§ª à§«
id e
ĠD etective
Ġà§¬ à§¦
ver s
à¦¶à¦§ à¦°à¦¦
Ġà¦īà¦ĩ à¦¥
ip s
Ġyou r
******** ********
æŃĵæŃĵæŃĵæŃĵæŃĵæŃĵæŃĵæŃĵ æŃĵæŃĵæŃĵæŃĵæŃĵæŃĵæŃĵæŃĵ
Ġà¦«à¦¸à¦« à¦¸
ĠInd ia
int u
Ġà¦Ĩà¦ĩà¦ķ à¦¨
! âĢ¦
b le
d er
e g
j un
l ow
n ess
r ough
u ch
y an
¿ ½
Â ¦
Â »
× Ļ
Ø ª
à «
ï ¿½
Ġ her
Ġ up
Ġ Â«
à¦¾ à§į
à¦¾ ..
à¦¾ ...
à§ĩ âĢĮ
à¦° à¦Ĩà¦¨
à¦¿ ...âĢĿ
à¦¨ à¦¸à¦¬
à¦¨ à¦¦à¦¯
à¦¨ à¦ıà¦ĩ
à¦¨ à¦ĺà¦¨
à¦² à¦ªà¦ķ
à¦² à¦ĸà¦£
à¦ķ à¦®à¦¨
à¦ķ à¦ķà¦°
à¦ķ à¦¦à¦²
à¦ķ à§°
à¦ķ à¦ıà¦°
à¦¯ à¦®à¦ķ
à¦¬ à¦ķà¦¤
à¦¬ à¦īà§Ł
à¦¼ âĢĻ,
à¦® à¦Ĺà¦°
à¦® à¦¸à¦¤
à¦® à¦¸à¦²
à¦® à¦Ńà¦ķ
à¦¸ à¦ıà¦°
Ġà¦Ĩ à¦¦à¦¨
à¦¦ à¦°à¦¤
à¦¦ à¦²à¦ķ
à¦¦ à§°
à¦¦ à¦ķà¦£
Ġà¦¨ à¦Łà¦°
à¦ĩ à¦¦à¦¹
Ġà¦¦ à¦°à¦Ĺ
à¦ľ à¦ŀ
à¦ľ à¦¸à¦¨
Ġà¦ı à¦Ĺà¦¤
à¦¼à§ĩ --
à¦ĸ à¦®à¦¨
à¦Ĺ à¦łà¦ķ
à¦Ĺ à¦¸à¦¹
à¦· à¦ĸ
à¦§ à¦¬à¦¨
à¦§ à¦®à¦¨
à¦§ à¦¬à¦²
à¦§ à¦Ńà¦°
à¦ļ à¦Ĺà¦¤
à¦¹ à¦ªà¦¤
à§Ł à¦ĸ
à§Ł à¦¡à¦«
Ġà¦Ĺ à¦Łà¦Ĺ
Ġà¦° à¦¸à¦®
à¦ĵ à¦°à¦¤
à¦Ń à¦¹
à¦¼à¦¾ !âĢĻ
Ġà¦Ĩà¦® à¦¡
Ġà¦ī à¦Ľ
Ġà¦ī à¦°à¦¸
à¦Ĥ âĢĻ
à§ĩ, ---
Ġà¦¬à¦² à¦ĸ
Ġà¦Ĩà¦° à¦ª
Ġà¦ĸ à¦ļà¦°
à¦°à¦¤ à¦ķà¦°
à¦°à¦¤ à¦ļà¦¨
à¦¾à¥¤ '
Ġà¦§ à¦¨à¦¦
Ġà¦¸à¦® à¦ľ
Ġà¦¸à¦® à¦®à¦¨
Ġà¦¸à¦® à¦ħà¦§
à¦¾, âĢĶ
à¦¬à¦¨ à¦¸à¦Ļ
à¦¬à¦¨ à¦ķà¦¥
à¦ªà¦° à¦¨
à¦ªà¦° à¦®à¦£
à¦ī à¦Ŀ
Ġà¦Ĩà¦² à¦ªà¦¥
à¦°à¦¬ à¦ĵ
à¦°à¦¬ à¦¤à¦®
à¦Ĩ à¦®à¦¨
à¦Ĩ à¦ľà¦¨
à¦Ĩ à¦¬à¦¦
à¦Ĩ à¦ĩà¦ª
à¦ı à¦ľ
à¦¬à¦° à¦®
Ġà¦¬à¦²à¦² à¦ľ
Ġà¦¬à¦²à¦² à¦Ĩà¦°
Ġà¦Ł à¦ĩà¦Ł
Ġà¦Ĩà¦Ľ à¦®
âĢĻ ?
Ġà¦īà¦ł à¦¨
à§Ī ,
à¦ĺ à¦Ń
Ġà¦ľà¦¨ à¦¸à¦¨
à¦¼, âĢĻ
Ġà¦¢ à¦ķà¦¢
à¦ħ à¦ĺ
Ġà¦¬à¦¨ à¦¶
Ġà¦ħà¦® à¦²à¦ķ
Ġà¦ħà¦® à¦°à¦¦
à¦¯à¦¬ à¦ļ
à¦¨à¦¬ à¦¬à¦¨
Ġà¦Ĩà¦¶ à¦°
à¦ķà¦¤ à¦²
Ġà¦Ĩà¦¨ à¦ľ
Ġà¦ľà¦² à¦ļà¦°
à¦¿à¦Ĥ )
Ġà¦ħà¦¤ à¦¶à¦¤
à¦²à¦¨ à¦¶
à¦²à¦¨ à¦ĵ
à¦°à¦¯ à¦¤
à¦ĩà¦² à¦¹
à¦²à¦¬ à¦¸
Ġà¦ħà¦ª à¦¶à¦¨
à¦¿à¦ĥ ,
à¦¸à¦® à¦·
à¦¹à¦² à¦ľà¦¨à¦ķ
à¦Ĺà¦¨ à¦ķ
à§ĩ! âĢĶ
Ġà¦°à¦Ļ à¦²
Ġà¦°à¦Ļ à¦¹
à¦¸à¦° à¦Ĺ
à¦¸à¦° à¦ĺà¦°
à¦¶à¦¬ à¦ķ
à¦ıà¦ķ à¦¯
à¦ıà¦ķ à¦ªà¦°
à¦¨à¦ķ à¦¶
à¦¦à¦² à¦¬à¦²
Ġà¦¬à¦ĩ à¦ªà¦¡
Ġà¦ħà¦ªà¦° à¦£
à§Ģà¥¤ à¥¤
à§įâĢĮ âĢĶ
Ġà¦ĵà¦ĩ à¦¦
à¦²à¦² à¦ĵà¦¹
à¦¤à¦¤ à¦¦
à§ģâĢĻ ,
à§ģâĢĻ à¥¤
!âĢĿ ,
à§° à¦¶
Ġà¦Ĩà¦Ļ à¦Ł
Ġà¦Ĩà¦¦ à¦¬
Ġà¦¸à¦¹à¦ľ à¦¬
à¦īà¦² à¦ĵ
Ġà¦ĺà¦¨ à¦¶
à¦°à¦®à¦£ à¦¸
à¦®à§Ł à¦²
à¦®à¦¸ à¦Ń
Ġà¦ľà¦° à§İà¦ķ
Ġà¦Ĺà¦£ à¦Ĩà¦¨
Ġà¦ķà¦²à¦ķ à¦¬
Ġà¦¬à¦ī à¦Ŀ
à¦Ĺà¦® à¦Ĺ
à¦¹à¦°à¦£ à¦ĵ
à¦¨à¦Ń à¦¨
à¦Ĩà¦ķ à¦¸
Ġà¦ªà¦°à¦® à¦ª
à¤ §
à¦ķà¦ľà¦¨ à¦¦
Ġà¦¦à¦® à¦ķà¦²
à§Ŀ à¦Ń
à§Ń à§¬
à¦¸à¦¹ à¦¬
Ġà¦īà§ľ à¦²
à¦¤à¦¸ à¦ŀ
à¦¬à¦ľà¦¨ à¦Ĺ
Ġà¦ĸà¦°à¦ļ à¦Ł
à¦Ĩà¦¬ à¦°à¦£
Ġà¦ķà¦Ł à¦®à¦Ł
Ġ' '
à§¯ à§«
Ġà¦ıà¦°à¦ªà¦° à¦ĵ
Ġà¦ļà¦°à¦£ à¦§
Ġà¦ľà§ľ à¦¤
Ġo ut
Ġo ther
Ġà¦Ĩà¦ĩ à¦ı
Ġa g
es h
Ġp oss
ic k
à¦¤à¦ļ à¦°à¦¬
à¦ħà¦ªà¦° à¦¦
Ġà§§à§¯à§Ń à§«
Ġà¤ ī
à§ĭâĢ¦ âĢĻ
à¦Ī à¦·à§İ
Ġà§§à§¯à§« à§¦
ĠM oore
Ġà§ª à§®
il d
à¦£à¦Ĺà¦¤ à¦®
ĠB eng
à¦¨à§Ł à¦¨à¦ķ
Ġà§§à§¦ à§¦à§¦
ig ital
ation al
Ġbe ing
ĠR iya
Ġà§¯ à§¦
Ġà¦ĩà¦¸à¦®à¦¤ à¦ķ
à¦ıà¦¨ à¦ı
Ġà¦¹à¦°à¦« à¦Ĺ
Ġà¦ĩà¦¨à¦« à¦°à¦®
ĠN ot
à¦ıà¦® à¦ıà¦¸
Ġà¦Łà¦®à¦Ł à¦®à¦Ł
ac k
Ġà¦¤à§İ à¦¸à¦¤
Ġind ividual
ali z
âĢķâĢķâĢķâĢķ âĢķâĢķâĢķâĢķ
Ġsom e
Ġà¦Ĺà¦Łà¦Ĺ à¦Ł
Ġà¦¢à¦ķà¦¢ à¦ķ
) :
0 0
3 9
? âĢĵ
A R
E R
a z
c end
c ret
e at
h at
i le
i ous
t a
t e
t he
v ed
y st
Ð º
Ø ¯
ä ¸
Ġ z
Ġ Ã
Ġ ê
Ġ à§·
Ġ us
Ġ ess
Ġ qu
à§ĩ |
à§ĩ à¦¾-
à¦¨ à§ľ
à¦¨ à¦°à¦¦
à¦¨ à¦®à¦ľ
à¦¨ à¦®à¦¨à¦¸
à¦¤ à¦ļà¦²
à¦¤ à¦ľà¦²
à¦¤ à¦ªà¦Ł
à¦¤ à¦¸à¦ķ
à¦¤ à¦¸à¦¹
à¦² à¦ĵà§Ł
à¦ķ à¦¨à¦Ł
à¦ķ à¦ļà¦°
à¦¯ à¦Ĺà¦°
à¦¯ à¦¶à¦ķ
à§ģ âĢ¦âĢĿ
à¦¬ à¦¬à¦¨
à¦¬ à¦¹à¦¸
à¦¬ à¦¬à¦¸
à¦¬ à§İà¦ķ
à¦¬ à¦®à¦¹
à¦¬ à¦ľà¦¨à¦ķ
à¦® à¦¤à¦°
à¦® à¦¬à¦¤
à¦® à¦°à¦ľ
à¦® à¦ĺà¦¨
à§ĭ âĢĿâĢĶ
Ġà¦ķ à¦Łà¦¨
Ġà¦¸ à¦²à¦¤
Ġà¦¸ à¦°à¦¬à¦¤
à¦¸ à¦§
à¦¸ à¦ķà¦¤
Ġà¦ª à¦·
à¦¦ à¦²à¦¬
à¦¦ à¦®à¦ķ
à¦¦ à¦¶à¦ķ
à¦Ł à¦¸à¦®
à¦Ł à¦®à¦£
à¦Ł à¦®à¦Łà¦®
Ġà¦¨ à¦°à¦²
Ġà¦¨ à¦ĵà¦Ĺ
Ġà¦¨ à¦¦à¦¨à¦¦
à¦ĩ à¦ı
à§Ģ '
à¦ľ à§İ
à¦ľ à¦¸à¦¤
Ġà¦¹ à¦°à¦¨
Ġà¦¤ à¦¸à¦¬
à¦¶ à¦¬à¦°
Ġà¦ħ à¦Ĺà¦¨
Ġà¦ħ à¦ĵà¦°à¦¤
à¦ĸ à¦ļà¦°
à¦Ĺ à¦Ĺà¦¤
à¦· à¦²à¦¤
à¦· à¦°à¦ľ
à¦· à¦ªà¦¤
à¦§ à¦¬à¦ª
à¦§ à¦ªà¦¥
à¦§ à¦¸à¦¤
à¦§ à¦¶à¦ķ
à¦¡ à¦Ļ
à¦¡ à¦¬à¦Ń
Ġà¦¯ à¦®à¦²
à¦ļ à¦¨à¦¬
à¦£ à¦ĺ
à¦£ à¦§à¦°
à¦¥ à¦ķà¦°
à¦¥ à¦°à¦ļ
Ġà¦¶ à§Ł
Ġà¦ļ à¦ĩà¦²
à¦¼à¦¾ )
à¦¼à¦¾ !âĢĿ
Ġà¦ī à¦Ń
Ġà¦ī à¦®à¦°
Ġà¦ī à§°
Ġà¦² à¦ĸ
Ġà¦ĵ à¦ĺà¦°
Ġà¦¥ à¦ª
Ġà¦« à¦ķà¦«
Ġà¦ħà¦¨ à¦¬
à¦¾à¥¤ (
Ġà¦ªà¦° à¦®à¦¤
Ġà¦ªà¦° à¦®à¦°
ĠâĢ į
à¦¬à¦¨ à¦¤
à¦¬à¦¨ à¦¶à¦ķ
à¦¬à¦¨ à¦®à¦°à¦£
à¦¼à¦¿ âĢ¦
à§ľ à¦Ļ
Ġà¦ĺ à¦¸
Ġà¦®à¦¨ à¦¶
à¦®à¦¨ à¦°
à¦®à¦¨ à¦¤à¦°
à¦ŀ à¦¬à¦¨
à¦ŀ à¦¸à¦®
à¦« à¦°à¦®
à¦ī à¦ĵ
à¦ī à¦ĺ
à¦ī à¦ľà¦²
Ġà¦Ĩà¦² à¦®à¦ķ
Ġà¦Ĩà¦² à¦¬à§İ
à¦°à¦¬ à¦¦à¦¨
à¦Ĩ à¦ªà¦¡
à§İ à¦¸à¦¤
à¦ı à¦ķà¦°
à¦°à¦ķ à¦¬
à¦¬à¦° à¦°
Ġà¦¬à¦²à¦² à¦ł
à¦¼à¥¤ âĢĺ
Ġà¦¹à¦² à¦«à¦¨
Ġà¦ĩ à¦Ĺà¦²
Ġà¦ĩ à¦°à¦Ĺ
Ġà¦ĩ à¦²à¦¸
Ġà¦ĩ à¦¹à¦ķ
Ġà¦ĩ à¦ķà¦¨à¦®
à¦ĺ à¦¦à¦°
à§Į ,
Ġà¦ľà¦¨ à¦ķà¦²
Ġà¦Ŀ à¦®à¦Ŀà¦®
Ġà¦ıà¦¸ à¦ıà¦¸à¦¸
âĢĵ âĢĿ
à¦¤à¦¨ à¦¯
Ġà¦ªà¦¥ à¦ľ
Ġà¦ħà¦® à¦¸
à¦ķà¦° à¦²
à¦ķà¦° à¦¸
Ġà¦¹à§Ł à¦°
à¦ķà¦Ł à¦Ĺ
à¦ķà¦Ł à¦®à§Ł
à¦¸à¦¬ à¦¦
Ġà¦ħà¦¸ à¦¬à¦°
à¦¤à¦¬ à¦¸
à¦²à¦ķ à¦®à¦²
à¦¨à¦¬ à¦Ľà¦°
à¦¦à¦¨ à¦¹
à¦Ĺà¦² à¦®
à¦Ĺà¦² à¦ªà¦¥
à¦Ĺà¦² à¦ľà¦¨à¦ķ
Ġà¦ľà¦² à¦¤à¦°à¦Ļ
à¦¿à¦Ĥ âĢĵ
à¦¹à¦¸ à¦Ł
à¦²à¦¨ à¦¦
Ġà¦ķà¦°à¦¬ à¦ĩ
à¦¬à¦¤ à¦²
Ġà¦¯à¦ĸà¦¨ à¦¤à¦ĸà¦¨
à¦²à¦¬ à¦¦à¦²
à¦°à¦ľ à¦®
Ġà¦ħà¦ª à¦¹
à¦¸à¦¨ à¦Ń
à¦ĩà¦¨ à¦·
à¦ĩà¦¨ à¦¹
à¦¨à¦¨ à¦ķ
Ġà¦ħà¦ľ à§Łà¦¦
âĢ¦ !âĢĻ
à§ĩ! (
Ġà¦°à¦Ļ à¦¬
Ġà¦°à¦Ļ à¦ĵ
Ġà¦°à¦Ļ à¦ļà¦Ļ
Ġà¦īà§İ à¦°
Ġà¦īà§İ à¦¸à¦¬à¦ĩ
Ġà¦ªà¦¦ à¦Ł
Ġà¦ªà¦¦ à¦®à¦°
à¦®à¦° à¦§
à¦¦à§Ł à¦¤
à¦¦à§Ł à¦ª
à¦¦à§Ł à¦ĩ
Ġà¦¬à¦ĩ à¦ıà¦°
à§įâĢĮ âĢĻ
Ġà¦«à¦² à¦²
à¦¤à¦® à¦®
à¦ªà¦ķ à¦¤à¦°
Ġà¦ĩà¦¨ à¦ª
Ġà¦Ĩà¦§ à¦®à¦°
à¦¯à¦¸ à¦Ń
Ġà¦ıà¦ķà¦¬ à¦Ľà¦°
à¦¹à¦¨ à¦Ĺà¦ŀ
à¦¸à¦« à¦°
Ġà¦¶à¦¤ à¦¶à¦¤
à§ģ- -
à¦¨à¦¸ à¦¹à¦ķ
à¥¤âĢĻ âĢĿ
à¦¯à¦° à¦Ļ
à¦¨à¦Ĺ à¦®
à¦Ĩà¦° à¦Ĩà¦ĩ
à¦Ŀà¦² à¦¸
?âĢĻ âĢĶ
Ġà¦¬à¦²à¦¬ à§İ
à¦°à¦Ĺ à¦ŀ
à¦°à¦®à¦£ à¦ªà¦¥
Ġà¦°à¦ķà¦® à¦Ń
Ġà¦¦à¦¶ à¦Ĺ
à§¨ à§¦à§¦
à¦Ĩà¦² à¦¯
Ġà¦ļà¦ķ à¦®
Ġà¦¬à¦ī à¦¬
Ġà¦¬à§ľ à¦²
à¦ªà¦£ à¦¨
à¦ªà¦£ à¦ķ
Ġà¦Ī à¦Ļ
Ġà¦¶à¦¹ à¦°à¦ĩ
Ġà¦¨à¦ľà¦° à¦¬à¦¨
Ġà¦ľà¦¬ à¦ľà¦¬
Ġà¦ľà§Ł à¦ľà§Łà¦ķ
à¦ĩà¦Ń à¦ĵà¦¯
à§© à§®
Ġt im
à¦®à¦ª à¦ŀ
à§ª à§©
Ġà¦¹à¦ĩ à¦ļ
à¦Ĩà¦Ĺ à¦®à¦¨
à¦£à¦ķ à¦®à¦²
à¦¶à¦¤ à¦¦à¦²
à¦¤à¦ĸà¦¨ à¦ķ
à¦ĸà¦ķ à¦·
Ġà¦®à¦¦ à¦¨à¦¬
à¦¬à¦ľà¦¨ à¦°
Ġà¦Ĭ à¦¹
Ġà§¨ à§Ń
Ġà¦Ĩà¦ļà¦°à¦£ à¦ĩ
Ġà¦ĸà¦°à¦ļ à¦ĵ
à¦ħà¦¬ à¦¸à¦¨
at a
Ġà¦ķà¦Ł à¦ķà¦Ł
à¦¸à¦ķà¦² à¦ĩ
Ġà¦ıà¦¡ à¦Ń
à¦²à¦¦ à¦¹
à¦¾!âĢĿ âĢĶ
Ġà¦²à§ľ à¦¤
à¦ªà¦Ĺ à¦ª
Ġ? '
Ġà¦Ĩà¦Ł à¦ļ
à¦ļà¦°à¦£ à¦¶
Ġà¦Ĩà¦ĩ à¦¨à¦¤
Ġà¦¤à¦ªà¦¨ à¦ķ
Ġà¦ĩà¦Ł à¦Ń
à¦¿âĢ¦ .
Ġc ount
Ġà¦®à¦°à¦£ à¦¶
Ġof f
Ġp e
Ġp at
Ġp ass
Ġà§© à§¬
à¦¤à¦ļ à¦°à¦¦
Ġf un
Ġà¦¶à¦¨ à¦¶à¦¨
ed om
Ġà¦ķà¦¦à¦® à¦«
Ġà¦ļà§ľ à¦¤
à§ĩâĢĿ ,
Ġà¤ ®
Ġn o
Ġà¦¨à¦Ĺ à¦°à¦¬
ot h
ra h
Ġà§§à§© à§¦
à¦®à¦« à¦²à¦ķ
ĠS t
un g
à¦°à¦¡ à¦ĵà¦¯
Ġre g
ci ence
à¦¯à¦Łà¦ķ à¦¦
Ġà§§à§¯à§¬ à§Ń
Ġà§¨à§¦à§¦ à§ª
Ġà¦ªà¦łà¦¨ à¦ª
Ġne ver
ere d
---- ----
ĠÙ Ĩ
we en
Ġà¦¥à¦ĩ à¦¥à¦ĩ
Ġwho le
mat ic
Ġcl ass
Ġbet ween
dv ik
áĥĲ áĥ
Ġà¦ĸà¦ļà¦° à¦ĸà¦ļà¦°
ĠNot hing
Ġà¦«à¦ķà¦« à¦ķ
! "
- âĢĻ
3 8
4 5
? )
c k
e b
e in
n g
o T
o ok
p le
s ha
v as
v ol
Ð ²
Ġ 6
Ġ ÂłÂł
à¦¾ ...âĢĿ
à§ĩ à§į
à¦¨ à¦¬à¦²
à¦¨ à¦Ĩà¦°
à¦¤ à¦ŀ
à¦¤ à¦¸à¦¤
à¦² à¦®à¦¯
à¦² à¦°à¦¤à¦¨
à¦ķ à¦Ĺà¦¤
à¦¯ à¦¤à¦¬
à¦¯ à¦§à¦¨
à¦¯ à§°
à¦¬ à¦®à¦¤
à¦¬ à¦¸à¦°
à¦¬ à¦®à§Ł
à¦® à¦°à¦¬
à¦® à¦ļà¦Ł
à§ĭ à¦¾
à§ĭ âĢĿ,
Ġà¦ķ à¦ķà¦Ł
Ġà¦¸ à¦¶à¦ķ
à¦¸ à¦¯à¦¨
à¦¸ à¦ıà¦ķ
à¦¸ à¦Ńà¦¯
Ġà¦ª à¦²à¦²
Ġà¦ª à¦¬à¦®
Ġà¦Ĩ à¦ĩà¦¬
à¦¦ à¦ķà¦°
à¦¦ à¦Ĺà¦¤
à¦¦ à¦ľà¦Ĺà¦¤
à¦Ł à¦Ļ
à¦Ł à¦°à¦ķ
à¦Ł à¦¬à¦¸
à¦Ł à¦¬à¦ķ
à¦Ł à¦Ńà¦°
Ġà¦¨ à¦¨à¦¸
Ġà¦¨ à¦ĸà¦°
Ġà¦¨ à¦ĵà¦²
Ġà¦® à¦Ŀ
Ġà¦® à¦ĵà¦ķ
à¦ª à¦°à¦¤
à¦ª à¦ĺ
à¦ª à¦¸à¦¨
à¦ª à¦¸à¦¤
à¦ª à¦§à¦°
à¦ª à¦īà¦·
à¦ĩ à¦ķà¦²
à¦ĩ à¦®à¦°
à¦ĩ à¦ľà¦°
à§Ģ /
Ġà¦¦ à¦ľ
Ġà¦¦ à¦¦à¦°
à¦ľ à¦¤à¦¤
à¦ľ à¦ĺà¦°
à¦ľ à¦Ńà¦¯
Ġà¦¤ à¦ŀ
Ġà¦¤ à¦¸à¦²
à¦¶ à¦®à§Ł
à¦¶ à¦Ńà¦Ļ
à¦¼à§ĩ à¦¾
à¦¼à§ĩ âĢĿ
à¦¼à§ĩ !âĢĿ
Ġà¦ħ à¦ķà¦²à¦Ļ
à¦ĸ à¦Ńà¦Ļ
à¦Ĺ à¦¬à¦°
à¦Ĺ à¦¤à¦¬
à¦Ĺ à¦®à¦¤
à¦Ĺ à¦£à¦¨
à¦Ĺ à¦¯à¦ľ
à¦· à¦¦à¦°
à¦· à¦¬à¦¦
à¦§ à¦ĸ
à¦§ à¦§
à¦§ à¦Ĺà¦¤
à¦§ à¦®à¦¤
à¦§ à¦¤à¦®
à¦§ à¦®à§Ł
à¦¡ à¦¬à¦ķ
à¦¡ à¦²à¦¸
à¦¡ à¦²à¦Ĺ
à¦ļ à¦«
à¦ļ à¦®à¦¤
à¦ļ à¦¶à¦¬
à¦ļ à¦¤à¦¤
à¦ļ à¦ľà¦¨à¦ķ
à¦¹ à¦Ńà¦Ļ
Ġà¦ķà¦° à¦¸
Ġà¦Ĺ à¦ªà¦Ĺà¦ª
à¦£ à¦ªà¦¤
à¦¥ à¦Ļ
Ġà¦ľ à¦ªà¦¤
Ġà¦ľ à¦°à¦ľà¦°
Ġà¦Ń à¦¨à¦Ńà¦¨
Ġà¦° à¦¨à¦ķ
Ġà¦° à¦ĩà¦¤
Ġà¦° à¦ľà¦¬
à¦¼à¦¾ ?âĢĿ
ĠĠ Ġ
Ġà¦Ĩà¦® à¦ļ
Ġà¦Ĩà¦® à¦°à¦£
Ġà¦Ĩà¦® à¦¤à¦²
à¦ł à¦Ńà¦°
Ġà¦ī à¦¶à¦ķ
à¦¾à¦ģ âĢĻ
Ġà¦ĵ à¦¨à¦²
Ġà¦« à¦Łà¦«à¦Ł
Ġà¦Ĩà¦° à¦Ł
à¦°à¦¤ à¦ªà¦ķ
à¦¾à¥¤ âĢĵ
Ġà¦§ à¦¨à¦ķ
Ġà¦§ à¦¨à¦²
à¦¼à¦¿ à¥¤âĢĿ
à§ľ à¦¶
à¦ªà¦° à¦¬à¦¶
à¦°à¦£ à¦¶
à¦®à¦¨ à¦®
à¦Ŀ à¦Ĺà¦¡
à¦ľà¦¨ à¦°
à¦ŀ à¦ķà¦°
à¦« à¦ĵ
à¦ī à¦°à¦²
à¦ī à¦ªà¦¦
à¦ī à¦ıà¦°
à¦ī à¦¥à¦²
à¦ī à¦ªà¦®
à¦¿, --
à¦ªà¦¨ à¦¬
à¦ªà¦¨ à¦¦
Ġà¦Ĩà¦² à¦ķ
à¦°à¦¬ à¦ĩ
à¦°à¦¬ à¦²à¦¤
à¦Ĩ à¦°à¦¶
à¦Ĩ à¦¸à¦®
à¦Ĩ à¦¬à¦¹
à¦Ĩ à¦Łà¦Ł
à¦Ĩ à¦«à¦¸
à§İ à¦¹
à§İ à¦ªà¦¦
à¦¬à¦° à¦¸à¦Ń
Ġà¦¬à¦²à¦² à¦ļà¦²
Ġà¦¹à¦² à¦®
Ġà¦¹à¦² à¦ĩ
Ġà¦¡ à¦ľ
ĠâĢľ âĢ¦
à¦ĺ à¦«
à¦ĺ à¦°à¦¬
Ġà¦®à¦¤ à¦ķ
Ġà¦ľà¦¨ à¦°
Ġà¦ħà¦¬ à¦¦à¦®
Ġà¦ł à¦¨
Ġà¦ł à¦Ĺ
Ġà¦ıà¦¸ à¦ıà¦®à¦ıà¦¸
à¦ħ à¦¡
à¦ħ à¦§à¦®
Ġà¦¬à¦¨ à¦¨
Ġà¦¬à¦¨ à¦ļ
à¦ķà¦² à¦Ĺ
à¦ķà¦Ł à¦ĩ
Ġà¦ħà¦¸ à¦®à¦°
Ġà¦ħà¦¸ à¦®à§Ł
à¦¯à¦¬ à§Łà¦¸
à¦°à¦¥ à¦ķ
à¦¤à¦¬ à¦¸à¦®
à¦¨à¦¬ à§İ
à§ĭ, -
Ġà¦Ĩà¦¶ à¦®
Ġà¦¹à¦¤ à¦¦à¦°
Ġà¦¬à¦° à¦ª
à¦°à¦¥à¦® à¦ª
Ġà¦ıà¦² à¦®
Ġà¦ħà¦¦ à¦²à¦¬à¦¦à¦²
à¦Ĩà¦® à¦°à¦£
Ġà¦ħà¦° à¦«
Ġà¦ħà¦¤ à¦ķ
Ġà¦ħà¦¤ à¦Ĺ
à¦¯à¦ķ à¦¶
à¦°à¦¹ à¦®
à¦°à¦¹ à¦¹
Ġà¦ĺà¦° à¦ĩ
Ġà¦īà¦ª à¦¬à¦¨
Ġà¦īà¦ª à§ľ
à¦°à¦¶ à¦¤
à¦ĩà¦² à¦ļ
à¦²à¦¬ à¦¬
à§ĩâĢĶ âĢĿ
à¦°à¦ľ à¦Ĺà§İ
à¦¼à§ĭ ?
Ġà¦¸à¦¹ à¦Ĺ
Ġà¦¸à¦¹ à¦®à¦°à¦£
à¦°à¦ĩ à¦¬
à¦¸à¦¨ à¦ªà¦¤
à¦ķà¦¬ à¦ķ
à¦¸à¦® à¦¬
à¦Łà¦ķ à¦ķ
Ġà¦Ĳ à¦ķà¦¤
Ġà¦īà§İ à¦ªà¦²
Ġà¦ªà¦¦ à¦®
à¦ªà¦¦ à¦¤à¦²
à¦ªà¦¦ à¦¸à¦Ļ
à¦¦à§Ł à¦ľ
à¦¿? -
Ġà¦¶à¦¹à¦° à¦ĵ
à¦°à¦ª à¦ŀ
à¦·à¦¤ à¦Ł
à¦¯à¦® à§Łà¦¤
à¦¨à¦Ł à¦°
Ġà¦ĩà¦¨ à¦¹
Ġà¦Ĩà¦§ à¦¬
Ġà¦ħà¦² à¦®
Ġà¦ħà¦² à¦Ĺ
à¦¸à¦ķ à¦®
à¦¸à¦ķ à¦¶
à¦¸à¦« à¦¡
à¦¸à¦« à¦Łà¦ĵà¦¯
Ġà¦¦à¦² à¦ĵ
à¥¤âĢĻ âĢĻ
à¦ĩà¦Ł à¦¹
Ġà¦¸à¦¹à¦ľ à¦¸
Ġà¦¸à¦®à§Ł à¦ĵ
à§İà¦¸ à¦¹
à§ĩâĢĵ âĢĵ
à¦°à¦¹à¦£ à¦ĩ
Ġà¦ķà¦¨ à¦Ńà¦¯
à¦®à¦¸ à¦¹
à¦Ĩà¦² à¦Ĺ
Ġà¦Ĺà¦£ à¦¯
Ġà¦Ĺà¦£ à¦¬
Ġà¦Ĺà¦£ à¦ª
à§Ģ- --
Ġà¦¬à§ľ à¦¸à§ľ
Ġà¦°à¦¸ à¦¶
à¦¡à¦² à¦«
Ġà¦Ī à¦¸
à¦¾âĢĻ !
à¤ ¼
à¤ ģ
à¦łà¦ķ à¦ĩ
à¦¤à¦ª à¦ŀ
à¦¥à¦² à¦Ń
à¦²à¦Ń à¦ª
à¦¸à¦¹ à¦ļà¦°
à¦°à¦« à§İ
à¦ļà§Ł à¦ªà¦¤
an k
à¦¬à¦® à¦Ļ
Ġà§¨ à§©
Ġà§¨ à§¯
Ġà¦Ĩà¦ļà¦°à¦£ à¦Ĺà¦¤
Ġà¦ľà¦Ĺ à¦¬à¦¨
à¦¾à¦ĥ âĢĵ
at her
Ġà¦ħà¦¬à¦¨ à¦®à¦¨
à§® à§¦
Ġà¦ļà¦°à¦® à¦Ń
Ġà¦°à¦« à¦¤
is hed
it a
à¦¾âĢ¦ .
Ġ? "
à¦¸à¦Ń à¦¬à¦¨
à¦¿âĢ¦ ?âĢĿ
Ġà¦Ĩà¦« à¦¶
Ġa c
Ġa ct
Ġc r
à¦¬à¦Ĺ à¦ŀ
or a
Ġw ord
Ġm ore
Ġm ost
à¦¶à¦¹ à¦°à¦¤à¦²
à¦¼à¦¿à¦Ĥ -
ÂłÂłÂłÂłÂłÂłÂłÂłÂłÂłÂłÂłÂłÂłÂłÂł ÂłÂłÂłÂłÂłÂłÂłÂł
Ġf ound
Ġà¦¨à§ľ à¦¤
Ġà¦¨à§ľ à¦²
Ġà¦ĩà¦ī à¦ıà¦¸à¦¬
Ġà¦¶à¦¶ à¦§à¦°
Ġh and
Ġà§¨à§¦ à§¦à§¦
Ġà¤ Ĺ
à¦Ī à¦®
à¦īà¦ª à¦²à¦¬
all en
ĠP intu
à¦¿' !
Ġà¦¥à¦² à¦¥à¦²
Ġà¦Ńà¦Ł à¦ļ
Ġà¦īà¦ĩà¦² à¦¸à¦¨
à¦¯à¦ľà¦¨ à¦ķà¦Ń
Ġà¦Ĺà¦ł à¦¨à¦ķ
à¦£à¦ļ à¦ŀ
Ġà¦¸à¦¯ à¦¤à¦¨
ur al
Ġbe en
os it
Ġà§§à§¯à§ª à§¯
à§İà¦¸à¦ķ à¦¦
Ġnot hing
Ġà§§à§Ń à§«à§¬
Ġà§§à§¯à§® à§«
ag ore
Ø§ ÙĦ
Ġv al
Ġà§§à§¯à§¨ à§©
Ġà¦¬à¦°à¦¬ à§°
Ġà¦ªà¦ļà¦¨ à¦¶
Ġtr uth
Ġcom m
Ġint o
Ġà¦Ńà¦°à¦£ à¦ª
oug ht
Ġdo es
olog y
ÂŃÂŃÂŃÂŃÂŃÂŃÂŃÂŃ ÂŃÂŃÂŃÂŃÂŃÂŃÂŃÂŃ
ºçľºçľºçľºçľ ºçľºçľºçľºçľ
âĢĵâĢĵâĢĵâĢĵâĢĵâĢĵâĢĵâĢĵ âĢĵâĢĵâĢĵâĢĵâĢĵâĢĵâĢĵâĢĵ
·çľ·çľ·çľ·çľ ·çľ·çľ·çľ·çľ
arn ing
Ġwor ld
Ġsoci ety
Ġabstra ct
à¦¸à¦¹à¦¨ à¦¶
hil os
ĠSoci al
ips ism
' -
. )
4 0
4 3
E C
E D
E N
G O
I oT
O N
R A
b or
c o
c he
e x
f t
f ul
i re
j a
l and
m al
p e
p end
w n
Ð ´
× ķ
Ù Ĭ
â Ĥ
â ĭ
ì Ŀ
Ġ Y
Ġ Õ
Ġ ra
à§ĩ (
à§ĩ à¦ĥà¥¤
à¦° à¦°à¦¸
à¦° à¦Ńà¦¬
à¦° à¦īà¦ĩà¦¨
à§į :
à¦¿ à§į
à¦¨ à¦ªà¦°
à¦¨ à¦¨à¦¬
à¦¤ à¦ķà¦²
à¦¤ à¦ĸà¦¤
à¦¤ à¦®à¦°
à¦¤ à¦¦à¦²
à¦¤ à¦ľà¦¬
à¦² à¦¸à¦¬
à¦² à¦¦à¦°
à¦² à¦Ĺà¦¨
à¦² à¦°à¦Ļ
à¦ķ à¦ªà¦¨
à¦ķ à¦°à¦®
à¦¯ à¦ķà¦¤
à¦¯ à¦ļà¦ķ
à¦¯ à¦¹à¦®
à¦¬ à¦¬à¦²
à¦¬ à¦®à¦£
à¦¬ à¦Ńà¦°
à¦¼ ...
à¦¼ )à¥¤
à¦® à¦®à¦Ĺ
à¦® à¦Ńà¦Ļ
à§ĭ à¥¥
à§ĭ ...
Ġà¦ķ à¦Łà¦ķ
Ġà¦¸ à¦ĩà¦Ľ
Ġà¦¸ à§Łà¦²
à¥¤ âĢĶ
à¦¸ à¦°à¦®
à¦¸ à¦°à¦¶
à¦¸ à¦¨à¦ĵ
Ġà¦ª à¦®
Ġà¦ª à¦¦à¦¨
Ġà¦Ĩ à¦Łà¦¨à¦®
à¦¦ à¦ľà¦¨
à¦¦ à¦°à¦¸
à¦¦ à¦²à¦¤
à¦¦ à¦¤à¦¤
à¦¦ à¦ªà¦Ł
à¦Ł à§Ł
à¦Ł à¦¶à¦ķ
à¦Ł à¦®à¦¸
Ġà¦¨ à¦ĵà¦¯
Ġà¦® à¦Ĺà¦°
Ġà¦® à¦Ĺà¦¡
Ġà¦® à§ľà¦ķ
Ġà¦® à¦Īà¦¨
à¦ª à§Ł
à¦ª à¦Ľà¦¨
à¦ĩ à¦ķà¦Ł
à¦ĩ à¦ĵà§Ł
à¦ĩ à¦ªà¦²
à¦ĩ à¦ľà¦¨à¦ķ
à¦ľ à¦°à¦ķ
à¦ľ à¦¬à¦°
à¦ľ à¦¬à¦²
à¦ľ à¦¤à¦²
à¦ľ à¦¬à¦¦
Ġà¦¹ à¦°à¦¬
Ġà¦¹ à¦°à¦¹
Ġà¦¹ à¦®à¦ķ
Ġà¦¹ à¦°à¦¦à¦®
Ġà¦ı à¦¨à¦ĵ
Ġà¦ı à¦¤à¦°à¦ķà¦®
à¦¶ à¦ķà¦Ł
à¦¶ à¦ªà¦¤
à¦¶ à¦¤à¦ķ
à¦¶ à¦¤à¦®
à¦¶ à§Łà¦¤
à¦ĸ à¦Ŀ
à¦ĸ à¦°à¦¦
à¦· à¦¤à¦°
à¦¡ à¦ĸ
à¦¹ à¦¡
à¦¹ à¦¬à¦²
à¦¹ à¦Ĺà¦¤
à¦¹ à¦²à¦¬à¦¶à¦¤
à§Ł à¦ª
à§Ł à¦®à¦¨
Ġà¦Ĺ à¦ľà¦°
à¦ģ ?
à¦¥ à¦ĸ
à¦¥ à¦²à¦¨
à¦¥ à¦®à¦¯
à¦¥ à¦¨à¦ķ
à¦¥ à¦¬à¦¦
Ġà¦ļ à¦®à¦¤
Ġà¦ļ à¦ĵà§ľ
Ġà¦° à¦¸à¦°
Ġà¦° à¦Łà¦²
Ġà¦° à¦¸à¦®à¦¯
Ġà¦° à¦®à¦ľ
Ġà¦° à¦¡à¦Ł
à¦ĵ à¦ĺà¦°
à¦Ń à¦Ń
à¦Ń à§İà¦¸à¦¤
Ġà¦ıà¦ķ à¦ıà¦ķ
Ġà¦ıà¦ķ à¦¶à¦¤
à¦¼à¦¾ âĢ¦âĢĿ
à¦¼à¦¾ âĢĻà¥¤
Ġà¦Ľ à¦Ĺà¦¨
Ġà¦Ľ à¦ĩà¦¯
à¦ł à¦ł
Ġà¦ī à¦¸à¦ĸ
à§Ĥ à¦ĥ
Ġà¦² à¦ķà¦Ł
Ġà¦² à¦ĩà¦¤
Ġà¦ĵ à¦®à¦²
Ġà¦« à¦·
Ġà¦« à¦°à¦¹
Ġà¦« à¦°à¦Ĺ
Ġà¦ĸ à¦¶
à¦¾à¥¤ )
Ġà¦ªà¦° à¦Ĺ
Ġà¦ªà¦° à¦ľà¦¨
Ġà¦ªà¦° à¦¶à¦¨
à¦¬à¦¨ à¦²
à¦¼à¦¿ '
à¦¼à¦¿ ?âĢĻ
à§ľ à¦ľ
Ġà¦ĺ à¦¨à¦ķ
à¦°à¦£ à¦°
à¦°à¦£ à¦¸à¦®
à¦¿à¥¤ âĢ¦
à¦ľà¦¨ à¦¯
à¦« à¦¹
à¦« à¦°à¦ķ
à¦ī à¦°à¦¤
à¦ī à¦¬à¦¯
à¦ī à¦Ľà¦²
à¦ī à¦ªà¦¯
à¦ī à¦ªà¦¬
à¦ī à¦ªà¦ľ
à¦ªà¦¨ à¦ĩ
à¦Ĩ à¦ĩà¦¯
à¦Ĩ à¦ĩà¦¶
à¦Ĩ à¦ĸà¦¡
à§İ à¦Ĺà¦¤
à§İ à¦Ľà¦²
Ġà¦¸à¦¬ à¦°
à¦¬à¦° à¦ŀ
à¦¬à¦° à¦®à¦¯
Ġà¦¬à¦²à¦² à¦ĵ
Ġà¦Ł à¦²à¦Ľ
âĢĻ ;
Ġà¦ķà¦¥ à¦ķà¦ł
Ġà¦¡ à¦®
Ġà¦¡ à¦Ĺà¦®à¦Ĺ
Ġà¦ĩ à¦īà¦®
à¦ĺ à¦¯
à¦ĺ à¦®à¦²
à¦ĺ à¦ªà¦¥
à¦ĺ à¦Ńà¦°
Ġà¦ľà¦¨ à¦¯
Ġà¦ľà¦¨ à¦¬à¦²
Ġà¦ľà¦¨ à¦¬à¦¹
à¦¬à¦² à¦ĵ
à¦¬à¦² à¦¤à¦®
Ġà¦ħà¦¬ à¦¬
à¦°à¦® à¦Ł
à¦°à¦® à¦ªà¦¦
à§ģà¦ģ -
à¦·à¦£ à¦¯
Ġà¦ıà¦¸ à¦Ľ
à¦¤à¦¨ à¦®
à¦ĥ âĢĶ
à¦ħ à¦ĩ
à¦ħ à¦°à¦¬
à¦ħ à¦ªà¦Ł
à¦ħ à¦¸à¦®à¦¯
à¦ħ à¦ķà¦¥
Ġà¦¬à¦¨ à¦ª
Ġà¦¬à¦¨ à¦¬à¦¨
Ġà¦¬à¦¨ à¦Ĺà¦®à¦¨
à¦ķà¦² à¦°
à¦ķà¦² à¦ķà¦²
à¦ķà¦Ł à¦ĵ
à¦ķà¦Ł à¦ľà¦¨à¦ķ
à¦¯à¦¬ à¦¸à¦¤
à§ĭà¥¤ "
Ġà¦Ĩà¦ķ à¦Ľ
à¦¤à¦¬ à¦Ł
à¦¤à¦¬ à¦ľ
à¦°à¦¸ à¦ª
à¦¨à¦¬ à¦¦à¦²
à¦¦à¦¨ à¦§
à¦¦à¦¨ à¦®à¦¯
Ġà¦¬à¦° à¦ĸ
à§ĩ? '
à§ĩ? âĢ¦
à¦Ĩà¦® à¦Ĺ
à¦¿à¦Ĥ ?
à¦¿à¦Ĥ âĢ¦
à¦¿à¦Ĥ à¥¤âĢĻ
à¦¶à¦¨ à¦°
à¦¯à¦ķ à¦£
Ġà¦¸à¦¨ à¦¦à¦ªà¦¤
Ġà¦®à¦¹ à¦¬
à¦¬à¦¤ à¦¤
à¦¯à¦¤ à¦Ł
à¦ĸà¦² à¦Ń
à¦°à¦ľ à¦¯
à¦°à¦ľ à¦Ń
Ġà¦ħà¦ª à¦¶à¦ķ
Ġà¦ķà¦² à¦§
à¦¼à§ĭ !
Ġà¦īà¦¤ à¦¥
à¦¿à¦ĥ !
à¦¸à¦¨ à¦¸
à¦¸à¦¨ à¦ĩ
à¦ıà¦ĩ à¦ľà¦¨
à¦ıà¦ĩ à¦ļà¦¡
Ġà¦ķà¦¬ à¦Ľà¦°
à¦¸à¦® à¦£
à¦Łà¦ķ à¦ĵ
à¦¹à¦² à¦ª
à¦¹à¦² à¦ĵ
Ġà¦Ĳ à¦ļ
Ġà¦ķà¦¤ à¦ľà¦¨à¦ķ
à¦¾âĢĶ âĢĿ
à¦Ĺà¦° à¦ĸ
à¦Ĺà¦° à¦Ĺ
à§ĩ! "
Ġà¦īà§İ à¦ķà¦²
Ġà¦īà§İ à¦¸à¦®
Ġà¦ªà¦¦ à¦²
Ġà¦ªà¦¦ à¦¦à¦²
à¦¸à¦° à¦²à¦¤
à¦°à¦Ń à¦ŀ
à¦ªà¦¦ à¦¦
à¦ªà¦¦ à¦¶
à¦¦à§Ł à¦Ĺ
à¦¦à§Ł à¦ĵ
à¦ªà¦¥ à¦ª
à¦¼à§ĩà¥¤ à¥¤
à¦ıà¦ķ à¦«
à¦¬à¦¸ à¦²
à¦·à¦¤ à¦ĩ
à¦·à¦ķ à¦Ĺà¦£
à¦¤à¦ķ à¦¥
à¦¾! '
à¦ľà¦² à¦®
à¦ªà¦ķ à¦¨
à§Łà¦¨ à¦¶
à§ģâĢĻ âĢĵ
à¦¯à¦¦ à¦¶
à§° à¦£
Ġà¦¦à¦² à¦Ľ
à¦¼à§Ģ -
à¦ĩà¦¤ à¦¸
?âĢĿ âĢĵ
à¦«à¦² à¦ĩ
à¦ĩà¦Ł à¦¨
à¦īà¦² à¦¸
à¦īà¦² à¦ĩ
à¦¿! )
Ġà¦ķà¦¨ à¦ľ
à¦°à¦Ĺ à¦łà¦¨
à¦°à¦®à¦£ à¦¸à¦Ļ
Ġà¦¦à¦¶ à¦¤à¦²
à¦®à§Ł à¦¦
à¦®à¦Ł à¦°
Ġà¦¬à¦ī à¦Ĺ
Ġà¦¬à¦ī à¦Ń
Ġà¦ĵà¦ķ à¦¥
à¦®à¦¹ à¦ķ
à¦®à¦¹ à¦¨à¦¨
Ġà¦Ī à¦Ĺà¦°à¦ķ
à¦ķà¦°à¦£ à¦¯
à¦¬à¦¹ à¦Ń
à¦¶à¦® à¦¶
Ġà§§à§¯ à§§à§®
Ġà¦¸à¦°à¦² à¦°
à§© à§¬
à§Ń à§®
à§ª à§¯
Ġà¦¬à¦¸à¦¨ à¦ĸ
à¦·à§Ł à¦Ń
in u
in al
an y
an ce
à¦ľà¦Ĺ à¦łà¦¨
à¦¶à¦¤ à¦¬à¦°
à¦¦à¦¬ à¦¦à¦²
à¦¬à¦ľà¦¨ à¦¹
re at
à¦ħà¦¬ à¦Ĺ
at tle
à§¯ à§¦
à§® à§ª
à¦Ĩà¦¸ à¦Ĺà¦°
Ġà¦°à¦ľà¦¤ à¦ĵ
à¦¬à§Ł à¦ĩ
Ġo ver
Ġà¦Ĩà¦Ł à¦ĸ
Ġà¦Ĩà¦Ł à¦ĺ
à¦ļà¦°à¦£ à¦ķ
Ġs m
Ġà¦Ĩà¦ĩ à¦·à¦®
à¦¸à¦°à¦£ à¦ķ
Ġc ould
or k
Ġw hen
à¦ľà¦Ĺà¦¤ à¦ķ
Ġm at
Ġm uch
à¦¿âĢĿ ,
à¦¿âĢĿ -
Ġp re
Ġp ur
à¦Ĩà¦§ à¦ĸ
à¦£à¦Ĺ à¦ŀ
à¦ªà¦ķà¦¥à¦¨ à¦ĩ
Ġà§© à§¯
à¦¼à¦¿à¦Ĥ ,
à¦¼à¦¿à¦Ĥ à¥¤
à¦Ńà¦°à¦¤ à¦¬
as on
Ġf e
Ġd a
Ġd ist
Ġà¦ĩà¦ī à¦ıà¦¸
Ġà§§à§¯à§Ń à§¨
Ġh or
à¦īà¦¬ à¦ĵà¦¯
Ġà§¨à§¦ à§§à§©
Ġà¤ µ
Ġà¤ ¹
Ġà¤ ħ
Ġà¤ ķ
à¦Ĺà¦ł à¦¨à¦ķ
Ġin st
ĠI t
Ġth ink
ĠM y
Ġà§ª à§Ń
ĠA dvik
et hing
Ġà¦ĺà¦· à¦Ľ
áĥ Ķ
ation s
ĠR ah
Ġà§§à§¯à§ª à§®
Ġà¦ıà¦« à¦¬
id ent
Ġg r
ow er
Ġ| '
Ġà¦Ĩà¦īà¦Ł à¦ª
Ġà¦Ĺà¦²à¦¦ à¦ĺà¦°
Ġà§¯ à§¯
Ġà§§à§¯à§¯ à§¨
ĠN GO
Ġà§§à§¨ à§¦à§¦
Ġà§§à§« à§¦
ci ous
Ġà§§à§¯à§® à§¦
Ø§ Ø±
Ġà§§à§¯à§¬ à§«
ind u
ĠÐ ¿
Ġan y
ĠØ ª
Ġne w
res ent
Ġ1 9
Ġà§§à§¯à§¨ à§¨
Ġà§§à§¯à§¨ à§¯
à¦¤à¦°à¦« à¦¦
Ġman y
Ġà§§à§¯à§© à§§
à¦ĩà¦ī à¦Ń
Ġcom p
à¦ĩà¦¨à¦« à¦°à¦®
Ġat t
Ġsh all
ivid e
à¦¦à¦« à¦¤à¦°
Ġbec om
por t
Ġliter ature
ĠRup sha
áĥĺ áĥ
Ġâ Ĩ
vel op
cret e
Ġtim e
allen ge
hilos op
âĭ ¯
Ġà¦ıà¦¨à¦ĵ à¦¸
Ġà¦Ľà¦Ĺà¦¨ à¦²
4 1
4 2
4 4
4 7
5 0
F i
I I
I n
I TI
O C
a ut
a use
c on
d e
d en
d igital
i o
i x
i ra
m b
m s
o et
r at
r ic
r ong
t o
v es
w o
y es
y ond
Â °
Ã ¡
Ø ³
Ù ģ
Ù Ĥ
á ŀ
â ģ
Ġà¦ £
à§ĩ à¦¾à¥¤
à§ĩ ÂŃ
à¦° à¦¨à¦¤
à¦° à¦²à¦¬
à¦° à¦īà¦¦
à§į !âĢĻ
à¦¨ à¦ĩà¦¨
à¦¨ à¦¸à¦ķ
à¦¨ à¦®à¦§
à¦¨ à¦ĸà¦ļ
à¦¤ à¦ł
à¦¤ à¦ĵà¦¯
à¦¤ à¦ķà¦Ł
à¦¤ à¦¸à¦°
à¦¤ à¦¸à¦Ļ
à¦² à¦¸à¦¨
à¦ķ à¦®à§Ł
à¦¯ à¦ĸà¦£
à§ģ âĢĿà¥¤
à¦¬ à¦Ĺà¦²
à¦¬ à¦§à¦¨
à¦¬ à¦¹à¦°
à¦¬ à¦īà¦¯
à¦® à¦Ĩà¦®
à¦® à¦ħà¦¨
à¦® à¦īà¦¨
à¦® à¦łà¦¤
à§ĭ '
à§ĭ âĢĻâĢĶ
Ġà¦ķ à¦ľ
Ġà¦ķ à¦ĸ
Ġà¦¸ à¦ĸà¦¨
Ġà¦¸ à¦ªà¦¥
Ġà¦¸ à¦¸à¦ª
Ġà¦¸ à¦ĩà¦ľ
à¦¸ à¦¬à¦°
à¦¸ à¦¤à¦¨
à¦¸ à¦¦à¦¨
à¦¸ à¦Łà¦¨
à¦¸ à¦īà¦¦
à¦¸ à¦¨à¦¤à¦¨
Ġà¦ª à¦Ĺ
Ġà¦Ĩ à¦ļà¦°
Ġà¦Ĩ à§°
Ġà¦Ĩ à¦Łà¦¬
Ġà¦Ĩ à¦īà¦¡
à¦¦ à§ľ
à¦¦ à¦¤à¦²
à¦Ł à¦ł
à¦Ł à¦®à¦¨
à¦Ł à¦®à¦°
à¦Ł à¦¬à¦¦
Ġà¦¨ à¦°à¦¦
Ġà¦¨ à¦¹à¦°
Ġà¦® à¦¦à¦¬
à¦ª à¦®à¦¨
à¦ª à¦¢
à¦ª à¦®à§Ł
à¦ĩ à¦£
à¦ĩ à§ľ
à¦ĩ à¦¶à¦¨
à¦ĩ à¦¤à¦²
à¦ĩ à¦īà¦¡
à¦Ľ à¦®à¦Ľà¦®
à¦ľ à¦¤à¦¬
à¦ľ à¦®à¦¯
à¦ľ à¦®à¦°
Ġà¦¤ à¦Łà¦°
à¦¶ à¦ªà¦°
à¦¶ à¦¨à¦¬
à¦¶ à¦Ńà¦°
à¦¶ à¦Ĺà¦¡
à¦¼à§ĩ ?âĢĻ
à¦¼à§ĩ âĢĶâĢľ
à¦ĸ à¦«
à¦ĸ à¦°à¦ķ
à¦Ĺ à¦ªà¦°
à¦Ĺ à¦«
à¦· à¦·
à¦· à¦ł
à¦· à§ľ
à¦· à¦°à¦ĩ
à¦· à¦°à¦Ł
à¦§ à§ľ
à¦§ à¦¹à¦¸
à¦§ à¦¬à¦¬
à¦§ à§°
Ġà¦¯ à¦ļ
à¦ļ à¦ł
Ġà¦ķà¦° à¦¯
à§Ł à¦¤à¦°
Ġà¦Ĺ à¦Ĺà¦²à¦¸
à¦£ à¦Ľ
à¦£ à¦°à¦ķ
à¦£ à¦¬à¦ķ
à¦ģ à¦ģ
à¦¥ à¦®à¦ķ
à¦¥ à¦°à¦¥à¦°
Ġà¦¶ à¦·
Ġà¦¶ à¦®à¦¨
Ġà¦¶ à¦°à¦ķ
Ġà¦¶ à¦łà¦¤
Ġà¦ļ à§Łà¦¨
Ġà¦° à¦¸à¦ķ
Ġà¦° à¦¸à¦ª
Ġà¦° à¦Ĺà¦°à¦Ĺ
à§ĩà¥¤ âĢľ
à¦Ń à¦ļ
Ġà¦ıà¦ķ à¦ļà¦²
Ġà¦ıà¦ķ à¦ļà¦ķ
Ġà¦ıà¦ķ à¦°à¦Ļ
ĠĠ âĢ¨
Ġà¦Ľ à¦ľà¦¨
Ġà¦Ĩà¦® à¦Ł
Ġà¦ī à¦ŀ
à§Ĥ à§į
à¦Ļ à¦Ĺ
Ġà¦¬à¦² à¦ªà¦¯
Ġà¦« à§Ł
Ġà¦« à§Łà¦¸
Ġà¦ĸ à¦Ļ
Ġà¦ĸ à¦°à¦¤à¦°
à¦°à¦¤ à¦¸
Ġà¦ªà¦° à¦ļ
âĢĶ "
Ġà¦¸à¦® à¦ªà¦¦
à¦¾, --
Ġà¦ĺ à¦¨à¦¬à¦¸à¦¤
Ġà¦®à¦¨ à¦¬
Ġà¦®à¦¨ à¦Ńà¦°
Ġà¦®à¦¨ à¦Ĺà¦¡
à¦ªà¦° à¦ªà¦°
à¦°à¦£ à¦¸
à¦°à¦£ à¦ķà¦¬
à¦Ŀ à¦ª
à¦Ŀ à¦Ļ
à¦¤à¦° à¦ªà¦¤
à¦« à¦¶
à¦ī à§İ
à¦ī à¦ªà¦ļ
à¦ī à¦¬à¦Ł
à¦ī à¦ªà¦¶
à¦ī à¦¬à¦Ĺ
à¦ī à§ľà¦¨
à¦ī à§İà¦ķà¦£
à¦ªà¦¨ à¦Ĺ
à¦ªà¦¨ à¦ķà¦¥
à¦Ĩ à¦¨à¦¤
à¦Ĩ à¦ķà¦°
à§İ à¦Ł
à¦ı à¦¯
à¦ı à¦¹
à¦ı à¦ľà¦¨
à¦ı à¦®à¦ľ
à¦ı à¦¨à¦ª
Ġà¦¬à¦²à¦² à¦ı
Ġà¦¬à¦²à¦² à¦¬à¦²
Ġà¦¬à¦²à¦² à¦¸à¦¬
Ġà¦¬à¦²à¦² à¦ıà¦ĸà¦¨
Ġà¦Ĩà¦¸ à¦Ļ
Ġà¦¹à¦² à¦ĵà¦¯
Ġà¦ĩ à¦¸à¦ª
Ġà¦ĩ à¦®à¦ªà¦°
Ġà¦ĩ à¦«à¦¤
Ġà¦®à¦¤ à¦Ł
à¦¬à¦² à¦Ĺ
Ġà¦ıà¦¬ à¦Ľà¦°
à¦°à¦® à¦§à¦°
à¦°à¦® à¦¥à¦¨
à¦·à¦£ à¦¤à¦°
à¦·à¦£ à¦Ńà¦Ļ
âĢĵ âĢĺ
à¦ħ à¦ķà¦°
à¦ħ à¦¶à¦¨
à¦ħ à¦¬à¦ķ
à¦ħ à¦¯à¦¥
à¦ħ à¦¨à¦¬à¦¦
Ġà¦¬à¦¨ à¦¹
Ġà¦Ĺà¦² à¦¬
à¦ķà¦Ł à¦¨
à¦¸à¦¬ à¦¸à¦®à¦¯
à¦°à¦¨ à¦¦
à§ĭà¥¤ âĢĺ
à¦¤à¦¬ à¦§
à¦¤à¦¬ à¦¹
à¦¤à¦¬ à§İ
à¦¤à¦¬ à¦¸à¦¨
à¦²à¦ķ à¦ĵ
à¦¦à¦¨ à¦ªà¦¤
Ġà¦¹à¦¤ à¦ļ
à§ĩ? -
Ġà¦ħà¦¦ à¦°
Ġà¦ħà¦¦ à¦®à¦¨
Ġà¦Ĩà¦¨ à¦²à¦ķ
Ġà¦īà¦¦ à¦¬
à¦¾- '
Ġà¦ħà¦Ń à¦ķ
Ġà¦ľà¦² à¦¶
Ġà¦ľà¦² à¦ļ
Ġà¦ľà¦² à¦ļà¦ķ
à¦¶à¦¨ à¦ª
à¦®à¦¤ à¦ĵ
Ġà¦ħà¦¤ à¦ĩ
à¦¯à¦ķ à¦Ń
à¦¯à¦ķ à¦°à¦£
à¦°à¦¹ à¦Ĺ
à¦°à¦¹ à¦Ńà¦°
à¦²à¦¨ à¦Ł
à¦²à¦¨ à¦ª
à¦²à¦¨ à¦¹
Ġà¦®à¦¹ à¦¦
Ġà¦īà¦ª à¦ª
Ġà¦īà¦ª à¦°à¦¤à¦²
à¦§à¦¨ à¦ª
à¦°à¦¦ à¦£
Ġà¦ķà¦² à¦¶
à¦¼à§ĭ âĢĶ
à¦ļà¦² à¦²
à¦ļà¦² à¦ĸ
à¦ļà¦² à¦ļ
à¦®à¦ķ à¦¹
Ġà¦īà¦¤ à¦·
Ġà¦Ĩà¦¤ à¦¸
à¦¸à¦¨ à¦¦
à¦¸à¦¨ à¦ļ
à¦ĩà¦¨ à¦ĩ
à¦ĩà¦¨ à¦ľ
à¦ķà¦¬ à¦ĩ
à¦ķà¦¬ à¦¦à¦²
Ġà¦ħà¦ľ à¦ªà¦¥
à¦¹à¦² à¦ĩ
Ġà¦ĵà¦ªà¦° à¦¦
Ġà¦Ĳ à¦¯
Ġà¦Ĳ à¦Ń
âĢ¦ )
âĢ¦ ..
Ġà¦ķà¦® à¦¸
Ġà¦ķà¦® à¦²à¦ķ
à¦¤à¦² à¦ľ
Ġà¦¤à¦° à¦²à¦¤
à§ĩ! âĢĵ
Ġà¦°à¦Ļ à¦ª
Ġà¦°à¦Ļ à¦ļà¦Ł
Ġà¦ªà¦¦ à¦¸à¦ŀ
à¦°à¦Ń à¦¦
à¦¶à¦¬ à¦¦
Ġà¦¨à§Ł à¦Ł
à¦®à¦£ à¦Ł
à¦®à¦£ à¦ĵ
à¦®à¦£ à¦ķà¦¨
à¦¿? "
à¦¿? '
à¦ıà¦ķ à¦ĩà¦Ń
Ġà¦ħà¦ķ à¦£
à¦·à¦¤ à¦ķ
à§įâĢĮ ?
à¦¬à¦¦ à¦®à¦¨
à¦·à¦ķ à¦¶
Ġà¦Ľà¦¬ à¦Ľà¦°
à¦¯à¦® à¦¶
à¦¤à¦ķ à¦ķ
à¦¤à¦® à¦¸
à¦¿âĢĶ âĢĻ
Ġà¦ħà¦¶ à¦ķ
à¦¨à¦¦ à¦¶
à§ĩ; âĢĵ
à¦¢ à¦Ļ
à¦ĩà¦ķ à¦®
Ġà¦ħà¦² à¦¸à¦Ń
à¦¯à¦¸ à¦¹
à¦¹à¦¨ à¦ª
Ġ( âĢľ
à¦ķà¦¨ à¦«
à§° à¦¬à¦²
Ġà¦¶à¦¤ à¦¦
Ġà¦¨à¦¬ à¦¤à¦°
à¦ªà¦¸ à¦¹
Ġà¦Ĺà§ľ à¦¨
à¦¥à¦° à¦ĸà¦£
Ġà¦¸à¦¹à¦ľ à¦¤à¦°
à¦Ĺà¦ľ à¦ķà¦²à¦®
à¦Łà¦¬ à¦ĩà§Ł
Ġà¦ıà¦ķà¦ĩ à¦¸
à¦¿! '
à¦¿! -
à¦ķà¦¶ à¦¤
à¦§à¦¬ à¦¸à¦®
Ġà¦¦à¦¶ à¦Ń
Ġà¦Ĺà¦£ à¦²
Ġà¦¬à¦ī à¦ĵ
à¦®à¦°à¦£ à¦ķ
à¦®à¦°à¦£ à¦¶à¦ķ
à¦²à¦¸ à¦Ł
Ġà¦¬à§ľ à¦ľà¦¨
à¦¹à¦°à¦£ à¦¤
à¦¹à¦°à¦£ à¦Ł
à¦¹à¦°à¦£ à¦Ĺ
à¦¦à¦¸ à¦ĩ
à¦¦à¦¸ à¦¹
à¦®à¦¹ à§İ
Ġà¦Ĩà¦ª à¦Ĺ
à§¦ à§§
à§¦ à§¨
Ġà¦Ī à¦·
Ġà¦ķà¦ª à¦ļ
-- ---
à¤ ł
à¦ķà¦°à¦£ à¦ķ
à¦¿; âĢĵ
à¦ķà¦¸ à¦¹
à¦¶à¦² à§Ł
Ġà¦°à¦ĵà¦¶à¦¨ à¦ĵ
Ġà¦Ĺà¦°à¦® à¦ķ
à¦®à¦¶ à¦ķà¦°
à¦ıà¦¸à¦¬ à¦ķ
à¦ĩà¦¡ à¦¬
Ġà¦Ĺà¦¹ à¦¨à¦¤
Ġà§§à§¯ à§§à§¯
à§Ŀ à¦ª
à¦¬à¦Ń à¦ķ
à¦£à¦¬ à¦§à¦°
à§Ń à§«
à¦¸à¦¹ à¦ķà¦°
Ġà¦ľà¦Ĺà¦¤ à¦ķ
à§ª à§§
à¦°à¦¬à¦² à¦¤à¦°
à¦¬à¦Ł à¦¦
à¦¬à¦Ł à¦Ł
in ation
Ġà¦īà§ľ à¦¬
à¦ľà§Ł à¦§
Ġà¦ĩà¦² à¦¶
Ġà¦¸à§İ à¦¬
Ġà¦ĵà¦ª à¦°à¦¤à¦²
à¦¶à¦Ĺ à¦Ļ
à¦¿à¥¤âĢĻ âĢĿ
Ġà¦ļà¦Ł à¦ķà¦²
à¦¬à¦ľà¦¨ à¦¬
Ġà¦Ĭ à¦·à¦°
Ġà¦Ĩà¦ļà¦°à¦£ à¦Ł
Ġà¦ľà¦Ĺ à¦Ĺ
Ġà¦ıà¦°à¦ķà¦® à¦Ł
à¦ªà§ľ à¦¤
à¦²à¦ľ à¦«
à§¬ à§§
à§¬ à§©
à¦®à¦® à¦Ń
al k
Ġà¦«à¦Ł à¦ķà¦Ł
à¦ĩà¦ª à¦ĩ
à§® à§©
Ġà¦ļà¦°à¦® à¦ªà¦¨
à¦¾âĢĿ -
Ġà¦ļà¦°à¦£ à¦ª
Ġà¦ļà¦°à¦£ à¦ļ
it e
Ġà¦Ĩà¦Ł à¦¦
Ġà¦°à¦¤à¦¨ à¦¦
Ġs il
Ġs up
à¦ıà¦¤ à¦¸à¦¬
à§ĭ; -
à¦ĩà¦« à¦°à¦®
Ġà¦Ńà¦Ĺ à¦¬à¦¨
Ġa d
ar i
Ġw ould
Ġm en
Ġm ind
Ġm ontu
à¦¿. -
à¦¿. à¥¤
à¦īà¦ł à¦Ľ
ÂłÂłÂłÂłÂłÂłÂłÂłÂłÂłÂłÂłÂłÂłÂłÂł ÂłÂłÂłÂłÂłÂłÂłÂłÂłÂłÂłÂłÂłÂłÂłÂłÂłÂłÂłÂł
Ġd es
Ġd if
Ġà§§à§¯à§Ń à§©
Ġà¦ķà¦¦à¦® à¦Ĺ
Ġà§¨à§¦ à§§à§¦
Ġà§¨à§¦ à§§à§«
Ġà¤ ľ
à¦ĸà¦¬à¦° à¦¦
om as
Ġà¦ªà¦¥à¦ļ à¦²à¦¤
** *
Ġl ong
Ġà§§à§¯à§« à§§
Ġà§§à§¯à§« à§«
Ġà§« à§§
ol ar
ĠM an
ĠM ontu
el od
Ġà§ª à§¦à§¦
ĠA yan
ent al
ĠP arg
à¦£à¦¸ à¦ŀ
ĠB ang
Ġà§Ń à§¦à§¦
Ġà¦īà¦Ńà§Ł à¦ķ
Ġre ason
à¦¸à§İ à¦¤
Ġbe yond
Ġà§§à§¯à§ª à§¦
Ġg l
ĠD iya
od y
Ġà¦Ĺà¦²à¦¦ à¦ĺ
ul ar
Ġà¦¶à¦ĵ à¦ķà¦°
Ġà¦īà¦ĩà¦¨ à¦ļ
Ġà¦§à¦ķ à¦§à¦ķ
Ġà¦¬à¦Ĺà¦² à¦¦
!! [
em ent
Ġà§§à§Ń à§«à§Ń
Ġà§§à§¯à§® à§§
Ġà¦¦à¦¹ à¦°à¦®
Ġv ill
op e
op le
ri ot
Ġne igh
Ġà§§à§¯à§© à§©
ĠW i
Ðµ ÑĢ
ĠF re
ie f
Ġà¦Ĩà¦ī à¦Łà¦²
Ġsp e
Ġab out
TE M
Ġcan not
Ġim ag
Ġà¦«à¦¸à¦« à¦°
Ġj ust
Ġà¦ħà§Ł à¦¨à¦ķ
uth or
ug ht
ĠU n
Ġsom ething
way s
Ġsol ipsism
Ġar t
yst em
Ġdif f
! [
/ -
? à¥¤
A L
M O
N A
P ro
S B
V R
a j
a u
a ve
d s
f in
g a
h as
i ed
l ess
l ab
o h
o ver
p h
p r
r an
r ish
s o
t y
t en
u es
u ja
v en
w ard
w ise
| |
£ áĥ
Ã ¦
Ð ¿
Ñ ĩ
× ¨
à ©
â Ī
ï ¼
Ċ ĠĠ
Ġ X
Ġ Î
Ġ en
Ġ et
Ġ Ú©
à¦¾ "
à¦¾ (
à¦¾ à¦¿
à¦¾ ÂŃ
à§ĩ "
à§ĩ _
à¦° à¦°à¦¬
à¦° à¦°à¦¶
à¦¿ ..
à¦¿ ),
à¦¤ à¦¬à¦²
à¦¤ à¦§à¦°
à¦¤ à¦ļà¦°à¦£
à¦¤ à¦¯à¦¶
à¦¤ à¦Ĩà¦Ł
à¦² à§ľ
à¦² à¦Ĩ
à¦² à¦¤à¦¨
à¦² à¦²à¦¨
à¦² à¦ªà¦Ł
à¦² à¦ªà¦¡
à¦ķ à§İ
à¦ķ à¦®à¦£
à¦ķ à¦ľà¦¬
à¦ķ à¦Ĩà¦īà¦Ł
à¦¯ à¦¦à§Ł
à¦¯ à¦ľà¦¯
à§ģ .
à§ģ âĢĮ
à¦¬ à¦¤à¦¬
à¦¬ à¦Ĺà¦®
à¦¼ âĢĿâĢĶ
à¦¼ âĢĿâĢĵ
à¦® à¦ķà¦¤
à¦® à¦¦à¦²
à¦® à¦¬à¦¸
à¦® à¦Ĺà¦ľ
à¦® à¦Ĩà¦ªà¦¨
à¦® à¦ĸà¦£
à§ĭ âĢĻ,
Ġà¦ķ à¦¦à¦²
Ġà¦ķ à¦ķà¦ª
Ġà¦¬ à¦ĵà¦¯
Ġà¦¬ à¦ķà¦²
Ġà¦¬ à¦¶à¦®
Ġà¦¬ à¦°à¦¬à¦°
Ġà¦¬ à¦¨à¦¤à¦²
Ġà¦¬ à¦ĸà¦¶
Ġà¦¸ à¦¬à¦¨
Ġà¦¸ à¦¦à¦Ĺ
Ġà¦¸ à¦¦à¦²à¦¬à¦²
à¦¸ à¦¥
à¦¸ à¦°à¦¬
à¦¸ à¦ļà¦²
Ġà¦ª à¦¦à¦°
Ġà¦ª à¦²à¦¤
Ġà¦ª à¦¨à¦°
Ġà¦ª à¦ªà¦²
Ġà¦ª à¦īà¦·
Ġà¦ª à¦ĩà¦ªà¦ĩ
Ġà¦Ĩ à¦Łà¦¤
Ġà¦Ĩ à¦īà¦°
à¦¦ à¦ªà¦°
à¦¦ à¦Ĺà¦²
à¦Ł à¦¬à¦¨
à¦Ł à¦®à¦¡
à¦Ł à¦¸à¦¸
Ġà¦¨ à¦°à¦ª
Ġà¦¨ à¦ĸà¦ļ
Ġà¦¨ à¦¬à¦¤à¦®
Ġà¦¨ à¦°à¦¹à¦¤
Ġà¦® à¦°à¦¹
Ġà¦® à§°
à¦ª à¦ķà¦Ł
à¦ª à¦¸à¦¬
à¦ª à¦®à¦²
à¦ª à¦¶à¦¬
à¦ĩ à¦Ĩà¦®
à¦ĩ à¦¨à¦ĵ
à¦ĩ à¦ªà¦¥
à¦ĩ à¦ĵà¦°
à¦ĩ à¦ªà¦®
à¦ĩ à¦ĵà¦¨
à§Ģ "
à§Ģ âĢĶâĢľ
à§Ģ âĢĿâĢĶ
à¦Ľ à¦ªà¦Ł
à¦Ľ à¦§à¦°
Ġà¦¦ à¦¸à¦¤
Ġà¦¦ à§°
à¦ľ à¦«
à¦ľ à¦ĵà¦¯
à¦ľ à¦®à¦¤
à¦ľ à¦Ĺà¦¨
à¦ľ à¦ķà¦¦
à¦ľ à¦ĺà¦¨
Ġà¦¹ à¦°à¦ķ
Ġà¦¹ à¦¸à¦ª
Ġà¦¤ à¦ļ
Ġà¦¤ à¦£
Ġà¦¤ à¦ķà¦¤à¦ķ
Ġà¦ı à¦¤à¦°
Ġà¦ı à¦¨à¦Ĺ
à¦¶ à¦£
à¦¶ à¦¬à¦²
à¦¶ à¦°à¦¥
à¦¶ à¦²à¦ķ
à¦¶ à¦²à¦¬
à¦¶ à¦°à¦¦
à¦¶ à¦ľà¦²
Ġà¦ħ à¦°à¦¸
à¦ĸ à¦ŀ
à¦ĸ à¦°à¦¬
à¦Ĺ à¦¬à¦²
à¦Ĺ à¦¢
à¦· à¦¬à¦°
à¦· à¦¸à¦°
à¦· à¦Ńà¦°
à¦· à¦ªà¦²
à¦§ à¦°à¦¬
à¦§ à¦Ĺà¦²
à¦§ à¦¬à¦ķ
âĢ ĥ
âĢ ĭ
Ġà¦¯ à¦·
à¦ļ à¦¤à¦¨
à¦ļ à¦°à¦¨
à¦ļ à¦¬à¦ķ
à¦ļ à§Łà¦¨
à¦ļ à§°
à¦ļ à¦¬à¦Ł
à¦¹ à¦°à¦¬
à¦¹ à¦ĩà¦²
à¦¹ à¦ķà¦¦
Ġà¦ķà¦° à¦ķà¦°
à§Ł à¦®à¦ķ
Ġà¦Ĺ à¦°à¦¦
Ġà¦Ĺ à¦®à¦ķ
à¦£ à¦®à¦¤
à¦£ à¦ªà¦¦à¦ķ
à¦ģ à¦¾
à¦¥ à¦¬à¦°
à¦¥ à¦°à¦ĵ
à¦¥ à¦ķà¦¦
Ġà¦¶ à¦ł
Ġà¦¶ à¦®à¦¸
Ġà¦¶ à¦¬à¦°à¦¦
Ġà¦ľ à¦Ń
Ġà¦ľ à¦ªà¦®
Ġà¦ļ à¦ķà¦°
Ġà¦ļ à¦°à¦¨
Ġà¦Ń à¦ľà¦®
Ġà¦° à¦ĩà¦¨
Ġà¦° à¦¸à¦¤
Ġà¦° à¦ľà¦ķ
Ġà¦° à¦¸à¦ķà¦·
Ġà¦° à¦¦à¦¬à¦¦à¦²
à§ĩà¥¤ âĢĵ
à¦ĵ à¦°à¦ķ
à¦Ń à¦°à¦ķ
à¦Ń à¦°à¦ª
Ġà¦ıà¦ķ à¦¡
Ġà¦ıà¦ķ à¦ªà¦ķ
Ġà¦ıà¦ķ à¦ķà¦£
Ġà¦ıà¦ķ à¦¶à¦Ł
Ġà¦ıà¦ķ à¦§à¦°à¦£
à¦¼à¦¾ /
à¦¼à¦¾ :
à¦¼à¦¾ à¦¾
à¦¼à¦¾ ---
à¦ł à¦ªà¦¥
à¦ł à¦²à¦Ĺ
Ġà¦ī à¦ĩà¦®
à¦Ĥ /
à¦¾à¦ģ à¥¤âĢĿ
à¦¾à¦ģ !âĢĿ
Ġà¦² à¦¬à¦¨
Ġà¦ĵ à¦ĵ
Ġà¦ĵ à¦Ļ
Ġà¦ĵ à¦®à¦¨
Ġà¦ĵ à¦«
Ġà¦¬à¦² à¦¹
Ġà¦Ĩà¦° à¦¨à¦¬
Ġà¦ĸ à¦°à¦¤
à¦°à¦¤ à¦¯
à¦°à¦¤ à¦ĩ
Ġà¦ªà¦° à¦Ĺà¦£
Ġà¦¸à¦® à¦ª
Ġà¦¸à¦® à¦°à¦ķ
à¦¼à¦¿ !âĢĿ
à§ľ à¦°
à§ľ à¦ª
Ġà¦ĺ à¦°à¦®
Ġà¦®à¦¨ à¦®à¦¤
à¦ªà¦° à¦ĩ
Ġà¦ıà¦ĩ à¦¡
à¦Ŀ à¦¦
à¦ľà¦¨ à¦Ĺà¦¨
à¦¤à¦° à¦ľà¦Ĺà¦¤
à¦« à¦¥
à¦« à¦Ŀ
à¦« à¦ĵà¦¯
à¦ī à¦Ľ
à¦ī à¦°à¦¨
à¦ī à¦®à¦°
à¦ī à¦¨à¦¸
à¦ī à§İà¦°
à¦¿, âĢĶ
Ġà¦Ĩà¦² à¦ľ
à¦°à¦¬ à¦¹
à¦Ĩ à¦ŀ
à¦Ĩ à¦ĩà¦°
à§İ à¦¦
à§İ à¦ĵ
à§İ à¦ªà¦¨
à§İ à¦ªà¦Ł
à¦¬à¦° à¦Ń
à¦¬à¦° à¦Ļ
à¦¬à¦° à¦¦à¦¸
Ġà¦¬à¦²à¦² à¦ļ
Ġà¦¬à¦²à¦² à¦ıà¦ķ
Ġà¦¬à¦²à¦² à¦ıà¦ĸ
Ġà¦Ł à¦¸
Ġà¦Ł à¦Ł
Ġà¦Ł à¦Ĺ
Ġà¦Ł uhin
Ġà¦Ĩà¦Ľ à¦¨
à¦¼à¥¤ (
Ġà¦¹à¦² à¦°
Ġà¦¡ à¦¬
Ġà¦ĩ à¦Ĺà¦¨
Ġà¦ĩ à¦īà¦¸
Ġà¦ĩ à¦«à¦°
à¦ĺ à¦ĵ
à¦ĺ à¦°à¦Ľ
Ġà¦ľà¦¨ à¦¸à¦Ļ
ĠĠĊ Ċ
Ġà¦Ŀ à¦ķà¦®
à¦¬à¦² à¦¤à¦°
à¦°à¦® à¦ªà¦°
à§ģà¦ģ à¦ģ
à¦·à¦£ à¦¨
Ġà¦ıà¦¸ à¦ĩà¦īà¦Ń
à¦¤à¦¨ à¦¸à¦¹
à¦ĥ ?
à¦ħ à¦Ŀ
à¦ħ à¦ķà¦²
à¦ħ à¦¹à¦²
à¦ħ à¦ľà¦°
à¦ħ à¦¬à¦§
Ġà¦¬à¦¨ à¦ªà¦°
à¦ķà¦² à¦¶
à¦ķà¦² à¦Ń
Ġà¦Ĩà¦¬ à¦¡
Ġà¦ħà¦® à¦²à¦¬
Ġà¦Ĺà¦² à¦«
à¦¸à¦¬ à¦Ĺ
à¦°à¦¨ à¦¬
à¦°à¦¥ à¦ª
à¦¤à¦¬ à§Łà¦¸
à¦²à¦ķ à¦¥
à¦¾à¦Ĥ !
à¦¦à¦¨ à¦¯
à¦¦à¦¨ à¦¬à¦¨
à¦°à¦¥à¦® à¦ĩ
à§ĩ? )
Ġà¦ıà¦² à¦Ĺ
à¦Ĩà¦® à¦¤
à¦Ĩà¦® à¦²à¦ķ
Ġà¦ħà¦° à¦ľ
à¦Ĺà¦² à¦°
à¦Ĺà¦² à¦ķà¦°
Ġà¦ħà¦Ń à¦¬
Ġà¦ħà¦Ń à¦Ļ
Ġà¦ľà¦² à¦¤
Ġà¦ľà¦² à¦ľà¦²
à¦Ĺà¦¤ à¦¦
à¦¶à¦¨ à¦¦
Ġà¦ĺà¦° à¦ĵ
Ġà¦ĺà¦° à¦¬à¦¨
à¦²à¦¨ à¦¯
Ġà¦īà¦ª à¦¬à¦°
Ġà¦īà¦ª à¦¦à¦²
à¦¬à¦¤ à¦ķ
à¦¬à¦¤ à¦°à¦£
à¦ĩà¦² à¦¡
à¦®à¦² à§Ł
à¦§à¦¨ à¦°
à¦§à¦¨ à¦ªà¦¥
à¦§à¦¨ à¦Ńà¦Ļ
à¦°à¦ľ à¦¦
à¦°à¦ľ à¦ª
à¦°à¦ľ à¦¬à¦°à¦¦à¦¸
à¦°à¦² à¦¹à¦°
à¦°à¦² à¦¸à¦Ń
Ġà¦ķà¦² à¦ª
Ġà¦ķà¦² à¦Ĺ
Ġà¦¸à¦¹ à¦®
Ġà¦ıà¦¤ à¦ľà¦¨
à¦¿à¦ĥ âĢĵ
à¦¸à¦¨ à¦ķà¦°
à¦ĩà¦¨ à¦¡
à¦¨à¦¨ à¦¦
à¦¨à¦¨ à¦Ń
à¦¨à¦¨ à¦Ĺà¦°
à¦ıà¦ĩ à¦¸à¦¬à¦ĩ
Ġà¦ħà¦ļ à¦²à¦¤
Ġà¦ķà¦¬ à¦·
à§Ģ, âĢĶ
à¦¿- '
à¦¹à¦² à¦Ł
à¦¹à¦² à¦Ńà¦°
à¦¹à¦² à¦®à§Ł
Ġà¦īà¦¨ à¦ªà¦ŀ
Ġà¦ķà¦¤ à¦¶à¦¤
âĢ¦ !
Ġà¦ķà¦® à¦¬à¦¯
Ġà¦¬à¦¹ à¦¤
à§ĩ! !
Ġà¦¯à¦¤ Åĵ
Ġà¦ªà¦¦ à¦¦
Ġà¦ªà¦¦ à¦ªà¦¥
à¦®à¦° à¦Ł
à¦¸à¦° à¦·
à¦ªà¦¦ à¦®
à¦ªà¦¦ à¦ľà¦¨à¦ķ
à¦°à¦ĵ à¦ĩ
à¦ªà¦¥ à¦ķ
à¦ªà¦¥ à¦ĩ
Ġà¦ħà¦®à¦² à¦ª
à¦®à¦£ à¦¯
à¦®à¦£ à¦Ń
à¦¨à¦ķ à¦¨
à¦¬à¦¸ à¦ļ
à¦Łà¦² à¦Ł
à¦ĩà¦° à¦Ļ
Ġà¦«à¦² à¦ĩ
à¦·à¦ķ à¦ľ
à¦¤à¦ķ à¦¨
à¦¤à¦ķ à¦®à¦²
Ġà¦²à¦ķ à¦ª
à¦¤à¦® à¦¬
à¦¿âĢĶ âĢĿ
à¦¾! -
à¦¾! âĢĶ
à¦¾! âĢ¦
à¦¬à¦ķ à¦®
Ġà¦ĩà¦¨ à¦«à¦°
Ġà¦Ĩà¦§ à¦ĺà¦¨
à¦¤à¦¤ à¦ªà¦ķ
à¦¬à¦¬ à¦¶
à¦¬à¦¬ à¦¶à¦¤
Ġà¦Ńà¦¬ à¦Ń
à¦ĸà¦¬ à¦ĩ
à¦¸à¦ķ à¦ķ
à§° à¦ª
à§° à¦Ĺ
à§° à¦·
Ġà¦¶à¦¤ à¦§
Ġà¦¨à¦¬ à¦ªà¦°
à¦¨à¦¸ à¦ª
à¦¨à¦¸ à¦ŀ
à¦¼à§Ģ ?
à¦¼à§Ģ âĢĶ
à¦¼à§Ģ âĢĵ
?âĢĿ ,
Ġà¦Ĺà§ľ à¦Ľ
Ġà¦ĭ à¦¤à¦¨
à¦Łà¦¬ à¦ī
à¦¿! (
Ġà¦ªà¦² à¦¸
à¦ķà¦¶ à¦Ł
à¦·à¦® à¦Ń
à¦§à¦¬ à¦¹
Ġà¦°à¦ķà¦® à¦Ł
Ġà¦īà§İà¦¸ à¦Ł
Ġà¦īà§İà¦¸ à¦ľ
Ġà¦¬à¦Ł à¦®
Ġà¦¬à¦Ł à¦ł
à¦¾; -
Ġà¦Ĺà¦£ à¦®à¦¨
à¦¾âĢĵ âĢĻ
Ġà¦ħà¦Łà¦² à¦Ń
à¦Ĺà¦® à¦ª
Ġà¦§à¦¨ à¦ªà¦¤
à¦®à¦¹ à¦®
à§¦ à§©
à§¦ à§Ń
Ġà¦Ī à¦·à¦¦
à¤ ¡
à¤ ĺ
à¤ Ń
à§« à§©
à§« à§¯
à¦¶à¦² à¦ĩ
à¦ªà¦² à¦ĵà¦¯
Ġà¦ľà§Ł à¦Ł
Ġà¦ľà§Ł à¦ª
Ġà¦ľà§Ł à¦ıà¦°
Ġà§§à§¯ à§¨à§¦
à§Ŀ à¦¸
Ġt wo
à§ĭ! !
à§ª à§®
à¦Łà¦Ľ à¦¡
à¦Ĺà¦£ à¦ķ
à¦²à¦ª à§ľ
Ġà¦· à¦Ł
Ġà¦ķà§Ł à¦Ł
Ġ- '
Ġà¦¸à§İ à¦®
Ġà¦¸à§İ à¦ª
à¦¨à§Łà¦¨ à¦®
Ġà¦¶à¦ªà¦¥ à¦¬
à¦¦à¦¶ à¦¦
à¦¬à¦ľà¦¨ à¦®
à¦¬à¦ľà¦¨ à¦¸
Ġà¦ķà¦ļ à¦ĵ
Ġà¦Ĭ à¦ł
Ġà¦¤à¦¨ à§Ł
à§¬ à§«
à¦®à¦® à¦ŀ
à¦¯à¦ķà¦° à¦Ń
Ġà¦ħà¦¬à¦¨ à¦®
Ġ! '
à¦¸à¦®à§Ł à¦¸
à§® à§«
à¦ĵà¦ĩ à¦ĸ
Ġà¦ıà¦¡ à¦®
is ha
à¦Ĳ à¦ĸ
à¦Ĳ à¦¤à¦°
it tle
à¦¶à¦¹à¦° à¦Ł
à¦¾âĢ¦ à¥¤âĢĿ
à¦ªà¦Ĺ à¦ŀ
Ġà¦ľà¦¨à¦¸ à¦®à¦ķ
Ġo pp
Ġà¦¤à¦ªà¦¨ à¦¦
âĢį à§įâĢĮ
Ġ; -
à¦¿?âĢĻ âĢĶ
Ġa cc
Ġc re
Ġc ir
Ġc har
à¦ķà¦¶à¦¨ à¦Ł
Ġà¦ĭà¦£ à¦Ĺ
Ġà¦¸à¦®à¦¤ à¦²à¦¬
Ġà¦¨à¦° à¦ĵà¦¯
ar a
ar ch
Ġà¦ķà¦¦ à¦®à¦¬
or t
Ġw here
à¦¿!âĢĿ âĢĶ
Ġm ay
Ġm od
Ġm em
Ġm ake
à¦¿âĢĿ !
à¦ħà¦ª à¦Ľà¦¨
Ġà¦¬à¦°à¦« à¦ª
Ġp erson
Ġp hilosop
à¦ħà¦ľ à¦Ĺà¦°
and a
ic ism
Ġà¦ħà¦²à¦ķ à¦ķ
Ġà§© à§¦à§¦
ou b
Ġà¦°à¦¨ à¦ľ
as e
as ure
Ġf a
Ġf ind
Ġà¦ķà¦¬à¦° à¦Ł
Ġà¦ĩà¦ī à¦ª
Ġà§§à§¯à§Ń à§¬
Ġà¦Ĩà¦¬à¦°à¦£ à¦Ł
Ġh ar
Ġh ist
à§ĢâĢĻ âĢĶ
Ġà¤ ¦
Ġà¤ °
Ġà¤ ĸ
om m
om en
Ġà¦¸à¦² à¦®à¦¨
à¦īà§İà¦¸à¦¬ à¦®
ot her
Ġà§« à§¬
Ġà§« à§®
à¦īà¦ª à¦¬à¦¨
à¦¶à¦ĵ à¦ª
à¦¨à¦¶à¦¨ à¦Ł
ĠA p
ĠA nd
ut ion
ĠP ro
ĠP uja
il ity
ĠB ut
ĠB rah
à¦¼âĢ¦ âĢĻ
ĠS h
Ġà¦īà¦ĩà¦² à¦Ł
Ġe ach
ig n
ig ion
Ġre f
Ġre m
Ġre al
áĥ ķ
ĠT agore
à¦¤à¦ĸ à¦°à¦ļ
Ġg ener
Ġà§¬ à§«
à¦¶à¦¶ à¦¤à¦ķ
Ġà¦¸à¦®à¦¤à¦² à¦Ń
ĠC omp
Ġà¦ĸà§ľ à¦Ĺ
if ication
Ġà¦¶à¦ĵà¦ķà¦¤ à¦ķ
ir it
à¦°à¦²à§Ł à¦Ļ
ĠH indu
à¦¸à¦®à¦¤ à¦²
Ġcon st
Ġcon crete
ĠÐ ²
Ġà¦Ĺà¦« à¦°à¦Ĺ
Ġà¦®à§Ł à¦®à¦¨à¦¸
Ġà¦¡à¦ľà¦¨ à¦ĸ
ĠØ ´
Ġà¦¬à¦°à¦¬ à¦Ł
Ġor ig
Ġà¦®à¦Ł à¦°à¦¶
à¦¦à¦ļ à§Łà¦¨
Ġcom e
ĠÙ ħ
Ġà¦Ĩà¦ī à¦Łà¦¬
Ð¾Ð »
ib le
ear s
we y
ĠĠĠĊ ĠĠ
Ġsu ch
Ġim p
Ġà¦¬à¦°à¦ķ à¦¤
Ġsh ould
==== ====
ĠU SB
Ġch allenge
Ġ____ _
ĠBe ing
Ġev il
ĠRup ali
ĠDe wey
Ġtrans cend
Ġfre edom
ĠAr jun
Th omas
Ġà¦Łà¦ĩà¦Ł à¦®
Ġpe ople
Ġpat riot
osit ive
velop ment
âģ ł
! ]
! ..
% -
' s
, '
- (
. à¥¤
4 6
4 9
5 7
? âĢ¦
A TE
I F
L M
M y
R E
b e
b er
f ore
g ress
k now
l es
m in
n a
n ing
p art
r ist
s c
u k
v a
v al
v ing
v ent
w ith
y e
Â ¤
Â ¸
Ã ¼
Ä ±
Î µ
Ð ±
Ñ Į
× ¢
× ľ
Ø ¨
Ù ĩ
Û Ĵ
à ¯
à µ
å ķ
ê °
Ġ 3
Ġ ]
Ġ ?âĢĿ
Ġ er
Ġ ed
Ġ el
Ġ ri
Ġ 55
ĭ ľ
à¦¾ âĢį
à§ĩ à¦¾,
à¦° à¦°à¦¤
à¦° à¦«à¦²
à¦° à¦ıà¦°
à¦° Ã¦
à§į ;
à¦¿ |
à¦¨ à¦²à¦ķ
à¦¨ à¦°à¦¶
à¦¨ à¦²à¦¬
à¦¨ à¦°à¦ª
à¦¨ à¦¸à¦²
à¦¨ à¦¸à¦Ļ
à¦¨ à¦ªà¦²
à¦¨ à¦®à¦¶
à¦¨ à¦Ĩà¦¸
à¦¨ à¦ķà¦¤à¦ķ
à¦¤ à¦Ŀ
à¦¤ à¦²à¦ķ
à¦¤ à¦®à¦¤
à¦¤ à¦°à¦¤à¦²
à¦² à¦°à¦ķ
à¦² à¦ıà¦ĩ
à¦² à¦¸à¦«
à¦² à¦«à¦²
à¦² à¦ĩà¦¬
à¦² à¦Ĩà¦ªà¦¨
à¦² à§İà¦ľ
à¦ķ à¦·à¦£
à¦ķ à¦ªà¦¤
à¦ķ à¦ħà¦¨
à¦ķ à¦¸à¦ª
à¦ķ à¦¥à¦ķ
à¦ķ à¦¯à¦ľ
à¦¯ à¦Ľ
à¦¯ à¦²à¦¤
à¦¯ à¦®à¦°
à¦¯ à¦«à¦²
à§ģ à§Ĥ
à§ģ à¥¥
à¦¬ à¦ĵà¦¯
à¦¬ à¦¬à¦¤
à¦¬ à¦ľà¦°
à¦¬ à¦īà¦²
à¦¬ à¦®à¦¸
à¦¼ à§ĭà¥¤âĢĿ
à¦¼ à¥¥
à¦® à¦¸à¦°
à¦® à¦¬à¦¦
à¦® à§°
à¦® à¦°à¦¹à¦¸
à§ĭ .
à§ĭ ...âĢĿ
Ġà¦ķ à¦¨à¦Ĺ
Ġà¦¬ à¦ķà¦¤
Ġà¦¸ à¦¦à§Ł
à¥¤ -
à¥¤ à¥¤âĢĻ
à¦¸ à¦ĸà¦¨
à¦¸ à¦¦à¦°
à¦¸ à¦ªà¦¥
à¦¸ à¦°à¦¬à¦°
à¦¸ à¦ªà¦°à¦Ł
Ġà¦ª à¦¹à¦°
Ġà¦ª à¦¢
Ġà¦ª à¦ļà¦¬
Ġà¦Ĩ à¦ªà¦ķ
Ġà¦Ĩ à¦ĩà¦¯
Ġà¦Ĩ à¦ĵà¦²
à¦¦ à¦¦à¦°
à¦¦ à¦¶à¦¨
à¦¦ à¦ľà¦²
à¦¦ à¦ķà¦¦
à¦¦ à¦ĩà§Ł
à¦¦ à¦¬à¦§
à¦Ł à¦¥
à¦Ł à¦Ŀ
à¦Ł à¦ķà¦¤
à¦Ł à¦°à¦¦
à¦Ł à¦ªà¦¤
à¦Ł à¦¨à¦ķ
à¦Ł à¦ªà¦Ł
à¦Ł à¦¸à¦¹
à¦Ł à¦ķà¦Łà¦ķ
Ġà¦¨ à¦¬à¦¤
Ġà¦¨ à¦²à¦Ł
Ġà¦¨ à¦°à¦ĸ
Ġà¦¨ à¦Ńà¦¸
Ġà¦¨ à¦ŀà¦°
Ġà¦® à§İ
Ġà¦® à¦²à¦®à¦²
à¦ª à§İ
à¦ª à¦²à¦¤
à¦ª à¦®à¦¤
à¦ª à¦¶à¦ķ
à¦ª à¦Ńà¦°
à¦ª à¦īà¦ªà¦¨
à¦ĩ à¦ķà¦°
à¦ĩ à¦²à¦ķ
à¦ĩ à¦Łà¦²
à¦ĩ à¦«à¦²
à¦ĩ à¦īà¦Ł
à¦ĩ à¦¶à¦¤
à§Ģ à¦ģ
à¦Ľ à¦ľ
à¦ľ à¦¬à¦ª
à¦ľ à¦²à¦¤
à¦ľ à¦ªà¦¦à¦¬
Ġà¦¹ à¦¦à§Ł
Ġà¦¹ à¦°à¦Ĺ
Ġà¦¹ à¦ķà¦¸
Ġà¦¤ à¦«à¦¸
Ġà¦ı à¦Ĺà¦²
Ġà¦ı à¦°à¦²
Ġà¦ı à¦®à¦¡
à¦¶ à¦¤à¦¬
à¦¶ à¦¦à¦°
à¦¶ à¦¬à¦¤
à¦¶ à¦ķà¦¬
à¦¼à§ĩ )
à¦¼à§ĩ !âĢĻ
Ġà¦ħ à¦°à¦¤
Ġà¦ħ à¦ĸà¦¨
Ġà¦ħ à¦¯à¦¯
à¦ĸ à¦°à¦¸
à¦ĸ à¦ķà¦ĩ
à¦Ĺ à§Ł
à¦Ĺ à¦ķà¦°
à¦Ĺ à¦°à¦¨
à¦Ĺ à¦¦à¦°
à¦Ĺ à¦¬à¦¦
à¦Ĺ à¦®à¦¸
à¦Ĺ à¦°à¦¤à¦²
à¦· à¦ļà¦¨
à¦· à¦¸à¦®
à¦· à¦°à¦¸à¦®
à¦§ à¦¨à¦¤
à¦§ à¦°à¦²
à¦§ à¦¶à¦°
à¦§ à¦¨à¦¤à¦¤
à¦¡ à¦¬à¦²
à¦¡ à¦²à¦Ł
à¦¡ à¦Ńà¦¨
à¦¡ à¦¬à¦ľà¦¨à¦¨
Ġà¦¯ à¦®à¦¸
à¦ļ à¦ªà¦°
à¦ļ à¦°à¦¦
à¦ļ à¦Łà¦ķ
à¦ļ à¦ªà¦¦
à¦ļ à¦¢
à¦ļ à¦Ĺà¦¡
Ġà¦ķà¦° à¦®à¦ļ
à§Ł à¦°à¦¤
à§Ł à¦®à¦Ĺ
à§Ł à¦¶à¦ĩ
Ġà¦Ĺ à¦Ľ
Ġà¦Ĺ à§Ł
Ġà¦Ĺ à¦¬à¦°
Ġà¦Ĺ à¦Ĺà¦²
Ġà¦Ĺ à¦¤à¦®
à¦£ à¦ªà¦¥
à¦£ à¦ļà¦ķ
à¦£ à¦¸à¦Ļ
à¦£ à¦¯à¦ľ
à¦¥ à¦¬à¦¨
à¦¥ à¦Ĺà¦¤
à¦¥ à¦¸à¦¨
Ġà¦¶ à¦ľ
Ġà¦¶ à¦£
Ġà¦¶ à¦°à¦¨
Ġà¦¶ à¦ĸà¦Ł
Ġà¦ľ à¦ĸ
Ġà¦ľ à¦°à¦¦
Ġà¦ľ à§°
Ġà¦ļ à¦°à¦¸
Ġà¦ļ à¦°à¦ª
Ġà¦ļ à¦°à¦Ľ
Ġà¦ļ à¦ªà¦Ł
Ġà¦ļ à§°
Ġà¦ļ à¦®à¦ļ
Ġà¦Ń à¦ĩà¦²
Ġà¦Ń à¦Łà¦Ń
Ġà¦° à§ľ
Ġà¦° à¦¦à¦¨
Ġà¦° à¦ĩà¦Ľ
Ġà¦° à¦¶à¦®
Ġà¦° à¦ĩà¦®
Ġà¦° à¦ĩà¦ļ
à§ĩà¥¤ -
à¦ĵ à¦ľà¦¨
à¦Ń à¦Ľ
à¦Ń à¦°à¦¦
à§ĥ à¦ĥ
Ġà¦Ľ à¦°
Ġà¦Ľ à¦¸
Ġà¦Ľ à¦ĩ
Ġà¦Ĩà¦® à¦¹
Ġà¦Ĩà¦® à¦Ŀ
Ġà¦Ĩà¦® à¦¸à¦¤
à¦ł à¦¤à¦²
à¦ł à¦ļà¦°
Ġà¦ī à¦¶à¦ĸ
à¦Ĥ !
à¦Ĥ ?
à¦¾à¦ģ âĢĵ
Ġà¦² à¦ĸà¦¨
Ġà¦² à¦ĩà¦¨
Ġà¦² à¦Ĺà¦¨
Ġà¦ĵ à¦Ľ
Ġà¦ĵ à¦ľà¦°
Ġà¦« à¦°à¦«à¦°
Ġà¦Ĩà¦° à¦Ń
Ġà¦Ĩà¦° à¦«
Ġà¦ĸ à¦¸à¦²
Ġà¦ĸ à¦ĩà¦¯
Ġà¦ĸ à¦ĩà§Ł
Ġà¦ħà¦¨ à¦Ļ
Ġà¦ħà¦¨ à¦¬à¦§
Ġà¦§ à¦ĩà¦°
Ġà¦§ à¦²à¦¡
Ġà¦ªà¦° à¦¹
Ġà¦ªà¦° à¦£
Ġà¦ªà¦° à¦Ń
Ġà¦ªà¦° à¦Ĺà¦¨
Ġà¦ªà¦° à¦®à¦¤à¦¤
âĢĶ à¥¤
à¦¬à¦¨ à¦®à¦¨
à¦¬à¦¨ à¦°à¦ķ
à¦¬à¦¨ à¦®à¦¯
à¦¬à¦¨ à¦®à§Ł
à¦¼à¦¿ âĢĿ
à¦¼à¦¿ à¥¤âĢĻ
à§ľ à¦ĩ
à§ľ à¦¤à¦²
à¦ªà¦° à¦¯
à¦°à¦£ à¦¦
à¦°à¦£ à¦ª
Ġà¦ıà¦ĩ à¦¯
à¦¿à¥¤ (
à¦®à¦¨ à¦§
à¦ľà¦¨ à¦§
à¦ľà¦¨ à¦ªà¦¦
à¦ŀ à¦¨
à¦¤à¦° à¦°
à¦¤à¦° à¦ļ
à¦« à¦Łà¦¨
à¦ī à¦¸à¦ķ
à¦ī à¦¸à¦«
à¦ī à¦¥à¦ª
à¦¿, âĢĵ
Ġà¦Ĩà¦² à¦®à¦Ĺ
à¦°à¦¬ à¦Ł
à¦°à¦¬ à¦¶
à¦°à¦¬ à¦ľà¦¨à¦ķ
à¦Ĩ à¦ĵ
à¦Ĩ à¦ĵà¦¯
à¦Ĩ à¦ªà¦Ł
à¦Ĩ à¦ªà¦¸
à¦Ĩ à¦§à¦¬
à¦Ĩ à¦¦à¦®
à¦Ĩ à¦¦à¦¬
à§İ à¦¨
à¦ı à¦¶
à¦ı à§Ł
à¦ı à¦®à¦¤
à¦ı à¦¨à¦ķ
à¦ı à¦¸à¦ª
à¦°à¦ķ à¦¤
à¦¬à¦° à¦ľ
à¦¬à¦° à¦Ńà¦Ļ
Ġà¦¬à¦²à¦² à¦Ĺ
Ġà¦¬à¦²à¦² à¦Ĩà¦Ĺ
Ġà¦Ł à¦«
âĢĻ âĢĻ
à¦¼à¥¤ '
à¦¼à¥¤ âĢ¦
Ġà¦¹à¦² à¦ĵ
Ġà¦¡ à¦²à¦¤
ĠâĢľ âĢĺ
à§Ī âĢĵ
Ġà¦ĩ à¦ķà¦²
Ġà¦ĩ à¦¹à¦¸
Ġà¦ĩ à¦ķà¦¬
Ġà¦ĩ à¦¸à¦ķ
Ġà¦ĩ à¦Łà¦¬
Ġà¦ĩ à¦¡à¦²
à¦ĺ à¦ĩ
à¦ĺ à¦¬à¦¤
à¦ĺ à¦°à¦¦
à¦ĺ à¦¢
Ġà¦ľà¦¨ à¦ªà¦¥
Ġà¦§à¦° à¦ª
Ġà¦Ŀ à¦°à¦ķ
à¦¬à¦² à¦¶
à¦¬à¦² à¦ļ
à¦¬à¦ª à¦²
à¦·à¦£ à¦ªà¦¦
à¦·à¦£ à¦¤à¦¤
à¦·à¦£ à¦¸à¦¹
à¦¨à¦¤ à¦ĩ
à¦¨à¦¤ à¦¶
Ġà¦ıà¦¸ à¦¡
âĢĵ à¥¤
Ġà¦¬à¦¸ à¦°
Ġà¦Ĩà¦ľ à¦°
à¦¤à¦¨ à¦ª
à¦¤à¦¨ à¦¹
à¦ħ à¦¹à¦®
à¦ħ à¦¬à¦ľ
à¦ħ à¦ªà¦¬
à¦ħ à¦¨à¦Łà¦¨
à¦ķà¦² à¦Ł
à¦ķà¦² à¦¬à¦¦
Ġà¦Ĩà¦¬ à¦ķ
Ġà¦Ĩà¦Ĺ à¦°
Ġà¦Ĩà¦Ĺ à¦°à¦¤à¦²
Ġà¦Ĩà¦Ĺ à¦°à¦ĵà¦¯
à¦ķà¦° à¦°
à¦ķà¦° à¦ª
à¦ķà¦° à¦Ĺ
à¦ķà¦° à¦¹
à¦¸à¦¬ à¦ķà¦Ł
à¦¸à¦¬ à¦¶à¦¤
à¦°à¦¨ à¦®
Ġà¦ħà¦¸ à¦«à¦²
à¦°à¦¸ à¦¦
à¦¨à¦¬ à¦¦à¦°à¦¦
à¦¦à¦¨ à¦Ł
à¦¦à¦¨ à¦ªà¦¦
à¦ķà¦¤ à¦ķà¦Ł
à§ĩ? âĢĶ
à§ĩ? !âĢĿ
Ġà¦ıà¦² à¦Ĺà¦°
Ġà¦ħà¦¦ à¦²
Ġà¦īà¦¦ à¦Ĺà¦¤
à¦Ĺà¦² à¦§
à¦Ĺà¦² à¦ļ
à¦Ĺà¦² à¦Ń
à¦Ĺà¦² à¦ļà¦ķ
à¦Ĺà¦² à¦ļà¦£
Ġà¦ľà¦² à¦Ĺ
Ġà¦ľà¦² à¦ªà¦°
à¦Ĺà¦¤ à¦ĵ
à¦®à¦¤ à¦ĩ
à¦¯à¦ķ à¦¨
Ġà¦¸à¦¨ à¦ķ
à¦§à¦ķ à¦ĩ
à¦§à¦ķ à¦£
Ġà¦ĺà¦° à¦Ń
à¦¹à¦¸ à¦Ļ
à¦ļà¦¨ à¦Ł
à¦ļà¦¨ à¦¶
à¦²à¦¨ à¦Ń
à¦²à¦¨ à¦®à¦¯
Ġà¦īà¦ª à¦²
Ġà¦īà¦ª à¦Ľ
Ġà¦īà¦ª à¦¸à¦®
à¦°à¦¯ à¦ľ
à¦¬à¦¤ à¦¸
à¦¨à¦ĵ à¦ĩ
à¦®à¦² à¦®
à¦¯à¦¤ à¦ĵ
à¦ĸà¦² à¦®
à¦§à¦¨ à¦¸
à¦§à¦¨ à¦Ń
à¦§à¦¨ à¦ªà¦¦
Ġà¦ħà¦ª à¦Ń
Ġà¦ıà¦®à¦¨ à¦¸à¦®à¦¯
à¦¼à§ĭ à¦ĥ
à¦ļà¦² à¦ĵ
Ġà¦¸à¦¹ à¦¶
Ġà¦¸à¦¹ à¦ľà¦¨
à¦ªà¦¤ à¦®
à¦¹à¦° à¦ª
à¦¹à¦° à¦°à¦®
à¦¸à¦¨ à¦Ł
Ġà¦ľà¦® à¦ľ
Ġà¦ľà¦® à¦¦à¦Ĺ
Ġà¦¹à¦ł à¦¯
à¦°à¦ªà¦° à¦ıà¦ķà¦Ł
à¦¸à¦® à¦ŀ
à¦Ńà¦¬ à¦¸
à§Ģ, -
à¦Łà¦ķ à¦¯
Ġà¦ªà§ľ à¦¶
à¦¹à¦² à¦®à¦¯
Ġà¦ĺà¦Ł à¦®
Ġà¦ĵà¦ªà¦° à¦Ł
Ġà¦ķà¦¤ à¦Ń
âĢ¦ ,
âĢ¦ ?
âĢ¦ ?âĢĿ
Ġà¦ķà¦® à¦«
à¦Ĺà¦° à¦°
Ġà¦°à¦Ļ à¦Ĺ
à¦¸à¦° à¦°
à¦¸à¦° à¦ŀ
à¦°à¦Ń à¦ķ
à¦°à¦Ń à¦®à¦¯
à¦ªà¦¦ à¦²
à¦ªà¦¦ à¦Ĩà¦ªà¦¦
à¦¦à§Ł à¦®
à¦¦à§Ł à¦ĸ
à¦¶à¦¬ à¦ĩ
Ġà¦¨à§Ł à¦ķ
à¦ıà¦ķ à¦ķà¦¥
à¦ıà¦ķ à¦ľà¦¨à¦ķ
à¦ıà¦ķ à¦§à¦°à¦¨
à¦¨à¦ķ à¦¯
à¦¨à¦ķ à¦¡
Ġà¦ħà¦ķ à¦®
Ġà¦¶à¦¹à¦° à¦ª
Ġà¦Ĺà¦° à¦ľà¦¨
à¦¦à¦² à¦ĩ
à¦°à¦ª à¦¤à¦¨
à¦¬à¦¸ à¦®à¦ķ
Ġà¦ħà¦ªà¦° à¦Ł
à¦Łà¦² à¦ĵ
à§įâĢĮ --
Ġà¦«à¦² à¦¬à¦¤
à¦·à¦ķ à¦ĵ
à¦¯à¦® à¦Ł
à¦¯à¦® à¦ª
à¦¤à¦ķ à¦®
à¦¤à¦ķ à¦ª
à¦ħà¦¨ à¦¡
à¦¤à¦® à¦¦
à¦¤à¦® à¦§
à¦¾! !
à¦ľà¦² à¦ĸ
à¦ľà¦² à¦ļà¦ķ
à¦ľà¦² à¦°à¦Ļ
à¦¼à§ĩ, âĢĿ
à¦®à¦¬ à¦§
à¦ªà¦ķ à¦®
Ġà¦ħà¦¶ à¦¥
à¦¬à¦ķ à¦¸
à§ĩ; ---
à¦¶à¦ķ à¦®
Ġà¦Ĩà¦§ à¦ĺ
Ġà¦ħà¦² à¦ª
Ġà¦ħà¦² à¦ĸ
Ġà¦ıà¦ķà¦¬ à¦ļà¦¨
Ġà¦īà¦ªà¦° à¦ķ
Ġà¦īà¦ªà¦° à¦ĵ
à¦¹à¦¨ à¦Ĺ
à¦¯à¦¦ à¦¸
à¦ķà¦¨ à¦Ĺ
à§° à¦²
à§° à¦¥
à§° à¦Ĺà¦¤
à§° à¦®à¦£
Ġà¦¶à¦¤ à¦ĸ
Ġà¦¶à¦¤ à¦¸à¦¹à¦¸
Ġà¦īà¦² à¦Łà¦ª
Ġà¦¨à¦¬ à¦§
Ġà¦¨à¦¬ à¦īà¦¦
à¦·à¦° à¦°
à¦¨à¦¸ à¦¦
à¦¼à§Ģ !
à¦ªà¦¸ à¦ĩ
à¦ªà¦¸ à¦ľ
à¦Ĩà¦ľ à¦Ĺ
à¦«à¦² à¦ĵ
à¦¥à¦° à¦Ĺà¦¤
à¦ĩà¦Ł à¦¬
Ġà¦Ĩà¦¦ à¦°à¦®
Ġà¦Ĩà¦¦ à¦¬à¦ķ
Ġà¦¸à¦¹à¦ľ à¦ª
Ġà¦Ĩà¦¹ à¦¤à¦¦
à§İà¦¸ à¦ķà¦°
à¦²à¦Ľ à¦¬
Ġà¦ķà¦· à¦Ľ
à¦Ĺà¦¬ à¦§
à¦°à¦Ĺ à¦Ł
à¦ıà¦¬ à¦®
Ġà¦ıà¦¨ à¦ľà¦¯
Ġà¦°à¦ķà¦® à¦«
Ġà¦¤à¦¤ à¦¸
Ġà¦Ĺà¦£ à¦¶
Ġà¦Ĺà¦£ à¦¶à¦ķ
Ġà¦¨à¦°à¦® à¦Ń
Ġà¦¨à¦°à¦® à¦ªà¦¨
ĠâĢĶ âĢĺ
Ġà¦Ńà§Ł à¦Ł
Ġà¦Ńà§Ł à¦ĩ
Ġà¦¬à¦ī à¦ıà¦°
à¦®à¦°à¦£ à¦¶
à¦²à¦® à¦¶à¦²
âĢĺ âĢĺ
Ġà¦īà§İà¦¸à¦¬ à¦®à¦£
Ġà¦°à¦¸ à¦§
Ġà¦°à¦¸ à¦¹
Ġà¦ªà¦¶ à¦°
à¦¼- --
à¦¼âĢĶ âĢĺ
Ġà¦Ĩà¦ª à§İà¦ķ
à¤ ¥
à¤ Ľ
à§« à§«
à§« à§ª
à§« à§®
à¦łà¦ķ à¦¯
à¦łà¦ķ à¦ĵ
à¦ľà¦® à¦¶
à¦ľà¦® à¦ľà¦®
Ġà¦ľà§Ł à¦®
à¦ķà¦ľà¦¨ à¦ĩ
à¦ķà¦ľà¦¨ à¦ĵ
à¦ĩà¦Ń à¦¸
à§ĩà¥¤âĢĻ âĢĿ
à¦®à¦¦ à¦ª
à¦®à¦¦ à¦Ĺ
à¦¾à¥¤âĢĻ âĢĻ
Ġà§§à§¯ à§§à§§
à¦£à¦¬ à¦Ļ
à§Ń à§§
à§Ń à§¨
à¦²à¦Ń à¦Ļ
à¦¯à§İ à¦ĩ
à¦ķà¦Ĺ à¦®à¦¨
Ġà¦¸à¦¦ à¦Ĺà¦¤
à¦ľà¦Ľ à¦¤
he l
he t
à¦¶à¦° à¦Ļ
Ġà¦Ĩà¦ĩà¦¨ à¦¸à¦Ļ
in ct
Ġà¦· à¦ĸà¦¨
à¦Ĩà¦Ĺ à¦¸
à¦ľà§Ł à¦¬
Ġà¦¨à¦Ĺà¦° à¦Ĺ
an c
à¦Ĺà¦¡ à¦Ĺ
Ġà¦¸à§İ à¦ªà¦¥
Ġà¦¸à§İ à¦¸à¦Ļ
Ġà¦ªà¦²à¦ķ à¦¬
on st
à¦ķà§ľ à¦ķ
Ġà¦¶à¦ªà¦¥ à¦Ĺ
Ġà¦¶à¦ªà¦¥ à¦ªà¦¤
Ġà¦¶à¦ªà¦¥ à¦¬à¦¦
à¦®à¦ļ à¦°à¦£
Ġà¦ķà¦ļ à¦¸
re am
re ad
Ġà¦ıà¦°à¦ķà¦® à¦Ń
Ġà¦®à¦¨à¦¨ à¦¶à¦ķ
à¦¸à¦¦ à¦¦
al e
à¦īà¦¡ à¦Ĺ
à¦«à¦Ł à¦¹
à¦«à¦Ł à¦ı
à§¯ à§ª
Ġà¦ļà¦°à¦® à¦ªà¦¤
Ġà¦ļà¦® à¦ķà¦Ł
à¦¾âĢĿ !
en e
en se
is ed
is hes
à¦Ĳ à¦¨
Ġà¦ļà¦°à¦£ à¦ķ
Ġà¦ļà¦°à¦£ à¦¦
it c
it s
à¦£à¦¦ à¦£
Ġà¦Ĺà¦łà¦¨ à¦Ĺà¦¤
Ġo wn
à§ĩâĢĻ !
Ġà¦°à¦¤à¦¨ à¦²
Ġà¦Ķ à¦ļ
à¦ħà¦® à¦Ļ
Ġs he
Ġs us
Ġs am
Ġs cience
à¥¥ (
Ġà¦Ĩà¦ĸ à§ľ
Ġà¦¬à¦¦ à¦Ń
à¦ĩà¦« à¦ķ
Ġà¦°à¦¥ à¦ļà¦ķ
Ġa uthor
Ġc a
Ġc ent
Ġc ur
Ġà¦Ńà¦°à¦¤ à¦®
Ġà¦Ńà¦°à¦¤ à¦¸
Ġà¦¨à¦° à¦ļà¦¨
ar r
Ġà¦ıà¦® à¦Ĩà¦°
Ġm et
Ġm ust
Ġà¦Ŀà§ľ à¦Ŀà¦ŀ
à¦ĭ à¦Ĺ
à¦·à¦ª à¦ŀ
Ġà¦ĩà¦¹ à¦ľ
à¦ħà¦ª à¦¹à¦°à¦£
Ġb el
Ġp l
Ġp rom
Ġp la
Ġp ositive
Ġà¦¹à¦ĵ à¦¨
à¦īà¦ł à¦²
Ġà¦Ńà¦¬à¦¨ à¦Ĺ
à¦ĺà¦Łà¦¨ à¦ªà¦Ł
ion al
Ġf l
Ġf ol
Ġf act
ed ic
Ġd r
Ġd ra
Ġd em
Ġd est
Ġd ark
Ġd ivide
Ġd ream
Ġà¦®à§İà¦¸ à¦ľ
Ġà¦ķà¦¦à¦® à¦ª
Ġà¦¬à¦ĩà¦Ł à¦ĩ
à¦²à¦ĵ à¦Ń
à¦īà¦¬ à¦ĵà§Ł
Ġà§¨à§¦ à§§à§Ń
Ġà¤ ¨
Ġà¤ ¶
à¦Ĩà¦ĩ à¦ĵà¦Ł
à§ĭâĢ¦ à¥¤
Ġin s
Ġn ame
Ġà¦ĸà¦¨ à¦ĸà¦¨
à¦Ī à¦Ĺà¦°
Ġl o
Ġl ul
Ġl ight
ĠI N
ĠI nt
ĠI rish
Ġà¦¸à¦°à¦²à¦¤ à¦®
Ġà§« à§©
Ġth y
à¦ıà¦ķà¦ĩ à¦¸à¦Ļ
ol o
à¦īà¦ª à¦²à¦ķ
el f
el y
el lect
Ġà§§à§© à§¨
Ġà§ª à§©
Ġà§ª à§ª
ĠA n
ĠA s
Ġà¦¨à¦°à¦ķ à¦ķ
ĠP a
ĠB ip
à¦Ĭ à¦¨
Ġe ver
Ġe mp
Ġe mer
Ġà§Ń à§§
Ġà§Ń à§¨
à¦¼?âĢĿ âĢĶ
à¦·à¦ľà¦¨ à¦ĵ
ĠR ec
os a
Ġà¦Ĩà¦ķà¦¬à¦° à¦Ń
Ġg od
ĠD ur
Ġà¦Ĩà¦ªà¦¸ à¦¹
Ġà¦ªà¦¬à¦¨ à¦¦
od u
Ġà¦ĸà§ľ à¦ĸà§ľ
Ġwh ose
Ġà§¯ à§«
Ġà§¯ à§®
Ġà¦®à¦¤à¦²à¦¬ à¦Ł
ĠN az
Ġà§§à§¨ à§«
Ġà¦¶à¦ĵà¦ķà¦¤ à¦ĵ
à¦¾' à¥¤
ir st
ci ent
ad e
Ġà¦¯à¦¬à¦¨ à¦°
ect ed
ĠÑ Ī
Ġà¦®à¦«à¦¸ à¦¸à¦²
Ġà§§à§¯à§® à§©
ist ic
Ġà¦¨à¦¬à¦¬ à¦¸à¦¨
Ġy et
iv en
ĠE ur
à§§à§ª à§«
Ġst re
end s
ĠÐ ·
ac y
ac es
à§ĩ' à¥¤
à¦¤à¦¸à¦® à¦°
Ġà¦¬à¦Ľ à¦°à¦ķ
Ġne g
Ġha pp
og n
Ġ1 0
à¦ķà¦ľà¦®à¦ķ à¦ª
Ġun der
Ġà§§à§¯à§¨ à§§
Ġà§§à§¯à§¨ à§Ń
Ġà¦¤à§İ à¦¸à¦®
Ġà¦ĵà¦ĩà¦°à¦ķà¦® à¦ĩ
Ġà¦ħà¦ĺà¦Łà¦¨ à¦ĺà¦Łà¦¨à¦ªà¦Ł
Ġà¦Ŀà¦² à¦Ŀà¦²
Ġwith out
ĠThe re
ie w
ib ility
Ġsp irit
à¦īà¦Ńà§Ł à¦ĩ
à¤¹ à¤°
âĢĶâĢĶ âĢĶâĢĶ
ud e
Ġle arning
Ġà¦ıà¦¤à¦¬ à¦Ľà¦°
Ø§Ø ª
à¦ħà¦¬à¦¨ à¦¤
af i
af Ã©
Ġal ways
arn a
à¦Ķ à¦¦
Ġcont inu
Ġknow led
Ġapp ro
Ġwor k
uc ation
à§įà§į à§įà§į
rad ition
Ġev en
____ ____
à§» à§ĩ
sh ip
æŃĵæŃĵæŃĵæŃĵæŃĵæŃĵæŃĵæŃĵæŃĵæŃĵæŃĵæŃĵæŃĵæŃĵæŃĵæŃĵ æŃĵæŃĵæŃĵæŃĵæŃĵæŃĵæŃĵæŃĵæŃĵæŃĵæŃĵæŃĵæŃĵæŃĵæŃĵæŃĵ
à« į
Ġup on
Ġag ain
ĠBeng al
ĠBeng ali
aliz ed
Ġess ay
Ġfun ction
Ġà¦ľà¦ªà¦¤ à¦ª
Ġval ue
âĤ Ĥ
ìĿ ĺ
à§į: âĢĶ
Ġà¦ªà¦¦à¦¨ à¦ĸ
ork s
Ġinst inct
áĥĶ áĥ
ĠRah im
Ġsil ent
ĠParg iter
Ġvill age
Ġspe ak
lab y
âĪ Ĵ
Ġhist ory
Ġpatriot ism
LM S
Ġ55 5
Ġà¦ļà¦®à¦ļ à¦®
Ġà¦Ńà¦Łà¦Ń à¦Ł
Ġsam osa
Ġlul laby
ĠBip ul
Ġknowled ge
! *
! )à¥¤
' !
) .
- à¦¾
. ,
. -
4 8
5 1
5 6
7 0
A r
B B
B H
B oss
C E
C T
H ein
I S
I nt
J oy
M an
M ontu
O T
R I
R O
R e
S TEM
T r
W orks
a ce
c ons
d ay
d am
e ver
f rag
g an
g et
h ical
h rist
i er
i el
i ent
i am
j ective
k ind
l s
l ic
l am
n er
n ed
n ce
o on
o at
o le
o ot
p ed
p id
p ress
p erson
p resent
r b
r on
r ul
r ich
s es
t ed
t ers
u ce
y mp
y cle
z e
¡ Õ
» ¿
Ð ·
Ñ Ī
Ñ ĸ
Õ ¥
Õ ¸
Ø Ń
Ú ¯
à ±
à ²
à ¶
à ·
æ ĭ
ï »¿
Ġ 0
Ġ Z
Ġ ent
Ġ end
Ġ ident
Ġà¦ Ļ
à¦¾ _
à§ĩ à¦¿
à§ĩ à§ģ
à§ĩ à§ĭ
à¦° à¦Łà¦²
à¦° à¦ļà¦¯
à¦° à¦Ŀà¦¡
à¦° à¦ĺà¦£
à¦° à¦ĺà¦¡
à§į âĢĿ
à§į âĢĻ-
à¦¿ âĢĲ
à¦¿ âĭ¯
à¦¿ Â¤
à¦¨ à¦ĸà¦¨
à¦¨ à¦°à¦¸
à¦¨ à¦¦à¦°
à¦¨ à¦®à¦°
à¦¨ à¦ıà¦ķ
à¦¨ à¦¢
à¦¨ à¦ıà¦ķà¦Ł
à¦¨ à¦ĩà¦¬
à¦¨ à¦Ĩà¦®à¦°
à¦¨ à¦®à¦¹
à¦¨ à¦ľà¦®
à¦¨ à¦ľà§Ł
à¦¨ à¦ĺà¦£
à¦¤ à¦¸à¦¬
à¦¤ à¦²à¦¬
à¦¤ à¦¶à¦ķ
à¦¤ à¦·à¦Ł
à¦¤ à¦¯à¦ľ
à¦¤ à¦°à¦¤à¦°
à¦² à¦·
à¦² à¦ĩà¦¯
à¦² à¦®à§Ł
à¦² à¦ªà¦²
à¦ķ à¦ĺ
à¦ķ à¦®à¦°
à¦ķ à¦¨à¦¦
à¦ķ à¦¸à¦Ł
à¦ķ à¦®à¦ª
à¦¯ à¦«
à¦¯ à¦ļà¦¨
à¦¯ à¦Ńà¦¬
à¦¯ à¦¶à¦¬
à¦¯ à¦¸à¦¤
à¦¯ à¦ľà¦²
à§ģ /
à§ģ à§ĩ
à§ģ ...
à¦¬ à¦·
à¦¬ à¦ł
à¦¬ à¦«
à¦¬ à¦®à¦°
à¦¬ à¦ĩà¦¤
à¦¬ à¦®à¦ª
à¦¬ à¦īà¦Ł
à¦¬ à¦īà¦°
à¦¼ âĢĻ-
à¦® à¦°à¦²
à¦® à¦¹à¦¨
à¦® à¦Ńà¦°
à¦® à¦·à¦ª
à§ĭ à¦¿
à§ĭ )à¥¤
Ġà¦ķ à¦ĩà¦¨
Ġà¦ķ à¦ĩà¦¯
Ġà¦ķ à¦ĩà¦®
Ġà¦ķ à¦¸à¦®à¦¸
Ġà¦¬ à¦°à¦¸
Ġà¦¬ à¦¹à¦²
Ġà¦¬ à¦¢
Ġà¦¬ à¦īà¦¨
Ġà¦¬ à¦¦à¦¹
Ġà¦¬ à¦°à¦ķà¦¨
Ġà¦¬ à§İà¦¸à¦²
Ġà¦¬ ab
Ġà¦¸ à§ľ
Ġà¦¸ à¦ĩà¦²
Ġà¦¸ à§İà¦¸
à¥¤ *
à¦¸ à¦ªà¦°
à¦¸ à¦ı
à¦¸ à¦¦à¦¯
à¦¸ à¦¯à¦¤
à¦¸ à¦ļà¦ķ
à¦¸ à¦¦à¦¸
Ġà¦ª à¦ĩ
Ġà¦ª à¦ĸ
Ġà¦ª à¦ł
Ġà¦ª à¦ļà¦¤
Ġà¦Ĩ à¦ķà¦²
Ġà¦Ĩ à¦ĩà¦Ľ
à¦¦ à¦¶à¦¬
à¦¦ à¦ĩà¦¯
à¦¦ à¦Ńà¦Ļ
à¦¦ à¦¨à¦¤à¦¤
à¦¦ à¦°à¦¨à¦Ĺà¦°
à¦¦ à¦²à¦¬à¦¦
à¦Ł à¦¸à¦¨
à¦Ł à¦ªà¦¦
à¦Ł à¦¨à¦Ł
Ġà¦¨ à¦¬à¦²
Ġà¦¨ à¦ĵà§Ł
Ġà¦¨ à¦§à¦°
Ġà¦¨ à¦°à¦¬à¦²
Ġà¦¨ à¦¬à¦²à¦¬
Ġà¦¨ à¦°à¦¬à¦ª
Ġà¦¨ esc
Ġà¦® à¦ª
Ġà¦® à¦ī
Ġà¦® à¦ķà¦°
Ġà¦® à¦ĩà¦°
Ġà¦® à¦Ľà¦²
Ġà¦® à¦¸à¦¨à¦¦
à¦ª à¦¦à¦¯
à¦ª à§İà¦¸
à¦ª à¦¹à¦¤
à¦ª à¦Ĩà¦²
à¦ª à¦²à¦¸
à¦ª à¦Ŀà¦°
à¦ª à¦Ńà¦¯
à¦ª ank
à¦ĩ à¦¸à¦¨
à¦ĩ à¦¥à¦¨
à¦ĩ à¦®à¦Ł
à¦ĩ à¦®à¦ª
à¦ĩ à¦ľà¦Ł
à§Ģ à§į
à§Ģ )à¥¤
à¦Ľ à¦ĸ
à¦Ľ à¦ķà¦ĩ
Ġà¦¦ à¦Ļ
à¦ľ à¦¹à¦¸
à¦ľ à¦ķà¦¶
à¦ľ à¦łà¦°
à¦ľ à¦²à¦ķà¦£
Ġà¦¹ à¦¸à¦¨
Ġà¦¹ à¦Łà¦ķ
Ġà¦¤ à¦ĸà¦¤
Ġà¦¤ à¦ĵà¦¬
Ġà¦ı à¦²à¦ķ
Ġà¦ı à¦ľà¦²
à¦¶ à¦·
à¦¶ à¦ł
à¦¶ à¦ŀ
à¦¶ à¦ļà¦°
à¦¶ à¦²à¦Ł
à¦¶ à¦¸à¦¹
Ġà¦ħ à¦°à¦®
à¦ĸ à¦ĺ
à¦ĸ à¦²à¦ķ
à¦ĸ à¦°à¦Ĺ
à¦Ĺ à¦ªà¦¨
à¦Ĺ à¦ĺ
à¦Ĺ à¦ķà¦²
à¦Ĺ à¦¦à¦²
à¦Ĺ à¦ļà¦°
à¦Ĺ à¦£à¦¤
à¦Ĺ à¦¶à¦ķ
à¦Ĺ à¦¸à¦Ļ
à¦Ĺ à¦ķà¦¨
à¦Ĺ à§°
à¦Ĺ à¦¦à¦¤
à¦Ĺ à¦ĸà¦£
à¦· à¦®à¦¨
à¦· à¦°à¦¬
à¦· à¦°à¦ĵ
à¦· à¦®à¦£
à¦§ à¦°à¦ķ
à¦§ à¦Ĺà¦£
à¦§ à¦Ńà¦ķ
âĢ ŀ
à¦¡ à¦¯
à¦¡ à¦§
à¦¡ à¦°à¦Ł
à¦¡ à¦¬à¦¬
à¦¡ à¦ķà¦¨à¦¸
Ġà¦¯ à¦ĸ
Ġà¦¯ à¦£
Ġà¦¯ à¦®à¦°
à¦ļ à¦ľ
à¦ļ à¦¹
à¦ļ à§İ
à¦ļ à¦°à¦ķà¦®
à¦ļ à¦ĺà¦°
à¦¹ à¦¬à¦°
à¦¹ à¦°à¦¸
à¦¹ à¦ķà¦¤
à¦¹ à¦ªà¦¥
à¦¹ à¦¬à¦¦
à¦¹ à¦ĩà¦¬
à¦¹ à¦®à¦¸
à¦¹ à¦ķà¦ķ
à¦¹ à¦®à¦§
à¦¹ à¦¬à¦¶à¦¤
à§Ł à¦²à¦¬
à§Ł à¦¨à¦ķ
Ġà¦Ĺ à¦¥
Ġà¦Ĺ à¦ĺ
Ġà¦Ĺ à¦ľà¦¸
Ġà¦Ĺ à¦ľà¦®
à¦£ à¦ªà¦°
à¦£ à¦ľà¦¨
à¦£ à¦°à¦¥
à¦£ à¦°à¦¶
à¦£ à¦§à¦¨
à¦£ à¦Ĺà¦¨
à¦£ à¦¬à¦¯
à¦£ à¦ľà¦¯
à¦£ à¦Ńà¦¯
à¦£ à¦²à¦Ļ
à¦ģ âĢ¦
à¦¥ à¦ľà¦¨
à¦¥ à¦°à¦Ń
à¦¥ à¦Ĺà¦ŀ
Ġà¦ľ à¦¦
Ġà¦ľ à¦ĵà¦¯
Ġà¦ľ à¦°à¦¥
Ġà¦ļ à¦°à¦²
Ġà¦Ń à¦®
Ġà¦Ń à¦°à¦ķ
Ġà¦Ń à¦²à¦ķ
Ġà¦Ń à¦ľà¦¤
Ġà¦° à§Łà¦¨
Ġà¦° à¦ľà¦¸
Ġà¦° à¦£à¦¨
Ġà¦° à¦£à¦¬
Ġà¦° à¦¸à¦¤à¦¤
à§ĩà¥¤ âĢĶ
à§ĩà¥¤ à¥¤âĢĻ
à¦ĵ à¦§
à¦Ń à¦²à¦ķ
à¦Ń à¦²à¦Ĺ
Ġà¦ıà¦ķ à¦ł
Ġà¦ıà¦ķ à¦¬à¦¸
Ġà¦ıà¦ķ à¦²à¦Ĺ
Ġà¦ıà¦ķ à¦¸à¦ª
à¦¼à¦¾ à¦ĥà¥¤
à§ĥ .
à§ĥ à¦¾
Ġà¦Ľ à¦°à¦°
à¦ł à¦²
à¦ł à¦Ľ
à¦ł à¦¬à¦¨
à¦ł à¦®à¦¤
à¦ł à¦¨à¦ķ
à¦ł à¦¬à¦¦
à¦ł à¦Ĺà§ľ
Ġà¦ī à¦²à¦ķ
Ġà¦ī à¦¨à¦¬
Ġà¦ī à¦ĩà¦ļ
à§Ĥ âĢĵ
à¦¾à¦ģ âĢĶ
à¦Ļ à¦°à¦¹
Ġà¦² à¦Ľ
Ġà¦² à¦¬à¦¸
Ġà¦² à¦¸à¦¸
Ġà¦² à¦ķà¦¬à¦ķ
Ġà¦¥ à¦ªà¦¥à¦ª
Ġà¦¬à¦² à¦ķ
Ġà¦¬à¦² à¦Ĺ
Ġà¦¬à¦² à¦¬à¦¤
Ġà¦« à¦¨à¦ķ
Ġà¦Ĩà¦° à¦¸
Ġà¦Ĩà¦° à¦ĺ
Ġà¦Ĩà¦° à¦¬à¦Ń
Ġà¦ĸ à¦¬
à¦°à¦¤ à¦§
à¦°à¦¤ à¦ªà¦°
Ġà¦ħà¦¨ à¦¬à¦ļ
à¦¾à¥¤ -
à¦¾à¥¤ à¥¤âĢĺ
Ġà¦¹à¦¯ à¦°à¦¤
âĢĶ -
âĢĶ âĢĵ
Ġà¦¸à¦® à¦§
Ġà¦¸à¦® à¦¦à¦°
à¦¬à¦¨ à¦«
à¦¬à¦¨ à¦°à¦Ļ
à¦ĸà¦¨ à¦¶
Ġà¦ĺ à¦°à¦¸
Ġà¦ĺ à¦°à¦ķà¦¨
Ġà¦®à¦¨ à¦ªà¦Ł
Ġà¦®à¦¨ à¦¨à¦¯
Ġà¦®à¦¨ à¦Ĺà§ľ
à¦ªà¦° à¦ª
Ġà¦ıà¦ĩ à¦®à¦¤
Ġà¦ıà¦ĩ à¦¸à¦¬à¦ĩ
à¦¿à¥¤ )
à¦¿à¥¤ âĢĵ
à¦Ŀ à¦¸
à¦Ŀ à¦°à¦Ľ
à¦Ŀ à¦Ĺà§ľ
à¦ľà¦¨ à¦°à¦¤
à¦ľà¦¨ à¦°à¦¸
à¦ľà¦¨ à¦Ĺà¦°
à¦ŀ à¦Ł
à¦ŀ à¦ªà¦°
à¦¤à¦° à¦ĸà¦£
à¦¤à¦° à¦ªà¦¶
à¦« à¦ľ
à¦« à¦Ĺ
à¦« à¦ļ
à¦« à¦Łà¦ķ
à¦ī à¦ı
à¦ī à¦°à¦ķ
à¦ī à¦²à¦¤
à¦ªà¦¨ à¦°
à¦ªà¦¨ à¦ļ
à¦ªà¦¨ à¦Ń
à¦ªà¦¨ à¦Ĺà¦°
Ġà¦Ĩà¦² à¦®à¦¦
à¦°à¦¬ à¦¯
à¦°à¦¬ à¦®
à¦°à¦¬ à¦°à¦£
à¦°à¦¬ à¦¸à¦¨
à¦°à¦¬ à¦£à¦ķ
à¦Ĩ à¦£
à¦Ĩ à¦Ĩ
à¦Ĩ à¦°à¦¨
à¦Ĩ à¦¨à¦¬
à¦Ĩ à¦Ĺà¦¤
à¦Ĩ à¦²à¦¬
à¦Ĩ à¦Ĺà¦¨
à¦Ĩ à¦¨à¦ķ
à¦Ĩ à¦¸à¦ķ
à¦Ĩ à¦ªà¦²
à¦Ĩ à¦ĩà§Ł
à¦Ĩ à¦ĩà¦ľ
à§İ à¦®
à§İ à¦ĸ
à§İ à¦¸à¦Ļ
à¦ı à¦²à¦ķ
à¦ı à¦¤à¦Ĺ
à¦ı à¦¤à¦¬à¦¡
à¦ı à¦Ĩà¦ĩà¦¯
âĢĿ ?
âĢĿ à§ĩ
à¦°à¦ķ à¦ª
Ġà¦¸à¦¬ à¦ĵ
à¦¬à¦° à¦§
à¦¬à¦° à¦Ŀ
Ġà¦¬à¦²à¦² à¦Ĩà¦¸
Ġà¦¬à¦²à¦² à¦ıà¦ĸà¦¨à¦ĵ
Ġà¦Ł à¦²à¦¸
Ġà¦Ĩà¦Ľ à¦¯
à¦¼à¥¤ "
Ġà¦¹à¦² à¦¨
Ġà¦¹à¦² à¦¸
Ġà¦īà¦ł à¦²à¦¤
Ġà¦¡ à¦Ĺà¦¡à¦Ĺ
à§Ī !
Ġà¦ĩ à¦°à¦¤
à¦ĺ à¦¤
à¦ĺ à¦Ŀ
à¦ĺ à¦°à¦ķ
à¦ĺ à¦ĺ
Ġà¦Ŀ à¦¨à¦ķ
à¦¬à¦² à¦Ŀà¦²
à¦¼, --
à¦¬à¦ª à¦Ł
Ġà¦ħà¦¬ à§Ł
à¦°à¦® à¦Ĺ
à¦°à¦® à¦Ń
à¦°à¦® à¦ŀ
à¦°à¦® à¦¹à¦²
à¦·à¦£ à¦¦
à¦·à¦£ à¦¸à¦®
à¦·à¦£ à¦°à¦ķà¦®
à¦¨à¦¤ à¦¬
à¦¤à¦¨ à¦¸
à¦¤à¦¨ à¦¤à¦°
à¦ħ à§Ł
à¦ħ à¦ªà¦¤
à¦ħ à¦¸à¦°
à¦ħ à¦¬à¦ļ
Ġà¦¬à¦¨ à¦Ŀ
Ġà¦¬à¦¨ à¦°à¦ķ
Ġà¦¬à¦¨ à¦«à¦²
Ġà¦¨à¦¤ à¦®à¦¸
à¦ķà¦² à¦¬à¦¨
Ġà¦ªà¦¥ à¦¬
Ġà¦ªà¦¥ à¦ĸ
Ġà¦ħà¦® à¦¯
Ġà¦ħà¦® à¦°à¦ķ
Ġà¦Ĺà¦² à¦Ĺ
à¦ķà¦Ł à¦Ł
à¦ķà¦Ł à¦ª
à¦¸à¦¬ à¦§
à¦¸à¦¬ à¦¸à¦®à§Ł
à¦°à¦¨ à¦Ł
à¦°à¦¨ à¦ĩ
à¦¯à¦¬ à§İ
à¦¯à¦¬ à¦¦à¦²
à¦¯à¦¬ à§°
à¦¤à¦¬ à¦Ń
à¦¤à¦¬ à¦¦à¦²
à¦¤à¦¬ à§İà¦¸
à¦°à¦¸ à¦ľ
à¦²à¦ķ à¦¤
à¦²à¦ķ à¦¡
à¦¨à¦¬ à¦§
à¦¨à¦¬ à¦¡
à¦¨à¦¬ à¦°à¦£
à¦¨à¦¬ à¦¬à¦°
à¦¦à¦¨ à¦¸
à¦¦à¦¨ à¦®à§Ł
à¦¦à¦¨ à¦¸à¦¹
à¦¦à¦¨ à¦¨à¦Ĺà¦°
à¦ķà¦¤ à¦ĸ
Ġà¦¹à¦¤ à¦ĩ
Ġà¦¹à¦¤ à¦¶
Ġà¦¬à¦° à¦Ĺ
à¦°à¦¥à¦® à¦Ń
Ġà¦ıà¦ĸà¦¨ à¦¤
à§ĩ? (
à§ĩ? à¥¤
Ġà¦ıà¦² à¦¬
Ġà¦Ĩà¦¨ à¦«
à¦Ĩà¦® à¦¦
Ġà¦īà¦¦ à¦¦
Ġà¦īà¦¦ à¦°à¦¸
à¦¦à¦° à¦Ĺ
à¦¦à¦° à¦ĵ
à¦¦à¦° à¦ŀ
Ġà¦ħà¦° à¦²
à¦Ĺà¦² à¦¤à¦¤
à¦Ĺà¦² à¦Ĺà¦ŀ
à¦Ĺà¦² à¦¶à¦Ļ
Ġà¦ľà¦² à¦¸à¦®
Ġà¦ľà¦² à¦¸à¦¤
Ġà¦ľà¦² à¦ªà¦Ł
à¦Ĺà¦¤ à¦¸
à¦®à¦¤ à¦²à¦¬
à¦§à¦ķ à¦ĵ
à¦°à¦¹ à¦¨à¦ķ
à¦°à¦¹ à¦¨à¦¯
Ġà¦ĺà¦° à¦ĺà¦°
Ġà¦īà¦łà¦² à¦°
à¦ļà¦¨ à¦ĵ
à¦²à¦¨ à¦ĸ
Ġà¦®à¦¹ à¦¨
Ġà¦īà¦ª à¦Ĺà¦¤
Ġà¦īà¦ª à¦¢
Ġà¦īà¦ª à¦²à¦¦
Ġà¦¸à¦° à¦ľ
Ġà¦¸à¦° à¦Ĺà¦®
à¦¬à¦¤ à¦ª
à¦¬à¦¤ à¦ļ
à¦¨à¦ĵ à¦¨
à¦¨à¦ĵ à¦ª
à¦¨à¦ĵ à¦ĸ
à¦ĩà¦² à¦ĩ
à¦ĩà¦² à¦ĵ
à¦ĩà¦² à¦ªà¦¤
à¦§à¦¨ à¦¦
à¦²à¦¬ à¦ĩ
à¦°à¦ľ à§Ł
à¦°à¦ľ à§Łà¦¨
Ġà¦ħà¦ª à¦ļ
Ġà¦ħà¦ª à¦Ĺà¦¤
Ġà¦ħà¦ª à¦¶à¦¬
Ġà¦ķà¦² à¦ĵ
Ġà¦ķà¦² à¦ĺà¦°
à¦¼à§ĭ âĢĻ
à¦¼à§ĭ âĢĵ
à¦¼à§ĭ à¦ĥà¥¤
Ġà¦Ĩà¦¤ à¦¶
à¦ĩà¦¨ à¦ª
à¦¨à¦¨ à¦¸
à¦ıà¦ĩ à¦¯
à¦ıà¦ĩ à¦®à¦¤
Ġà¦ħà¦ļ à¦ķ
Ġà¦ħà¦ļ à¦ªà¦²
à§ĩ- âĢĺ
à¦Łà¦ķ à¦®
à¦Łà¦ķ à¦ĩ
à¦Łà¦ķ à¦Ĺ
à¦Łà¦ķ à¦ļ
Ġà¦ħà¦ľ à¦²
à¦¹à¦² à¦®
Ġà¦īà¦¨ à¦ļà¦²
âĢ¦ âĢĿà¥¤
Ġà¦ķà¦® à¦ľ
Ġà¦ķà¦® à¦ĵ
à¦¤à¦² à¦§
à§ĩ! ''
Ġà¦°à¦Ļ à¦ĩ
Ġà¦īà§İ à¦¸à¦ķ
Ġà¦ªà¦¦ à¦Ľ
Ġà¦ªà¦¦ à¦Ĺ
à¦®à¦° à¦ļ
à¦°à¦Ń à¦¬à¦¨
à¦¦à§Ł à¦°
à¦¦à§Ł à¦¬à¦¨
à¦°à¦ĵ à¦¨
à¦°à¦ĵ à¦ªà¦°
à¦°à¦ĵ à¦°à¦ĩ
à¦®à¦£ à¦¶
à¦®à¦£ à¦¸à¦®
à¦¿? âĢĵ
à¦ıà¦ķ à¦Ŀ
âĢĮ âĢĮ
à¦¾? '
Ġà¦®à¦° à¦Łà¦¨
Ġà¦Ĺà¦° à¦°
à¦¦à¦² à¦Ł
à¦¬à¦¦ à¦ķ
Ġà¦«à¦² à¦«
à¦·à¦ķ à¦¨
à¦¯à¦® à¦ĵ
Ġà¦²à¦ķ à¦Ĺ
à¦¿à¦ģ ,
à¦¿à¦ģ -
à§ģà¦ĥ !
à¦¾! )
à¦ªà¦ķ à¦ª
à¦ªà¦ķ à¦£
Ġà¦ħà¦¶ à¦¤
à¦¬à¦ķ à¦¨à¦¶
Ġà¦ĩà¦¨ à¦ķà¦°
à¦¢ à¦ª
Ġà¦Ĩà¦§ à¦®
à§Łà¦¨ à¦¹
à¦ĩà¦ķ à¦¸
à¦¯à¦¸ à¦ļ
à¦¬à¦¬ à§İ
Ġà¦Ńà¦¬ à¦®à¦£
à¦¼à§ģ âĢĶ
à¦¼à§ģ âĢĵ
Ġà¦Ĺà¦¤ à¦¯
à¦ľà¦° à¦Ĺ
Ġà¦īà¦² à¦«
Ġà¦¨à¦¬ à¦Ń
Ġà¦¨à¦¬ à¦°à¦¤
Ġà¦¬à¦¦à¦² à¦ª
à¦¨à¦¸ à¦ªà¦Łà¦ķ
à¦¼à§Ģ à¥¤âĢĿ
?âĢĿ à¥¤
à¦¬à¦¶ à¦®
à¦¬à¦¶ à¦°à¦£
à¦¬à¦¶ à¦¤à¦ĩ
à¦Ĩà¦ľ à¦¬
à¦¨à¦° à¦Ĺ
à¦°à¦ľà¦¨ à¦®
à¦°à¦ľà¦¨ à¦ĩ
à¦«à¦² à¦Ł
à¦ĩà¦Ł à¦Ń
Ġà¦¸à¦¹à¦ľ à¦¤
à¦Ĺà¦ľ à¦ĩ
à¦Ĺà¦ľ à¦ĸà¦£
Ġà¦¸à¦®à§Ł à¦Ĺ
à§İà¦¸ à¦ĩ
à¦°à¦¹à¦£ à¦®
à¦°à¦¹à¦£ à¦ĵ
à¦Łà¦¬ à¦ĩà¦¯
Ġà¦ıà¦ķà¦ĩ à¦¸à¦®à¦¯
à¦īà¦² à¦Ļ
à¦īà¦² à¦ªà¦¨
à¦¿! âĢĶ
ÂłÂłÂłÂłÂłÂłÂłÂł ÂłÂłÂłÂłÂłÂłÂłÂłÂłÂłÂłÂłÂłÂłÂł
Ġà¦ĺà¦¨ à¦¤à¦°
Ġà¦ĸà¦¬à¦° à¦Ĺ
à¦°à¦®à¦£ à¦¯
Ġà¦ıà¦¨ à¦¡
ĠâĢĵ âĢĺ
Ġà¦¦à¦¶ à¦ªà¦¨
Ġà¦¦à¦¶ à¦ľà¦¨à¦ķ
Ġà¦īà§İà¦¸ à¦Ĺ
à¦ķà¦ķ à¦£
Ġà¦ķà¦ĸà¦¨à¦ĵ à¦ķà¦ĸà¦¨à¦ĵ
à¦Ĩà¦² à¦«
à¦Ĩà¦² à¦ªà¦¨
Ġà¦¬à¦ķ à¦ļ
Ġà¦¬à§Ł à¦²
à¦ľà¦¬ à¦ľ
à¦ľà¦¬ à¦ªà¦¨
à¦¦à¦® à¦Ĺ
Ġà¦Ńà§Ł à¦Ń
Ġà¦¬à¦ī à¦ĩ
Ġà¦¬à¦ī à¦¡
à¦Łà¦° à¦°
à¦®à¦°à¦£ à¦¯
à¦®à¦°à¦£ à¦¸
à¦²à¦® à¦Ĺ
à¦Ĺà¦® à¦ĵ
Ġà¦ıà¦¸à¦¬ à¦ĵ
à¦²à¦¸ à¦ĵ
à¦²à¦Ĺ à¦Ĺà¦¨
Ġà¦¬à§ľ à¦®
Ġà¦¬à§ľ à¦ľ
à¦ªà¦£ à¦ĵ
Ġà¦īà§İà¦¸à¦¬ à¦ļ
Ġà¦°à¦¸ à¦ľ
Ġà¦°à¦¸ à¦Ń
à¦®à¦¹ à¦°à¦®
à¦Łà¦« à¦°à¦®
à§Łà¦¤ à¦ĩ
Ġà¦§à¦°à¦¨ à¦§
Ġà¦Ī à¦Ĺà¦²
à¦¯à¦ª à¦²
à¦¸à¦Ł à¦¸
Ġà¦®à¦ľ à¦¹
Ġà¦ªà¦°à¦® à¦¶
à¤ «
à¦ķà¦°à¦£ à¦Ĺ
à¦ķà¦°à¦£ à¦¹
à§« à§§
à¦¬à¦Ľ à¦°à¦ĩ
à¦¶à¦² à¦Ĺà¦¤
à¦¯à¦Ĺ à¦ļ
Ġà¦¶à¦¹ à¦°à¦®à¦¯
à¦¬à¦£ à¦ķ
à¦¬à¦£ à¦§
à§ĩ?âĢĿ à¥¤
à¦łà¦ķ à¦ª
à¦¿âĢĵ âĢĵ
à¦·à¦¦ à¦ķ
à¦·à¦¦ à¦¬à¦°
Ġà¦ľà§Ł à¦¬
à¦ĩà¦Ń à¦Ł
à§ĩà¥¤âĢĻ âĢĻ
à¦¾à¥¤âĢĻ âĢĿ
à§ĩâĢ¦ à¥¤âĢĻ
à§ĩâĢ¦ âĢĿà¥¤
à¦¼à¦Ĥ à¥¤
Ġà§§à§¯ à§©à§¦
à¦°à¦ĸ à¦£
à¦ĩà§Ł à¦°
à¦¿âĢĻ ?
Ġà¦ªà¦°à¦¶ à¦ĸ
à¦²à¦Ń à¦ķ
à¦®à¦ľ à¦Ĺà¦¤
à¦¸à¦¹ à¦ķ
à¦¸à¦¹ à¦ª
à§ĭ! '
à¦ħà¦° à¦«
Ġà¦ªà¦£ à¦ª
à§ª à§ª
Ġà¦¹à¦ĩ à¦ĵ
à¦·à§Ł à¦ĩ
à¦·à§Ł à¦ĵ
à¦¬à¦Ł à¦¤à¦²
in ed
in ess
Ġà¦ķà§Ł à¦ľà¦¨
à§ĩ?âĢĻ âĢĶ
à¦ľà§Ł à¦°à¦¥
Ġà¦¨à¦Ĺà¦° à¦ª
Ġà¦¨à¦Ĺà¦° à¦Ń
an an
à¦¨à¦Ľ à¦¡
à¦ľà¦Ĺ à¦¦
on y
à¦¨à§Łà¦¨ à¦ĩ
Ġà¦ĩà¦¸ à¦ķà¦¨
Ġà¦¶à¦ªà¦¥ à¦ĩ
Ġà¦®à¦¦ à¦®à¦¤
à¦¦à¦¶ à¦¬à¦°
Ġà¦Ĭ à¦§
Ġà¦Ĭ à¦¨à¦ªà¦ŀ
Ġà¦Ĩà¦ļà¦°à¦£ à¦Ĺ
Ġà¦Ĩà¦ļà¦°à¦£ à¦ĵ
Ġà¦Ĩà§ľ à¦ļ
Ġà¦®à¦¨à¦¨ à¦§
Ġà¦®à¦¨à¦¨ à¦ļà¦°
à¦ªà§ľ à¦¬
à¦ªà§ľ à¦¶
à¦¾à¦ĥ âĢĻ
à§¬ à§¯
à§¬ à§®
à¦ķà¦ĸà¦¨ à¦ĩ
at is
at ural
al ism
Ġ! "
Ġ! âĢĶ
à¦¨à¦¬à¦ľ à¦Ĺà¦¤
Ġà¦Ĩà¦¸à¦¨ à¦ĸ
à¦¬à¦°à¦£ à¦ĵ
à§¯ à§¨
à§¯ à§®
à§® à§¬
!âĢĻ âĢĿ
Ġà¦ıà¦¡ à¦®à¦¨
en cy
is ion
à¦Ĳ à¦¦
Ġà¦ļà¦°à¦£ à¦¬
Ġà¦ļà¦°à¦£ à¦Ĺ
it ed
it ies
it ude
Ġ: -
Ġà¦Ĩà¦Ł à¦·à¦Ł
à§ĩâĢĻ -
à§ĩâĢĻ ?
Ġà¦°à¦¤à¦¨ à¦ª
Ġà¦Ķ à¦°à¦Ļ
à§ĭ?âĢĿ ,
Ġs er
Ġs ay
Ġs ha
Ġs ke
Ġs ense
Ġà¦ĩà¦Ł à¦Ĺ
Ġ; --
Ġà¦ľà¦Ĺà§İ à¦¦
Ġà¦ľà¦Ĺà§İ à¦ª
Ġà¦ľà¦Ĺà§İ à¦ľ
à¦¿âĢ¦ âĢĻ
à¦¿âĢ¦ à¥¤âĢĿ
à¦¿âĢ¦ à¥¤âĢĻ
à¦ĩà¦« à§Ł
Ġà¦Ĩà¦« à¦¤
Ġa way
à¦ķà¦¶à¦¨ à¦ĵ
Ġà¦®à¦°à¦£ à¦«
Ġà¦Ńà¦°à¦¤ à¦ª
Ġà¦Ńà¦°à¦¤ à¦Ń
ar un
ar ri
ar ily
Ġà¦°à¦£ à¦¹
Ġà¦°à¦£ à¦°à¦Ļ
Ġà¦°à¦£ à¦ļà¦£
Ġà¦ķà¦¦ à¦®à¦¤à¦²
or al
Ġw ar
Ġw ay
Ġw ant
à¦®à¦Ń à¦ľà¦¨
à¦¬à¦ªà¦¨ à¦®à¦¯
Ġm ass
Ġm ach
Ġm iss
Ġm ade
Ġà¦Ŀà§ľ à¦ĩ
à¦ĭ à¦Ĺà¦¬
Ġà¦ĩà¦¹ à¦ľà¦¨
Ġà¦ĩà¦¹ à¦ľà¦Ĺà¦¤
à¦ħà¦ª à¦¹
Ġà¦¬à¦°à¦« à¦¶
Ġà¦¬à¦°à¦« à¦Ŀà¦°
Ġb l
Ġb ir
Ġp ri
Ġp ain
Ġp ower
Ġp oet
Ġà¦Ĺà¦Ĺà¦¨ à¦Ń
Ġà¦Ĺà¦Ĺà¦¨ à¦®à¦£
and ita
Ġà¦ıà¦°à¦ĩ à¦®à¦§
ic a
ic s
ic ular
ing ly
à§Īà¦ĥ ,
à§Īà¦ĥ âĢĵ
Ġà§© à§®
le t
le x
ou n
ou ra
à§· à§·
as k
Ġf ar
Ġf ri
ed ia
Ġà¦¨à§ľ à¦ļà§ľ
Ġd et
Ġd id
Ġd ow
à¥¤à¥¤ /
à¥¤à¥¤ âĢĺ
Ġà§§à§¯à§Ń à§®
Ġà¦ļà§ľ à¦²
Ġà¦ļà§ľ à¦ķ
Ġà¦ļà§ľ à¦Ľ
Ġh ig
Ġh olo
Ġà§¨à§¦ à§§à§ª
Ġà§¨à§¦ à§«à§¦
Ġà¤ ¤
Ġà¤ Ľ
à¦¿,âĢĿ âĢĶ
Ġà¦¦à¦®à¦¨ à¦¨
ct u
à§ĭâĢ¦ à¥¤âĢĿ
à§ĭ!âĢĿ âĢĶ
Ġà¦ķà¦²à¦¤ à¦²
Ġn or
Ġl iv
Ġl aw
à¦Ŀà¦¨ à¦Ŀà¦¨
Ġà¦¸à¦¦à¦° à¦ĺ
Ġà¦ĵà¦ľà¦¨ à¦¹
Ġà§§à§¯à§« à§¬
Ġà§« à§¨
Ġà§« à§ª
Ġth ing
Ġth rough
Ġth ought
ra ce
Ġà¦¨à¦¬à¦¦ à¦®
Ġà¦¨à§Łà¦¨ à¦Ńà¦°
Ġà¦Łà¦² à¦·
ĠM elod
Ġà§§à§© à§¦à§¦
ĠA l
Ġà¦īà¦ªà¦ķà¦°à¦£ à¦Ĺ
ent ial
Ġà¦ĺà¦· à¦²
à§§à§¦ à§¦
ut e
ut ure
ĠP M
ĠP r
à¦¿' ?
Ġto o
Ġto ward
à§¦à§¦ à§¦
Ġà¦ĸà¦Ł à¦®à¦Ł
ĠâĢ¦ .
ĠâĢ¦ âĢĿ
à§ĩ) :
à§į! ]
ĠB rit
à¦¼âĢ¦ à¥¤
à¦Ĺà¦¬à¦¤ à¦ª
ĠS um
à¦¶à¦ªà¦¥ à¦¬à¦¦
Ġe le
Ġe qu
à¦¾âĢ¦âĢĿ âĢĶ
à¤¾ à¤ģ
ur ing
Ġre vol
ĠT arun
à¦·à¦ľà¦¨ à¦¦
Ġbe aut
ĠR el
ĠR oh
à§ĭâĢ¦âĢĿ âĢĶ
ch n
Ġà§§à§¯à§ª à§§
Ġà§§à§¯à§ª à§ª
à¦¬à¦Ĺà¦¤ à¦Ń
Ġà¦ıà¦« à¦Ĩà¦°à¦Ĩà¦ĩ
im ate
Ġà¦ķà¦¨à¦ķ à¦¦
Ġà¦ĸà¦² à¦¬à¦²
à§Ģ?âĢĿ âĢĶ
Ġg ot
Ġg reat
ĠD J
à§§à§¨ à§«
us i
à¦¶à¦¶ à¦§à¦°
am es
Ġà¦ªà¦¬à¦¨ à¦ª
ĠC ont
Ġà§§à§® à§¦
Ġà§§à§® à§¬à§¦
Ġà§¯ à§¦à§¦
ver se
if ic
à¦ªà¦°à¦¶ à¦®à¦£
à§ĩà¥¥ (
ĠN e
ĠN andita
Ġà¥¥ âĢĿ
Ġà§§à§¨ à§¦
Ġà¦īà¦ĩ à¦Ļ
Ġà¦ıà¦ķà¦¨ à¦ľà¦°
ĠH ein
!! !
em pt
em por
à¤¤ à¤°
à¦¡à¦īà¦ĩ à¦¥
Ġà§§à§¯à§® à§¬
her s
Ġà¦¨à¦¬à¦° à¦Ļ
ip on
ĠL ED
à§ĩ. à¥¤
Ġv ari
Ġv ision
Ġà¦Ĺà¦®à¦¨ à¦ª
Ġà§§à§¯à§¬ à§§
Ġà§§à§¯à§¬ à§¨
Ġà§§à§¯à§¬ à§ª
Ġst ate
Ġst rong
Ġà§¨à§¦à§¦ à§§
Ġà§¨à§¦à§¦ à§¬
Ġà§¨à§¦à§¦ à§®
ĠÐ ³
ĠÐ º
ĠÐ ½
à¤ķ à¤²
Ġà¦«à¦¸ à¦²à¦ķ
ĠØ ±
Ġà¦Ĩà¦īà¦² à¦ļ
à¸ ²
à¸ ģ
Ġhe re
Ġà§§à§¯à§© à§ª
Ġà§§à§¯à§© à§¯
Ġà¦®à¦Ł à¦®à¦Ł
ast er
Ðµ Ð½
Ġr ight
Ġr ather
Ġse em
Ġse arch
Ġtr y
Ġì ĭľ
Ġà¦Ĭà¦¨ à¦¸à¦¤
Ġex c
Ġex ist
Ġà¦Ĺà¦¤à¦¬ à¦Ľà¦°
Ġpro per
ment s
sel ves
à¦°à¦Ĺà¦² à¦Ń
Ð¾Ð ²
àª °
Ġà¦Ĳà¦°à¦ķà¦® à¦ĩ
Ġint ellect
à§§à§¯à§Ń à§¦
rit ical
Ġmy th
ap e
Ġ× Ķ
Ġsu b
Ġsu cc
oc rat
Ġal so
à¦ªà¦ķà¦¤ à¦®
à¦īà¦ªà¦ķ à¦°à¦£
Ġch ild
ĠTh rough
av en
hy s
à§°à¦¦ à§°
Ġpr odu
ict ion
Ġbec ause
ĠĠĠĠĠĠĠĠĠĠĠĠĠĠĠĠ ĠĠĠĠĠĠĠĠĠĠĠĠĠĠĠĠ
ru ction
Ġà¦Ĺà¦Ĺ à¦¨à¦¬
TI ON
Ġfre e
ĠIs lam
Ġabstra ction
Ġ` `
à§» à¦¾
Ġcons cious
ura vas
xx xx
rag matic
×Ļ ×
Ġposs ess
aliz ation
ĠÃ Ĺ
Ġà¦ªà¦°à¦®à¦¤ à¦¸à¦¹
à¤¼ à§ĩ
Ġac cept
ĠY ou
Ġmat he
Ġbecom e
mb race
Ġneigh bor
Ġdiff ere
Ġet ern
isha v
Ġmem ory
ĠAp arna
Ġrem ind
Ġconst ant
know n
à¦ľà¦¬à¦ª à¦£
Ġpla ce
Ġemer g
ĠDur ga
ĠNaz rul
ĠEur ope
ogn ition
Hein rich
dam ental
Ġident ity
Ġà¦¬ab u
Ġà¦¨esc afÃ©
à¦ªank ar
Ġdow ry
Ġhig her
ĠMelod ies
ĠRoh it
Ġvari able
Ġsucc ess
! âĢĺ
! --
" âĢĶ
, âĢĺ
5 2
6 0
6 6
9 7
? ?
A C
A M
A l
B D
D igital
E TE
H O
I f
I t
M od
O n
P M
P P
P U
R U
R ed
R ipon
S I
T A
T ub
V IN
W hat
[ *
[ âĢľ
] à¥¤
a i
a ught
b i
b el
b ook
b ody
c ed
c ol
c ount
c ond
c omp
e ed
f il
g r
h an
h ip
i red
i vers
i verse
l o
l er
l ad
l ant
o x
o z
p en
p ut
p ose
r ug
r vas
s il
s ub
t s
t ra
t ure
t ick
u f
u ild
x ist
y l
y n
y p
y s
¿ Ĵ
Ã ¶
Î ±
Ï Ħ
Ï ħ
Ð ¼
Ò ¯
Õ «
Õ ¿
Õ ¡Õ
Ö Ģ
× Ĳ
× ŀ
Ú Ĩ
Û ģ
â Ķ
å ®
å ¿
ç ¿Ĵ
í Ļ
ĉ Ċ
Ċ Ġ
Ġ &
Ġ 2
Ġ à§į
Ġ à§İà¦¸
Ġ ing
Ġ )à¥¤
Ġ ro
Ġ very
Ġ à¨
Ġ vers
Ġ Ø§ÙĦ
Ġ ***
Ġ ign
Ŀ áĥ
Ġà¦ ŀ
à¦¾ à¦¼
à¦¾ à§ĭ
à¦¾ à¦¾à¦ģ
à¦¾ âĢĺ
à¦¾ âĢķ
à§ĩ à¦¼
à¦° à¦ł
à¦° à¦ĸà¦¨
à¦° à¦¦à¦¨
à¦° à¦Ĩà¦®
à¦° à¦¢
à¦° à¦Ĩà¦°
à¦° à¦ĺà¦¨
à¦° à¦ħà¦²
à§į '
à§į !âĢĿ
à¦¿ "
à¦¿ (
à¦¿ à¦¾à¦ģ
à¦¿ "à¥¤
à¦¨ à¦Ĩ
à¦¨ à¦¨à¦ĵ
à¦¨ à¦®à¦²
à¦¨ à¦ļà¦²
à¦¨ à¦®à¦ķ
à¦¨ à¦¦à¦²
à¦¨ à¦ļà¦¡
à¦¨ à¦ıà¦Ł
à¦¨ à¦ĸà¦£
à¦¨ à¦ľà¦ª
à¦¨ à¦īà¦¤
à¦¨ à¦ħà¦²
à¦¤ à¦¹à¦¸
à¦¤ à¦Ĺà¦¨
à¦¤ à¦¶à¦¬
à¦¤ à¦«à¦²
à¦¤ à¦¹à¦¤
à¦¤ à¦Ĺà¦®
à¦¤ à¦ľà¦®
à¦¤ à¦¶à¦¯
à¦² à¦ł
à¦² à¦°à¦¸
à¦² à¦ĩà¦²
à¦² à¦¸à¦°
à¦² à¦¸à¦¤
à¦² à¦¢
à¦² à¦¸à¦ķ
à¦² à¦ıà¦ķà¦Ł
à¦² à¦ĺà¦¡
à¦ķ à¦ļà¦¨
à¦ķ à¦ĸà¦¤
à¦ķ à¦ķà¦¬
à¦ķ à¦Ĺà¦¨
à¦ķ à¦ľà¦²
à¦ķ à¦¸à¦²
à¦ķ à¦ĺà¦¨
à¦ķ à¦°à¦¤à¦²
à¦¯ à¦¨à¦¬
à¦¯ à¦¦à¦¯
à¦¯ à¦ħà¦¨
à¦¯ à¦²à¦Ĺ
à¦¯ à¦ĺà¦¨
à§ģ à¦¾
à§ģ à§ĥ
à§ģ âĢĶâĢľ
à§ģ âĢĿ!
à¦¬ à¦Ĺà¦¨
à¦¬ à¦®à¦¬
à¦¬ à¦ĺà¦°
à¦¬ à¦īà¦ķ
à¦¬ à§İà¦ĩ
à¦¼ à§ģâĢĻ
à¦® à¦Ĺà¦²
à¦® à§Łà¦¨
à¦® à¦ľà¦¯
à¦® à¦Ŀà¦°
à¦® à¦ľà¦®
à¦® à¦Ĺà¦¤à¦Ń
à§ĭ 'à¥¤
Ġà¦ķ à¦¬à¦¨
Ġà¦ķ à¦Łà¦²
Ġà¦ķ à¦ĩà¦¸
Ġà¦ķ à¦®à¦¨à¦¸
Ġà¦ķ Ø§Ø
Ġà¦¬ à¦ľà¦¨
Ġà¦¬ à¦·à¦Ł
Ġà¦¬ à¦°à¦¬à¦£
Ġà¦¬ ung
Ġà¦¬ à¦ľà¦¬à¦ľ
Ġà¦¸ à¦ªà¦Ł
Ġà¦¸ à¦¦à¦®
Ġà¦¸ à¦²à¦«
Ġà¦¸ à¦¦à§Łà¦¤
à¥ Į
à¦¸ à¦¸à¦¬
à¦¸ à¦°à¦¹
à¦¸ à¦°à¦¦
à¦¸ à¦°à¦ĩ
à¦¸ à¦¹à¦°
à¦¸ à¦ļà¦°
à¦¸ à¦ªà¦Ł
à¦¸ à§°
à¦¸ à¦Ńà¦Ļ
à¦¸ à¦°à¦¤à¦®
Ġà¦ª à¦¯à¦°
Ġà¦ª à¦ªà¦¡
Ġà¦Ĩ à¦ĸà¦¤
Ġà¦Ĩ à§İà¦ķ
Ġà¦Ĩ à¦¢
Ġà¦Ĩ à¦ĵà¦°
à¦¦ à¦¬à¦²
à¦¦ à¦ķà¦²
à¦¦ à¦¬à¦¤
à¦¦ à¦¸à¦¨
à¦¦ à¦ªà¦¥
à¦¦ à¦§à¦°
à¦¦ à¦Ĺà¦®
à¦¦ à¦ľà¦Ĺà§İ
à¦Ł à¦ŀ
à¦Ł à¦Ĩ
à¦Ł à¦®à¦¤
à¦Ł à¦ªà¦¥
à¦Ł à¦Łà¦²
à¦Ł à¦¨à¦¦
à¦Ł à¦¸à¦ķ
à¦Ł à¦ĺà¦°
Ġà¦¨ à¦¸à¦°
Ġà¦¨ à¦ĩà¦¬
Ġà¦¨ à¦²à¦ĸ
Ġà¦® à¦¹à¦¸
Ġà¦® à¦ĩà¦¯
Ġà¦® à¦ķà¦¦
Ġà¦® à¦Łà¦¨
Ġà¦® à¦¦à¦Ł
Ġà¦® à¦¦à¦ķ
à¦ª à¦ł
à¦ª à¦ĵà¦¯
à¦ª à¦¬à¦²
à¦ª à¦ļà¦¨
à¦ª à¦ķà¦¬
à¦ª à¦¸à¦°
à¦ª à¦ªà¦¥
à¦ª à¦ļà¦ķ
à¦ª à¦¶à¦¯
à¦ª à¦¬à¦§
à¦ĩ à¦ĺ
à¦ĩ à¦¸à¦®
à¦ĩ à¦Łà¦ķ
à¦ĩ à¦¸à¦ķ
à¦ĩ à¦Ĩà¦°
à¦ĩ à¦¶à¦°
à§Ģ ),
à¦Ľ à¦«
Ġà¦¦ à¦°à¦®
Ġà¦¦ à¦¶à¦¨
Ġà¦¦ à¦®à¦¯
Ġà¦¦ à¦®à¦¬
Ġà¦¦ à¦®à¦Ł
Ġà¦¦ à¦ĩà¦Ń
à¦ľ à¦°à¦¬
à¦ľ à¦°à¦¨
à¦ľ à¦²à¦¨
à¦ľ à¦°à¦¦
à¦ľ à¦ĵà§Ł
à¦ľ à¦ļà¦ķ
à¦ľ à¦®à¦Ł
Ġà¦¹ à¦Łà¦°
Ġà¦¤ à¦ĩ
Ġà¦¤ à¦Ľ
Ġà¦¤ à¦¹
Ġà¦¤ à¦°à¦¸
Ġà¦¤ à¦ĸà¦²
Ġà¦¤ à¦°à¦ľ
Ġà¦¤ à¦¥à¦¨
Ġà¦¤ à¦Łà¦Ń
Ġà¦ı à¦ªà¦°
Ġà¦ı à¦·à¦£
Ġà¦ı à¦Ĺà¦¨
Ġà¦ı à¦ªà¦¥
Ġà¦ı à¦¨à¦Ł
Ġà¦ı à¦ªà¦¸
à¦¶ à¦°à¦¬
à¦¶ à§İ
à¦¶ à¦Ĺà¦²
à¦¶ à¦®à¦°
à¦¶ à¦ªà¦¦
à¦¶ à¦ªà¦Ł
à¦¶ à¦®à¦¨à¦ķ
à¦¼à§ĩ à¦ģ
à¦¼à§ĩ âĢĻ,
à¦¼à§ĩ âĢ¦âĢĻ
Ġà¦ħ à¦°à¦¥
Ġà¦ħ à¦¶à¦¬
Ġà¦ħ à¦ĩà¦¯
Ġà¦ħ à¦Ŀà¦°
Ġà¦ħ à¦£à¦¨
à¦ĸ à¦°à¦®
à¦ĸ à¦¦à¦°
à¦ĸ à¦°à¦¹
à¦ĸ à¦¹à¦°
à¦ĸ à¦¸à¦®
à¦ĸ à¦ľà¦²
à¦Ĺ à¦®à¦£
à¦Ĺ à¦Ĺà¦ľ
à¦· à¦¬à¦¨
à¦· à¦²à¦ķ
à¦· à¦°à¦¶
à¦· à¦¨à¦ĵ
à¦· à¦ķà¦¬
à¦· à¦¬à¦¹
à¦· à¦¸à¦¹
à¦§ à¦£
à¦§ à¦Ŀ
à¦§ à¦«
à¦§ à¦ĵà¦¯
à¦§ à¦ķà¦²
à¦§ à¦°à¦¦
à¦§ à¦Ĺà¦¨
à¦§ à¦°à¦ª
à¦§ à¦ļà¦ķ
à¦§ à¦°à¦Ľ
âĢ Ĭ
à¦¡ à¦ªà¦¤
à¦¡ à¦¸à¦¤
à¦¡ à§Łà¦¨
à¦¡ à¦¸à¦¹
à¦¡ à¦¬à¦¡
à¦¡ à¦¬à¦ªà¦ķ
Ġà¦¯ à¦®à¦ª
à¦ļ à¦°à¦¬
à¦ļ à¦ĵà¦¯
à¦ļ à¦¬à¦ĩ
à¦¹ à¦¥
à¦¹ à¦°à¦¤
à¦¹ à¦§à¦¨
à¦¹ à¦¨à¦¨
à¦¹ à¦¤à¦²
à¦¹ à¦§à¦°
Ġà¦ķà¦° à¦ķ
Ġà¦ķà¦° à¦Ł
Ġà¦ķà¦° à¦§
Ġà¦ķà¦° à¦ļ
Ġà¦ķà¦° à¦¨à¦ĸ
à§Ł à¦¡
à§Ł à¦¨à¦¬
à§Ł à¦®à¦®
Ġà¦Ĺ à¦Ĺà¦£
à¦£ à¦ĸà¦¨
à¦£ à¦°à¦¸
à¦£ à¦ªà¦¦
à¦£ à¦ĺà¦¨
à¦£ à¦¸à¦¹
à¦£ à¦°à¦Ļ
à¦£ à¦ªà¦¶
à¦£ à¦ľà¦Ĺà¦¤
à¦£ à¦ĺà¦Ł
à¦ģ ,
à¦¥ à¦°à¦¤
à¦¥ à¦°à¦ĩ
à¦¥ à¦ªà¦¥
à¦¥ à¦°à¦ª
à¦¥ à¦§à¦°
à¦¥ à¦²à¦Ł
Ġà¦¶ à¦¦
Ġà¦¶ à¦¶à¦ķ
Ġà¦¶ à¦°à¦¬à¦°
Ġà¦¶ à¦Łà¦Ĺ
Ġà¦¶ à¦°à¦¬à§İ
Ġà¦ľ à¦ķ
Ġà¦ľ à¦Ĺà¦²
Ġà¦ľ à¦Ĺà¦¬
Ġà¦ľ à§Łà¦¤
Ġà¦ľ à¦ĵà¦¹
Ġà¦ļ à¦¶
Ġà¦ļ à¦°à¦Ĺ
Ġà¦ļ à¦ķà¦¦
Ġà¦Ń à¦·
Ġà¦Ń à§ľ
Ġà¦Ń à¦ŀ
Ġà¦Ń à¦°à¦¨
Ġà¦Ń à¦²à¦Ĺ
Ġà¦° à¦ĵà§Ł
Ġà¦° à¦¬à¦ķ
Ġà¦° à¦¸à¦²
Ġà¦° à¦ļà§Ł
Ġà¦° à¦¡à¦°
à§ĩà¥¤ *
à§ĩà¥¤ --
à¦ĵ à¦¥
à¦ĵ à¦¬à¦¨
à¦ĵ à¦Ĩà¦®
à¦ĵ à¦°à¦ĩ
à¦ĵ à¦¸à¦®
à¦ĵ à¦ĩà¦Ł
à¦ĵ à§İà¦¸
à¦ĵ à¦Ĩà¦°
à¦ĵ à§ľà¦¨
à¦Ń à¦¬à¦ª
à¦Ń à¦¨à¦¤
à¦Ń à¦®à¦¯
à¦Ń à¦¶à¦ķ
Ġà¦ıà¦ķ à¦Ľ
Ġà¦ıà¦ķ à¦¦à¦°
Ġà¦ıà¦ķ à¦ĺà¦¨
Ġà¦ıà¦ķ à¦ıà¦ķà¦ľà¦¨
Ġà¦ıà¦ķ à¦Ĩà¦§à¦Ł
à¦¼à¦¾ âĢĻ,
à¦¼à¦¾ âĢĻâĢĶ
à¦¼à¦¾ âĢ¦âĢĻ
à§ĥ âĢĻ
Ġà¦Ľ à¦®à¦ķ
Ġà¦Ľ à¦ªà¦Ľ
Ġà¦Ĩà¦® à¦ľ
à¦ł à¦¯
à¦ł à¦°à¦¬
à¦ł à¦¬à¦°
à¦ł à¦ķà¦¬
à¦ł à¦¶à¦¬
à¦ł à¦¸à¦Ļ
à¦ł à¦¨à¦ĩ
à¦ł à¦ĸà¦¡
à¦ł ç¿Ĵ
Ġà¦ī à¦ķà¦Ł
Ġà¦ī à¦¶à¦¨
Ġà¦ī à¦ĩà¦¯
Ġà¦ī à¦ĩà¦¡
Ġà¦ī à¦Ńà¦ķ
Ġà¦ī à¦ĩà¦ª
Ġà¦ī à¦ĩà¦Ĺ
Ġà¦ī à¦Ľà¦¸
à¦Ĥ ;
à¦¾à¦ģ ?âĢĿ
à¦¾à¦ģ ?âĢĻ
à¦Ļ à¦¶
Ġà¦² à¦ª
Ġà¦² à¦ĩà¦Ľ
Ġà¦² à¤¹à¤°
Ġà¦ĵ à¦¶
Ġà¦¥ à¦¬
Ġà¦¥ à¦¸
Ġà¦« à¦ľ
Ġà¦« à¦ķà¦°
Ġà¦Ĩà¦° à¦ıà¦¸
Ġà¦ĸ à¦®
à¦°à¦¤ à¦¦
à¦°à¦¤ à¦°à¦Ļ
à¦¾à¥¤ âĢĶ
à¦¾à¥¤ ..
Ġà¦§ à¦¨à¦¸
Ġà¦§ à¦®à¦§
Ġà¦ªà¦° à¦ªà¦ķ
Ġà¦ªà¦° à¦§à¦°
Ġà¦ªà¦° à¦¶à¦ª
Ġà¦¸à¦® à¦®à¦°
à¦¾, à¥¤
à¦¾, âĢĵ
à¦¾, âĢľ
à¦¬à¦¨ à¦¬à¦¨
à¦¬à¦¨ à¦°à¦¸
à¦¬à¦¨ à¦¸à¦®
à¦¬à¦¨ à¦¨à¦¦
à¦¼à¦¿ ?âĢĿ
à§ľ à¦ļ
à§ľ à¦ªà¦¤
à¦ĸà¦¨ à¦ª
à¦ĸà¦¨ à¦ĸ
Ġà¦ĺ à¦°à¦¨
Ġà¦®à¦¨ à¦¨à¦ĩ
Ġà¦®à¦¨ à¦ķà¦£
à¦ªà¦° à¦°
à¦ªà¦° à¦²
à¦ªà¦° à¦¹à¦°
à¦°à¦£ à¦§
à¦°à¦£ à¦ľà¦¨
à¦°à¦£ à¦Ĺà¦¤
Ġà¦ıà¦ĩ à¦¸à¦Ļ
à¦¿à¥¤ âĢĶ
à¦®à¦¨ à¦ĸ
à¦®à¦¨ à¦ĵ
à¦Ŀ à¦¨à¦¦
à¦ľà¦¨ à¦Ń
à¦ŀ à¦®
à¦ŀ à¦ĵ
à¦ŀ à¦ľà¦¨
à¦ŀ à¦¦à¦ķ
à¦¤à¦° à¦§
à¦¤à¦° à¦ľà¦Ĺà§İ
à¦« à¦Ŀà¦®
à¦ī à¦²à¦¬
à¦ī à¦ĩà¦Ł
à¦ī à¦®à¦Ĺ
à¦ī à¦ªà¦²
à¦ī à§İà¦ªà¦¤
à¦ī à§İà¦ķà¦°
à¦ī à¦ĩà§Łà¦°
à¦¿, ---
à¦ªà¦¨ à¦ĵ
Ġà¦Ĩà¦² à¦¹
Ġà¦Ĩà¦² à¦¬à¦¤
à¦°à¦¬ à¦ªà¦ķ
à¦°à¦¬ à¦¹à¦¨
à¦°à¦¬ à¦£à¦®
à¦°à¦¬ à¦²à¦¤à¦®
à¦Ĩ à¦¤à¦°
à¦Ĩ à¦²à¦ķ
à¦Ĩ à¦Ĺà¦²
à¦Ĩ à¦ļà¦²
à¦Ĩ à¦ªà¦¤
à¦Ĩ à¦¹à¦²
à¦Ĩ à¦ķà¦¨
à¦Ĩ à¦¨à¦²
à¦Ĩ à¦¨à¦Ĺ
à¦Ĩ à¦ĩà¦Ł
à¦Ĩ à¦¶à¦¯
à¦Ĩ à¦¦à¦¤
à¦Ĩ à§Łà¦°
à§İ à¦¬à¦°
à§İ à¦¶à¦ķ
à§İ à¦«à¦¨
à¦ı à¦¥
à¦ı à¦Ļ
à¦ı à¦ŀ
à¦ı à¦°à¦ĵ
à¦ı à¦¨à¦¸
à¦ı à¦®à¦ª
à¦ı à¦«à¦¸
à¦ı à¦°à¦ªà¦°à¦ĩ
âĢĿ âĢĶâĢľ
à¦°à¦ķ à¦ĩ
Ġà¦¸à¦¬ à¦¤
Ġà¦¸à¦¬ à¦§à¦°à¦¨
à¦¬à¦° à¦ĸ
à¦¬à¦° à¦®à¦£
à¦¬à¦° à¦ľà¦²
Ġà¦¬à¦²à¦² à¦²
Ġà¦¬à¦²à¦² à¦ħà¦¨
Ġà¦¬à¦²à¦² à¦¯à¦¦
Ġà¦¬à¦²à¦² à¦ıà¦¤
Ġà¦Ĩà¦¸ à¦¹
Ġà¦Ĩà¦¸ à¦¨à¦ª
Ġà¦Ł à§Ł
Ġà¦Ł à¦ªà¦¨
Ġà¦Ł à¦²à¦ķ
Ġà¦Ł à¦ªà¦²
Ġà¦Ĩà¦Ľ à¦°
âĢĻ ?âĢĿ
à¦¼à¥¤ ]
Ġà¦¹à¦² à¦Ĺ
Ġà¦¡ à¦ĵ
Ġà¦¡ à¦«
Ġà¦¡ à¦®à¦°
Ġà¦¡ à¦Łà¦ª
Ġà¦ĩ à¦¬à¦²
Ġà¦ĩ à¦°à¦®
Ġà¦ĩ à¦ľà¦®
Âł ĠÂłĠÂł
à¦ĺ à¦¹
à¦ĺ à¦²à¦¤
à¦ĺ à¦¶à¦ķ
à¦ĺ à¦Łà¦¬
à¦ĺ à¦Ŀà¦¡
Ġà¦ľà¦¨ à¦ªà¦°
Ġà¦§à¦° à¦¨à¦ĵ
Ġà¦Ŀ à¦ĩ
Ġà¦Ŀ à¦Ŀ
à¦¬à¦² à¦¹
à¦¬à¦² à¦ľà¦²
à¦¼, âĢĵ
ĠâĢĺ )à¥¤
à¦¬à¦ª à¦¥
à¦°à¦® à¦ķà¦°
à¦°à¦® à¦¥à¦ķ
à¦°à¦® à¦¦à¦¤
à§ģà¦ģ !
Ġà¦ł à¦ķà¦²
Ġà¦ł à¦®à¦ķ
à¦·à¦£ à¦§à¦°
Ġà¦ķà¦°à¦² à¦ķ
Ġà¦ıà¦¸ à¦¤
Ġà¦ıà¦¸ à¦Ł
Ġà¦ıà¦¸ à¦ķà¦°
âĢĵ ]
à¦¤à¦¨ à¦°
à¦ĥ /
à¦ĥ âĢ¦
à¦ħ à¦ĸ
à¦ħ à¦ªà¦¨
à¦ħ à¦¤à¦¨
à¦ħ à¦Ńà¦¯
à¦ħ à¦¹à¦Ļ
Ġà¦¬à¦¨ à¦¯
Ġà¦ªà¦¥ à¦®
Ġà¦ªà¦¥ à¦¸à¦Ļ
Ġà¦ħà¦® à¦°à¦¬
Ġà¦ħà¦® à¦°à¦²
Ġà¦Ĩà¦Ĺ à¦¬
Ġà¦Ĩà¦Ĺ à¦¡
Ġà¦Ĺà¦² à¦ª
à¦ķà¦° à¦¨
à¦ķà¦° à¦ĩ
à¦ķà¦° à¦ĸ
à¦ķà¦° à¦¦à¦°
à¦ķà¦Ł à¦¤
à¦¸à¦¬ à¦¸
à¦°à¦¨ à¦¨
à¦°à¦¨ à¦ķ
à¦°à¦¨ à¦¸
à¦°à¦¨ à¦ľ
à¦¯à¦¬ à¦¸à¦°
à¦¯à¦¬ à¦ĩà¦¤
à§ĭà¥¤ '
à§ĭà¥¤ à¥¤
à¦°à¦¥ à¦¯
à¦¤à¦¬ à¦¦
à¦¤à¦¬ à¦¶
à¦¤à¦¬ à§ľ
à¦¤à¦¬ à¦ķà¦Ĺ
à¦°à¦¸ à¦¡
à¦°à¦¸ à¦°à¦¤
à¦²à¦ķ à¦®
à¦²à¦ķ à¦ĩ
à¦¨à¦¬ à¦Ł
à¦¨à¦¬ à¦ĩ
à¦¨à¦¬ à¦¦à¦¨
à¦¨à¦¬ à¦¸à¦¨
à¦¨à¦¬ à¦ļà¦°
à¦¨à¦¬ à¦Ĺà¦£
à¦¨à¦¬ à¦¸à¦¦
à¦¾à¦Ĥ âĢĶ
à¦¾à¦Ĥ âĢĮ
à§ĭ, âĢĿâĢĶ
Ġà¦Ĩà¦¶ à¦ķ
à¦¦à¦¨ à¦°
à¦¦à¦¨ à¦¨
à¦¦à¦¨ à¦ļà¦ķ
à¦ķà¦¤ à¦¤
à¦ķà¦¤ à¦Ĺ
à¦ķà¦¤ à¦ķà¦Ĺ
Ġà¦¹à¦¤ à¦ľ
Ġà¦¬à¦° à¦ľ
à¦°à¦¥à¦® à¦¤à¦®
à§ĩ? âĢľ
Ġà¦ħà¦¦ à¦°à¦ķ
Ġà¦Ĩà¦¨ à¦¹
Ġà¦Ĩà¦¨ à§Łà¦¨
Ġà¦īà¦¦ à§Łà¦¨
à¦¦à¦° à¦ĩ
Ġà¦ħà¦° à¦Ĺ
à¦Ĺà¦² à¦¶
à¦Ĺà¦² à¦Ĩà¦®
à¦Ĺà¦² à¦¸à¦°
à¦Ĺà¦² à¦ĺà¦Ł
à¦Ĺà¦² à¦®à¦¹à¦²
Ġà¦ľà¦² à¦¯
Ġà¦ľà¦² à¦¬à¦¨
Ġà¦ľà¦² à¦ľà¦¨
Ġà¦ľà¦² à¦¬à¦°
Ġà¦ľà¦² à¦¬à¦¤
Ġà¦ľà¦² à¦®à¦¯
Ġà¦ľà¦² à¦¶à¦ķ
Ġà¦ľà¦² à¦Ŀà¦°
Ġà¦ľà¦² à¦Ľà¦¡
à¦²à¦¤ à¦¦
à¦¿à¦Ĥ ?âĢĿ
à¦¿à¦Ĥ !âĢĻ
à¦¶à¦¨ à¦²
à¦¶à¦¨ à¦®à¦¯
à¦®à¦¤ à¦ķ
à¦®à¦¤ à¦ª
à¦¯à¦ķ à¦¬
Ġà¦¸à¦¨ à§İà¦ķ
à¦°à¦¹ à¦¯
à¦°à¦¹ à¦Ļ
à¦°à¦¹ à¦°à¦ķ
à¦°à¦¹ à¦¨à¦¨
Ġà¦ĺà¦° à¦ª
Ġà¦īà¦łà¦² à¦¨
Ġà¦īà¦łà¦² à¦¸
Ġà¦īà¦łà¦² à¦ĵà¦¹
à¦ļà¦¨ à¦ļ
à¦²à¦¨ à¦¨
à¦²à¦¨ à¦ķà¦¶
à¦²à¦¨ à¦®à§Ł
Ġà¦īà¦ª à¦®à¦¨
Ġà¦¸à¦° à¦ª
Ġà¦¸à¦° à¦²à¦¸
à¦°à¦¯ à¦ļ
Ġà¦¯à¦ĸà¦¨ à¦ķ
à¦¨à¦ĵ à§Ł
à¦ĩà¦² à¦ª
à¦®à¦² à¦¤à¦°
à¦ĸà¦² à¦¹
à¦§à¦¨ à¦§
à¦§à¦¨ à¦°à¦¤
à¦§à¦¨ à¦¸à¦®
à¦²à¦¬ à¦Ł
à¦²à¦¬ à¦ĵ
à¦²à¦¬ à¦¦à¦¨
à¦²à¦¬ à¦¸à¦¨
à¦°à¦¦ à¦¸
à¦°à¦¦ à¦¦
à¦°à¦¦ à¦Ł
à¦°à¦¦ à¦¶
à¦°à¦ľ à¦¸
à¦°à¦ľ à¦°à¦®à¦£
Ġà¦ħà¦ª à¦¶
Ġà¦ħà¦ª à¦¥
Ġà¦ķà¦² à¦²
Ġà¦ķà¦² à¦Ń
Ġà¦ķà¦² à¦®à¦ļ
Ġà¦ķà¦² à¦¸à¦ĸ
à¦ļà¦² à¦¸à¦®
à¦®à¦ķ à¦£
à¦°à¦ĩ à¦¨
Ġà¦Ĩà¦¤ à¦²
à¦¸à¦¨ à¦¯
Ġà¦Ńà¦° à¦Ńà¦°
à¦ĩà¦¨ à¦¦
à¦ķà¦¬ à¦¯
à¦ķà¦¬ à¦§
à¦ıà¦ĩ à¦Ĺ
à¦°à¦ªà¦° à¦®
à¦¸à¦® à¦Ŀ
à§Ģ, âĢĻ
à§Ģ, --
à¦¿- âĢĻ
à¦¿- âĢĺ
à¦Łà¦ķ à¦¹
à¦Łà¦ķ à¦£
à¦Łà¦ķ à¦°à¦£
Ġà¦ıà¦ĸ à¦ĸ
Ġà¦ķà¦¤ à¦²
Ġà¦ķà¦® à¦¦
à¦¤à¦² à¦®
à¦¤à¦² à¦ĸ
à¦Ĺà¦¨ à¦¦
à¦Ĺà¦¨ à¦ĵà¦¯
Ġà¦¬à¦Ľà¦° à¦Ł
à§ĩ! *
à§ĩ! --
Ġà¦°à¦Ļ à¦¤
Ġà¦¯à¦¤ à¦ľà¦¨
Ġà¦īà§İ à¦ķà¦¨
à¦°à¦Ń à¦¨
Ġà¦ıà¦Ł à¦®
à¦ªà¦¦ à¦§
à¦¦à§Ł à¦¦
à¦¦à§Ł à¦¹
à¦¦à§Ł à¦ªà¦Ł
à¦¦à§Ł à¦Ńà¦°
Ġà¦¶à¦° à¦¬à¦¨
à¦°à¦ĵ à¦ķ
Ġà¦ħà¦Ĺ à¦ª
à¦ªà¦¥ à¦¶
Ġà¦¨à§Ł à¦¨à¦ľ
Ġà¦ħà¦®à¦² à¦¦
Ġà¦ħà¦®à¦² à¦§
à¦®à¦£ à¦ª
à¦¿? ''
à¦ıà¦ķ à¦ļ
à¦ıà¦ķ à¦Ń
à¦ıà¦ķ à¦®à¦¨
à¦ıà¦ķ à¦ĸà¦£
à¦ıà¦ķ à¦ĺà¦£
à¦¾? âĢĶ
Ġà¦ıà¦° à¦ľà¦¨
à¦¨à¦ķ à¦°à¦£
à¦°à¦ª à¦¶
à¦°à¦ª à§ľ
Ġà¦¬à¦ĩ à¦ĺà¦°
Ġà¦¬à¦ĩ à¦Ńà¦°
à¦¬à¦¸ à¦¯
à¦¬à¦¸ à¦¹
Ġà¦ħà¦ªà¦° à¦ľà¦¨
à¦Łà¦² à¦Łà¦²
à§Ģà¥¤ (
à¦·à¦¤ à¦¸
à§įâĢĮ ;
Ġà¦«à¦² à¦ľ
Ġà¦«à¦² à¦Ń
à¦¯à¦® à¦¦
à¦¯à¦® à¦ľ
à¦¯à¦® à¦¹
à¦¤à¦ķ à¦Ĺ
à§ģ, âĢĿâĢĶ
à¦¤à¦® à¦¹
à¦¾! âĢĵ
à¦ļà¦ķ à¦¨
à¦ļà¦ķ à¦Ń
à¦ľà¦² à¦Ľ
à¦ľà¦² à¦¢
à¦ľà¦² à¦§à¦°
à¦ľà¦² à¦®à¦Ĺ
à¦ľà¦² à¦Ľà¦¬
à¦ªà¦ķ à¦ĵ
à¦ªà¦ķ à¦°à¦£
à¦¬à¦ķ à¦ª
à¦¬à¦ķ à¦ĩ
à¦¬à¦ķ à¦Ĺ
à¦¬à¦ķ à¦ľà¦¨
à¦¨à¦¦ à¦ķ
à§ĩ; âĢĿ
à¦£à¦¤ à¦¤
à¦£à¦¤ à¦ĩ
à¦¶à¦ķ à¦ĵ
à¦¢ à¦ķ
Ġà¦Ĩà¦§ à¦«
à¦¤à¦¤ à¦Ł
à¦°à¦ķà¦® à¦Ń
à¦¯à¦¸ à¦ŀ
à¦¯à¦¸ à¦®à¦¯
à¦¯à¦¸ à¦¹à¦ļà¦°
à¦¹à¦¨ à¦ľà¦²
Ġà¦Ĩà¦¸à¦² à¦Ł
à§ĩà¥¤âĢĿ âĢĶ
à¦ªà¦Ł à¦ªà¦Ł
à¦¼à§ģ !
à¦ľà¦° à¦°
!âĢĿ à¥¤
!âĢĿ âĢĵ
à¦ķà¦¨ à¦²à¦ľ
à¦¸à¦ķ à¦Ń
à¦¸à¦ķ à¦®à¦£
à§° à¦ľà¦¨
à§° à¦ķà¦²
à§° à¦®à¦¶
à§° à¦¯à¦ľ
à¦¸à¦« à¦°à¦®
Ġà¦¶à¦¤ à¦¸
Ġà¦¶à¦¤ à¦Ł
Ġà¦¶à¦¤ à¦Ľ
Ġà¦¶à¦¤ à¦ļ
à§ģ- --
à§ģà¥¤ âĢĺ
Ġà¦¨à¦¬ à¦¤à¦°à¦Ļ
Ġà¦īà¦ľ à¦¬
Ġà¦Ĩà¦ļ à¦£
Ġà¦Ĩà¦ļ à¦®à¦¨
Ġà¦¬à¦¦à¦² à¦Ł
à¦¨à¦¸ à¦Ł
à¦ªà¦¸ à¦ª
à¦ªà¦¸ à¦Ń
à¦ªà¦¸ à¦°à¦£
à¦¬à¦¶ à¦¸
à¦°à¦ľà¦¨ à¦¨à¦ķ
à¥¤âĢĻ )à¥¤
Ġà¥¤ '
à¦¨à¦Ĺ à¦¡
Ġà¦Ĺà§ľ à¦²
à¦«à¦² à¦¸
à¦«à¦² à¦Ĺ
à¦¥à¦° à¦ĸ
à¦ĩà¦Ł à¦ª
à¦ªà¦· à¦ľ
Ġà¦¸à¦¹à¦ľ à¦¤à¦®
à¦Ĺà¦ľ à¦¬
à¦Ĺà¦ľ à¦ĵ
à¦¼à¦¾à¥¤ "
à¦²à¦Ľ à¦Ł
à§ĩâĢĵ âĢľ
à§ĩâĢĵ âĢĺ
à¦īà¦² à¦ª
à¦¿! ''
à¦ķà¦¶ à¦¯
Ġà¦ıà¦¨ à¦Ń
à§ĭâĢĶ âĢĿ
à§ĭâĢĶ âĢĻ
Ġà¦°à¦ķà¦® à¦ĵ
Ġà¦°à¦ķà¦® à¦¸à¦ķà¦®
à¦®à§Ł à¦ķ
à¦®à§Ł à¦¬
à¦ķà¦¦ à¦¦à¦¸
Ġà¦īà§İà¦¸ à¦¬à¦ª
Ġà¦¬à¦Ł à¦¦
Ġà¦¹à¦° à¦ł
à¦Ĩà¦² à¦Ł
à¦ķà¦¡ à¦ĩà¦¨
Ġà¦ľà¦° à¦¡à¦¨
Ġà¦Ĺà¦£ à¦¦
Ġà¦Ĺà¦£ à¦§à¦°
Ġà¦Ĺà¦£ à¦ħà¦Ń
Ġà¦¨à¦°à¦® à¦¸
ĠâĢĶ âĢĶâĢĶ
Ġà¦¬à§Ł à¦«
à¦ľà¦¬ à¦īà¦®
à¦¦à¦® à¦ł
Ġà¦ķà¦²à¦ķ à¦¤
Ġà¦Ńà§Ł à¦Ĺ
Ġà¦Ńà§Ł à¦ĵ
Ġà¦Ĩà¦¦à¦° à¦¯à¦¤
à¦®à¦°à¦£ à¦ľ
à¦²à¦® à¦¶
à¦²à¦¸ à¦¦
Ġà¦§à¦¨ à¦®
à¦²à¦Ĺ à¦Ł
Ġà¦īà§İà¦¸à¦¬ à¦ķ
à¦¼? âĢĶ
Ġà¦°à¦¸ à¦ĩ
à¦®à¦¹ à¦¦
Ġà¦Ī à¦¦à¦Ĺ
à¦¥à¦ķ à¦·
à¦Ĩà¦ķ à¦¬à¦°
à¦¾âĢĻ ?
à¦¾âĢĻ âĢĻ
à¦¾âĢĻ !âĢĿ
à¦°à¦° à¦ŀ
à¦°à¦° à¦ļà¦¨
Ġà¦ªà¦°à¦® à¦®
Ġà¦ªà¦°à¦® à¦§à¦°
à¤ ¢
à¤ ĸ
à¦ķà¦°à¦£ à¦Ł
Ġà¦ħà¦¸à¦® à¦ŀ
à¦¿; ---
à¦¶à¦² à¦ĵ
à§ĩ?âĢĿ ,
Ġà¦ļà¦®à¦ķ à¦¦
à¦łà¦ķ à¦¸à¦®
à¦łà¦ķ à§Łà¦²
à¦¿âĢĵ âĢĿ
à¦·à¦¦ à¦¦
Ġà¦ľà§Ł à¦¸
Ġà¦ıà¦Ń à¦²
à¦ķà¦Ń à¦ķ
à¦ĩà¦¡ à¦¸
à¦®à¦¦ à¦®à¦¨
à§ĩâĢ¦ ?âĢĿ
à§ĩâĢ¦ ..
à§ĩâĢ¦ âĢĿâĢĶ
Ġà§§à§¯ à§¦
Ġà§§à§¯ à§§à§ª
Ġà¦¸à¦°à¦² à¦®à¦¤
Ġt er
Ġt ur
Ġt ri
Ġt alk
à¦¨à¦¶ à¦°
à¦£à¦¬ à¦§
à¦¿âĢĻ !âĢĿ
à§Ń à§©
à§Ń à§Ń
à¦²à¦Ń à¦¤
à¦ĩà¦¸ à¦Ĺ
à¦¤à¦¹ à¦¬
à¦¯à§İ à¦Ł
à¦Łà¦Ľ à§ľ
à¦ļà¦Ł à¦ªà¦Ł
Ġà¦¹à¦ĩ à¦¹à¦Ł
à¦·à§Ł à¦ª
,âĢĿ âĢĵ
Ġà¦Ĩà¦ĩà¦¨ à¦ª
Ġà¦Ĩà¦ĩà¦¨ à¦®à¦¨
Ġà¦Ĩà¦ĩà¦¨ à¦Ńà¦Ļ
in s
in es
à¦¤à¦Ń à¦Ļ
à¦¨à¦ª à¦²à¦ķ
à¦ľà§Ł à¦¸
à¦ľà§Ł à¦¦
à¦ľà§Ł à¦ª
à¦ľà§Ł à¦ĩ
à¦ľà§Ł à¦ªà¦¤
Ġà¦¨à¦Ĺà¦° à¦°
à¦¤à¦¸ à¦Ń
Ġ- âĢľ
Ġ- âĢĺ
an a
an ya
à¦¨à¦ļ à¦£
.. à¥¤
.. ..
à¦ĩà¦ľ à¦Ń
Ġà¦ĩà¦² à¦°
Ġà¦ħà¦¨à¦² à¦¶
on om
à¦¼! '
à¦ħà¦¸ à§İ
à¦ħà¦¸ à¦°à¦ķ
Ġà¦®à¦¦ à¦¦
à¦¦à¦¶ à¦ľà¦¨
à¦¬à¦ľà¦¨ à¦¸à¦®à¦ķ
re e
à¦¯à¦Ł à¦ķà¦°
à¦¯à¦Ł à¦¨à¦ķ
Ġà¦ľà¦Ĺ à§İà¦¸
Ġà¦ľà¦Ĺ à¦Ŀà¦®
à¦Ĺà¦°à¦£ à¦ĩ
Ġà¦®à¦¨à¦¨ à¦®
Ġà¦®à¦¨à¦¨ à¦Ĺà¦°
à¦ªà§ľ à¦Ł
Ġà¦ķà¦²à¦® à¦ĩ
Ġà¦ķà¦²à¦® à¦ĸ
Ġà¦ķà¦²à¦® à¦ĵ
at es
at or
at ing
à¦īà¦ľ à¦ª
al on
al ow
à¦īà¦¡ à¦¨
à¦¸à¦®à§Ł à¦Ł
à¦¬à¦°à¦¤ à¦²
Ġà¦Ĩà§Ł à¦¶
Ġ' (
à¦¬à¦°à¦£ à¦Ł
à§¯ à§§
à§¯ à§©
à§¯ à§Ń
à§¯ à§¯
à§® à§Ń
à¦ĵà¦ĩ à¦°à¦ķà¦®
Ġà¦¨à¦¹ à¦¬à¦¤
er a
er y
er man
Ġà¦ļà¦°à¦£ à¦¸
it ch
Ġà¦Ńà¦Ĺà¦¬ à§İ
Ġà¦ļà¦¶à¦® à¦ĸ
Ġà¦Ķ à¦·
à¦¯à¦¹ à¦ĩ
à¦¯à§Ł à¦ĵ
à¦Łà¦¸ à¦Ĺ
à¦Łà¦¸ à¦ıà¦°
Ġà¦ħà¦¬à¦¦ à¦®à¦¨
Ġs ing
Ġs ou
Ġs low
Ġs ought
Ġs ystem
Ġs elf
Ġà¦Ĩà¦ĩ à¦«
à¦¤à¦°à¦£ à¦ķ
à¦·à¦¬ à§İ
Ġà¦Ĺà¦ľ à¦ªà¦¤
Ġà¦¬à¦¦ à¦ħà¦Ń
à¦īà¦ĩ à¦ħà¦°
à¦¿âĢ¦ âĢĿà¥¤
Ġà¦°à¦¥ à¦Ł
Ġc he
Ġc or
Ġc all
à¦ĸà¦¸ à¦ĸà¦¸
Ġà¦Ńà¦°à¦¤ à¦¨
Ġà¦Ńà¦°à¦¤ à¦Ĺ
Ġà¦Ĩà¦¬à¦¹ à¦®à¦£
Ġà¦¸à¦«à¦² à¦ĵ
ar b
Ġà¦°à¦£ à¦®
Ġà¦°à¦£ à¦Ń
Ġà¦°à¦£ à¦°à¦£
Ġà¦ķà¦¦ à§°
or s
or ld
Ġw ell
Ġà¦ıà¦® à¦Ĩà¦°à¦Ĩà¦ĩ
Ġà¦Ĺà¦¦ à¦ĸ
Ġà¦ķà¦ĩ à¦¤à¦°
à¦¬à¦ªà¦¨ à¦¬
à¦¬à¦ªà¦¨ à¦¦
à¦¬à¦ªà¦¨ à¦ª
à¦«à¦²à¦¨ à¦ĩ
à¦«à¦²à¦¨ à¦¶
Ġm in
Ġm ons
Ġm ix
à¦ĭ à¦ķ
Ġb r
Ġb re
Ġb ack
Ġb oth
Ġp le
Ġp ol
Ġp ers
à¦®à¦²à¦¤ à¦®
and har
... âĢĻ
à¦¬à¦Ľà¦° à¦ĸ
ic ally
à§Īà¦ĥ -
Ġà¦²à§Ł à¦¬à¦¦
ÂłÂłÂłÂłÂłÂłÂłÂłÂłÂłÂłÂłÂłÂłÂłÂł ÂłÂłÂłÂłÂłÂłÂłÂłÂł
ÂłÂłÂłÂłÂłÂłÂłÂłÂłÂłÂłÂłÂłÂłÂłÂł ÂłÂłÂłÂłÂłÂłÂłÂłÂłÂłÂłÂłÂł
Ġf irst
Ġf uture
à¦¬à§ľ à¦¦
Ġd el
Ġd own
Ġd oub
Ġà¦ķà¦¦à¦® à¦Ľ
Ġà¦¹à¦Ł à¦¡à¦Ĺ
à¦ļà¦¸ à¦ľ
Ġà¦ļà§ľ à¦ķà¦Ĺ
à¦²à¦ĵ à¦¹
à§ĩâĢĿ !
Ġà§¨à§¦ à§§à§¬
à§ĢâĢĻ !
à§ĢâĢĻ -
à§ĢâĢĻ âĢĵ
à¦ĸà¦Ĺ à¦¹
Ġà¤ §
Ġà¤ ¯
Ġà¤ ļ
Ġà¤ Ŀ
Ġà¦¦à¦®à¦¨ à¦¬
Ġà¦¦à¦®à¦¨ à¦®
à§Ģà¦Ĥ à¥¤
ĠĠĊĠĠ ĠĠĠĠ
ĠĠĊĠĠ ĠĠĠ
à§Ģ; âĢĶ
à¦°à¦¬à¦£ à¦¯
Ġà¦ķà§ľ à¦®à§ľ
Ġin fin
Ġn on
Ġn ow
Ġn ature
Ġl ive
Ġl ess
Ġl ab
Ġl ant
Ġl ast
Ġl ater
Ġà§§ à§§à§§
ĠI D
ĠI f
Ġà§§à§¯à§« à§®
Ġà§« à§Ń
Ġà¦ķà¦²à¦ķà¦² à¦°à¦¬
à§§à§¯ à§¨à§¦
à§§à§¯ à§¨à§ª
Ġth ough
ra m
Ġà¦²à¦¬à¦£ à¦ĩà¦²
Ġà¦¨à§Łà¦¨ à¦ľà¦²
ol at
ĠM r
el t
Ġà§ª à§§
Ġà§ª à§¨
Ġà§ª à§¯
ĠA b
ĠA m
à§ĩà¥¤à¥¤ (
Ġà¦īà¦ªà¦ķà¦°à¦£ à¦ĩ
à§§à§¦ à§§
ut s
à¦ªà¦Ļ à¦ķ
Ġto oth
Ġà¦Ŀà¦Ł à¤ª
il s
ĠB har
à¦ħà¦« à¦ķ
à¦¨à§Ł à¦Ł
à¦Ĩà¦ĩà¦¨ à¦¸
ĠS at
ĠS am
Ġà¦®à¦°à¦® à¦¬
Ġà¦īà¦ĩà¦² à¦¸
à¦Ĭ à¦¨à¦¬
Ġe p
Ġe yes
à¦²à¦¶ à¦¶
ig ence
ur re
Ġre ad
Ġà¦¦à¦°à¦¦ à¦¸
áĥ Ŀáĥ
à¦¸à§İ à¦ªà¦¥
à§ĩ!âĢĻ âĢĿ
à¦īà¦ªà¦° à¦¨
ĠT o
ĠT r
à¦ĩà¦ĵ à¦Ń
Ġbe at
ĠR ishav
os ity
Ġà§§à§¯à§ª à§©
Ġà§§à§¯à§ª à§¬
à¦¸à¦¹à¦ľ à¦Ń
im a
im in
à¦¿âĢ¦âĢĿ âĢĶ
Ġg re
Ġg et
Ġg ood
Ġg old
ĠD NA
Ġà§¬ à§¦à§¦
à§§à§¨ à§©à§ª
Ġà¦Ĩà¦īà¦Ł à¦¸
Ġà¦Ĩà¦īà¦Ł à¦¬à¦ķ
Ġà¦Ĺà¦²à¦¦ à¦ĺà¦¨
Ġwh ile
Ġà¦¦à¦²à¦¬ à¦¦à¦²
Ġà¦®à¦¤à¦²à¦¬ à¦ĸ
Ġà¦¶à¦¤à¦ªà¦¥ à¦¬
à§ģâĢ¦ .
if ul
if act
ĠN ature
Ġà§§à§¨ à§©
Ġà¦īà¦ĩ à¦ł
Ġà¦īà¦ĩ à¦ŀ
Ġà§§à§« à§¦à§¦
à¦¦à¦®à¦¨ à¦ķ
à¦¾' ,
Ġà§® à§«
Ġ= ========
ci al
ĠH uman
ĠH eat
ect ion
ĠG andhar
Ġà¦²à¦Ł à¦ªà¦Ł
à¦¡à¦īà¦ĩ à¦ļà¦Ĺ
Ġà§§à§¯à§® à§¨
Ġà§§à§¯à§® à§ª
Ġà¦ľà¦¹ à¦°à¦ķ
ist er
ag on
Ġà¦¨à¦¬à¦° à¦¸
Ġà¦ľà¦¨à¦¸à¦® à¦°
Ġà¦ĸà¦¨à¦¨ à¦ķ
ip ends
iv ity
Ø§ Ùħ
ĠE d
ĠE mbrace
ĠL iter
ĠL ittle
ĠL alon
Ġà¦¸à§ľà¦ķ à¦ªà¦¥
ab l
ab ly
Ġà¦§à§ľ à¦®à§ľ
Ġà§§à§ª à§¦à§¦
Ġv an
Ġst ipends
Ġà¦ķà¦®à¦¨ à¦ĵà¦¯
op s
Ġan cient
à¤ķ à¤°
Ġà¦ľà¦¹à¦° à¦īà¦¦
à¦Ĩà¦Ń à¦°à¦£
à¤² à¦¤
Ð¾ Ñģ
ĠØ ¨
ĠÑģ Ð»
ill iam
Ġ1 8
à¸ ´
Ġun d
Ġun ion
Ġà§§à§¯à§¨ à§«
Ġà¦ĩà¦¤à¦° à¦ľà¦¨
Ġman kind
Ġà¦°à¦Ĺ à¦ļà¦Ł
Ġor gan
Ð° Ñģ
Ġà¦®à¦ĩ à¦§
Ġà§§à§¯à§© à§¨
Ġà§§à§¯à§© à§¬
ere st
Ðµ Ð»
Ðµ Ñģ
Ġr is
Ġr un
Ġse e
Ġse p
Ġà¦ķà¦ĵ à¦¸à¦°
à¦Ĩà¦īà¦Ł à¦¡
ĠO r
ĠO ff
Ġì Ī
Ġì Ŀ
Ġì ŀ
Ġà§§à§¬ à§§
Ġà¦Ĭà¦¨ à¦ļà¦²
Ġà¦Ĭà¦¨ à¦Ĩà¦¶
Ġme an
Ġme asure
Ġde ath
Ġde pend
Ġde velopment
Ġex per
Ġex press
Ø± Ø
ĠF ear
Ġà¦ķà¦°à¦¤à¦² à¦Ĺà¦¤
Ġpro ject
Ġpro gress
ÑĢ Ð¸
ÑĢ Ð°Ð
ÑĢ Ñĭ
ĠÙ ¾
à¦°à¦Ĺà¦² à¦Ńà¦¤
Ð¾Ð ½
har ma
th at
à¥ĭ à¤Ĥ
Ġab s
à§§à§¯à§Ń à§«
Ġà¦ıà¦ĩà¦ļ à¦ıà¦¸à¦¸
ress ure
TE D
we et
our s
ell igence
oc k
ĊĊ Ċ
Ġà¦¤à§İà¦¸ à§İ
one y
Ġë °
Ġà¦¶à¦¤à¦° à¦ŀ
Ø§Ø ¯
Ú© ÙĦ
olog ne
act er
ÙĪ Ø´
à¦Ķ à¦·à¦§
ĠTh at
ĠTh is
for mal
Ġà¦¶à¦¬à¦° à¦°
Ġbet ter
aw n
áĢ ¯
Ġapp ears
ru ct
Ġà¦Ĺà¦Ĺ à¦¨à¦¤à¦²
à§§à§¯à§¬ à§Ń
à§§à§¯à§¬ à§®
Ġthem selves
ĠIs land
à§§à§¯à§® à§«
Ġcons id
iz on
Ġà¦®à¦°à¦ķ à¦¤
Ġcult ural
Ġrel ation
Ġrel igion
ĠRe use
ĠRe ality
**************** ********
eg r
à« ĩ
à¦¾à§į à¦ģ
Ġà¦Łà¦ĩà¦Ł à¦ĩ
âĢķâĢķâĢķâĢķâĢķâĢķâĢķâĢķ âĢķâĢķâĢķâĢķâĢķâĢķâĢķâĢķ
the y
Ġqu al
Ġoff end
Ġpass ion
Ġfun damental
Ġà§§à§©à§¦ à§¬
-------- --------
à¦¬à¦¸à¦° à¦ľà¦¨
Ġcr us
ÂłÂłÂłÂłÂłÂłÂłÂłÂłÂłÂłÂłÂłÂłÂłÂłÂłÂłÂłÂłÂłÂłÂłÂł ÂłÂłÂłÂłÂłÂłÂłÂłÂłÂłÂłÂłÂłÂł
Ġval ues
Ġcomm on
Ġcomm un
ºçľºçľºçľºçľºçľºçľºçľºçľ ºçľºçľºçľºçľºçľºçľºçľºçľ
âĢĵâĢĵâĢĵâĢĵâĢĵâĢĵâĢĵâĢĵâĢĵâĢĵâĢĵâĢĵâĢĵâĢĵâĢĵâĢĵ âĢĵâĢĵâĢĵâĢĵâĢĵâĢĵâĢĵâĢĵâĢĵâĢĵâĢĵâĢĵâĢĵâĢĵâĢĵâĢĵ
·çľ·çľ·çľ·çľ·çľ·çľ·çľ·çľ ·çľ·çľ·çľ·çľ·çľ·çľ·çľ·çľ
à¦īà¦°à¦¤ à¦¨à¦¬
Ġpur pose
Ġfe el
Ġda ily
ĠMy ra
Ġbecom es
ĠâĨ Ĵ
ITI ATE
yes ha
ÙĤ Ø¯
Ġà¦¸à¦ĸà¦¨ à¦ĵ
ĠĠâĢ¨ ĠĠĊĠĠĠ
Ġsup er
ĠBang la
ĠBang lad
Ġimag ination
Pro ject
âĢĥ Ċ
Ġopp ress
Ġcir cle
omm un
ĠComp any
Ġorig inal
×¢ ×
à¯ į
åķ ı
Ġel se
à¦°Ã¦ à¦¤
Ġà¦ľà¦ĸ à¦®à¦Ł
onst ruction
Ġauthor ity
Ġca us
Ġfol low
Ġdr ink
ĠInt elligence
ĠAs ia
ĠRec ycle
ymp h
Ġà¦¬à¦¦à¦¹ à¦ľà¦®
atis f
Ġfri end
ĠBrit ish
ĠSum ita
Ġele ment
Ġrevol ution
Ġbeaut iful
hys ical
ĠYou Tub
Mod ern
Red uce
rug g
rvas i
âĶ Ģ
Ġign or
Ġà¦¬ung alow
Ġà¦ľà¦ĵà¦¹ à¦°à¦²
Ġà¦Ľà¦ªà¦Ľ à¦ª
à¦łç¿Ĵ à¦¤
Ġà¦§à¦®à¦§ à¦®
Ġinfin ite
Ġlant ern
Ġà¦Ŀà¦Łà¤ª à¤Ł
ĠOff ice
ĠBanglad esh
ĠYouTub e
! à¥¤
" ,
% à¥¤
' ll
) âĢĻ
+ âĢĻ
, "
, à¥¤
, âĢ¦
- ,
- à§į
. âĢĺ
1 10
5 3
5 4
5 8
5 9
: -
; --
; ---
? !
? (
? !âĢĿ
? âĢĺ
A D
A T
A BH
B ut
C L
C omp
C TED
E n
F I
G e
I R
L et
M r
M aya
N ational
O R
O MO
P S
P y
P er
P art
S O
S R
S T
S e
S p
S ha
S olar
S ocrat
T U
T agore
T RU
U RA
U rb
V E
W illiam
Y ABH
a an
a id
a ction
b re
b ably
c ra
c ent
c ad
c ess
c ont
c hed
d in
d ing
e ur
f ig
f ter
g o
g or
g ra
h and
h ood
h usi
i j
i y
i or
i qu
i ally
i ety
j ust
k y
k en
k ing
l at
l ot
l ight
m n
m en
m ar
m ation
m ost
n ers
o om
o ol
o ch
o id
o int
o ff
p ly
p ons
p ret
p ub
p hy
p het
r al
r own
s ert
s pect
t ion
t un
t hing
v at
v id
v ir
v est
v iew
w here
w ater
w are
w hat
w ork
x t
y t
¦ ģ
¦ ÙĨ
§ à¥
° ë
° Ø±
³ ´
½ Õ¿
Â ²
Ã ³
Ã º
Ã Ĺ
Ã Ł
Å ¡
Ï ģ
Ï ĥ
Ð ³
Ñ ħ
Ò Ľ
Õ ¯
Õ ½Õ¿
Ö Ĥ
Ø ·
Ø ¹
Ù ı
à ¬
â Ĩ
â ¦ģ
å ħ
å Ī
æ ĥ
é ³´
ì Ĩ
ì ĸ
í ķ
Ġ 4
Ġ 5
Ġ 8
Ġ ÂłÂłÂłÂłÂłÂłÂł
Ġ id
Ġ ver
Ġ ke
Ġ à°
Ġ áŀ
Ġ 70
Ġ ÚĨ
Ģ ë
ģ âĢĿ
Ĳ âĨ
ĳ ĺ
ķ ë
Ŀ ¼
Ġà¦ ¾
à¦¾ |
à¦¾ à§ģ
à¦¾ à§ĩà¦ģ
à¦¾ âĢĲ
à¦¾ "à¥¤
à§ĩ âĢľ
à§ĩ à¦ĥ,
à§ĩ âĢķ
à§ĩ âĭ¯
à¦° à¦¶à¦¨
à¦° à¦īà¦ľ
à¦° à¦ħà¦®
à¦° à¤¤
à¦° afi
à§į )
à§į --
à§į âĢ¦âĢĿ
à§į âĢĻà¥¤
à§į âĢĻ,
à§į ï¿½
à¦¿ _
à¦¨ à¦ŀ
à¦¨ à¦Ĺà¦²
à¦¨ à¦¹à¦¸
à¦¨ à¦§à¦¨
à¦¨ à¦¹à¦²
à¦¨ à¦°à¦Ń
à¦¨ à¦¶à¦¬
à¦¨ à¦°à¦Ł
à¦¨ à§İà¦¸
à¦¨ à¦ªà¦¡
à¦¨ à¦¹à¦¤
à¦¨ à¦ĸà¦°
à¦¨ à¦Ľà¦¬
à¦¨ à¦ıà¦®à¦¨
à¦¨ à¦«à¦°
à¦¨ à¦ıà¦¤
à¦¨ à¦ľà¦Ĺà¦¤
à¦¨ à¦Ĩà¦ª
à¦¨ à¦Ĩà¦¦
à¦¨ à¦§à¦°à¦¨
à¦¨ à¦°à¦¦à¦²
à¦¤ à¦¤à¦¬
à¦¤ à¦Ĺà¦²
à¦¤ à¦ķà¦¬
à¦¤ à¦¹à¦°à¦£
à¦¤ à¦¸à¦®à¦¯
à¦¤ à¦¦à¦¸
à¦¤ à¦Ľà¦¬
à¦¤ à¦ľà¦¨à¦ķ
à¦¤ à¦ĸà¦£
à¦¤ à¦ľà¦¨à¦¦
à¦¤ à¦ĺà§ľ
à¦¤ à¦ĭà¦¤
à¦² à¦ĸà¦¨
à¦² à¦ªà¦¨
à¦² à¦°à¦¬
à¦² à§İ
à¦² à¦¨à¦¤
à¦² à¦¤à¦¬
à¦² à¦Ĩà¦®
à¦² à¦²à¦¤
à¦² à¦¶à¦¨
à¦² à¦¹à¦²
à¦² à¦¶à¦ķ
à¦² à¦ıà¦°
à¦² à¦®à¦Ł
à¦² à¦Ĩà¦ķ
à¦² à¦ļà¦¡
à¦² à¦¹à¦®
à¦² à¦ħà¦°
à¦² à¦¡à¦°
à¦² à¦Ĩà¦¨
à¦² à¦ĵà¦²
à¦ķ à¦ŀ
à¦ķ à¦Ĺà¦²
à¦ķ à¦¬à¦¤
à¦ķ à¦¯à¦¨
à¦ķ à¦ľà¦®
à¦ķ à¦Ľà¦¬
à¦ķ à¦ħà¦²
à¦ķ à§Łà¦²
à¦ķ à¦°à¦®à¦¤
à¦¯ à¦°à¦¥
à¦¯ à¦¹à¦¸
à¦¯ à¦®à¦²
à¦¯ à¦²à¦¬
à¦¯ à¦°à¦ĩ
à¦¯ à¦¨à¦¨
à¦¯ à¦°à¦ļ
à¦¯ à¦°à¦ľà¦¨
à¦¯ à¦°à¦®à¦£
à¦¯ à¦Ĩà¦²
à¦¯ à¦¶à¦°
à¦¯ à¦ĸà¦ļ
à¦¯ à¦ĺà¦Ł
à§ģ à§įâĢĮ
à§ģ âĢĺ
à§ģ )à¥¤
à§ģ âĢĿâĢĶ
à§ģ âĢĿ-
à¦¬ à¦Ŀ
à¦¬ à¦¸à¦¬
à¦¬ à¦¯à¦¨
à¦¬ à¦¶à¦¬
à¦¬ à¦«à¦²
à¦¬ à¦ĩà¦¬
à¦¬ à¦Łà¦°
à¦¬ à¦ĩà¦Ľ
à¦¬ à¦Ĺà¦łà¦¨
à¦¬ à¦īà¦¬
à¦¬ à¦ĭà¦£
à¦¬ à¦ľà¦Ĺà§İà¦ķ
à¦¼ '
à¦¼ (
à¦¼ .
à¦¼ à§Īà¦ĥ
à¦¼ âĢĻâĢĶ
à¦¼ ...âĢĿ
à¦¼ âĢĿ,
à¦® à¦ı
à¦® à¦¤à¦¬
à¦® à¦²à¦¨
à¦® à¦¶à¦¬
à¦® à¦¢
à¦® à¦¦à¦¸
à¦® à¦Ńà¦¯
à¦® à¦ªà¦²
à¦® à¦Ľà¦¬
à¦® à¦®à¦¦
à¦® à¦ħà¦®
à¦® à¦īà¦¤
à¦® à¦°à¦®à¦°
à¦® à¦ĭà¦£
à¦® à¦Īà¦Ĺà¦°
à§ĭ /
à§ĭ à§į
à§ĭ à§ĭ
à§ĭ ",
Ġà¦ķ à¦ªà¦°
Ġà¦ķ à¦ªà¦¨
Ġà¦ķ à§İ
Ġà¦ķ à¦²à¦¬
Ġà¦ķ à¦ĵà§Ł
Ġà¦ķ à¦¸à¦ķ
Ġà¦ķ à¦Łà¦°
Ġà¦ķ à¦ľà¦¨à¦ķ
Ġà¦ķ à¦ªà¦ķà¦ª
Ġà¦¬ à¦ĵ
Ġà¦¬ à¦¬à¦¨
Ġà¦¬ à¦¤à¦°
Ġà¦¬ à¦¨à¦¤
Ġà¦¬ à¦¹à¦¸
Ġà¦¬ à¦Łà¦ķ
Ġà¦¬ à¦¬à¦ķ
Ġà¦¬ à§Łà¦¨
Ġà¦¬ à¦ķà¦¨
Ġà¦¬ à¦¶à¦¤
Ġà¦¬ à¦¬à¦®
Ġà¦¬ à¦Ĭ
Ġà¦¸ à¦¥
Ġà¦¸ à¦¸à¦Ļ
Ġà¦¸ à¦²à¦Ń
Ġà¦¸ à¦Ĺà¦Ń
Ġà¦¸ à¦ªà¦¸à¦ª
à¥¤ âĢľ
à¥¤ --
à¥¤ ..
à¥¤ )à¥¤
à¦¸ à¦Ŀ
à¦¸ à¦ķà¦Ł
à¦¸ à¦Ĺà¦¤
à¦¸ à¦²à¦¨
à¦¸ à¦°à¦¯
à¦¸ à¦¸à¦®
à¦¸ à¦Ĺà¦°
à¦¸ à¦Łà¦²
à¦¸ à¦ªà¦ķ
à¦¸ à¦°à¦¬à¦¤
à¦¸ à¦Łà¦¬
à¦¸ à¦ıà¦ķà¦Ł
à¦¸ à¦ĺà¦¨
à¦¸ à¦ľà¦¨à¦ķ
à¦¸ à¦Ĺà¦£
à¦¸ à¦Ĺà¦¤à¦Ń
Ġà¦ª à¦ļà¦Ľ
Ġà¦Ĩ à¦¥
Ġà¦Ĩ à¦ļà¦²
Ġà¦Ĩ à¦ļà¦ķ
Ġà¦Ĩ à¦ªà¦Ł
Ġà¦Ĩ à¦«à¦²
Ġà¦Ĩ à¦Łà¦®
Ġà¦Ĩ à¦īà§ľ
à¦¦ à¦ĵà¦¯
à¦¦ à¦°à¦¨
à¦¦ à¦²à¦¨
à¦¦ à¦Ľà¦¨
à¦¦ à¦¸à¦°
à¦¦ à¦¬à¦¸
à¦¦ à¦®à¦¬
à¦¦ à¦®à¦§
à¦¦ à¦¬à¦¹
à¦¦ à¦¶à¦°
à¦¦ à¦°à¦¤à¦°
à¦¦ à¦ªà¦¸à¦°à¦£
à¦Ł à¦ªà¦¨
à¦Ł à¦²à¦ķ
à¦Ł à¦®à¦¯
à¦Ł à¦°à¦ĵ
à¦Ł à¦¸à¦¤
à¦Ł à¦ļà¦ķ
à¦Ł à¦¬à¦¯
à¦Ł à¦ıà¦°
à¦Ł à¦®à¦¹
à¦Ł à¦ĺà¦¡
Ġà¦¨ à¦Ľ
Ġà¦¨ à¦¤à¦°
Ġà¦¨ à¦°à¦¶
Ġà¦¨ à¦Ĺà¦¨
Ġà¦¨ à¦²à¦Ľ
Ġà¦¨ à¦Łà¦¬
Ġà¦¨ à¦¬à¦²à¦¤
Ġà¦¨ à¦ĸà¦ķ
Ġà¦¨ à¦²à¦ľ
Ġà¦¨ à¦Ńà¦¨
Ġà¦¨ à¦ĸà¦Ĺ
Ġà¦¨ à¦Ļà¦°
Ġà¦® à¦ĺ
Ġà¦® à¦Ĺà¦¤
Ġà¦® à¦°à¦ľ
Ġà¦® à¦īà¦²
Ġà¦® à¦Ĺà¦¬
Ġà¦® à¦īà¦®
à¦ª à¦§à¦¨
à¦ª à¦Ĺà¦¨
à¦ª à¦Ĺà¦°
à¦ª à¦¬à¦¸
à¦ª à¦²à¦²
à¦ª à¦²à¦Ĺ
à¦ª à¦ªà¦£
à¦ª à¦łà¦¨
à¦ª à¦ªà¦²
à¦ª à¦ĺà¦¨
à¦ª à¦¶à¦Ł
à¦ĩ à¦¤à¦°
à¦ĩ à¦¦à¦¨
à¦ĩ à¦¦à¦°
à¦ĩ à¦¹à¦°
à¦ĩ à¦ıà¦ĩ
à¦ĩ à¦¹à¦²
à¦ĩ à¦¯à¦¨
à¦ĩ à¦¸à¦°
à¦ĩ à¦ªà¦ķ
à¦ĩ à¦Ńà¦°
à¦ĩ à¦Ŀà¦°
à¦ĩ à¦ļà¦¡
à¦ĩ à¦¶à¦²
à¦ĩ à¦ľà¦®
à§Ģ (
à§Ģ à§Ģ
à§Ģ âĢĿâĢĵ
à§Ģ 'à¥¤
à¦Ľ à¦ĺ
à¦Ľ à¦¦à¦¨
à¦Ľ à¦Łà¦«à¦Ł
Ġà¦¦ à¦ıà¦¬
Ġà¦¦ à¦®à¦¸
Ġà¦¦ à¦ĩà¦ļ
à¦ľ à¦£
à¦ľ à¦°à¦¸
à¦ľ à¦¯à¦ķ
à¦ľ à¦ķà¦¬
à¦ľ à¦°à¦ª
à¦ľ à¦Łà¦²
à¦ľ à¦°à¦Ł
à¦ľ à¦ªà¦Ł
à¦ľ à¦°à¦®à¦£
à¦ľ à¦®à§Ł
à¦ľ à¦ªà¦°à¦®
à¦ľ à¦ĸà¦®
à¦ľ à¦¸à¦°à¦ŀ
Ġà¦¹ à§ľ
Ġà¦¹ à¦ŀ
Ġà¦¹ à¦ķà¦°
Ġà¦¹ à¦°à¦ķà¦°
Ġà¦¤ à¦·
Ġà¦¤ à¦®à¦²
Ġà¦¤ à¦Ľà¦°
Ġà¦¤ à¦¹à¦®
Ġà¦¤ à¦ĵà¦«
Ġà¦¤ uhin
Ġà¦ı à¦ĵà¦¯
Ġà¦ı à¦°à¦¶
Ġà¦ı à¦¹à¦¨
Ġà¦ı à¦Ĩà¦°
Ġà¦ı à¦ľà¦®
Ġà¦ı à¦ĵà¦°
à¦¶ à¦ªà¦¨
à¦¶ à¦ĺ
à¦¶ à¦ĵà¦¯
à¦¶ à¦¬à¦ª
à¦¶ à¦¤à¦¨
à¦¶ à¦ķà¦¤
à¦¶ à¦ļà¦²
à¦¶ à¦°à¦ĩ
à¦¶ à¦¦à¦²
à¦¶ à¦ªà¦ķ
à¦¶ à¦¸à¦Ļ
à¦¶ à¦ľà¦¯
à¦¶ à¦°à¦°
à¦¶ à§Łà¦Ĺ
à¦¶ à¦ĺà¦£
à¦¶ à¦Ĩà¦ĩà¦¨
à¦¼à§ĩ .
à¦¼à§ĩ à§ĩ
à¦¼à§ĩ à¦ĥ
à¦¼à§ĩ âĢ¦âĢĿ
à¦¼à§ĩ à¥¥
à¦¼à§ĩ ...
à¦¼à§ĩ ):
Ġà¦ħ à¦ķà¦Ł
Ġà¦ħ à¦ĸà¦²
Ġà¦ħ à¦ķà¦¬
Ġà¦ħ à¦Łà¦ķ
Ġà¦ħ à¦łà¦¨
Ġà¦ħ à¦Ľà¦²
Ġà¦ħ à¦ĺà¦Ł
à¦ĸ à§Ł
à¦ĸ à¦ł
à¦ĸ à¦¬à¦¤
à¦ĸ à¦ĺà¦£
à¦ĸ à¦¶à¦¶
à¦ĸ à¦ľà¦¨à¦ķà¦Ń
à¦Ĺ à¦ķà¦¤
à¦Ĺ à¦®à¦²
à¦Ĺ à¦°à¦²
à¦Ĺ à¦®à¦°
à¦Ĺ à¦ªà¦¦
à¦Ĺ à¦ľà¦²
à¦Ĺ à¦®à¦¬
à¦Ĺ à¦ķà¦£
à¦Ĺ à¦¸à¦¦
à¦Ĺ à¦¸à¦Ń
à¦Ĺ à¦§à¦¦
à¦Ĺ à¦°à¦ľà¦²
à¦· à¦ĺ
à¦· à¦¤à¦¨
à¦· à¦¹à¦°
à¦· à¦®à¦°
à¦· à§İà¦ķ
à¦· à¦ļà¦ķ
à¦· à¦ľà¦²
à¦· à¦ľà¦®
à¦· à¦¶à¦¤
à¦· à¦°à¦¹à¦¸
à¦· à¦ªà¦£à¦ķ
à¦§ à¦ľà¦¨
à¦§ à¦¤à¦¨
à¦§ à¦ªà¦ķ
à¦§ à¦ļà¦°
à¦§ à§İà¦¸
à¦§ à¦¬à¦²à¦¤
à¦§ à¦ħà¦²
à¦¡ à¦Ľ
à¦¡ à¦²à¦¬
à¦¡ à¦¨à¦ķ
à¦¡ à¦ıà¦°
à¦¡ à¦ķà¦Ń
à¦¡ à¦ľà¦Ł
à¦¡ à¦¬à¦ľ
Ġà¦¯ à¦°
Ġà¦¯ à¦¡
Ġà¦¯ à¦®à¦ķ
Ġà¦¯ à¦¤à¦¬à¦¡
Ġà¦¯ à¦¬à¦¨à¦¦
à¦ļ à¦·
à¦ļ à¦°à¦¤
à¦ļ à¦ĺ
à¦ļ à¦°à¦¸
à¦ļ à¦ļà¦¨
à¦ļ à¦®à¦°
à¦ļ à¦°à¦ª
à¦ļ à¦¶à¦ķ
à¦ļ à¦ªà¦Ł
à¦ļ à¦¬à¦¯
à¦ļ à¦®à§Ł
à¦ļ à¦¸à¦¹
à¦¹ à¦Ľ
à¦¹ à¦ĺ
à¦¹ à¦ķà¦²
à¦¹ à¦¤à¦¬
à¦¹ à¦¦à¦°
à¦¹ à¦²à¦¤
à¦¹ à¦¨à¦ĵ
à¦¹ à¦°à¦²
à¦¹ à¦ĵà§Ł
à¦¹ à¦®à¦ķ
à¦¹ à¦°à¦ĩ
à¦¹ à§İà¦ķ
à¦¹ à¦¶à¦ķ
à¦¹ à§°
à¦¹ à¦ĺà¦°
à¦¹ à¦¬à¦¶
à¦¹ à¦ĺà¦¨
à¦¹ à¦¬à¦²à¦¤
à¦¹ à¦ĸà¦£
à¦¹ à¦ľà¦¨à¦ķà¦Ń
Ġà¦ķà¦° à¦Ĺ
Ġà¦ķà¦° à¦Ń
Ġà¦ķà¦° à¦°à¦¸
à§Ł à§Ł
à§Ł à¦¨à¦¤
à§Ł à¦ķà¦°
à§Ł à¦¦à¦°
à§Ł à¦¨à¦ĵ
à§Ł à¦ķà¦¦
à§Ł à¦ķà¦°à¦£
à§Ł à¦®à¦ª
à§Ł à¦°à¦¨à¦®
Ġà¦Ĺ à¦ľà¦¨
Ġà¦Ĺ à¦¹à¦°
Ġà¦Ĺ à¦¨à¦¨
Ġà¦Ĺ à§°
Ġà¦Ĺ à¦ľà¦Ĺ
à¦£ à¦¡
à¦£ à¦Ŀ
à¦£ à¦Ĺà¦°
à¦£ à¦¸à¦¤
à¦£ à¦¢
à¦£ à¦ķà¦°à¦£
à¦£ à¦¸à¦ĸ
à¦£ Åĵ
à¦ģ !
à¦ģ -
à¦¥ à¦®à¦¨
à¦¥ à¦¬à¦²
à¦¥ à¦²à¦ķ
à¦¥ à¦¬à¦¤
à¦¥ à¦¨à¦ĵ
à¦¥ à¦¸à¦°
à¦¥ à¦¤à¦¤
à¦¥ à¦¨à¦¸
à¦¥ à¦¨à¦¦à¦£
Ġà¦¶ à¦°à¦¬
Ġà¦¶ à¦ĩà¦²
Ġà¦¶ à§°
Ġà¦¶ à¦°à¦¸à¦¨
Ġà¦ľ à¦£
Ġà¦ľ à¦²à¦ķà¦¨
Ġà¦ļ à¦¸
Ġà¦ļ à¦¦
Ġà¦ļ à¦ĩ
Ġà¦ļ à¦ķà¦¬
Ġà¦ļ à¦Łà¦²
Ġà¦ļ à¦Łà¦¬
Ġà¦Ń à¦Ń
Ġà¦Ń à¦²à¦¤
Ġà¦Ń à¦Ĺà¦¨
Ġà¦Ń à¦¬à¦¸
Ġà¦Ń à¦¬à¦¦
Ġà¦Ń à¦Ĺà¦®
Ġà¦Ń à¦ķà¦Ńà¦ķ
Ġà¦° à¦ĸ
Ġà¦° à¦¬à¦¨
Ġà¦° à¦¶à¦¨
Ġà¦° à¦®à¦¤
Ġà¦° à¦®à¦¯
Ġà¦° à¦¹à¦²
Ġà¦° à¦¹à¦¨
Ġà¦° à¦ľà¦°
Ġà¦° à¦¥à¦¨
Ġà¦° à¦®à¦¸
Ġà¦° à¦®à¦ª
Ġà¦° à¦ľà¦Ĺ
Ġà¦° à¦¸à¦®à§Ł
Ġà¦° à¦£à¦¦
Ġà¦° à¦Ĺà§ľ
Ġà¦° afi
à§ĩà¥¤ âĢ¦.
à¦ĵ à¦ªà¦°
à¦ĵ à¦°à¦¦
à¦ĵ à¦®à¦°
à¦ĵ à¦°à¦Ł
à¦ĵ à¦°à¦ķà¦®
à¦ĵ à¦²à¦Ł
à¦ĵ à¦ıà¦¸
à¦ĵ à¦ĵà¦¤
à¦Ń à¦·
à¦Ń à¦¨à¦ķ
à¦Ń à¦Ĺà¦¬à¦¨
Ġà¦ıà¦ķ à¦¤à¦°
Ġà¦ıà¦ķ à¦¬à¦°
Ġà¦ıà¦ķ à¦°à¦¥
Ġà¦ıà¦ķ à¦ļà¦¨
Ġà¦ıà¦ķ à¦¸à¦®
Ġà¦ıà¦ķ à¦¸à¦¤
Ġà¦ıà¦ķ à¦·à¦Ł
Ġà¦ıà¦ķ à¦¶à¦°
Ġà¦ıà¦ķ à¦ıà¦ķà¦¦
Ġà¦ıà¦ķ à¦²à¦«
Ġà¦ıà¦ķ à¦Ĩà¦§
à¦¼à¦¾ âĢĶâĢľ
à¦¼à¦¾ âĢĻ-
à§ĥ :
à§ĥ âĢĮ
Ġà¦Ľ à¦¶
Ġà¦Ľ à¦«
Ġà¦Ľ à¦ķà¦Ł
Ġà¦Ľ à§Łà¦¨
Ġà¦Ľ à¦²à¦Ľ
Ġà¦Ľ à¦ĩà¦ĵà¦¯
Ġà¦Ĩà¦® à¦ķ
Ġà¦Ĩà¦® à¦ª
Ġà¦Ĩà¦® à¦¬à¦¨
Ġà¦Ĩà¦® à¦«
à¦ł à¦ªà¦°
à¦ł à¦ĺ
à¦ł à¦°à¦¸
à¦ł à¦ķà¦¸
à¦ł à¦ĸà¦£
Ġà¦ī à§Ł
Ġà¦ī à¦¸à¦ª
Ġà¦ī à¦°à¦°
Ġà¦ī à¦ĵà¦°
Ġà¦ī à¦ĩà¦ľ
Ġà¦ī à¦ĩà¦Łà¦¨
à§Ĥ !
à¦¾à¦ģ ;
à¦¾à¦ģ à¦¾
à¦¾à¦ģ à§ģ
à¦¾à¦ģ à¦ģ
à¦¾à¦ģ âĢĿà¥¤
à¦¾à¦ģ !âĢĻ
à¦¾à¦ģ ...
à¦Ļ à¦¨à¦Ł
à¦Ļ à¦¨à¦ĩ
Ġà¦ĵ à§İ
Ġà¦ĵ à¦ªà¦¥
Ġà¦¥ à¦¨
Ġà¦¥ à¦Ł
Ġà¦¥ à¦°à¦¹à¦°
à§ĩ, /
à§ĩ, âĢ¦
Ġà¦¬à¦² à¦®
Ġà¦¬à¦² à¦¸
Ġà¦¬à¦² à¦ĩ
Ġà¦¬à¦² à¦ľ
Ġà¦¬à¦² à¦¬à¦¨
Ġà¦¬à¦² à¦¦à¦°
Ġà¦« à¦°à¦ļ
Ġà¦« à¦Łà¦°
Ġà¦Ĩà¦° à¦ļ
Ġà¦Ĩà¦° à¦Ĩà¦°
Ġà¦Ĩà¦° IF
Ġà¦ĸ à¦¸à¦¬
Ġà¦ĸ à¦°à¦¶
Ġà¦ĸ à¦¨à¦ķ
à¦°à¦¤ à¦ľ
à¦°à¦¤ à¦¹
à¦°à¦¤ à¦Ļ
à¦°à¦¤ à¦¨à¦¬
à¦°à¦¤ à¦®à¦¯
à¦°à¦¤ à¦®à¦£
à¦°à¦¤ à¦¨à¦¦
à¦°à¦¤ à¦ķà¦¥
Ġà¦ħà¦¨ à¦ªà¦¨
Ġà¦ħà¦¨ à¦¬à¦¹
Ġà¦ħà¦¨ à¦²à¦ª
Ġà¦ħà¦¨ à¦¬à¦°à¦²
Ġà¦§ à¦¬à¦¨
Ġà¦§ à¦°à¦ķ
Ġà¦§ à¦²à¦¤
Ġà¦§ à¦®à¦°
Ġà¦§ à§ľà¦ķ
Ġà¦ªà¦° à¦¯
Ġà¦ªà¦° à¦®à¦¬
Ġà¦ªà¦° à¦¶à¦®
Ġà¦ªà¦° à¦¥à¦®
Ġà¦ªà¦° à¦£à¦¶
Ġà¦¸à¦® à¦²
Ġà¦¸à¦® à¦°à¦ķà¦¨
Ġà¦¸à¦® à¦¬à§Łà¦¸
à¦¾, /
ĠâĢ ¨
à¦¬à¦¨ à¦²à¦ķ
à¦¬à¦¨ à¦ªà¦¦
à¦¬à¦¨ à¦Ľà¦¬
à¦¬à¦¨ à¦®à¦¦
à¦¬à¦¨ à¦ľà¦Ļ
à¦¬à¦¨ à¦°à¦¹à¦¸
à¦¼à¦¿ à¦ģ
à¦¼à¦¿ --
à¦¼à¦¿ âĢĻà¥¤
à§ľ à¦ĸ
à§ľ à¦¤à¦°
à§ľ à¦«
à§ľ à¦¸à¦®
à¦ĸà¦¨ à¦²
à¦ĸà¦¨ à¦ķ
à¦ĸà¦¨ à¦Ł
à¦ĸà¦¨ à¦ªà¦¦
Ġà¦ĺ à¦ª
Ġà¦ĺ à¦°à¦£
Ġà¦ĺ à¦¨à¦¨
Ġà¦ĺ à¦¨à¦¸
Ġà¦®à¦¨ à¦¹
Ġà¦®à¦¨ à¦®à¦¨
Ġà¦®à¦¨ à¦°à¦ķ
Ġà¦®à¦¨ à¦¶à¦¨
Ġà¦®à¦¨ à¦¨à¦¦
Ġà¦®à¦¨ à¦ķà¦¥
à¦ªà¦° à¦ľà¦¨
à¦ªà¦° à¦¶à¦®
à¦°à¦£ à¦ľ
à¦°à¦£ à¦ķà¦ķ
à¦°à¦£ à¦¬à¦¶à¦¤
à¦¿à¥¤ à¥¤âĢĻ
à¦®à¦¨ à¦¤
à¦®à¦¨ à¦¯
à¦®à¦¨ à¦ª
à¦®à¦¨ à¦ľ
à¦®à¦¨ à¦¶
à¦®à¦¨ à¦¨à¦¶
à¦Ŀ à¦Ń
à¦Ŀ à¦°à¦£
à¦Ŀ à¦Ŀ
à¦Ŀ à¦ªà¦¨
à¦Ŀ à¦°à¦¬
à¦Ŀ à¦ļà¦²
à¦Ŀ à¦¨à¦ķ
à¦Ŀ à¦®à¦§
à¦Ŀ à¦Ĩà¦ķ
à¦Ŀ à¦®à¦Ŀà¦®
à¦ľà¦¨ à¦®à¦¨
à¦ľà¦¨ à¦¸à¦®
à¦ľà¦¨ à¦ªà¦¥
à¦ľà¦¨ à¦¤à¦®
à¦ŀ à¦ĩ
à¦ŀ à¦§
à¦ŀ à¦ļ
à¦ŀ à¦¹
à¦ŀ à¦ļà¦°
à¦ŀ à¦¤à¦¤
à¦¤à¦° à¦¥
à¦¤à¦° à¦ªà¦°
à¦¤à¦° à¦®à¦¨
à¦¤à¦° à¦ĺ
à¦¤à¦° à¦Ĺà¦¤
à¦¤à¦° à¦¹à¦¸
à¦¤à¦° à¦¸à¦®
à¦¤à¦° à¦®à¦£
à¦¤à¦° à¦ľà¦²
à¦¤à¦° à¦ĸà¦°
à¦¤à¦° à¦ķà¦£
à¦¤à¦° à¦®à¦¹à¦²
à¦« à¦¬
à¦« à¦ĩ
à¦« à¦°à¦¸
à¦« à¦°à¦¹
à¦« à¦ľà¦²
à¦« à¦«à¦°
à¦« à§Łà¦¸
à¦ī à¦¨à¦¤
à¦ī à¦ķà¦²
à¦ī à¦²à¦¨
à¦ī à§İà¦ķ
à¦ī à¦ĩà¦ķ
à¦ī à¦ªà¦¡
à¦ī à¦łà¦¨
à¦ī à¦ªà¦Ĺ
à¦ī à¦·à¦¨
à¦¿, '
à¦ªà¦¨ à¦²
à¦ªà¦¨ à¦¯
à¦ªà¦¨ à¦ĸ
à¦ªà¦¨ à¦§
à¦ªà¦¨ à¦¸à¦°
à¦ªà¦¨ à¦¶à¦¬
à¦ªà¦¨ à¦¤à¦®
Ġà¦Ĩà¦² à¦®à¦¬
Ġà¦Ĩà¦² à¦¹à¦ľ
à¦°à¦¬ à¦ķà¦°
à¦°à¦¬ à¦Ľà¦°
à¦Ĩ à¦°à¦¸
à¦Ĩ à¦¦à¦¨
à¦Ĩ à¦¹à¦¸
à¦Ĩ à¦ĵà§Ł
à¦Ĩ à¦¸à¦°
à¦Ĩ à¦°à¦ª
à¦Ĩ à¦°à¦Ł
à¦Ĩ à¦§à¦°
à¦Ĩ à¦ĩà¦¤
à¦Ĩ à¦Ĺà¦®
à¦Ĩ à¦¹à¦°à¦£
à¦Ĩ à¦¨à¦Ľ
à¦Ĩ à¦Łà¦ª
à¦Ĩ à¦ĸà¦£
à¦Ĩ à¦ļà¦®
à¦Ĩ à¦¹à¦¬
à¦Ĩ à¦¬à¦¹à¦®
à¦Ĩ à¦īà¦¶
à§İ à¦Ń
à§İ à¦ļà¦¨
à§İ à¦¸à¦®
à§İ à¦ªà¦²
à§İ à¦Ĺà¦£
à¦ı à¦ı
à¦ı à¦¨à¦Ł
à¦ı à¦®à¦¬
à¦ı à¦®à¦¸
à¦ı à¦¸à¦Ł
âĢĿ âĢ¦
âĢĿ âĢĵâĢĵ
à¦°à¦ķ à¦ļ
à¦°à¦ķ à¦¦à¦®
à¦°à¦ķ à¦Łà¦°
à¦°à¦ķ à¦Ĺà¦£
à¦°à¦ķ à¦ĸà¦ļ
Ġà¦¸à¦¬ à¦¬
Ġà¦¸à¦¬ à¦Ń
Ġà¦¸à¦¬ à¦²à¦ķ
Ġà¦¸à¦¬ à¦°à¦Ļ
à¦¬à¦° à¦¹à¦¸
à¦¬à¦° à¦®à§Ł
Ġà¦¬à¦²à¦² à¦Ľ
Ġà¦¬à¦²à¦² à¦¡
Ġà¦¬à¦²à¦² à¦¥
Ġà¦¬à¦²à¦² à¦¬à¦¨
Ġà¦¬à¦²à¦² à¦®à¦¨
Ġà¦¬à¦²à¦² à¦¤à¦¬
Ġà¦¬à¦²à¦² à¦ĩà¦¨
Ġà¦¬à¦²à¦² à¦ķà¦¬
Ġà¦¬à¦²à¦² à¦Ĩà¦ľ
Ġà¦¬à¦²à¦² à¦®à¦¹
Ġà¦¬à¦²à¦² à¦Ĩà¦ļ
Ġà¦¬à¦²à¦² à¦Ĩà¦¹
Ġà¦¬à¦²à¦² à¦ıà¦¦
Ġà¦¬à¦²à¦² à¦¦à¦°à¦ľ
Ġà¦Ĩà¦¸ à¦¨à¦ĵ
Ġà¦Ĩà¦¸ à¦°à¦ĩ
Ġà¦Ĩà¦¸ à¦¨à¦¸
Ġà¦Ł à¦²à¦¬
Ġà¦Ł à¦¨à¦Ł
Ġà¦Ł à¦ķà¦¦
Ġà¦Ł à¦¸à¦Łà¦¸
Ġà¦Ĩà¦Ľ à§Ł
âĢĻ )à¥¤
Ġà¦ķà¦¥ à¦¯
à¦¼à¥¤ *
Ġà¦¹à¦² à¦¬
Ġà¦¹à¦² à¦ª
Ġà¦¹à¦² à¦ı
Ġà¦¡ à¦°à¦®
à§Ī ?
à§Ī à¦ģ
à§Ī à¦Ĥ
Ġà¦ĩ à¦¤à¦¨
Ġà¦ĩ à¦²à¦¤
Ġà¦ĩ à¦Łà¦ķ
Ġà¦ĩ à¦¦à¦®
Ġà¦ĩ à¦¸à¦Ł
Ġà¦ĩ à¦Łà¦ª
Ġà¦ĩ à¦īà¦¤
Ġà¦ĩ à¦·à§İ
Ġà¦ĩ à¦¤à¦°à¦¬
à¦ĺ à¦§
à¦ĺ à§İ
à¦ĺ à¦°à¦¸
à¦ĺ à¦Ĺà¦°
à¦ĺ à¦¨à¦ķ
à¦ĺ à¦Ŀà¦°
à¦ĺ à¦ĺà¦¨
à¦ĺ à¦ķà¦£
Ġà¦®à¦¤ à¦¤
à§Į !
à§Į âĢĵ
Ġà¦ľà¦¨ à¦ĩ
Ġà¦ľà¦¨ à¦ķà¦¦
Ġà¦¹à¦¬ à¦ĩ
Ġà¦§à¦° à¦¨à¦ķ
Ġà¦Ŀ à¦¤
Ġà¦Ŀ à¦£
Ġà¦Ŀ à¦Ĺà¦¬
Ġà¦Ŀ à¦Łà¦¨
ĠâĢĺ âĢĵ
Ġà¦ħà¦¬ à¦Ń
à¦°à¦® à¦Ĺà¦¨
à§ģà¦ģ âĢĻ
Ġà¦ł à¦¸
Ġà¦ł à¦Ł
à¦·à¦£ à¦°
à¦·à¦£ à¦ŀ
à¦·à¦£ à¦¶à¦ķ
à¦¨à¦¤ à¦Ń
Ġà¦ķà¦°à¦² à¦®
Ġà¦ķà¦°à¦² à¦«
Ġà¦¬à¦¸ à¦ķ
Ġà¦¬à¦¸ à¦¨à¦Ĺ
Ġà¦¬à¦¸ à¦¨à¦Ń
Ġà¦Ĩà¦ľ à¦Ł
Ġà¦¢ à¦²à¦Ľ
à¦¤à¦¨ à¦ľà¦¨
à¦¤à¦¨ à¦ªà¦¨
à¦¤à¦¨ à¦®à¦¯
à¦ĥ ;
à§ĭà¦ģ à¥¤
à¦ħ à¦¨à¦¬
à¦ħ à¦Ĺà¦¤
à¦ħ à¦¯à¦¤
à¦ħ à¦¹à¦°
à¦ħ à¦¬à¦¦
à¦ħ à¦¶à¦ķ
à¦ħ à¦¶à¦°
à¦ħ à¦¤à¦¸
à¦ħ à¦ľà¦ª
à¦ħ à¦Ńà§Ł
à¦ħ à¦Ĺà¦¸
à¦ħ à¦ķà¦²à¦Ļ
Ġà¦¬à¦¨ à¦Ľ
Ġà¦¬à¦¨ à¦ľà¦¨
Ġà¦¬à¦¨ à¦ľà¦²
à¦ķà¦² à¦ª
à¦ķà¦² à¦¬à¦¸à¦¨
Ġà¦Ĩà¦¬ à¦ľ
Ġà¦Ĩà¦¬ à¦¹à¦¨
Ġà¦Ĩà¦¬ à¦¹à¦¸à¦Ļ
Ġà¦ªà¦¥ à¦¦
Ġà¦ªà¦¥ à¦Ľ
Ġà¦ªà¦¥ à¦§
Ġà¦ªà¦¥ à¦ªà¦°
Ġà¦ħà¦® à¦°à¦¨
Ġà¦ħà¦® à¦°à¦ª
Ġà¦Ĩà¦Ĺ à¦ļ
Ġà¦Ĺà¦² à¦¸
à¦ķà¦Ł à¦¤à¦°
à¦ķà¦Ł à¦°à¦¦
à¦¸à¦¬ à¦¤
Ġà¦ħà¦¸ à¦¸
Ġà¦ħà¦¸ à¦®à¦¸
Ġà¦¤à¦¬ à¦ķ
à§ĩà¦ģ à¥¤
à¦°à¦¥ à¦¸
Ġà¦Ĩà¦ķ à¦¶
à¦¤à¦¬ à¦ĩ
à¦°à¦¸ à¦²
à¦°à¦¸ à¦ĩ
à¦°à¦¸ à¦ĸ
à¦°à¦¸ à¦«
à¦°à¦¸ à§İ
à¦°à¦¸ à¦°à¦®
à¦°à¦¸ à¦®à¦¯
à¦¨à¦¬ à¦Ń
à¦¨à¦¬ à¦¤à¦°
à¦¨à¦¬ à¦ľà¦®
à¦¾à¦Ĥ /
à¦¾à¦Ĥ !âĢĿ
Ġà¦Ĩà¦¶ à¦¨
Ġà¦Ĩà¦¶ à¦°à¦«
Ġà¦Ĩà¦ªà¦¨ à¦¹
à¦¦à¦¨ à¦ĸ
à¦¦à¦¨ à¦°à¦¤
à¦¦à¦¨ à¦ķà¦°
à¦¦à¦¨ à¦®à¦²
à¦¦à¦¨ à¦Ĺà¦°
à¦¦à¦¨ à¦ļà¦°
à¦ķà¦¤ à¦¶à¦¤
Ġà¦¹à¦¤ à¦®
Ġà¦¬à¦° à¦ĵ
Ġà¦¬à¦° à¦¦à¦¨
Ġà¦¬à¦° à¦Ĺà¦¦
à§ĩ? ---
à§ĩ? ''
Ġà¦ıà¦² à¦Ń
Ġà¦ıà¦² à¦ıà¦¸
Ġà¦Ĩà¦¨ à¦°
Ġà¦Ĩà¦¨ à¦ª
Ġà¦Ĩà¦¨ à¦¡
Ġà¦Ĩà¦¨ à¦Ĩà¦ĩà¦¡
Ġà¦īà¦¦ à¦ķ
Ġà¦īà¦¦ à¦®
Ġà¦ķà¦°à¦Ľ à¦¸
à¦¦à¦° à¦¶
à¦¦à¦° à¦¦à¦°
Ġà¦ħà¦° à¦¡
Ġà¦ħà¦° à¦ľà¦¨
à¦Ĺà¦² à¦¤
à¦Ĺà¦² à¦¯
à¦Ĺà¦² à¦¹
à¦Ĺà¦² à¦ĺ
à¦Ĺà¦² à¦®à¦¤
Ġà¦ľà¦² à¦¤à¦°
Ġà¦ľà¦² à¦ĺ
Ġà¦ľà¦² à¦¹à¦¸
Ġà¦ľà¦² à¦®à¦£
Ġà¦ľà¦² à¦®à§Ł
Ġà¦ľà¦² à¦®à¦¹
Ġà¦ľà¦² à¦ľà¦®
à¦²à¦¤ à¦¤
à¦²à¦¤ à¦ķ
à¦Ĺà¦¤ à¦¤
à¦¿à¦Ĥ ;
à¦¿à¦Ĥ âĢĿà¥¤
à¦¿à¦Ĥ âĢ¦âĢĿ
à¦¿à¦Ĥ ),
à¦¿à¦Ĥ âĢĻâĢĶ
à¦¶à¦¨ à¦ļ
à¦¶à¦¨ à¦¹
à¦¶à¦¨ à¦¶à¦¨
à¦®à¦¤ à¦Ł
Ġà¦ħà¦¤ à¦ªà¦°
à¦§à¦ķ à¦ľ
à¦°à¦¹ à¦¦
à¦°à¦¹ à¦°à¦¤
à¦°à¦¹ à¦®à¦¤
à¦°à¦¹ à¦°à¦ĩ
Ġà¦°à¦ķ à¦¸
à¦¹à¦¸ à¦¹
à¦ļà¦¨ à¦¦
à¦²à¦¨ à¦°
à¦²à¦¨ à¦²
à¦²à¦¨ à¦°à¦¤
à¦²à¦¨ à¦ªà¦¨
à¦²à¦¨ à¦ķà¦°
à¦²à¦¨ à¦Ĺà¦°
Ġà¦®à¦¹ à§ľ
Ġà¦¸à¦° à¦¯
Ġà¦¸à¦° à¦«à¦°
Ġà¦¸à¦° à¦ªà¦ŀ
à¦¬à¦¤ à¦ĵ
à¦¬à¦¤ à¦Ĺà¦¹
à¦¨à¦ĵ à¦¶
à¦¨à¦ĵ à¦Ĺà¦¤
à¦ĩà¦² à¦°
à¦ĩà¦² à¦ľ
à¦ĩà¦² à¦Łà¦°
à¦®à¦² à¦¸
à¦®à¦² à¦ĩ
à¦¯à¦¤ à¦ļ
à¦ĸà¦² à¦ĵ
à¦§à¦¨ à¦²
à¦§à¦¨ à¦¯
à¦§à¦¨ à¦ĸ
à¦§à¦¨ à¦²à¦¬
à¦²à¦¬ à¦ĺà¦¨
à§ĩâĢĶ '
à§ĩâĢĶ -
à§ĩâĢĶ âĢĶ
Ġà¦¨à¦¦ à¦¶
à¦°à¦¦ à¦Ĺ
à¦°à¦¦ à¦ĵ
à¦°à¦¦ à§Łà¦¸
à¦°à¦ľ à¦ľ
à¦°à¦ľ à¦Ļ
Ġà¦ħà¦ª à¦ľ
Ġà¦ħà¦ª à¦ļà¦¨
à¦°à¦² à¦ª
à¦°à¦² à¦Ĺ
à¦°à¦² à¦Ļ
Ġà¦ķà¦² à¦®à¦ķ
Ġà¦ķà¦² à¦®à¦ª
Ġà¦ķà¦² à¦¹à¦ĩ
Ġà¦ħà¦§ à¦¬
à¦¼à§ĭ !âĢĿ
à¦ļà¦² à¦ª
à¦ļà¦² à¦ĩ
à¦ļà¦² à¦¹
Ġà¦¸à¦¹ à¦°
Ġà¦¸à¦¹ à¦ħà¦¸
Ġà¦¸à¦¹ à¦ħà¦¬à¦¸
à¦ªà¦¤ à¦¤
à¦®à¦ķ à¦¨
à¦¹à¦° à¦ĵ
Ġà¦ıà¦¤ à¦²
à¦¸à¦¨ à¦®
à¦¸à¦¨ à¦ª
à¦¸à¦¨ à¦Ĺ
à¦¸à¦¨ à¦¹
à¦ĩà¦¨ à¦ļ
à¦ĩà¦¨ à¦¬à¦¨
à¦ķà¦¬ à¦ľ
à¦ķà¦¬ à¦°à¦£
à¦ıà¦ĩ à¦®
à¦ıà¦ĩ à¦¦
à§ĩ- âĢľ
à§ĩ- ---
Ġà¦ķà¦¬ à¦¯
Ġà¦ķà¦¬ à¦¹
à¦°à¦ªà¦° à¦¦
à¦¸à¦® à¦®
à¦¸à¦® à¦§
à¦Ńà¦¬ à¦®
à¦Ńà¦¬ à¦¦
à¦Ńà¦¬ à¦Ł
à¦Ńà¦¬ à¦¶à¦ķ
à¦Łà¦ķ à¦¦
à¦Łà¦ķ à¦¶
à¦¹à¦² à¦ĵà¦¯
Ġà¦ĺà¦Ł à¦ľ
Ġà¦ĵà¦ªà¦° à¦ķ
Ġà¦ĩà¦¤ à¦°à¦¤
à¦¯à¦¨ à¦Ĺà¦°
Ġà¦ķà¦¤ à¦¤
Ġà¦ķà¦¤ à¦®à¦¤
âĢ¦ "
âĢ¦ !âĢĿ
âĢ¦ âĢĻà¥¤
à¦¤à¦² à¦ĵ
à¦¤à¦² à¦Ń
à¦¤à¦² à¦¶à¦¯
Ġà¦¬à¦¹ à¦¬
à¦¾âĢĶ à¥¤
à¦¾âĢĶ âĢĵ
à¦Ĺà¦¨ à¦ĩ
Ġà¦¬à¦Ľà¦° à¦Ńà¦°
à¦Ĺà¦° à¦Ł
à¦Ĺà¦° à¦ĵ
à¦Ĺà¦° à¦Ļ
à§ĩ! ---
à§ĩ! âĢĻâĢĶ
Ġà¦°à¦Ļ à¦®
Ġà¦¸à¦ķ à¦®
Ġà¦¯à¦¤ à¦¸à¦¬
Ġà¦ªà¦¦ à¦ĩ
Ġà¦ªà¦¦ à¦ĵ
Ġà¦ªà¦¦ à¦Ń
Ġà¦ªà¦¦ à¦ĺ
Ġà¦ıà¦Ĺ à¦¬
Ġà¦ıà¦Ĺ à¦ļ
à¦®à¦° à¦¬à¦¨
à¦®à¦° à¦«
à¦¸à¦° à¦Ł
à¦¸à¦° à§İ
à¦°à¦Ń à¦¯
à¦°à¦Ń à¦®à§Ł
à¦ªà¦¦ à¦¹
à¦ªà¦¦ à¦£
à¦¦à§Ł à¦Ļ
à¦¦à§Ł à¦¯à¦¨
à¦¦à§Ł à¦¤à¦²
à¦¦à§Ł à¦®à¦£
Ġà¦¶à¦° à¦Ĺ
Ġà¦¶à¦° à¦ļ
Ġà¦¶à¦° à¦Ļ
à¦°à¦ĵ à¦¶à¦¨à¦ķ
à¦¶à¦¬ à¦§
à¦¶à¦¬ à¦ļà¦°à¦£
Ġà¦ħà¦Ĺ à¦£à¦¤
à¦ªà¦¥ à¦°
à¦ªà¦¥ à¦¯
à¦ªà¦¥ à¦¬
à¦ªà¦¥ à¦ĺ
Ġà¦¨à§Ł à¦ĩ
à¦¼à§ĩà¥¤ "
Ġà¦ħà¦®à¦² à¦¸
Ġà¦ħà¦®à¦² à¦Ń
à¦®à¦£ à¦®
à¦®à¦£ à¦¦à¦²
à¦¿? (
à¦ıà¦ķ à¦¹
à¦ıà¦ķ à¦°à¦ķà¦®
à¦ıà¦ķ à¦Ŀà¦²à¦ķ
Ġà¦ħà¦¥ à¦ĩ
âĢĮ ,
âĢĮ à¥¤
âĢĮ âĢĶ
Ġà¦Ĩà¦°à¦ĵ à¦ĩ
à¦¾? "
à¦¾? ,
à¦¾? -
à¦¾? à¥¤
à¦¨à¦ķ à¦¦
à¦¨à¦ķ à¦ª
à¦¨à¦ķ à¦·
Ġà¦ħà¦ķ à¦¸à¦¬
à¦¦à¦² à¦®
à¦¦à¦² à¦ª
à¦¦à¦² à¦Ĺ
à¦¦à¦² à¦ĵ
à¦¦à¦² à¦ªà¦¦
à¦°à¦ª à¦¡
à¦°à¦ª à¦£
à¦°à¦ª à¦°à¦¤
Ġà¦ħà¦ªà¦° à¦ª
à¦Łà¦² à¦ĩ
à§Ģà¥¤ "
à§įâĢĮ à§į
à§įâĢĮ âĢ¦
à§įâĢĮ à¥¤âĢĿ
à§įâĢĮ à¥¤âĢĻ
à¦¬à¦¦ à¦¶
à¦¬à¦¦ à¦®à¦¨à¦ķ
Ġà¦«à¦² à¦Ľ
Ġà¦«à¦² à¦Łà¦²
à¦·à¦ķ à¦¸
à¦·à¦ķ à¦ª
à¦·à¦ķ à¦¸à¦®
à¦·à¦ķ à¦®à¦£
à¦¯à¦® à¦¬
à¦¯à¦® à¦Ĺ
à¦¯à¦® à¦§
à¦¯à¦® à¦Ļ
Ġà¦²à¦ķ à¦ļ
à¦°à¦Ł à¦°
à§ģà¦ĥ ,
à§ģà¦ĥ âĢĵ
à¦ħà¦¨ à¦Ĺ
à¦ħà¦¨ à¦Ń
à¦ħà¦¨ à¦²à¦¨
Ġà¦ĵà¦ĩ à¦¯
à¦¤à¦® à¦ŀ
à¦¤à¦® à¦ªà¦¤
à¦¾! "
à¦¾! âĢ¦.
à¦ļà¦ķ à¦®
à¦ľà¦² à¦ĩ
à¦ľà¦² à¦Ĺ
à¦ľà¦² à¦¹
à¦ľà¦² à¦ĵ
à¦ľà¦² à¦Ńà¦°
à¦¼à§ĩ, âĢĻ
à¦®à¦¬ à¦¡
à¦®à¦¬ à¦°à¦£
à¦·à¦¯ à¦ľ
à¦¬à¦ķ à¦ļ
à¦¬à¦ķ à¦¹
à¦¸à¦² à¦ĸ
à¦¸à¦² à¦Ń
Ġà¦ĩà¦¨ à¦ļ
à¦¨à¦¦ à¦¸
à§ĩ; --
à¦¶à¦ķ à¦ĩ
à¦¶à¦ķ à¦£
Ġà¦ıà¦ķà¦¦ à¦«
à¦°à¦Ľ à¦¡
Ġà¦Ĩà¦§ à¦Ń
à§Łà¦¨ à¦ĩ
Ġà¦ĩà¦ļ à¦Ľ
à¦ĩà¦ķ à¦ķ
à¦ĩà¦ķ à¦ª
à§ģâĢĻ !
à§ģâĢĻ âĢĶ
Ġà¦ħà¦¬à¦¸ à¦°à¦ķ
Ġà¦ħà¦² à¦Ł
Ġà¦ħà¦² à¦ĵà¦¯
à¦¯à¦¸ à¦¦
à¦¯à¦¸ à¦°à¦ķ
à¦¬à¦¬ à¦®
à¦¬à¦¬ à¦¹
Ġà¦īà¦ªà¦° à¦Ł
Ġà¦Ńà¦¬ à§İ
à¦¹à¦¨ à¦°
à¦¹à¦¨ à¦Ń
Ġà¦Ĩà¦¸à¦² à¦ĩ
Ġà¦Ĺà¦¤ à¦¦
à¦ĸà¦¬ à¦°à¦£
à¦ķà¦¨ à¦ª
à¦ķà¦¨ à¦¶
à¦ķà¦¨ à¦ļà¦¨
à¦ķà¦¨ à¦Ĺà¦°
à¦ķà¦¨ à¦ľà¦°
à¦¸à¦ķ à¦¬à¦°
Ġà¦ªà¦¤ à¦ªà¦¤
à§° à§Ł
à§° à¦ļà¦²
à§° à¦ªà¦ŀ
à¦¸à¦« à¦Ł
à¦¸à¦« à§ľ
à¦¸à¦« à¦Łà¦ĵà§Ł
Ġà¦¦à¦² à¦¦à¦²
Ġà¦¨à¦¬ à¦Ĺà¦¡
Ġà¦¨à¦¬ à¦Ĺà¦ł
Ġà¦¤à¦² à¦ĵà¦¯
Ġà¦¤à¦² à¦ĵà§Ł
à¦¨à¦¸ à¦ļ
à¦¨à¦¸ à¦ķà¦¨
à¦¼à§Ģ ;
à¦¼à§Ģ âĢĻ
à¦¼à¦¾, -
à¦ªà¦¸ à¦®à¦¯
à¦ĸà¦Ľ à¦¬
à¦¬à¦¶ à¦¦
à¦Ĩà¦ľ à¦®à¦²
à¦¨à¦° à¦ľà¦¨
à¦¨à¦Ĺ à¦£
Ġà¦Ĺà§ľ à¦ªà§ľà¦¤
à¦«à¦² à¦ª
à¦¥à¦° à¦ĺ
à¦¥à¦° à¦ĸà¦ļ
à¦ĩà¦Ł à¦®
à¦ĩà¦Ł à¦ľ
à¦ĩà¦Ł à¦ĵ
à¦ĩà¦Ł à¦ĵà¦¯
Ġà¦¸à¦¹à¦ľ à¦ķ
Ġà¦¸à¦¹à¦ľ à¦¸à¦°à¦²
à¦Ĺà¦ľ à¦ķ
à¦Ĺà¦ľ à¦¸
à¦Ĺà¦ľ à¦¦
à¦Ĺà¦ľ à¦ļ
à¦Ĺà¦ľ à¦Ń
Ġà¦¸à¦®à§Ł à¦¹
Ġà¦Ĩà¦¹ à¦°à¦£à¦ķ
Ġà¦ĭ à¦®à¦¨
Ġà¦ĭ à¦ķà¦¬
à§ĩâĢĵ à¥¤
à¦Ĩà¦° à¦«
à¦Łà¦¬ à¦Ł
à¦Łà¦¬ à§ľ
à¦īà¦¨ à¦ľ
Ġà¦¬à¦²à¦¬ à¦ĩ
à¦īà¦² à¦§à¦°
Ġà¦°à¦ĩà¦² à¦¬
à¦¿! âĢĵ
à¦¿! âĢ¦
à¦¿! ---
Ġ, âĢĶ
Ġà¦ĺà¦¨ à¦®
Ġà¦ĺà¦¨ à¦¬à¦°
Ġà¦ĺà¦¨ à¦ªà¦¤
Ġà¦ĺà¦¨ à¦ªà¦ķ
Ġà¦ķà¦¨ à¦ªà¦Ł
à¦Ĺà¦¬ à§İ
à¦Ĺà¦¬ à¦¦à¦²
à¦Ĺà¦¬ à¦Ĺà¦Ł
à¦°à¦Ĺ à¦ķ
à¦°à¦Ĺ à¦®à¦¨
à¦°à¦®à¦£ à¦²
à¦°à¦®à¦£ à¦®
à¦°à¦®à¦£ à¦ľ
à¦°à¦®à¦£ à¦Ĺ
à¦°à¦®à¦£ à¦°à¦¤
à¦°à¦®à¦£ à¦Ĺà¦²
Ġà¦Ľà¦¨ à¦Ľà¦¨
à¦ķà¦¶ à¦¸
à¦·à¦® à¦®
à¦ıà¦¬ à¦®à¦¸
à¦ľà¦¸ à¦¹
ĠâĢĵ âĢĵ
à¦§à¦¬ à¦ĵ
à¦§à¦¬ à¦§à¦¬
à§ĭâĢĶ "
à¦¨à¦¯ à¦ľ
Ġà¦¦à¦¶ à¦°
Ġà¦¦à¦¶ à¦ª
Ġà¦¦à¦¶ à¦ĸ
Ġà¦¦à¦¶ à¦ıà¦Ĺ
à¦®à§Ł à¦°
à¦®à§Ł à¦¹
à¦ķà¦¦ à¦£
à¦ķà¦¦ à¦«
Ġà¦īà§İà¦¸ à¦¸
Ġà¦īà§İà¦¸ à¦Ń
Ġà¦¬à¦Ł à¦ª
à¦Ĩà¦² à¦ĵà¦¯
à¦Ĩà¦² à¦Ĺà¦°
à¦ķà¦¡ à¦¨
Ġà¦¸à¦ļ à¦²à¦¤
Ġà¦ļà¦° à¦ļà¦°
Ġà¦Ĩà¦Ń à¦°à¦£à¦¹
à¦¯à¦¯ à¦ľ
Ġà¦Ĺà¦£ à¦ķ
Ġà¦Ĺà¦£ à¦Ĺ
Ġà¦¬à¦ķ à¦¸
à¦¾âĢĵ ?
à¦¾âĢĵ âĢĵ
à¦¾âĢĵ âĢľ
à§ĭ? "
à¦Łà¦¨ à¦Ĺà¦°
Ġà¦¬à§Ł à¦·
Ġà¦¬à§Ł à¦ķà¦Ł
à¦ľà¦¬ à¦¸à¦¨
à§ĭ- --
Ġà¦ķà¦²à¦ķ à¦¥
Ġà¦ķà¦²à¦ķ à¦¬à¦ľ
Ġà¦Ĩà¦¦à¦° à¦Ł
Ġà¦¬à¦ī à¦¤
à¦¶à¦ª à¦ŀ
à¦®à¦°à¦£ à¦²
à¦®à¦°à¦£ à¦¬
à¦®à¦°à¦£ à¦®
à¦®à¦°à¦£ à¦ļ
à¦®à¦°à¦£ à¦¹
à¦®à¦°à¦£ à¦¸à¦Ń
à¦²à¦® à¦ĸ
à¦²à¦¯ à¦ľ
à¦Ĺà¦® à¦ĩ
à¦Ĺà¦® à¦¹
à¦²à¦¸ à¦¹
à¦²à¦¸ à¦ıà¦°
Ġà¦§à¦¨ à¦Ŀà¦°
à¦²à¦Ĺ à¦ª
à¦²à¦Ĺ à¦¡
à¦²à¦Ĺ à¦£
Ġà¦¬à§ľ à¦ķà¦°
Ġà¦īà§İà¦¸à¦¬ à¦®à¦¯
à¦¹à¦°à¦£ à¦ķ
Ġà¦īà¦ªà¦¸ à¦ļ
à¦¼? '
à¦²à¦Ł à¦Ł
Ġà¦°à¦¸ à¦Ł
Ġà¦°à¦¸ à¦°à¦¤
Ġà¦°à¦¸ à¦¸à¦ŀ
à¦°à§Ł à¦¸
à¦°à§Ł à¦¹
à¦¡à¦² à¦°
à¦¡à¦² à¦ĵ
à¦¼âĢĶ âĢĻ
Ġà¦Ī à¦¨
à¦ľà¦ķ à¦¸
à¦¾âĢĻ )
Ġà¦īà¦ªà¦¨ à¦¦
à¤ ī
à¦ķà¦°à¦£ à¦¬
à¦ķà¦°à¦£ à¦ĵ
Ġà¦ıà¦ķà¦® à¦ŀ
à¦¿; âĢĶ
à¦ķà¦¸ à¦ĵ
à¦ķà¦¸ à¦ĩà¦¤
à¦¯à¦Ĺ à¦ŀ
à¦¯à¦Ĺ à¦Ĺà¦¨
à¦¯à¦Ĺ à¦£à¦¨
à¦¬à¦ĩ à¦¸
à¦¬à¦ĩ à¦Ĺ
à¦¬à¦ĩ à¦Ń
à¦¬à¦ĩ à¦ªà§ľ
à§Ģ? âĢĵ
Ġà¦¶à¦¹ à¦°à¦¸
Ġà¦īà¦· à¦¸
à¦łà¦ķ à¦®
à¦łà¦ķ à¦Ĺ
à¦łà¦ķ à¦ĺà¦°
à¦łà¦ķ à¦łà¦ķ
à¦ķà¦¥ à¦ŀ
à¦¼; âĢĶ
Ġà¦Ĺà¦°à¦® à¦Ł
Ġà¦Ĺà¦°à¦® à¦ľà¦²
à¦¿âĢĵ âĢĻ
Ġà¦ľà§Ł à¦ĩ
à¦®à¦¶ à¦°
à¦®à¦¶ à¦¯
à¦®à¦¶ à¦¤à¦¬
à¦®à¦¶ à§Łà¦¨
à¦¤à¦ª à¦¬à¦¨
à¦ıà¦¸à¦¬ à¦ĵ
à¦ĩà¦¡ à¦Ł
à¦ĩà¦¡ à¦¶
à¦ĩà¦¡ à¦¸à¦¹
Ġà¦¦à¦® à¦Ľ
Ġà¦¦à¦® à¦ļ
à¦®à¦¦ à¦¬
à§ĩâĢ¦ ?
à¦¥à¦² à¦ªà¦¥
Ġà¦®à¦¸ à¦²à¦¨
Ġà§§à§¯ à§§à§©
Ġà¦¸à¦°à¦² à¦ļ
Ġà¦¸à¦°à¦² à¦®à¦¨
à§© à§¦à§¦
à§© à§«à§Ń
à§Ŀ à¦¬
à§Ŀ à¦¸à¦®
Ġt ap
Ġt ake
Ġt radition
Ġt aught
à¦¨à¦¶ à¦¤
à¦¨à¦¶ à¦Ł
à¦¿âĢĻ à¥¤âĢĿ
à§Ń à§ª
à§Ń à§§à§ªà§«
à¦®à¦ľ à¦¦
à¦¸à¦¹ à¦§à¦°
à§ĭ! )
à¦¯à§İ à¦ĵ
à§ª à§¬
Ġà¦¸à¦¦ à¦¬
à¦°à¦« à¦Łà¦Ł
à¦ĺà¦² à¦ª
à¦Ĺà¦£ à¦ľ
à¦Ĺà¦£ à¦ĵ
Ġà¦¹à¦ĩ à¦¹
Ġà¦«à¦° à¦ĵà¦¯
à¦ļà§Ł à¦Ł
à¦·à§Ł à¦Ĺà¦¤
à¦¶à¦° à¦ŀ
à¦¶à¦° à§İà¦¬
Ġà¦Ĩà¦ĩà¦¨ à¦Ł
in ce
in ci
in ction
in oz
à¦²à¦ª à¦ŀ
à¦¤à¦Ń à¦°à¦¤
à¦¦à¦ķ à¦ĵ
à¦¨à¦ª à¦Ļ
Ġà¦ķà§Ł à¦¦
Ġà¦¨à¦Ĺà¦° à¦°à¦ķ
à¦Łà¦® à¦ĵ
an as
à¦īà¦¦ à¦ĺ
à¦¨à¦ļ à¦ļ
.. âĢĿ
à¦ĩà¦® à¦®
à¦ĩà¦ľ à¦ĵ
Ġà¦ĵà¦ª à§ľ
à§ĩ!âĢĿ ,
Ġà¦ªà¦²à¦ķ à¦ķ
Ġà¦ªà¦²à¦ķ à¦Ĺ
Ġà¦ªà¦²à¦ķ à¦Ŀ
on a
on oura
âĢ¦âĢĿ ,
à¦¿à¥¤âĢĻ âĢĻ
à¦ķà§ľ à¦¸
à¦¨à§Łà¦¨ à¦ľà¦²
à¦¼! -
Ġà¦¶à¦ªà¦¥ à¦Ł
Ġà¦¶à¦ªà¦¥ à¦ª
à¦ħà¦¸ à¦¬à¦°
Ġà¦®à¦¦ à¦ĺ
à§Ģ! "
à§Ģ! (
à¦¬à¦ľà¦¨ à¦ĩ
à¦¬à¦ľà¦¨ à¦¶
à¦¬à¦ľà¦¨ à¦ķà¦²
Ġà¦Ĭ à¦·à¦¸
Ġà¦Ĭ à¦¹à¦Ĺ
re n
re ct
re cy
à¦Ĺà¦°à¦£ à¦ķ
à¦Ĺà¦°à¦£ à¦®
à¦ªà§ľ à¦²
Ġà¦ªà¦Ł à¦ªà¦°
Ġà¦ªà¦Ł à¦ªà¦Ł
Ġà¦¤à¦¨ à¦ĸ
à¦¾à¦ĥ -
à¦¾à¦ĥ âĢĶ
à¦¾à¦ĥ !âĢĻ
à¦¨à¦® à¦ŀ
Ġà¦ķà¦®à¦² à¦ı
à¦ķà¦ª à¦¯
à¦ķà¦ª à§Ł
à§¬ à§¨
à§¬ à§¬
at s
at ory
Ġà¦«à¦¸à¦² à¦°
Ġà¦«à¦¸à¦² à¦Ĺ
Ġà¦«à¦¸à¦² à¦ĵ
à¦¼âĢĵ âĢľ
à¦īà¦ľ à¦¡
al a
al f
al g
al el
Ġà¦ħà¦¬à¦¨ à¦¤à¦¶
à¦¿?âĢĿ ,
à¦¿?âĢĿ âĢĵ
Ġ! )
Ġ! âĢĻ
à¦¸à¦®à§Ł à¦ķ
à¦¸à¦®à§Ł à¦ª
à¦²à§Ł à¦Ĺ
à¦¬à¦°à¦¤ à¦¨
à¦¬à¦¨à¦¯ à¦ľ
Ġà¦¸à¦¤à¦° à¦ŀ
à¦ıà¦¸ à¦ıà¦¸
à¦ıà¦¸ à¦ıà¦¸à¦¸
Ġà¦Ĩà§Ł à¦ķà¦°
à¦¬à¦°à¦£ à¦¸
à§¯ à§¬
à¦¨à¦ľà¦¨ à¦ĵ
à§® à§¯
à¦¾âĢĿ ?
Ġà¦ıà¦¡ à¦ĵà¦¯
Ġà¦ıà¦¡ à¦¹à¦ķ
à¦¡à¦¬ à§İ
à¦¡à¦¬ à¦Ĺà¦£
er pret
en o
is ing
is ation
à¦¾?âĢĻ âĢĶ
à¦Ĳ à¦°
à¦Ĳ à¦¯
à¦Ĳ à¦¸à¦¬
it ation
it her
it ri
it ical
it ual
it ter
it ution
Ġthe e
à¦¾!âĢĿ ,
à¦Ĺà¦łà¦¨ à¦¶à¦ķ
Ġà¦ľà§ľ à¦¬
Ġà¦ľà§ľ à¦¸à§ľ
Ġ? âĢĶ
Ġà¦Ĺà¦łà¦¨ à¦§à¦°
à¦¨à¦¹ à¦«
Ġ: âĢĵ
Ġo b
Ġo ld
Ġà¦®à¦¨à¦ķ à¦·
Ġà¦Ĩà¦Ł à¦ĩ
Ġà¦Ĩà¦Ł à¦Ĺ
Ġà¦Ĩà¦Ł à¦ĺà¦°
Ġà¦Ĩà¦Ł à¦¦à¦¶à¦Ł
à¦ļà¦°à¦£ à¦¬
à¦ļà¦°à¦£ à¦¦
à¦ļà¦°à¦£ à¦°à¦¤
à¦ļà¦°à¦£ à¦¤à¦²
à¦ļà¦°à¦£ à¦ķà¦®à¦²
Ġà¦°à¦¤à¦¨ à¦°
Ġà¦°à¦¤à¦¨ à¦ªà¦²
à§ĭ?âĢĿ âĢĵ
à¦¯à§Ł à¦ĩ
à¦¯à§Ł à¦¹
Ġs un
Ġs ch
Ġs im
Ġs ure
Ġs ight
Ġs weet
Ġs atisf
à¦ħà¦¶ à¦¥
Ġà¦Ĩà¦ĩ à¦°à¦¨
Ġà¦Ĺà¦ľ à¦¦à¦¨
Ġà¦Ĩà¦ĸ à¦ĸ
Ġà¦¬à¦¦ à¦ĸà¦¤
Ġà¦¬à¦¦ à¦²à¦¬
Ġ; âĢĶ
Ġ; ---
à¦īà¦ĩ à¦¶
Ġà¦ľà¦Ĺà§İ à¦¬
Ġà¦ľà¦Ĺà§İ à¦®
Ġà¦ľà¦Ĺà§İ à¦ªà¦¤
à¦§à¦® à¦ŀ
à§İà¦ª à¦°à¦¤
à¦ĩà¦« à¦¤
Ġà¦°à¦ľ à¦¬à¦¸
Ġà¦Ńà¦Ĺ à§İ
Ġà¦°à¦¥ à¦ļ
à¦ħà¦¦ à¦®à¦¨
Ġa v
Ġà¦ħà¦ļà¦² à¦ª
Ġc ar
Ġc le
Ġc ha
Ġc iv
Ġc ry
Ġc ap
Ġc are
Ġc attle
Ġc ase
Ġà¦®à¦°à¦£ à¦¬
Ġà¦Ńà¦°à¦¤ à¦ķ
Ġà¦ĭà¦£ à¦®
Ġà¦ĭà¦£ à¦¶
Ġà¦Ŀà¦ķ à¦ľà¦ķ
à¦Ĺà¦¸ à¦ľ
à¦¯à¦°à¦ķà¦® à¦ĩ
à¦¯à¦°à¦ķà¦® à¦ĵ
ar ly
Ġà¦°à¦£ à¦§
Ġà¦°à¦£ à¦¤à¦°
Ġà¦°à¦£ à¦¸à¦ľ
à¦·à¦¸ à¦ĵ
or m
Ġw om
Ġw ind
Ġw rit
Ġw ild
Ġw rong
Ġw omen
Ġà¦ķà¦ĩ à¦ĵ
à¦¿!âĢĿ à¥¤
à¦ĩà¦ļ à¦£
Ġm is
Ġm elod
Ġm arri
à¦ĭ à¦ľ
à¦ħà¦² à¦¸à¦¤
à¦ħà¦ª à¦ļà¦¯
Ġà¦¬à¦°à¦« à¦ľ
Ġà¦¬à¦°à¦« à¦ľà¦²
Ġb our
Ġb ound
Ġb ell
Ġb attle
Ġb ody
Ġb ene
Ġp er
Ġp as
Ġp rit
Ġp ath
Ġp itri
Ġà¦Ĺà¦Ĺà¦¨ à¦Ľ
Ġà¦®à¦Ĺ à¦§à¦¦
à¦Ĩà¦§ à¦ª
Ġà¦Ĩà¦Ĺà¦®à¦¨ à¦ķ
à§ģà¦Ĥ à¥¤
à§ģà¦Ĥ âĢ¦
âĢĶâĢĺ âĢĺ
Ġà¦Ńà¦¬à¦¨ à¦¦
à¦ıà¦ķà¦ľà¦¨ à¦ĩ
à¦¬à¦Ľà¦° à¦Ĺ
à¦ľà¦ĩ à¦īà¦¨
à¦ķà¦ĵ à¦¸à¦°
ic es
ic ip
ing u
à§Īà¦ĥ âĢ¦
Ġà§© à§©
Ġà§© à§¬à§¦
Ġà§© à§ªà§¦
le y
ou ble
ÂłÂłÂłÂłÂłÂłÂłÂłÂłÂłÂłÂłÂłÂłÂłÂł ÂłÂłÂłÂłÂłÂłÂłÂłÂłÂłÂłÂł
ÂłÂłÂłÂłÂłÂłÂłÂłÂłÂłÂłÂłÂłÂłÂłÂł ÂłÂłÂłÂłÂłÂłÂłÂłÂłÂłÂłÂłÂłÂłÂłÂłÂłÂł
Ġà¦¤à¦¦ à¦¬à¦§
à§ĭâĢĵ âĢĵ
Ġf ul
Ġf ore
Ġf ear
Ġf ather
Ġf iel
Ġf elt
à¦¸à¦ĵ à¦¦
Ġà¦ķà¦¬à¦° à¦ĸ
à¦¡à¦ķ à¦¬à¦¨
à¦Ńà¦¸ à¦ŀ
à¦¬à§ľ à¦ĩ
Ġà¦¸à¦« à¦°à¦ķ
Ġà¦¸à¦« à¦°à¦Ł
Ġà¦¨à§ľ à¦¬
Ġd er
Ġd en
Ġd ay
Ġd am
Ġd esc
Ġd ouble
Ġà¦¦à¦¶à¦ķ à¦Ĺ
à¥¤à¥¤ (
à¦ıà¦² à¦ĵ
Ġà¦ĩà¦ī à¦ıà¦«
Ġà§§à§¯à§Ń à§Ń
Ġà§§à§¯à§Ń à§ª
Ġà¦Ĩà¦¬à¦°à¦£ à¦¹
Ġà¦¹à¦Ł à¦¬à¦ķ
Ġà¦¹à¦Ł à¦ªà¦Ł
Ġà¦®à¦¦à¦¨ à¦ĵ
Ġh ow
Ġh ope
à¦·à¦Ĺ à¦¹
à§ĩâĢĿ âĢ¦
Ġà§¨à§¦ à§§à§®
Ġà§¨à§¦ à§Ńà§§à§ªà§«
à¦Ĺà¦ł à¦¨à¦¬
à¦Ĺà¦ł à¦¨à¦¦
Ġà¦²à¦Ļ à¦ĺà¦¨
à¦Ĩà¦ĩ à¦ıà¦¸
om in
à¦ľà¦ĵ à¦¹à¦°
Ġà¦¸à¦² à¦Ļ
Ġà¦ħà¦¬à¦¸à¦° à¦ĵ
à§ĭâĢ¦ ?âĢĿ
Ġà¦¶à¦°à§İ à¦¸à¦¨
Ġà¦ķà§ľ à¦ļ
Ġin vol
Ġn oun
à¦Ī à¦ķ
Ġl og
Ġl ittle
Ġà§§ à§§à§Ń
Ġà¦¨à¦Ĺ à¦°à¦ľ
Ġà¦¨à¦Ĺ à¦°à¦ĩ
ĠI X
ĠI de
ÂŃ à§ĩ
Ġà¦¨à¦ĸ à¦¦à¦¨
à¦¨à¦ĸ à¦¡
ot ol
à¦ĩà¦¸à¦¬ à¦Ĩà¦®à¦°
Ġà¦ıà¦ķà¦°à¦ķà¦® à¦ĩ
à§§à§¯ à§ªà§«
ra ct
ra el
ra cy
Ġà¦²à¦¬à¦£ à¦®
ol es
à¦īà¦ª à¦Ń
st er
st and
st ag
Ġà§§à§© à§©à§§
Ġà§§à§© à§¬à§©
Ġà§ª à§©à§¦
à¦ľà¦Ĺà§İ à¦Ł
ĠA R
ĠA cc
ĠA mer
ĠA VIN
Ġà¦¨à¦°à¦ķ à¦¬
à¦ļà¦ľà¦¨ à¦ĵ
Ġà¦īà¦ªà¦ķà¦°à¦£ à¦ķ
ent s
à§§à§¦ à§¬
à§§à§¦ à§®
ĠP re
ĠP ur
ĠP art
ĠP IN
ĠP resent
ĠP ragmatic
à¦¿' ;
Ġto get
à¦¾) ;
à¦¼à¦¾! '
à§ĩ) ;
ĠB D
ĠB y
ĠB attle
à¦¼âĢ¦ à¥¤âĢĻ
à¦¨à§Ł à¦ļà¦¨
Ġà¦ľà¦¨à¦ªà¦¦ à¦Ĺ
ĠS o
ĠS p
ĠS ub
ĠS pe
ĠS TEM
Ġà¦®à¦°à¦® à¦ķ
à¦Ĭ à¦¨à¦¸à¦¤
Ġe ch
Ġe ye
Ġà¦Ĺà¦ł à¦¨à¦Ł
Ġà§Ń à§©
Ġà§Ń à§ª
à¦ıà¦ķà¦¤ à¦²
Ġà¦²à¦Ĺ à¦ĩà¦¨
à¤¾ ,
à§ģ; -
ur s
Ġre d
Ġre qu
Ġre pl
à¦¸à§İ à¦ļà¦°
Ġà¦ĵà¦® à¦°à¦ķ
à§§à§Ń à§«à§Ń
à§§à§Ń à§«à§¬
ĠT O
ĠT ur
à¦ĩà¦ĵ à¦®
Ġbe fore
ĠR ational
à¦ªà¦¤à¦¨ à¦ķ
à¦Ĺà¦ļ à¦ŀ
ÂŃÂŃ ÂŃ
os p
os y
à¦°à¦Ŀ à¦Ļ
id den
im ent
Ġà¦ķà¦¨à¦ķ à¦ķ
Ġà¦ķà¦¨à¦ķ à¦ļ
Ġg e
Ġg o
Ġg ive
Ġg ave
Ġg iven
ce an
Ġà¦¬à¦ļà¦¨ à¦®à¦¬
ow s
ĠD r
ĠD ivide
ĠD BD
ĠD ETE
ĠD harma
Ġ| |
Ġà§¬ à§ª
Ġà§¬ à§¬
Ġà§¬ à§¯
à§ĩà¦ĥ !
à§§à§¨ à§Ń
am a
am work
Ġà¦ªà¦¬à¦¨ à¦¨à¦¨
Ġà¦Ĩà¦¦à¦² à¦Ł
ĠC O
ĠC on
ĠC ent
ĠC op
ĠC ass
ĠC hrist
ĠC ologne
ĠC ommun
ĠC onstruction
à¦¿) -
à¦¿) âĢĵ
Ġà¦Ĩà¦īà¦Ł à¦¡
Ġà§§à§® à§®à§ª
Ġà¦ĸà§ľ à¦®
Ġwh is
Ġà¦¬à¦¦à¦¨ à¦®à¦£
à¦¿!âĢĻ âĢĿ
Ġà§§à§¯à§¯ à§§
à¦Ĺà¦²à¦ķ à¦¬
Ġà¦¶à¦°à¦¤ à¦¬
Ġà¦¶à¦°à¦¤ à¦ļà¦¨
à¦®à¦ķà¦°à¦£ à¦ĵ
à§ģâĢ¦ âĢĻ
à§ģâĢ¦ à¥¤âĢĿ
à§ģâĢ¦ à¥¤âĢĻ
à§ĩ,âĢĻ âĢĻ
à¦¨à¦¬à¦¨ à¦¨
à¦¼âĢĻ ?
ĠN O
ĠN o
ĠN ow
ĠN atural
à¦ıà¦® à¦ı
à¦ħà¦¹ à¦°à¦¹
ro ve
à¦¶à¦§ à¦°à¦ķ
Ġà¦īà¦ĩ à¦£
Ġà¦īà¦ĩ à¦²à¦ķ
Ġà§§à§« à§Ń
Ġà§® à§ª
ĠH er
ĠH ils
Ġà¦ªà¦Łà¦² à¦ļ
Ġà¦ľà¦²à¦ķ à¦·
Ġfor mal
Ġfor ms
em y
à¦Ŀà¦Ľ à¦¸
ect ure
ĠÑ Ĥ
ĠÑ Ħ
Ġà¦ªà¦¦à¦¯ à¦¨
Ġà¦ªà¦¦à¦¯ à¦ľ
Ġcon d
Ġcon v
Ġcon cept
ĠG r
ĠG ang
ĠG erman
Ġà¦«à¦²à¦¨ à¦¶
Ġà§§à§Ń à§¬à§¦
Ġà§§à§¯à§® à§Ń
Ġà§§à§¯à§® à§®
Ġà¦ľà¦¹ à¦°à¦¤
Ġà¦ľà¦¹ à¦°à¦²
ag es
ag ed
nd er
ure d
à¥¤' '
âĢĻâĢĵ âĢĺ
ip e
ip ped
iv es
iv ed
ĠE id
ĠE ast
ĠE mp
ĠE ng
ĠE xist
ĠL et
ĠL ove
ĠL ike
ĠL aw
ĠL ake
à§ģ' -
à¦¶à¦§à¦° à¦°
à¦¯à¦¦à¦² à¦Ĺ
Ġà§§à§ª à§ª
Ġà§§à§ª à§¨à§¦
Ġà¦¦à¦«à¦¤à¦° à¦Ĺ
Ġv ol
Ġà§§à§¯à§¬ à§¦
Ġà§§à§¯à§¬ à§¬
Ġà§§à§¯à§¬ à§¯
Ġst ra
Ġst ill
Ġst ep
Ġst rugg
à¦¤à¦ļà¦° à¦°
Ġà¦ķà¦®à¦¨ à¦°
Ġà¦¬à¦°à¦® à¦ļà¦¨
Ġon ce
Ġà§¨à§¦à§¦ à§¨
ĠÐ ´
ĠÐ ¸
ĠÐ ¼
à¦Ĩà¦Ł à¦ľà¦¨
ac ed
ac count
Ġan t
Ġan other
à§ĩ' ,
Ġà¦¤à¦¬à¦² à¦ļ
à¦ıà¦°à¦ĩ à¦®à¦§
à§ĩ--- --
à§§à§® à§«à§Ń
Ġas pect
à¦¼) ;
Ġà¦ªà¦łà¦¨ à¦¶
Ġà¦ĸà¦ª à¦ĸà¦ª
um er
ant a
ant ic
ant ed
ĠØ ¬
ĠØ ³
ĠØ Ń
Ġà¦¬à¦Ľ à¦°à¦¬
Ġà¦¬à¦Ľ à¦°à¦ķà¦¯
Ġne ed
Ġha ving
Ġ1 7
Ġ1 00
Ġà¦ļà¦ªà¦² à¦®à¦¤
à¸ ¥
à¸ ±
à¸ ¸
à¸ Ļ
Ġun known
à¦¸à¦°à¦¸ à¦¤
Ġà¦¸à¦°à¦¬ à§İ
à¥ĩ ,
Ġyou th
à¦¼âĢĿ !
à¥Ģ à¥¤
Ġk ind
Ġk ill
Ġà¦ľà¦¬à¦° à¦¦à¦ĸà¦²
Ġà¦ľà¦¨à¦®à¦¤ à¦ķ
ass ion
Ð° Ð½
Ġà¦īà¦ĩà¦ķ à¦ıà¦¨
Ġhe art
Ġhe aven
Ġà¦īà¦ĩà¦¶ à¦«
ĠW e
ĠW IS
à¦ĸà§ľ à¦Ĺ
ast e
Ðµ Ð´
ont inu
Ġr itual
Ġse en
Ġse cond
ge ois
ãģ Ħ
ĠO f
Ġì ķ
Ġì ł
Ġcom b
Ġme ans
Ġex pl
Ġex tra
Ø± Ø§
à¦¬à¦ķà¦² à¦¹
ie ve
à¦ıà¦°à¦ķà¦® à¦ĩ
Ġpro f
Ġpro bably
oci al
Ġà¦Ĩà¦ī à¦¶
Ġà¦Ĩà¦ī à¦Łà¦°
Ġà¦Ĩà¦ī à¦¶à¦Ń
Ġà¦ĺà¦Łà¦ķ à¦ķ
Ġà¦ĺà¦Łà¦ķ à¦®à¦¶
Ð¾Ð ´
Ð¾Ð ·
Ð¾Ð º
ain s
ib r
ib ly
ib anan
àª ¿
Ġsp here
iter ation
Ġind ust
Ġint erest
Ġint egr
oss ip
Ġà¦ıà¦ĩà¦ļ à¦Ĩà¦°
Ġà¦Łà¦Ļ à¦Łà¦Ļ
Ġmy self
ap hysical
Ġ× ¨
Ġ× ŀ
ĠV is
ĠV ict
à§©à§ª à§¨
Ġsu ff
à¦ķà¦¨à¦ķ à¦¨
Ġà¦Ĩà¦ĵ à¦°à¦¤
à¦ľà¦®à¦¹ à¦²à¦ķ
à¦Ĺà¦°à¦¬ à§İ
à¦Ĩà§ľ à¦·
à§įâĢĮâĢĮ âĢĮ
our ne
Ġà¦¬à¦°à¦ķ à¦¤à¦®à¦¯
à¦Ŀà¦Ł à¦ªà¦Ł
oc s
Åĵ à¦¨
à¦¦à¦¸à¦® à¦·
ud g
Ġj oy
Ġj ourne
Ġj udg
Ġë ĭ
Ġle ft
à¤¦ à¤¯
Ġà¤¸ à¤¤
Ø§Ø ²
==== =
ĠU rvasi
Ġwe ek
olog ical
Ð» Ðµ
Ġal one
Ġáĥ ©
Ġáĥ Ľ
Ġáĥ £áĥ
Ġà¦Ńà¦Ĺà¦¬à¦¦ à¦Ĺ
ÙĪ Ùħ
ĠJ ibanan
à¦Ķ à¦ªà¦¨
à¦¨à¦ı à¦ľ
à¤ľ à¤¨
Ġcont in
av a
for mation
Ġà§¦ à§§à§Ń
âĢ¨ Ċ
mat ical
à° ¤
à¦²à¦¦à¦² à¦Ĺ
ĠâĢĮ âĢĶ
Ġbec ame
Ġknow n
Ø´ Ø§Ø±
à§©à§¯ à§®
Ġliter ary
Ġliter acy
ep ing
à¦ĩà¦· à¦·
Ġso on
à§§à§¯à§¬ à§¨
à§§à§¯à§¬ à§«
rad iction
ĠDe velopment
ob al
à® ¤
Ġhuman ity
ĠAr ch
erson al
Ġdisc ord
à¦ĵà¦ĵ à¦ĵ
âĢ¦âĢ¦ âĢ¦âĢ¦
Ġsol itude
Ġpart y
Ġpart icular
à§§à§¯à§® à§Ń
à§§à§¯à§® à§¬
à§§à§¯à§® à§¯
Ġres ist
Ġres pect
iz ed
ura va
à¦ľà¦¨à¦Ĺà¦£ à¦®à¦¨
Ġte ac
Ġte amwork
iss ion
Ġcult ure
ĠIn spect
ĠIn stag
ĠSoci ology
Â¦ à¦¾
ï¿½ ï¿½
Ġother s
Ġà¦Ĩà¦ĩà¦ı à¦ıà¦¸
Ġposs ible
Ġposs ibly
Ġà¤ī à¤ľ
Ġà¤ī à¤ł
az i
ä¸ Ģ
Ġê ·
à¦¨à§ľ à¦¬à§ľ
Ġcount ry
Ġpass age
ĠSt ate
Ġreg ion
ÂłÂłÂłÂłÂłÂłÂłÂłÂłÂłÂłÂłÂłÂłÂłÂłÂłÂłÂłÂłÂłÂłÂłÂł ÂłÂłÂłÂłÂłÂłÂłÂłÂłÂłÂłÂłÂł
Ġhand s
ÂŃÂŃÂŃÂŃÂŃÂŃÂŃÂŃÂŃÂŃÂŃÂŃÂŃÂŃÂŃÂŃ ÂŃÂŃÂŃÂŃÂŃÂŃÂŃÂŃÂŃÂŃÂŃÂŃÂŃÂŃÂŃÂŃ
co al
che ck
pend ed
Ġra pid
Ġà¦¹à¦°à¦¬ à¦ķà¦¤
Ġsm all
Ġmat ters
Ġda ught
Ġdist inction
Ġà¦ĩà¦īà¦ıà¦¸ à¦ı
Ġhor ses
Ġhor izon
Ġthink ing
ĠRah ul
ĠâĨ ĲâĨ
OC s
ĠĠâĢ¨ Ċ
Ġad m
Ġneigh b
ĠUn cle
Ġart ifact
/- /-
over n
pr int
ran ch
|| ||
£áĥ ļ
ï¼ ģâĢĿ
Ġà¦¨à¦°à¦ª à¦¶
Ġà¦°à¦¸à¦ķà¦· à¦¹
Ġà¦ªà¦¦à¦¦ à¦²à¦¨
Ġcre ative
Ġchar coal
Ġmod ern
Ġperson ality
Ġphilosop hy
Ġphilosop hers
Ġhar m
Ġhar lot
ĠBrah man
ĠBrah min
Ġref lect
Ġref lex
Ġreal m
áĥķ áĥĶáĥ
Ġtranscend ence
àµ į
ê° Ħ
Ġed ucation
Ġri ver
à¦¸à¦ĸà¦¨ à¦ĵ
read y
itc hen
Ġcent re
Ġcent ur
arr anted
Ġins p
ĠIN ITIATE
ĠPa urava
Ġgod s
iven ess
Ġstre ng
Ġneg ation
Ġneg ative
Ġcontinu ous
Ġappro x
Ġfunction al
Ar jun
Tr uth
frag ment
Õ¸ ÖĤ
æĭ Ń
à¦£à¦°à¦¥ à¦ļ
Ġà¦ļà¦°à¦² à¦ĸ
Ġske let
Ġwant s
Ġbir th
Ġliv ing
ĠRel igion
Ġright s
Ġseem ed
Ġsearch ing
Ġintellect ual
Ġprodu ction
Ġconscious ness
Ġmathe matical
Ġdiffere nt
Ġetern ally
gr ound
Ġà¦ķØ§Ø ¦ÙĨ
Ġà¦Ĩà¦ĵà¦° à¦Ļ
Ġà¦¡à¦ĵ à¦¸à¦¨
ÂłĠÂłĠÂł ĠÂł
ĠâĢĶâĢĶâĢĶ âĢĶ
Ġsou l
Ġche ek
Ġmons oon
Ġmix ed
Ġpol itical
Ġlab our
ĠBhar ata
Ġgre ed
ĠGandhar va
ĠEd ucation
abl ished
ĠØ¨ Ø±
ĠOr ion
ĠìĿ ´
Ġìŀ Ĳ
Ġmean ing
Ġexper iment
Ġproject or
ÑĢÐ°Ð ¼
Ġconsid ered
åķı ãģĦ
Ġcaus ed
ymph ony
ĠOffice Boss
AT TA
Mr s
Py th
Urb an
YABH ATTA
pons ibility
pub lic
åħ ī
ìĸ ´
à¦ħà¦¨à¦¬ à¦°à¦¤
Ġà¦ıà¦²à¦ıà¦¸ à¦¡
inoz a
onoura ble
Ġsch olar
Ġciv il
Ġwom an
Ġbour geois
Ġprit he
Ġful fil
Ġfiel ds
Ġà¦ĩà¦īà¦ıà¦« à¦ĵ
Ġinvol ved
Ġtoget her
Ġech o
ĠDETE CTED
ĠCass io
ĠCommun ication
ĠHils a
ĠLike wise
Ġindust ri
Ġjourne y
ĠJibanan anda
ĠInspect or
ĠInstag ram
Ġdaught er
ĠâĨĲâĨ Ĵ
Ġskelet on
! ?
! ),
% à¥¤âĢĿ
' ?
' --
( âĢĺ
( !)
) !
) (
) âĢĶ
) âĢ¦
, )
, /
, âĢĶâĢĺ
, âĢĻâĢĶ
- âĢĿ
- âĢĵ
/ âĢĵ
0 5
6 1
9 0
: :
; âĢĶâĢľ
= {
? âĢ¦.
? ''
A S
A n
A nd
A mer
A dvik
A TION
A PP
A yesha
B S
B l
B re
B ig
B AC
C H
C h
C al
C hrist
C arb
C SR
D E
D I
D R
D S
D o
D ER
D ITI
E L
E x
E ff
E co
E ven
F it
F ear
H e
H on
H el
H ow
I M
J un
K E
K o
L aw
L ED
M I
M ass
N o
N ot
N CT
O A
O D
O K
O r
O ER
O RA
O OT
O ops
P I
P T
P at
P as
P lat
Q R
R es
R iya
R ec
S P
S S
S Y
S h
S t
S w
S elf
S ocial
T e
T o
T ok
T AR
T yp
U n
U p
U NA
U na
V ol
V ER
W e
W ith
W ord
W hen
X IM
Y ou
Z à¦ķ
[ âĢ¦
^ ^
_ ,
` `
a x
a it
a et
a un
a ur
a pp
a red
b r
b al
b as
b us
b ers
b ear
b ec
b ian
b ank
b ranch
c r
c u
c re
c er
c es
c ut
c ur
c up
c um
c la
c ern
c use
c ritical
c ognition
d i
d is
d le
d ed
d ent
d own
d den
e le
e as
e ch
e vel
e au
e val
f l
f it
f old
f ather
g n
g y
g in
g ot
g rove
h m
h o
h ay
h ly
h ost
h ons
h ora
h ier
i et
i us
i ud
i led
i osity
j i
k a
k an
k er
l ing
l im
l ate
l ish
l ike
l ine
l ication
l ook
m e
m à¦¯
m ic
m as
m et
m ak
m ontu
m ark
m ile
m aster
n o
n s
n y
n ant
n Ä±
o f
o il
o og
o ice
p s
p an
p ra
p oss
p ective
p ohela
p ond
p ered
r is
r or
r ation
r oss
r one
r ative
s u
s w
s at
s ac
t z
t et
t ain
t old
u v
u er
u est
u ition
u age
u ctu
v i
v am
v ara
w or
w as
w rit
w ink
x ual
x ima
x iety
y S
y ing
y end
y per
y ll
z ug
~ ~
¡ ÖĢ
¤ ï
¥ ı
¦ ¬
¨ à¦¤
© ×
© æ
® áĥķ
¯ ¼
± ĭ
³ µ
¶ à¦°
¶ Õ¥
· à¦Ł
¸ à¦°
¹ Ħ
¹ ķ
Â ¡
Â ¬
Ã ª
Ã ī
Ã Ń
Ä ĥ
Ä Ł
Å Ł
É Ļ
Ê ¼
Ì Ĭ
Î ·
Î ¸
Î º
Î ½
Î Ķ
Î ¶à¦°
Ï Ģ
Ï ī
Ñ ı
Ò ĵ
Ó Ļ
× ª
× ĸ
× Ł
Ø ©
Ø ¬
Ø ²
Ú ¾
Ú ĳ
à ³
à Ń
ã Ģ
ã Ĥ
å Ĭ
å ¥ı
å ±ĭ
å ¹ķ
æ ¬
æ ¸
æ Ĭ
ç §
é ¡
é ĩ
é Ł
ê ²
ë £
ë ĭ
ë ¯¼
ì §
ì ĭ
ì ļ
ì ŀ
ì ł
ï Ģ
ĉ ÂłÂł
Ġ 7
Ġ {
Ġ }
Ġ å
Ġ æ
Ġ à§ĩ
Ġ à¥
Ġ à§ľ
Ġ à¥¤âĢĻ
Ġ à§İà¦ª
Ġ ),
Ġ ve
Ġ ut
Ġ Ø§
Ġ est
Ġ àª
Ġ ult
Ġ use
Ġ Ø§Ø
Ġ áĢ
Ġ 34
Ġ à´
Ġ 35
Ġ à®
Ġ ener
Ġ esc
Ġ 50
Ġ ï¼
Ġ Ú¯
Ġ ÏĦ
Ġ Ò¯
Ġ Ûģ
Ġ íĻ
Ġ ÒĽ
Ġ à§İà¦ļà¦¨
Ġ QR
Ĥ Ċ
Ī Ī
ī Ĥ
Ĭ ¥
Į Ģ
į ãģ
ı Ħ
ĳ áĥĺáĥ
ĳ ×¨
Ķ °ë
ľ ê°Ħ
Ŀ à¦ªà¦Ł
Ŀ ¤ï
ŀ ĭ
Ł âĢĿ
ł áĥ
ł áĥĲáĥ
ł ìĿĺ
Ń áĢ¯
à¦¾ ]
à¦¾ .âĢĿ
à¦¾ âģł
à§ĩ ]
à§ĩ à§ĥ
à§ĩ à§ĩà¦ģ
à§ĩ à§ĭ,
à§ĩ à¦¾âĢĶ
à§ĩ à¦¾;
à§ĩ à¦¾à¥¤âĢĿ
à§ĩ âĢį
à§ĩ .âĢĿ
à¦° à¦°à¦£
à¦° à¦·à¦£
à¦° à¦Ľà¦¨
à¦° à¦ıà¦ĩ
à¦° à¦Łà¦ķ
à¦° à¦ıà¦ķ
à¦° à¦ħà¦¨
à¦° à§Łà¦¨
à¦° à¦°à¦ķà¦®
à¦° à¦·à¦°
à¦° à¦Ĺà¦ľ
à¦° à¦īà¦¨
à¦° à¦·à¦¦
à¦° à¦ıà¦¸à¦¬
à¦° à¦ıà¦ĸà¦¨
à¦° à¦ħà¦¸
à¦° à¦Ĩà¦¶
à¦° à¦īà¦¤
à¦° à¦®à¦¨à¦¸
à¦° à¦ħà¦ķ
à¦° à¦ĺà¦Ł
à¦° à¦°à¦¹à¦¸
à¦° Ð´
à§į |
à§į ?âĢĻ
à§į âĢ¦à¥¤
à¦¿ à¦¿
à¦¿ à§ģ
à¦¿ à¦¼
à¦¿ âĢį
à¦¿ ÂŃÂŃ
à¦¿ âĢķ
à¦¨ à¦°à¦¬
à¦¨ à¦¨à¦¤
à¦¨ à¦ķà¦Ł
à¦¨ à¦°à¦¨
à¦¨ à¦°à¦¥
à¦¨ à¦²à¦¤
à¦¨ à¦°à¦ľ
à¦¨ à¦²à¦²
à¦¨ à¦ĩà¦¯
à¦¨ à¦¸à¦«
à¦¨ à¦ĩà¦¤
à¦¨ à¦Ĩà¦ľ
à¦¨ à¦ľà¦¯
à¦¨ à¦Ŀà¦°
à¦¨ à§Łà¦¤
à¦¨ à¦ıà¦¸à¦¬
à¦¨ à¦ıà¦ĸ
à¦¨ à¦īà¦¦
à¦¨ à¦¬à¦²à¦Ľ
à¦¨ à¦ıà¦¸
à¦¨ à¦¡à¦¨
à¦¨ à¦Ĩà¦¤
à¦¨ à¦ľà¦Ĺà§İ
à¦¨ à¦Ŀà¦²à¦®à¦²
à¦¨ à¦¨à¦¤à¦²
à¦¨ à¦¬à¦ªà¦¤
à¦¨ à¦°à¦ķà¦£
à¦¨ à¦°à¦¹à¦¤
à¦¤ à¦¹à¦²
à¦¤ à¦¸à¦²
à¦¤ à¦¢
à¦¤ à§Łà¦¨
à¦¤ à¦ĺà¦°
à¦¤ à¦ľà¦¯
à¦¤ à¦Ĩà¦²
à¦¤ à¦¥à¦ķ
à¦¤ à¦¶à¦°
à¦¤ à¦ľà§Ł
à¦¤ à¦Ľà¦¤
à¦¤ à§İà¦ªà¦°
à¦¤ à¦ĺà¦Łà¦¨
à¦¤ à¦Ŀà¦¡
à¦¤ à¦¤à¦°à¦ķ
à¦¤ à¦¦à¦°à¦ľ
à¦¤ à¤¨
à¦¤ à¤¬
à¦² à¦°à¦¤
à¦² à¦ľà¦¨
à¦² à¦¬à¦²
à¦² à¦¹à¦¸
à¦² à¦¬à¦¤
à¦² à¦²à¦¬
à¦² à¦Ńà¦¬
à¦² à¦¯à¦¨
à¦² à¦¸à¦²
à¦² à¦ĩà¦¤
à¦² à¦Ĩà¦°
à¦² à¦®à¦¸
à¦² à¦Ĩà¦²
à¦² à¦Ĩà¦®à¦°
à¦² à¦ªà¦£
à¦² à¦¦à¦¸
à¦² à¦ĵà¦°
à¦² à¦ĩà§Ł
à¦² à¦¶à¦°
à¦² à¦īà¦¦
à¦² à¦ıà¦¸
à¦² à¦Ĩà¦¸
à¦² à¦¶à¦¹à¦°
à¦² à¦¤à¦°à¦Ļ
à¦² à¦ħà¦²
à¦² à¦Ĩà¦¯
à¦² à¦Ŀà¦¡
à¦² à¦Ĩà¦ĩ
à¦² à¦§à¦²
à¦² à¦°à¦¹à¦¸
à¦² à¦ªà¦°à¦¶
à¦² à¦Ŀà¦²à¦®à¦²
à¦² à¦Ĩà¦īà¦Ł
à¦² ä¸
à¦² ÉĻ
à¦² å±ĭ
à¦ķ à¦ī
à¦ķ à¦Ĩà¦®
à¦ķ à¦¹à¦¸
à¦ķ à¦ļà¦²
à¦ķ à¦ĵà§Ł
à¦ķ à¦ıà¦ĩ
à¦ķ à¦¸à¦°
à¦ķ à¦¯à¦¦
à¦ķ à¦ĩà¦¤
à¦ķ à¦¸à¦®à¦¯
à¦ķ à¦Ĩà¦ªà¦¨
à¦ķ à¦ªà¦²
à¦ķ à¦łà¦ķ
à¦ķ à¦ļà¦¤
à¦ķ à¦Ĩà¦¶
à¦ķ à¦īà¦¡
à¦ķ à¦¸à¦®à¦¸
à¦ķ à¦Ĩà¦¦
à¦ķ à¦Ĳà¦¤
à¦ķ à¦ħà¦Ļ
à¦ķ à¦Ŀà¦²à¦®à¦²
à¦ķ à¦Ĩà¦ĩà¦¯
à¦¯ à¦ıà¦ĩ
à¦¯ à¦ļà¦¯
à¦¯ à¦ľà¦°
à¦¯ à¦ªà¦¸
à¦¯ à¦īà¦¨
à¦¯ à¦ľà¦¤
à¦¯ à¦ªà¦£
à¦¯ à¦ľà¦®
à¦¯ à¦ħà¦Ń
à¦¯ à¦¨à¦¤à¦®
à¦¯ à¦ľà¦Ĺà§İ
à¦¯ à¦Ĺà¦¤à¦Ń
à¦¯ à¦Ŀà¦²à¦®à¦²
à¦¯ à¦¬à¦²à§Ł
à§ģ à¦¼
à§ģ à§ĭ
à§ģ ..
à§ģ âĢį
à§ģ ),
à§ģ ÂŃ
à§ģ ...âĢĿ
à§ģ âĢĿ,
à§ģ à¤Ĥ
à§ģ ÌĬ
à¦¬ à¦ĸà¦¨
à¦¬ à¦ĵà§Ł
à¦¬ à¦Ĺà¦°
à¦¬ à¦ľà¦²
à¦¬ à¦®à¦Ĺ
à¦¬ à¦ľà¦ķ
à¦¬ à¦ĺà¦¨
à¦¬ à¦ľà¦Ĺ
à¦¬ à¦Ĺà¦Ń
à¦¬ à§Łà¦®
à¦¬ à¦¸à¦®à¦¸
à¦¬ à¦ħà¦Ļ
à¦¬ à¦īà¦Ĺ
à¦¬ à¤°
à¦¬ Ð¸
à¦¬ Ð»
à¦¬ à¦ħà¦¨à¦Łà¦¨
à¦¼ "
à¦¼ à§Į
à¦¼ à§ĭà¦ģ
à¦¼ à§ģà¦ĥ
à¦¼ à§ĭà¥¤âĢĻ
à¦® à¦¶à¦¨
à¦® à¦°à¦¹
à¦® à¦®à¦²
à¦® à¦ļà¦²
à¦® à¦ªà¦Ł
à¦® à¦ĩà¦¤
à¦® à¦Ĩà¦°
à¦® à¦Ĩà¦®à¦°
à¦® à¦ľà¦¬
à¦® à¦®à¦°à¦£
à¦® à¦®à¦¶
à¦® à¦®à¦ª
à¦® à¦¤à¦°à¦Ļ
à¦® à¦ħà¦²
à¦® à¦®à¦¨à¦¸
à¦® à¦ĺà¦£
à¦® à§ľà¦ķ
à¦® à¦«à¦¸
à¦® à¦§à¦¨à¦ķ
à¦® à¦°à¦¤à¦¨
à¦® à¦¥à¦¸
à§ĭ ..
à§ĭ à¦ĥ,
à§ĭ ',
Ġà¦ķ à¦Ĺ
Ġà¦ķ à¦¹à¦°
Ġà¦ķ à¦¹à¦²
Ġà¦ķ à¦Ĺà¦¨
Ġà¦ķ à¦ķà¦¨
Ġà¦ķ à¦ķà¦ķ
Ġà¦ķ à¦īà¦ķ
Ġà¦ķ à¦ļà¦Ł
Ġà¦ķ à¦ĸà¦Ĺ
Ġà¦ķ à¦ĵà¦®
Ġà¦ķ à¦²à¦¬à¦ķ
Ġà¦ķ à¦Ĩà¦°à¦¤
Ġà¦ķ à§İà¦²
Ġà¦ķ à¦Łà¦¨à¦®
Ġà¦ķ à¦¸à¦°à§İ
Ġà¦¬ à¦ł
Ġà¦¬ à¦°à¦¤
Ġà¦¬ à¦¬à¦²
Ġà¦¬ à¦ĸà¦¤
Ġà¦¬ à¦ĩà¦¨
Ġà¦¬ à¦®à¦¬
Ġà¦¬ à¦ķà¦¦
Ġà¦¬ à¦¦à¦¸
Ġà¦¬ à¦¦à¦Ĺ
Ġà¦¬ à¦¦à¦¤
Ġà¦¬ à¦°à¦¬à¦§
Ġà¦¬ à¦°à¦ķà¦°
Ġà¦¬ à¦ķà¦²à¦¸
Ġà¦¸ à¦Ľ
Ġà¦¸ à¦§
Ġà¦¸ à¦£
Ġà¦¸ à¦°à¦¹
Ġà¦¸ à¦Ĺà¦¨
Ġà¦¸ à¦¸à¦°
Ġà¦¸ à¦ĩà¦°
Ġà¦¸ à¦ĩà§Ł
Ġà¦¸ à¦Ľà¦²
Ġà¦¸ à¦ĩà¦¸
Ġà¦¸ à¦īà¦¦
Ġà¦¸ à¦¶à¦Ļ
à¥ Ī
à¥¤ ,
à¥¤ :
à¥¤ âĢĶâĢĺ
à¦¸ à§Ł
à¦¸ à¦ħ
à¦¸ à¦Ĩà¦®
à¦¸ à¦Ĺà¦²
à¦¸ à¦²à¦¤
à¦¸ à¦ĸà¦¤
à¦¸ à¦²à¦¬
à¦¸ à¦ķà¦¬
à¦¸ à¦¤à¦²
à¦¸ à¦¸à¦°
à¦¸ à¦²à¦²
à¦¸ à¦¸à¦Ļ
à¦¸ à¦§à¦¬
à¦¸ à¦Ĩà¦®à¦°
à¦¸ à¦Ŀà¦°
à¦¸ à¦¹à¦®
à¦¸ à¦°à¦¤à¦°
à¦¸ à¦¶à¦¸
à¦¸ à¦ľà¦¡
à¦¸ à¦°à¦¤à¦ķ
à¦¸ à¤ĺ
Ġà¦ª à¦Ľ
Ġà¦ª à¦Ń
Ġà¦ª à¦²à¦¬
Ġà¦ª à¦ļà¦²
Ġà¦ª à¦ĩà¦¨
Ġà¦ª à¦¹à¦²
Ġà¦ª à¦¯à¦¨
Ġà¦ª à¦ĩà¦°
Ġà¦ª à¦ľà¦°
Ġà¦ª à¦ĩà¦¤
Ġà¦ª à¦Łà¦¨
Ġà¦ª à¦Łà¦°
Ġà¦ª à§Łà¦¦
Ġà¦ª à¦ĩà§ľ
Ġà¦ª à¦īà¦·à¦¨
Ġà¦Ĩ à¦ĸà¦¨
Ġà¦Ĩ à¦ªà¦°
Ġà¦Ĩ à¦¬à¦²
Ġà¦Ĩ à¦§à¦ķ
Ġà¦Ĩ à¦ļà¦¨
Ġà¦Ĩ à¦¹à¦°
Ġà¦Ĩ à¦īà¦¨
Ġà¦Ĩ à¦Łà¦¨
Ġà¦Ĩ à¦«à¦°
Ġà¦Ĩ à¦ªà¦¦à¦ķ
Ġà¦Ĩ à¦ĵà¦¬
Ġà¦Ĩ à¦¤à¦°à¦¦
à¦¦ à¦ŀ
à¦¦ à¦¨à¦¤
à¦¦ à¦Ńà¦¬
à¦¦ à¦Ĺà¦¨
à¦¦ à¦®à¦°
à¦¦ à¦ıà¦°
à¦¦ à¦ķà¦¥
à¦¦ à¦¤à¦°à¦Ļ
à¦¦ à¦Ńà¦Ł
à¦¦ à¦ĺà¦°à¦Ł
à¦¦ à¦ħà¦ªà¦Ľà¦¨
à¦¦ olat
à¦Ł à¦ı
à¦Ł à¦¬à¦°
à¦Ł à¦ħ
à¦Ł à¦²à¦¤
à¦Ł à¦¶à¦¨
à¦Ł à¦°à¦¯
à¦Ł à¦°à¦ĩ
à¦Ł à¦ıà¦ĩ
à¦Ł à¦¤à¦²
à¦Ł à¦Ĺà¦¨
à¦Ł à¦Ĺà¦°
à¦Ł à¦°à¦Ń
à¦Ł à¦ªà¦¸
à¦Ł à¦ªà¦²
à¦Ł à¦īà¦¦
à¦Ł à¦ªà¦Łà¦ª
à¦Ł à¦ħà¦«
à¦Ł à¦ķà¦²à¦ķ
à¦Ł à¦¨à¦Łà¦¨
à¦Ł à¦Ĩà¦īà¦Ł
à¦Ł à¦²à¦¬à¦£
Ġà¦¨ à¦«
Ġà¦¨ à¦°à¦¬
Ġà¦¨ à¦ķà¦Ł
Ġà¦¨ à¦®à¦¤
Ġà¦¨ à¦ĸà¦Ľ
Ġà¦¨ à¦Łà¦¨
Ġà¦¨ à¦²à¦Ĺ
Ġà¦¨ à¦Ńà¦¯
Ġà¦¨ à¦²à¦ª
Ġà¦¨ à¦ĸà¦Ł
Ġà¦¨ à¦ĵà¦¦
Ġà¦¨ à¦ĸà¦¯
Ġà¦¨ à¦«à¦¸
Ġà¦¨ à¦¬à¦¨à¦¬
Ġà¦¨ à¦ĺà¦¸
Ġà¦® à¦ĵà¦¯
Ġà¦® à¦®à¦²
Ġà¦® à¦²à¦¬
Ġà¦® à¦®à¦¬
Ġà¦® à¦¶à¦ķ
Ġà¦® à¦ĩà¦¤
Ġà¦® à¦¥à¦¨
Ġà¦® à¦¦à¦®
Ġà¦® à¦ĩà¦¡
Ġà¦® à¦¦à¦Ĺ
Ġà¦® à¦īà¦ļ
Ġà¦® à¦ķà¦¬à¦°
Ġà¦® à¦ķà¦°à¦¬
Ġà¦® à¦°à¦¦à¦ķ
Ġà¦® à¦Łà¦°à¦Ĺ
à¦ª à¦ªà¦¨
à¦ª à¦Ĺà¦²
à¦ª à¦ªà¦¦
à¦ª à¦ľà¦²
à¦ª à¦ªà¦Ł
à¦ª à¦ıà¦°
à¦ª à¦®à¦§
à¦ª à¦¹à¦°à¦£
à¦ª à¦²à¦Ł
à¦ª à¦®à¦¹
à¦ª à¦¬à¦¹
à¦ª à¦®à¦¦
à¦ª à¦ľà¦Ł
à¦ª à¦Ńà¦Ļ
à¦ª à¦ľà¦Ĺà¦¤
à¦ª à¦Ŀà¦²à¦®à¦²
à¦ª à§İà¦¶
à¦ĩ à¦¬à¦¨
à¦ĩ à¦ªà¦¨
à¦ĩ à¦°à¦¬
à¦ĩ à§İ
à¦ĩ à¦¬à¦°
à¦ĩ à¦¬à¦²
à¦ĩ à¦°à¦¸
à¦ĩ à¦²à¦¤
à¦ĩ à¦°à¦¯
à¦ĩ à¦ķà¦¬
à¦ĩ à¦Ĺà¦¨
à¦ĩ à¦ªà¦¦
à¦ĩ à¦¶à¦¬
à¦ĩ à¦ıà¦ķ
à¦ĩ à¦¬à¦¸
à¦ĩ à¦ļà¦ķ
à¦ĩ à¦®à¦¬
à¦ĩ à¦¶à¦ķ
à¦ĩ à¦¢
à¦ĩ à¦ªà¦¡
à¦ĩ à¦Ĩà¦®à¦°
à¦ĩ à¦¦à¦®
à¦ĩ à¦ıà¦ĸà¦¨
à¦ĩ à¦¸à¦®à§Ł
à¦ĩ à¦īà¦ª
à¦ĩ åķıãģĦ
à§Ģ .
à§Ģ à¦¾
à§Ģ à§ģ
à§Ģ à¦ĥà¥¤
à§Ģ âĢ¦à¥¤
à§Ģ âĢ¦âĢĻ
à§Ģ !âĢĿâĢĶ
à§Ģ âĢĲ
à¦Ľ à¦¶
à¦Ľ à¦§
à¦Ľ à¦¹
à¦Ľ à¦ł
à¦Ľ à¦¬à¦¨
à¦Ľ à¦°à¦ķ
à¦Ľ à¦ĵà¦¯
à¦Ľ à¦²à¦ķ
à¦Ľ à¦°à¦ĩ
à¦Ľ à¦ĩà¦¨
à¦Ľ à¦¬à¦¦
à¦Ľ à¦¤à¦®
à¦Ľ à¦ľà¦®
à¦Ľ à¦¸à¦¹
à¦Ľ à¦ľà¦Ļ
à¦Ľ à¦Ľà§ľ
Ġà¦¦ à¦ĸà¦¨
Ġà¦¦ à¦ŀ
Ġà¦¦ à¦ĩà¦¤
Ġà¦¦ à¦ĩà¦¬
Ġà¦¦ à¦¦à¦¤
à¦ľ à¦ªà¦¨
à¦ľ à¦ķà¦Ł
à¦ľ à¦°à¦¯
à¦ľ à¦®à¦²
à¦ľ à¦®à¦ķ
à¦ľ à¦°à¦ĩ
à¦ľ à¦¬à¦¸
à¦ľ à¦¬à¦ķ
à¦ľ à¦¸à¦Ļ
à¦ľ à¦§à¦¬
à¦ľ à¦ıà¦°
à¦ľ à¦ķà¦ķ
à¦ľ à¦ªà¦²
à¦ľ à¦ªà¦®
à¦ľ à¦¶à¦Ł
à¦ľ à§ľà¦¤
à¦ľ à§ľà¦¬
à¦ľ à¦ĩà¦¨à¦«à¦°à¦®
Ġà¦¹ à¦Ľ
Ġà¦¹ à¦¶
Ġà¦¹ à¦£
Ġà¦¹ à¦ī
Ġà¦¹ à¦°à¦¦
Ġà¦¹ à¦¸à¦¤
Ġà¦¹ à§°
Ġà¦¹ à¦īà¦¨
Ġà¦¹ à¦ªà¦Ĺ
Ġà¦¹ à¦Łà¦¸
Ġà¦¹ à¦°à¦¬à¦ķ
Ġà¦¹ à¦°à¦¦à§Ł
Ġà¦¹ olog
Ġà¦¹ Ø§ÙĦ
Ġà¦¤ à¦²à¦ķ
Ġà¦¤ à¦¨à¦¬
Ġà¦¤ à¦®à¦ķ
Ġà¦¤ à¦°à¦ªà¦°
Ġà¦¤ à¦®à¦°
Ġà¦¤ à¦¸à¦°
Ġà¦¤ à§°
Ġà¦¤ à¦ķà¦¦
Ġà¦¤ à¦®à¦Ĺ
Ġà¦¤ à¦¦à¦¸
Ġà¦¤ à¦¦à¦ª
Ġà¦¤ à¦²à¦¤à¦²
Ġà¦¤ à¦¹à¦¶
Ġà¦ı à¦°à¦¤
Ġà¦ı à¦¬à¦¨
Ġà¦ı à¦¶à¦ķ
Ġà¦ı à¦¨à¦²
Ġà¦ı à¦®à¦¸
Ġà¦ı à¦¶à¦¹à¦°
Ġà¦ı à¦ĺà¦Łà¦¨
à¦¶ à¦¥
à¦¶ à¦¤à¦°
à¦¶ à¦°à¦¸
à¦¶ à¦°à¦ĵ
à¦¶ à¦¸à¦²
à¦¶ à¦¶à¦ķ
à¦¶ à¦°à¦Ĺ
à¦¶ à¦ıà¦°
à¦¶ à¦®à¦¸
à¦¶ à¦²à¦Ĺ
à¦¶ à¦Ŀà¦°
à¦¶ à¦¤à¦Ł
à¦¶ à¦ľà§Ł
à¦¶ à¦¶à¦¤
à¦¶ à¦¤à¦°à¦Ļ
à¦¶ à§Łà¦ķ
à¦¶ à¦īà¦ļ
à¦¶ à¦ĸà¦¬à¦°
à¦¶ à¦ľà¦¨à¦¨
à¦¶ à¦¬à¦¨à¦®
à¦¶ à¦¦à¦°à¦¦
à¦¶ à¦ıà¦ķà¦¶
à¦¼à§ĩ /
à¦¼à§ĩ à¦¼
à¦¼à§ĩ âĢĿà¥¤
à¦¼à§ĩ ---
à¦¼à§ĩ âĢĻâĢĶ
à¦¼à§ĩ âĢĿâĢĶ
à¦¼à§ĩ âĢ¦à¥¤
Ġà¦ħ à¦²à¦¬
Ġà¦ħ à¦ĩà¦Ľ
Ġà¦ħ à¦ľà¦¨à¦¦
Ġà¦ħ à¤¨
Ġà¦ħ à¦ĭà¦£
Ġà¦ħ à¤ķà¤²
à¦ĸ à¦ĸà¦¨
à¦ĸ à¦ķà¦Ł
à¦ĸ à¦®à¦¤
à¦ĸ à¦°à¦¶
à¦ĸ à¦®à¦²
à¦ĸ à¦¸à¦°
à¦ĸ à¦°à¦ĵ
à¦ĸ à¦ªà¦¥
à¦ĸ à¦¦à¦²
à¦ĸ à¦°à¦ª
à¦ĸ à¦¸à¦Ļ
à¦ĸ à¦§à¦°
à¦ĸ à¦ĺà¦¨
à¦ĸ à¦Ńà¦°à¦¤
à¦ĸ à§ľà¦ķ
à¦ĸ à§Łà¦°
à¦ĸ à¦°à¦¸à¦®
à¦Ĺ à¦ĸ
à¦Ĺ à¦¥
à¦Ĺ à¦ľà¦¨
à¦Ĺ à¦ĵà¦¯
à¦Ĺ à¦¤à¦¨
à¦Ĺ à¦°à¦¹
à¦Ĺ à¦ļà¦¨
à¦Ĺ à¦¹à¦°
à¦Ĺ à¦¸à¦°
à¦Ĺ à¦ħà¦¨
à¦Ĺ à¦¬à¦¬
à¦Ĺ à¦°à¦®à¦£
à¦Ĺ à¦®à¦§
à¦Ĺ à¦¦à¦¸
à¦Ĺ à¦¶à¦¯
à¦Ĺ à¦¦à¦ķ
à¦Ĺ à¦¶à¦¤
à¦Ĺ à¦ĸà¦ļ
à¦Ĺ à¦¬à¦¶à¦¤
à¦Ĺ à¦¬à¦¸à¦¤
à¦Ĺ à¦«à¦²à¦ķ
à¦Ĺ à¦®à¦¤à¦®
à¦Ĺ à¦ľà¦¨à¦ķà¦Ń
à¦· à¦Ŀ
à¦· à¦ªà¦¨
à¦· à¦°à¦®
à¦· à¦°à¦¨
à¦· à¦®à¦²
à¦· à¦¸à¦¨
à¦· à¦¸à¦Ļ
à¦· à¦°à¦ļ
à¦· à¦«à¦²
à¦· à¦°à¦®à¦£
à¦· à¦ľà¦¬
à¦· à¦¨à¦ĩ
à¦· à¦ªà¦£
à¦· à¦¸à¦Ł
à¦· à¦Ńà¦¯
à¦· à¦¬à¦£
à¦· à¦ĵà¦°
à¦· à¦¶à¦¯
à¦· à¦Ńà¦Ļ
à¦· à¦¸à¦Ń
à¦· à¦ľà¦Ĺà¦¤
à¦· à¦ľà¦¨à¦ĩ
à¦· à¦°à¦ķà¦£
à¦· à§ľà¦¯à¦¨
à¦· à¦¸à¦¬à¦§
à¦§ à¦·
à¦§ à¦ŀ
à¦§ à¦ĺ
à¦§ à¦°à¦¸
à¦§ à¦²à¦ķ
à¦§ à¦¦à¦°
à¦§ à¦¦à¦¯
à¦§ à¦°à¦¹
à¦§ à¦¯à¦¨
à¦§ à¦¤à¦²
à¦§ à¦¦à¦²
à¦§ à¦®à¦Ĺ
à¦§ à¦¸à¦¹
à¦§ à¦¯à¦ľ
à¦§ à¦ĵà¦²
à¦§ à¦ªà¦°à¦¬à¦°
à¦§ à¦¨à¦¬à¦¸
à¦§ à¦°à¦ªà¦²
âĢ ²
âĢ ³
âĢ Ĩ
âĢ ļ
à¦¡ à¦¬à¦¨
à¦¡ à¦ľà¦¨
à¦¡ à¦°à¦ķ
à¦¡ à¦¬à¦ª
à¦¡ à¦Ĺà¦²
à¦¡ à¦°à¦¦
à¦¡ à¦¸à¦¨
à¦¡ à¦¤à¦²
à¦¡ à¦®à¦°
à¦¡ à¦ľà¦²
à¦¡ à¦ĸà¦£
à¦¡ à¦ķà¦«
à¦¡ à¦Ĩà¦ª
à¦¡ à¦īà¦ĩà¦²
à¦¡ à¦²à¦®à¦¶
Ġà¦¯ à¦¤à¦°
Ġà¦¯ à¦®à¦¯
Ġà¦¯ à¦¤à¦²
Ġà¦¯ à§İà¦ķ
Ġà¦¯ à§İà¦ªà¦°
Ġà¦¯ à¦¦à¦¨à¦¨
à¦ļ à¦§
à¦ļ à¦Ŀ
à¦ļ à¦¨à¦¤
à¦ļ à¦®à¦¯
à¦ļ à¦°à¦²
à¦ļ à¦ĵà§Ł
à¦ļ à¦®à¦¬
à¦ļ à¦Ĺà¦¬
à¦ļ à¦¬à¦§
à¦ļ à¦ĸà¦£
à¦ļ à¦ľà¦¨à¦ĩ
à¦ļ alel
à¦¹ à¦¤à¦°
à¦¹ à¦¦à¦¨
à¦¹ à¦°à¦¯
à¦¹ à¦²à¦¬
à¦¹ à¦Ĺà¦°
à¦¹ à¦¤à¦®
à¦¹ à¦ļà¦ķ
à¦¹ à¦®à¦¬
à¦¹ à¦ľà¦®
à¦¹ à¦®à¦¦
à¦¹ à¦¹à¦®
à¦¹ à¦ķà¦£
à¦¹ à¦£à¦ķ
à¦¹ à¦ķà¦ª
à¦¹ à¦Ńà¦ķ
à¦¹ à¦ĵà¦®
à¦¹ à¦ķà¦²à¦¹
Ġà¦ķà¦° à¦ĩ
Ġà¦ķà¦° à¦¡
Ġà¦ķà¦° à¦¬à¦¨
Ġà¦ķà¦° à¦ªà¦¦
à§Ł à§İ
à§Ł à¦°à¦¸
à§Ł à¦ķà¦¤
à§Ł à¦®à¦¤
à§Ł à¦¬à¦¸
à§Ł à¦ľà¦²
à§Ł à¦§à¦°
à§Ł à¦®à§Ł
à§Ł à¦ķà¦ķ
à§Ł à¦®à¦¹
à§Ł à¦ķà¦£
Ġà¦Ĺ à¦ķ
Ġà¦Ĺ à¦·
Ġà¦Ĺ à¦§
Ġà¦Ĺ à¦ĵ
Ġà¦Ĺ à¦¬à¦²
Ġà¦Ĺ à¦¢
Ġà¦Ĺ à¦ľà¦¯
Ġà¦Ĺ à¦ľà¦ķ
à¦£ à¦¤à¦¨
à¦£ à¦Ľà¦¨
à¦£ à¦¹à¦°
à¦£ à¦¸à¦¨
à¦£ à¦¯à¦¨
à¦£ à¦¸à¦°
à¦£ à¦¨à¦¦
à¦£ à¦¬à¦¬
à¦£ à¦¬à¦¶
à¦£ à¦«à¦²
à¦£ à¦®à¦§
à¦£ à¦Ŀà¦°
à¦£ à¦¬à¦Ń
à¦£ à¦¶à¦¯
à¦£ à¦ķà¦®
à¦£ à¦£à¦ķ
à¦£ à¦Ńà§Ł
à¦£ à¦¶à¦¸
à¦£ à¦«à¦¡
à¦£ à¦ľà¦²à¦§
à¦ģ à¦¿
à¦ģ âĢĻ
à¦ģ âĢĵ
à¦¥ à¦ľ
à¦¥ à¦§
à¦¥ à¦¥
à¦¥ à¦ŀ
à¦¥ à¦ķà¦²
à¦¥ à¦¦à¦°
à¦¥ à¦°à¦¹
à¦¥ à¦ĵà§Ł
à¦¥ à¦Ĺà¦¨
à¦¥ à¦®à¦°
à¦¥ à¦ªà¦¦
à¦¥ à¦ļà¦°
à¦¥ à¦ķà¦¶
à¦¥ à¦®à§Ł
à¦¥ à¦ķà¦ķ
à¦¥ à¦ķà¦¡
à¦¥ à¦²à¦Ĺ
Ġà¦¶ à¦§
Ġà¦¶ à¦Ń
Ġà¦¶ à¦ķà¦²
Ġà¦¶ à¦¤à¦®
Ġà¦¶ à¦ªà¦Ł
Ġà¦¶ à¦¦à¦¶
Ġà¦¶ à¦«à¦°
Ġà¦¶ ar
Ġà¦¶ à¦¤à¦°à¦ķà¦®
Ġà¦¶ Pas
Ġà¦ľ à¦·
Ġà¦ľ à¦ł
Ġà¦ľ à¦ªà¦¨
Ġà¦ľ à¦°à¦®
Ġà¦ľ à¦ĩà¦¨
Ġà¦ľ à¦ªà¦²
Ġà¦ļ à§Ł
Ġà¦ļ à¦°à¦¤
Ġà¦ļ à¦¹à¦°
Ġà¦ļ à¦·à¦¤
Ġà¦ļ à¦¢
Ġà¦ļ à¦ªà¦¸
Ġà¦ļ à¦ªà¦ļ
Ġà¦ļ à¤¶
Ġà¦Ń à¦¤
Ġà¦Ń à¦°à¦®
Ġà¦Ń à¦ĩà¦¨
Ġà¦Ń à¦ľà¦¸
Ġà¦Ń à¦¨à¦¯
Ġà¦Ń à¦²à¦Ł
Ġà¦Ń à¦ĩà¦¸
Ġà¦Ń à¦¸à¦Ń
Ġà¦° à¦§
Ġà¦° à¦Ń
Ġà¦° à¦¬à¦°
Ġà¦° à¦¨à¦¤
Ġà¦° à¦®à¦ķ
Ġà¦° à¦¬à¦¦
Ġà¦° à¦ĩà¦¯
Ġà¦° à¦Ĺà¦ľ
Ġà¦° à¦Łà¦¬
Ġà¦° à¦¥à¦ķ
Ġà¦° à¦ĩà¦¸
Ġà¦° à¦Łà¦Ľ
Ġà¦° à¦®à¦®
Ġà¦° à¦Ńà¦¸
Ġà¦° à¤ķ
Ġà¦° à¦īà¦«
à§ĩà¥¤ #
à§ĩà¥¤ ]
à§ĩà¥¤ Â»
à§ĩà¥¤ ï»¿
à¦ĵ à¦ī
à¦ĵ à¦ķà¦²
à¦ĵ à¦Ĺà¦¨
à¦ĵ à¦°à¦Ń
à¦ĵ à¦¦à¦²
à¦ĵ à¦¢
à¦ĵ à¦ıà¦ķà¦Ł
à¦ĵ à¦²à¦ª
à¦ĵ à¦łà¦°
à¦Ń à¦¬à¦²
à¦Ń à¦¦à¦°
à¦Ń à¦°à¦²
à¦Ń à¦°à¦ĵ
à¦Ń à¦¨à¦Ł
à¦Ń à¦¤à¦®
à¦Ń à¦ľà¦²
à¦Ń à¦Łà¦¤
à¦Ń à¦Ńà¦°
à¦Ń à¦ľà¦¸
à¦Ń à§Łà¦¤
à¦Ń à¦¶à¦¯
à¦Ń à¦²à¦ª
à¦Ń à¦¬à¦¨à¦Ł
Ġà¦ıà¦ķ à¦ĵ
Ġà¦ıà¦ķ à¦ĸà¦¨
Ġà¦ıà¦ķ à¦ķà¦°
Ġà¦ıà¦ķ à¦ķà¦¤
Ġà¦ıà¦ķ à¦®à¦§
Ġà¦ıà¦ķ à¦ªà¦²
Ġà¦ıà¦ķ à¦Ĺà¦£
Ġà¦ıà¦ķ à¦ķà¦®
Ġà¦ıà¦ķ à¦Ľà¦¤
Ġà¦ıà¦ķ à¦ħà¦ªà¦°
Ġà¦ıà¦ķ à¦ıà¦ķà¦¸à¦®à¦¯
Ġà¦ıà¦ķ à¦Ĩà¦§à¦¬
à¦¼à¦¾ "
à¦¼à¦¾ =
à¦¼à¦¾ ]
à¦¼à¦¾ âĢĿà¥¤
à¦¼à¦¾ âĢĶâĢĺ
à¦¼à¦¾ âĢĿâĢĶ
à¦¼à¦¾ à¦Ĥà¥¤
à§ĥ ,
à§ĥ ?
à§ĥ à§ĥ
Ġà¦Ľ à¦ľ
Ġà¦Ľ à¦ĸ
Ġà¦Ľ à¦¹
Ġà¦Ľ à¦ķà¦¤
Ġà¦Ľ à¦²à¦¤
Ġà¦Ľ à¦ķà¦¬
Ġà¦Ľ à¦ĩà¦Ł
Ġà¦Ľ à¦¦à¦ķ
Ġà¦Ľ à¦ķà¦ļ
Ġà¦Ľ à¦Ĩà¦¨
Ġà¦Ľ à¦ĩà¦ıà¦°
Ġà¦Ĩà¦® à¦¯
Ġà¦Ĩà¦® à¦«à¦²
Ġà¦Ĩà¦® à¦²à¦ĩ
Ġà¦Ĩà¦® à¦²à¦¦
à¦ł à¦£
à¦ł à¦°à¦¤
à¦ł à¦ľà¦¨
à¦ł à¦Ĺà¦²
à¦ł à¦°à¦¹
à¦ł à¦®à¦¯
à¦ł à¦®à¦£
à¦ł à¦¶à¦ķ
à¦ł à¦¨à¦Ĺ
à¦ł à¦¨à¦¬à¦¤
à¦ł à¦®à§Ł
à¦ł à¦Ńà¦¬à¦¨
Ġà¦ī à¦Ļ
Ġà¦ī à¦ĺ
Ġà¦ī à¦¨à¦¤
Ġà¦ī à¦¸à¦®
Ġà¦ī à¦·à¦°
Ġà¦ī à¦°à¦Ĺ
Ġà¦ī à¦¬à¦Ł
Ġà¦ī à¦Łà¦ª
Ġà¦ī à¦Ĺà¦¡
Ġà¦ī à¦Łà¦Ĺ
Ġà¦ī à¦«à¦¸
à¦Ĥ )
à¦Ĥ âĢĿ
à¦Ĥ à¥¤âĢĿ
à¦Ĥ âĢĻà¥¤
à¦Ĥ !âĢĻ
à¦Ĥ âĢĻ-
à¦Ĥ âĢ¦à¥¤
à§Ĥ :
à§Ĥ à¦¾
à§Ĥ à¦¿
à§Ĥ à¦Ĥ
à§Ĥ à§Ĥ
à§Ĥ âĢĶ
à§Ĥ âĢĻ
à¦¾à¦ģ '
à¦¾à¦ģ à¦¿
à¦Ļ à¦®
à¦Ļ à¦ĩ
à¦Ļ à¦ĵ
à¦Ļ à¦ĺ
à¦Ļ à¦ıà¦°
à¦Ļ à¦¨à¦¹
à¦Ļ à¦ĵà¦Ń
Ġà¦² à¦Ŀ
Ġà¦² à¦ĵà§Ł
Ġà¦² à¦¬à¦ķ
Ġà¦² à¦¹à¦¨
Ġà¦² à¦ĩà¦Ł
Ġà¦² à¦Łà¦¬
Ġà¦² à¦Ĺà¦¬
Ġà¦² à¦¬à¦ľ
Ġà¦² à§Łà¦®
Ġà¦² à¦¬à¦¨à¦¦
Ġà¦² à¦Ĺà¦¬à¦Ĺ
Ġà¦² à¦īà¦Ľ
Ġà¦² à¦°à¦¨à¦¸
Ġà¦ĵ à¦¤à¦°
Ġà¦ĵ à¦ªà¦¨
Ġà¦ĵ à¦¬à¦²
Ġà¦ĵ à¦²à¦¨
Ġà¦ĵ à¦ªà¦¡
Ġà¦ĵ à¦¸à¦¬à¦ĩ
Ġà¦ĵ à¦²à¦®
Ġà¦ĵ à¦ĸà¦°
Ġà¦¥ à¦°à¦¥
Ġà¦¥ à¦®à¦¤
Ġà¦¥ à¦Łà¦²
à§ĩ, (
à§ĩ, âĢĶâĢľ
Ġà¦¬à¦² à¦ļ
Ġà¦« à¦°à¦ľ
Ġà¦« à¦ĩà¦°
Ġà¦« à¦°à¦Ł
Ġà¦« à¦°à§Ł
Ġà¦Ĩà¦° à¦¦
Ġà¦Ĩà¦° à¦ľà¦¨
Ġà¦Ĩà¦° à¦ı
Ġà¦Ĩà¦° à¦ıà¦ķ
Ġà¦Ĩà¦° à¦ıà¦ķà¦Ł
Ġà¦Ĩà¦° à¦ıà¦ķà¦ľà¦¨
Ġà¦ĸ à¦ľ
Ġà¦ĸ à§İ
Ġà¦ĸ à¦²à¦¤
Ġà¦ĸ à¦°à¦¦
Ġà¦ĸ à¦®à¦ķ
Ġà¦ĸ à¦ĩà¦¨
Ġà¦ĸ à¦¸à¦°
Ġà¦ĸ à¦¸à¦¤
Ġà¦ĸ à¦°à¦§
Ġà¦ĸ à¦¸à¦Ľ
Ġà¦ĸ à¦¬à¦°à¦ķ
Ġà¦ĸ à¦¤à¦°à¦¨
à¦°à¦¤ à¦ĸ
à¦°à¦¤ à¦Ĺ
à¦°à¦¤ à¦¸à¦®
à¦°à¦¤ à¦Ńà¦¬
à¦°à¦¤ à§°
à¦°à¦¤ à¦®à§Ł
à¦°à¦¤ à¦Ńà¦Ļ
Ġà¦ħà¦¨ à¦ķ
Ġà¦ħà¦¨ à¦ª
Ġà¦ħà¦¨ à¦ľ
Ġà¦ħà¦¨ à¦¶
Ġà¦ħà¦¨ à¦ļ
Ġà¦ħà¦¨ à¦ªà¦¤
Ġà¦ħà¦¨ à¦¬à¦Ĺ
Ġà¦ħà¦¨ à¦®à¦¨à¦¸
Ġà¦§ à¦Ł
Ġà¦§ à¦®à¦£
Ġà¦§ à¦¨à¦°
Ġà¦§ à¦¬à¦²à¦¤
Ġà¦§ à¤¡
Ġà¦§ ool
Ġà¦ªà¦° à¦ķà¦²
Ġà¦ªà¦° à¦®à¦¯
Ġà¦ªà¦° à¦®à¦ķ
Ġà¦ªà¦° à¦¬à¦¶
Ġà¦ªà¦° à¦®à¦¸
Ġà¦ªà¦° à¦¬à¦Ł
âĢĶ !
âĢĶ #
âĢĶ '
Ġà¦¸à¦® à¦¹
Ġà¦¸à¦® à¦¬à¦°
Ġà¦¸à¦® à¦°à¦¸
Ġà¦¸à¦® à§Łà¦¨
Ġà¦¸à¦® à¦®à¦¨à¦¸
ĠâĢ ĭ
ĠâĢ ĤĊ
à¦¬à¦¨ à¦Ľ
à¦¬à¦¨ à¦Ŀ
à¦¬à¦¨ à¦ľà¦¨
à¦¬à¦¨ à¦¤à¦°
à¦¬à¦¨ à¦°à¦®
à¦¬à¦¨ à¦Ĺà¦¤
à¦¬à¦¨ à¦ļà¦¨
à¦¬à¦¨ à¦°à¦¶
à¦¬à¦¨ à¦¯à¦¨
à¦¬à¦¨ à¦¤à¦²
à¦¬à¦¨ à¦¸à¦°
à¦¬à¦¨ à¦¸à¦¤
à¦¬à¦¨ à¦ľà¦²
à¦¬à¦¨ à¦¤à¦¤
à¦¬à¦¨ à¦ľà¦¯
à¦¬à¦¨ à¦®à¦§
à¦¬à¦¨ à¦ĺà¦¨
à¦¬à¦¨ à¦ķà¦£
à¦¬à¦¨ à¦ĸà¦£
à¦¬à¦¨ à¦Ĺà¦łà¦¨
à¦¬à¦¨ à¦ªà¦ŀ
à¦¬à¦¨ à¦ļà¦ŀ
à¦¼à¦¿ )
à¦¼à¦¿ âĢĶâĢľ
à¦¼à¦¿ ,âĢĿ
à¦¼à¦¿ !âĢĻ
à§ľ à§Ł
à§ľ à¦ľà¦¨
à§ľ à¦ķà¦Ł
à§ľ à¦§à¦°
à§ľ à¦ķà¦°à¦£
à§ľ à¦®à¦ľ
à¦ĸà¦¨ à¦¨
à¦ĸà¦¨ à¦¤
à¦ĸà¦¨ à¦ĩ
à¦ĸà¦¨ à¦Ĺ
à¦ĸà¦¨ à¦ļ
à¦ĸà¦¨ à¦®à¦¯
Ġà¦ĺ à¦Ļ
Ġà¦ĺ à¦°à¦¹
Ġà¦ĺ à¦¸à¦°
Ġà¦ĺ à¦¨à¦¦
Ġà¦ĺ à¦£à¦¤
Ġà¦ĺ à¦·à¦°
Ġà¦ĺ à¦·à¦Ł
Ġà¦®à¦¨ à¦Ľ
Ġà¦®à¦¨ à¦·
Ġà¦®à¦¨ à¦ļ
Ġà¦®à¦¨ à¦Ŀ
Ġà¦®à¦¨ à¦¤à¦°
Ġà¦®à¦¨ à¦¨à¦Ĺ
Ġà¦®à¦¨ à¦Łà¦¨
Ġà¦®à¦¨ à¦¨à¦ļ
Ġà¦®à¦¨ à¦¸à¦¬à¦¦
à¦ªà¦° à¦Ľ
à¦ªà¦° à¦Ĺ
à¦ªà¦° à¦ļ
à¦ªà¦° à¦¹
à¦ªà¦° à¦Ń
à¦ªà¦° à¦Ļ
à¦ªà¦° à¦¶à¦ª
à¦ªà¦° à¦¬à¦¶à¦¤
à¦°à¦£ à¦²
à¦°à¦£ à¦·
à¦°à¦£ à¦£
à¦°à¦£ à¦°à¦£
à¦°à¦£ à¦ªà¦¥
à¦°à¦£ à§Łà¦Ĺ
à¦°à¦£ à¦¬à¦¸à¦¨
à¦°à¦£ à¦¡à¦Ļ
Ġà¦ıà¦ĩ à¦ķ
Ġà¦ıà¦ĩ à¦ľ
Ġà¦ıà¦ĩ à¦ıà¦ĩ
à¦¿à¥¤ ?âĢĻ
à¦¿à¥¤ à¥¤'
à¦¿à¥¤ ''
à¦®à¦¨ à¦²
à¦®à¦¨ à¦¬
à¦®à¦¨ à¦Ĺ
à¦®à¦¨ à¦°à¦®
à¦®à¦¨ à¦¬à¦¦
à¦®à¦¨ à¦ªà¦Ł
à¦Ŀ à¦Ĺ
à¦Ŀ à¦°à¦¸
à¦Ŀ à¦¦à¦°
à¦Ŀ à¦Ĺà¦²
à¦Ŀ à¦²à¦¬
à¦Ŀ à¦°à¦²
à¦Ŀ à¦Łà¦ķ
à¦ľà¦¨ à¦ªà¦°
à¦ľà¦¨ à¦ľà¦¨
à¦ľà¦¨ à¦ķà¦²
à¦ľà¦¨ à¦ķà¦°
à¦ľà¦¨ à¦Ĺà¦¤
à¦ľà¦¨ à¦®à¦¯
à¦ľà¦¨ à¦¤à¦²
à¦ľà¦¨ à¦®à¦£
à¦ľà¦¨ à¦Ńà¦°
à¦ľà¦¨ à¦¸à¦¹
à¦ľà¦¨ à¦¸à¦Ń
à¦ľà¦¨ à¦¸à¦ļ
à¦ŀ à¦¯
à¦ŀ à¦¶
à¦ŀ à¦ªà¦¤
à¦ŀ à¦¬à¦¹
à¦¤à¦° à¦ĸ
à¦¤à¦° à¦ľà¦¨
à¦¤à¦° à¦ķà¦²
à¦¤à¦° à¦ļà¦¨
à¦¤à¦° à¦®à¦¯
à¦¤à¦° à¦¯à¦¨
à¦¤à¦° à¦ªà¦¥
à¦¤à¦° à¦ĺà¦°
à¦¤à¦° à¦ķà¦°à¦£
à¦¤à¦° à¦Ĺà¦¸
à¦¤à¦° à¦ľà¦Ĺà§İà¦ķ
à¦« à¦¯
à¦« à¦Ļ
à¦« à¦²à¦¬
à¦« à¦Łà¦Ł
à¦ī à¦Ļ
à¦ī à¦°à¦¸
à¦ī à¦¨à¦ķ
à¦ī à¦Łà¦²
à¦ī à¦ĩà¦°
à¦ī à¦¦à¦®
à¦ī à¦¸à¦Ł
à¦ī à¦ľà¦®
à¦ī à¦¦à¦Ĺ
à¦ī à¦ļà¦Ł
à¦ī à¦ľà¦Ĺ
à¦ī à¦ĩà¦ľ
à¦ī à¦ªà¦ķà¦¥
à¦ī à¦·à¦¸
à¦ī à¦Ŀà¦¡
à¦¿, âĢĻâĢĶ
à¦ªà¦¨ à¦¸
à¦ªà¦¨ à¦¸à¦¨
à¦ªà¦¨ à¦ĺà¦°
à¦ªà¦¨ à¦¸à¦°à¦¶
Ġà¦Ĩà¦² à¦¦
Ġà¦Ĩà¦² à¦ĵà¦¯
Ġà¦Ĩà¦² à¦Ĺà¦°
Ġà¦Ĩà¦² à¤®
à¦°à¦¬ à¦Ļ
à¦°à¦¬ à¦®à¦¨
à¦°à¦¬ à¦²à¦¬
à¦°à¦¬ à¦®à¦£
à¦°à¦¬ à¦ļà¦ķ
à¦°à¦¬ à¦ķà¦¥
à¦°à¦¬ à¦¹à¦£
à¦°à¦¬ à¦¶à¦¶
à¦Ĩ à¦°à¦ĩ
à¦Ĩ à¦Ľà¦°
à¦Ĩ à¦¦à¦²
à¦Ĩ à¦Łà¦²
à¦Ĩ à¦¬à¦¶
à¦Ĩ à¦Łà¦¬
à¦Ĩ à¦¤à¦ª
à¦Ĩ à¦ªà¦®
à¦Ĩ à¦¶à¦°
à¦Ĩ à¦¬à¦¡
à¦Ĩ à¦¨à¦®
à¦Ĩ à¦«à¦°
à¦Ĩ à¦§à¦®
à¦Ĩ à¦ĩà¦«
à¦Ĩ à¦Ľà¦¡
à¦Ĩ à¦«à¦¨
à§İ à¦¤
à§İ à¦Ĺ
à§İ à¦®à¦¤
à§İ à¦Ŀà¦²
à§İ à¦¹à¦ł
à§İ à¦Ńà¦ķ
à§İ à¦¬à¦°à¦£
à§İ à¦ļà¦®à¦ķ
à¦ı à§ľ
à¦ı à¦¤à¦¬
à¦ı à¦¸à¦®
à¦ı à¦Ĩà¦ĩà§Ł
à¦ı à¦ıà¦¸à¦ıà¦¸
âĢĿ ;
à¦°à¦ķ à¦¸
à¦°à¦ķ à¦ľ
à¦°à¦ķ à¦Ĺ
à¦°à¦ķ à¦°à¦²
à¦°à¦ķ à¦®à¦£
à¦°à¦ķ à¦°à¦°
à¦°à¦ķ à¦¨à¦¡
à¦°à¦ķ à¦°à¦£à¦ķ
Ġà¦¸à¦¬ à¦ľà¦¨
Ġà¦¸à¦¬ à¦²à¦¤
Ġà¦¸à¦¬ à¦ķà¦¥
Ġà¦¸à¦¬ à¦°à¦®à¦¤
à¦¬à¦° à¦¯
à¦¬à¦° à¦¸à¦Ļ
à¦¬à¦° à¦Łà¦°
à¦¬à¦° à¦ªà¦²
à¦¬à¦° à¦Ĺà¦¸
à¦¬à¦° à¦·à¦¨
à¦¬à¦° à¦®à¦ļà¦¨
à¦¬à¦° à¦¸à¦ľ
Ġà¦¬à¦²à¦² à¦°à¦¬
Ġà¦¬à¦²à¦² à¦ĺ
Ġà¦¬à¦²à¦² à¦¸à¦¤
Ġà¦¬à¦²à¦² à¦§à¦°
Ġà¦¬à¦²à¦² à¦ıà¦°
Ġà¦¬à¦²à¦² à¦ĵà¦°
Ġà¦¬à¦²à¦² à¦ħà¦¤
Ġà¦¬à¦²à¦² à¦ħà¦¸
Ġà¦¬à¦²à¦² à¦ıà¦ķà¦¦
Ġà¦¬à¦²à¦² à¦ıà¦¸
Ġà¦¬à¦²à¦² à¦ıà¦®à¦¨
Ġà¦¬à¦²à¦² à¦ĵà¦¦
Ġà¦¬à¦²à¦² à¦Ĩà¦¸à¦²
Ġà¦¬à¦²à¦² à¦Ĩà¦°à¦ĵ
Ġà¦¬à¦²à¦² à¦ıà¦ĩà¦¬
Ġà¦¬à¦²à¦² à¦¨à¦°à¦°
Ġà¦¬à¦²à¦² à¦ıà¦ķà¦¦à¦²
Ġà¦Ĩà¦¸ à¦¯
Ġà¦Ĩà¦¸ à¦¸
Ġà¦Ĩà¦¸ à¦«
Ġà¦Ĩà¦¸ à¦²à¦ķ
Ġà¦Ĩà¦¸ à¦°à¦ĵ
Ġà¦Ĩà¦¸ à¦¨à¦Ĺ
Ġà¦Ł à¦°à¦¨
Ġà¦Ł à¦Ĺà¦²
Ġà¦Ł à¦Łà¦ķ
Ġà¦Ł à¦ªà¦Ł
Ġà¦Ł à¦ķà¦¨
Ġà¦Ł à¦¸à¦ķ
Ġà¦Ł à¦ķà¦¶
âĢĻ .
âĢĻ à¦¾
âĢĻ âĢ¦
âĢĻ ),
Ġà¦ķà¦¥ à¦®
Ġà¦ķà¦¥ à¦¨à¦ķ
Ġà¦ķà¦¥ à¦ķà¦ķ
à¦¼à¥¤ )
Ġà¦¹à¦² à¦¤
Ġà¦¹à¦² à¦¯
Ġà¦¹à¦² à¦®à¦¨
Ġà¦¹à¦² à¦§à¦°
Ġà¦¹à¦² à¦®à¦¸
Ġà¦¹à¦² à¦ıà¦ĸà¦¨
Ġà¦¡ à¦°à¦ķ
Ġà¦¡ à¦²à¦Ľ
Ġà¦¡ à¦Łà¦Ĺ
Ġà¦¡ à¦Ĺà¦¸
Ġà¦¡ à¦ķà¦Łà¦°
à§Ī à¦¾
à§Ī âĢ¦
Ġà¦ĩ à¦ª
Ġà¦ĩ à¦ľà¦¨
Ġà¦ĩ à¦¸à¦¬
Ġà¦ĩ à¦°à¦¶
Ġà¦ĩ à¦¦à¦²
Ġà¦ĩ à¦§à¦°
Ġà¦ĩ à¦īà¦²
Ġà¦ĩ à¦ľà¦¤
Ġà¦ĩ à¦Łà¦«
Ġà¦ĩ à¦Łà¦Ł
Ġà¦ĩ à§Łà¦°
à¦ĺ à¦ł
à¦ĺ à¦¬à¦¨
à¦ĺ à¦°à¦£
à¦ĺ à¦®à¦¨
à¦ĺ à¦²à¦ķ
à¦ĺ à¦Ĺà¦²
à¦ĺ à¦®à¦¯
à¦ĺ à¦°à¦ĩ
à¦ĺ à¦¸à¦¨
à¦ĺ à¦¨à¦¨
à¦ĺ à¦¨à¦¦
à¦ĺ à¦¬à¦¬
à¦ĺ à¦ªà¦Ł
à¦ĺ à¦Ĺà¦®
à¦ĺ à¦¸à¦®à§Ł
à¦ĺ à¦²à¦Ĺà¦¡
Ġà¦®à¦¤ à¦²
Ġà¦®à¦¤ à¦¸
Ġà¦®à¦¤ à¦£
Ġà¦®à¦¤ à¦ĵ
Ġà¦®à¦¤ à¦¨à¦ĵ
Ġà¦®à¦¤ à¦Ĺà¦¸
à§Į âĢĶ
à§Į à¦ĥ
à§Į à¦ĥ,
Ġà¦ľà¦¨ à¦²
Ġà¦ľà¦¨ à¦ļ
Ġà¦ľà¦¨ à¦°à¦¬
Ġà¦ľà¦¨ à¦ķà¦ķ
Ġà¦ľà¦¨ à¦®à¦ľ
Ġà¦ľà¦¨ à¦Ĺà¦¨à¦ķ
Ġà¦¹à¦¬ à¦¹à¦¬
Ġà¦§à¦° à¦¨à¦Ĺ
Ġà¦§à¦° à¦®à¦¶
Ġà¦§à¦° à¦®à¦ª
Ġà¦Ŀ à¦°à¦¸
Ġà¦Ŀ à¦ªà¦ķ
Ġà¦Ŀ à¦²à¦ķà¦Ł
à¦¬à¦² à¦ĸ
à¦¬à¦² à¦¡
à¦¬à¦² à¦¬à¦¨
Ġà¦ıà¦¬ à¦®
à¦¼, -
à¦¼, âĢĶ
à¦¼, âĢĿâĢĶ
ĠâĢĺ (
à¦¬à¦ª à¦ŀ
à¦¬à¦ª à¦¦à¦Ł
Ġà¦ħà¦¬ à¦Ľ
Ġà¦ħà¦¬ à¦¤à¦°
Ġà¦ķà¦°à¦¤ à¦®
à¦°à¦® à¦ļ
à¦°à¦® à¦ķà¦²
à¦°à¦® à¦¸à¦Ļ
à¦°à¦® à¦°à¦Ĺ
à¦°à¦® à¦¹à¦¤
à¦°à¦® à¦®à§Ł
à¦°à¦® à¦Ŀà¦®
à§ģà¦ģ âĢĶ
à§ģà¦ģ à¦ĥ
à§ģà¦ģ âĢ¦
à§ģà¦ģ âĢ¦âĢĻ
à§ģà¦ģ à¦ĥ!
Ġà¦ļà¦² à¦ļà¦²
Ġà¦ļà¦² à§İà¦¶à¦ķ
Ġà¦ł à¦ĩ
Ġà¦ł à¦Ļ
Ġà¦ł à¦ķà¦¤
Ġà¦ł à¦ķà¦¨
à¦·à¦£ à¦ļ
à¦·à¦£ à¦ªà¦°
à¦·à¦£ à¦®à§Ł
à¦·à¦£ Åĵ
à¦¨à¦¤ à¦ķ
à¦¨à¦¤ à¦¦
à¦¨à¦¤ à¦ª
Ġà¦ķà¦°à¦² à¦¤
Ġà¦ıà¦¸ à¦ĵà¦ıà¦¸
âĢĵ (
âĢĵ -
Ġà¦¬à¦¸ à¦¬à¦¤
Ġà¦¬à¦¸ à¦¬à¦ĩ
Ġà¦Ĩà¦ľ à¦¤
Ġà¦Ĩà¦ľ à¦¹
Ġà¦Ĩà¦ľ à¦®à¦¤
Ġà¦Ĩà¦ľ à¦¹à¦°
Ġà¦¢ à¦²à¦ķ
Ġà¦¢ à¦²à¦¤
Ġà¦¢ à¦²à¦¨
Ġà¦¢ à¦²à¦ª
à¦¤à¦¨ à¦ĸ
à¦¤à¦¨ à¦«
à¦¤à¦¨ à¦®à¦£
à¦¤à¦¨ à¦ĸà¦°
à¦¤à¦¨ à¦°à¦Ļ
à¦ĥ )
à¦ĥ âĢĿ
à¦ĥ ..
à¦ĥ âĢĻâĢĶ
à§ĭà¦ģ !âĢĿ
à¦ħ à¦ľà¦¨
à¦ħ à¦¤à¦°
à¦ħ à¦¨à¦¤
à¦ħ à¦°à¦¨
à¦ħ à¦°à¦¥
à¦ħ à¦°à¦¯
à¦ħ à¦¸à¦¨
à¦ħ à¦¶à¦¬
à¦ħ à¦ªà¦¥
à¦ħ à¦¸à¦Ļ
à¦ħ à¦ľà¦¯
à¦ħ à¦¤à¦Ł
à¦ħ à¦ľà¦®
à¦ħ à¦ķà¦®
à¦ħ à¦®à¦¨à¦ĩ
à¦ħ à¦¶à¦¤
à¦ħ à¦¬à¦®
à¦ħ à¦¸à¦¤à¦¤
à¦ħ à¦ªà¦¶
à¦ħ à¦ĺà¦Łà¦¨
à¦ħ à¦¸à¦«à¦²à¦¤
à¦ħ à¤ļ
Ġà¦¬à¦¨ à¦ĵ
Ġà¦¬à¦¨ à¦ķà¦°
Ġà¦¬à¦¨ à¦®à¦§
Ġà¦¨à¦¤ à¦¸
à¦ķà¦² à¦ĩ
à¦ķà¦² à¦ļ
à¦ķà¦² à¦ĵ
à¦ķà¦² à¦«
à¦ķà¦² à¦ªà¦¨
à¦ķà¦² à¦¨à¦Ĺ
à¦ķà¦² à¦ķà¦£
Ġà¦Ĩà¦¬ à¦¹à¦°
Ġà¦ªà¦¥ à¦¤à¦²
Ġà¦ªà¦¥ à¦ªà¦¥
Ġà¦ªà¦¥ à¦ļà¦ķ
Ġà¦ªà¦¥ à¦Ńà¦°
Ġà¦ªà¦¥ à¦¸à¦Ń
Ġà¦ħà¦® à§ľ
Ġà¦ħà¦® à¦ĺ
Ġà¦ħà¦® à¦°à¦ĵ
Ġà¦ħà¦® à¦¬à¦¸
Ġà¦Ĩà¦Ĺ à¦ª
Ġà¦Ĩà¦Ĺ à¦·
Ġà¦Ĩà¦Ĺ à¦Ń
Ġà¦Ĩà¦Ĺ à¦°à¦ĵà§Ł
Ġà¦Ĺà¦² à¦§
Ġà¦Ĺà¦² à¦ĺ
Ġà¦Ĺà¦² à¦Ĺà¦£
Ġà¦Ĺà¦² à¦ķà¦®
à¦ķà¦° à¦¯
à¦ķà¦° à¦ľ
à¦ķà¦° à¦ļ
à¦ķà¦° à¦¥
à¦ķà¦° à¦Ļ
à¦ķà¦° à¦ŀ
à¦ķà¦° à¦ªà¦²
à¦ķà¦° à¦ļà¦°à¦£
Ġà¦¹à§Ł à¦ĵ
à¦ķà¦Ł à¦¦
à¦ķà¦Ł à¦ľ
à¦ķà¦Ł à¦Ń
à¦ķà¦Ł à¦ľà¦¨
à¦ķà¦Ł à¦¸à¦®
à¦ķà¦Ł à¦¸à¦¹
à¦¸à¦¬ à¦¥
à¦¸à¦¬ à¦ĵ
à¦¸à¦¬ à¦°à¦ķà¦®
à¦¸à¦¬ à¦¦à¦¤
à¦°à¦¨ à¦²
à¦°à¦¨ à¦ª
à¦°à¦¨ à¦Ĺ
à¦°à¦¨ à¦Łà¦¦
Ġà¦ħà¦¸ à¦°à¦¤
Ġà¦ħà¦¸ à¦®à¦¨
Ġà¦ħà¦¸ à¦°à¦²
Ġà¦ħà¦¸ à¦®à¦ķ
Ġà¦ħà¦¸ à¦«à¦²à¦¤
à¦¯à¦¬ à¦¶
à¦¯à¦¬ à¦°à¦£
à¦¯à¦¬ à¦¦à¦¨
à¦¯à¦¬ à¦ļà¦¨
Ġà¦¤à¦¬ à¦§
Ġà¦¤à¦¬ à§İ
à§ĩà¦ģ ,
à§ĩà¦ģ à§Į
à§ĩà¦ģ âĢĵ
à§ĭà¥¤ (
à§ĭà¥¤ )
à§ĭà¥¤ âĢ¦
Ġà¦Ĩà¦ķ à¦¤
Ġà¦Ĩà¦ķ à¦¡
Ġà¦Ĩà¦ķ à¦¥
à¦¤à¦¬ à¦ļ
à¦¤à¦¬ à¦ĵ
à¦¤à¦¬ à¦¦à¦¨
à¦¤à¦¬ à¦§à¦°
à¦¤à¦¬ à§İà¦¸à¦²
à¦°à¦¸ à¦Ł
à¦°à¦¸ à¦§
à¦°à¦¸ à¦ĵ
à¦°à¦¸ à¦°à¦£
à¦°à¦¸ à¦ŀ
à¦°à¦¸ à¦ķà¦²
à¦°à¦¸ à¦¨à¦ĵ
à¦²à¦ķ à¦¶
à¦²à¦ķ à¦ĸ
à¦²à¦ķ à¦¹
à¦²à¦ķ à¦®à¦¨
à¦²à¦ķ à¦ĵà¦¯
à¦²à¦ķ à¦Ĺà¦£
à¦¨à¦¬ à¦ªà¦°
à¦¨à¦¬ à¦°à¦ķ
à¦¨à¦¬ à¦¦à¦°
à¦¨à¦¬ à¦ļà¦ķ
à¦¨à¦¬ à¦¶à¦ķ
à¦¨à¦¬ à¦¹à¦¨
à¦¨à¦¬ à¦®à¦¸
à¦¨à¦¬ à¦¸à¦¹
à¦¨à¦¬ à¦¬à¦§
à¦¨à¦¬ à¦ķà¦£
à¦¨à¦¬ à¦īà¦¦
à¦¾à¦Ĥ ;
à¦¾à¦Ĥ ?
à¦¾à¦Ĥ âĢĻ
à¦¾à¦Ĥ âĢĵ
à¦¾à¦Ĥ âĢ¦
à¦¾à¦Ĥ à¥¤âĢĻ
à§ĭ, âĢĶ
Ġà¦Ĩà¦¶ à¦ļà¦°
Ġà¦Ĩà¦ªà¦¨ à¦°
Ġà¦Ĩà¦ªà¦¨ à¦®
Ġà¦Ĩà¦ªà¦¨ à¦ªà¦°
Ġà¦Ĩà¦ªà¦¨ à¦ľà¦¨à¦¦
à¦¦à¦¨ à¦ļ
à¦ķà¦¤ à¦ª
à¦ķà¦¤ à¦Ń
à¦ķà¦¤ à¦ľà¦¨
à¦ķà¦¤ à¦®à¦¤
Ġà¦¹à¦¤ à¦ª
Ġà¦¹à¦¤ à¦¬à¦²
Ġà¦¬à¦° à¦Ł
Ġà¦¬à¦° à¦ľà¦²
Ġà¦¬à¦° à¦ĩà¦¯
Ġà¦¬à¦° à¦ĩà§Ł
à¦°à¦¥à¦® à¦ĸ
Ġà¦¸à¦¤ à¦¦
Ġà¦¸à¦¤ à§İ
Ġà¦¸à¦¤ à¦¤à¦®
à§ĩ? âĢ¦âĢĿ
Ġà¦ıà¦² à¦¤
Ġà¦ıà¦² à¦¦
Ġà¦ıà¦² à¦ľ
Ġà¦ıà¦² à¦¹
Ġà¦ıà¦² à¦Ĩà¦®
Ġà¦Ĩà¦¨ à¦®
Ġà¦Ĩà¦¨ à¦Ń
Ġà¦Ĩà¦¨ à¦¤à¦°
Ġà¦Ĩà¦¨ à¦ķà¦¦
Ġà¦Ĩà¦¨ à¦ĩà¦®
Ġà¦Ĩà¦¨ à¦ħà¦«
à¦Ĩà¦® à¦¬
à¦Ĩà¦® à¦ĩ
à¦Ĩà¦® à¦¡
Ġà¦īà¦¦ à¦²
Ġà¦īà¦¦ à¦§
Ġà¦īà¦¦ à¦Ļ
Ġà¦īà¦¦ à¦°à¦ª
Ġà¦īà¦¦ à¦ķà¦¸
Ġà¦īà¦¦ à§Łà¦®
Ġà¦īà¦¦ à§Łà¦ķ
Ġà¦ķà¦°à¦Ľ à¦ĩ
à¦¦à¦° à¦°
à¦¦à¦° à¦ª
à¦¦à¦° à¦ĸ
à¦¦à¦° à¦ĺ
à¦¦à¦° à¦ĵà¦¯
Ġà¦ħà¦° à¦°
Ġà¦ħà¦° à¦ª
à¦¾- à§ĩ
à¦¾- âĢĻ
à¦¾- âĢĺ
à¦¾- ----
à¦Ĺà¦² à¦ªà¦°
à¦Ĺà¦² à¦ªà¦¨
à¦Ĺà¦² à¦ķà¦²
à¦Ĺà¦² à¦Ĺà¦²
à¦Ĺà¦² à¦Ľà¦¨
à¦Ĺà¦² à¦ıà¦ĩ
à¦Ĺà¦² à¦¬à¦¦
à¦Ĺà¦² à¦ĺà¦°
Ġà¦ľà¦² à¦Ļ
Ġà¦ľà¦² à¦°à¦¤
Ġà¦ľà¦² à¦«
Ġà¦ľà¦² à¦ķà¦²
Ġà¦ľà¦² à¦¦à¦°
Ġà¦ľà¦² à¦¯à¦¨
Ġà¦ľà¦² à¦¤à¦²
Ġà¦ľà¦² à¦Ĺà¦°
Ġà¦ľà¦² à¦Łà¦²
Ġà¦ľà¦² à¦¬à¦¦
Ġà¦ľà¦² à¦®à¦§
Ġà¦ľà¦² à¦¦à¦®
Ġà¦ľà¦² à¦¬à¦£
Ġà¦ľà¦² à¦¸à¦¹
Ġà¦ľà¦² à¦Ľà¦¤
Ġà¦ľà¦² Ø´Ø§Ø±
à¦²à¦¤ à¦Ł
à¦²à¦¤ à¦ª
à¦²à¦¤ à¦ĩ
à¦Ĺà¦¤ à¦ľ
à¦¦à¦¯ à¦ľ
Ġà¦¶à¦¬ à¦ķ
Ġà¦¶à¦¬ à¦Ł
à¦¿à¦Ĥ :
à¦¿à¦Ĥ à¥¤âĢĿ
à¦¿à¦Ĥ âĢĶâĢľ
à¦¿à¦Ĥ ,âĢĿ
à¦¿à¦Ĥ )à¥¤
à¦¶à¦¨ à¦¯
à¦¶à¦¨ à¦¡
à¦¶à¦¨ à¦Ń
à¦¶à¦¨ à¦ľà¦¨
à¦¶à¦¨ à¦Ĺà¦°
à¦¶à¦¨ à¦¶à¦ª
à¦¶à¦¨ à¦ķà¦Ń
à¦®à¦¤ à¦¸
Ġà¦ħà¦¤ à¦¤
Ġà¦ħà¦¤ à¦Ļ
Ġà¦ħà¦¤ à¦¸à¦¬
Ġà¦ħà¦¤ à¦²à¦¤
Ġà¦ħà¦¤ à¦²à¦¬
Ġà¦ħà¦¤ à¦¤à¦Ĺ
à¦¯à¦ķ à¦®
à¦¯à¦ķ à¦ĩ
à¦¯à¦ķ à¦Ĺ
à¦¯à¦ķ à¦®à¦²
Ġà¦¸à¦¨ à¦¨
à¦§à¦ķ à¦¸
à¦§à¦ķ à¦Ĺà¦£
à¦°à¦¹ à¦ľ
à¦°à¦¹ à¦®à¦¨
à¦°à¦¹ à¦°à¦¬
à¦°à¦¹ à¦®à¦¯
à¦°à¦¹ à¦°à¦Ń
à¦°à¦¹ à¦°à¦Ł
à¦°à¦¹ à¦®à§Ł
à¦°à¦¹ à¦ľà¦¨à¦ķ
à¦°à¦¹ à¦Ĺà¦£
Ġà¦ĺà¦° à¦ļ
Ġà¦ĺà¦° à¦ĵà§Ł
Ġà¦ĺà¦° à¦Ńà¦°
Ġà¦¯à¦¦ à¦¬
Ġà¦¯à¦¦ à¦ª
Ġà¦īà¦łà¦² à¦¬
Ġà¦īà¦łà¦² à¦®
Ġà¦īà¦łà¦² à¦ĩ
Ġà¦īà¦łà¦² à¦¹
Ġà¦īà¦łà¦² à¦«
Ġà¦īà¦łà¦² à¦Ĩà¦®
Ġà¦īà¦łà¦² à¦ıà¦ĩ
à¦¹à¦¸ à¦¨
à¦¹à¦¸ à¦¸
à¦¹à¦¸ à¦®à¦¨
à¦ļà¦¨ à¦°
à¦ļà¦¨ à¦®
à¦ļà¦¨ à¦¸
à¦ļà¦¨ à¦ª
à¦ļà¦¨ à¦ĩ
à¦²à¦¨ à¦ľ
à¦²à¦¨ à¦ķà¦²
à¦²à¦¨ à¦¸à¦®
à¦²à¦¨ à¦ļà¦°
à¦²à¦¨ à§Łà¦¨
à¦²à¦¨ à¦²à¦Ĺ
à¦²à¦¨ à¦ķà¦¥
à¦²à¦¨ à¦¸à¦¹
à¦²à¦¨ à¦®à¦ŀ
à¦²à¦¨ à¦ĺà¦Ł
Ġà¦ķà¦°à¦¬ à¦ķ
Ġà¦ķà¦°à¦¬ à¦£
Ġà¦ķà¦°à¦¬ à¦ĵ
Ġà¦®à¦¹ à¦Ń
Ġà¦®à¦¹ à§İà¦¸
Ġà¦®à¦¹ à¦²à¦Ł
Ġà¦īà¦ª à¦§
Ġà¦īà¦ª à¦ļà¦°
Ġà¦īà¦ª à¦²à¦Ń
Ġà¦¸à¦° à¦°
Ġà¦¸à¦° à¦ĸ
Ġà¦¸à¦° à¦«
à¦°à¦¶ à¦²
à¦°à¦¶ à¦¬à¦¤
à¦ĸà¦¤ à¦®
à¦°à¦¯ à¦¯
à¦¬à¦¤ à¦Ł
à¦¬à¦¤ à¦ľ
à¦¬à¦¤ à¦Ĺ
à¦¬à¦¤ à¦®à¦¯
à¦¬à¦¤ à¦¸à¦®
à¦¬à¦¤ à¦ķà¦¨
à¦¨à¦ĵ à¦¬
à¦¨à¦ĵ à¦ľ
à¦¨à¦ĵ à¦Ĺ
à¦Ľà¦¨ à¦®
à¦Ľà¦¨ à¦Ń
à¦ĩà¦² à¦ªà¦¨
à¦ĩà¦² à¦¬à¦ķ
à¦ĩà¦² à¦Łà¦¦
à¦®à¦² à¦¶
à¦®à¦² à¦ļ
à¦®à¦² à¦Ļ
à¦®à¦² à¦®à¦¤
à¦ĸà¦² à¦°
à¦ĸà¦² à¦¬
à¦ĸà¦² à¦¦
à¦ĸà¦² à¦ª
à¦ĸà¦² à¦ļ
à¦ĸà¦² à¦ıà¦ķ
à¦ĸà¦² à¦¬à¦¦
à¦ĸà¦² à¦ıà¦ķà¦Ł
à¦ĸà¦² à¦Ńà¦Ļ
à¦ĸà¦² à¦ĺà¦°à¦Ł
à¦§à¦¨ à¦ľ
à¦§à¦¨ à¦ŀ
à¦§à¦¨ à¦ķà¦²
à¦§à¦¨ à¦ķà¦°
à¦§à¦¨ à¦ªà¦¤
à¦§à¦¨ à¦ļà¦°
à¦§à¦¨ à¦ķà¦¥
à¦§à¦¨ à¦¦à¦¶
à¦®à¦¯ à¦¦
à¦²à¦¬ à¦¶
à¦²à¦¬ à¦Ĺ
à¦²à¦¬ à¦®à¦°
à§ĩâĢĶ à¥¤âĢĻ
à¦°à¦¦ à¦ª
à¦°à¦¦ à¦Ń
à¦°à¦ľ à¦Ł
à¦°à¦ľ à¦¬à¦²
Ġà¦ħà¦ª à¦§
Ġà¦ħà¦ª à¦ł
Ġà¦ħà¦ª à¦¹à¦°
Ġà¦ħà¦ª à¦¸à¦°
Ġà¦ħà¦ª à¦¶à¦®
Ġà¦ıà¦®à¦¨ à¦¤
Ġà¦ıà¦®à¦¨ à¦§
à¦°à¦² à§Łà¦ķ
à¦°à¦² à§Łà¦¬
Ġà¦ķà¦² à¦¯
Ġà¦ķà¦² à¦¡
Ġà¦ķà¦² à¦ļ
Ġà¦ķà¦² à¦®à¦²
Ġà¦ķà¦² à¦®à¦¬
Ġà¦ķà¦² à¦®à¦¸
Ġà¦ķà¦² à¦¹à¦¬
Ġà¦ķà¦² à¦¹à¦Ł
Ġà¦ħà¦§ à¦®à¦ķ
à¦¼à§ĭ '
à¦¼à§ĭ :
à¦¼à§ĭ âĢĿ
à¦¼à§ĭ âĢ¦
à¦¼à§ĭ ?âĢĿ
à¦¼à§ĭ --
à¦¼à§ĭ âĢĻ,
à¦ļà¦² à¦°
à¦ļà¦² à¦¶
à¦ļà¦² à¦Ĺà¦¤
à¦ļà¦² à¦¸à¦¹
Ġà¦¸à¦¹ à¦¤
Ġà¦¸à¦¹ à¦ļ
Ġà¦¸à¦¹ à¦®à¦¨
Ġà¦¸à¦¹ à¦¬à¦¤
Ġà¦¸à¦¹ à¦ļà¦°à¦®
à¦ªà¦¤ à¦²
à¦ªà¦¤ à¦ŀ
à¦®à¦ķ à¦¸
à¦®à¦ķ à¦°à¦ķ
à¦®à¦ķ à§°
à¦°à¦ĩ à¦®
à¦°à¦ĩ à¦¸
à¦¹à¦° à¦°
à¦¹à¦° à¦Ł
à¦¹à¦° à¦Ńà¦°
Ġà¦īà¦¤ à¦¸
Ġà¦īà¦¤ à¦ª
Ġà¦Ĩà¦¤ à¦¸à¦¬
Ġà¦Ĩà¦¤ à¦¸à¦ķ
Ġà¦ıà¦¤ à¦ľ
Ġà¦ıà¦¤ à¦ľà¦¨à¦ķ
à¦¿à¦ĥ -
à¦¸à¦¨ à¦ĸ
à¦¸à¦¨ à¦ķà¦£
à¦ĩà¦¨ à¦¶
à¦ĩà¦¨ à¦Ń
à¦ĩà¦¨ à¦ĵà¦¯
à¦ĩà¦¨ à¦ķà¦²
à¦ĩà¦¨ à¦¸à¦¹
Ġà¦¶à¦ķ à¦ļ
à¦ķà¦¬ à¦¦
à¦¨à¦¨ à¦¶
à¦¨à¦¨ à¦®à¦¯
à¦¨à¦¨ à¦ªà¦¥
à¦¨à¦¨ à¦°à¦°
Ġà¦ħà¦ļ à¦°
Ġà¦ħà¦ļ à¦²à¦¨
Ġà¦ķà¦£ à¦¤
Ġà¦ķà¦£ à¦ķ
Ġà¦ķà¦£ à¦¸
à§ĩ- '
Ġà¦ķà¦¬ à¦·à¦ķ
à¦°à¦ªà¦° à¦¶
à¦¸à¦® à¦¶
à¦¸à¦® à§Łà¦¨
à¦¸à¦® à¦ľà¦¦
à¦Ńà¦¬ à¦¯
à¦Ńà¦¬ à¦®à§Ł
à§Ģ, âĢĵ
à§Ģ, ---
à¦¿- ,
à¦Łà¦ķ à¦¨
à¦Łà¦ķ à¦ª
à¦Łà¦ķ à¦®à¦¯
à¦Łà¦ķ à¦®à¦ŀ
Ġà¦ıà¦ĸ à¦¬à¦°
à¦Ľà¦° à¦Ļ
Ġà¦ħà¦ľ à¦ķ
Ġà¦ħà¦ľ à¦¬
Ġà¦ħà¦ľ à¦ªà¦¤
Ġà¦ħà¦ľ à¦ªà¦¦
Ġà¦īà¦¨ à¦¯
Ġà¦īà¦¨ à¦®
Ġà¦īà¦¨ à¦¸à¦¤
Ġà¦Ĳ à¦ķà¦¥
à¦¯à¦¨ à¦ķ
à¦¯à¦¨ à¦¦
Ġà¦ķà¦¤ à¦¤à¦¬
Ġà¦ķà¦¤ à¦¤à¦Ĺ
Ġà¦ķà¦¤ à¦¤à¦ĸ
âĢ¦ ?âĢĻ
âĢ¦ âĢĺ
âĢ¦ ,âĢĿ
âĢ¦ à¥¤âĢĺ
âĢ¦ âĢ¦.
Ġà¦ķà¦® à¦¸à¦®
Ġà¦¬à¦²à¦¤ à¦¦
à¦¤à¦² à¦°
à¦¤à¦² à¦¯
à¦¤à¦² à¦¸
à¦¤à¦² à¦¦
à¦¤à¦² à¦ª
à¦¤à¦² à¦ĵà¦¯
à¦¤à¦² à¦ĵà§Ł
Ġà¦¬à¦¹ à¦ķ
Ġà¦¬à¦¹ à¦¯
Ġà¦¬à¦¹ à¦Ľ
Ġà¦¬à¦¹ à¦°à¦ķ
à¦¾âĢĶ -
à¦¾âĢĶ âĢĻ
à¦Ĺà¦¨ à¦Ĺ
à¦Ĺà¦¨ à¦ļ
à¦Ĺà¦¨ à¦¹
à¦Ĺà¦¨ à¦ľà¦¯
Ġà¦¬à¦Ľà¦° à¦ª
à¦Ĺà¦° à¦ļ
à¦Ĺà¦° à¦ľà¦¨
à§ĩ! âĢ¦
à§ĩ! âĢ¦.
Ġà¦°à¦Ļ à¦¨
Ġà¦°à¦Ļ à¦ķ
Ġà¦°à¦Ļ à¦¶
Ġà¦°à¦Ļ à¦®à¦ŀ
Ġà¦°à¦Ļ à¦®à¦¹à¦²
Ġà¦¸à¦ķ à¦¡
Ġà¦¯à¦¤ à¦¤à¦¬
Ġà¦ªà¦¦ à¦ĸ
Ġà¦ªà¦¦ à¦¬à¦¨
Ġà¦ªà¦¦ à¦ķà¦²
Ġà¦ªà¦¦ à¦ªà¦¦
Ġà¦ªà¦¦ à¦ªà¦²
à¦®à¦° à¦Ļ
à¦¸à¦° à¦ª
à¦¸à¦° à¦ĵ
Ġà¦īà¦ļ à¦Ľ
à¦°à¦Ń à¦¸
Ġà¦ıà¦Ł à¦²
âĢľ ,
âĢľ âĢ¦
à¦ªà¦¦ à¦¤
à¦ªà¦¦ à¦ľ
à¦ªà¦¦ à¦ķà¦°
à¦ªà¦¦ à¦Ńà¦ŀ
à¦ªà¦¦ à¦¤à¦¨à¦¯
à¦¦à§Ł à¦ļ
à¦¦à§Ł à¦¦à¦²
à¦¦à§Ł à¦®à§Ł
à¦¦à§Ł à¦¹à¦°à¦£
Ġà¦¶à¦° à§İà¦¸
à¦°à¦ĵ à¦²
à¦¶à¦¬ à¦¯
à¦¶à¦¬ à¦¬
à¦¶à¦¬ à¦¸
à¦¶à¦¬ à¦¦à¦²
à¦ªà¦¥ à¦²
à¦ªà¦¥ à¦®
Ġà¦¨à§Ł à¦¨à¦¤
Ġà¦¨à§Ł à¦¨à¦¨
Ġà¦¨à§Ł à¦¨à¦ļ
à¦¼à§ĩà¥¤ '
à¦¼à§ĩà¥¤ âĢ¦
à¦¼à§ĩà¥¤ à¥¤âĢĻ
Ġà¦ħà¦®à¦² à¦°
Ġà¦ħà¦®à¦² à¦²à¦¤
à¦®à¦£ à¦£
à¦®à¦£ à¦¤à¦¨
à¦®à¦£ à¦¸à¦Ń
à¦¿? )
à¦¿? !âĢĿ
à¦¿? ??
à¦ıà¦ķ à¦¨
à¦ıà¦ķ à¦Ľ
à¦ıà¦ķ à¦¸à¦ª
à¦ıà¦ķ à¦ķà¦Ń
à¦ıà¦ķ à¦ªà¦²à¦ķ
à¦ıà¦ķ à¦§à¦°à¦£
âĢĮ !
âĢĮ à§ĩ
âĢĮ âĢĻ
âĢĮ à¦ĥ
âĢĮ à§įâĢĮ
à¦¾? âĢĵ
à¦¾? âĢ¦
à¦¾? !âĢĿ
à¥¤âĢĿ à¥¤
à¥¤âĢĿ âĢĵ
Ġà¦®à¦° à¦°
Ġà¦®à¦° à¦ª
Ġà¦®à¦° à¦Ĺ
à¦¨à¦ķ à¦ĩ
à¦¨à¦ķ à¦ļ
à¦¨à¦ķ à§ľ
Ġà¦ħà¦ķ à¦ļ
Ġà¦ħà¦ķ à¦¶à¦¨
Ġà¦ħà¦ķ à¦ĵà¦Ĩà¦°
Ġà¦¶à¦¹à¦° à¦¬à¦¨
à¦¦à¦² à¦°
à¦¦à¦² à¦Ľ
à¦¦à¦² à¦Ĺà¦¤
à¦¦à¦² à¦ªà¦¤
à¦¦à¦² à¦¹à¦°
à¦¦à¦² à¦®à¦£
à¦°à¦ª à¦¯
à¦°à¦ª à¦¸
Ġà¦¬à¦ĩ à¦°
Ġà¦¬à¦ĩ à¦¦
Ġà¦¬à¦ĩ à¦ļ
Ġà¦¬à¦ĩ à¦¹
Ġà¦¬à¦ĩ à¦ı
Ġà¦¬à¦ĩ à¦¤à¦²
Ġà¦¬à¦ĩ à¦ªà¦Ł
Ġà¦¬à¦ĩ à¦§à¦°
Ġà¦¬à¦ĩ à¦«à¦°
Ġà¦¬à¦ĩ à¦ĺà¦°à¦Ł
à¦¬à¦¸ à¦Ł
à¦¬à¦¸ à¦®à¦¯
à¦¬à¦¸ à¦¹à¦ķ
à¦Łà¦² à¦¸
à¦Łà¦² à¦¡
à§Ģà¥¤ âĢĺ
à§Ģà¥¤ âĢ¦.
à¦ĩà¦° à¦Ł
à¦·à¦¤ à¦ĵ
à¦·à¦¤ à¦Ń
à§įâĢĮ à§įâĢĮ
à§įâĢĮ ?âĢĻ
à§įâĢĮ âĢĻà¥¤
à§įâĢĮ !âĢĻ
à¦¬à¦¦ à¦¬
à¦¬à¦¦ à¦ª
Ġà¦«à¦² à¦ķà¦Ł
à¦·à¦ķ à¦ĩ
à¦·à¦ķ à¦¦à¦²
à¦¯à¦® à¦¸
à¦¯à¦® à¦ł
à¦¯à¦® à¦°à¦ķ
à¦¤à¦ķ à¦ĩ
à¦¤à¦ķ à¦ļ
Ġà¦²à¦ķ à¦ķ
Ġà¦²à¦ķ à¦¸
à¦°à¦Ł à¦¸
à§ģ, -
à§ģ, âĢĻ
à§ģ, ---
à¦¿à¦ģ !
à§İà¦ķ à¦ļ
à§İà¦ķ à¦®à¦²
à¦¨à¦Ł à¦Ł
à§ģà¦ĥ -
à¦ħà¦¨ à¦¸
à¦ħà¦¨ à¦§
à¦ħà¦¨ à¦¶à¦¨
à¦ħà¦¨ à¦ªà¦¤
Ġà¦ĵà¦ĩ à¦Ĺ
à¦¤à¦® à¦Ĺ
à¦¤à¦® à¦ĵ
à¦¤à¦® à¦Ń
à¦¤à¦® à¦¹à¦²
à¦¿âĢĶ à¥¤
à¦¾! *
à¦¾! âĢĻâĢĶ
à¦¾! !!
à¦ļà¦ķ à¦ķ
à¦ļà¦ķ à¦ª
à¦ļà¦ķ à§ľ
à¦ľà¦² à¦¯
à¦ľà¦² à¦¬à¦¨
à¦ľà¦² à¦®à¦¯
à¦ľà¦² à¦¦à¦¸
à¦ľà¦² à¦¤à¦°à¦Ļ
à¦²à¦² à¦ĵ
à¦¼à§ĩ, --
à¦®à¦¬ à¦ķ
à¦®à¦¬ à¦¯
à¦®à¦¬ à¦¶
à¦®à¦¬ à¦ĸ
à¦®à¦¬ à¦¹
à¦®à¦¬ à§İ
à¦®à¦¬ à§İà¦ª
à¦ªà¦ķ à¦Ĺ
ĠĊ Ċ
Ġà¦ħà¦¶ à¦Ļ
Ġà¦ħà¦¶ à¦¥à¦ª
à¦¬à¦ķ à¦¶
à¦¬à¦ķ à¦ł
à¦¬à¦ķ à¦¸à¦¹
à¦¬à¦ķ à¦¸à¦Ń
à¦¬à¦ķ à¦¦à¦£
à¦¸à¦² à¦ĵ
Ġà¦ĩà¦¨ à¦¸à¦ª
Ġà¦ĩà¦¨ à¦¸à¦Ł
Ġà¦ĩà¦¨ à¦Ńà¦¯
Ġà¦ĩà¦¨ à¦Ńà¦²à¦Ń
Ġà¦ĩà¦¨ à¦ıà¦«
à¦¨à¦¦ à¦ª
à¦¨à¦¦ à¦Ļ
à¦ļà¦° à¦°
à¦¶à¦ķ à¦¨
à¦¶à¦ķ à¦ª
à¦¶à¦ķ à¦ľà¦¨
à¦¸à¦Ļ à¦¸
Ġà¦ıà¦ķà¦¦ à¦Ļ
à¦°à¦ļ à¦°à¦£
à¦°à¦Ľ à¦²
à¦°à¦Ľ à¦¸
Ġà¦Ĩà¦§ à¦¹
Ġà¦Ĩà¦§ à¦®à¦¯
Ġà¦Ĩà¦§ à¦ªà¦¥
Ġà¦Ĩà¦§ à¦¬à¦¯
à¦¤à¦¤ à¦ĸà¦¨
à§Łà¦¨ à¦°
à§Łà¦¨ à¦Ĺ
à¦ĩà¦ķ à¦ĩ
à¦ĩà¦ķ à¦¨à¦®
à§ģâĢĻ !âĢĿ
à§ģâĢĻ âĢĵâĢĻ
Ġà¦ħà¦¬à¦¸ à¦°à¦¹
Ġà¦ħà¦² à¦¯
Ġà¦ħà¦² à¦Ń
à¦¯à¦¸ à¦Ł
à¦¯à¦¸ à¦ĸ
à¦¯à¦¸ à¦Ĺà¦¨
Ġà¦ıà¦ķà¦¬ à¦¸à¦¨
Ġà¦īà¦ªà¦° à¦®
Ġà¦īà¦ªà¦° à¦¸
Ġà¦īà¦ªà¦° à¦ĵà¦¯
Ġà¦īà¦ªà¦° à¦ĵà§Ł
Ġà¦īà¦ªà¦° à¦®à¦¹à¦²
Ġà¦ıà¦ķà¦ľà¦¨ à¦¤
à¦¹à¦¨ à¦¸
à¦¹à¦¨ à¦ļ
à¦¹à¦¨ à¦ļà¦¨
à¦¯à¦¦ à¦ķ
à¦¯à¦¦ à¦¬
Ġ( +
Ġ( !)
Ġ( ?)
à¦ªà¦Ł à¦Ł
à¦ªà¦Ł à¦ĩ
à¦ªà¦Ł à¦ļ
à¦ªà¦Ł à¦ĵ
à¦¼à§ģ /
à¦¼à§ģ ;
à¦¼à§ģ ?âĢĻ
à¦¼à§ģ --
à¦¬à¦¯ à¦ľ
Ġà¦ħà¦¬à¦¶ à¦¤
à¦ľà¦° à¦®à¦¨
à¦ĸà¦¬ à¦£
!âĢĿ âĢĵâĢĵ
à¦ķà¦¨ à¦ĩ
à¦ķà¦¨ à¦ĸ
à¦¸à¦ķ à¦¯
à¦¸à¦ķ à¦ĩ
à¦¸à¦ķ à¦¥
à¦¸à¦ķ à¦Ĺà¦£
à§° à¦ł
à§° à¦ªà¦°
à§° à¦®à¦¤
à§° à¦¸à¦¨
à§° à¦¸à¦®
à§° à¦Ĺà¦°
à§° à¦¤à¦®
à§° à¦®à¦¬
à§° à¦®à¦§
à§° à¦²à¦®
à§° à¦¬à¦ļ
à§° à¦¤à¦¹
à§° à¦¸à¦¹
à§° à¦Ĺà¦£
à§° à¦®à¦®
à§° à¦¶à¦¸
à§° à¦ļà¦²à¦¨
à¦¸à¦« à¦°à¦Ł
à¦ĺà¦° à¦Ļ
à¦ĺà¦° à¦®à¦¨
Ġà¦¶à¦¤ à¦ľà¦¨
Ġà¦¶à¦¤ à¦¦à¦²à¦ķ
Ġà¦¶à¦¤ à¦¦à¦²à¦¬
Ġà¦īà¦² à¦¸
à§ģ- âĢĺ
Ġà¦¦à¦² à¦®
Ġà¦¦à¦² à¦¸
Ġà¦¦à¦² à¦ª
Ġà¦¦à¦² à¦ľ
Ġà¦¦à¦² à¦Ń
Ġà¦¦à¦² à¦Ĺà¦łà¦¨
Ġà¦¦à¦² à¦Ĺà¦¤à¦Ń
à§ģà¥¤ "
à§ģà¥¤ '
Ġà¦¨à¦¬ à¦¶
Ġà¦¨à¦¬ à¦¬à¦²
Ġà¦¨à¦¬ à¦Ľà¦°
Ġà¦¨à¦¬ à¦ĺà¦¨
Ġà¦¨à¦¬ à¦Ĺà¦łà¦¨
Ġà¦¨à¦¬ à¦¹à¦Ł
à¦¨à¦² à¦Ľ
à¦¨à¦² à¦¶
Ġà¦Ĩà¦ļ à¦¡
Ġà¦Ĩà¦ļ à¦°à¦®
Ġà¦¤à¦² à¦¹
à¦·à¦° à¦ĸ
à¦·à¦° à¦«
à¦¨à¦¸ à¦ľ
à¦¨à¦¸ à¦ķà¦²
à¦¨à¦¸ à¦¸à¦°
à¦¨à¦¸ à¦ªà¦¥
Ġà¦ªà¦ķ à¦¡
à¦ªà¦¸ à¦®à¦¨
à¦ªà¦¸ à¦¦à¦¨
à¦¯à¦¥ à¦¤
?âĢĿ .
à¦¬à¦¶ à¦°à¦£à¦¬
à¦Ĩà¦ľ à¦®
à¦¨à¦° à¦Ĺà¦°
à¦¥à¦¨ à¦ª
à¦¥à¦¨ à¦ĩ
Ġà¦Ĩà¦Ļ à¦°
Ġà¦Ĩà¦Ļ à¦¨
Ġà¦Ĩà¦Ļ à¦²
Ġà¦Ĩà¦Ļ à¦¡
à¦°à¦ľà¦¨ à¦¨à¦¶
à¥¤âĢĻ (
à¥¤âĢĻ )
à¥¤âĢĻ âĢĶ
à¥¤âĢĻ âĢ¦
Ġà¥¤ (
à¦¨à¦Ĺ à¦Ĺ
Ġà¦Ĺà§ľ à¦ĸ
à¦«à¦² à¦®
à¦¥à¦° à¦«
à¦¥à¦° à¦ļà¦¨
à¦ĩà¦Ł à¦°
à¦ĩà¦Ł à¦¦
à¦ĩà¦Ł à¦ļ
Ġà¦Ĩà¦¦ à¦°à¦¬
Ġà¦Ĩà¦¦ à¦²à¦¤
Ġà¦Ĩà¦¦ à¦®à¦¶
à¦Ĺà¦ľ à¦¯
à¦Ĺà¦ľ à¦ĵà¦¯
Ġà¦¸à¦®à§Ł à¦ª
Ġà¦¸à¦®à§Ł à¦Ľ
Ġà¦¸à¦®à§Ł à¦Ĺà¦¤
Ġà¦¸à¦®à§Ł à¦ªà¦¥
à¦°à¦§ à¦²
à¦°à¦§ à¦°à¦ĵ
Ġà¦Ĩà¦¹ à¦ķ
Ġà¦Ĩà¦¹ à¦¬à¦¨
Ġà¦Ĩà¦¹ à¦¤à¦ĵ
Ġà¦ħà¦« à¦¹
à¦¼à¦¾à¥¤ (
à¦¼à¦¾à¥¤ âĢĺ
à¦²à¦Ľ à¦¤
à¦²à¦Ľ à§ľ
Ġà¦ĭ à¦¯
Ġà¦ĭ à¦Ń
Ġà¦ĭ à¦·à¦¯
Ġà¦ĭ à¦£à¦¬
à§ĩâĢĵ ?
à§ĩâĢĵ âĢĵâĢľ
à¦°à¦¹à¦£ à¦Ł
à¦°à¦¹à¦£ à¦§à¦°
à¦°à¦¹à¦£ à¦¯à¦ľ
à¦Ĩà¦° à¦ı
à¦Łà¦¬ à¦ĵà¦¯
Ġà¦Ĩà¦¸à¦¬ à¦ĩ
à¦īà¦¨ à¦®à¦¤
à¦īà¦² à¦Ń
à¦īà¦² à¦«
à¦īà¦² à¦®à¦¤
à¦īà¦² à¦ªà¦¥
à¦īà¦² à¦¸à¦Ļ
Ġà¦°à¦ĩà¦² à¦ĩ
à¦¿! "
à¦¿! à¥¤
à¦ĩà¦¬ à¦ĩ
à¦ľà¦¤ à¦ĸ
Ġà¦ĺà¦¨ à¦Ľ
Ġà¦ĺà¦¨ à¦ľ
Ġà¦ĺà¦¨ à¦ľà¦Ļ
Ġà¦ķà¦¨ à¦ķà¦²à¦Ļ
Ġà¦ķà¦¨ à¦ķà¦¬à¦°à¦£
Ġà¦ĸà¦¬à¦° à¦®
à¦Ĺà¦¬ à¦ī
Ġà¦Ĩà¦Łà¦ķ à¦Ľ
à¦°à¦Ĺ à¦¡
à¦°à¦Ĺ à¦ĵ
à¦°à¦Ĺ à¦Ļ
à¦°à¦Ĺ à¦°à¦®
Ġà¦ªà¦² à¦®
Ġà¦ªà¦² à¦Ļ
à¦°à¦®à¦£ à¦¨
à¦°à¦®à¦£ à¦¶
à¦°à¦®à¦£ à¦ĵ
à¦°à¦®à¦£ à¦°à¦¸
à¦°à¦®à¦£ à¦ªà¦¤
à¦°à¦®à¦£ à¦ļà¦°
à¦°à¦®à¦£ à¦Ńà¦°
à¦ķà¦¶ à¦ĩ
à¦ķà¦¶ à¦Ń
à¦·à¦® à¦¸
à¦·à¦® à¦¹
à¦·à¦® à§Ł
Ġà¦ıà¦¨ à¦¶
Ġà¦ıà¦¨ à¦ıà¦ĩà¦ļ
Ġà¦Ĩà¦¸à¦¤ à¦ĩ
ĠâĢĵ âĢĿ
ĠâĢĵ âĢĻ
à¦¹à¦¤ à¦¦
à¦¹à¦¤ à¦ĵ
Ġà¦¦à¦°à¦ķ à¦·
à¦§à¦¬ à¦®
à¦§à¦¬ à¦Ł
à¦§à¦¬ à¦§
à¦§à¦¬ à¦ļ
à¦§à¦¬ à¦£
à§ĭâĢĶ -
Ġà¦¦à¦¶ à¦¹
Ġà¦¦à¦¶ à¦¹à¦°
à§¨ à§§à§¨à§«
à¦®à§Ł à¦®
à¦®à§Ł à¦ª
à¦®à§Ł à¦ĩ
à¦®à§Ł à¦Ńà¦°
à¦®à§Ł à¦®à§Ł
à¦®à§Ł à¦®à¦¨à¦¸
à¦®à¦¸ à¦®à¦¨
à¦®à¦¸ à¦ŀ
Ġà¦īà§İà¦¸ à¦ĩ
Ġà¦īà§İà¦¸ à¦°à¦£
Ġà¦īà§İà¦¸ à¦¬à¦°
Ġà¦īà§İà¦¸ à¦ľà¦²
à¦ķà¦ķ à¦°à¦£
Ġà¦¦à¦° à¦ĵà§Ł
Ġà¦¬à¦Ł à¦¨
Ġà¦¬à¦Ł à¦¬à¦¨
Ġà¦¬à¦Ł à¦«à¦²
Ġà¦¬à¦Ł à¦ĩà§Ł
Ġà¦¹à¦° à¦§à¦¨
à¦Ĩà¦² à¦¹
à¦Ĩà¦² à¦Ļ
à¦Ĩà¦² à¦®à¦Ĺ
à¦Ĩà¦² à¦®à¦ª
à¦¾; ---
Ġà¦ļà¦° à¦°
Ġà¦Ĺà¦£ à¦¹
Ġà¦Ĺà¦£ à¦Ń
Ġà¦Ĺà¦£ à¦ķà¦®
Ġà¦Ĺà¦£ à¦Ńà¦¬à¦¨
Ġà¦Ĺà¦£ à¦¸à¦®à¦°
Ġà¦¬à¦ķ à¦ª
Ġà¦¬à¦ķ à¦Ĺ
Ġà¦¬à¦ķ à¦°à¦¬à¦ķà¦°
à§Ģ- '
à§Ģ- âĢĻ
Ġà¦¨à¦°à¦® à¦¤à¦°
Ġà¦¨à¦°à¦® à¦¤à¦®
ĠâĢĶ -
Ġà¦¸à¦°à¦ķ à¦Ľ
à§ĭ? à¥¤
à§ĭ? âĢĵ
à¦Łà¦¨ à¦ĩ
à¦ľà¦¬ à§°
à¦®à¦Ł à¦°à¦¶
à¦¦à¦® à¦ķà¦²
Ġà¦Ńà§Ł à¦¬
Ġà¦Ńà§Ł à¦®
Ġà¦Ńà§Ł à¦¹
Ġà¦Ĩà¦¦à¦° à¦¹
Ġà¦Ĩà¦¦à¦° à¦ĵ
Ġà¦Ĩà¦¦à¦° à¦Ńà¦°
Ġà¦¬à¦ī à¦ª
Ġà¦¬à¦ī à¦¬à¦²
Ġà¦¬à¦ī à¦ªà¦£
Ġà¦¬à¦ī à¦ķà¦¥
Ġà¦¬à¦ī à¦ĩà§Ł
à¦¶à¦ª à¦²
à¦Łà¦° à¦ªà¦¨
à¦Łà¦° à¦Ĺà¦¤
à¦®à¦°à¦£ à¦¤
à¦®à¦°à¦£ à¦ĩ
à¦²à¦® à¦¡
à¦²à¦® à¦ĵ
à¦²à¦® à¦ŀ
à¦²à¦® à¦¸à¦²
à¦²à¦¯ à¦¬à¦¨
à¦Ĺà¦® à¦¦
à¦Ĺà¦® à§İ
à¦¨à¦ĩ à¦ľ
à¦¨à¦ĩ à¦ĸ
à¦²à¦¸ à¦ĸ
à¦²à¦¸ à¦Ĺ
Ġà¦§à¦¨ à¦§
à¦²à¦Ĺ à¦Ĺ
à¦²à¦Ĺ à¦¹
à¦²à¦Ĺ à¦Ļ
à¦²à¦Ĺ à¦ĩà¦¨
à¦ªà¦£ à¦ĸ
Ġà¦īà§İà¦¸à¦¬ à¦¦
Ġà¦īà§İà¦¸à¦¬ à¦§
Ġà¦īà§İà¦¸à¦¬ à¦¹
Ġà¦īà§İà¦¸à¦¬ à¦ĵ
Ġà¦īà§İà¦¸à¦¬ à¦®à¦¨
Ġà¦īà§İà¦¸à¦¬ à¦§à¦°
Ġà¦īà§İà¦¸à¦¬ à¦®à§Ł
à¦¹à¦°à¦£ à¦®
à¦¹à¦°à¦£ à¦¸à¦®
à¦¹à¦°à¦£ à¦¸à¦¹
à¦¼? âĢ¦
à¦®à¦Ĺ à¦§
à¦®à¦Ĺ à¦£
Ġà¦¸à¦¤à¦¤ à¦ĩ
à¦¦à¦¸ à¦Ń
Ġà¦°à¦¸ à¦¸à¦®
Ġà¦°à¦¸ à¦ļà¦°
Ġà¦°à¦¸ à¦Ńà¦Ļ
à¦®à¦¹ à¦¡
à¦ĸà¦° à¦°
Ġà¦ªà¦¶ à¦¤
à¦°à§Ł à¦ķ
à¦°à§Ł à¦¦
à¦¼- âĢĿ
à¦¹à¦ł à¦ķ
Ġà¦Ĩà¦ª à¦Ń
Ġà¦Ĩà¦ª à¦¸à¦¬
Ġà¦Ĩà¦ª à¦§à¦°
à§¦ à§¬
à§¦ à§§à§¦
Ġà¦¸à¦Ń à§Ł
Ġà¦²à¦ľ à¦ı
Ġà¦Ī à¦·à¦¤
à¦¨à¦Ń à¦Ĺ
à¦¨à¦Ń à¦ŀ
à¦¥à¦ķ à¦ĵ
à¦¥à¦ķ à¦°à¦£
à¦¥à¦ķ à¦¤à¦°
à¦ľà¦ķ à¦Ĺ
à¦ľà¦ķ à¦£
à¦ľà¦ķ à¦®à¦²
à¦Ĩà¦ķ à¦£
à¦¾âĢĻ ,âĢĿ
à¦ļà¦¡ à¦Ĺ
Ġà¦ķà¦ª à¦²
-- '
à¦°à¦° à¦«
Ġà¦īà¦ªà¦¨ à¦Ĺà¦°
Ġà¦ªà¦°à¦® à¦ŀ
Ġà¦ªà¦°à¦® à¦¸à¦¤
à¤ Ŀ
à¦ķà¦°à¦£ à¦®
à¦ķà¦°à¦£ à¦ĩ
à¦ķà¦°à¦£ à¦¶
à¦ķà¦°à¦£ à¦®à¦¨
à§« à§¦à§¦
à¦¬à¦ļ à¦¤
à¦¬à¦Ľ à¦¬
à¦ķà¦¸ à¦Ĺ
à¦ķà¦¸ à¦ļ
à¦ķà¦¸ à¦ŀ
à¦¶à¦² à¦°
à¦¶à¦² à¦§
à¦¯à¦Ĺ à¦¹
à¦¬à¦ĩ à¦®
à¦¬à¦ĩ à¦ĸ
à¦¬à¦ĩ à¦Ŀ
à¦¬à¦ĩ à¦ľà¦¨
à¦ªà¦² à¦¦
à¦ªà¦² à¦ľ
Ġà¦¶à¦¹ à¦°à¦®à§Ł
à¦¬à¦¹ à¦¨à¦¬
à¦¬à¦¹ à¦£à¦ķ
à¦¬à¦£ à¦¨
à¦¬à¦£ à¦¬
à¦¬à¦£ à¦ľ
à¦¬à¦£ à¦¬à¦°
à¦¬à¦£ à¦ĺà¦¨
à¦¬à¦£ à¦Ĺà¦Ĺà¦¨
à¦łà¦¸ à¦ŀ
Ġà¦ļà¦®à¦ķ à¦¯
Ġà¦ļà¦®à¦ķ à¦ĩ
à¦łà¦ķ à¦ļ
à¦łà¦ķ à¦£
à¦łà¦ķ à¦¬à¦°
à¦ķà¦¥ à¦¯
Ġà¦Ĺà¦°à¦® à¦ĵ
Ġà¦ľà¦¬ à¦¡
Ġà¦®à¦² à¦ļà¦¤
à¦·à¦¦ à¦ĩ
Ġà¦ľà§Ł à¦¶
Ġà¦ľà§Ł à¦ĵ
Ġà¦ľà§Ł à¦ľà¦¯
Ġà¦ĵà¦Ł à¦¸
à¦¶à¦® à¦ªà¦°
à¦¶à¦® à¦¹à¦²
à¦ķà¦Ľ à¦¡
à¦ķà¦ľà¦¨ à¦¨
Ġà¦Ĺà¦¬ à¦Ĺà¦¬
à¦£à¦¨ à¦®
à¦ķà¦Ń à¦Ļ
à¦ķà¦Ń à¦°à¦¤
à¦®à¦¶ à¦¸
à¦®à¦¶ à¦Ļ
à¦®à¦¶ à¦¤à¦¬à¦°
à¦¤à¦ª à¦Ļ
à¦ĩà¦Ń à¦¡
à¦ĩà¦¡ à¦ķ
à¦ĩà¦¡ à¦¦
à¦ĩà¦¡ à¦¬à¦ĩ
à§ĩà¥¤âĢĻ (
à¦®à¦¦ à¦¶
à¦®à¦¦ à¦¨à¦¬
à¦®à¦¦ à¦®à¦¤
à§ĩâĢ¦ "
à§ĩâĢ¦ ,
à¦¤à¦¦ à¦Ń
à¦¹à¦® à¦®à¦¤
à¦¥à¦² à¦ļ
à¦¥à¦² à¦ªà¦¦
à¦¥à¦² à¦®à¦£
à¦¥à¦² à¦ļà¦°
à¦¼à¦Ĥ -
Ġà¦®à¦¸ à¦¨à¦¬
Ġà¦ħà¦Ł à¦²à¦¬
Ġà¦ħà¦Ł à¦ªà¦Ł
Ġà§§à§¯ à§§
Ġà§§à§¯ à§§à§¦
Ġà§§à§¯ à§¦à§¦
Ġà§§à§¯ à§§à§¬
Ġà§§à§¯ à§§à§«
Ġà¦¸à¦°à¦² à¦ĩ
Ġà¦Ĳà¦ķ à¦ªà¦¦
à§Ŀ à¦¤à¦°
à§Ŀ à¦¤à¦®
à¦°à¦ĸ à¦ļ
à¦°à¦ĸ à¦°à¦¤
à¦¬à¦Ń à¦¬à¦¨
à¦¦à¦Ĺ à¦§
à¦¦à¦Ĺ à¦£
à¦¦à¦Ĺ à¦ŀ
Ġt ra
Ġt ol
Ġt ang
Ġt ask
Ġt empt
à¦¨à¦¶ à¦¯
à¦¨à¦¶ à¦¸
à¦®à¦ª à¦Ļ
à¦£à¦¬ à¦Ĺ
à¦£à¦¬ à¦ªà¦¨
à¦£à¦¬ à§İ
à¦£à¦¬ à¦¦à¦°
à¦¿âĢĻ ;
à§Ń à§Ńà§«
à¦ªà¦® à¦²à¦¤
à¦ªà¦® à¦¹à¦²
à¦ĺà¦¨ à¦ĺà¦¨
Ġà¦ªà¦°à¦¶ à¦°
Ġà¦ªà¦°à¦¶ à¦Ł
à¦²à¦Ń à¦¦
à¦²à¦Ń à¦¬à¦¨
à¦®à¦ľ à¦ª
à¦®à¦ľ à¦¡
Ġà¦°à¦®à¦£ à¦ķ
à¦¸à¦¹ à¦·
à§ĭ! -
à§ĭ! [
à§ĭ! âĢ¦
à§ĭ! âĢĻâĢĶ
Ġà¦ľà¦Ĺà¦¤ à¦ľ
à¦¸à¦Ľ à¦¯
à¦¯à§İ à¦¬
à¦¯à§İ à¦¦
à¦¬à¦§ à§°
à¦¼à¦¿à¥¤ à¥¤
à¦ĥà¥¤ à¥¤âĢĻ
à§ª à§¦à§¦
à§ª à§©à§¯
Ġà¦ħà¦¹ à¦®à¦¦
à¦ľà¦¨à¦ķ à¦ĵ
à¦Ĺà¦£ à¦®
he in
à¦ļà§Ł à¦²
à¦ļà§Ł à¦¹
à¦ļà§Ł à¦Ń
à¦·à§Ł à¦¸à¦®
à¦¬à¦Ł à¦ļ
à¦¬à¦Ł à¦ľà¦¨
Ġà¦Ĩà¦ĩà¦¨ à¦®
Ġà¦Ĩà¦ĩà¦¨ à¦Ń
Ġà¦Ĩà¦ĩà¦¨ à¦¸à¦®
in ing
in st
in ap
in ary
in cl
in ced
à¦²à¦ļ à¦°à¦£
à¦²à¦ª à¦Ļ
à¦ķà¦® à¦²à¦ķ
à¦Łà¦Ł à¦·
à¦¤à¦Ń à¦ķ
à¦¤à¦Ń à¦Ł
à¦¤à¦Ń à¦¬à¦¨
à¦¦à¦ķ à¦®à¦£
Ġà¦· à¦¨
Ġà¦· à¦¢
Ġà¦· à¦Łà¦ª
à¦¨à¦ª à¦¬à¦¨
Ġà¦ķà§Ł à¦¶
à¦¥à¦® à¦¥à¦®
à§ĩ?âĢĻ (
à§ĩ?âĢĻ âĢĻ
à¦°à¦¦à¦° à¦¦
à¦ľà§Ł à¦²
à¦ľà§Ł à¦¯
à¦ľà§Ł à¦¶à¦Ļ
Ġà¦¨à¦Ĺà¦° à¦ļ
à¦¤à¦¸ à¦¦
à¦¤à¦¸ à¦Īà¦°
Ġ- âĢĿ
à¦Łà¦® à¦ĩ
à¦Łà¦® à¦ļà¦¨
an e
an ch
an ge
an atory
Ġà¦¸à¦ľ à¦²à¦¤
à¦£à¦ķ à¦ł
à¦£à¦ķ à¦Ļ
à¦ĩà¦® à¦ªà¦¸
à¦Łà¦ª à¦¹à¦°
Ġà¦¸à§İ à¦ĵ
Ġà¦¸à§İ à¦ªà¦°
Ġà¦¸à§İ à¦ļà¦ķ
Ġà¦¸à§İ à¦ļà¦°à¦£
à¦¶à¦¤ à¦¶
à§ĩ!âĢĿ âĢĵ
à¦¬à¦® à¦¹à¦²
Ġà¦ªà¦²à¦ķ à¦ľ
Ġà¦ªà¦²à¦ķ à¦Ńà¦°
on ic
on um
on ment
âĢ¦âĢĿ âĢĵâĢĵ
à¦¬à¦ľ à¦¦
à¦¬à¦ľ à¦Ĺà¦¨
à¦¬à¦ľ à¦Ĺà¦¤à¦ķ
à¦ķà§ľ à¦¶
à¦ķà§ľ à¦Ĺ
à¦¼! âĢĵ
Ġà¦ĩà¦¸ à¦¥
à¦¦à¦¬ à¦°à¦£
à¦¦à¦¬ à¦¦à¦¨
Ġà¦Ŀà¦¨ à¦Ŀà¦¨à¦ķ
Ġà¦ħà¦¸à¦¹ à¦ľ
à¦ħà¦¸ à¦Ń
Ġà¦®à¦¦ à¦ĵ
Ġà¦®à¦¦ à¦ĵà§Ł
à¦®à¦ļ à¦ĵ
à¦®à¦ļ à§Łà¦¨
à§Ģ! '
à§Ģ! )
à§Ģ! ?âĢĿ
Ġà¦¬à¦¸à¦¤ à¦ĺà¦°
à¦¦à¦¶ à¦°à¦¥
à¦¦à¦¶ à¦²à¦ķ
à¦¦à¦¶ à¦ªà¦¦
à¦¦à¦¶ à¦¦à¦²
à¦¬à¦ľà¦¨ à¦²à¦Ń
Ġà¦Ĭ à¦²
Ġà¦Ĭ à¦ķ
Ġà¦Ĭ à¦ľ
Ġà¦Ĭ à¦ļ
Ġà¦Ĭ à¦°à¦§
Ġà§¨ à§§à§ª
Ġà§¨ à§©à§¯
Ġà¦Ĩà¦ļà¦°à¦£ à¦Ńà¦Ļ
Ġà¦Ĩà§ľ à¦¤
Ġà¦Ĩà§ľ à¦²
Ġà¦Ĩà§ľ à¦ķ
re k
re z
re en
re use
re edom
re nce
Ġà¦ıà¦°à¦ķà¦® à¦§
à¦Ĺà¦°à¦£ à¦¬
à¦Ĺà¦°à¦£ à¦¸
à¦Ĺà¦°à¦£ à¦¸à¦®
Ġà¦®à¦¨à¦¨ à¦§à¦°
Ġà¦ĸà¦°à¦ļ à¦ĩ
à¦ªà§ľ à¦ĩ
à¦ªà§ľ à¦Ĺ
à¦ªà§ľ à¦ļ
à¦ħà¦ļ à¦ŀ
à¦ħà¦ļ à¦²à¦¤
à¦¤à¦Ĺ à¦Ļ
à¦¤à¦Ĺ à¦°à¦®
à¦¤à¦Ĺ à¦Ĺà¦¨
à¦²à¦ľ à¦ĺ
à¦²à¦ľ à¦²à¦ķ
à¦®à¦Ľ à¦²à¦¨
Ġà¦ķà¦²à¦® à¦«
à¦¾à¦ĥ )
à¦¨à¦® à¦®
Ġà¦ķà¦®à¦² à¦²
Ġà¦ķà¦®à¦² à¦¬
Ġà¦ķà¦®à¦² à¦¬à¦¨
Ġà¦ķà¦®à¦² à¦¦à¦²
à§¬ à§Ń
at t
at ur
at ely
Ġà¦«à¦¸à¦² à¦ļà¦ķ
à¦¼âĢĵ âĢĿ
à¦¼âĢĵ âĢĻ
à¦¼âĢĵ âĢĵ
à¦īà¦ľ à¦ĩ
à¦īà¦ľ à¦ĵ
à¦īà¦ľ à¦«
al d
al ing
al og
al th
al ys
Ġà¦ķà¦¹ à¦ķà¦¹
à¦īà¦¡ à¦Ń
Ġ! !
Ġ! [
à¦¸à¦®à§Ł à¦¬
à¦¸à¦®à§Ł à¦ĵ
à¦²à§Ł à¦ķ
à¦¬à¦°à¦¤ à¦ª
à¦²à¦ĩ à¦ľà¦®
à¦¯à¦ľ à¦¦
à¦ıà¦¸ à¦Ĩà¦°
à¦ĩà¦ª à¦Ĺ
à§Łà¦® à¦ĩ
à§Łà¦® à¦¬à¦¦
Ġà¦ıà¦¤à¦¦ à¦ª
Ġà¦Ĩà§Ł à¦°à¦¨
à¦¬à¦°à¦£ à¦Ĺ
à¦¨à¦ľà¦¨ à¦¨
à§® à§§
Ġà¦ļà¦°à¦® à¦¤à¦®à¦ķ
Ġà¦ļà¦® à¦ķà¦¤
à¦ļà§ľ à¦Ĺ
à¦ıà¦®à¦¨ à¦¤à¦°
à¦¾âĢĿ âĢ¦
Ġà¦¨à¦¹ à¦·
Ġà¦¨à¦¹ à¦·à¦ķ
à¦¸à¦ķà¦² à¦ĸ
Ġà¦Ŀà¦²à¦ķ à¦¨
à¦¡à¦¬ à¦Ĺ
à¦¡à¦¬ à¦ľà¦¬
er k
er v
er ing
er ry
er ving
en in
en ic
en ing
en ed
en ation
en able
is a
à¦¾?âĢĻ âĢĿ
à¦¾?âĢĻ âĢĻ
à¦Ĳ à¦²
Ġà¦ļà¦°à¦£ à¦°
Ġà¦ļà¦°à¦£ à¦®
Ġà¦ļà¦°à¦£ à¦Ľ
Ġà¦ļà¦°à¦£ à¦¬à¦¨
Ġà¦ļà¦°à¦£ à¦ªà¦¦
Ġà¦ļà¦°à¦£ à¦ļà¦ķ
à¦Ńà§Ł à¦ĩ
it an
it ra
it ate
it able
it Ã©
it ecture
à¦¶à¦¹à¦° à¦Ĺ
Ġthe n
à¦¾âĢ¦ !
à¦¾âĢ¦ ?âĢĿ
à¦¾âĢ¦ à¥¤âĢĻ
à¦¾âĢ¦ âĢĿà¥¤
à¦¾âĢ¦ âĢĻà¥¤
à¦¾âĢ¦ .âĢĿ
à¦²à¦« à¦£
Ġà¦¸à¦ĸ à¦Ĩà¦¨à¦¨
Ġà¦°à¦ľà¦¤ à¦§
Ġà¦°à¦¹ à¦¬
à¦īà¦¸ à¦Ĺ
Ġà¦ľà§ľ à¦ªà¦¦
Ġà¦ľà§ľ à¦ľà¦Ĺà§İ
Ġà¦ħà¦®à¦¨ à¦¤à¦°
à¦Ŀà¦¬ à§Łà¦¸
Ġà¦Ĺà¦łà¦¨ à¦¶
Ġ: âĢĻ
Ġo cc
Ġo der
Ġo cean
Ġà¦Ĩà¦Ł à¦¸
Ġà¦Ĩà¦Ł à¦¤à¦²
Ġà¦Ĩà¦Ł à¦¦à¦¶
Ġà¦Ĩà¦Ł à¦¦à¦¶à¦ľà¦¨
à¦ļà¦°à¦£ à¦Ń
Ġà¦°à¦¤à¦¨ à¦Ĺ
Ġà¦°à¦¤à¦¨ à¦®à¦¯
à¦¯à¦¹ à¦®à¦°
à¦¯à§Ł à¦ķ
à¦¯à§Ł à¦®à§Ł
à¦Łà¦¸ à¦ľ
Ġs k
Ġs et
Ġs ad
Ġs end
Ġs ain
Ġs ound
Ġs ame
Ġs cept
Ġs lant
Ġs ister
Ġs aid
Ġs ince
Ġs ymphony
à¦ħà¦¶ à¦Ļ
Ġà¦Ĩà¦ĩ à¦¨à¦¬
Ġà¦Ĩà¦ĩ à¦¬à¦ķ
Ġà¦Ĩà¦ĩ à¦ıà¦¸
Ġà¦¤à¦ªà¦¨ à¦¸
à¦ıà¦¤ à¦ĸ
à§ĭ; âĢĶ
à§ĭ; âĢĵ
à¥¥ âĢĺ
Ġà¦¦à¦ĸà¦² à¦®
Ġà¦ĩà¦Ł à¦ĸ
Ġà¦ĩà¦Ł à¦ļ
à¦¸à¦²à¦® à¦«
âĢį âĢį
Ġà¦¤à¦ªà¦¸ à¦¦
Ġà¦Ĺà¦ľ à¦¦
Ġà¦Ĺà¦ľ à¦¬à¦°
Ġà¦Ĩà¦ĸ à¦°à¦Ĺ
à¦¦à¦ª à¦¹
Ġà¦¬à¦¦ à¦¸à¦Ļ
Ġà¦¬à¦¦ à¦ĩà¦Ł
Ġ; âĢĿ
Ġ; âĢĵ
à¦īà¦ĩ à¦Ĺ
à¦¸à¦°à¦£ à¦ĩ
à§ĢâĢĶ "
à§ĢâĢĶ âĢĿ
à§ĢâĢĶ âĢĻ
à§ĢâĢĶ âĢĺ
à¦¿âĢ¦ ?
à¦¿âĢ¦ âĢĵ
à¦¿âĢ¦ âĢ¦
à¦¿âĢ¦ âĢĻà¥¤
à¦Ĺà¦¦ à¦ĸà¦²
à¦ĩà¦« à¦¨
Ġà¦°à¦¥ à¦¸
Ġà¦¬à¦ªà¦¨ à¦ķ
Ġà¦¶à¦¤à¦ķ à¦£
à¦ªà¦ķà¦¥ à¦¨à¦Ł
Ġa w
Ġa z
Ġa st
Ġa ch
Ġa fter
Ġà¦ľà¦¨à¦® à¦Ń
Ġà¦ľà¦¨à¦® à¦Ńà¦°
à§ĩ,âĢĿ âĢĵ
Ġc u
Ġc it
Ġc as
Ġc ul
Ġc our
Ġc ause
Ġc oura
Ġc ritical
Ġc iud
Ġà¦¸à¦°à¦¸ à¦Ń
à¦ķà¦¶à¦¨ à¦Ĺ
Ġà¦®à¦°à¦£ à¦¸
Ġà¦®à¦°à¦£ à¦Ł
Ġà¦®à¦°à¦£ à¦ª
Ġà¦®à¦°à¦£ à¦¹
Ġà¦®à¦°à¦£ à¦ĵ
Ġà¦®à¦°à¦£ à¦§à¦°
Ġà¦®à¦°à¦£ à¦¶à¦¯
Ġà¦®à¦°à¦£ à¦¦à¦¶
Ġà¦®à¦°à¦£ à¦ĺà¦£
Ġà¦Ńà¦°à¦¤ à¦ĩ
Ġà¦Ńà¦°à¦¤ à¦·à¦Ń
Ġà¦ıà¦ĩà¦°à¦ķà¦® à¦Ł
Ġà¦ĭà¦£ à¦°
Ġà¦ĭà¦£ à¦ĩ
Ġà¦ĭà¦£ à¦ĸ
Ġà¦ĭà¦£ à¦ĵ
à¦¬à¦¤à¦¨ à¦°
âĢĻ, âĢĵ
Ġà¦Ŀà¦ķ à¦Ŀ
à§įà¥¤ à¥¤
Ġà¦ħà¦¯ à¦ľà¦®
à§ģ! âĢĵ
Ġà¦ıà¦ĩà¦Ł à¦¥
à¦Ĺà¦¸ à¦ĩ
à¦Ĺà¦¸ à¦ŀ
à¦Ĺà¦¸ à¦°à¦ķ
à¦¯à¦°à¦ķà¦® à¦Ń
Ġà¦¨à¦° à¦¡
Ġà¦¨à¦° à¦ĺ
Ġà¦¨à¦° à¦ªà¦¤
ar s
ar as
ar ies
ar ian
à¦¬à¦Ĺ à¦®à¦¨
Ġà¦°à¦£ à¦ķà¦²
Ġà¦°à¦£ à¦¡à¦Ļ
à¦īà¦¤ à¦¥
Ġà¦ķà¦¦ à¦®à¦ķ
es pe
à¦·à¦¸ à¦Ĺ
or n
or ity
or ge
à¦Ĩà¦¨ à¦²à¦ķ
Ġw on
Ġw ater
Ġw arning
Ġw alk
Ġw ait
Ġà¦ıà¦® à¦¬à¦¸
Ġà¦ıà¦® à¦ıà¦°
Ġà¦ıà¦® à¦ıà¦²
Ġà¦ıà¦® à¦ıà¦®
Ġà¦ķà¦ĩ à¦ļ
à¦ĩà¦ļ à¦ĩ
à¦¬à¦ªà¦¨ à¦ĸ
à¦¬à¦ªà¦¨ à¦ļ
à¦ĩà¦¶ à¦ľà¦¨
à¦«à¦²à¦¨ à¦ĵ
Ġm g
Ġm ar
Ġm es
Ġm id
Ġm ere
Ġm ight
Ġm ount
Ġm ood
Ġm ater
Ġm ort
Ġm ale
Ġm oral
Ġm edia
Ġm aster
Ġm oney
Ġm erry
à¦ĭ à¦·à¦Ń
Ġà¦ĩà¦¹ à¦ľà¦Ĺà§İ
à¦ħà¦² à¦ĸ
à¦°à¦ļà¦² à¦®
Ġà¦¬à¦°à¦« à¦ķ
Ġà¦¬à¦°à¦« à¦¬
Ġà¦¬à¦°à¦« à¦ĩ
Ġà¦¬à¦°à¦« à¦ļ
Ġà¦¬à¦°à¦« à¦Ĺà¦²
Ġb es
Ġb ur
Ġb od
Ġb ro
Ġb est
Ġb uild
Ġp h
Ġp ar
Ġp ut
Ġp ay
Ġp ig
Ġp res
Ġp ois
Ġp ear
Ġp hen
Ġp ragmatic
Ġp ressure
Ġp oint
Ġp ract
Ġà¦Ĺà¦Ĺà¦¨ à¦¸
Ġà¦Ĺà¦Ĺà¦¨ à¦ª
à¦¤à¦¶ à¦Ļ
Ġà¦®à¦Ĺ à¦ª
à¦Ĩà¦§ à¦ĺà¦£
Ġà¦Ĩà¦Ĺà¦®à¦¨ à¦¸
à¦¯à¦®à§Ł à¦Ń
à§ģà¦Ĥ ,
and eur
Ġà¦Ńà¦¬à¦¨ à¦®
... ?
à¦ĩà¦ĸ à¦°à¦ļ
ic o
ic y
ic ht
Ġà¦ħà¦²à¦ķ à¦ª
Ġà¦ħà¦²à¦ķ à¦ķà¦¬
Ġà§© à§ª
le e
le ich
le te
à¦ªà¦ľ à¦²à¦¬
à¦ļà¦Ľ à¦ľà¦¨
Ġà¦²à§Ł à¦Ńà¦Ļ
Ġà¦¬à¦°à¦£ à¦¡
Ġà¦¬à¦°à¦£ à¦¹
à¦¶à¦¹ à¦°à¦ľ
à¦¸à¦ĩ à¦īà¦ľ
Ġà¦ªà¦°à¦¤ à¦¤
Ġà¦§à¦°à¦¬ à¦ĩ
à¦¼à¦¿à¦Ĥ ;
à¦¼à¦¿à¦Ĥ âĢĶ
à¦¼à¦¿à¦Ĥ !âĢĿ
à¦Ńà¦°à¦¤ à¦ķ
à¦Ńà¦°à¦¤ à¦ª
Ġà¦§à¦®à¦ķ à¦§
ÂłÂłÂłÂłÂłÂłÂłÂłÂłÂłÂłÂłÂłÂłÂłÂł ÂłÂłÂłÂłÂłÂłÂłÂłÂłÂłÂłÂłÂłÂłÂł
ÂłÂłÂłÂłÂłÂłÂłÂłÂłÂłÂłÂłÂłÂłÂłÂł ÂłÂłÂłÂłÂłÂłÂłÂłÂłÂłÂł
ÂłÂłÂłÂłÂłÂłÂłÂłÂłÂłÂłÂłÂłÂłÂłÂł ÂłÂłÂłÂłÂłÂłÂłÂłÂłÂłÂłÂłÂłÂłÂłÂłÂł
ÂłÂłÂłÂłÂłÂłÂłÂłÂłÂłÂłÂłÂłÂłÂłÂł ÂłÂłÂłÂłÂłÂłÂłÂłÂłÂłÂłÂłÂłÂłÂłÂłÂłÂłÂłÂłÂłÂłÂłÂłÂłÂłÂłÂłÂłÂłÂłÂłÂłÂłÂłÂłÂł
à¦¤à¦ļ à¦ŀ
as a
as ad
as ya
as por
as eno
à§ĭâĢĵ âĢĿ
à§ĭâĢĵ âĢľ
Ġf er
Ġf ot
Ġf ur
Ġf ac
Ġf res
Ġf ast
Ġf ight
Ġf ell
Ġf aces
Ġà¦¨à¦Ł à¦ľ
Ġà¦¨à¦Ł à¦¨à¦Ł
Ġà¦ķà¦¬à¦° à¦Ĺ
à¦¡à¦ķ à¦°à¦ķ
ed anta
à¦¬à§ľ à¦°
à¦¬à§ľ à¦²
Ġà¦¸à¦« à¦²à¦ķ
Ġà¦¸à¦« à¦¦à¦°
Ġà¦¸à¦« à¦°à¦ĩ
Ġd ut
Ġd iv
Ġd ie
Ġd ict
Ġd ile
Ġd yn
Ġd imin
Ġd awn
Ġd omin
Ġd ocs
à¦ħà¦ªà¦° à¦ķ
à¦ħà¦ªà¦° à¦£
à¦ħà¦ªà¦° à¦ªà¦ķ
Ġà¦¸à¦¦à¦¸ à§İ
à¦ıà¦² à¦Ĺà¦°
Ġà¦ĩà¦ī à¦¥
Ġà¦ĩà¦ī à¦Ń
Ġà§§à§¯à§Ń à§¯
Ġà¦®à¦¦à¦¨ à¦ª
Ġà¦®à¦¦à¦¨ à¦ĸ
Ġà¦®à¦¦à¦¨ à¦Ĺ
Ġà¦®à¦¦à¦¨ à¦¹
Ġà¦Ĺà¦¤à¦ķ à¦¯
Ġà¦ļà§ľ à¦¬
Ġà¦ļà§ľ à¦Ł
à¦¬à¦¸à¦¨ à¦Ń
Ġh all
Ġh ab
Ġh ate
Ġh ard
Ġh yst
Ġh ung
Ġh ole
Ġh alf
Ġh idden
Ġh onourable
à¦ľà¦§ à¦°à¦®
à§ĩâĢĿ -
Ġà§¨à§¦ à§¨à§¦
Ġà§¨à§¦ à§©à§¦
Ġà§¨à§¦ à§ªà§«
Ġà§¨à§¦ à§©à§«
Ġà§¨à§¦ à§Ńà§«
à¦Ļà¦¨ à¦ĸ
Ġà¦ĵà§Ł à¦°
Ġà¤ ²
Ġà¤ ı
Ġà¤ ĵ
Ġà¤ Ń
à¦Ĺà¦ł à¦ķà¦°
à¦Ĺà¦ł à¦¨à¦ĵ
à¦Ĺà¦ł à¦¨à¦¸
à¦Ĺà¦ł à¦¨à¦°
à¦Ĺà¦ł à¦¨à¦ĩ
Ġà¦īà¦Ĺ à§ľ
à¦£à¦Ń à¦ľà¦¨
à¦Ĩà¦ĩ à¦¸à¦ķ
à§ĩ-- "
à§ĩ-- '
Ġà¦¦à¦®à¦¨ à¦ķ
Ġà¦¦à¦®à¦¨ à¦¶
Ġà¦¦à¦®à¦¨ à¦¹
Ġà¦¦à¦®à¦¨ à¦¶à¦ķ
om e
om er
om et
om ment
à§Ģà¦Ĥ âĢ¦
Ġà¦ħà¦¬à¦¸à¦° à¦Ĺ
ct ive
à§ĭâĢ¦ .
à§ĭâĢ¦ à¥¤âĢĻ
à§ĭâĢ¦ âĢĿà¥¤
à§ĭâĢ¦ âĢĻà¥¤
à§ĭâĢ¦ !âĢĻ
à§Ģ; âĢĵ
à§Ģ; ---
à¦ıà¦ķà¦¬ à¦Ľà¦°
Ġà¦¶à¦°à§İ à¦¹
à¦°à¦¬à¦£ à¦¯à¦¨
à¦¯à¦°à¦¸ à¦Ł
Ġà¦¶à¦® à¦¦à¦®
Ġin it
Ġin ner
Ġà¦ľà¦¨à¦Ĺà¦£ à¦®à¦¨
Ġà¦ľà¦¨à¦Ĺà¦£ à¦®à¦Ļ
Ġn a
Ġn ur
Ġn ation
Ġn ois
Ġn ight
Ġn ob
Ġn ational
Ġn atural
à¦Ī à¦²
à¦Ī à¦¯
à¦Ī à¦ļ
à¦Ī à§Ł
à¦Ī à¦¨à¦¦
à¦°à¦¸à¦¬ à¦¸
Ġl and
Ġl ad
Ġl ate
Ġl ost
Ġl ik
Ġl arg
Ġl ily
Ġl ips
Ġl ook
à¦Ĺà¦ª à¦Ļ
Ġà¦¸à¦¦à¦° à¦ħà¦¨
Ġà¦¨à¦Ĺ à¦°à¦¦
Ġà¦¨à¦Ĺ à¦°à¦¸à¦®
Ġà¦ĵà¦ľà¦¨ à¦¦
ĠI II
ĠI SO
ĠI dent
Ġà¦¬à§İà¦¸à¦° à¦ĸ
Ġà¦¬à§İà¦¸à¦° à¦Ĺ
ÂŃ à§į
Ġà¦¬à¦Łà¦¬ à¦Ł
Ġà§§à§¯à§« à§Ń
Ġà§§à§¯à§« à§ª
Ġà§§à§¯à§« à§¯
Ġà¦¨à¦ĸ à¦ħà¦²
ot ed
ot ected
à¦ĩà¦¸à¦¬ à¦¸
à¦ĩà¦¸à¦¬ à¦«
Ġà§« à§¯
Ġà§« à§¨à§¦
à§ĭ?âĢĻ à¥¤
à§ĭ?âĢĻ âĢĶ
Ġà¦¦à¦¹à¦¨ à¦ľ
Ġà¦¦à¦¹à¦¨ à¦¶
Ġà¦¦à¦¹à¦¨ à¦¹
Ġà¦ķà¦²à¦ķà¦² à¦¨
Ġà¦¶à¦ĸ à¦ĵ
à§§à§¯ à§¨à§Ń
à§§à§¯ à§¨à§¬
à§§à§¯ à§ªà§©
Ġth ou
Ġth ous
Ġth ose
Ġth rone
ra k
ra ve
ra ph
ra phy
à¦²à¦®à¦¨ à¦ķ
Ġà¦ľà¦²à¦ľ à¦ľ
Ġà¦²à¦¬à¦£ à¦¬
Ġà¦²à¦¬à¦£ à¦Ł
Ġà¦²à¦¬à¦£ à¦ĩ
Ġà¦²à¦¬à¦£ à¦ļ
Ġà¦²à¦¬à¦£ à¦ļà¦²
Ġà¦²à¦¬à¦£ à¦ľà¦²
ol l
ol ation
ol ved
ol ipsism
Ġà¦¨à¦ķà¦² à¦ķ
à¦īà¦ª à¦¸à¦°
à¦¾!âĢĻ âĢĿ
all er
all eng
all iteration
à¦¶à¦ĵ à¦ķà¦¤
st ation
ĠM O
ĠM ar
ĠM us
ĠM ac
ĠM edia
el n
el ong
Ġà§§à§© à§¨à§¦
Ġà§§à§© à§ªà§«
Ġà§§à§© à§¨à§®
Ġà§§à§© à§ªà§¦
Ġà§§à§© à§©à§¨
Ġà§§à§© à§Ńà§¦
Ġà§§à§© à§¯à§«
Ġà§§à§© à§ªà§©
Ġà§§à§© à§®à§©
Ġà§§à§© à§ªà§®
Ġà§§à§© à§«à§®
Ġà§§à§© à§¬à§¯
Ġà§§à§© à§Ńà§©
Ġà§§à§© à§¯à§Ń
Ġà§ª à§¬
Ġà§ª à§Ńà§¦
Ġà§ª à§¯à§¦
à¦§à¦¦ à§°
ĠA C
ĠA d
ĠA y
ĠA ll
ĠA yesha
ĠA URA
ĠA cad
ĠA DITI
ĠA hm
à¦®à¦®à¦¤ à¦Ĺ
à§ĩà¥¤à¥¤ '
Ġà¦¤à¦« à¦¶
à¦§à¦¸ à¦ľ
à§ĭâĢĻ à¥¤âĢĿ
Ġà¦īà¦ªà¦ķà¦°à¦£ à¦®
ent le
ent ially
et l
et us
et tle
et hical
ĠP H
ĠP l
ĠP ar
ĠP ast
ĠP hilosop
ĠP ressure
ĠP otol
à¦¿' -
à¦£à¦¸ à¦®à¦¨
Ġto p
Ġto ol
Ġà¦ªà¦¤à¦¨ à¦ķ
Ġà¦ªà¦¤à¦¨ à¦¶
il t
il oy
il ter
il och
à¦£à¦Ĺà¦¤ à¦Ń
ĠâĢ¦ ..
à§į! -
à§į! âĢĵ
à¦¯à¦ļ à¦°à¦¤
à¦¯à¦ļ à¦°à¦ķ
Ġà¦ķà¦¤à¦¬ à§ľ
ĠB a
ĠB ir
ĠB rown
à¦¼âĢ¦ ,
à¦¼âĢ¦ .
à¦¼âĢ¦ /
à¦®à¦ĸ à¦®à¦²
Ġà¦¨à¦ĵ à¦²à¦ķ
Ġà¦ĺà§ľ à¦ĺà§ľ
Ġà¦ľà¦²à¦¦ à¦ļ
Ġà¦ľà¦²à¦¦ à¦Ĺà¦®
à¦¨à§Ł à¦¨à¦¬
à¦¨à§Ł à¦¨à¦¦
à§ĭ,âĢĿ âĢĵ
Ġà¦ľà¦¨à¦ªà¦¦ à¦ķ
Ġà§§à§¦ à§ª
Ġà§§à§¦ à§®
ĠS E
ĠS e
ĠS u
ĠS on
ĠS is
ĠS ur
ĠS im
ĠS ha
ĠS TE
ĠS hak
ĠS our
ĠS ark
ĠS ek
ĠS EC
ĠS aras
ĠS olipsism
Ġà¦®à¦°à¦® à¦ľ
à¦¶à¦ªà¦¥ à¦Ł
un d
un ds
Ġà¦īà¦ĩà¦² à¦¶
à¦Ĭ à¦ķ
Ġis land
Ġis olation
à¦¨à¦¡ à¦°à¦«
Ġe c
Ġe ast
Ġe arly
Ġà¦¨à¦Ń à¦ª
Ġà¦¨à¦Ń à¦¶
à¦¯à¦ľà¦¨ à¦Ĺ
Ġà¦Ĺà¦ł à¦¨à¦ĩ
Ġà§Ń à§Ń
Ġà§Ń à§¬
Ġà§Ń à§®
Ġà§Ń à§«à§¦
Ġà§Ń à§®à§ª
Ġà§Ń à§Ńà§Ń
à¦Łà¦¬à¦² à¦Ł
ig s
ig en
à§ĩà¦Ĥ -
à¦¹à¦£ à¦ĩ
à¦¹à¦£ à¦¹
à¤¾ âĢĶ
à§ģ; âĢĶ
Ġà¦²à¦° à¦ļà¦°
,- âĢľ
ur u
ur ne
Ġre c
Ġre p
Ġre ve
Ġre st
Ġre ality
Ġre present
áĥ ®áĥķ
ĠĠĠĠ Ġ
à§ĩ!âĢĻ âĢĻ
à§§à§Ń à§¯
à§§à§Ń à§¬à§¦
ĠT im
ĠT hing
ĠT radition
Ġà¦²à¦Ń à¦¤
Ġbe ings
Ġbe gin
ĠR E
ĠR es
ĠR ad
ĠR ain
ĠR aces
ĠR AM
ĠR ama
à¦ªà¦¤à¦¨ à¦ĩ
os ed
os ition
ch os
ch af
à§Ĺ à¦ģ
Ġà¦ĵà¦°à¦ķà¦® à¦ĩ
id ge
id ual
im al
im bus
à¦®à¦¹à¦² à¦Ł
Ġà¦ķà¦¨à¦ķ à¦¶
Ġà¦ķà¦¨à¦ķ à¦Ńà¦¬à¦¨
à¦¬à¦°à¦ķ à¦£
à¦¦à¦Ń à¦¬à¦¨
Ġà¦¨à¦ľ à¦°à¦ķ
Ġà¦ĸà¦² à¦ľà¦¨
Ġà¦Ĩà¦²à¦¸ à¦Ńà¦°
Ġà¦īà¦¦à§Ł à¦ª
à¦¿-- "
Ġg in
Ġg em
Ġg ap
Ġg eb
Ġg ene
Ġg host
Ġg entle
à§įâĢĮà¥¤ '
ĠD P
ĠD ay
ĠD ru
ĠD esh
ĠD ata
Ġà§¬ à§®
Ġà§¬ à§©à§Ń
à§ĩà¦ĥ âĢĻ
à¦¥à¦Ĺ à¦Ĺà¦¨
Ġà¦ıà¦ķà¦ļ à¦ª
à¦Ĥ- âĢĻ
à§§à§¨ à§§à§Ń
à¥¤âĢĺ )
us a
us s
us ion
us iness
à¦¶à¦¶ à¦§à¦°à¦Ľ
Ġà¦ľà¦ª à¦®à¦¨
am i
am p
am br
à¦Ľà¦¦ à¦ªà¦Ł
od e
od ox
ĠC ol
ĠC har
ĠC ult
ĠC ons
ĠC CT
ĠC PU
ĠC aller
à¦¯à¦ªà¦Ł à¦Ł
Ġà¦®à¦°à¦¬ à¦ĩ
Ġà¦Ĺà¦²à¦¦ à¦Ĺà¦²
Ġà§§à§® à§¨à§¦
Ġà§§à§® à§¯à§¦
Ġà§§à§® à§®à§©
Ġà§§à§® à§¯à§¯
à¦®à¦°à¦ķ à¦¤
Ġwh y
Ġwh om
Ġwh oles
Ġwh ipped
Ġà§¯ à§¬
Ġà§¯ à§«à§Ń
Ġà¦ıà¦ķà¦Ŀ à¦Łà¦ķ
Ġà¦ĸà¦ļ à¦®à¦ļ
Ġà¦ķà¦®à¦¬ à¦ĸ
Ġà¦¬à¦¦à¦¨ à¦ĸ
Ġà¦ĩà¦¸à¦®à¦¤ à¦ĩ
Ġà¦Ľà§Ł à¦ľà¦¨
Ġà¦¸à¦¹à¦ļà¦° à¦Ĺà¦£
Ġà§§à§¯à§¯ à§Ń
Ġà§§à§¯à§¯ à§¯
Ġà§§à§¯à§¯ à§®
ul g
ul ation
à¦¨à¦®à§Ł à¦¤
à§ģâĢ¦ à¥¤
à¦§à¦Ĺ à§Ł
à¦ıà¦¨ à¦ıà¦¨
Ġà¦Ķà¦°à¦¸ à¦ľà¦¨
if y
if est
if ied
if orm
if elong
Ġà¦«à¦°à¦® à¦Ł
à¦Ńà§İà¦¸ à¦Ń
Ġà¦īà¦® à¦Ļ
à¤° à¦¨
à¤° à¦¬
à¤° à¦®
à¤° à¦£
à¤° à¤ķ
à¦¼âĢĻ !
à¦¼âĢĻ âĢĵ
ĠN ag
ĠN ex
ĠN IR
ĠN iloy
à¦Ńà¦Ĺ à¦¬à¦¦
Ġà§§à§¨ à§¦à§¨
**** ***
à¦°à¦¦à¦¯ à¦¨
à¦¯à¦¸à¦® à¦Ĺ
Ġà¦®à¦Ĺà¦ľ à¦ķ
à¦ħà¦¹ à¦¹
.âĢĿ )
ro y
à§įâĢį -
à¦¶à¦§ à¦°à¦ĩ
Ġà¦īà¦ĩ à¦ķà¦²
Ġà¦īà¦ĩ à¦¢
Ġà¦ħà¦¸à§İ à¦Ń
à¦ıà¦ĩà¦ļ à¦ıà¦«
Ġà§§à§« à§ª
Ġà§§à§« à§«à§¦
à¦¨à¦ªà¦¥ à¦ķ
à¦¨à¦ªà¦¥ à¦Ĺ
Ġà¦®à¦ķ à¦°à¦®
à¦°à¦£à§Ł à¦¨à¦ķ
ha pp
ha ps
Ġà§® à§Ń
Ġà§® à§®
à¦¼à¦ĥ âĢĵ
ir d
ir y
à¦°à¦²à§Ł à¦¶
ci bel
ĠH e
ĠH and
ĠH um
ĠH ast
ĠH ug
ĠH ec
ĠH ai
Ġà¦ªà¦Łà¦² à¦¦
Ġà¦ªà¦Łà¦² à¦ª
Ġà¦ªà¦Łà¦² à¦Ĺ
Ġà¦®à¦ł à¦Ĺ
Ġà¦®à¦ł à¦ĺ
Ġà¦ħà¦¹à¦¨ à¦¹à¦¨
Ġà¦ħà¦ķà¦ªà¦Ł à¦¤
à§§à§¬ à§ª
ad ing
Ġà¦ľà¦²à¦ķ à¦¦à¦°
Ġfor m
Ġfor ce
em an
em pl
âĢ¦âĢĻ âĢĿ
à¦Ĩà¦ļà¦°à¦£ à¦ķ
à¦Ĩà¦ļà¦°à¦£ à¦ĩ
à¤¤ à¤¨
à¤¤ à¤®
ess e
ess ive
ĠÑ Ģ
ĠÑ ĩ
ĠÑ į
Ġcon n
Ġcon qu
Ġà¦ĩà¦¨à¦ķ à¦®
à§§à§© à§¨
à§§à§© à§ª
à§§à§© à§«à§¦
à§§à§« à§¯
à§§à§« à§¬à§§
ĠG ord
ĠG oet
ĠG IF
ĠG oat
ĠG PS
ĠG osp
ĠG overn
Ġà¦¸à¦ªà¦¨ à¦ªà¦¥
à¦¼à¦¾âĢĻ !
à¦¯à¦Łà¦ķ à¦ķ
Ġà¦«à¦²à¦¨ à¦ĵ
Ġà§§à§Ń à§¬à§©
à¦²à¦¥ à¦Ĺà¦¤
ist s
ist ers
ist ered
ag ing
ag ement
Ġà¦¨à¦¬à¦° à¦ļà¦¨
Ġà¦¨à¦¬à¦¬ à¦Ļ
à¦Ĺà¦Ĺà¦¨ à¦ļ
Ġy ears
Ġà¦Łà¦¹à¦² à¦¦à¦²
iv a
iv ate
iv ated
Ø§ ÛĮ
Ø§ Ùģ
ĠE nd
ĠE very
ĠL a
ĠL ear
ĠL uc
ĠL OC
Ġà¦¦à¦ĸ à¦²à¦ķ
à§¨à§¦ à§¨à§«
ab stra
Ġà¦§à§ľ à¦®
Ġà¦§à§ľ à¦ķà¦¨
Ġà¦§à§ľ à¦§à§ľ
Ġà§§à§ª à§«à§¦
Ġà§§à§ª à§©à§ª
Ġà§§à§ª à§¯à§«
Ġà§§à§ª à§¦à§¨
Ġà§§à§ª à§®à§¬
Ġv edic
Ġv iew
Ġà¦Ĺà¦®à¦¨ à¦ªà¦¥
Ġst and
Ġst ret
Ġst eed
à¦¨à¦¸à¦¨ à¦ķ
à¦¨à¦¸à¦¨ à¦ª
à§ģ!âĢĿ à¥¤
Ġà¦ķà¦®à¦¨ à¦ĵà§Ł
Ġà¦Ńà¦ľà¦¨ à¦ª
Ġà¦§à¦¬à¦² à¦ķ
Ġà¦§à¦¬à¦² à¦Ĺ
end e
end er
up id
à¦Ĩà¦¸à¦¨ à¦Ł
ht i
ri es
ri ent
ri ke
ri but
ri ble
à¤¨ à¤ķ
ĠÐ ±
ĠÐ ¶
Ġà¦ªà¦ª à¦Ĩà¦ª
ism s
ac re
ac ob
Ġan c
Ġan anda
Ġan imal
à§ĭâĢĿ ?
à¦¼à¥¤à¥¤ (
Ġà¦¹à¦°à¦· à¦ļ
ore d
Ġ-- --
Ġà¦ľà¦¹à¦° à§İ
à§§à§® à§«à§¨
à§§à§® à§¯à§¨
à¤² à¦¨
à¤² à¦Ľ
Ġas cend
Ġas sert
Ġà¦¬à§İà¦¸ à¦¦
Ġà¦¬à§İà¦¸ à¦°à¦¬
ant s
ant al
ant agon
ĠØ ¢
ĠØ ®
ĠØ µ
ĠØ ·
ĠØ °Ø±
Ġà¦¬à¦Ľ à¦°à¦¦
Ġà¦¬à¦Ľ à¦°à¦ľ
Ġne ar
Ġne ck
Ġne cess
Ġne ither
ĠÑģ Ð²
ill s
og raphy
Ġ1 6
Ġà¦Ĩà¦ªà¦¦ à¦Ĺ
Ġà¦¤à§ľ à¦ª
à¦¾à¦ĥ! [
ĠĠĠĠĠĠĠĠ ĠĠĠĠ
à¸ ¡
à¸ ·
à¸ ¹
à¸ ķ
à¸ Ĺ
à¸ Ń
Ġun ity
Ġun con
Ġun iverse
Ġun iqu
Ġun told
Ġun iform
à§ĩà¥¤' '
à§«à§Ń à§¯
Ġà§§à§¯à§¨ à§¬
est ion
est ly
est ry
à¦ļà¦²à¦¬ à¦¸à¦¨
à¦¹à¦ľ à¦¸à¦¨
Ġyou ng
la use
Ġman grove
Ġman ifest
Ġà§«à§¦ à§Ń
Ġk anya
Ġk ettle
Ġà¦ľà¦¬à¦° à¦ľ
Ġà§¨à§¨ à§¬
Ġà§¨à§¨ à§®à§Ń
Ġor th
Ġà§©à§¦ à§¨à§¨
Ð° Ò
Ð° Ð»
Ð° ÑĢÑĭ
Ġà¦Ĩà¦ĩà¦ľ à¦ĵ
Ġhe at
Ġhe ro
Ġhe ld
Ġà§§à§¯à§© à§«
[...]
