{"[PAD]":0,"[UNK]":1,"[CLS]":2,"[SEP]":3,"!":4,"\"":5,"#":6,"$":7,"%":8,"&":9,"'":10,"(":11,")":12,"*":13,"+":14,",":15,"-":16,".":17,"/":18,"0":19,"1":20,"2":21,"3":22,"4":23,"5":24,"6":25,"7":26,"8":27,"9":28,":":29,";":30,"<":31,"=":32,">":33,"?":34,"@":35,"A":36,"B":37,"C":38,"D":39,"E":40,"F":41,"G":42,"H":43,"I":44,"J":45,"K":46,"L":47,"M":48,"N":49,"O":50,"P":51,"Q":52,"R":53,"S":54,"T":55,"U":56,"V":57,"W":58,"X":59,"Y":60,"Z":61,"[":62,"\\":63,"]":64,"^":65,"_":66,"`":67,"a":68,"b":69,"c":70,"d":71,"e":72,"f":73,"g":74,"h":75,"i":76,"j":77,"k":78,"l":79,"m":80,"n":81,"o":82,"p":83,"q":84,"r":85,"s":86,"t":87,"u":88,"v":89,"w":90,"x":91,"y":92,"z":93,"{":94,"|":95,"}":96,"~":97,"¡":98,"¢":99,"£":100,"¤":101,"¥":102,"¦":103,"§":104,"¨":105,"©":106,"ª":107,"«":108,"¬":109,"®":110,"¯":111,"°":112,"±":113,"²":114,"³":115,"´":116,"µ":117,"¶":118,"·":119,"¸":120,"¹":121,"º":122,"»":123,"¼":124,"½":125,"¾":126,"¿":127,"À":128,"Á":129,"Â":130,"Ã":131,"Ä":132,"Å":133,"Æ":134,"Ç":135,"È":136,"É":137,"Ê":138,"Ë":139,"Ì":140,"Í":141,"Î":142,"Ï":143,"Ð":144,"Ñ":145,"Ò":146,"Ó":147,"Ô":148,"Õ":149,"Ö":150,"×":151,"Ø":152,"Ù":153,"Ú":154,"Û":155,"Ü":156,"Ý":157,"Þ":158,"ß":159,"à":160,"á":161,"â":162,"ã":163,"ä":164,"å":165,"æ":166,"ç":167,"è":168,"é":169,"ê":170,"ë":171,"ì":172,"í":173,"î":174,"ï":175,"ð":176,"ñ":177,"ò":178,"ó":179,"ô":180,"õ":181,"ö":182,"÷":183,"ø":184,"ù":185,"ú":186,"û":187,"ü":188,"ý":189,"þ":190,"ÿ":191,"Ā":192,"ā":193,"Ă":194,"ă":195,"Ą":196,"ą":197,"Ć":198,"ć":199,"Ĉ":200,"ĉ":201,"Ċ":202,"ċ":203,"Č":204,"č":205,"Ď":206,"ď":207,"Đ":208,"đ":209,"Ē":210,"ē":211,"Ĕ":212,"ĕ":213,"Ė":214,"ė":215,"Ę":216,"ę":217,"Ě":218,"ě":219,"Ĝ":220,"ĝ":221,"Ğ":222,"ğ":223,"Ġ":224,"ġ":225,"Ģ":226,"ģ":227,"Ĥ":228,"ĥ":229,"Ħ":230,"ħ":231,"Ĩ":232,"ĩ":233,"Ī":234,"ī":235,"Ĭ":236,"ĭ":237,"Į":238,"į":239,"İ":240,"ı":241,"Ĳ":242,"ĳ":243,"Ĵ":244,"ĵ":245,"Ķ":246,"ķ":247,"ĸ":248,"Ĺ":249,"ĺ":250,"Ļ":251,"ļ":252,"Ľ":253,"ľ":254,"Ŀ":255,"ŀ":256,"Ł":257,"ł":258,"Ń":259,"à¦":260,"à§":261,"Ġà¦":262,"à¦¾":263,"à§ĩ":264,"à¦°":265,"à§į":266,"à¦¿":267,"à¦¨":268,"à¦¤":269,"à¦²":270,"à¦ķ":271,"à¦¯":272,"à§ģ":273,"à¦¬":274,"à¦¼":275,"à¦®":276,"à§ĭ":277,"Ġà¦ķ":278,"Ġà¦¬":279,"Ġà¦¸":280,"à¥":281,"à¥¤":282,"à¦¸":283,"Ġà¦ª":284,"Ġà¦Ĩ":285,"à¦¦":286,"à¦Ł":287,"Ġà¦¨":288,"Ġà¦®":289,"à¦ª":290,"à¦ĩ":291,"à§Ģ":292,"à¦Ľ":293,"Ġà¦¦":294,"à¦ľ":295,"Ġà¦¹":296,"Ġà¦¤":297,"Ġà¦ı":298,"à¦¶":299,"à¦¼à§ĩ":300,"Ġà¦ħ":301,"à¦ĸ":302,"à¦Ĺ":303,"à¦·":304,"à¦§":305,"âĢ":306,"à¦¡":307,"Ġà¦¯":308,"à¦ļ":309,"à¦¹":310,"Ġà¦ķà¦°":311,"à§Ł":312,"Ġà¦Ĺ":313,"à¦£":314,"à¦ģ":315,"à¦¥":316,"Ġà¦¶":317,"Ġà¦ľ":318,"Ġà¦ļ":319,"Ġà¦Ń":320,"Ġà¦°":321,"à§ĩà¥¤":322,"à¦ĵ":323,"à¦Ń":324,"Ġà¦ıà¦ķ":325,"à¦¼à¦¾":326,"à§ĥ":327,"ĠĠ":328,"Ġà¦Ľ":329,"Ġà¦Ĩà¦®":330,"à¦ł":331,"Ġà¦ī":332,"à¦Ĥ":333,"à§Ĥ":334,"à¦¾à¦ģ":335,"à¦Ļ":336,"Ġà¦²":337,"Ġà¦ĵ":338,"Ġà¦¥":339,"à§ĩ,":340,"Ġà¦¬à¦²":341,"Ġà¦«":342,"Ġà¦Ĩà¦°":343,"Ġà¦ĸ":344,"à¦°à¦¤":345,"Ġà¦ħà¦¨":346,"à¦¾à¥¤":347,"Ġà¦¹à¦¯":348,"Ġà¦§":349,"Ġà¦ªà¦°":350,"âĢĶ":351,"Ġà¦¸à¦®":352,"à¦¾,":353,"ĠâĢ":354,"à¦¬à¦¨":355,"à¦¼à¦¿":356,"à§ľ":357,"à¦ĸà¦¨":358,"Ġà¦ĺ":359,"Ġà¦®à¦¨":360,"à¦ªà¦°":361,"Ġà¦ıà¦ķà¦Ł":362,"à¦°à¦£":363,"Ġà¦ıà¦ĩ":364,"à¦¿à¥¤":365,"à¦®à¦¨":366,"à¦Ŀ":367,"à¦ľà¦¨":368,"à¦ŀ":369,"à¦¤à¦°":370,"à¦«":371,"à¦ī":372,"à¦¿,":373,"à¦ªà¦¨":374,"Ġà¦Ĩà¦²":375,"à¦°à¦¬":376,"à¦Ĩ":377,"à§İ":378,"à¦ı":379,"âĢĿ":380,"à¦°à¦ķ":381,"Ġà¦¸à¦¬":382,"à¦¬à¦°":383,"Ġà¦¬à¦²à¦²":384,"Ġà¦Ĩà¦¸":385,"Ġà¦Ł":386,"Ġà¦Ĩà¦Ľ":387,"âĢĻ":388,"Ġà¦ķà¦¥":389,"à¦¼à¥¤":390,"Ġà¦¹à¦²":391,"Ġà¦īà¦ł":392,"Ġà¦¡":393,"ĠâĢľ":394,"à§Ī":395,"Ġà¦ĩ":396,"Âł":397,"Ġà¦ªà¦¡":398,"à¦ĺ":399,"Ġà¦®à¦¤":400,"Ġà¦¸à¦Ļ":401,"à¦ĵà¦¯":402,"à§Į":403,"Ġà¦ľà¦¨":404,"Ġà¦¹à¦¬":405,"ĠĠĊ":406,"Ġà¦§à¦°":407,"Ġà¦Ŀ":408,"à¦¬à¦²":409,"Ġà¦ıà¦¬":410,"à¦¼,":411,"ĠâĢĺ":412,"à¦¬à¦ª":413,"Ġà¦ħà¦¬":414,"Ġà¦ķà¦°à¦¤":415,"à¦°à¦®":416,"à§ģà¦ģ":417,"Ġà¦ļà¦²":418,"ÂłÂł":419,"Ġà¦ł":420,"à¦·à¦£":421,"à¦¨à¦¤":422,"Ġà¦ķà¦°à¦²":423,"Ġà¦ıà¦¸":424,"âĢĵ":425,"Ġà¦¬à¦¸":426,"Ġà¦®à¦§":427,"Ġà¦Ĩà¦ľ":428,"Ġà¦¢":429,"à¦¤à¦¨":430,"à¦ĥ":431,"à§ĭà¦ģ":432,"à¦ħ":433,"Ġà¦¬à¦¨":434,"Ġà¦¨à¦¤":435,"à¦ķà¦²":436,"Ġà¦Ĩà¦¬":437,"Ġà¦ªà¦¥":438,"Ġà¦ħà¦®":439,"Ġà¦Ĩà¦Ĺ":440,"Ġà¦Ĩà¦®à¦°":441,"Ġà¦¨à¦¯":442,"Ġà¦Ĺà¦²":443,"à¦ķà¦°":444,"Ġà¦¹à§Ł":445,"Ġà¦ĵà¦ł":446,"à¦ķà¦Ł":447,"à¦¸à¦¬":448,"à¦°à¦¨":449,"Ġà¦ħà¦¸":450,"à¦¯à¦¬":451,"Ġà¦¤à¦¬":452,"à§ĩà¦ģ":453,"à§ĭà¥¤":454,"à¦°à¦¥":455,"Ġà¦Ĩà¦ķ":456,"à¦¤à¦¬":457,"à¦°à¦¸":458,"à¦²à¦ķ":459,"à¦¨à¦¬":460,"à¦¾à¦Ĥ":461,"à§ĭ,":462,"Ġà¦Ĩà¦¶":463,"Ġà¦Ĩà¦ªà¦¨":464,"à¦¦à¦¨":465,"à¦ķà¦¤":466,"Ġà¦¹à¦¤":467,"Ġà¦¬à¦°":468,"à¦°à¦¥à¦®":469,"Ġà¦¤à¦ĸà¦¨":470,"Ġà¦¸à¦¤":471,"Ġà¦ıà¦ĸà¦¨":472,"à§ĩ?":473,"Ġà¦ıà¦²":474,"Ġà¦ħà¦¦":475,"Ġà¦Ĩà¦¨":476,"à¦Ĩà¦®":477,"Ġà¦īà¦¦":478,"Ġà¦ķà¦°à¦Ľ":479,"à¦¦à¦°":480,"Ġà¦ħà¦°":481,"à¦¾-":482,"à¦Ĺà¦²":483,"Ġà¦ħà¦Ń":484,"Ġà¦ľà¦²":485,"à¦²à¦¤":486,"à¦Ĺà¦¤":487,"à¦¦à¦¯":488,"Ġà¦¸à¦®à¦¯":489,"Ġà¦¶à¦¬":490,"à¦¿à¦Ĥ":491,"à¦¶à¦¨":492,"à¦®à¦¤":493,"Ġà¦ħà¦¤":494,"à¦¯à¦ķ":495,"Ġà¦¸à¦¨":496,"à¦§à¦ķ":497,"à¦°à¦¹":498,"Ġà¦ĺà¦°":499,"Ġà¦¯à¦¦":500,"Ġà¦īà¦łà¦²":501,"Ġà¦°à¦ķ":502,"à¦¹à¦¸":503,"à¦ļà¦¨":504,"à¦²à¦¨":505,"Ġà¦ķà¦°à¦¬":506,"Ġà¦®à¦¹":507,"Ġà¦īà¦ª":508,"Ġà¦¸à¦°":509,"à¦°à¦¶":510,"à¦ĸà¦¤":511,"à¦°à¦¯":512,"à¦¬à¦¤":513,"Ġà¦¯à¦ĸà¦¨":514,"à¦¨à¦ĵ":515,"à¦Ľà¦¨":516,"à¦ĩà¦²":517,"à¦®à¦²":518,"à¦¯à¦¤":519,"à¦ĸà¦²":520,"à¦§à¦¨":521,"à¦®à¦¯":522,"à¦²à¦¬":523,"à§ĩâĢĶ":524,"Ġà¦¨à¦¦":525,"à¦°à¦¦":526,"à¦°à¦ľ":527,"Ġà¦¬à¦¡":528,"Ġà¦ħà¦ª":529,"Ġà¦ıà¦®à¦¨":530,"à¦°à¦²":531,"Ġà¦ķà¦²":532,"Ġà¦ħà¦§":533,"à¦¼à§ĭ":534,"à¦ļà¦²":535,"Ġà¦¸à¦¹":536,"à¦ĵà§Ł":537,"à¦ªà¦¤":538,"à¦®à¦ķ":539,"Ġà¦¹à¦ļ":540,"à¦°à¦ĩ":541,"Ġà¦ķà¦ĸà¦¨":542,"ÂłÂłÂłÂł":543,"à¦¹à¦°":544,"Ġà¦īà¦¤":545,"Ġà¦Ĩà¦¤":546,"Ġà¦ıà¦¤":547,"à¦¿à¦ĥ":548,"Ġà¦ĵà¦°":549,"à¦¸à¦¨":550,"Ġà¦Ńà¦°":551,"à¦ĩà¦¨":552,"Ġà¦¶à¦ķ":553,"à¦ķà¦¬":554,"à¦¨à¦¨":555,"à¦ıà¦ĩ":556,"Ġà¦ľà¦®":557,"Ġà¦ħà¦ļ":558,"Ġà¦ķà¦£":559,"à§ĩ-":560,"Ġà¦ķà¦¬":561,"Ġà¦¹à¦ł":562,"à¦°à¦ªà¦°":563,"à¦¸à¦®":564,"à¦Ńà¦¬":565,"à§Ģ,":566,"à¦¿-":567,"Ġà¦Ĺà¦¡":568,"à¦Łà¦ķ":569,"Ġà¦ıà¦ĸ":570,"à¦Ľà¦°":571,"Ġà¦ªà§ľ":572,"Ġà¦ħà¦ľ":573,"à¦¹à¦²":574,"Ġà¦ĺà¦Ł":575,"Ġà¦īà¦¨":576,"Ġà¦ĵà¦ªà¦°":577,"Ġà¦ĩà¦¤":578,"Ġà¦Ĳ":579,"à¦¯à¦¨":580,"Ġà¦ķà¦¤":581,"âĢ¦":582,"Ġà¦ķà¦®":583,"Ġà¦¬à¦²à¦¤":584,"à¦¤à¦²":585,"Ġà¦¬à¦¹":586,"Ġà¦Ľà¦¡":587,"à¦¾âĢĶ":588,"à¦Ĺà¦¨":589,"Ġà¦¬à¦¯":590,"Ġà¦¤à¦°":591,"Ġà¦¬à¦Ľà¦°":592,"à¦Ĺà¦°":593,"à§ĩ!":594,"Ġà¦°à¦Ļ":595,"Ġà¦¸à¦ķ":596,"Ġà¦¯à¦¤":597,"Ġà¦īà§İ":598,"Ġà¦¸à¦®à¦¸":599,"Ġà¦ªà¦¦":600,"Ġà¦ıà¦Ĺ":601,"à¦®à¦°":602,"à¦¸à¦°":603,"Ġà¦īà¦ļ":604,"à¦°à¦Ń":605,"Ġà¦ıà¦Ł":606,"âĢľ":607,"à¦ªà¦¦":608,"Ġà¦¦à¦°à¦ľ":609,"Ġà¦Ńà¦¯":610,"à¦¦à§Ł":611,"Ġà¦¶à¦°":612,"à¦°à¦ĵ":613,"à¦¶à¦¬":614,"Ġà¦ħà¦Ĺ":615,"à¦ªà¦¥":616,"Ġà¦¨à§Ł":617,"à¦¼à§ĩà¥¤":618,"Ġà¦ħà¦®à¦²":619,"à¦®à¦£":620,"à¦¿?":621,"à¦ıà¦ķ":622,"Ġà¦ħà¦¥":623,"âĢĮ":624,"Ġà¦Ĩà¦°à¦ĵ":625,"à¦¾?":626,"Ġà¦ıà¦°":627,"à¥¤âĢĿ":628,"Ġà¦Ĺà¦¨":629,"Ġà¦®à¦°":630,"à¦¨à¦ķ":631,"Ġà¦ħà¦ķ":632,"Ġà¦¶à¦¹à¦°":633,"Ġà¦Ĺà¦°":634,"à¦¦à¦²":635,"Ġà¦Ĺà¦Ń":636,"à¦°à¦ª":637,"Ġà¦¬à¦ĩ":638,"à¦¬à¦¸":639,"Ġà¦ħà¦ªà¦°":640,"à¦Łà¦²":641,"à§Ģà¥¤":642,"à¦ĩà¦°":643,"à¦·à¦¤":644,"à§įâĢĮ":645,"à¦¬à¦¦":646,"Ġà¦«à¦²":647,"à¦·à¦ķ":648,"Ġà¦Ľà¦¬":649,"à¦¸à¦¤":650,"à¦¯à¦®":651,"à§§":652,"à¦ļà¦¯":653,"à¦¤à¦ķ":654,"Ġà¦²à¦ķ":655,"à¦°à¦Ł":656,"à§ģ,":657,"à¦¿à¦ģ":658,"à§İà¦ķ":659,"à¦¨à¦Ł":660,"à¦Ŀà¦¤":661,"à§ģà¦ĥ":662,"Ġà¦¬à¦²à¦Ľ":663,"à¦ħà¦¨":664,"Ġà¦ĵà¦ĩ":665,"à¦¤à¦®":666,"à¦¿âĢĶ":667,"à¦¾!":668,"à¦ļà¦ķ":669,"à¦¯à¦¬à¦¸":670,"à¦ľà¦²":671,"à¦²à¦²":672,"à¦¼à§ĩ,":673,"à¦®à¦¬":674,"Ġà¦ħà¦¨à¦¨":675,"à¦ªà¦ķ":676,"Ġà¦Ĩà¦¨à¦¨":677,"à¦·à¦¯":678,"ĠĊ":679,"Ġà¦ħà¦¶":680,"à¦¬à¦ķ":681,"à¦¸à¦²":682,"Ġà¦ĩà¦¨":683,"à¦¨à¦¦":684,"à§ĩ;":685,"à¦°à¦¬à¦¤":686,"à¦ļà¦°":687,"Ġà¦°à¦¬":688,"à¦£à¦¤":689,"à¦¶à¦ķ":690,"à¦¸à¦Ļ":691,"à¦¯à¦¬à¦¹":692,"Ġà¦ķà¦¯":693,"Ġà¦ıà¦ķà¦¦":694,"à¦¢":695,"à¦°à¦ļ":696,"à¦°à¦Ľ":697,"Ġà¦Ĩà¦§":698,"à¦¤à¦¤":699,"à§Łà¦¨":700,"Ġà¦ĩà¦ļ":701,"à¦ĩà¦ķ":702,"à§ģâĢĻ":703,"à¦°à¦ķà¦®":704,"Ġà¦Ĩà¦¸à¦Ľ":705,"Ġà¦ħà¦¬à¦¸":706,"Ġà¦ħà¦²":707,"à¦¯à¦¸":708,"à¦¬à¦¬":709,"Ġà¦ıà¦ķà¦¬":710,"Ġà¦īà¦ªà¦°":711,"Ġà¦ıà¦ķà¦ľà¦¨":712,"à§Įà¦ģ":713,"à¦§à¦¤":714,"à¦ĩà¦¯":715,"Ġà¦Ńà¦¬":716,"à¦¹à¦¨":717,"Ġà¦Ĩà¦ľà¦ķ":718,"Ġà¦Ĩà¦¸à¦²":719,"Ġà¦Ĩà¦¡":720,"Ġà¦ħà¦Ļ":721,"à¦¯à¦¦":722,"Ġ(":723,"à§ĩà¥¤âĢĿ":724,"à¦ªà¦Ł":725,"à¦¼à§ģ":726,"à¦¬à¦¯":727,"Ġà¦Ĺà¦¤":728,"Ġà¦ħà¦¬à¦¶":729,"à¦ľà¦°":730,"à¦ĸà¦¬":731,"!âĢĿ":732,"à¦ķà¦¨":733,"Ġà¦°à¦¹à¦¸":734,"à¦¸à¦ķ":735,"Ġà¦ªà¦¤":736,"à§°":737,"Ġà¦Ŀà¦°":738,"à¦¸à¦«":739,"à¦ĺà¦°":740,"Ġà¦¶à¦¤":741,"Ġà¦īà¦²":742,"à§§à§":743,"à§ģ-":744,"Ġà¦¦à¦²":745,"à§ģà¥¤":746,"Ġà¦¨à¦¬":747,"à¦¨à¦²":748,"Ġà¦īà¦ľ":749,"Ġà¦¸à¦ķà¦²":750,"Ġà¦Ĩà¦ļ":751,"à¦§à¦°":752,"Ġà¦¬à¦¦à¦²":753,"à¦Łà¦¤":754,"Ġà¦¤à¦²":755,"Ġà¦īà¦¡":756,"à¦·à¦°":757,"à¦¨à¦¸":758,"à¦¼à§Ģ":759,"à¦¼à¦¾,":760,"Ġà¦°à¦¯":761,"Ġà¦ªà¦ķ":762,"à¦ĩà¦¤":763,"à¦ªà¦¸":764,"à¦ĸà¦Ľ":765,"à¦¯à¦¥":766,"?âĢĿ":767,"à¦¬à¦¶":768,"à¦Ĩà¦ľ":769,"Ġà¦ħà¦¥à¦ļ":770,"à¦¨à¦°":771,"à¦¥à¦¨":772,"Ġà¦¹à¦ĵà¦¯":773,"Ġà¦Ĩà¦Ļ":774,"Ġà¦Ĩà¦¯":775,"à¦°à¦ľà¦¨":776,"à¥¤âĢĻ":777,"Ġà¥¤":778,"à¦¯à¦°":779,"à¦¨à¦Ĺ":780,"Ġà¦ĵà¦¦":781,"Ġà¦Ĺà§ľ":782,"à¦«à¦²":783,"à¦¥à¦°":784,"à¦ĩà¦Ł":785,"à¦¨à¦¬à¦¤":786,"Ġà¦Ĩà¦¦":787,"à¦ªà¦·":788,"Ġà¦¸à¦¹à¦ľ":789,"à¦Ĺà¦ľ":790,"Ġà¦ķà¦ł":791,"Ġà¦¸à¦®à§Ł":792,"à¦°à¦§":793,"Ġà¦Ĩà¦¹":794,"Ġà¦ħà¦«":795,"à§İà¦¸":796,"Ġà¦ıà¦¦":797,"à¦¼à¦¾à¥¤":798,"à¦²à¦Ľ":799,"Ġà¦¤à¦¥":800,"à¦ªà¦¡":801,"Ġà¦ĭ":802,"à§ĩâĢĵ":803,"à¦°à¦¹à¦£":804,"à¦Ĩà¦°":805,"à¦Łà¦¬":806,"à¦Ŀà¦²":807,"Ġà¦Ĩà¦¸à¦¬":808,"Ġà¦ıà¦ķà¦ĩ":809,"à¦īà¦¨":810,"?âĢĻ":811,"à¦ıà¦ķà¦Ł":812,"Ġà¦¬à¦²à¦¬":813,"Ġà¦ľà¦¡":814,"à¦īà¦²":815,"Ġà¦°à¦ĩà¦²":816,"à¦¿!":817,"Ġ,":818,"à¦Ńà¦°":819,"à¦ĩà¦¬":820,"à¦ľà¦¤":821,"ÂłÂłÂłÂłÂłÂłÂłÂł":822,"Ġà¦ĺà¦¨":823,"Ġà¦ĺà¦Łà¦¨":824,"Ġà¦ķà¦¨":825,"Ġà¦ĸà¦¬à¦°":826,"Ġà¦ķà¦·":827,"Ġà¦Ľà§ľ":828,"à¦Ĺà¦¬":829,"Ġà¦Ĩà¦Łà¦ķ":830,"Ġà¦ıà¦ĸà¦¨à¦ĵ":831,"à¦°à¦Ĺ":832,"Ġà¦ªà¦²":833,"à¦°à¦®à¦£":834,"Ġà¦Ľà¦¨":835,"à¦ķà¦¶":836,"à¦·à¦®":837,"à¦ıà¦¬":838,"à¦¯à¦ĩ":839,"à¦ľà¦¸":840,"Ġà¦ıà¦¨":841,"Ġà¦¯à¦¥":842,"Ġà¦Ĩà¦¸à¦¤":843,"ĠâĢĵ":844,"à¦¹à¦¤":845,"Ġà¦¦à¦°à¦ķ":846,"à¦§à¦¬":847,"à¦ľà¦¯":848,"Ġà¦¤à¦ĸà¦¨à¦ĩ":849,"à§ĭâĢĶ":850,"Ġà¦°à¦ķà¦®":851,"à¦¨à¦¯":852,"à¦·à¦®à¦¤":853,"Ġà¦Ĳà¦¤":854,"à¦ıà¦°":855,"Ġà¦¦à¦¶":856,"à§¨":857,"à¦®à§Ł":858,"à¦®à¦¸":859,"Ġà¦¤à¦¤":860,"à¦ķà¦¦":861,"Ġà¦īà§İà¦¸":862,"à¦ķà¦ķ":863,"Ġà¦ħà¦¦à¦®":864,"Ġà¦¦à¦°":865,"Ġà¦ķà¦ĸà¦¨à¦ĵ":866,"Ġà¦¬à¦Ł":867,"Ġà¦¹à¦°":868,"à¦Ĩà¦²":869,"Ġà§§à§":870,"à¦¾;":871,"à¦ķà¦¡":872,"Ġà¦¸à¦ļ":873,"Ġà¦ļà¦°":874,"Ġà¦Ĩà¦Ń":875,"Ġà¦ľà¦°":876,"à¦¯à¦¯":877,"Ġà¦Ĺà¦£":878,"Ġà¦¬à¦ķ":879,"à¦¾âĢĵ":880,"Ġà¦ªà¦°à¦¬à¦°":881,"à§Ģ-":882,"Ġà¦¯à¦¨":883,"à¦Ĩà¦®à¦°":884,"Ġà¦ħà¦¥à¦¬":885,"Ġà¦¨à¦°à¦®":886,"ĠâĢĶ":887,"Ġà¦¸à¦°à¦ķ":888,"Ġà¦¸à¦¬à¦ļ":889,"à§ĭ?":890,"âĢĶâĢľ":891,"à¦Łà¦¨":892,"à¦®à¦§":893,"Ġà¦ļà¦ķ":894,"Ġà¦¬à§Ł":895,"à¦ľà¦¬":896,"à¦®à¦Ł":897,"à¦¦à¦®":898,"à§ĭ-":899,"à¦¸à¦¬à¦ĩ":900,"Ġà¦ķà¦²à¦ķ":901,"Ġà¦Ńà§Ł":902,"Ġà¦Ĩà¦¦à¦°":903,"Ġà¦¬à¦ī":904,"Ġà¦ľà¦¯":905,"à¦¶à¦ª":906,"à¦Łà¦°":907,"à¦®à¦°à¦£":908,"Ġà¦¸à¦ŀ":909,"à¦²à¦®":910,"à¦²à¦¯":911,"à¦ŀà¦¤":912,"Ġà¦ħà¦Łà¦²":913,"âĢĺ":914,"à¦¾à¥¤âĢĿ":915,"à¦Ĺà¦®":916,"à¦¨à¦ĩ":917,"Ġà¦ıà¦¸à¦¬":918,"à¦²à¦¸":919,"Ġà¦Ńà¦¦":920,"à¦ĩà¦Ľ":921,"Ġà¦§à¦¨":922,"Ġà¦īà¦łà¦¤":923,"à¦²à¦Ĺ":924,"Ġà¦¬à§ľ":925,"Ġà¦ĵà¦ķ":926,"à¦ªà¦£":927,"Ġà¦īà§İà¦¸à¦¬":928,"Ġà¦°à¦ĵ":929,"à¦¹à¦°à¦£":930,"Ġà¦īà¦ªà¦¸":931,"à¦¼?":932,"à¦®à¦Ĺ":933,"à¦²à¦Ł":934,"Ġà¦¸à¦¤à¦¤":935,"à¦¸à¦®à¦¯":936,"à¦¦à¦¸":937,"Ġà¦°à¦ļà¦¨":938,"à¦Ŀà¦°":939,"à¦¸à¦ª":940,"Ġà¦°à¦¸":941,"à¦®à¦¹":942,"à¦ĸà¦°":943,"Ġà¦ªà¦¶":944,"à¦°à§Ł":945,"à¦¼-":946,"à¦¹à¦ł":947,"à¦Ĩà¦ªà¦¨":948,"à¦°à¦¹à¦°":949,"à¦Łà¦«":950,"Ġà¦¦à¦ķ":951,"à¦¡à¦²":952,"à¦¹à¦¯":953,"à¦łà¦¨":954,"à¦¼âĢĶ":955,"Ġà¦Ĩà¦ľà¦ĵ":956,"Ġà¦īà¦łà¦Ľ":957,"Ġà¦Ĩà¦ª":958,"Ġà¦²à¦¡":959,"à§¦":960,"Ġà¦¸à¦Ń":961,"Ġà¦ıà¦ķà¦¸à¦Ļ":962,"à§Łà¦¤":963,"Ġà¦²à¦ľ":964,"Ġà¦§à¦°à¦¨":965,"Ġà¦Ī":966,"à¦¨à¦Ń":967,"à¦¥à¦ķ":968,"à¦ľà¦ķ":969,"à¦¯à¦ª":970,"à¦Ĩà¦ķ":971,"à¦¸à¦Ł":972,"à¦¾âĢĻ":973,"Ġà¦§à¦°à¦²":974,"à¦Ĺà¦Ľ":975,"à¦ļà¦¡":976,"Ġà¦ķà¦ª":977,"Ġà¦®à¦ľ":978,"Ġà¦ħà¦ŀ":979,"Ġà¦¨à¦¨":980,"Ġà¦¨à¦®":981,"Ġà¦Ĩà¦ĵà¦¯":982,"à¦²à¦®à¦²":983,"--":984,"Ġà¦¯à¦ľ":985,"Ġà¦¬à¦¸à¦²":986,"Ġà¦ļà¦²à¦Ľ":987,"à¦°à¦°":988,"Ġà¦īà¦ªà¦¨":989,"Ġà¦ªà¦°à¦®":990,"à¤":991,"à¦ķà¦°à¦£":992,"Ġà¦ıà¦ķà¦®":993,"Ġà¦ħà¦¸à¦®":994,"Ġà¦¸à¦¬à¦ĩ":995,"à§«":996,"à¦Ńà¦¯":997,"à¦¿;":998,"Ġà¦ªà¦¦à¦ķ":999,"à¦¬à¦ļ":1000,"à¦¬à¦Ľ":1001,"à¦¾à¦ģ,":1002,"à¦ķà¦¸":1003,"à¦¶à¦²":1004,"à¦¯à¦Ĺ":1005,"à¦¬à¦ĩ":1006,"à¦¤à¦Ł":1007,"à§Ģ?":1008,"à¦ªà¦²":1009,"Ġà¦®à¦ŀ":1010,"Ġà¦¶à¦¹":1011,"à¦¬à¦¹":1012,"Ġà¦°à¦ĵà¦¶à¦¨":1013,"à¦¬à¦£":1014,"Ġà¦īà¦·":1015,"Ġà¦¥à¦®à¦ķ":1016,"à¦łà¦¸":1017,"Ġà¦®à¦£":1018,"à§ĩ?âĢĿ":1019,"Ġà¦ļà¦®à¦ķ":1020,"à¦łà¦ķ":1021,"à¦ľà¦®":1022,"à¦ķà¦¥":1023,"à¦¼;":1024,"à¦Ľà¦¬":1025,"Ġà¦¨à¦ľà¦°":1026,"Ġà¦Ĺà¦°à¦®":1027,"Ġà¦ľà¦¬":1028,"Ġà¦¸à¦®à¦¨":1029,"à¦¿âĢĵ":1030,"à¦īà¦ķ":1031,"Ġà¦®à¦²":1032,"Ġà¦ªà¦ŀ":1033,"à¦·à¦¦":1034,"à¦ªà¦ļ":1035,"Ġà¦ľà§Ł":1036,"Ġà¦ıà¦Ń":1037,"Ġà¦ĵà¦Ł":1038,"à¦¶à¦®":1039,"à¦ķà¦Ľ":1040,"à¦ķà¦ľà¦¨":1041,"à¦īà¦¯":1042,"Ġà¦Ĺà¦¬":1043,"Ġà¦Ĺà¦®":1044,"à¦Ŀà¦ĸ":1045,"à¦£à¦¨":1046,"à¦ķà¦Ń":1047,"à¦®à¦¶":1048,"Ġà¦īà¦°":1049,"à¦¤à¦ª":1050,"à¦ĩà¦Ń":1051,"Ġà¦ĺà¦£":1052,"à¦ıà¦¸à¦¬":1053,"à¦ĩà¦¡":1054,"à¦°à¦Ĺà¦¤":1055,"à¦ıà¦Ł":1056,"Ġà¦¦à¦®":1057,"à§ĩà¥¤âĢĻ":1058,"à¦®à¦¦":1059,"à¦¾à¥¤âĢĻ":1060,"à§ĩâĢ¦":1061,"à¦¤à¦¦":1062,"à¦¹à¦®":1063,"Ġà¦Ĺà¦¹":1064,"à¦¥à¦²":1065,"à¦°à¦¬à¦¨":1066,"à¦¼à¦Ĥ":1067,"Ġà¦īà¦łà¦¬":1068,"Ġà¦®à¦¸":1069,"Ġà¦Ŀà¦²à¦®à¦²":1070,"Ġà¦¯à¦¤à¦ĩ":1071,"Ġà¦ħà¦Ł":1072,"Ġà¦ļà¦¡":1073,"Ġà§§à§¯":1074,"Ġà¦¤à¦°à¦Ļ":1075,"Ġà¦¸à¦°à¦²":1076,"à§©":1077,"à¦¤à¦¨à¦¤":1078,"Ġà¦ªà§ľà¦²":1079,"Ġà¦Ĳà¦ķ":1080,"à§Ŀ":1081,"à¦°à¦ĸ":1082,"à¦ıà¦ĸà¦¨":1083,"à¦ļà¦¤":1084,"à¦ĵà¦°":1085,"Ġà¦ıà¦ķà¦¤":1086,"à¦¿à¥¤âĢĿ":1087,"à¦¬à¦Ń":1088,"Ġà¦ľà¦Ł":1089,"à¦¦à¦Ĺ":1090,"Ġt":1091,"à¦¨à¦¶":1092,"à¦®à¦ª":1093,"à¦ıà¦ĸ":1094,"à¦ĩà§Ł":1095,"à¦£à¦¬":1096,"à¦¿âĢĻ":1097,"à¦Ľà¦²":1098,"Ġà¦Ĩà¦°à¦®":1099,"à§Ń":1100,"Ġà¦Ńà¦Ļ":1101,"à¦ªà¦®":1102,"Ġà¦¸à¦ª":1103,"Ġà¦ļà¦¨":1104,"à¦ĺà¦¨":1105,"Ġà¦ªà¦°à¦¶":1106,"Ġà¦ļà¦²à¦¤":1107,"à¦²à¦Ń":1108,"à¦®à¦ľ":1109,"à¦¯à¦Ń":1110,"à¦ĩà¦¸":1111,"Ġà¦²à¦®":1112,"Ġà¦°à¦®à¦£":1113,"à¦¤à¦¹":1114,"à¦¸à¦¹":1115,"à§ĭ!":1116,"Ġà¦ħà¦°à¦£":1117,"Ġà¦ľà¦Ĺà¦¤":1118,"Ġà¦ĵà¦¯":1119,"à¦¸à¦Ľ":1120,"à¦¶à¦¯":1121,"Ġà¦ĵà¦ĸ":1122,"à¦ħà¦°":1123,"à¦¯à§İ":1124,"à¦¬à¦§":1125,"Ġà¦¨à¦ķ":1126,"à¦¼à¦¿à¥¤":1127,"Ġà¦®à¦¤à¦¨":1128,"à¦ĥà¥¤":1129,"Ġà¦ªà¦£":1130,"Ġà¦ªà¦Ľà¦¨":1131,"à§ª":1132,"à¦ķà¦Ĺ":1133,"à¦Łà¦Ľ":1134,"à¦ķà¦£":1135,"Ġà¦¸à¦¦":1136,"à¦°à¦¬à¦²":1137,"Ġà¦ħà¦¹":1138,"à¦·à¦Ł":1139,"à¦ľà¦¨à¦ķ":1140,"Ġà¦ļà¦²à¦²":1141,"Ġà¦¹à¦¸":1142,"à¦īà¦Ł":1143,"à¦ķà¦ĩ":1144,"à¦ľà¦Ł":1145,"à¦ļà¦Ł":1146,"Ġà¦¬à¦ľ":1147,"Ġà¦¸à¦ł":1148,"à¦°à¦«":1149,"Ġà¦Ĩà¦ĺ":1150,"à¦ĺà¦²":1151,"à¦Ĺà¦£":1152,"Ġà¦¹à¦ĩ":1153,"à¦ľà¦Ľ":1154,"he":1155,"Ġà¦ħà¦ľà¦¸":1156,"Ġà¦«à¦°":1157,"Ġà¦ħà¦¤à¦ıà¦¬":1158,"à¦ļà§Ł":1159,"Ġà¦¬à¦¸à¦¨":1160,"à¦·à§Ł":1161,"à¦¬à¦Ł":1162,",âĢĿ":1163,"âĢĿà¥¤":1164,"à¦¶à¦°":1165,"Ġà¦¸à¦¬à¦ķ":1166,"Ġà¦ıà¦®à¦¨à¦ķ":1167,"Ġà¦¨à¦¡":1168,"Ġà¦¨à¦·":1169,"à¦ªà¦Ľ":1170,"Ġà¦Ĩà¦ĩà¦¨":1171,"à¦¬à¦¡":1172,"in":1173,"à§ĩ:":1174,"à¦²à¦ļ":1175,"à¦¦à¦Ł":1176,"à¦īà¦°":1177,"à¦²à¦ª":1178,"à¦ķà¦®":1179,"Ġà¦®à¦®à¦¤":1180,"à¦Łà¦Ł":1181,"à¦¤à¦Ń":1182,"à¦¦à¦ķ":1183,"Ġà¦·":1184,"à¦®à¦¡":1185,"à¦Ĩà¦Ĺ":1186,"Ġà¦īà¦ªà¦²à¦¬":1187,"à¦¨à¦ª":1188,"Ġà¦Ŀà¦¡":1189,"Ġà¦ķà§Ł":1190,"Ġà¦Ĩà¦ķà¦°":1191,"à¦¥à¦®":1192,"Ġà¦īà§ľ":1193,"à§ĩ?âĢĻ":1194,"à¦°à¦¦à¦°":1195,"à¦ľà§Ł":1196,"à¦Ńà¦Ļ":1197,"Ġà¦ĩà¦¯":1198,"Ġà¦¨à¦Ĺà¦°":1199,"à¦¤à¦¸":1200,"Ġà¦Ĩà¦¨à¦¤":1201,"à¦¬à¦²à¦¤":1202,"Ġ-":1203,"à¦Łà¦®":1204,"à¦§à¦¹à¦¯":1205,"an":1206,"à¦¨à¦Ľ":1207,"à¦īà¦¦":1208,"à¦®à¦¨à¦ĩ":1209,"à¦°à¦¬à¦°":1210,"Ġà¦¸à¦ľ":1211,"à¦¼à¦¿,":1212,"à¦¨à¦ļ":1213,"..":1214,"à¦Ľà¦¤":1215,"Ġà¦ľà¦Ļ":1216,"à¦ľà¦Ĺ":1217,"à¦£à¦ķ":1218,"à¦ĩà¦®":1219,"Ġà¦²à¦¤":1220,"Ġà¦¬à¦ĩà¦¯":1221,"à§ĩà¦¾":1222,"à¦ĩà¦ľ":1223,"à¦Łà¦ª":1224,"Ġà¦¹à¦¨":1225,"Ġà¦Ńà¦ķ":1226,"Ġà¦ĩà¦²":1227,"à¦Ĺà¦¡":1228,"Ġà¦¸à§İ":1229,"Ġà¦ĵà¦ª":1230,"à¦¶à¦¤":1231,"Ġà¦Ĺà¦Ļ":1232,"à§ĩ!âĢĿ":1233,"à¦°à¦Ļ":1234,"à¦¤à¦ĸà¦¨":1235,"Ġà¦ħà¦¨à¦²":1236,"à¦ķà¦ļ":1237,"à¦¬à¦®":1238,"Ġà¦ªà¦²à¦ķ":1239,"Ġà¦ĭà¦·":1240,"à¦¶à¦Ĺ":1241,"à¦¶à¦Ł":1242,"on":1243,"Ġà¦ħà¦¤à¦²":1244,"à¦ĸà¦ķ":1245,"âĢ¦âĢĿ":1246,"à¦°à¦®à¦¶":1247,"à¦¬à¦ľ":1248,"à¦°à¦¸à¦Ļ":1249,"Ġà¦ªà¦¯":1250,"à¦¿à¥¤âĢĻ":1251,"à¦ķà§ľ":1252,"à¦¨à§Łà¦¨":1253,"Ġà¦īà§İà¦ª":1254,"Ġà¦§à¦°à¦¤":1255,"Ġà¦ħà¦®à¦°":1256,"à¦¼!":1257,"Ġà¦ĩà¦¸":1258,"à¦¦à¦¬":1259,"Ġà¦Ŀà¦¨":1260,"Ġà¦ļà¦²à¦¬":1261,"Ġà¦¶à¦ªà¦¥":1262,"Ġà¦¶à¦Ļ":1263,"à¦ħà¦¤":1264,"Ġà¦ħà¦¸à¦¹":1265,"à¦ħà¦¸":1266,"à¦¯à¦®à¦¯":1267,"Ġà¦ļà¦Ł":1268,"Ġà¦®à¦¦":1269,"Ġà¦°à§Ł":1270,"Ġà¦ķà¦¤à¦Ł":1271,"à¦®à¦ļ":1272,"à¦¤à¦¬à¦¤":1273,"à¦¥à¦¤":1274,"Ġà¦®à¦¯":1275,"à§Ģ!":1276,"à¦¤à¦ĩ":1277,"Ġà¦¬à¦¸à¦¤":1278,"à¦¸à¦¬à¦ķ":1279,"Ġà¦°à¦ļ":1280,"à¦¦à¦¶":1281,"Ġà¦¸à¦®à¦°":1282,"à¦¬à¦ľà¦¨":1283,"Ġà¦ķà¦ļ":1284,"à¦¬à¦²à¦Ľ":1285,"à¦¬à¦²à¦ľ":1286,"Ġà¦¹à§Łà¦¤":1287,"Ġà¦Ĭ":1288,"Ġà¦Ĩà¦¬à¦¦":1289,"Ġà¦ķà¦«":1290,"Ġà§¨":1291,"Ġà¦Īà¦¶":1292,"Ġà¦Ĩà¦ļà¦°à¦£":1293,"Ġà¦Ĩà§ľ":1294,"Ġà¦¤à¦ĸà¦¨à¦ĵ":1295,"re":1296,"Ġà¦®à¦¶":1297,"Ġà¦ıà¦ķà¦¸":1298,"à¦¯à¦Ł":1299,"Ġà¦ľà¦Ĺ":1300,"Ġà¦ıà¦°à¦ķà¦®":1301,"à¦Ĺà¦°à¦£":1302,"Ġà¦®à¦¨à¦¨":1303,"à¦¯à¦¤à¦®":1304,"Ġà¦ĸà¦°à¦ļ":1305,"Ġà¦¹à¦ĵà§Ł":1306,"à¦°à¦ķà¦²":1307,"à¦ªà§ľ":1308,"à¦¥à¦¬":1309,"à¦Ĩà¦¶":1310,"Ġà¦ªà¦Ł":1311,"à¦ħà¦ļ":1312,"à¦¤à¦Ĺ":1313,"Ġà¦ĸà¦¸":1314,"à¦²à¦ľ":1315,"Ġà¦¤à¦¨":1316,"à¦®à¦Ľ":1317,"Ġà¦ķà¦²à¦®":1318,"à¦¾à¦ĥ":1319,"à¦¨à¦®":1320,"Ġà¦ķà¦®à¦²":1321,"à¦ķà¦ª":1322,"à¦īà§Ł":1323,"à§ĭà¥¤âĢĿ":1324,"à§¬":1325,"Ġà¦ĩà¦Ļ":1326,"à¦¼à¦¾-":1327,"à¦ķà¦ĸà¦¨":1328,"à¦ħà¦¬":1329,"à¦®à¦®":1330,"Ġà¦¬à¦Ļ":1331,"à¦¸à¦¦":1332,"Ġà¦¸à¦¹à¦¯":1333,"at":1334,"à¦Łà¦«à¦°":1335,"à¦¾:":1336,"Ġà¦«à¦¸à¦²":1337,"à¦¼âĢĵ":1338,"à¦Ĩà¦¬":1339,"Ġà¦¸à¦®à¦Ĺ":1340,"à¦īà¦ľ":1341,"âĢĻà¥¤":1342,"Ġà¦ļà¦¤":1343,"al":1344,"à¦¯à¦ķà¦°":1345,"Ġà¦ķà¦¹":1346,"Ġà¦ªà¦°à¦¸":1347,"Ġà¦ħà¦¬à¦¨":1348,"à¦ĸà¦Ł":1349,"à¦Ńà¦ķ":1350,"à¦¿?âĢĿ":1351,"à¦īà¦¡":1352,"Ġ!":1353,"à¦¸à¦®à§Ł":1354,"à¦ıà¦ķà¦¦":1355,"à¦¨à¦¬à¦ľ":1356,"Ġà¦ıà¦¤à¦Ł":1357,"à¦¬à¦²à¦¨":1358,"à¦²à§Ł":1359,"ÂłÂłÂł":1360,"Ġà¦®à¦¨à¦¸":1361,"Ġà¦ıà¦¤à¦ķ":1362,"à¦¬à¦°à¦¤":1363,"à¦²à¦ĩ":1364,"à¦¯à¦ĸà¦¨":1365,"Ġà¦ªà¦¨":1366,"à¦¬à¦¨à¦¯":1367,"Ġà¦ħà¦¬à¦§":1368,"Ġà¦¸à¦¹à¦®à¦°":1369,"Ġà¦ķà¦Ł":1370,"à¦¯à¦ľ":1371,"Ġà¦¸à¦¤à¦°":1372,"à¦ļà¦¬":1373,"à¦Ĩà¦ľà¦ķ":1374,"Ġà¦«à¦Ł":1375,"Ġà¦Ĩà¦¸à¦¨":1376,"à¦«à¦Ł":1377,"à¦ľà¦¨à¦¶":1378,"Ġà¦¬à¦¹à¦¨":1379,"à¦ıà¦¸":1380,"à¦ĩà¦ª":1381,"Ġà¦ıà¦ĩà¦¸à¦¬":1382,"à¦Ĺà¦Ń":1383,"à§Łà¦®":1384,"Ġà¦ıà¦¤à¦¦":1385,"à¦®à¦ªà¦°":1386,"Ġà¦Ĩà§Ł":1387,"Ġ'":1388,"à¦Ńà¦¬à¦¤":1389,"à¦¬à¦°à¦£":1390,"Ġà¦ħà¦¬à¦²":1391,"à§¯":1392,"à¦¨à¦ľà¦¨":1393,"à¦ıà¦Ń":1394,"Ġà¦Ĩà¦¬à¦°":1395,"à¦¦à¦¤":1396,"à¦¯à¦¬à¦¤":1397,"à§®":1398,"Ġà¦ķà¦¡":1399,"à¦¤à¦ľ":1400,"Ġà¦¢à¦²":1401,"Ġà¦ļà¦°à¦®":1402,"Ġà¦°à¦«":1403,"Ġà¦ĺà¦¡":1404,"Ġà¦ļà¦®":1405,"à¦ļà§ľ":1406,"à¦ıà¦®à¦¨":1407,"à¦ĵà¦ĩ":1408,"Ġà¦¬à¦¸à¦¬":1409,"!âĢĻ":1410,"à¦¾âĢĿ":1411,"à§ĩâĢĶâĢľ":1412,"Ġà¦¨à¦¹":1413,"Ġà¦ľà¦¨à¦¨":1414,"à¦¸à¦ķà¦²":1415,"Ġà¦ıà¦¡":1416,"Ġà¦Łà¦°":1417,"Ġà¦¬à¦ĩà§Ł":1418,"Ġà¦Ŀà¦²à¦ķ":1419,"à¦ĸà¦£":1420,"à¦¡à¦¬":1421,"à¦¾à¦ģà¥¤":1422,"à¦°à¦¤à¦°":1423,"er":1424,"à¦²à¦¦":1425,"en":1426,"is":1427,"Ġà¦®à¦¨à¦Ł":1428,"à¦¾?âĢĻ":1429,"Ġà¦¨à¦ĩà¦²":1430,"à¦ħà¦¬à¦¶":1431,"à¦Ĩà¦¸":1432,"Ġà¦ķà¦ķ":1433,"Ġà¦ıà¦°à¦ªà¦°":1434,"Ġà¦°à¦¤":1435,"Ġà¦°à¦ŀ":1436,"Ġà¦Ĩà¦®à¦¨":1437,"à¦°à¦¥à¦®à¦¬":1438,"Ġà¦ĸà¦£":1439,"à¦ľà¦ª":1440,"à¦Ĳ":1441,"Ġà¦®à¦Ļ":1442,"Ġà¦Ĩà¦®à¦²":1443,"Ġà¦ļà¦°à¦£":1444,"à¦Ńà§Ł":1445,"Ġà¦Ĩà¦²à¦®":1446,"it":1447,"Ġà¦¬à¦ŀ":1448,"à¦¶à¦¹à¦°":1449,"Ġthe":1450,"à¦Ľà¦Ł":1451,"à¦¾âĢ¦":1452,"à¦¾!âĢĿ":1453,"à¦²à¦«":1454,"Ġà¦¸à¦ĸ":1455,"Ġà¦ĵà¦·":1456,"à¦¸à¦¸":1457,"à¦Ĺà¦łà¦¨":1458,"Ġà¦°à¦ľà¦¤":1459,"Ġà¦°à¦¹":1460,"à¦īà¦¸":1461,"à¦£à¦¦":1462,"Ġà¦ľà§ľ":1463,"Ġà¦Ńà¦°à¦¸":1464,"à¦¶à¦¦":1465,"Ġà¦ħà¦®à¦¨":1466,"Ġà¦Ńà¦Ĺà¦¬":1467,"Ġà¦²à§ľ":1468,"Ġà¦Ĩà¦ĵà§Ł":1469,"à¦Ŀà¦¬":1470,"à¦ªà¦Ĺ":1471,"à¦Ļà¦²":1472,"Ġà¦ħà¦¬à¦¹":1473,"Ġ?":1474,"Ġà¦Ĺà¦łà¦¨":1475,"à¦¨à¦¹":1476,"à¦¬à§Ł":1477,"Ġà¦Ĩà¦ªà¦¤":1478,"Ġà¦ıà¦ķà¦¥":1479,"à¦¸à¦¤à¦¤":1480,"à¦¬à¦¨à¦ķ":1481,"Ġ:":1482,"Ġà¦ľà¦¨à¦¸":1483,"Ġo":1484,"Ġà¦®à¦¨à¦ķ":1485,"à¦«à¦°":1486,"à¦Ńà¦¨":1487,"Ġà¦Ĩà¦Ł":1488,"à¦ļà¦°à¦£":1489,"Ġà¦ļà¦ŀ":1490,"Ġà¦ļà¦¶à¦®":1491,"à§ĩâĢĻ":1492,"à¦¤à¦°à¦Ļ":1493,"à¦¹à¦ķ":1494,"Ġà¦¸à¦¹à¦¸":1495,"à§Łà¦Ĺ":1496,"Ġà¦°à¦¤à¦¨":1497,"Ġà¦Ķ":1498,"à§ĭ?âĢĿ":1499,"Ġà¦ĩà¦¶":1500,"à¦¯à¦¹":1501,"à¦¯à§Ł":1502,"Ġà¦ªà¦¦à¦ļ":1503,"Ġà¦¨à¦ķà¦¶":1504,"à¦Łà¦¸":1505,"Ġà¦ĩà¦īà¦¨":1506,"Ġà¦ħà¦¬à¦¦":1507,"à¦ħà¦®":1508,"Ġs":1509,"à¦ħà¦¶":1510,"Ġà¦Ĩà¦¨à¦²":1511,"Ġà¦ıà¦ķà¦¦à¦®":1512,"à¦¦à¦¦":1513,"à¦°à¦¸à¦°":1514,"Ġà¦Ĩà¦ĩ":1515,"Ġà¦Ŀà¦°à¦¨":1516,"à¦¯à¦ĵ":1517,"à¦ªà¦¶":1518,"Ġà¦¤à¦ªà¦¨":1519,"à¦ıà¦¤":1520,"à§ĭ;":1521,"Ġà¦ªà¦¬":1522,"Ġà¦Ĩà¦°à¦ľ":1523,"Ġà¦ªà¦¥à¦ļà¦²":1524,"à¥¥":1525,"Ġà¦¦à¦ĸà¦²":1526,"Ġà¦ĩà¦ŀ":1527,"à¦ªà¦¯":1528,"Ġà¦Ĩà¦¤à¦Ļ":1529,"Ġà¦¬à¦Łà¦Ĺ":1530,"Ġà¦¯à¦®":1531,"Ġà¦ĩà¦Ł":1532,"à¦¤à¦°à¦£":1533,"à¦¸à¦²à¦®":1534,"à¦¦à¦¹":1535,"à¦ªà¦¬":1536,"âĢį":1537,"à¦°à¦·":1538,"à¦¸à¦Ń":1539,"Ġà¦¤à¦ªà¦¸":1540,"Ġà¦ħà¦ªà¦®":1541,"à¦·à¦¬":1542,"Ġà¦¶à¦¸":1543,"à¦ĺà¦¶":1544,"Ġà¦¨à¦ĩ":1545,"Ġà¦Ĺà¦ľ":1546,"Ġà¦Ĩà¦ĸ":1547,"à¦¦à¦ª":1548,"à¦Łà¦Ĺ":1549,"à¦ıà¦¸à¦¬à¦ĩ":1550,"Ġà¦ıà¦®à¦¨à¦ĩ":1551,"Ġà¦ıà¦ķà¦²":1552,"Ġà¦¬à¦¦":1553,"Ġà¦®à¦¡":1554,"à¦ľà¦¦":1555,"Ġà¦īà¦ªà¦¯":1556,"Ġ;":1557,"à¦īà¦ĩ":1558,"Ġà¦¯à¦¤à¦Ł":1559,"à¦¤à¦Ľ":1560,"à¦²à¦¬à¦¨":1561,"Ġà¦Ĭà¦°":1562,"à¦ĺà¦®":1563,"à¦¿?âĢĻ":1564,"Ġà¦ľà¦Ĺà§İ":1565,"à¦¸à¦°à¦£":1566,"à¦§à¦®":1567,"Ġà¦īà¦¦à¦¯":1568,"à¦ķà¦ł":1569,"à¦®à¦ŀ":1570,"à¦¡à¦¨":1571,"à¦°à¦ļà¦£":1572,"à§ĢâĢĶ":1573,"à¦¼à¥¤âĢĿ":1574,"Ġà¦Ĩà¦¨à¦¬":1575,"à¦¿âĢ¦":1576,"à¦ĩà¦¦":1577,"à¦Ĺà¦¦":1578,"à§İà¦ª":1579,"à¦ĩà¦«":1580,"Ġà¦¦à¦¯":1581,"Ġà¦°à¦ľ":1582,"Ġà¦Ńà¦Ĺ":1583,"Ġà¦°à¦¥":1584,"Ġà¦ıà¦ķà¦ķ":1585,"à¦Ľà¦ª":1586,"Ġà¦ıà¦ĩà¦Ń":1587,"Ġà¦¬à¦ªà¦¨":1588,"à¦®à¦ĩ":1589,"Ġà¦ıà¦ķà¦¶":1590,"à¦°à¦¥à¦®à¦¤":1591,"Ġà¦ıà¦ķà¦ª":1592,"à¦ħà¦¦":1593,"Ġà¦¶à¦¤à¦ķ":1594,"Ġà¦īà¦ªà¦¹":1595,"Ġà¦īà¦Ńà¦¯":1596,"Ġà¦Ĩà¦«":1597,"à¦ªà¦ķà¦¥":1598,"Ġa":1599,"Ġà¦īà¦ªà¦ķ":1600,"à¦¯à¦¶":1601,"Ġà¦ľà¦¨à¦®":1602,"Ġà¦ħà¦ļà¦²":1603,"à§ĩ,âĢĿ":1604,"Ġc":1605,"à¦¡à¦°":1606,"à§İà¦ĩ":1607,"Ġà¦ľà¦²à¦°":1608,"Ġà¦ĭà¦¤":1609,"Ġà¦¸à¦°à¦¸":1610,"à¦ĸà¦¸":1611,"Ġà¦ľà¦²à¦¬":1612,"Ġà¦ļà¦®à§İà¦ķ":1613,"ÂłÂłÂłÂłÂłÂłÂłÂłÂłÂłÂłÂł":1614,"à¦ķà¦¶à¦¨":1615,"Ġà¦®à¦°à¦£":1616,"Ġà¦Ńà¦°à¦¤":1617,"Ġà¦ıà¦ĩà¦°à¦ķà¦®":1618,"Ġà¦ĭà¦£":1619,"à¦¬à¦¤à¦¨":1620,"Ġà¦°à¦¶":1621,"à¦Ŀà¦ķ":1622,"âĢĻ,":1623,"Ġà¦Ŀà¦ķ":1624,"à§įà¥¤":1625,"Ġà¦ıà¦ķà¦¸à¦®à¦¯":1626,"à§İà¦ªà¦°":1627,"Ġà¦ħà¦¯":1628,"Ġà¦Ĩà¦¬à¦¹":1629,"Ġà¦ĩà¦®":1630,"à§ģ!":1631,"Ġà¦°à¦¹à¦®":1632,"Ġà¦¸à¦®à¦¤":1633,"Ġà¦¦à¦¤":1634,"à¦°à¦¤à¦¬à¦°":1635,"Ġà¦ıà¦ĩà¦Ł":1636,"à¦Ľà¦Ĺ":1637,"Ġà¦ħà¦¬à¦ķ":1638,"Ġà¦¬à§Łà¦¸":1639,"Ġà¦¸à¦«à¦²":1640,"Ġà¦Ĩà¦¬à¦Ľ":1641,"Ġà¦ķà¦²à¦°à¦¬":1642,"à¦Ĺà¦¸":1643,"Ġà¦°à¦®":1644,"à¦¯à¦°à¦ķà¦®":1645,"Ġà¦¨à¦°":1646,"Ġà¦Ĳà¦¶":1647,"Ġà¦¨à¦¬à¦ľ":1648,"ar":1649,"Ġà¦Ĩà¦ľà¦ĩ":1650,"à¦¾?âĢĿ":1651,"à¦ħà¦Ń":1652,"à¦¬à¦Ĺ":1653,"Ġà¦°à¦£":1654,"à¦īà¦¤":1655,"Ġà¦ķà¦¦":1656,"Ġà¦ĺà¦°à¦Ł":1657,"es":1658,"à¦¸à¦°à¦ķ":1659,"à¦Łà¦ĸ":1660,"à¦·à¦¸":1661,"Ġà¦²à¦¯":1662,"or":1663,"à§ģâĢĶ":1664,"à¦Ĩà¦¨":1665,"Ġw":1666,"Ġà¦ıà¦®":1667,"Ġà¦ıà¦ĸà¦¨à¦ĩ":1668,"à¦®à¦Ń":1669,"à¦Ĺà¦Ł":1670,"Ġà¦Ĩà¦°à¦£":1671,"à¦ĩà¦ľà¦¨":1672,"à¦¿:":1673,"à¦Ĩà¦¤":1674,"Ġà¦Ĺà¦¦":1675,"Ġà¦īà¦²à¦Ł":1676,"Ġà¦ķà¦ĩ":1677,"à¦¿!âĢĿ":1678,"à¦¶à¦ĩ":1679,"à¦°à¦£à¦¯":1680,"Ġà¦¤à¦¤à¦ķ":1681,"à¦ĵà¦¡":1682,"à¦ľà¦Ĺà¦¤":1683,"à¦ļà¦®":1684,"Ġà¦¶à¦¯":1685,"Ġà¦¸à¦®à¦¬":1686,"à¦ĩà¦ļ":1687,"Ġà¦Ĩà¦°à¦¬":1688,"à§İà¦¸à¦¬":1689,"à¦¬à¦ªà¦¨":1690,"Ġof":1691,"à¦ĩà¦¶":1692,"à¦«à¦²à¦¨":1693,"Ġà¦Ĩà¦²à¦¤":1694,"Ġm":1695,"Ġà¦Ŀà§ľ":1696,"Ġà¦¦à¦¡":1697,"à¦Ĩà¦¨à¦¨":1698,"à¦ĭ":1699,"Ġà¦ĵà¦¡":1700,"à¦¶à¦¸":1701,"à¦ıà¦Ĺ":1702,"Ġà¦Ľà¦²":1703,"Ġà¦¬à¦¶":1704,"Ġà¦¯à¦¯":1705,"Ġà¦ļà¦ķà¦ļà¦ķ":1706,"à¦·à¦ª":1707,"à¦¿âĢĿ":1708,"à¦Łà¦¦":1709,"Ġà¦¤à¦ķ":1710,"Ġà¦²à¦²":1711,"à¦Ĺà¦Ĺ":1712,"Ġà¦ĩà¦¹":1713,"Ġà¦Ĩà¦¶à¦Ļ":1714,"Ġà¦¦à¦¶à¦Ł":1715,"à¦¹à§İ":1716,"Ġà¦ªà¦°à¦¦":1717,"à¦ħà¦²":1718,"à¦°à¦ļà¦²":1719,"Ġà¦ĵà¦Ĺ":1720,"à¦ħà¦ª":1721,"Ġà¦¬à¦īà¦¦":1722,"à§ģ?":1723,"à§İà¦¸à¦°":1724,"Ġà¦¬à¦°à¦«":1725,"Ġb":1726,"Ġp":1727,"Ġà¦Ľà¦¯":1728,"Ġà¦¤à§İà¦ķ":1729,"Ġà¦Ĺà¦Ĺà¦¨":1730,"à¦¤à¦¶":1731,"Ġà¦®à¦Ĺ":1732,"à¦Ĩà¦§":1733,"Ġà¦Ĩà¦Ĺà¦®à¦¨":1734,"Ġà¦īà¦ªà¦Ń":1735,"à¦¯à¦®à§Ł":1736,"à§ģà¦Ĥ":1737,"à¦ħà¦Ĺ":1738,"à¦¼à§ĩ-":1739,"Ġà¦§à¦°à¦£":1740,"à¦Ĩà¦ļ":1741,"Ġà¦ĩà¦¸à¦²":1742,"à¦ĵà¦²":1743,"à¦Ļà¦¤":1744,"âĢĶâĢĺ":1745,"à¦ħà¦ľ":1746,"à¦ķà¦¹":1747,"Ġà¦¹à¦ĵ":1748,"à¦·à¦ĩ":1749,"à¦¹à¦¬":1750,"Ġà¦¹à§Łà¦¨":1751,"à¦ªà¦ĩ":1752,"à¦¿.":1753,"Ġà¦ªà¦°à¦¨":1754,"à¦ľà¦¨à¦¤":1755,"à¦ķà¦¸à¦ĩ":1756,"à¦®à¦²à¦¤":1757,"Ġà¦ıà¦ķà¦ĸ":1758,"à¦īà¦ł":1759,"and":1760,"à¦°à¦¸à¦¨":1761,"Ġà¦ħà¦¬à¦°":1762,"Ġà¦Ńà¦¬à¦¨":1763,"à¦ĺà¦Łà¦¨":1764,"Ġà¦ªà§ľà¦Ľ":1765,"à¦Ĺà¦ķ":1766,"à¦£à¦Ĺ":1767,"Ġà¦¹à¦ķ":1768,"Ġà¦ıà¦ķà¦°":1769,"Ġà¦¸à¦¬à¦¸à¦®à¦¯":1770,"à¦ªà¦ķà¦¥à¦¨":1771,"...":1772,"Ġà¦ħà¦¬à¦¤":1773,"Ġà¦Ŀà¦ķà¦Ŀà¦ķ":1774,"Ġà¦Ĩà§Łà¦¨":1775,"Ġà¦ıà¦°à¦ĩ":1776,"à¦ĵà¦¨":1777,"à¦ıà¦ķà¦ľà¦¨":1778,"à¦ĩà¦ĸ":1779,"Ġà¦ħà¦·":1780,"à¦¾,âĢĿ":1781,"à¦®à¦¨à¦¸":1782,"Ġà¦ľà¦¨à¦¤":1783,"Ġà¦īà¦ªà¦¦":1784,"à¦®à¦ĵ":1785,"à¦ķà¦«":1786,"à¦¬à¦Ľà¦°":1787,"à¦¼à§į":1788,"à¦ħà¦ķ":1789,"Ġà¦Ĺà¦£à¦¤à¦¨":1790,"Ġà¦¬à¦§":1791,"à¦ľà¦ĩ":1792,"à§Łà¦ķ":1793,"à¦°à¦¤à¦®":1794,"à¦ķà¦ĵ":1795,"à¦¯à¦¬à¦¦":1796,"ic":1797,"Ġà¦Ĩà¦ļà¦®à¦ķ":1798,"ing":1799,"à¦¨à¦Ĺà¦°":1800,"à¦¦à¦Ľ":1801,"Ġà¦¤à¦ª":1802,"Ġà¦ħà¦²à¦ķ":1803,"Ġà¦Ŀà¦²à¦¸":1804,"Ġà¦¥à¦®":1805,"à§Īà¦ĥ":1806,"ion":1807,"Ġà§©":1808,"le":1809,"Ġà¦¹à¦ĩà¦²":1810,"à¦¡à¦¬à¦¦":1811,"Ġ\"":1812,"à¦ªà¦ľ":1813,"à¦ļà¦Ľ":1814,"Ġà¦²à§Ł":1815,"Ġà¦¹à¦¤à¦Ń":1816,"ou":1817,"Ġà¦¬à¦°à¦£":1818,"Ġà¦¸à¦¸":1819,"à¦¶à¦¹":1820,"à§Łà¦¬":1821,"Ġà¦°à¦ĵà¦¨":1822,"à¦¸à¦ĩ":1823,"à¦ĸà¦ĸ":1824,"âĢįà§į":1825,"Ġà¦ªà¦°à¦¤":1826,"à¦·à¦¨":1827,"Ġà¦°à¦¨":1828,"à¦¿à¦Ĥ,":1829,"Ġà¦§à¦°à¦¬":1830,"à¦¼à¦¿à¦Ĥ":1831,"Ġà¦ĺà¦Łà¦²":1832,"),":1833,"à¦ķà¦·":1834,"à¦Ńà¦°à¦¤":1835,"Ġà¦§à¦®à¦ķ":1836,"à¦Łà¦«à¦Ł":1837,"à¦®à¦Ŀ":1838,"Ġà¦¯à¦¬":1839,"à¦ĵà¦Ĺ":1840,"à¦°à¦¬à¦£à¦¤":1841,"ÂłÂłÂłÂłÂłÂłÂłÂłÂłÂłÂłÂłÂłÂłÂłÂł":1842,"à¦¤à¦ļ":1843,"à¦²à¦°":1844,"Ġà¦ķà¦Ń":1845,"à¦Ĩà¦ª":1846,"à§·":1847,"Ġà¦¤à¦¦":1848,"Ġà¦ªà§ľà¦¤":1849,"Ġà¦¤à¦¤à¦ĩ":1850,"as":1851,"à§ĭâĢĵ":1852,"Ġà¦²à¦¹à¦°":1853,"Ġf":1854,"Ġà¦ħà¦¨à¦¬à¦¦":1855,"Ġà¦ıà¦ĩà¦ĸ":1856,"à¦ĺà¦¦":1857,"Ġà¦Ŀà¦Ĺà¦¡":1858,"à¦¸à¦ĵ":1859,"Ġà¦®à¦®":1860,"à¦īà¦®":1861,"à¦¿à¦Ĥ-":1862,"Ġà¦Ĩà¦ł":1863,"Ġà¦¨à¦Ł":1864,"Ġà¦¯à¦¤à¦¦":1865,")à¥¤":1866,"Ġà¦ķà¦¬à¦°":1867,"à¦¡à¦ķ":1868,"Ġà¦¶à¦¨":1869,"à¦Ńà¦¸":1870,"Ġà¦Ľà¦Ł":1871,"Ġà¦ĵà¦¸à¦¬":1872,"Ġà¦ħà¦Ĺà¦£":1873,"Ġà¦ĭà¦Ĺ":1874,"ed":1875,"à¦¨à¦ľ":1876,"à¦¬à§ľ":1877,"Ġà¦¸à¦«":1878,"à¦ľà¦Ļ":1879,"à¦ļà¦¶":1880,"à¦¼à¦¾âĢĶ":1881,"à¦īà¦ļ":1882,"à¦ħà¦¨à¦¨":1883,"Ġà¦Ĩà¦¬à¦¶":1884,"Ġà¦ķà¦¤à¦¦":1885,"Ġà¦¨à§ľ":1886,"Ġà¦ªà¦°à¦ĩ":1887,"Ġà¦Ĩà¦ķà¦¸":1888,"Ġd":1889,"Ġà¦¦à¦Ĺ":1890,"Ġà¦¦à¦¶à¦ķ":1891,"Ġà¦īà¦ķ":1892,"à¦ħà¦ªà¦°":1893,"Ġà¦¸à¦¦à¦¸":1894,"à¥¤à¥¤":1895,"Ġà¦Ľà¦Łà¦«à¦Ł":1896,"Ġà¦ħà¦¨à¦¬à¦°à¦¤":1897,"à¦ıà¦²":1898,"à¦²à¦ĸ":1899,"Ġà¦®à§İà¦¸":1900,"Ġà¦ıà¦¯":1901,"à¦Ĩà¦¯":1902,"Ġà¦ĩà¦ī":1903,"à¦¦à¦£":1904,"Ġà¦¶à¦¶":1905,"Ġà¦¶à¦«":1906,"Ġà¦ĸà¦¡":1907,"Ġà¦ħà¦¬à¦²à¦®":1908,"à¦Ĺà¦ĩ":1909,"Ġà§§à§¯à§Ń":1910,"Ġà¦ķà¦¦à¦®":1911,"à¦¤à¦ĵ":1912,"Ġà¦Ĩà¦¬à¦°à¦£":1913,"à¦¸à¦®à¦¸":1914,"Ġà¦¹à¦Ł":1915,"à¦¬à¦¨à¦Ł":1916,"à¦¦à¦ĩ":1917,"Ġà¦¬à¦ĩà¦Ł":1918,"ĠÂł":1919,"à¦·à¦Ń":1920,"à¦£à¦®":1921,"Ġà¦ĸà¦°":1922,"Ġà¦®à¦¦à¦¨":1923,"à¦ļà¦¸":1924,"Ġà¦Ĺà¦¤à¦ķ":1925,"Ġà¦ļà§ľ":1926,"à¦ĵà¦¦":1927,"à¦¬à¦¸à¦¨":1928,"à¦£à¦¬à¦¨":1929,"Ġà¦²à¦¨":1930,"Ġà¦ªà¦°à¦ķ":1931,"Ġh":1932,"à¦®à¦¸à¦®":1933,"Ġà¦¬à¦£":1934,"Ġà¦ħà¦§à¦°":1935,"à¦²à¦ĵ":1936,"à¦ľà¦§":1937,"Ġà¦¯à¦¤à¦ķ":1938,"à¦¬à¦ĵ":1939,"à¦·à¦Ĺ":1940,"à¦īà¦¬":1941,"Ġà¦¥à¦®à¦¥à¦®":1942,"à§ĩâĢĿ":1943,"Ġà¦¹à¦ĩà¦¤":1944,"à¦Ĩà¦¹":1945,"à¦¯à¦Ļ":1946,"Ġà¦ıà¦¤à¦ĩ":1947,"Ġà¦¨à¦²":1948,"Ġà¦¹à¦ĩà¦¯":1949,"à¦łà¦¤":1950,"Ġà¦«à¦ķ":1951,"Ġà¦Ĩà¦Ľà¦¡":1952,"Ġà¦ĩà¦ľ":1953,"Ġà§¨à§¦":1954,"Ġà¦ıà¦ķà¦Ĺ":1955,"à¦ķà¦²à¦®":1956,"à§ĢâĢĻ":1957,"à¦ĸà¦¯":1958,"à¦ĸà¦Ĺ":1959,"à¦Ļà¦¨":1960,"Ġà¦ĵà§Ł":1961,"Ġà¦ıà¦Ľ":1962,"à§ľà¦¤":1963,"à¦Ŀà¦¡":1964,"Ġà¤":1965,"à¦¸à¦¡":1966,"à¦ĸà¦¬à¦°":1967,"à¦·à¦ªà¦°":1968,"Ġà¦Ĩà¦°à¦¤":1969,"à¦°à¦¥à¦°":1970,"Ġà¦ķà¦¤à¦ķ":1971,"à¦¾à¦ĥà¥¤":1972,"à§ĢâĢĵ":1973,"à¦ĺà¦£":1974,"à¦Ĺà¦ł":1975,"Ġà¦ķà¦²à¦Ļ":1976,"Ġà¦ªà¦Łà¦Ń":1977,"à¦¨à¦®à¦¯":1978,"Ġà¦ķà¦Ļ":1979,"Ġà¦ıà¦ķà¦¦à¦²":1980,"à¦¿,âĢĿ":1981,"à¦¹à¦¦":1982,"Ġà¦īà¦Ĺ":1983,"Ġà¦²à¦Ļ":1984,"Ġà¦Ĩà¦Łà¦Ł":1985,"à¦¤à¦°à¦Ł":1986,"Ġà¦®à¦¸à¦ľ":1987,"à¦Łà¦ĵà¦¯":1988,"à¦£à¦°":1989,"à¦£à¦Ń":1990,"à¦Ĩà¦ĩ":1991,"à¦¹à¦°à¦£à¦¸":1992,"à¦ķà¦¬à¦°":1993,"à§ĩ--":1994,"Ġà¦ħà¦£":1995,"Ġà¦ħà¦¥à¦°":1996,"Ġà¦Ĩà¦¹à¦¤":1997,"à¦ķà¦ľ":1998,"Ġà¦ªà¦Ļ":1999,"Ġà¦¦à¦®à¦¨":2000,"Ġà¦¤à¦°à¦²":2001,"à¦¶à¦Ŀ":2002,"Ġà¦¥à¦°à¦¥à¦°":2003,"à¦²à¦Ľà¦²":2004,"om":2005,"à¦ľà¦ĵ":2006,"Ġà¦ıà¦ª":2007,"Ġà¦¸à¦²":2008,"à§Ģà¦Ĥ":2009,"à¦¼à¦¿-":2010,"à¦ıà¦¦":2011,"Ġà¦ħà¦¬à¦¸à¦°":2012,"Ġà¦ªà¦¥à¦ļ":2013,"Ġà¦¤à¦°à¦«":2014,"ct":2015,"à¦§à¦Ł":2016,"à§ľà¦ķ":2017,"à¦°à¦£à¦¤":2018,"Ġà¦łà¦ķ":2019,"à¦ħà¦§":2020,"à§ĭâĢ¦":2021,"à§ĭ!âĢĿ":2022,"Ġà¦¦à¦«":2023,"ĠĠĊĠĠ":2024,"Ġà¦ķà¦²à¦¤":2025,"à¦łà¦¶":2026,"âĢĻ-":2027,"à¦·à¦°à¦Ĺ":2028,"à§ĭà¦Ĥ":2029,"à¦¦à¦ĵ":2030,"à¦ªà¦ķà¦²":2031,"à§Ģ;":2032,"à¦ıà¦ķà¦¬":2033,"Ġà¦ıà¦®à¦¨à¦Ń":2034,"Ġà¦ħà¦²à¦¸":2035,"Ġà¦Ŀà¦°à¦Ŀà¦°":2036,"à¦·à¦ķà¦¦":2037,"ve":2038,"à§Łà¦²":2039,"à¦°à¦ķà¦Ł":2040,"Ġà¦¶à¦°à§İ":2041,"à¦ķà¦ĸ":2042,"Ġà¦¦à¦ĩ":2043,"à¦ĵà¦¤":2044,"à§ľà¦¨":2045,"Ġà¦§à¦°à¦Ľ":2046,"---":2047,"à¦¼à§ĩâĢĶ":2048,"à¦°à¦¬à¦£":2049,"à¦ħà¦¤à¦ıà¦¬":2050,"à¦¤à¦°à¦ķ":2051,"Ġà¦¸à¦¹à¦ķà¦°":2052,"à¦¯à¦°à¦¸":2053,"à¦£à¦ª":2054,"Ġà¦¶à¦®":2055,"Ġà¦ķà§ľ":2056,"Ġà¦ªà¦¹":2057,"Ġà¦§à¦¡":2058,"Ġà¦Ĩà¦¨à¦Ľ":2059,"Ġà¦ľà¦²à¦§":2060,"Ġà¦¬à¦ĩà¦Ľ":2061,"Ġin":2062,"Ġà¦Ĺà¦¹à¦¨":2063,"à¦¬à¦°à¦²":2064,"Ġà¦ľà¦¨à¦Ĺà¦£":2065,"à¦¤à¦ĸà¦¨à¦ĩ":2066,"Ġand":2067,"à¦¯à¦ŀ":2068,"Ġà¦¨à¦®à¦¸":2069,"Ġà¦®à¦ľà¦¬":2070,"à¦Ĺà¦®à¦¨":2071,"à¦¼:":2072,"Ġà¦ļà¦²à¦®":2073,"Ġà¦ĺà¦Łà¦¬":2074,"Ġn":2075,"Ġà¦¦à¦£":2076,"à¦«à¦¸":2077,"à¦Ĩà¦¦":2078,"Ġà¦ħà¦¬à¦ļ":2079,"à¦ķà¦®à¦¤":2080,"à¦¶à¦Ĺà¦¤":2081,"Ġà¦°à¦ľà¦¨":2082,"Ġà¦Ľà¦¦":2083,"à¦īà¦ªà¦¸":2084,"à¦¨à¦¤à¦®":2085,"à¦°à¦¶à¦¸":2086,"**":2087,"à¦¤à¦²à¦¤":2088,"Ġà¦®à¦¥":2089,"Ġà¦ĸà¦¨":2090,"à¦Ī":2091,"à¦¬à§İ":2092,"à¦®à¦ļà¦¨":2093,"Ġà¦¦à¦¸":2094,"à¦ĸà¦ļ":2095,"à§Łà¦¸":2096,"Ġà¦ĵà¦¸":2097,"Ġà¦Īà¦¦":2098,"à¦¡à¦Ĺ":2099,"à§Łà¦°":2100,"à§Łà¦¦":2101,"Ġà¦Ĩà¦¸à¦°":2102,"à¦¬à¦²à¦®":2103,"Ġà¦ªà¦¥à¦ª":2104,"à¦¦à¦°à¦ľ":2105,"Ġà¦ªà§ľà¦¬":2106,"Ġà¦¹à¦¤à¦Ńà¦®":2107,"à¦°à¦¸à¦¬":2108,"Ġà¦¸à¦¡":2109,"Ġà¦Ľà¦²à¦Ľà¦²":2110,"Ġl":2111,"à§Łà¦¬à¦¦":2112,"à¦Ŀà¦¨":2113,"Ġà§§":2114,"à¦ķà¦¯":2115,"à¦Ĺà¦ª":2116,"Ġà¦ĩà¦¨à¦¸":2117,"à¦§à¦²":2118,"Ġà¦Ľà¦¤":2119,"Ġà¦īà¦§":2120,"à§ľà¦Ľ":2121,"à¦°à¦®à¦¹":2122,"Ġà¦¸à¦¦à¦°":2123,"à¦ªà¦Łà¦ª":2124,"à¦°à¦ŀ":2125,"Ġà¦¨à¦Ĺ":2126,"à¦Ľà¦¡":2127,"Ġà¦ĵà¦ľà¦¨":2128,"à¦°à¦£à¦¨":2129,"Ġà¦Łà¦²à¦®à¦²":2130,"à¦¨à¦ĵà¦¦":2131,"ĠI":2132,"Ġà¦¬à§İà¦¸à¦°":2133,"à¦ªà¦ª":2134,"à¦ĺà¦ķ":2135,"à§ĭà¥¤âĢĻ":2136,"ÂŃ":2137,"Ġà¦¬à¦Łà¦¬":2138,"Ġà¦ıà¦ķà¦ľ":2139,"à¦°à¦¤à¦²":2140,"Ġà¦ªà¦°à¦ĵ":2141,"âĢĻâĢĶ":2142,"Ġà¦¬à¦ĩà¦¤":2143,"Ġà§§à§¯à§«":2144,"à§ĭ:":2145,"Ġà¦¨à¦ĸ":2146,"à¦Ĺà¦ŀ":2147,"à¦¥à¦ª":2148,"à¦Ĩà¦Ļ":2149,"à¦¼à¥¤âĢĻ":2150,"à¦¨à¦ĸ":2151,"à¦¡à¦ª":2152,"Ġà¦¸à¦°à¦²à¦¤":2153,"Ġà¦ĭà¦¦":2154,"Ġà¦¤à¦¤à¦Ł":2155,"à§Ĥà¦ģ":2156,"à¦īà§İà¦¸à¦¬":2157,"Ġà¦Ĩà¦¶à¦ª":2158,"à¦¾âĢĶâĢľ":2159,"Ġà§§à§¯à§Ńà§§":2160,"à¦¬à¦ļà¦¨":2161,"à¦¸à¦¹à¦¸":2162,"Ġà¦ľà¦¨à¦Ĺ":2163,"Ġà¦īà§İà¦¸à¦°":2164,"Ġà¦Īà¦°":2165,"ot":2166,"à¦¸à¦¯":2167,"à¦Łà¦Ń":2168,"Ġà¦Ľà¦²à¦¨":2169,"Ġà¦¨à¦¥":2170,"à¦ĩà¦¸à¦¬":2171,"à¦Ĺà¦¯":2172,"à¦¹à§Ł":2173,"Ġà¦ıà¦ķà¦°à¦ķà¦®":2174,"Ġà¦ľà¦²à¦ª":2175,"Ġà¦ĺà¦Łà¦¤":2176,"Ġà§«":2177,"à§ĭ?âĢĻ":2178,"à¦Ľà¦ķ":2179,"Ġà¦¦à¦¹à¦¨":2180,"à¦Ĥ,":2181,"Ġà¦ªà¦°à¦ªà¦°":2182,"Ġà¦ľà¦¨à¦ª":2183,"Ġà¦®à¦¹à¦°":2184,"à¦§à¦¨à¦ķ":2185,"Ġà¦ķà¦²à¦ķà¦²":2186,",âĢĻ":2187,"à¦¨à¦¸à¦®":2188,"Ġà¦¶à¦ĸ":2189,"à§§à§¯":2190,"Ġth":2191,"à¦¯à¦²":2192,"à¦¸à¦ĸ":2193,"à¦¸à¦Ĺ":2194,"ra":2195,"à¦Łà¦ĩ":2196,"à¦¡à¦Ł":2197,"Ġà¦¯à¦¶":2198,"Ġà¦ķà¦¤à¦Ĺ":2199,"Ġà¦¸à¦«à¦²à¦¤":2200,"à¦²à¦®à¦¨":2201,"à¦¬à¦Ļ":2202,"à¦·à¦ķà¦°":2203,"Ġà¦Ĺà¦¯":2204,"âĢĿâĢĶ":2205,"à¦ķà¦Łà¦ķ":2206,"Ġà¦ľà¦²à¦ľ":2207,"à¦¿à¦Ĥà¥¤":2208,"à¦ıà¦ķà¦ĩ":2209,"à¦ľà¦¡":2210,"à¦¤à¦§":2211,"à¦ľà¦ķà¦°":2212,"à¦¬à¦¨à¦§":2213,"Ġà¦¸à¦¬à¦Ł":2214,"Ġà¦¡à¦Ĺ":2215,"Ġà¦ħà¦²à¦Ļ":2216,"Ġà¦ķà¦¨à¦¸":2217,"à¦¼à§ĩ?":2218,"à¦ļà§Łà¦¤":2219,"Ġà¦²à¦¬à¦£":2220,"Ġà¦ªà¦°à¦²":2221,"à¦¬à¦¬à¦°":2222,"Ġà¦¨à¦¬à¦¦":2223,"à¦ĩà¦ĩ":2224,"Ġà¦ıà¦ľ":2225,"à¦¹à§Łà¦¤":2226,"Ġà¦¨à§Łà¦¨":2227,"ol":2228,"Ġà¦¨à¦ķà¦²":2229,"à¦īà¦ª":2230,"Ġà¦ĩà¦¦":2231,"Ġà¦¯à¦ĸà¦¨à¦ĩ":2232,"Ġà¦Ńà¦°à¦ª":2233,"Ġà¦¬à¦¹à¦®":2234,"à¦¾!âĢĻ":2235,"Ġà¦ĸà¦¬à¦°à¦Ł":2236,"all":2237,"à¦®à¦¹à¦¤":2238,"à¦¶à¦ĵ":2239,"à¦Ĺà§ľ":2240,"à¦·à¦ľ":2241,"Ġà¦Łà¦²":2242,"st":2243,"à¦Ĩà¦¸à¦²":2244,"à¦ĺà¦¡":2245,"Ġà¦ħà¦ªà¦¬":2246,"Ġà¦·à¦¡":2247,"ĠM":2248,"à¦²à¦Ļ":2249,"Ġà¦§à¦¨à¦¤":2250,"à¦ľà¦¨à¦ĩ":2251,"ĠĠĊĠ":2252,"à§°à¦¤":2253,"à¦¨à¦¶à¦¨":2254,"à¦ķà¦®à¦²":2255,"Ġà¦¸à¦¯à¦¤":2256,"à¦Łà¦¹":2257,"el":2258,"Ġà¦®à¦¹à§İ":2259,"Ġà§§à§©":2260,"à¦ĭà¦·":2261,"Ġà§ª":2262,"Ġà¦¤à¦¦à¦¨":2263,"à¦§à¦¦":2264,"Ġà¦ĵà¦¹":2265,"Ġà¦ªà¦¥à¦Ł":2266,"à¦°à¦²à¦¯":2267,"à¦ľà¦Ĺà§İ":2268,"ĠA":2269,"à¦·à¦Ļ":2270,"Ġà¦ķà¦°à¦£":2271,"Ġà¦¸à¦¹à¦ª":2272,"à¦®à¦®à¦¤":2273,"à¦·à¦ĵ":2274,"à¦£à¦¯":2275,"à§ĩà¥¤à¥¤":2276,"Ġà¦¤à¦«":2277,"à¦§à¦¸":2278,"Ġà¦īà¦ªà¦ľ":2279,"Ġà¦¤à¦°à¦«à¦¦":2280,"à§į-":2281,"à¦®à¦«":2282,"à§ĭâĢĻ":2283,"Ġà¦Ĩà¦ŀ":2284,"Ġà¦¨à¦°à¦ķ":2285,"à¦¶à¦Ļ":2286,"à¦ļà¦ľà¦¨":2287,"à¦łà¦°":2288,"à¦¬à¦²à¦²":2289,"à¦ħà¦®à¦²":2290,"Ġà¦īà¦ªà¦ķà¦°à¦£":2291,"ent":2292,"et":2293,"à¦®à§ľ":2294,"Ġà¦ıà¦ķà¦¯":2295,"à¦°à¦¬à¦§":2296,"Ġà¦®à¦¤à¦ĩ":2297,"à§°à¦¹":2298,"Ġà¦¤à¦¤à¦¦":2299,"à¦ľà¦ªà¦¥":2300,"à¦¯à¦¬à¦°":2301,"à¦®à¦ķà¦°":2302,"Ġà¦ĵà¦Ń":2303,"Ġà¦ĺà¦·":2304,"Ġà¦ħà¦¸à¦Ń":2305,"à¦®à¦£à¦¦":2306,"à§§à§¦":2307,"ut":2308,"à¦¹à¦¨à¦¬":2309,"Ġà¦ĩà¦īà¦°":2310,"à¦ĺà¦Ł":2311,"Ġà¦¸à¦¹à¦ķ":2312,"ĠP":2313,"à¦¿'":2314,"à¦¼à§ģ,":2315,"Ġà¦Ĩà¦ĩà¦¡":2316,"à¦ªà¦Ļ":2317,"à¦£à¦¸":2318,"Ġà¦¬à¦°à¦ŀ":2319,"Ġà¦Ĺà¦£à¦®":2320,"Ġto":2321,"à¦¾)":2322,"à§ĩà¦¾à¦ģ":2323,"Ġà¦¬à¦®":2324,"Ġà¦¸à¦«à¦°":2325,"Ġà¦ªà¦¤à¦¨":2326,"à¦¥à¦¹":2327,"à¦¼à¦¾!":2328,"Ġà¦²à¦£":2329,"Ġà¦Ŀà¦Ł":2330,"Ġà¦ħà¦ªà¦°à¦ķ":2331,"il":2332,"à¦¸à¦ªà¦¤":2333,"à¦£à¦Ĺà¦¤":2334,"à¦®à¦¨à¦Ł":2335,"Ġà¦Ŀà¦°à¦Ľ":2336,"à¦Ĳà¦¤":2337,"à¦¤à¦¯":2338,"à¦¬à¦¹à¦¨":2339,"à¦łà¦ķà¦ķ":2340,"à¦ªà¦°à¦®":2341,"à¦«à¦¨":2342,"à§¦à§¦":2343,"à¦¨à¦¬à¦°":2344,"à¦ªà¦ŀ":2345,"à§Ģ?âĢĻ":2346,"Ġà¦ļà¦£":2347,"Ġà¦ĸà¦Ł":2348,"à¦Ĩà¦Ľ":2349,"à¦Ĩà¦¡":2350,"Ġà¦īà¦ªà¦®":2351,"Ġ.":2352,"Ġà¦¹à¦¤à¦¬":2353,"à¦§à¦ķà¦¤":2354,"à¦¹à¦Ł":2355,"Ġà¦¥à¦°":2356,"Ġà¦¸à¦®à¦·":2357,"ĠâĢ¦":2358,"à¦¬à¦¨à¦¬":2359,"à§ľà¦²":2360,"Ġà¦¬à¦¨à¦Ń":2361,"à¦¤à¦ªà¦ķ":2362,"à¦¦à¦®à¦¯":2363,"Ġà¦®à¦¶à¦²":2364,"à¦ªà¦ĵ":2365,"Ġà¦¥à¦²":2366,"à§ĩ)":2367,"à§į!":2368,"à¦¨à¦¤à¦°":2369,"à¦¯à¦ļ":2370,"Ġà¦ķà¦¤à¦¬":2371,"à¦¬à¦²à¦ĩ":2372,"à¦Ĺà¦ľà¦ªà¦¤":2373,"ÂłÂłÂłÂłÂłÂłÂłÂłÂł":2374,"ĠB":2375,"à¦¼âĢ¦":2376,"à¦®à¦ĸ":2377,"Ġà¦¹à¦ĩà¦¬":2378,"à¦Ĺà¦¬à¦¤":2379,"Ġà¦Ĺà¦£à¦¤":2380,"à¦ħà¦«":2381,"Ġà¦¨à¦ĵ":2382,"Ġà¦¦à¦°à¦¬":2383,"à¦§à¦¶":2384,"à¦¥à¦ķà¦¤":2385,"Ġà¦Ńà¦Ł":2386,"Ġà¦ªà¦¦à¦§":2387,"Ġà¦Ĩà¦«à¦¸":2388,"à§ģâĢĵ":2389,"Ġà¦¦à¦®à¦ķ":2390,"à¦¡à¦®":2391,"à¦¡à¦¸":2392,"à¦²à¦ķà¦£":2393,"à§Ŀà¦¤":2394,"Ġ/":2395,"Ġà¦ªà¦ļ":2396,"Ġà¦Ĩà¦·":2397,"Ġà¦«à¦¡":2398,"Ġà¦ĺà§ľ":2399,"Ġà¦¡à¦²":2400,"Ġà¦®à¦¤à¦¬":2401,"à¦ħà¦°à¦£":2402,"Ġà¦ľà¦²à¦¦":2403,"Ġà¦ĺà¦Łà¦Ľ":2404,"à¦¨à§Ł":2405,"à¦ĸà¦®":2406,"à¦·à§İ":2407,"à¦Ĺà¦ľà¦Ł":2408,"Ġà¦®à¦°à¦¤":2409,"Ġà¦ħà¦Ŀ":2410,"Ġà¦ħà§Łà¦¨":2411,"à¦ľà¦¨à¦¨":2412,"à¦Ĩà¦ĩà¦¨":2413,"à§ĭ,âĢĿ":2414,"Ġà§§à§¯à§«à§¨":2415,"__":2416,"à¦ĩà¦Ĺ":2417,"Ġà¦¤à¦®":2418,"Ġà¦ıà¦ĵ":2419,"à¦°à¦¤à¦¨":2420,"Ġà¦ıà¦ĩà¦¬":2421,"Ġà¦Ĩà¦²à¦Ĺ":2422,"Ġà¦ľà¦¨à¦ªà¦¦":2423,"Ġà§§à§¦":2424,"ĠS":2425,"Ġà¦®à¦°à¦®":2426,"à¦ĩà¦¹":2427,"à¦¶à¦ªà¦¥":2428,"à¦ĸà¦®à¦¯":2429,"à¦¥à¦¸":2430,"à¦«à¦¡":2431,"Ġà¦®à¦¹à¦¤":2432,"un":2433,"à¦¼à§ĩ;":2434,"Ġà¦īà¦ĩà¦²":2435,"à¦¯à¦¬à¦§":2436,"à¦Ĭ":2437,"Ġà¦¦à§Ł":2438,"à¦¹à¦ĩ":2439,"à¦£à¦Ł":2440,"à¦Ńà¦°à¦¶":2441,"Ġà¦ħà¦Ńà¦¯":2442,"Ġis":2443,"à¦¨à¦¡":2444,"à¦¼à§Ģ,":2445,"Ġà¦¹à¦²à¦¦":2446,"à¦ĥ,":2447,"ÂłÂłÂłÂłÂłÂł":2448,"ay":2449,"Ġe":2450,"à¦¼à§Ģà¥¤":2451,"Ġà¦¨à¦Ń":2452,"Ġà¦¨à¦¬à¦ķ":2453,"à¦¨à¦®à¦¨":2454,"à¦¤à¦¥":2455,"à¦¯à¦ľà¦¨":2456,"à¦¸à¦ľ":2457,"à¦¶à§Ł":2458,"Ġà¦Ĺà¦ł":2459,"à¦Ĥà¥¤":2460,"à¦īà¦¶à¦¨":2461,"Ġà¦ıà¦ĸà¦¨à¦ķ":2462,"Ġà¦®à¦¹à¦²":2463,"Ġà¦ķà¦ĸà¦¨à¦ĩ":2464,"à¦®à¦¬à¦Ļ":2465,"à¦ļà§Łà¦ĩ":2466,"Ġà¦¸à¦ĩ":2467,"à¦¶à¦Ń":2468,"à¦£à¦ļ":2469,"Ġà¦®à¦¨à¦¨à¦¶":2470,"Ġà¦¡à¦ķ":2471,"Ġà§Ń":2472,"à¦ķà¦°à¦¬":2473,"à¦Łà¦¬à¦²":2474,"à¦ªà¦¶à¦¨":2475,"Ġà¦ħà¦¡":2476,"à¦ĵà¦Ł":2477,"à¦¤à¦°à¦ĩ":2478,"à¦ħà¦Ļ":2479,"Ġà¦¸à¦ķà¦²à¦ķ":2480,"à¦¾âĢ¦âĢĿ":2481,"à¦Łà¦ĵ":2482,"à¦Ļà¦°":2483,"à¦Ŀà¦ªà¦¥":2484,"à¦·à¦£à¦¸":2485,"à¦ħà¦¥":2486,"à¦¦à¦¨à¦¶":2487,"à¦²à¦¨à¦®":2488,"à¦°à¦ªà¦°à¦ĵ":2489,"à¦ĩà¦°à¦ķà¦®":2490,"Ġà¦¤à¦°à¦ķ":2491,"Ġà¦²à¦¬":2492,"Ġà¦Ĩà¦Ĺà¦²":2493,"ÂłÂłÂłÂłÂł":2494,"ÂłÂłÂłÂłÂłÂłÂł":2495,"Ġà¦ķà¦¨à¦«":2496,"à¦²à¦¶":2497,"à¦²à¦¡":2498,"Ġà¦²à¦ĺ":2499,"Ġà¦¸à¦®à¦ķ":2500,"à¦ıà¦ķà¦¤":2501,"Ġà¦ĩà¦°":2502,"à¦Ĺà¦²à¦Ł":2503,"à§ĩâĢĶâĢĺ":2504,"Ġà¦¶à¦°à§İà¦ļà¦¨":2505,"ig":2506,"à§ĩà¦Ĥ":2507,"à¦¯à¦®à¦¨à¦¸":2508,"Ġà¦ħà¦°à¦¬":2509,"Ġà¦ħà¦ĸà¦£":2510,"à§ľà¦¬":2511,"à¦¼à§ĩ!":2512,"Ġà¦ļà¦¬":2513,"Ġà¦«à¦£":2514,"Ġà¦īà§İà¦ķà¦£":2515,"Ġà¦¬à¦īà¦®":2516,"à§į,":2517,"Ġà¦ķà¦¸":2518,"Ġà¦¸à¦¯":2519,"à¦§à¦ĩ":2520,"Ġà¦ļà¦ĵà¦¡":2521,"Ġà¦²à¦Ĺ":2522,"Ġà¦ķà¦²à¦¸":2523,"à§ĩâĢ¦âĢĿ":2524,"à¦°à¦¡":2525,"à¦°à¦ĸà¦°":2526,"à¦¶à¦«":2527,"à¦¹à¦£":2528,"Ġà¦īà¦Ńà§Ł":2529,"Ġà¦ħà¦¬à¦ľ":2530,"âĢĵâĢĵ":2531,"Ġà¦¤à¦ĸà¦¨à¦ķ":2532,"à¦¬à¦ķà¦¦":2533,"à¤¾":2534,"à¦Ĺà¦ĵ":2535,"à¦¹à¦Ļ":2536,"Ġà¦ªà¦°à¦¬":2537,"à¦ªà¦°à¦ķ":2538,"à¦°à¦¹à¦¸":2539,"Ġà¦īà¦ªà¦¤":2540,"Ġà¦ħà¦¬à¦¨à¦¤":2541,"Ġà¦Ķà¦ªà¦¨":2542,"à§ģ;":2543,"à¦¼à§ĭà¥¤":2544,"à¦ĸà¦¦":2545,"à¦Ńà¦Ł":2546,"Ġà¦²à¦°":2547,"Ġà¦ıà¦ķà¦ľà¦¨à¦ķ":2548,"à¦¸à¦ķà¦·":2549,",-":2550,"ur":2551,"æŃ":2552,"Ġre":2553,"à§ĩâĢĿà¥¤":2554,"à¦®à¦ļà¦°":2555,"à¦Łà¦ĵà§Ł":2556,"Ġà¦¨à¦¸":2557,"Ġà¦¦à¦°à¦¦":2558,"à¦Ĺà¦Ļ":2559,"à¦£à¦ªà¦£":2560,"à¦Ļà¦¬":2561,"à¦ªà¦°à¦¦":2562,"Ġà¦¸à¦¬à¦ľ":2563,"à§ĭâĢĶâĢľ":2564,"Ġà¦ľà§Łà¦Ĺ":2565,"à¦¾à¦ĥ,":2566,"æŃĵ":2567,"áĥ":2568,"à¦¸à¦ļ":2569,"à¦Ĺà¦¬à¦¨":2570,"Ġà¦ľà¦®à¦¤":2571,"à¦Ŀà¦°à¦¨":2572,"à¦·à¦£à¦ķ":2573,"Ġà¦ĩà¦¨à¦ľ":2574,"ĠÂłĠÂł":2575,"æŃĵæŃĵ":2576,"à¦¼à§ĭ,":2577,"à¦¸à¦ŀ":2578,"à¦¸à§İ":2579,"Ġà¦ıà¦ľà¦¨":2580,"à¦§à¦ĵ":2581,"à¦§à¦Ń":2582,"ĠĠĠĠ":2583,"Ġà¦Ĩà¦®à¦Ĺ":2584,"Ġà¦ĵà¦®":2585,"à¦¬à¦¨à¦®":2586,"à¦¬à¦¤à¦ĩ":2587,"à§ĩ!âĢĻ":2588,"Ġà¦¶à¦¹à¦°à¦Ł":2589,"Ġà¦Ŀà¦¨à¦Ŀà¦¨":2590,"Ġà¦Ĩà¦ĸà¦¡":2591,"à¦¨à¦·":2592,"à¦¯à¦ķà¦²":2593,"à¦¼?âĢĿ":2594,"à¥į":2595,"à¦ªà¦Ŀ":2596,"Ġà¦¹à¦¦":2597,"Ġà¦¤à¦Ł":2598,"à¦¶à¦Ľ":2599,"à¦ĸà¦¡":2600,"à¦Ńà¦¦":2601,"à¦īà¦Ĺ":2602,"à¦īà¦ªà¦°":2603,"à¦°à¦®à¦°":2604,"à¦ķà¦°à¦¶":2605,"à§§à§Ń":2606,"à¦°à¦¹à¦£à¦¯":2607,"ĠT":2608,"à¦°à¦ļà¦¨":2609,"à¦¬à¦°à¦¬":2610,"à¦·à¦ľà¦¨":2611,"à¦ļà¦ĩ":2612,"Ġà¦ĵà¦¨":2613,"Ġà¦ľà¦¨à¦ľ":2614,"Ġà¦ĩà¦¤à¦¸":2615,"ation":2616,"à¦¨à¦Ńà¦°":2617,"à¦ĩà¦ĵ":2618,"à¦§à¦Ľ":2619,"à¦£à¦¹":2620,"Ġà¦²à¦Ń":2621,"à¦ªà¦°à¦¬à¦°":2622,"à¦ħà¦ľà¦¸":2623,"Ġbe":2624,"ĠR":2625,"à¦¤à¦ĸ":2626,"à¦¸à¦°à¦²":2627,"à¦ªà¦¤à¦¨":2628,"à¦Ĺà¦ļ":2629,"à¦¡à¦¶":2630,"Ġà¦¸à¦®à¦Ŀ":2631,"Ġà¦ľà¦²à¦¸":2632,"Ġà¦Īà¦·à§İ":2633,"à¦®à¦¹à¦°":2634,"à¦°à¦ķà¦°":2635,"à¦¨à¦ķà¦¥":2636,"à¦Ĩà¦ľà¦ĵ":2637,"ÂŃÂŃ":2638,"os":2639,"à§ĭâĢ¦âĢĿ":2640,"Ġà¦ķà¦¬à¦²":2641,"à¦ªà¦¹":2642,"Ġà¦¹à¦°à¦£":2643,"Ġà¦ıà¦¶":2644,"à¦īà¦·":2645,"Ġà¦Łà¦®":2646,"à¦¨à¦¬à¦¦":2647,"Ġà¦Ĩà¦¨à¦®à¦¨":2648,"Ġà¦¦à¦®à¦¬à¦¨":2649,"ch":2650,"à¦°à¦ĺ":2651,"à¦¯à¦§":2652,"à¦Ńà¦ľ":2653,"à¦¼à¦¾?":2654,"Ġà¦Ľà¦ķ":2655,"Ġà¦Ĩà¦°à¦ķ":2656,"à¦°à¦£à¦ķ":2657,"à¦°à¦®à¦¬à¦°":2658,"à¦°à¦¸à¦®":2659,"Ġà¦Ĩà¦¹à¦¬":2660,"à§Ĺ":2661,"à¦°à¦Ŀ":2662,"à¦¬à¦¦à¦²":2663,"à¦Ĺà¦¹":2664,"à¦·à¦£à¦ĩ":2665,"Ġà¦Ĳà¦¨":2666,"à¦¾âĢĻà¥¤":2667,"Ġà§§à§¯à§ª":2668,"à¦¸à¦¹à¦ľ":2669,"à§ģà¥¤âĢĿ":2670,"à¦¬à¦Ĺà¦¤":2671,"Ġà¦¤à¦¸":2672,"Ġà¦ıà¦«":2673,"à¦¶à¦¬à¦¨":2674,"à¦¡à¦Ń":2675,"Ġà¦¶à¦°à¦£":2676,"Ġà¦ĵà¦°à¦ķà¦®":2677,"à¦ħà¦¥à¦¬":2678,"Ġà¦¦à¦¶à¦®":2679,"à¦¾âĢĿà¥¤":2680,"à¦¼?âĢĻ":2681,"Ġà¦¹à¦¨à¦¨":2682,"à¦·à¦§":2683,"Ġà¦Ńà¦¸":2684,"à¦°à¦£à¦Ł":2685,"à¦¬à¦²à¦¬":2686,"Ġà¦ľà¦®à¦ľà¦®":2687,"à§°à¦ķ":2688,"id":2689,"im":2690,"à¦²à¦ªà¦¤":2691,"à¦®à¦¹à¦²":2692,"Ġà¦ķà¦¨à¦ķ":2693,"Ġà¦¸à¦ľà¦²":2694,"Ġà¦Ĺà¦ŀ":2695,"Ġà¦¸à¦¬à¦¸à¦®à§Ł":2696,"Ġà¦Ĩà¦ķà¦¬à¦°":2697,"à¦¤à¦¬à¦ķ":2698,"à¦°à¦ªà¦°à¦ĩ":2699,"Ġà¦Ĭà¦·":2700,"Ġà¦¹à¦ķà¦ļà¦ķ":2701,"à¦¿âĢ¦âĢĿ":2702,"à¦¬à¦°à¦ķ":2703,"à¦¼à§Ĥ":2704,"Ġà¦¬à¦¬":2705,"à¦¦à¦Ń":2706,"Ġà¦¨à¦ľ":2707,"à¦§à¦°à¦¨":2708,"Ġà¦ĸà¦²":2709,"Ġà¦Ĩà¦²à¦¸":2710,"Ġà¦Ŀà¦Ļ":2711,"à¦¦à¦°à¦¬à¦¨":2712,"à§Ģ?âĢĿ":2713,"Ġà¦Łà¦ķà¦Łà¦ķ":2714,"Ġà¦ļà¦²à¦¨":2715,"Ġà¦īà¦¦à§Ł":2716,"à¦¿--":2717,"ĠĠĊĠĠĠ":2718,"Ġg":2719,"à¦²à¦Ĺà¦°":2720,"à¦¹à¦Ń":2721,"à¦Ńà¦¬à¦¨":2722,"Ġà¦¬à¦²à¦°":2723,"à¦¬à¦°à¦ĩ":2724,"à¦ľà¦¸à¦Ń":2725,"ce":2726,"ive":2727,"Ġà¦¬à¦ļà¦¨":2728,"à¦łà¦ª":2729,"à¦ĺà¦¬":2730,"Ġà¦ħà¦¬à§Łà¦¬":2731,"à§įâĢĮà¥¤":2732,"Ġà¦¶à¦¤à¦¬à¦°":2733,"ow":2734,"ĠD":2735,"Ġ|":2736,"Ġà§¬":2737,"à§ĩà¦ĥ":2738,"à¦°à¦ªà¦¤":2739,"à¦²à¦¹":2740,"à¦¬à¦¦à¦¨":2741,"à¦ļà¦²à¦¤":2742,"à¦¥à¦Ĺ":2743,"Ġà¦ıà¦ķà¦ļ":2744,"Ġà¦«à¦¤":2745,"à¦¤à¦°à¦ĵ":2746,"à¦¤à¦¨à¦Ń":2747,"Ġà¦īà¦ªà¦²à¦ķ":2748,"à¦ĩà¦¨à¦Ł":2749,"à¦®à¦£à¦¸":2750,"à¦°à¦®à¦¨":2751,"à¦¤à¦¬à¦°":2752,"Ġà¦Ĩà¦ªà¦¸":2753,"à¦ªà¦ķà¦°":2754,"Ġà¦ħà¦ĺ":2755,"à¦Ĥ-":2756,"à¦¬à¦¨à¦ĩ":2757,"Ġà¦ıà¦ĩà¦ľà¦¨":2758,"Ġà¦ľà¦¨à¦ķ":2759,"Ġà¦¬à¦ĩà¦Ĺ":2760,"à§§à§¨":2761,"ÂłÂłÂłÂłÂłÂłÂłÂłÂłÂłÂłÂłÂłÂłÂł":2762,"à¦¤à¦Ĺà¦¤":2763,"à¥¤âĢĺ":2764,"à¦Łà¦Ĺà¦²":2765,"Ġà¦¶à¦ļ":2766,"à¦Ŀà§ľ":2767,"à¦¬à¦°à¦Ł":2768,"Ġà¦¬à¦²à¦²à¦¤":2769,"à¦¿âĢĶâĢľ":2770,"Ġà¦Ĩà¦¹à¦®":2771,"à¦ħà¦¥à¦ļ":2772,"us":2773,"à§ģ:":2774,"à¦¦à¦¬à¦¦":2775,"à¦¶à¦¶":2776,"Ġà¦¯à¦ķ":2777,"Ġà¦ľà¦ª":2778,"Ġà¦ľà¦ŀ":2779,"Ġà¦ļà¦ķà¦²":2780,"âĢĿâĢĵ":2781,"à¦°à¦®à¦¬":2782,"Ġà¦ħà¦®à¦°à¦¤":2783,"Ġà¦ķà¦¤à¦ĸ":2784,"Ġà¦¬à¦īà¦¯":2785,"Ġà¦ĸà¦¸à¦ĸà¦¸":2786,"am":2787,"çľ":2788,"à¦¤à¦Ńà¦°":2789,"à¦ķà¦¤à¦°":2790,"Ġà¦ķà¦ļà¦ķ":2791,"Ġà¦ªà¦¬à¦¨":2792,"Ġà¦Ĩà¦¦à¦²":2793,"à¦Ľà¦¦":2794,"à¦¶à¦ľ":2795,"à¦¼à§ĩâĢĵ":2796,"Ġà¦¸à¦®à¦¤à¦²":2797,"à¦²à¦¨à¦ķ":2798,"Ġà¦¦à¦²à¦ªà¦¤":2799,"od":2800,"ĠC":2801,"à§ĩà§Ĺ":2802,"à¦¿)":2803,"à¦¯à¦ļà¦°":2804,"à¦¯à¦ªà¦Ł":2805,"à¦¬à¦ŀ":2806,"à¦¼!âĢĿ":2807,"Ġà¦Ĩà¦īà¦Ł":2808,"Ġà¦®à¦°à¦¬":2809,"à¦¥à¦Ł":2810,"à¦¼à¦¾âĢĵ":2811,"Ġà¦Ŀà¦ŀ":2812,"à¦¤à¦¨à¦¶":2813,"Ġà¦Ĺà¦²à¦¦":2814,"Ġà¦¸à¦¹à¦¨à¦¶":2815,"à¦ıà¦ķà¦¸":2816,"Ġà¦¨à¦¬à¦¬à¦°":2817,"Ġà§§à§®":2818,"à¦®à¦°à¦ķ":2819,"à¦§à¦ª":2820,"à¦Ļà¦Ľ":2821,"Ġà¦«à¦¨":2822,"Ġà¦ĸà§ľ":2823,"Ġà¦¡à¦°":2824,"Ġà¦ĩà¦ķ":2825,"à¦¸à¦¬à¦¶":2826,"Ġà¦īà§İà¦ªà¦¤":2827,"Ġwh":2828,"à¦¤à¦¡":2829,"Ġà¦¦à¦²à¦¬":2830,"à¦·à¦¶":2831,"à¦§à¦ķà¦°":2832,"à¦¡à¦¬à¦°":2833,"à¦£à¦ĵ":2834,"Ġà¦§à¦¸":2835,"à¦°à¦ľà¦¬":2836,"Ġà¦¬à¦īà¦ķ":2837,"Ġà¦°à¦¸à¦Ĺ":2838,"Ġà§¯":2839,"à¦®à¦ĺ":2840,"Ġà¦¸à¦°à¦¬à¦°":2841,"Ġà¦¸à¦«à¦Ł":2842,"Ġà¦Ĩà¦ªà¦¡":2843,"Ġà¦¨à¦¬à¦¯":2844,"à§Ģà¥¤âĢĿ":2845,"Ġà¦°à¦ĺ":2846,"Ġà¦ıà¦ķà¦Ŀ":2847,"Ġà¦ĸà¦ļ":2848,"Ġà¦Ĩà¦²à¦ªà¦¨":2849,"à§İà¦¸à¦ķ":2850,"Ġà¦ķà¦®à¦¬":2851,"Ġà¦Ĺà§ľà¦¤":2852,"Ġà¦ķà¦¦à¦°":2853,"Ġà¦¬à¦¦à¦¨":2854,"à¦ľà¦¶":2855,"Ġà¦ıà¦ŀ":2856,"Ġà¦ħà¦¯à¦¤":2857,"à¦ļà¦¤à¦°":2858,"Ġà¦Ńà¦£":2859,"Ġà¦ħà¦¬à¦Ĺ":2860,"Ġà¦¬à¦¨à¦¬":2861,"à¦ķà¦²à¦¨":2862,"à¦¤à¦¬à¦¡":2863,"à¦ıà¦ĩà¦¸à¦¬":2864,"à¦ªà¦ķà¦¦":2865,"à¦·à¦¹":2866,"Ġà¦¶à¦ª":2867,"Ġà¦īà¦¥à¦²":2868,"Ġà¦²à¦ĩà¦¯":2869,"Ġà¦ħà¦¨à¦¡":2870,"à¦¬à¦¨à¦¦":2871,"à¦¤à¦°à¦¸":2872,"à¦°à¦¬à¦®à¦¯":2873,"à¦ķà¦²à¦ķ":2874,"Ġà¦ħà¦ªà¦ļà¦¯":2875,"Ġà¦«à¦²à¦¶":2876,"à§§à§§":2877,"Ġà¦Ĺà¦£à¦¨":2878,"Ġà¦ĩà¦¸à¦®à¦¤":2879,"ÂłÂłÂłÂłÂłÂłÂłÂłÂłÂłÂłÂłÂł":2880,"ver":2881,"à¦¹à¦ª":2882,"Ġà¦ļà¦ª":2883,"Ġà¦Ľà§Ł":2884,"Ġà¦ħà¦¨à¦¸":2885,"à¦°à¦£à¦Ń":2886,"à¦Ŀà¦ŀ":2887,"Ġà¦®à¦¤à¦²à¦¬":2888,"Ġà¦ħà¦®à¦Ļ":2889,"Ġà¦¸à¦¹à¦ļà¦°":2890,"Ġà¦ķà¦¤à¦ķà¦Ĺ":2891,"à¦ªà¦¦à¦ķ":2892,"à¦ıà¦ķà¦¸à¦Ļ":2893,"Ġà¦¶à¦¤à¦ªà¦¥":2894,"Ġà¦ıà¦ķà¦ĩà¦Ń":2895,"à¦¿!âĢĻ":2896,"Ġà§§à§¯à§¯":2897,"ul":2898,"Ġit":2899,"à¦¨à¦®à§Ł":2900,"Ġà¦ķà¦ªà¦Ł":2901,"Ġà¦¸à¦ļà¦²":2902,"à¦Ĺà¦²à¦ķ":2903,"Ġà¦¶à¦°à¦¤":2904,"Ġà¦ľà¦®à¦²":2905,"Ġà¦Ńà¦°à¦¦":2906,"à¦ĵà¦ķ":2907,"à¦łà¦¦":2908,"Ġà¦ĵà§ľ":2909,"à¦ħà¦¦à¦®":2910,"à¦¨à¦¬à¦¸":2911,"à¦®à¦ķà¦°à¦£":2912,"ÂłÂłÂłÂłÂłÂłÂłÂłÂłÂłÂłÂłÂłÂł":2913,"à¦¿âĢĿà¥¤":2914,"à§ģâĢ¦":2915,"à¦¬à¦ķà¦Ł":2916,"Ġà¦¸à¦¶à¦¸":2917,"Ġà¦¦à¦²à¦¨":2918,"Ġà¦¹à¦ĩà§Ł":2919,"âĢķ":2920,"à¦¹à¦ļà¦°":2921,"Ġà¦¶à¦ĵ":2922,"Ġà¦²à¦ŀ":2923,"à§ĩ,âĢĻ":2924,"à¦īà§ľ":2925,"à¦°à¦®à¦¯":2926,"à¦Ĺà¦¤à¦Ń":2927,"à¦ĩà¦²à¦Ł":2928,"Ġà¦ıà¦®à¦¨à¦Ł":2929,"à§°à¦¬":2930,"Ġà¦Ĩà¦¹à¦°à¦£":2931,"ÂłÂłÂłÂłÂłÂłÂłÂłÂłÂł":2932,"ÂłÂłÂłÂłÂłÂłÂłÂłÂłÂłÂł":2933,"Ġà¦°à¦ķà¦®à¦ĩ":2934,"Ġà¦ķà¦¨à¦°":2935,"à¦ªà¦²à¦ķ":2936,"à¦ĸà¦ķà¦¦":2937,"à¦§à¦Ĺ":2938,"à§Łà¦ĩ":2939,"Ġà¦°à¦ª":2940,"à¦łà¦¬":2941,"à¦«à¦¤":2942,"à¦ıà¦¨":2943,"Ġà¦Łà¦ª":2944,"Ġà¦ķà¦²à¦¹":2945,"Ġà¦Ķà¦°à¦¸":2946,"if":2947,"à¦¨à¦¬à¦¨":2948,"à¦®à¦§à¦¨":2949,"à¦¦à¦°à¦®":2950,"à¦Ľà¦¯":2951,"Ġà¦¤à¦¡":2952,"à¦łà¦Ł":2953,"Ġà¦ĵà¦²":2954,"Ġà¦«à¦°à¦®":2955,"à¦īà¦ªà¦¨":2956,"à¦Ĩà¦¦à¦°":2957,"Ġà¦¸à¦°à¦ŀ":2958,"âĢ¦à¥¤":2959,"Ġà¦ķà¦®à¦Ľ":2960,"Ġà¦īà§İà¦ķà¦°":2961,"à¦Łà¦¤à¦ĩ":2962,"Ġà¦¹à¦°à¦«":2963,"à¦®à¦Ľà¦®":2964,"à¦ľà¦ķà¦¨":2965,"à¦ĸà¦ª":2966,"à¦Ńà§İà¦¸":2967,"Ġà¦ıà¦ķà¦ĺ":2968,"Ġà¦īà¦®":2969,"à¦ªà¦°à¦¶":2970,"à¦ľà¦¨à¦¬":2971,"à¦«à¦ķ":2972,"à¦·à¦£à¦¶":2973,"à¦Ĺà¦¤à¦ķ":2974,"Ġà¦īà¦ªà¦ļ":2975,"à¦¿à¦ĥà¥¤":2976,"Ġà¦¬à¦īà¦Ł":2977,"à¤°":2978,"à§ĩà¥¥":2979,"à¦ķà¦§":2980,"à¦ķà¦°à¦ķ":2981,"à¦¬à¦ķà¦°":2982,"à¦¼âĢĻ":2983,"à¦ĵà¦¹":2984,"Ġà¦Ĩà¦®à¦¦":2985,"Ġà¦«à¦Łà¦ķ":2986,"Ġà¦ħà¦¨à¦°":2987,"à¦°à¦¬à¦ļ":2988,"à¦ıà¦ķà¦²":2989,"Ġà¦ĩà¦¡":2990,"Ġà¦ħà¦¬à¦¯":2991,"Ġà¦ļà¦²à¦ļ":2992,"Ġà¦ħà¦ªà¦²à¦ķ":2993,"Ġà¦ħà¦ļà¦ŀ":2994,"Ġà¦ĩà¦¨à¦«":2995,"Ġthat":2996,"ĠN":2997,"Ġà¥¥":2998,"Ġà¦¬à¦¦à¦®":2999,"Ġà¦®à¦Ľ":3000,"Ġà¦¯à¦¤à¦¬":3001,"à¦ļà¦¬à¦°":3002,"à¦£à¦ĩ":3003,"Ġà¦ľà¦Ĺà¦¨":3004,"Ġà¦Ńà¦²":3005,"à¦Ńà¦Ĺ":3006,"à¦Ńà¦²à¦Ń":3007,"Ġà¦īà¦ĩà¦¨":3008,"Ġà¦§à¦ķ":3009,"à¦ıà¦®":3010,"à¦ķà¦²à¦Ļ":3011,"Ġà¦ªà¦¥à¦ĩ":3012,"à¦²à¦ķà¦¨":3013,"à¦¾--":3014,"à¦°à¦®à¦£à¦ķ":3015,"Ġà§§à§¨":3016,"Ġà¦ħà¦¹à¦Ļ":3017,"à¦°à¦«à¦¤":3018,"****":3019,"à¦¥à¦ªà¦°à¦¤":3020,"à¦°à¦¦à¦¯":3021,"à¦ķà¦°à¦¤":3022,"à¦¯à¦¸à¦®":3023,"Ġà¦®à¦Ĺà¦ľ":3024,"à¦Ľà¦¤à¦²":3025,"Ġà¦«à¦¯":3026,"Ġà¦Ĩà¦¸à¦ķ":3027,"Ġà¦Łà¦ķ":3028,"Ġà¦ħà¦¬à¦¸à¦¨":3029,"à¦ħà¦¹":3030,"à¦¬à¦®à¦ŀ":3031,".âĢĿ":3032,"à¦¤à¦§à¦¨":3033,"à¦ķà¦Ĩà¦ª":3034,"à¦¼à¦¾à¦Ĥ":3035,"Ġà¦«à¦°à¦¸":3036,"Ġà¦ĸà¦¦":3037,"Ġà¦ĺà¦°à¦Ĺ":3038,"Ġà¦Ńà§Łà¦Ļ":3039,"Ġà¦ľà§Łà¦§":3040,"à¦¦à¦°à¦®à¦¹à¦²":3041,"ro":3042,"à§įâĢį":3043,"à¦¯à¦Ĺà¦¤":3044,"à¦¸à¦ĺ":3045,"à¦¶à¦§":3046,"à§Łà¦£":3047,"Ġà¦īà¦ĩ":3048,"à§Ĥ-":3049,"Ġà¦²à¦¸":3050,"à¦°à¦£à¦ĵ":3051,"à¦ħà¦ŀ":3052,"Ġà¦ħà¦¸à§İ":3053,"à¦ıà¦ĩà¦ļ":3054,"Ġà¦ķà¦®à¦ª":3055,"à§įâĢĮ,":3056,"Ġà§§à§«":3057,"Ġà¦°à¦ĵà¦¶à¦¨à¦ķ":3058,"Ġà¦·à¦·":3059,"à¦¬à¦ľà¦Ĺà¦¤":3060,"Ġà¦¶à¦ĵà¦ķà¦¤":3061,"à¦¦à¦®à¦¨":3062,"à¦ªà¦ªà¦¤":3063,"à¦ľà¦¤à¦¨":3064,"à¦¶à¦°à¦¤":3065,"à¦¾à¦ģ-":3066,"Ġà¦²à¦¹à¦®":3067,"à§ĩ,-":3068,"Ġà¦§à¦¬":3069,"à¦°à¦®à¦¤":3070,"Ġà¦«à¦²à¦¸":3071,"à¦¾'":3072,"à¦¨à¦ªà¦¥":3073,"Ġà¦¬à¦Ĺà¦²":3074,"Ġà¦®à¦ķ":3075,"à§ĢâĢĿ":3076,"à¦ľà¦ĸà¦¬à¦°":3077,"à¦¶à¦ļ":3078,"à¦ĸà¦ĩ":3079,"à¦ļà¦Ń":3080,"à¦¹à¦®à¦¯":3081,"à¦£à¦®à¦¯":3082,"Ġà¦ıà¦ķà¦«":3083,"Ġà¦ıà¦ķà¦¤à¦²":3084,"Ġà¦Ľà¦®à¦Ľà¦®":3085,"Ġà¦ĺà¦°à¦¬":3086,"à¦°à¦£à§Ł":3087,"Ġà¦¬à¦²à¦²à¦ķ":3088,"Ġà¦Ĩà¦¸à¦®":3089,"Ġà¦īà¦ªà¦¬":3090,"Ġà¦ħà¦¶à¦°":3091,"ly":3092,"à¦°à¦ªà¦¥":3093,"à¦ķà¦¸à¦Ļ":3094,"Ġà¦¬à¦¤":3095,"Ġà¦¬à¦¹à¦°":3096,"à¦§à¦¹à§Ł":3097,"Ġà¦ľà¦¸":3098,"Ġà¦ıà¦ķà¦¨":3099,"Ġà¦«à¦ľà¦²":3100,"Ġà¦Łà¦ªà¦ķ":3101,"Ġà¦Ĩà¦Ĺà¦¨":3102,"à¦¦à¦¨à¦ķ":3103,"à¦¨à¦ĵà¦°à¦ķà¦®":3104,"à¦¿âĢĻà¥¤":3105,"Ġà¦¹à¦ĩà¦ļà¦ĩ":3106,"ha":3107,"Ġà§®":3108,"à¦²à¦ĺ":3109,"à¦¯à¦¬à¦¨":3110,"à¦¼à¦ĥ":3111,"Ġà¦¤à¦°à¦¬":3112,"Ġà¦ıà¦£":3113,"Ġà¦ħà¦¯à¦¥":3114,"Ġà¦ıà¦ķà¦¸à¦®à§Ł":3115,"Ġà¦īà¦¹":3116,"Ġà¦®à¦¨à¦®":3117,"à¦°à¦£à¦Ĺ":3118,"à¦¤à¦°à¦ª":3119,"Ġà¦Ĩà¦²à¦«":3120,"à¦¸à¦¬à¦ĸ":3121,"à¦¯à¦¬à¦¯":3122,"à¦¨à¦ĵà¦Ń":3123,"Ġà¦ıà¦¤à¦Ĺ":3124,"à¦ĩà¦¨à¦Ĺ":3125,"Ġà¦¯à¦¤à¦ĸ":3126,"Ġnot":3127,"ir":3128,"Ġ=":3129,"à¦ªà¦Ń":3130,"à¦ľà¦Ń":3131,"Ġà¦ıà§ľ":3132,"à¦·à¦°à¦¤":3133,"à¦¥à¦ĩ":3134,"Ġà¦ľà§Łà¦¨":3135,"Ġà¦°à¦Ł":3136,"à¦ľà¦¨à¦¦":3137,"à¦°à¦¬à¦ķ":3138,"à¦°à¦¬à¦¦":3139,"à¦¬à¦°à¦¹":3140,"âĢĵâĢĻ":3141,"à¦°à¦²à§Ł":3142,"à¦¨à¦Łà¦¨":3143,"à¦Ŀà¦²à¦®à¦²":3144,"ci":3145,"ĠH":3146,"à¦¬à¦®à¦¯":3147,"à¦¬à¦¸à¦®":3148,"à¦¬à¦¶à¦ķ":3149,"Ġà¦ķà¦®à¦¤":3150,"Ġà¦ªà¦Łà¦²":3151,"Ġà¦®à¦ł":3152,"à¦ªà¦ĸ":3153,"Ġà¦ıà¦·":3154,"Ġà¦ħà¦¹à¦¨":3155,"à¦ļà¦ŀ":3156,"à¦£à¦¶":3157,"Ġà¦Ńà¦ľ":3158,"à¦ĵà§ľ":3159,"Ġà¦Ĩà¦°à¦¶":3160,"Ġà¦ĸà¦¤":3161,"à¦¾,âĢĻ":3162,"à¦°à¦ķà¦¨":3163,"Ġà¦ħà¦¸à¦¨":3164,"à¦¨à¦¬à¦¸à¦®":3165,"Ġà¦īà¦¦à¦Ĺ":3166,"Ġà¦ıà¦®à¦¨à¦ĵ":3167,"Ġà¦īà¦¤à¦Ļ":3168,"Ġà¦īà§İà¦ķ":3169,"Ġà¦ħà¦ķà¦ªà¦Ł":3170,"à§§à§¬":3171,"à¦Ĺà¦®à¦ŀ":3172,"à¦¾âĢĻ,":3173,"ity":3174,"...âĢĿ":3175,"aya":3176,"Ġà¦§à¦¬à¦§à¦¬":3177,"!!":3178,";-":3179,"ad":3180,"à¦¨à¦«":3181,"à¦¦à¦ªà¦¤":3182,"à¦ĩà¦¨à¦¬":3183,"à¦§à¦¹":3184,"Ġà¦¯à¦¬à¦¨":3185,"Ġà¦ľà¦²à¦ķ":3186,"à¦ĺà¦¤à¦®":3187,"Ġà¦ľà¦²à¦¦à¦¸":3188,"à¦§à¦¨à¦¹":3189,"Ġfor":3190,"em":3191,"à¦¤à¦«":3192,"à¦²à¦Ŀ":3193,"à¦®à¦Ļ":3194,"à¦®à¦ķà¦²":3195,"à¦®à¦Ĺà¦¤":3196,"Ġà¦Ĩà¦ĩà¦¸":3197,"à¦ļà¦ª":3198,"Ġà¦°à¦ļà¦¯":3199,"Ġà¦ıà¦ĩà¦®":3200,"à¦Ŀà¦Ľ":3201,"âĢĿ,":3202,"à¦¬à¦°à¦ª":3203,"Ġà¦¬à¦°à¦·":3204,"âĢ¦âĢĻ":3205,"Ġà¦ªà¦¦à¦¬":3206,"Ġà¦ªà¦Łà¦ļ":3207,"ect":3208,"à¦¾à§ĩ":3209,"à¦¸à¦®à¦¤":3210,"à¦¦à¦°à¦¬":3211,"Ġà¦®à§Łà¦²":3212,"à¦Ľà§ľ":3213,"Ġà¦¦à¦ª":3214,"Ġà¦¹à¦®":3215,"Ġà¦ħà¦ĸ":3216,"à¦¥à¦ªà¦°":3217,"à¦¤à¦°à¦¬":3218,"à¦Ĩà§Ł":3219,"à¦Ĩà¦ļà¦°à¦£":3220,"Ġà¦Łà¦¯":3221,"Ġà¦Ĩà¦ľà¦¬":3222,"Ġà¦ħà¦¸à¦®à¦¯":3223,"Ġà¦ķà¦¤à¦ĩ":3224,"Ġà¦ħà¦ªà¦°à¦¦":3225,"à§įâĢĮ-":3226,"à¤¤":3227,"ess":3228,"ĠÑ":3229,"à¦¬à¦ī":3230,"Ġà¦¬à¦ķà¦¬":3231,"Ġà¦¸à¦ªà¦ķ":3232,"Ġà¦ªà¦¦à¦¯":3233,"Ġà¦ªà§Łà¦¸":3234,"Ġà¦¨à¦®à¦¨":3235,"Ġà¦®à¦«à¦¸":3236,"à¦ĩà¦ĵà¦¯":3237,"à¦¹à¦¹":3238,"Ġà¦ĩà¦®à¦¨":3239,"à¦¶à¦¨à¦Ł":3240,"à¦ıà¦ĩà¦Ń":3241,"à§ģà¥¤âĢĻ":3242,"Ġcon":3243,"Ġà¦§à¦¨à¦¤à¦¨":3244,"à¦ķà§Ł":3245,"à¦®à¦ªà¦¨":3246,"Ġà¦ĩà¦¨à¦ķ":3247,"à¦ĺà¦¸":3248,"à§ģà¦ģà¥¤":3249,"à¦ħà¦Łà¦²":3250,"à¦²à¦¤à¦²":3251,"Ġà¦ħà¦ķà¦¥":3252,"à§§à§©":3253,"à§§à§«":3254,"à¦ķà¦ľà¦¨à¦ķ":3255,"ĠMaya":3256,"ĠG":3257,"à¦ķà¦ı":3258,"Ġà¦¸à¦ªà¦¨":3259,"Ġà¦®à§Łà¦¦":3260,"à¦¶à¦ķà¦°":3261,"Ġà¦°à¦¡":3262,"à¦¼à¦¾âĢĻ":3263,"Ġà¦²à¦Ł":3264,"à¦Ĩà¦°à¦ĵ":3265,"à§İà¦ªà¦¤":3266,"Ġà¦ĩà¦ľà¦°":3267,"à¦°à¦¶à¦ķ":3268,"à¦®à¦£à¦°":3269,"à¦¨à¦¦à¦£":3270,"Ġà¦¤à¦²à¦¦":3271,"Ġà¦Ĺà§ľà¦¬":3272,"Ġà¦ıà¦¨à¦ľ":3273,"à¦ıà¦ĸà¦¨à¦ĩ":3274,"Ġà¦ľà¦Ĺà¦¦":3275,"à¦¤à¦ľà¦¨":3276,"à¦¯à¦Łà¦ķ":3277,"à¦®à¦®à¦°":3278,"à¦ľà¦¹":3279,"Ġà¦ıà¦Ĩà¦ĩ":3280,"à¦ĸà¦ķà¦°":3281,"à¦¡à¦īà¦ĩ":3282,"à¦¹à¦ķà¦°":3283,"Ġà¦ıà¦ķà¦Ń":3284,"Ġà¦īà¦¥":3285,"Ġà¦«à¦²à¦¨":3286,"à¦¾à¥¤à¥¤":3287,"à¦ĺà¦¬à¦¦":3288,"à¦ħà¦¬à¦¸":3289,"Ġà¦ĵà¦łà¦²":3290,"Ġà¦īà¦¦à¦ĺ":3291,"Ġà¦Ĩà¦§à¦ĸ":3292,"à¦¼à§ģà¥¤":3293,"Ġà§§à§Ń":3294,"Ġà¦¶à¦¹à¦°à¦¤à¦²":3295,"Ġà§§à§¯à§®":3296,"her":3297,"Ġà¦Ķà¦¦":3298,"à¦²à¦¥":3299,"à¦¯à¦®à¦¨":3300,"Ġà¦ªà§°":3301,"à¦ļà¦Ĺ":3302,"à¦£à¦§":3303,"Ġà¦ľà¦¹":3304,"à¦ıà¦«":3305,"Ġà¦¸à¦¬à¦²":3306,"Ġà¦Ŀà¦Łà¦ķ":3307,"à¦¨à¦¤à¦²":3308,"à¦ħà¦®à¦¨":3309,"Ġà¦ľà¦®à¦Ľ":3310,"à¦Łà¦¬à¦ĩ":3311,"à¤¿":3312,"à¦¿âĢĻ,":3313,"à¦·à§Łà¦ķ":3314,"ist":3315,"à¦Ĳà¦ķ":3316,"Ġà¦Ķà¦·à¦§":3317,"ag":3318,"nd":3319,"ure":3320,"à§ĩ/":3321,"Ġà¦ķà¦¦à¦¬":3322,"Ġà¦Ĩà¦ĩà¦²":3323,"Ġà¦¨à¦¬à¦°":3324,"Ġà¦¨à¦¬à¦¬":3325,"à¦¡à¦«":3326,"à¦°à¦¤à¦ķ":3327,"Ġà¦¸à¦¬à¦ĸ":3328,"Ġà¦¬à¦²à¦²à¦Ĩà¦®":3329,"Ġà¦Ĩà¦Ľà§ľ":3330,"Ġà¦ľà¦¨à¦¸à¦®":3331,"à¦°à¦¥à¦®à¦Ł":3332,"à¦¨à¦ĵà¦Ł":3333,"Ġà¦ħà¦§à¦®":3334,"à¦°à¦®à¦¶à¦ĩ":3335,"Ġà§¨à§§":3336,"Ġà¦¦à¦Ĺà¦¦à¦Ĺ":3337,"à¦®à¦¸à¦®à¦°":3338,"à¦°à¦ĵà¦¯":3339,"à¦®à¦īà¦¦":3340,"à¥¤'":3341,"à¦ľà§ľ":3342,"Ġà¦ħà¦ķà¦²":3343,"à¦ĸà¦Ń":3344,"à¦Ĺà¦Ĺà¦¨":3345,"Ġà¦«à¦²à¦¤":3346,"ĠâĢĿ":3347,"Ġà¦Łà¦¨à¦Łà¦¨":3348,"âĢĻâĢĵ":3349,"à¦ķà¦°à¦¦":3350,"à¦¨à¦¬à¦ķ":3351,"à¦¾à¦Ĥ,":3352,"à§°à¦¸":3353,"Ġà¦¨à¦¬à¦®":3354,"Ġà¦ļà¦Łà¦ªà¦Ł":3355,"Ġà¦ĸà¦¸à¦¡":3356,"Ġy":3357,"à¦²à¦§":3358,"à¦ªà¦¬à¦¯":3359,"Ġà¦¹à¦ľà¦®":3360,"à¦§à¦°à¦£":3361,"à¦¥à¦¯":3362,"Ġà¦ļà¦Łà¦ķ":3363,"Ġà¦²à¦ĵ":3364,"Ġà¦ĸà¦¨à¦¨":3365,"à¦°à¦£à¦®à¦¯":3366,"Ġà¦Łà¦¹à¦²":3367,"Ġà¦ĩà¦īà¦Ł":3368,"à¦ĺà¦Ĺ":3369,"à¦ĺà§ľ":3370,"à¦°à¦®à¦¥":3371,"Ġà¦¬à¦°à¦¦":3372,"Ġà¦ľà¦²à¦§à¦°":3373,"à¦ªà¦¦à¦¬":3374,"Ġà¦ħà¦ķà¦¸":3375,"Ġà¦ķà¦ĸà¦¨à¦ĵà¦ĩ":3376,"à¦ķà¦ĸà¦¨à¦ĵ":3377,"à¦¬à§Łà¦¸":3378,"à¦Ĭà¦°":3379,"ip":3380,"iv":3381,"Ø§":3382,"ĠE":3383,"ĠL":3384,"à§ģ'":3385,"à¦®à¦®à¦¯":3386,"à¦®à¦ªà¦¤":3387,"Ġà¦ķà¦ĩà¦°":3388,"Ġà¦¸à¦ľà¦¨":3389,"Ġà¦®à¦°à¦²":3390,"à¦¶à¦Ńà¦ķ":3391,"à¦ĵà¦ł":3392,"à¦Ńà¦²":3393,"Ġà¦ĵà¦²à¦Ł":3394,"à§İà¦¸à¦²":3395,"Ġà¦¸à¦¬à¦Ĺ":3396,"Ġà¦Łà¦®à¦Ł":3397,"âĢ¦.":3398,"Ġà¦īà§İà¦ªà¦¨":3399,"à§§à§ª":3400,"à¦¨à¦¸à¦ªà¦Ł":3401,"Ġà¦Ĺà¦£à¦ªà¦°":3402,"Ġà¦Ńà¦°à¦¤à¦¬":3403,"à¦°à¦ĺà¦°":3404,"à¦¨à¦§":3405,"à¦¨à¦°à¦®":3406,"à¦²à¦ķà¦Ł":3407,"Ġà¦¬à¦¦à¦°":3408,"Ġà¦¸à§ľà¦ķ":3409,"Ġà¦Ĩà¦ľà¦¨":3410,"Ġà¦¦à¦ĸ":3411,"Ġà¦¦à§ľ":3412,"à¦¶à¦§à¦°":3413,"Ġà¦ħà¦°à¦¨":3414,"à¦·à¦°à¦£":3415,"à¦¹à¦°à¦¨":3416,"à¦¥à¦Ń":3417,"à¦Ńà¦°à¦¯":3418,"à¦¼à¦¿âĢĶ":3419,"à¦ľà¦¨à¦ĵ":3420,"à¦ıà¦°à¦ªà¦°":3421,"Ġà¦Łà¦¨":3422,"Ġà¦Ĩà¦ľà¦®à¦²":3423,"à¦ħà¦¸à¦®":3424,"à¦°à¦¥à¦®à¦¦":3425,"à¦¼à§ģ-":3426,"à§¨à§¦":3427,"Ġà¦Łà¦²à¦Łà¦²":3428,"âĢķâĢķ":3429,"ab":3430,"à§ĩ.":3431,"à¦¨à¦ªà¦¤":3432,"à¦²à¦§à¦¨":3433,"à¦¯à¦¦à¦²":3434,"à¦¬à§°":3435,"Ġà¦¸à¦Ł":3436,"à¦¦à¦ĺà¦°":3437,"Ġà¦¨à¦°à¦°":3438,"Ġà¦¦à¦¹":3439,"Ġà¦¹à¦ľ":3440,"Ġà¦ľà¦²à¦ķà¦£":3441,"Ġà¦ıà¦ķà¦®à¦¤":3442,"Ġà¦§à§ľ":3443,"Ġà¦¸à¦®à¦¬à¦¯":3444,"à¦¬à¦¨à¦¦à¦°":3445,"à¦°à¦£à¦¬":3446,"à¦īà¦¹":3447,"Ġà¦¸à¦¬à¦¥":3448,"à¦¬à¦ªà¦¤":3449,"Ġà¦ħà¦¬à¦®":3450,"Ġà¦ħà¦ªà¦¸":3451,"à¦¼à§ĩà¥¤âĢĿ":3452,"Ġà¦Ĩà¦§à¦ĺà¦£":3453,"Ġà§§à§ª":3454,"Ġà¦¦à¦«à¦¤à¦°":3455,"rom":3456,"Ġv":3457,"à¦¨à¦ľà¦¨à¦ķ":3458,"à¦¤à¦ķà¦¤":3459,"à¦¯à¦ªà¦°":3460,"à¦¯à¦§à¦°":3461,"à¦¬à¦īà¦¦":3462,"Ġà¦¸à¦ĩà¦¤":3463,"à¦ĸà¦ĵ":3464,"à¦§à¦Ĺà¦®":3465,"Ġà¦Ĺà¦®à¦¨":3466,"à¦£à¦¶à¦ķ":3467,"Ġà¦ĵà¦¤":3468,"Ġà¦«à¦²à¦ķ":3469,"Ġà¦§à¦ª":3470,"à¦ľà¦¨à¦®":3471,"à¦®à¦¤à¦¤":3472,"à¦ĩà¦¨à¦¸":3473,"à¦¦à§Łà¦ķ":3474,"Ġà¦¶à¦¤à¦¦à¦²":3475,"Ġà§§à§¯à§¬":3476,"Ġà¦Ĺà¦łà¦¨à¦®":3477,"Ġst":3478,"Ġà¦Ĩà¦ĩà¦¸à¦ķ":3479,"à¦Īà¦¶":3480,"à¦¨à¦¸à¦¨":3481,"à¦¨à¦ļà¦°":3482,"à¦¤à¦ļà¦°":3483,"à§ģ!âĢĿ":3484,"à¦¼âĢĶâĢľ":3485,"Ġà¦ķà¦®à¦¨":3486,"Ġà¦¬à¦°à¦®":3487,"à¦¦à¦§":3488,"Ġà¦Ńà¦ľà¦¨":3489,"Ġà¦°à¦£à¦ķ":3490,"à§ĥ-":3491,"Ġà¦īà¦¬":3492,"Ġà¦ĵà¦¸à¦®":3493,"Ġà¦¬à¦²à¦¯":3494,"Ġà¦ħà¦¨à¦Ń":3495,"ĠâĢĻ":3496,"Ġà¦®à¦¨à¦¤":3497,"à¦īà¦£":3498,"à¦°à¦ķà¦£":3499,"à¦°à¦¸à¦Ń":3500,"à¦¦à¦¯à¦¨":3501,"à¦¤à¦²à¦Ł":3502,"Ġà¦ªà¦¦à¦ķà¦°":3503,"Ġà¦¨à¦¬à¦ľà¦¨":3504,"æŃĵæŃĵæŃĵæŃĵ":3505,"Ġà¦¦à¦²à¦¬à¦¦":3506,"à¦¡à¦īà¦ĩà¦ļ":3507,"==":3508,"à¦ķà¦§à¦°":3509,"Ġà¦®à¦¸à¦²":3510,"à¦ľà¦ķà¦¤":3511,"à¦ĸà¦ªà¦¤":3512,"Ġà¦Ĺà¦ļ":3513,"à¦ĵà¦ĸ":3514,"à¦¾à¦ģ?":3515,"Ġà¦§à¦®à¦¨":3516,"Ġà¦§à¦¬à¦²":3517,"à¦°à¦£à¦ĩ":3518,"Ġà¦Łà¦¬":3519,"Ġà¦¬à¦¸à¦Ľ":3520,"Ġà¦ħà¦¸à¦¤":3521,"Ġà¦Ĩà¦¨à¦Ĺ":3522,"à¦Ĺà¦²à¦ª":3523,"à¦ıà¦ĩà¦Ł":3524,"à¦ľà¦²à¦Ń":3525,"Ġà¦īà¦²à¦Ļ":3526,"Ġà¦§à¦¨à¦¸à¦®":3527,"end":3528,"op":3529,"up":3530,"Ġon":3531,"à¦¬à¦§à¦°":3532,"Ġà¦ķà¦¶":3533,"à¦¸à¦ł":3534,"à¦ªà¦¬à¦¤":3535,"à¦ĩà¦ŀ":3536,"à¦ľà¦¬à¦¨":3537,"à¦Ĺà¦Ńà¦Ļ":3538,"Ġà¦§à¦ķà¦²":3539,"Ġà¦ĺà¦·à¦¤":3540,"à¦Ĩà¦¸à¦¨":3541,"à¦ĺà¦°à¦Ł":3542,"à¦·à¦£à¦®":3543,"à¦¤à¦¨à¦ķ":3544,"à¦ħà¦®à¦°":3545,"à¦Ĺà¦¤à¦®":3546,"Ġà¦ħà¦ªà¦Ľà¦¨":3547,"à¦¼à§ĭ-":3548,"à¦®à¦ķà¦¥":3549,"Ġà¦ħà¦ľà¦¯":3550,"Ġà¦¶à¦¤à¦ķà¦°":3551,"Ġà¦īà§İà¦¸à¦¬à¦®":3552,"à¦ķà¦Ľà¦Ł":3553,"ind":3554,"à¦ĭà¦¤":3555,"Ġà§¨à§¦à§¦":3556,"ht":3557,"ri":3558,"à¦¯à¦°à¦¶":3559,"à¦¯à¦ªà¦¥":3560,"Ġà¦ķà¦ľà¦¨":3561,"Ġà¦¸à¦°à¦®":3562,"à¦¦à¦®à§Ł":3563,"Ġà¦¹à¦ĩà¦Ľ":3564,"à¦¶à¦¤à¦²":3565,"à¦ĸà¦®à¦£":3566,"à¦ļà¦®à¦ķ":3567,"à¦¹à¦Ĺ":3568,"à¦¥à¦¬à¦¹":3569,"à§ĩà¥¤âĢĺ":3570,"Ġà¦ıà¦ķà¦²à¦¬":3571,"à¦¼à¦¾;":3572,"Ġà¦«à¦¸à¦ķ":3573,"Ġà¦ªà¦°à¦ª":3574,"à¦īà§İà¦¸":3575,"Ġà¦ķà¦¥à¦ķ":3576,"à¦·à¦£à¦Ĺ":3577,"à¦¨à¦¬à¦®à¦¨":3578,"à¦¨à¦¬à¦¸à¦Ń":3579,"à¦¶à¦¨à¦ķ":3580,"à¤¨":3581,"à§ĭ!âĢĻ":3582,"Ġà¦ħà¦¹à¦°à¦¹":3583,"à¦ĭà¦£":3584,"Ġà¦¨à§ľà¦¬à§ľ":3585,"Ġà§§à§¯à§¯à§¦":3586,"ĠÐ":3587,"à¦®à¦¥":3588,"Ġà¦ķà¦¨à¦Ł":3589,"Ġà¦ªà¦ª":3590,"à¦Ĺà¦°à¦®":3591,"Ġà¦¯à¦¤à¦¨":3592,"à§Łà¦Ń":3593,"Ġà¦Ĺà¦«":3594,"à¦ĵà¦ª":3595,"Ġà¦ĵà¦®à¦°":3596,"à¦Ĩà¦Ł":3597,"à¦°à¦®à¦ľ":3598,"Ġà¦īà¦¤à¦²":3599,"Ġà¦¦à¦²à¦Ł":3600,"?âĢĿâĢĶ":3601,"à¦ķà¦¶à¦ª":3602,"ism":3603,"Ġà¦®à¦Ĺà¦§":3604,"Ġà¦ķà¦¨à¦ķà¦¨":3605,"Ġà¦¬à¦ķà¦¬à¦ķ":3606,"ac":3607,"Ġan":3608,"à§ĩ'":3609,"à¦¨à¦ĺà¦°":3610,"à¦¤à¦®à¦¯":3611,"à¦¤à¦Ŀà¦°":3612,"à¦¯à¦¤à¦°":3613,"à§ĭâĢĿ":3614,"Ġà¦¤à¦¬à¦²":3615,"Ġà¦ħà¦Ĺà¦¤":3616,"à¦§à¦¨à¦¬":3617,"Ġà¦¶à¦Ł":3618,"Ġà¦ļà¦°à¦ķ":3619,"à¦Ļà¦ļ":3620,"Ġà¦®à¦¨à¦ĸ":3621,"à¦¼à¥¤à¥¤":3622,"à¦°à¦¦à¦ķ":3623,"Ġà¦¸à¦¹à¦ľà¦²à¦Ń":3624,"à¦ıà¦ĩà¦¬":3625,"Ġà¦Ĳà¦¤à¦°":3626,"à¦®à¦£à¦ķ":3627,"Ġà¦ĵà¦ĩà¦Ł":3628,"Ġà¦¹à¦°à¦·":3629,"Ġà¦¬à¦īà¦°":3630,"à¦Ŀà¦°à¦Ŀà¦°":3631,"à¤ķ":3632,"à¦ıà¦ĸà¦¨à¦ĵ":3633,"ore":3634,"Ġ--":3635,"à¦°à¦§à¦°":3636,"à¦¯à¦ĸ":3637,"à¦¯à¦¸à¦¨":3638,"à¦¯à¦ľà¦¨à¦ķ":3639,"à¦®à¦·":3640,"Ġà¦¸à§Ł":3641,"à¦ªà¦¦à¦°":3642,"Ġà¦¦à¦¨":3643,"à¦·à¦¤à¦¬":3644,"à¦§à¦¯":3645,"à¦ļà¦¤à¦²":3646,"à¦£à¦«":3647,"Ġà¦ľà¦¹à¦°":3648,"à¦Ļà¦ķ":3649,"Ġà¦«à¦¸":3650,"à¦°à¦£à§Łà¦¨":3651,"à¦¤à¦°à¦Ĺ":3652,"à¦Ĩà¦Ń":3653,"à¦ıà¦°à¦ĩ":3654,"Ġà¦ĩà¦ĵà¦°":3655,"à¦°à¦®à¦§":3656,"à¦ħà¦¤à¦²":3657,"Ġà¦ľà¦²à¦ĸ":3658,"à§ĩ---":3659,"Ġà¦¬à¦ĩà¦ķ":3660,"!âĢĿâĢĶ":3661,"à§°à¦®":3662,"à§§à§®":3663,"Ġà¦ĸà¦¬à¦°à¦¦":3664,"Ġà¦¦à¦¶à¦ľà¦¨":3665,"Ġà¦¯à¦ľà¦®":3666,"à¤²":3667,"à¦¯à¦ĸà¦¨à¦ĩ":3668,"Ġas":3669,"ÂłÂłÂłÂłÂłÂłÂłÂłÂłÂłÂłÂłÂłÂłÂłÂłÂł":3670,"Ġà¦ĸà¦Łà¦ĸà¦Ł":3671,"à¦¿à¦¾":3672,"à¦¨à¦®à¦¤":3673,"à¦ķà¦®à¦¯":3674,"à¦¯à¦Ŀ":3675,"à¦¼)":3676,"Ġà¦¬à¦Ĺ":3677,"Ġà¦¸à¦ļà¦°":3678,"à¦¸à¦¶":3679,"Ġà¦ªà¦łà¦¨":3680,"à¦¦à¦ĸ":3681,"à¦ľà¦ľ":3682,"à¦ľà¦ĸ":3683,"Ġà¦¤à¦°à¦£":3684,"à¦·à¦ķà¦¤":3685,"à¦ĵà¦®":3686,"Ġà¦ĸà¦ª":3687,"à¦°à¦¬à¦¸":3688,"Ġà¦¬à¦²à¦²à¦¬":3689,"à¦ħà¦¸à¦¹":3690,"Ġà¦ħà¦¸à¦Ļ":3691,"à¦ķà¦¤à¦ķ":3692,"à¦§à¦¨à¦ĩ":3693,"Ġà¦ľà¦®à¦¶":3694,"Ġà¦ħà¦ľà¦ª":3695,"Ġà¦ķà¦¤à¦ľà¦¨":3696,"Ġà¦¬à¦ĩà¦®":3697,"Ġà¦«à¦²à¦ª":3698,"à¦¤à¦®à¦¶":3699,"à§ĩ;-":3700,"à§°à¦¨":3701,"à¦°à¦Ĺà¦£":3702,"Ġà¦īà§ľà¦¤":3703,"ith":3704,"um":3705,"Ð¾":3706,"à¦¨à¦ľà¦°":3707,"à¦¨à¦ľà¦Ł":3708,"à¦¤à¦¸à¦®":3709,"à¦®à§İ":3710,"à¦®à¦ĵà¦¯":3711,"à¦®à¦¶à¦ķ":3712,"Ġà¦¬à§İà¦¸":3713,"Ġà¦®à§Ł":3714,"à¦ĸà¦¶":3715,"à¦ļà¦¦":3716,"à¦£à¦¬à¦°":3717,"Ġà¦ĸà¦¯":3718,"Ġà¦¸à¦®à¦Ń":3719,"à¦¬à¦¨à¦¸":3720,"à¦¤à¦°à¦ķà¦®":3721,"à¦ıà¦Ľ":3722,"Ġà¦¬à¦²à¦²à¦®":3723,"Ġà¦¡à¦ľà¦¨":3724,"Ġà¦¬à¦¨à¦¸":3725,"à¦¸à¦¬à¦ľ":3726,"à¦²à¦ķà¦§":3727,"à¦ıà¦ĩà¦ĸ":3728,"Ġà¦ªà¦¤à¦Ļ":3729,"à¦¬à¦¶à¦¤":3730,"Ġà¦ĭà¦Ĺà¦¬":3731,"Ġà¦ıà¦ķà¦ĩà¦¸à¦Ļ":3732,"à¦łà¦ķà¦ĸ":3733,"ant":3734,"ĠØ":3735,"à§ĩâĢĻà¥¤":3736,"à¦°à¦§à¦¨":3737,"à¦¤à¦ªà¦¨":3738,"à¦²à¦ªà¦¥":3739,"à¦ķà¦ļà¦ķ":3740,"Ġà¦¬à¦Ľ":3741,"Ġà¦Ĩà¦ĵà¦¤":3742,"Ġà¦ħà¦ĩ":3743,"Ġà¦Ĺà¦ª":3744,"Ġà¦Ĺà¦°à¦ľ":3745,"Ġà¦¶à¦²":3746,"Ġà¦°à¦¸à¦¨":3747,"à¦ĵà¦¬":3748,"à¦¤à¦°à¦Ń":3749,"à¦Ĩà¦°à¦ľ":3750,"Ġà¦¸à¦¬à¦¶":3751,"à¦¬à¦°à¦Ĺ":3752,"à¦ĺà¦Ľ":3753,"à¦¼,âĢĿ":3754,"à¦°à¦®à¦ķ":3755,"à¦°à¦¸à¦¹":3756,"à¦Ĺà¦²à¦¬":3757,"à¦¯à¦¤à¦ķ":3758,"à¦¯à¦¤à¦ĩ":3759,"à¦°à¦²à¦¸":3760,"Ġà¦ķà¦¬à¦ľ":3761,"Ġà¦ĩà¦¨à¦Ń":3762,"Ġà¦¸à¦®à§Łà¦ĩ":3763,"ers":3764,"à¦Ĩà¦§à¦Ł":3765,"Ġne":3766,"ĠÑģ":3767,"ke":3768,"à¦¤à¦ªà¦¸":3769,"Ġà¦¸à¦°à¦¤":3770,"à¥¤\"":3771,"à¦¸à¦ĵà¦¯":3772,"Ġà¦Ĩà¦ĩà¦Ł":3773,"à¦Łà¦ķà¦°":3774,"Ġà¦®à¦ĵà¦²":3775,"à¦¡à¦ķà¦°":3776,"à¦¥à¦ĵ":3777,"Ġà¦ľà¦ĺà¦¨":3778,"Ġà¦ıà¦ķà¦§à¦°à¦¨":3779,"à¦¬à¦¨à¦¬à¦¤":3780,"à¦®à¦¨à¦¨":3781,"à¦Ĩà¦°à¦¬":3782,"à¦ıà¦¤à¦¦":3783,"Ġà¦Ĩà¦¸à¦Ĺà¦°":3784,"Ġà¦¡à¦¬à¦²":3785,"à¦·à¦£à¦ĵ":3786,"à¦¦à¦°à¦Ł":3787,"à¦¿à¦ĤâĢĻ":3788,"à¦ľà¦²à¦¦":3789,"Ġà¦¦à¦²à¦Ĺà¦¤":3790,"à§«à§¦":3791,"à¦ķà¦¸à¦ľ":3792,"res":3793,"Ġà¦ľà¦¨à¦¸à¦ļ":3794,"Ġha":3795,"ill":3796,"ÂŃÂŃÂŃÂŃ":3797,"og":3798,"ºçľ":3799,"Ġ1":3800,"à¦²à¦ķà¦°":3801,"Ġà¦Ĩà¦ªà¦¦":3802,"Ġà¦Ĩà¦īà¦²":3803,"à¦Łà¦ļ":3804,"Ġà¦®à¦ľà¦²":3805,"Ġà¦¤à§ľ":3806,"Ġà¦ļà¦ªà¦²":3807,"Ġà¦Ńà¦¬à¦¤":3808,"à§ĩà¥¤\"":3809,"à¦Ńà¦Ĺà¦¬":3810,"Ġà¦Ĩà¦®à¦¤":3811,"Ġà¦¥à¦¤":3812,"à¦«à¦®":3813,"à¦«à§ľ":3814,"à¦īà§İà¦¸à¦°":3815,"Ġà¦ĩà¦·":3816,"Ġà¦ĩà¦¨à¦Ł":3817,"à¦ħà¦¯":3818,"à¦¨à¦¬à¦ķà¦²":3819,"Ġà¦ħà¦¤à¦Ł":3820,"Ġà¦Ĺà¦Ńà¦°":3821,"Ġà¦ıà¦¸à¦¬à¦ĩ":3822,"Ġà¦ļà¦®à¦ķà¦ª":3823,"à¦ľà¦®à¦¹à¦²":3824,"à§©à§¦":3825,"Ġà¦Ĩà§ľà¦®":3826,"à¦¾à¦ĥ!":3827,"à¦¾âĢĿâĢĶ":3828,"Ġà¦Ķà¦ľ":3829,"Ġà¦¸à¦°à¦¸à¦¤":3830,"Ġby":3831,"à§ĩâĢĿâĢĶ":3832,"à¦ķà¦ľà¦®à¦ķ":3833,"ĠĠĠĠĠĠĠĠ":3834,"Ġà¦Łà¦®à¦Łà¦®":3835,"·çľ":3836,"à¸":3837,"Ġun":3838,"à¦²à¦¬à¦°":3839,"à¦²à¦ľà¦¯":3840,"à¦ķà¦¸à¦®":3841,"à¦¬à¦¦à¦°":3842,"Ġà¦¸à¦ĵà¦Ĺ":3843,"à¦¸à¦°à¦¸":3844,"Ġà¦¨à¦Ĺà¦£":3845,"Ġà¦¨à¦Ĺà¦¦":3846,"Ġà¦ıà¦¹":3847,"Ġà¦ķà¦°à¦¨":3848,"à§ĩà¥¤'":3849,"Ġà¦īà¦¸à¦ķ":3850,"à§ľà¦®":3851,"Ġà¦ĩà§Ł":3852,"Ġà¦ĩà¦®à¦ª":3853,"à¦¬à¦ªà¦ķ":3854,"Ġà¦¬à¦¨à¦®":3855,"Ġà¦ªà¦¥à¦¹":3856,"à¦¤à¦¬à¦¬":3857,"Ġà¦īà¦ªà¦¡":3858,"Ġà¦ħà¦§à¦¸":3859,"Ġà¦ħà¦ľà§Ł":3860,"à¦ªà¦¦à¦¸":3861,"Ġà¥¤à¥¤":3862,"Ġà¦ĺà¦¨à¦ĺà¦¨":3863,"à¦Ĺà¦¬à¦Ĺ":3864,"à§«à§Ń":3865,"Ġà¦¶à¦¹à¦°à¦ķ":3866,"Ġà§§à§¯à§¨":3867,"Ġà¦Ĩà¦«à¦ľ":3868,"est":3869,"Ġà¦¨à¦ľà¦°à¦¦":3870,"ºçľºçľ":3871,"ld":3872,"à¦¨à¦§à¦°":3873,"à¦²à¦ĵà¦¯":3874,"à¦²à¦®à¦£":3875,"à¦¯à¦¨à¦¤":3876,"à§ģà§į":3877,"à¦¬à¦ĩà¦¯":3878,"Ġà¦¸à¦°à¦¬":3879,"Ġà¦¸à¦ĵà¦¯":3880,"à¥ĩ":3881,"Ġà¦Ĩà¦¹à¦¸":3882,"Ġà¦¹à¦«à¦®":3883,"Ġà¦ıà¦¨à¦ķ":3884,"Ġà¦ıà¦¤à¦¬à¦¡":3885,"à¦ļà¦²à¦¬":3886,"à¦¹à¦ľ":3887,"Ġà¦Ĩà¦®à¦¬":3888,"à¦łà¦¹":3889,"à¦°à¦¤à¦¬":3890,"à¦¤à¦°à¦«":3891,"à¦°à¦¬à¦Ĺ":3892,"Ġà¦¡à¦¯":3893,"Ġà¦Ŀà¦°à¦¤":3894,"Ġà¦¢à¦Ļ":3895,"Ġà¦ħà¦¸à¦¹à¦¯":3896,"à¦¬à¦¤à¦®":3897,"à¦¯à¦¤à¦¦":3898,"Ġà¦ıà¦¤à¦ĸ":3899,"à¦ªà¦¦à¦ª":3900,"à¦¬à¦¸à¦¤":3901,"à¦·à¦ķà¦ķ":3902,"à¦¤à¦ķà¦°à¦£":3903,"Ġà¦Ĩà¦¦à¦¤":3904,"à¦¾âĢĻâĢĶ":3905,"âĢĵâĢĵâĢĵâĢĵ":3906,"Ġà¦¸à¦«à¦Łà¦ĵà¦¯":3907,"Ġyou":3908,"·çľ·çľ":3909,"la":3910,"nt":3911,"à¦¤à§ľ":3912,"à¦ķà¦Ŀ":3913,"à¦¬à¦ĸ":3914,"à¦¼âĢĿ":3915,"à¦®à¦®à¦¨":3916,"Ġà¦¸à¦Ĺ":3917,"à¥Ģ":3918,"Ġà¦Ĩà§Łà¦¤":3919,"Ġà¦Ĩà¦ĵà¦¡":3920,"à¦¦à¦ľ":3921,"à¦¦à¦°à¦ķ":3922,"Ġà¦Ĺà¦¤à¦°":3923,"Ġà¦¶à¦°à¦¦":3924,"Ġà¦ľà¦ĸà¦®":3925,"Ġà¦ıà¦ķà¦¹":3926,"à¦łà¦Ĺ":3927,"Ġà¦īà¦¤à¦°":3928,"Ġà¦²à¦¹":3929,"âĢĶâĢĻ":3930,"à¦¼à¦¿?":3931,"à¦¿à¥¤à¥¤":3932,"à¦®à¦¨à¦ķ":3933,"à¦ŀà¦ª":3934,"à¦¿,âĢĻ":3935,"à¦ıà¦®à¦¨à¦ĩ":3936,"Ġà¦¬à¦²à¦²à¦Ń":3937,"Ġà¦ĩà¦¬":3938,"Ġà¦ĩà¦¤à¦°":3939,"à¦ħà¦§à¦°":3940,"Ġà¦Ĩà¦Ĺà¦¤":3941,"à¦²à¦ķà¦¦":3942,"à¦ªà¦¤à¦Ļ":3943,"Ġà¦ĭà¦ľ":3944,"à¦ķà¦ķà¦¥":3945,"Ġà¦Ńà§Łà¦ķ":3946,"à¦®à¦Ĺà¦ŀ":3947,"Ġà¦Ĺà¦®à¦Ĺà¦®":3948,"Ġà§¨à§«":3949,"Ġman":3950,"Ġà¦ªà¦Ļà¦ķ":3951,"Ġà§«à§¦":3952,"Ġà¦Ŀà¦Łà¦ªà¦Ł":3953,"ÑĨ":3954,"Ġk":3955,"à¦®à¦°à¦¤":3956,"Ġà¦¬à¦°à¦¬":3957,"Ġà¦¸à¦°à¦£":3958,"à¦ĩà¦¸à¦Ļ":3959,"à¦Ľà¦ĩ":3960,"Ġà¦¤à§İ":3961,"à¦¶à¦ĸ":3962,"âĢī":3963,"à¦¡à¦ļ":3964,"Ġà¦¯à¦®à¦ľ":3965,"à¦¥à¦°à¦Ł":3966,"Ġà¦ľà¦¬à¦°":3967,"Ġà¦ľà¦®à¦ķ":3968,"Ġà¦°à¦Ĺ":3969,"Ġà¦ĸà¦°à¦Ĺ":3970,"à¦¼à¦¿!":3971,"à¦Ĩà¦¸à¦¬":3972,"âĢĿ-":3973,"Ġà¦Łà¦Ĺà¦¬à¦Ĺ":3974,"Ġà¦ľà¦¨à¦®à¦¤":3975,"à¦ĥâĢĵ":3976,"Ġà¦Ĩà¦Ĺà¦¸":3977,"âĢĮà§į":3978,"Ġà¦īà§ľà¦¨":3979,"Ġà§¨à§¨":3980,"Ġor":3981,"Ġà¦Ĩà¦ĩà¦¶":3982,"ich":3983,"Ġà§©à§¦":3984,"ass":3985,"Ð°":3986,"à¦°à¦ļà¦°":3987,"à¦¯à¦®à¦£":3988,"à¦®à¦°à¦¨":3989,"à¦®à¦ļà¦ķ":3990,"Ġà¦¸à¦¦à¦¯":3991,"Ġà¦Ĩà¦ĩà¦ľ":3992,"à¦¦à¦¬à¦°":3993,"à¦Łà¦°à¦Ĺ":3994,"Ġà¦®à¦ĩ":3995,"à¦ĩà¦ħà¦ķ":3996,"Ġà¦¹à¦ĩà¦¨":3997,"Ġà¦¤à§İà¦ª":3998,"à¦ļà¦ķà¦°":3999,"à¦¥à¦¶":4000,"Ġà¦¶à¦°à¦®":4001,"Ġà¦°à¦¸à¦¬":4002,"à¦Ńà¦®":4003,"Ġà¦īà¦ĩà¦ķ":4004,"Ġà¦ĸà¦Łà¦ķ":4005,"à¦īà¦Ńà¦¯":4006,"à¦ıà¦¤à¦ķ":4007,"Ġà¦¬à¦²à¦²à¦«":4008,"à§Ī-":4009,"à¦ħà¦·":4010,"à¦¸à¦¬à¦ļ":4011,"à¦¨à¦¬à¦¹":4012,"à¦§à¦¨à¦¸à¦Ļ":4013,"Ġà¦ķà¦¤à¦ķà¦Ł":4014,"à¦ªà¦¥à¦Ĺ":4015,"Ġà¦ĵà¦ĩà¦°à¦ķà¦®":4016,"à¦ľà¦²à¦°":4017,"à¦¢à¦²":4018,"Ġà¦ħà¦²à¦¸à¦¤":4019,"à¦Ĩà¦ľà¦ĩ":4020,"à¦īà¦²à¦¦":4021,"à¦ľà¦¸à¦ľ":4022,"à¦®à§Łà¦ķà¦°":4023,"Ġà¦Ńà¦Ĺà¦¬à¦¤":4024,"''":4025,"Ġhe":4026,"à¦¨à¦ĺ":4027,"à¦¤à¦¤à¦°":4028,"à¦Łà¦¯":4029,"à¦Ľà¦Ľ":4030,"à¦Ľà¦²à¦¤":4031,"Ġà¦ħà¦¤à¦°":4032,"à¦·à¦ªà¦¥":4033,"à¦§à¦ļ":4034,"à¦§à¦¬à¦¦":4035,"à¦¡à¦ľ":4036,"à¦¹à¦¶":4037,"à¦¥à¦¦":4038,"à¦łà¦Ń":4039,"Ġà¦īà¦ĩà¦¶":4040,"à¦¬à¦¨à¦ªà¦¥":4041,"âĢĻ!":4042,"Ġà¦ĩà¦Ľ":4043,"Ġà¦Ŀà¦ª":4044,"à¦ħà¦Ł":4045,"Ġà¦Ĺà¦²à¦¤":4046,"à¦ķà¦Łà¦¬à¦°":4047,"Ġà¦ľà¦²à¦Ľà¦¬":4048,"à¦°à¦¹à¦¨":4049,"à¦¨à¦ĵà¦®à¦¤":4050,"à¦°à¦¦à¦¤":4051,"à¦ıà¦ķà¦®":4052,"Ġà¦¬à¦ĩà¦ĸ":4053,"à¦¤à¦ķà¦¡":4054,"à¦°à¦ļà¦²à¦¨":4055,"Ġà¦¬à¦Łà¦¤à¦²":4056,"Ġà§§à§¯à§©":4057,"art":4058,"se":4059,"ĠW":4060,"Ġ__":4061,"à¦¤à¦¤à¦¨":4062,"à¦ķà¦Ńà¦°":4063,"à¦¬à¦ľà¦Ĺà§İ":4064,"à§ĭà¦ĥ":4065,"Ġà¦¸à¦²à¦ľ":4066,"Ġà¦¨à¦¬à¦¨":4067,"Ġà¦¨à¦°à¦¨":4068,"Ġà¦®à¦Ł":4069,"à¦ĩà¦ıà¦°":4070,"Ġà¦¦à¦ªà¦¦à¦ª":4071,"Ġà¦ıà¦¨à¦°":4072,"à¦ĸà§ľ":4073,"à¦¡à¦¹":4074,"à¦ļà¦£":4075,"à¦£à¦ļà¦¨":4076,"à¦£à¦¸à¦®":4077,"Ġà¦Ńà¦°à¦²":4078,"Ġà¦īà¦¸":4079,"Ġà¦ĸà¦¤à¦®":4080,"à¦°à¦¤à¦¤":4081,"Ġà¦®à¦¨à¦ĵ":4082,"à¦«à¦ª":4083,"Ġà¦ĩà¦Ń":4084,"à¦¤à¦¨à¦ĩ":4085,"Ġà¦ªà¦¥à¦ĺ":4086,"Ġà¦ľà¦²à¦°à¦Ļ":4087,"Ġà¦īà¦ªà¦ªà¦¤":4088,"à¦¨à¦ĵà¦ķ":4089,"Ġà¦ħà¦ªà¦¦":4090,"Ġà¦¬à¦Ľà¦°à¦ĸ":4091,"Ġà¦¬à¦ĩà¦ªà¦¤":4092,"à¦·à¦¤à¦Ĺ":4093,"à¦¤à¦ķà¦£":4094,"à¦¶à¦ķà¦¦":4095,"Ġà¦īà¦ªà¦°à¦¨":4096,"à¦°à¦ľà¦¨à¦¨":4097,"à¦¥à¦°à¦Ĺ":4098,"Ġà¦¸à¦¹à¦ľà¦Ń":4099,"à¦ĩà¦ľà¦¡":4100,"Ġà§¨à§ª":4101,"ate":4102,"Ġare":4103,"ast":4104,"ĠÑģÑĨ":4105,"The":4106,"ere":4107,"Ðµ":4108,"à§ĩ...":4109,"à¦¨à¦ķà¦²":4110,"à¦¤à¦®à¦¨":4111,"à¦¤à¦ķà¦°":4112,"à¦¤à¦¤à¦®":4113,"à¦ķà¦¢":4114,"à¥¤(":4115,"à§Ģ:":4116,"à¦ľà¦²à¦¬":4117,"Ġà¦¤à¦¤à¦¬":4118,"à¦¶à¦ľà¦¨":4119,"à¦¶à¦°à¦ķ":4120,"Ġà¦ħà¦¶à¦¨":4121,"Ġà¦ħà¦ĺà¦Łà¦¨":4122,"à¦¹à¦°à¦ķ":4123,"à¦£à¦Ńà¦°":4124,"Ġà¦¶à¦°à¦¬à¦¤":4125,"à¦Ńà¦¤":4126,"à¦Ńà¦§":4127,"à¦¬à¦¨à¦ĵ":4128,"à¦ªà¦°à¦¬":4129,"à¦Ĩà¦¬à¦°":4130,"à¦ĺà¦Łà¦ķ":4131,"à¦·à¦£à¦ľà¦¨":4132,"Ġà¦Ĺà¦²à¦Ĺà¦²":4133,"à¦¦à¦°à¦¦":4134,"à¦®à¦¤à¦²":4135,"à¦°à¦¹à¦¸à¦¨":4136,"à¦¾âĢĶâĢĺ":4137,"à¦¦à§Łà¦Ł":4138,"Ġà¦®à¦°à¦Ľ":4139,"à§ģà¦ĥà¥¤":4140,"à¦ħà¦¨à¦²":4141,"à¦ªà¦ķà¦Ń":4142,"à¦¬à¦ķà¦¥":4143,"Ġ(âĢĺ":4144,"ont":4145,"à¦¯à¦¶à¦¸":4146,"Ġà¦ıà¦ĩà¦°à¦ķà¦®à¦ĩ":4147,"Ġà¦ªà¦°à¦ªà¦°à¦ĩ":4148,"pp":4149,"qu":4150,"Ġr":4151,"à¦¨à¦¬à¦ª":4152,"à¦¤à¦ļà¦ķ":4153,"à¦²à¦ŀ":4154,"à¦¯à¦ªà¦¨":4155,"à¦¯à¦Łà¦¨":4156,"à¦¼à¦ĥà¥¤":4157,"Ġà¦¬à¦ļ":4158,"Ġà¦¸à¦Ĺà¦°":4159,"à¦¸à¦¨à¦¬":4160,"à¦¦à¦ļ":4161,"Ġà¦¨à¦ª":4162,"Ġà¦¨à¦²à¦ķ":4163,"Ġà¦®à§Łà¦¨":4164,"à¦ĩà¦ī":4165,"à¦Ľà¦¸":4166,"à¦ľà¦ļ":4167,"Ġà¦¹à¦°à¦®":4168,"à¦¶à¦®à¦¯":4169,"à¦·à¦¸à¦¦":4170,"à¦¡à¦ĵ":4171,"à¦¹à¦ĵ":4172,"à§Łà¦¤à¦®":4173,"à¦£à¦ķà¦°":4174,"Ġà¦¶à§Łà¦¤":4175,"à¦¾à¦ģ!":4176,"Ġà¦ĵà¦¬":4177,"à¦ªà¦°à¦¸":4178,"Ġà¦Ĩà¦²à¦¬":4179,"à¦°à¦¬à¦®à§Ł":4180,"à§Įà¥¤":4181,"à¦°à¦®à¦ª":4182,"Ġà¦ªà¦¥à¦Ĺ":4183,"à¦°à¦ľà¦²":4184,"Ġà¦īà§İà¦«":4185,"à¦ıà¦ķà¦¸à¦®à¦¯":4186,"à§įâĢĮ!":4187,"à¦¬à¦¶à¦°":4188,"Ġà¦¸à¦®à§Łà¦Ł":4189,"----":4190,"à¦·à§Łà¦Ĺ":4191,"à§ĩâĢĻ,":4192,"Ġse":4193,"lect":4194,"Ġà§§à§¯à§ªà§Ń":4195,"10":4196,"hing":4197,"ia":4198,"Ġ[":4199,"à¦®à¦¶à¦²":4200,"Ġà¦ķà¦ĵ":4201,"Ġà¦ķà¦²à¦¨":4202,"à¦¸à¦°à¦¤":4203,"Ġà¦ªà§Ł":4204,"Ġà¦ªà¦ļà¦¨":4205,"à¦¦à¦®à¦¸":4206,"Ġà¦¤à¦¨à¦¯":4207,"à¦¶à¦®à¦¨":4208,"à¦¼à§ĩâĢ¦":4209,"âĢĲ":4210,"à¦ļà¦²à¦¨":4211,"à§Łà¦ªà¦°":4212,"à¦¥à¦ªà¦¤":4213,"à¦łà¦ķà¦¦":4214,"Ġà¦īà¦Ł":4215,"Ġà¦Ĩà¦°à¦¨":4216,"à¦ŀà¦ķ":4217,"à¦¤à¦°à¦®":4218,"à¦¤à¦°à¦¦":4219,"à¦Ĩà¦īà¦Ł":4220,"âĢĿ!":4221,"Ġà¦¸à¦¬à¦¦":4222,"Ġà¦ķà¦¥à¦¨":4223,"Ġà¦Ŀà¦²":4224,"à¦ħà¦ªà¦®":4225,"Ġà¦¬à¦¨à¦ľ":4226,"à¦²à¦ķà¦ķ":4227,"Ġà¦īà¦ªà¦®à¦¹":4228,"à¦°à¦¶à¦®":4229,"à¦°à¦¦à§Ł":4230,"Ġà¦ªà¦¦à¦¤à¦²":4231,"Ġà¦ĩà¦¨à¦²":4232,"à¦Ĺà¦ľà¦Ĺ":4233,"Ġà¦ĭà¦ķ":4234,"Ġà¦¬à§ľà¦¦":4235,"Ġtr":4236,"Ġwith":4237,"ÂłÂłÂłÂłÂłÂłÂłÂłÂłÂłÂłÂłÂłÂłÂłÂłÂłÂł":4238,"Ġà§§à§¦à§¦":4239,"ĠThe":4240,"Ġhave":4241,"ge":4242,"ãģ":4243,"ĠO":4244,"Ġì":4245,"à§įâĢĻ":4246,"à¦¤à¦°à¦¤":4247,"à¦²à¦ļà¦°":4248,"à¦¬à¦ļà¦ķ":4249,"à¦®à¦°à¦®":4250,"Ġà¦¸à¦¶à¦¬":4251,"à¥¤âĢ¦":4252,"Ġà¦ªà¦ľ":4253,"Ġà¦Ĩà¦Łà¦ª":4254,"à¦Łà¦ľ":4255,"à¦Łà¦¶":4256,"à¦Łà¦ķà¦²":4257,"à¦ĩà¦Ļ":4258,"Ġà¦ıà¦°à¦®à¦§":4259,"Ġà¦ħà¦¹à¦°":4260,"à¦§à¦§à¦°":4261,"à¦¹à¦ļ":4262,"à¦¹à¦¨à¦ķ":4263,"à¦£à¦²":4264,"à¦£à¦¬à¦¦":4265,"Ġà¦ľà¦Łà¦²":4266,"Ġà¦Ľà¦®":4267,"à¦łà¦®":4268,"à¦łà¦Ĺà¦¡":4269,"Ġà¦¥à¦ķ":4270,"Ġà¦¬à¦²à§Ł":4271,"à¦¬à¦¨à¦ª":4272,"à§ľà¦Ŀ":4273,"à¦ŀà¦¬à¦²":4274,"à¦¤à¦°à¦ľ":4275,"à¦«à¦¸à¦²":4276,"à¦°à¦¬à¦ŀ":4277,"à¦Ĩà¦·":4278,"à¦Ĩà¦¸à¦Ľ":4279,"Ġà¦ªà¦¥à¦Ń":4280,"à¦¯à¦¬à¦ĩ":4281,"Ġà¦ľà¦²à¦ĵ":4282,"à¦¹à¦¸à¦ĩ":4283,"Ġà¦īà¦ªà¦Ĺ":4284,"à¦²à¦¬à¦§":4285,"à¦ĩà¦¨à¦®":4286,"Ġà¦ķà¦®à¦ĩ":4287,"Ġà¦¨à§Łà¦¤":4288,"à§¨à§Ń":4289,"Ġà§§à§¬":4290,"Ġà¦¬à¦īà§Ł":4291,"Ġà¦¬à¦īà¦ł":4292,"à¦¨à¦Ńà¦Ļ":4293,"à¤¯":4294,"Ġà¦¹à¦ĩà¦¹à¦ĩ":4295,"à¦·à§Łà¦Ł":4296,"Ġà¦Ĩà¦ĩà¦¨à¦ľ":4297,"Ġà¦Ĭà¦¨":4298,"Ġà¦ıà¦ķà¦ªà¦²à¦ķ":4299,"Ġcom":4300,"Ġme":4301,"Ġde":4302,"Ġà§§à§§":4303,"Ġà§§à§©à§§à§Ń":4304,"Ġex":4305,"********":4306,",âĢĵ":4307,"pt":4308,"Ø±":4309,"ĠF":4310,"à¦¾à¥¥":4311,"à§ģ!âĢĻ":4312,"à¦¬à¦ªà¦°":4313,"à¦¬à¦ķà¦²":4314,"Ġà¦¸à¦ļà¦ķ":4315,"Ġà¦®à¦ļ":4316,"à¦ĸà¦ľ":4317,"à¦ĸà¦§":4318,"à¦¹à¦¬à¦§":4319,"Ġà¦ıà¦ķà¦ķà¦¥":4320,"Ġà¦ĵà¦¤à¦ª":4321,"Ġà¦ªà¦°à¦ĸ":4322,"à¦īà¦²à¦ķ":4323,"à¦ıà¦ª":4324,"Ġà¦¸à¦¬à¦ķà¦Ł":4325,"Ġà¦¸à¦¬à¦°à¦ķà¦®":4326,"à¦¬à¦°à¦¦":4327,"Ġà¦ħà¦¬à¦¤à¦°à¦£":4328,"Ġà¦¬à¦¨à¦²à¦¤":4329,"Ġà¦Ĺà¦²à¦Ľ":4330,"Ġà¦īà¦¦à¦°":4331,"Ġà¦ľà¦²à¦Ľ":4332,"à¦®à¦²à¦¬":4333,"à¦ļà¦²à¦Ł":4334,"à¦¸à¦¨à¦ķ":4335,"Ġà¦ľà¦®à¦¬":4336,"Ġà¦ķà¦¬à¦ļ":4337,"Ġà¦ķà¦®à¦ªà¦ķ":4338,"à¦ıà¦ķà¦¦à¦®":4339,"Ġà¦¬à¦ĩà¦¬":4340,"Ġà¦ĵà¦ĩà¦¸à¦¬":4341,"à¦¬à¦ķà¦ķ":4342,"à§Łà¦¨à¦¯":4343,"à¦ķà¦¦à¦®":4344,"Ġà¦īà§ľà¦Ľ":4345,"Ġà¦ĸà¦¸à§ľ":4346,"ous":4347,"Ġà¦¸à¦«à¦Łà¦ĵà§Ł":4348,"ie":4349,"à¦°à§İ":4350,"à¦¨à¦ķà¦°":4351,"à¦¨à¦®à¦Ĺ":4352,"à¦ķà¦¤à¦¬":4353,"Ġà¦ķà¦ŀ":4354,"Ġà¦ķà¦¤à¦°à¦ķà¦®":4355,"à¦Łà¦ľà¦¨":4356,"Ġà¦®à¦²à¦¯":4357,"à¦ĩà¦¸à¦²":4358,"à¦ľà¦®à¦£":4359,"Ġà¦¹à¦¡":4360,"à¦Ĺà¦®à¦¯":4361,"Ġà¦Ĺà¦¤à¦¬":4362,"à¦¾à¦ģà¥¤âĢĻ":4363,"Ġà¦¬à¦²à¦¦":4364,"Ġà¦ħà¦¨à¦¤":4365,"à¦¬à¦¨à¦¡":4366,"à¦¬à¦¨à¦ļà¦ķ":4367,"à¦ŀà¦¦":4368,"à¦ŀà¦§à¦°":4369,"à¦īà¦¦à¦¯":4370,"à¦ıà¦°à¦ķà¦®":4371,"Ġà¦ľà¦¨à¦¶":4372,"ĠâĢĺâĢĺ":4373,"Ġà¦ķà¦°à¦¤à¦²":4374,"à¦¨à¦¤à¦¤":4375,"à¦ĥ-":4376,"à¦ħà¦²à¦¸":4377,"à¦°à¦¸à¦¤":4378,"Ġà¦Ĩà¦¶à¦«":4379,"Ġà¦ľà¦²à¦Ń":4380,"à¦¿à¦ĤâĢĶ":4381,"à¦°à¦¹à¦¶":4382,"à¦°à¦¹à¦°à¦Ĺ":4383,"à¦ļà¦¨à¦ķ":4384,"à¦²à¦¨à¦¸":4385,"à¦ĩà¦²à¦¸":4386,"Ġà¦ħà¦Ĺà¦Ń":4387,"à¦ľà¦²à¦§":4388,"Ġà¦¦à¦²à¦¬à¦²":4389,"à¦°à¦Ĺà¦®":4390,"à§¨à§§":4391,"à§¨à§¨":4392,"à§¨à§«":4393,"Ġà¦°à¦ĵà¦¶à¦¨à¦¦":4394,"ong":4395,"ence":4396,"Ġpro":4397,"à¦Ĺà¦łà¦¨à¦Ĺ":4398,"ment":4399,"oci":4400,"sel":4401,"ya":4402,"ÑĢ":4403,"ĠÙ":4404,"à¦¾/":4405,"à§ĩà§ĩ":4406,"à¦°à¦Ĺà¦²":4407,"à¦¤à¦¦à¦¨":4408,"à¦²à¦ľà¦²":4409,"à¦®à¦¤à¦¨":4410,"à¦®à¦¦à¦°":4411,"Ġà¦Ĩà¦ī":4412,"à¦¦à¦ĺ":4413,"à¦Łà¦¡":4414,"Ġà¦®à¦°à¦¦":4415,"Ġà¦®à¦Ĺà¦¨":4416,"à¦ľà¦ĺ":4417,"à¦ľà¦§à¦°":4418,"Ġà¦ħà¦¤à¦¨":4419,"Ġà¦ħà¦¹à¦®":4420,"à¦Ĺà¦§":4421,"à¦¹à¦ľà¦¨à¦ķ":4422,"Ġà¦ıà¦ķà¦®à¦¨":4423,"Ġà¦ĵà¦°à¦ĩ":4424,"Ġà¦ĺà¦Łà¦ķ":4425,"à¦ŀà¦¸":4426,"à¦«à¦²à¦ķ":4427,"à¦°à¦¬à¦Ń":4428,"à¦¬à¦°à¦ĵ":4429,"Ġà¦Łà¦²à¦¤":4430,"à¦¬à¦²à¦ķ":4431,"à§ģà¦ģ,":4432,"Ġà¦ĵà¦łà¦¬":4433,"à¦¸à¦¬à¦®":4434,"à¦²à¦ķà¦ļ":4435,"à¦Ĺà¦²à¦¦":4436,"Ġà¦ħà¦Ńà¦¦":4437,"à¦®à¦²à¦Ĺ":4438,"à¦²à¦¬à¦¶à¦¤":4439,"à¦Ńà¦¬à¦ķ":4440,"à¦ıà¦ķà¦¶":4441,"Ġà¦¶à¦¹à¦°à¦Ĺ":4442,"à§ģâĢĻ-":4443,"à¦¬à¦¬à¦Ļ":4444,"Ġà¦Ĩà¦¦à¦®":4445,"à¦¼--":4446,"Ġà¦·à¦£":4447,"Ġà¦¸à§İà¦¤":4448,"Ġwas":4449,"à¦Ĺà¦ªà§İ":4450,"Ġà¦ķà¦ļà¦ķà¦ļ":4451,"Ġà¦§à§ľà¦«à§ľ":4452,"Ð¾Ð":4453,"Ġà¦¤à§İà¦ªà¦°à¦¤":4454,"ain":4455,"har":4456,"ib":4457,"àª":4458,"à¦°à¦ªà¦¨":4459,"à¦¨à¦ĵà¦¯":4460,"à¦ķà¦¸à¦¬":4461,"à¦¯à¦¯à¦¨":4462,"à¦®à¦°à¦¸":4463,"à¦®à¦ªà¦¥":4464,"Ġà¦ķà¦¸à¦®":4465,"Ġà¦¬à¦ĩà¦²":4466,"Ġà¦¸à¦ĵà¦¦":4467,"à¦¦à¦¨à¦¬":4468,"Ġà¦¨à¦ļ":4469,"Ġà¦¹à¦°à¦¤":4470,"Ġà¦¹à¦īà¦ķ":4471,"Ġà¦¤à¦°à¦¤à¦°":4472,"à¦Ĺà¦°à¦ķ":4473,"à¦§à¦ļà¦¨":4474,"à¦¡à¦ĩ":4475,"à¦¹à¦¬à¦¨":4476,"Ġà¦īà¦¯":4477,"Ġà¦²à¦ĩà§Ł":4478,"Ġà¦ĺà¦°à¦ķ":4479,"à¦°à¦¬à¦²à¦Ń":4480,"Ġà¦¬à¦²à¦²à¦¦":4481,"Ġà¦Łà¦ªà¦Łà¦ª":4482,"Ġà¦§à¦°à¦®":4483,"à¦¨à¦¤à¦¨":4484,"Ġà¦Ĺà¦²à¦¨":4485,"Ġà¦ħà¦¸à¦¹à¦¨":4486,"à¦²à¦ķà¦Ń":4487,"Ġà¦¬à¦°à¦¯":4488,"à¦°à¦¦à¦²":4489,"Ġà¦ħà¦ªà¦ļà§Ł":4490,"à¦¿---":4491,"à¦¦à§Łà¦¸":4492,"à¦®à¦£à¦Ĺ":4493,"Ġà¦«à¦²à¦Ł":4494,"Ġà¦°à¦¸à¦¸":4495,"à¦¾à¦ģ,âĢĿ":4496,"à¦¯à¦Ĺà¦£":4497,"Ġà¦¸à¦°à¦²à¦Ń":4498,"à§ªà§«":4499,"à¦¬à¦Łà¦Ĺ":4500,"Ġà¦ķà§Łà¦²":4501,"Ġsp":4502,"ical":4503,"ÂłÂłÂłÂłÂłÂłÂłÂłÂłÂłÂłÂłÂłÂłÂłÂłÂłÂłÂł":4504,"Ġfrom":4505,"Ġwhich":4506,"Ġà¦ıà¦ķà¦Ŀà¦²à¦ķ":4507,"à§įâĢįâĢĮ":4508,"ies":4509,"ois":4510,"ost":4511,"th":4512,"Ġall":4513,"à¦°à¦Ĺà¦°":4514,"à¦¿...":4515,"à¦¨à¦¡à¦°":4516,"à¦²à¦ľà§Ł":4517,"à¦¬à¦ļà¦°":4518,"à¦®à¦ł":4519,"à¦®à¦¬à¦²":4520,"Ġà¦¸à§İà¦ķ":4521,"à¥ĭ":4522,"Ġà¦ªà¦¸":4523,"à¦¦à¦Ļ":4524,"à¦Łà¦ķà¦Ł":4525,"Ġà¦¨à¦¶":4526,"Ġà¦¹à¦ª":4527,"Ġà¦¤à¦²à¦¬":4528,"à¦Ĺà¦¤à¦°":4529,"à¦ļà¦¦à¦¶":4530,"à¦¹à¦®à§Ł":4531,"Ġà¦ľà¦¤":4532,"ĠĠĠĠĊ":4533,"Ġà¦¸à¦®à¦®":4534,"à¦¬à¦¨à¦°":4535,"à¦¬à¦¨à¦Ńà¦°":4536,"Ġà¦ĺà¦¨à¦¤":4537,"à¦°à¦£à¦®":4538,"à¦¤à¦°à¦¬à¦Ļ":4539,"à¦īà¦ĩà¦¯":4540,"à¦Ĩà§Łà¦¨":4541,"à¦Ĩà¦¬à¦Ľ":4542,"à§İà¦¬":4543,"à¦ıà¦Ĩà¦ĩ":4544,"Ġà¦¹à¦²à¦ĺà¦°":4545,"à§Īà¦ĥà¥¤":4546,"âĢĵâĢľ":4547,"Ġà¦ħà¦Ńà§Ł":4548,"à¦¶à¦¨à¦®":4549,"à¦®à¦¤à¦®":4550,"Ġà¦ħà¦¤à¦¸":4551,"à¦¸à¦¨à¦¯à¦¨":4552,"Ġà¦ħà¦ľà¦Ĺà¦°":4553,"Ġà¦Ĳà¦°à¦ķà¦®":4554,"Ġà¦°à¦Ļà¦Ł":4555,"à§°à¦¯":4556,"Ġà¦¦à¦¶à¦¦":4557,"à§ĩ?âĢĿâĢĶ":4558,"à¦¦à¦Ĺà¦¦":4559,"Ġà¦Ĩà¦ĩà¦¨à¦ķ":4560,"à§Ģ!âĢĻ":4561,"iter":4562,"Ġà¦°à¦¤à¦¨à¦ķ":4563,"Ġab":4564,"ord":4565,"à¦¿âĢĿâĢĶ":4566,"Ġind":4567,"Ġint":4568,"ight":4569,"oss":4570,"Ġà¦Ķà¦°à¦¸à¦ľ":4571,"Ġà¦¨à¦¬à¦¬à¦§":4572,"Ġà¦¥à¦¤à¦®à¦¤":4573,"!)":4574,"!-":4575,"ry":4576,"ust":4577,"Ġ*":4578,"à¦¨à¦¥":4579,"à¦¨à¦Ĺà¦¤":4580,"à¦¨à¦ľà¦²":4581,"à¦ķà¦ªà¦Ł":4582,"à§ģâĢĿ":4583,"à§ģ?âĢĻ":4584,"Ġà¦ķà¦·à¦¤":4585,"Ġà¦¸à¦ĩà¦¬":4586,"à¦¸à¦ľà¦¨":4587,"à¦¸à¦ķà¦°":4588,"à¦¦à¦ĺà¦¨":4589,"à¦Łà¦Ĩà¦ª":4590,"Ġà¦¨à¦¬à¦¸":4591,"Ġà¦®à¦²à¦®":4592,"à¦ªà¦§":4593,"à¦ªà¦¬à¦°":4594,"à¦ªà¦®à¦¯":4595,"Ġà¦¹à¦°à¦²":4596,"Ġà¦¤à§İà¦ªà¦°":4597,"Ġà¦¤à¦¹à¦¬":4598,"à¦·à¦²":4599,"à¦·à¦°à¦¹":4600,"à¦§à¦¡":4601,"à¦§à¦ªà¦°":4602,"à§Łà¦¶":4603,"à¦£à¦ľ":4604,"Ġà¦ļà¦·":4605,"Ġà¦Ńà¦°à¦£":4606,"à¦Ńà¦¶":4607,"à¦¼à¦¾à¥¤âĢĻ":4608,"Ġà¦Ĩà¦®à¦²à¦ķ":4609,"Ġà¦īà¦¶":4610,"à¦¬à¦¨à¦Ń":4611,"à¦°à¦£à¦ªà¦¤":4612,"à¦īà¦Łà¦°":4613,"à¦Ĩà¦ł":4614,"à¦Ĩà¦°à¦£":4615,"Ġà¦¬à¦²à¦²à¦ª":4616,"Ġà¦¬à¦²à¦²à¦¹":4617,"âĢĻ!âĢĿ":4618,"Ġà¦ĩà¦¸à¦°":4619,"à¦ĥ!":4620,"à¦ķà¦°à¦Ń":4621,"à¦°à¦¨à¦Ĺà¦°":4622,"Ġà¦®à¦¹à¦®":4623,"à¦¬à¦¤à¦¶":4624,"à¦Ľà¦¨à¦¦":4625,"à¦¸à¦®à¦Ĺ":4626,"Ġà¦ĵà¦ªà¦°à¦ĩ":4627,"Ġà¦ªà¦¦à¦¸":4628,"Ġà¦ħà¦Ĺà¦£à¦¨":4629,"à¦ªà¦¥à¦¹":4630,"à¦°à¦ªà¦Ł":4631,"à¦¸à¦ķà¦¦":4632,"à§¨à§ª":4633,"à§¨à§®":4634,"à§¦à§«":4635,"à¦¬à¦ĩà§Ł":4636,"à¦¿âĢĻâĢĶ":4637,"Ġà¦¹à¦¨à¦¹à¦¨":4638,"ali":4639,"Ġthey":4640,"oug":4641,"à§§à§¯à§Ń":4642,"16":4643,"rit":4644,"ual":4645,"ÙĦ":4646,"à¦¾.":4647,"à¦¨à¦°à¦ķà¦®":4648,"à¦¤à¦£":4649,"à¦²à¦¤à¦°":4650,"à¦²à¦ªà¦¦":4651,"à¦²à¦Ńà¦°":4652,"à¦ķà¦¤à¦¨":4653,"à¦¯à¦Ĺà¦¨":4654,"à§ģà§ģ":4655,"à¦¼à§įâĢĮ":4656,"à¦®à¦¬à¦¨":4657,"à¦®à¦ľà¦¨":4658,"à¦®à¦ĺà¦Ł":4659,"Ġà¦¸à¦¶":4660,"Ġà¦¸à¦ķà¦°":4661,"à¥ģ":4662,"à¦¸à¦ľà¦²":4663,"à¦¸à¦¹à¦¯":4664,"à¦¦à¦¡":4665,"à¦¦à¦®à¦¤":4666,"à¦Łà¦§à¦°":4667,"à¦ªà¦¬à¦¨":4668,"à¦ľà¦ªà¦¤":4669,"à¦¶à¦ķà¦²":4670,"Ġà¦ħà¦ķà¦°":4671,"à¦·à¦¸à¦ķ":4672,"à¦§à¦¨à¦ĵ":4673,"âĢ¢":4674,"à¦¹à¦ĸ":4675,"à§Łà¦ĵ":4676,"à§Łà¦£à¦¤":4677,"Ġà¦Ĺà¦¦à¦Ĺà¦¦":4678,"à¦£à§Ł":4679,"Ġà¦ĵà¦¥":4680,"Ġà¦ħà¦¨à¦Łà¦¨":4681,"à¦¬à¦¨à¦ľ":4682,"Ġà¦ıà¦ĩà¦ļ":4683,"à¦īà¦Ńà§Ł":4684,"à¦¿,-":4685,"à¦¬à¦°à¦¨":4686,"Ġà¦Łà¦Ļ":4687,"Ġà¦ĩà¦£":4688,"Ġà¦ĩà¦¸à¦®":4689,"à¦·à¦£à¦Ł":4690,"à¦ķà¦²à¦¤":4691,"à¦ķà¦²à¦¸":4692,"Ġà¦ªà¦¥à¦ĵ":4693,"Ġà¦Ĩà¦¶à¦¯":4694,"à¦ķà¦¤à¦¦":4695,"à¦ķà¦¤à¦Ł":4696,"à¦§à¦ķà¦¦":4697,"à¦§à¦¨à¦Ł":4698,"Ġà¦¸à¦¹à¦¬":4699,"à¦ĩà¦¨à¦«":4700,"Ġà¦Ĳà¦¸à¦¬":4701,"Ġà¦ħà¦Ĺà¦¸":4702,"Ġà¦Ĩà¦§à¦Ł":4703,"Ġà¦¦à¦²à¦Ĺ":4704,"Ġà¦Ĺà¦£à¦ľ":4705,"à¦¾âĢĻ-":4706,"à§«à§¨":4707,"à¦®à¦¦à¦ķ":4708,"à¦²à¦ļà¦²à¦¨":4709,"ans":4710,"Ġà¦Ĭà¦¨à¦¬":4711,"à¦ıà¦®à¦¨à¦ķ":4712,"Ġà¦ľà¦Ĺà§İà¦Ł":4713,"Ġà¦°à¦®à¦°à¦®":4714,"à¦ĩà¦ľà¦¨à¦ĩ":4715,"Ġmy":4716,"Ġà¦®à¦¦à¦¨à¦ķ":4717,"ction":4718,"à§°à¦¹à¦£":4719,"à§ĩà§Ĺà¦ģ":4720,"âĢķâĢķâĢķâĢķ":4721,"Ġà¦¬à¦Ľà¦°à¦ĩ":4722,"!'":4723,"ap":4724,"ear":4725,"Ġ+":4726,"Ġ×":4727,"à¦¨à¦ĩà¦²":4728,"à¦²à¦ĺà¦°":4729,"à¦ķà¦ªà¦ķ":4730,"à§ģ?âĢĿ":4731,"à¦®à¦²à¦ķ":4732,"à¦®à¦ĺà¦°":4733,"à§ĭâĢĻà¥¤":4734,"à¦¦à¦¹à¦¨":4735,"Ġà¦¨à¦¨à¦¦":4736,"à¦ªà¦Łà¦²":4737,"à¦Ľà¦ĵ":4738,"Ġà¦¦à¦²à¦ķ":4739,"à¦ľà¦¶à¦ķ":4740,"Ġà¦ħà¦¢":4741,"à¦ĸà¦¢":4742,"à¦Ĺà¦¹à¦¨":4743,"à¦·à¦¡":4744,"à¦·à¦§à¦°":4745,"à¦§à¦®à¦¯":4746,"à¦§à¦¶à¦¤":4747,"à¦¡à¦ĵà¦¯":4748,"à¦£à¦ł":4749,"Ġà¦Ńà¦¡":4750,"à¦Ńà¦ľà¦¨":4751,"à¦Ńà¦°à¦¸":4752,"Ġà¦ıà¦ķà¦¤à¦°à¦«":4753,"Ġà¦īà¦ľà¦²":4754,"Ġà¦²à¦ĩ":4755,"à§ĩ,âĢĵ":4756,"Ġà¦ªà¦°à¦®à¦¹":4757,"Ġà¦¸à¦®à¦ľà¦¦":4758,"à¦¬à¦¨à¦Ĺ":4759,"à§ľà¦¯à¦¨":4760,"à¦°à¦£à¦¹":4761,"à¦īà¦¥":4762,"à¦īà¦Ń":4763,"Ġà¦Ĩà¦²à¦Ł":4764,"à¦Ĩà¦²à¦¤":4765,"à§Īà¥¤":4766,"Ġà¦ĩà¦¹à¦²":4767,"à¦ĺà¦ľ":4768,"Ġà¦ıà¦¬à¦¡":4769,"à¦ħà¦ļà¦²":4770,"Ġà¦¨à¦¤à¦ľ":4771,"à¦ķà¦°à¦Ł":4772,"Ġà¦¶à¦¬à¦¦":4773,"à¦¿à¦Ĥ!":4774,"à¦²à¦¨à¦ĩ":4775,"Ġà¦ħà¦ªà¦Ł":4776,"Ġà¦ķà¦²à¦°":4777,"à¦ļà¦²à¦®":4778,"à¦¬à¦¸à¦Ļ":4779,"Ġà¦ĵà¦ĩà¦ĸ":4780,"à¦¤à¦®à§Ł":4781,"à¦¤à¦¤à¦¤":4782,"Ġà¦¶à¦¤à¦¶":4783,"à§ĩâĢĵâĢĻ":4784,"à§Ģ--":4785,"à¦ľà¦¬à¦§":4786,"Ġà¦§à¦¨à¦Ń":4787,"Ġà¦§à¦¨à¦ŀ":4788,"à¤®":4789,"à¦¬à¦¹à¦®":4790,"Ġà¦¦à¦®à¦¦à¦®":4791,"à§ĩâĢ¦à¥¤":4792,"à¦¥à¦²à¦ľ":4793,"à¦Łà¦®à¦¹à¦²":4794,"Ġà¦¸à§İà¦Ń":4795,"à¦¬à¦ľà¦¨à¦¦":4796,"à§¬à§¦":4797,"à¦¨à¦ľà¦¨à¦ĩ":4798,"à¦¾âĢĿâĢĵ":4799,"ition":4800,"ĠpH":4801,"Ġhas":4802,"Ġà¦ľà¦¨à¦ªà¦¦à¦¬":4803,"Ġà¦¸à¦¬à¦¸à¦®à§Łà¦ĩ":4804,"æŃĵæŃĵæŃĵæŃĵæŃĵæŃĵæŃĵæŃĵ":4805,"ress":4806,"!âĢĵ":4807,"TE":4808,"ak":4809,"ach":4810,"we":4811,"ĠV":4812,"à¦¨à¦°à¦ķ":4813,"à¦®à¦ĵà§Ł":4814,"à¦®à¦¸à¦¨":4815,"à¦®à¦Ĺà¦¨":4816,"Ġà¦ķà¦ĩà¦¤":4817,"Ġà¦¬à¦ª":4818,"Ġà¦ªà¦¸à¦°":4819,"Ġà¦Ĩà¦¤à¦°":4820,"à¦¦à¦¶à¦Ł":4821,"à¦Łà¦°à¦¶":4822,"Ġà¦®à¦ľà¦¨":4823,"à¦ªà¦²à¦¬":4824,"à¦ĩà¦īà¦¨":4825,"à§Ģ!âĢĿ":4826,"Ġà¦¦à¦¶à¦¬":4827,"Ġà¦¤à¦°à¦¤":4828,"à¦¶à¦¡":4829,"à¦Ĺà¦¶":4830,"à¦·à¦¤à¦²":4831,"à¦§à¦ľà¦¯":4832,"à¦¡à¦¤":4833,"à¦¹à¦Ńà¦°":4834,"à§Łà¦Ł":4835,"Ġà¦Ĺà¦ľà¦²":4836,"à¦£à¦¤à¦°":4837,"Ġà¦ıà¦ķà¦§":4838,"Ġà¦ıà¦ķà¦ĸà¦£":4839,"Ġà¦ıà¦ķà¦ĺà¦£":4840,"ĠĠĠĊ":4841,"à¦łà¦ĵ":4842,"à§ĩ,âĢĶ":4843,"Ġà¦¬à¦²à¦Ł":4844,"Ġà¦«à¦²à¦¬":4845,"à¦¾à¥¤âĢĺ":4846,"Ġà¦ıà¦ĩà¦Ĺ":4847,"à¦Ŀà¦®":4848,"à¦ľà¦¨à¦¸":4849,"à¦¤à¦°à¦²":4850,"à¦īà¦¨à¦²":4851,"à¦īà§İà¦ª":4852,"à¦Ĩà¦ĺ":4853,"à§İà¦ľ":4854,"à¦°à¦®à¦¸":4855,"à¦°à¦®à¦¥à¦°":4856,"à§ģà¦ģà¥¤âĢĻ":4857,"à¦·à¦£à¦¤":4858,"à¦¨à¦¤à¦¤à¦°":4859,"à¦ħà¦²à¦ķ":4860,"Ġà¦¬à¦¨à¦ªà¦¥":4861,"Ġà¦Ĩà¦¬à¦¹à¦®":4862,"à¦ķà¦Łà¦°":4863,"Ġà¦ħà¦¸à¦¦":4864,"Ġà¦Ĩà¦ªà¦¨à¦®à¦¨":4865,"Ġà¦ľà¦²à¦¢":4866,"Ġà¦ľà¦²à¦Ńà¦°":4867,"à¦°à¦¶à¦¬":4868,"à¦§à¦¨à¦Ĺ":4869,"à¦²à¦¬à¦ķ":4870,"Ġà¦ħà¦ªà¦ķ":4871,"à¦ĩà¦¨à¦ķ":4872,"à¦ıà¦ĩà¦°à¦ķà¦®":4873,"Ġà¦ªà§ľà¦¨":4874,"Ġà¦¬à¦Ľà¦°à¦Ĺ":4875,"à¦°à¦Ńà¦°":4876,"à¦ıà¦ķà¦ķ":4877,"à¦ıà¦ķà¦ĸ":4878,"à¦ıà¦ķà¦¥":4879,"à¦ªà¦ķà¦ķ":4880,"à§ĩ;âĢĶ":4881,"à¦¹à¦¨à¦²":4882,"Ġà¦ıà¦ķà¦ĩà¦°à¦ķà¦®":4883,"à¦°à¦®à¦£à¦ª":4884,"à§ĭâĢĶâĢĺ":4885,"Ġà¦¤à¦¤à¦ĸ":4886,"Ġà¦ªà¦¶à¦®":4887,"à¤¹":4888,"à§©à§ª":4889,",âĢĿâĢĶ":4890,"Ġà¦ľà¦Ĺà§İà¦ķ":4891,"Ġà¦ıà¦°à¦ķà¦®à¦ĩ":4892,"Ġsu":4893,"Ġà¦Ĺà¦ľà¦Ĺà¦ľ":4894,"Ġcan":4895,"Ġbut":4896,"hak":4897,"-'":4898,".âĢĻ":4899,"12":4900,"but":4901,"ik":4902,"æĹ":4903,"ĠK":4904,"Ġat":4905,"à¦¿à¥¥":4906,"à¦¨à¦°à¦¤":4907,"à¦¤à¦®à¦ķ":4908,"à¦¤à¦¤à¦ķ":4909,"à¦²à¦ķà¦²":4910,"à¦²à¦®à¦¤":4911,"à¦²à¦ļà¦ķ":4912,"à¦ķà¦¸à¦¨":4913,"à¦ķà¦¨à¦ķ":4914,"à¦®à§İà¦¸":4915,"Ġà¦¸à¦¸à¦®":4916,"à¦¸à¦ªà¦¨":4917,"Ġà¦Ĩà¦ĵ":4918,"Ġà¦Ĩà¦«à¦Ł":4919,"à¦¦à¦¬à¦ª":4920,"à¦¦à¦ķà¦¤":4921,"Ġà¦®à¦ķà¦¬":4922,"à§ĢâĢ¦":4923,"à¦ľà¦®à¦¹":4924,"Ġà¦ıà¦¥":4925,"à¦ĸà¦°à¦¤":4926,"à¦Ĺà¦°à¦¬":4927,"à¦Ĺà¦«à¦²":4928,"à¦§à¦¬à¦¤":4929,"à¦¡à¦¦":4930,"à¦¹à¦ĵà¦¯":4931,"à¦£à¦¬à¦¤":4932,"Ġà¦¶à¦®à¦¶":4933,"Ġà¦ļà¦ļ":4934,"Ġà¦Ńà¦¨":4935,"Ġà¦°à¦ĩà¦¬":4936,"à¦ĵà¦Ľ":4937,"à¦ĵà¦Ń":4938,"à¦Ńà¦ľà¦¨à¦ķ":4939,"Ġà¦ĸà¦ŀ":4940,"Ġà¦ħà¦¨à¦Ĺ":4941,"âĢĶâĢĿ":4942,"à¦¬à¦¨à¦ļ":4943,"à¦Ŀà¦¬à¦¯":4944,"à¦¤à¦°à¦¯":4945,"à¦«à¦£":4946,"à¦Ĩà§ľ":4947,"à§İà¦¸à¦¨":4948,"à¦°à¦ķà¦¦":4949,"à¦¬à¦°à¦·":4950,"Ġà¦¬à¦²à¦²à¦°":4951,"Ġà¦¬à¦²à¦²à¦¨":4952,"Ġà¦¬à¦²à¦²à¦¸":4953,"Ġà¦¬à¦²à¦²à¦Ĩà¦ªà¦¨":4954,"Ġà¦ķà¦¥à¦ķà¦¤":4955,"à§Į-":4956,"à¦¬à¦²à¦¦":4957,"à¦°à¦®à¦ĩ":4958,"à¦·à¦£à¦Ń":4959,"Ġà¦ĵà¦łà¦¤":4960,"Ġà¦ħà¦¸à¦¤à¦¤":4961,"à¦¯à¦¬à¦ĩà§Ł":4962,"à¦¨à¦¬à¦ļ":4963,"Ġà¦ľà¦²à¦Ľà¦Ł":4964,"à¦§à¦ķà¦ķ":4965,"Ġà¦¸à¦°à¦¦":4966,"Ġà¦ħà¦ªà¦ķà¦°":4967,"Ġà¦¸à¦¹à¦¨":4968,"Ġà¦¸à¦¹à¦¦":4969,"à¦¸à¦®à¦°":4970,"Ġà¦Ĳà¦¦":4971,"à¦ªà¦¦à¦ļ":4972,"à§įâĢĮâĢĮ":4973,"à§ģ,âĢĿ":4974,"à§İà¦ķà¦®":4975,"Ġà¦īà¦ªà¦°à¦ĩ":4976,"à¦ĺà¦°à¦Ĺ":4977,"à¦°à¦ľà¦¨à¦ķ":4978,"à¦īà¦²à¦°":4979,"ÂłÂłÂłÂłÂłÂłÂłÂłÂłÂłÂłÂłÂłÂłÂłÂłÂłÂłÂłÂł":4980,"à¦°à¦®à¦£à¦ĩ":4981,"Ġà¦¦à¦°à¦ĸ":4982,"Ġà¦ľà¦°à¦®à¦¨":4983,"Ġà¦Ĩà¦ªà¦²":4984,"Ġà¦¶à¦¹à¦°à¦¬":4985,"à¦£à¦¨à¦Ĺà¦°":4986,"Ġà¦ªà¦°à¦¶à¦®à¦£":4987,"Ġà¦·à§ľà¦¯à¦¨":4988,"à¦ľà§Łà¦ķ":4989,"Ġà§¨à§¬":4990,"à¦¿?âĢĿâĢĶ":4991,"à¦ıà¦¸à¦¸":4992,"ings":4993,"our":4994,"Ġà¦¹à¦ľà¦°à¦¤":4995,"Ġà¦ľà¦¬à¦°à¦¦à¦¸":4996,"self":4997,"-âĢĺ":4998,"17":4999,"ove":5000,"Ð½":5001,"Ġim":5002,"à§±":5003,"à¦°à¦ªà¦¦":5004,"à¦¤à¦ĺ":5005,"à¦²à¦¹à¦°":5006,"à¦¬à¦¥":5007,"à¦¬à¦¤à¦°":5008,"à¦¬à¦ķà¦¬":5009,"à§ĭâĢĿà¥¤":5010,"Ġà¦¬à¦°à¦ķ":5011,"Ġà¦¸à¦ªà¦¤":5012,"Ġà¦Ĩà¦ĸà¦°":5013,"à¦ªà¦ļà¦°":5014,"Ġà¦¤à¦¯":5015,"Ġà¦¤à¦Ľà¦¨":5016,"Ġà¦¤à¦®à¦¸":5017,"Ġà¦¤à¦ķà¦®":5018,"à§Łà¦¹":5019,"à¦¥à¦¡":5020,"à¦Ńà¦ª":5021,"Ġà¦īà¦Ľà¦²":5022,"Ġà¦ĵà¦Ŀ":5023,"âĢĶâĢĶ":5024,"à¦Ŀà¦Ł":5025,"à¦«à¦²à¦¤":5026,"à¦Ĩà¦ªà¦¦":5027,"à¦Ĩà¦¸à¦¤":5028,"à¦°à¦ķà¦¯":5029,"à¦°à¦ķà¦°à¦£":5030,"Ġà¦¬à¦²à¦²à¦Ĩà¦®à¦°":5031,"Ġà¦Ŀà¦°à¦¬":5032,"à¦¬à¦²à§Ł":5033,"à¦°à¦®à¦²":5034,"à¦°à¦®à§Ł":5035,"à¦ħà¦¬à¦¹":5036,"à¦°à¦¸à¦Ĺ":5037,"à¦¨à¦¬à¦®":5038,"à¦¯à¦ķà¦¥":5039,"Ġà¦¸à¦¨à¦¦":5040,"Ġà¦ĺà¦°à¦Ľ":5041,"à¦²à¦¨à¦ļ":5042,"Ġà¦¸à¦°à¦·":5043,"à¦°à¦²à¦®":5044,"à¦ĩà¦¨à¦°":5045,"Ġà¦Ĳà¦ĸ":5046,"à¦¨à¦ķà¦ķ":5047,"à¦¸à¦«à¦²à¦¤":5048,"à§¨à§©":5049,"Ġà¦ļà¦ķà¦®à¦ķ":5050,"Ġà¦īà§İà¦¸à¦¬à¦Ĺ":5051,"Ġà¦¸à¦Ńà¦¯":5052,"à¤Ĥ":5053,"à¦¬à¦¹à¦£":5054,"à§ªà§Ń":5055,"à¦ľà§Łà¦Ĺ":5056,"à¦¬à¦ľà¦¨à¦ª":5057,"à¦Ĳà¦¶":5058,"Ġà¦°à¦¹à¦®à¦¤":5059,"Ġà¦¤à¦ªà¦¨à¦¬":5060,"Ġà¦Ĩà¦«à¦Ĺ":5061,"Ġcol":5062,"Ġà¦®à¦Ĺà¦§à¦°":5063,"ound":5064,"ould":5065,"Ġà¦ľà¦¨à¦Ĺà¦£à¦ķ":5066,"à¦Īà¦¦":5067,"ell":5068,"ife":5069,"able":5070,"ãģ®":5071,"æĹ¥":5072,"Ġà¦¤à¦Ľà¦¨à¦Ľ":5073,"11":5074,"14":5075,"15":5076,"19":5077,"20":5078,"23":5079,"24":5080,"now":5081,"oc":5082,"Åĵ":5083,"ĊĊ":5084,"à¦¾à¦¾":5085,"à¦¤à¦ªà¦¥":5086,"à¦²à¦£":5087,"à¦²à¦Ĺà¦¤":5088,"à¦²à¦®à¦°":5089,"à¦ķà¦Ļ":5090,"à¦¯à¦Ńà¦°":5091,"à¦¼à§Ī":5092,"Ġà¦ķà¦ļà¦²":5093,"Ġà¦¸à¦¶à¦°":5094,"à¥¤)":5095,"à¦¦à¦¸à¦®":5096,"Ġà¦®à¦°à¦¸":5097,"Ġà¦®à¦°à¦¶":5098,"Ġà¦®à¦Łà¦ķ":5099,"Ġà¦®à¦¶à¦Ĺ":5100,"à¦ªà¦ªà¦°":5101,"Ġà¦¤à§İà¦¸":5102,"à¦Ĺà¦°à¦¤":5103,"Ġà¦¯à¦¶à¦¸":5104,"à¦ļà¦°à¦ķ":5105,"à¦¹à¦¨à¦¦":5106,"Ġà¦Ĺà¦°à¦¬":5107,"à¦£à¦®à¦¨":5108,"à¦£à¦ªà¦¨":5109,"Ġà¦¶à¦¤à¦¬":5110,"Ġà¦°à¦ĩ":5111,"à¦ĵà¦¸":5112,"à¦Ńà¦ĩ":5113,"à¦Ńà¦²à¦¬":5114,"à¦łà¦«":5115,"Ġà¦īà¦ĩà¦¸":5116,"Ġà¦²à¦ĩà¦¬":5117,"Ġà¦«à§ľ":5118,"Ġà¦«à¦¸à¦«":5119,"à¦°à¦¤à¦Ń":5120,"Ġà¦ħà¦¨à§ľ":5121,"Ġà¦¸à¦®à¦¦":5122,"à¦¬à¦¨à¦²à¦¤":5123,"Ġà¦ıà¦ĩà¦°":5124,"à¦®à¦¨à¦Ń":5125,"à¦ľà¦¨à¦Ł":5126,"à¦¤à¦°à¦¹":5127,"à§İà¦¶":5128,"Ġà¦ĩà¦®à¦°":5129,"à¦ĺà¦ª":5130,"Ġà¦Ŀà¦°à¦²":5131,"à¦ħà¦¬à¦²":5132,"Ġà¦¬à¦¨à¦Ĺ":5133,"à¦ķà¦²à¦¹":5134,"Ġà¦ªà¦¥à¦°":5135,"Ġà¦ªà¦¥à¦ķ":5136,"Ġà¦ħà¦¸à¦®à¦¤":5137,"à¦²à¦ķà¦ª":5138,"à¦²à¦¤à¦®":5139,"à¦ļà¦¨à¦ľà¦Ļ":5140,"à¦°à¦¶à¦®à¦¨":5141,"à¦¯à¦¤à¦¤":5142,"à¦ķà¦¬à¦ļ":5143,"Ġà¦ħà¦ľà¦°":5144,"à¦¹à¦²à¦¦":5145,"à¦°à¦ĵà¦¶à¦¨":5146,"à¦ªà¦¥à¦ļà¦²":5147,"Ġà¦¬à¦ĩà¦ªà§ľ":5148,"à§Ģà¥¤âĢĻ":5149,"Ġà¦«à¦²à¦®":5150,"à¦ļà¦ķà¦£":5151,"à¦¼à¦¾,âĢĿ":5152,"à§¨à§¬":5153,"à¦Ĩà¦²à¦®":5154,"Ġà¦°à¦¸à¦¦":5155,"à¦¾âĢĻâĢĵ":5156,"à¦·à¦¦à¦Ĺ":5157,"à¦¨à¦ªà¦ŀ":5158,"Ġà¦¸à§İà¦ļ":5159,"one":5160,"Ġà¦ĵà¦·à¦§":5161,"Ġsh":5162,"Ġà¦ıà¦ķà¦¦à¦®à¦ĩ":5163,"ory":5164,"Ġà¦¬à¦¶à¦¬à¦°":5165,"à¦ķà¦ĵà¦¦":5166,"Ġà¦ĸà¦ļà¦ĸà¦ļ":5167,"Ġà¦Ľà§Łà¦Ł":5168,"ult":5169,"ivid":5170,"oishak":5171,"æĹ¥ãģ®":5172,"oishakh":5173,")âĢĵ":5174,"18":5175,"25":5176,"ohe":5177,"ud":5178,"Ġj":5179,"Ġë":5180,"Ġle":5181,"à¦°à¦ħ":5182,"à¦¨à¦Ŀ":5183,"à¦¨à¦Ĩà¦®":5184,"à¦¨à¦®à¦£":5185,"à¦¤à¦ªà¦¦":5186,"à¦²à¦¨à¦¬":5187,"à¦¯à¦¤à¦¨":5188,"à¦¯à¦®à¦¤":5189,"à¦¬à¦ĩà¦¨":5190,"à¦®à¦¬à¦°":5191,"à¦®à¦¹à¦¸":5192,"à§ĭà§ĩ":5193,"Ġà¦¬à¦Ń":5194,"à¦¸à¦®à¦¨":5195,"à¦¸à¦¤à¦°":5196,"à¦¦à¦«":5197,"à¦ĩà¦ªà¦°":5198,"à§ĢâĢĻà¥¤":5199,"à¦Ľà¦²à¦Ľà¦²":5200,"à¦ľà§Łà¦¨":5201,"Ġà¦ıà§Ł":5202,"Ġà¦ıà¦¤à¦¬":5203,"à¦¼à§ĩ:":5204,"Ġà¦ħà§Ł":5205,"à¦·à¦ļ":5206,"à¦·à¦°à¦ķ":5207,"à¦ļà¦ķà¦²":5208,"Ġà¦Ĺà¦°à¦²":5209,"à¦£à¦ķà¦²":5210,"à¦£à¦Ńà¦ķ":5211,"Ġà¦¶à¦¤à¦°":5212,"Ġà¦ľà¦ľ":5213,"Ġà¦ļà¦¯":5214,"Ġà¦ıà¦ķà¦°à¦¤":5215,"à¦¼à¦¾âĢ¦":5216,"Ġà¦Ĩà¦®à§ľ":5217,"Ġà¦²à¦²à¦¨":5218,"Ġà¦ĵà¦§":5219,"Ġà¦ĵà§ľà¦¨":5220,"Ġà¦¥à¦ĩ":5221,"Ġà¦ĸà¦ĩ":5222,"Ġà¦ĸà¦²à¦¨":5223,"Ġà¦§à¦®":5224,"Ġà¦ªà¦°à¦Ľ":5225,"à¦¼à¦¿âĢĵ":5226,"Ġà¦®à¦¨à¦ª":5227,"Ġà¦®à¦¨à¦¨à¦ķ":5228,"à¦Ŀà¦²à¦ķ":5229,"à¦īà¦¨à¦Ł":5230,"Ġà¦Ĩà¦²à¦ª":5231,"Ġà¦Ĩà¦²à¦Ļ":5232,"à¦ıà¦¨à¦ľ":5233,"à¦ĺà¦¤à¦°":5234,"Ġà¦ħà¦¬à¦Ĺà¦¤":5235,"Ġà¦¬à¦¸à¦¤à¦¬":5236,"à¦ħà¦£":5237,"Ġà¦¬à¦¨à¦«":5238,"Ġà¦ħà¦¸à¦ļ":5239,"à¦¨à¦¬à¦¬":5240,"à¦¨à¦¬à¦ľà¦¨":5241,"Ġà¦ħà¦¦à¦ķ":5242,"Ġà¦Ĩà¦¨à¦ķ":5243,"à¦¶à¦¨à¦ĩ":5244,"Ġà¦ħà¦¤à¦²à¦¸":5245,"à¦°à¦¹à¦ķ":5246,"à¦°à¦¹à¦¬":5247,"Ġà¦īà¦ªà¦ķà¦¥":5248,"Ġà¦īà¦ªà¦ķà¦£":5249,"à¦°à¦¯à¦¨":5250,"à¦®à¦ķà¦Ń":5251,"Ġà¦ĵà¦°à¦«":5252,"à¦Ńà¦¬à¦ªà¦°":5253,"Ġà¦ħà¦ľà¦®":5254,"Ġà¦Ĳà¦°":5255,"Ġà¦Ĳà¦Ł":5256,"Ġà¦ķà¦®à¦°":5257,"à¦°à¦Ńà¦Ļ":5258,"à¦ªà¦¦à¦ĵ":5259,"à¦ªà¦¥à¦ļ":5260,"à¦¼à§ĩà¥¤âĢĻ":5261,"à¦Łà¦²à¦Ĺ":5262,"à§°à¦¬à¦¨":5263,"à¦Ĩà¦²à¦¸":5264,"à¤¦":5265,"Ġà¦ľà§Łà¦¯":5266,"à§ªà§¦":5267,"ang":5268,"ons":5269,"Ġà¦ļà¦Łà¦ľà¦²à¦¦":5270,"ret":5271,"ern":5272,"Ġtheir":5273,"Ġà¦°à¦£à¦ľ":5274,"à¦¿âĢĿâĢĵ":5275,"ount":5276,"Ġà¤¸":5277,"ĠInd":5278,"Ġà§ªà§«":5279,"uth":5280,"ĠBoishakh":5281,"use":5282,"ective":5283,"Ø§Ø":5284,"====":5285,"ontu":5286,"lective":5287,"'à¥¤":5288,"13":5289,";âĢĵ":5290,"iya":5291,"ue":5292,"ug":5293,"Ð¸":5294,"Ú©":5295,"ĠU":5296,"Ġ..":5297,"à¦¾âĢĮ":5298,"à¦°à¦°à¦ķ":5299,"à¦¿à§ĩ":5300,"à¦¨à¦ªà¦¨":5301,"à¦¤à¦®à¦£":5302,"à¦¤à§İà¦ķ":5303,"à¦²à¦¸à¦®":5304,"à¦ķà¦ĺà¦°":5305,"à¦¯à¦ªà¦¤":5306,"à¦¯à¦¸à¦Ļ":5307,"à¦¬à¦®à¦¨":5308,"à¦¬à¦Ĺà¦£":5309,"Ġà¦ķà¦ĩà¦²":5310,"Ġà¦Ĩà¦Łà¦²":5311,"Ġà¦¨à¦¬à¦ª":5312,"à¦ªà¦¸à¦®":5313,"à¦ĩà¦Ŀ":5314,"à¦ĩà¦ļà¦°à¦£":5315,"à§Ģ)":5316,"à§Ģà¦ĥ":5317,"à§Ģà¥¥":5318,"à¦ľà¦ªà¦°":5319,"à¦ľà¦¸à¦®":5320,"à¦ľà¦īà¦¦":5321,"à¦¶à¦®à¦¤":5322,"à¦¶à¦ļà¦¨":5323,"Ġà¦ħà¦ľà¦¨":5324,"à¦Ĺà¦°à¦¦":5325,"à¦Ĺà¦¸à¦¨":5326,"à¦§à¦ľ":5327,"à¦¡à¦²à¦ķ":5328,"à¦ļà¦Ļ":5329,"à¦¹à¦®à¦¨":5330,"à¦¹à¦¤à¦¤":5331,"à§Łà¦ļ":5332,"Ġà¦Ĺà§Łà¦¨":5333,"à¦£à¦¤à¦®":5334,"Ġà¦¶à¦¶à¦¬":5335,"Ġà¦¶à§Łà¦¨":5336,"Ġà¦°à¦®à¦¨":5337,"à§ĩà¥¤)":5338,"à¦Ńà¦ªà¦¤":5339,"à§Ĥà¥¤":5340,"Ġà¦ĸà¦°à¦¸":5341,"à¦¾,-":5342,"à§ľà¦Ĺ":5343,"Ġà¦ıà¦ĩà¦¸à¦®à¦¯":5344,"à¦ŀà¦Ń":5345,"à¦Ĩà¦ĸ":5346,"à§İà¦°":5347,"à¦ıà¦¡":5348,"Ġà¦¬à¦²à¦²à¦ıà¦ĩ":5349,"Ġà¦Ŀà¦Ĺà§ľ":5350,"à¦¬à¦²à¦¯":5351,"Ġà¦¢à¦ķ":5352,"à¦¤à¦¨à¦Ł":5353,"à¦ħà¦¬à¦¨":5354,"Ġà¦Ĩà¦ķà¦£":5355,"à¦¤à¦¬à¦¯":5356,"à¦¤à¦¬à¦°à¦£":5357,"à¦¨à¦¬à¦¯":5358,"à¦°à¦¥à¦®à¦ľ":5359,"à¦Ĺà¦²à¦¸":5360,"à¦Ĺà¦²à¦Ĺ":5361,"Ġà¦ľà¦²à¦Ł":5362,"Ġà¦ľà¦²à¦¹":5363,"Ġà¦ľà¦²à¦ªà¦¥":5364,"Ġà¦¶à¦¬à¦¬":5365,"à¦°à¦¹à¦¤":5366,"à¦°à¦¹à¦Ł":5367,"à¦°à¦¹à¦°à¦£":5368,"Ġà¦ĺà¦°à¦ĸ":5369,"Ġà¦ıà¦¤à¦¸à¦¬":5370,"Ġà¦Ĳà¦¹":5371,"Ġà¦¬à¦¹à¦°à¦®à¦ª":5372,"à§ĩ!-":5373,"Ġà¦ħà¦Ĺà¦®":5374,"à¦®à¦£à¦¤":5375,"à¦ıà¦ķà¦ľ":5376,"à¦¬à¦¦à¦°à¦¬":5377,"à¦¿âĢĶâĢĺ":5378,"à¦¬à¦ķà¦£":5379,"Ġà¦ıà¦ķà¦ľà¦¨à¦ĩ":5380,"Ġà¦Ńà¦¬à¦ĺ":5381,"à¦¸à¦«à¦²":5382,"à¦ĩà¦Łà¦¸":5383,"Ġà¦¸à¦®à§Łà¦ķ":5384,"Ġà¦¬à¦ķà¦Ľ":5385,"Ġà¦Ńà¦¦à¦ķ":5386,"Ġà¦¬à§ľà¦ĩ":5387,"Ġà¦Ĩà¦ªà¦¶":5388,"Ġà¦Īà¦Ĺà¦°":5389,"à¤µ":5390,"à¤Ł":5391,"à§ĩâĢ¦âĢĻ":5392,"à§ªà§¨":5393,"int":5394,"à¦ľà¦Ĺà¦ŀ":5395,"red":5396,"ish":5397,"à¦Łà¦¸à¦ħ":5398,"à¦ľà¦¦à¦°à¦¬":5399,"Ġwe":5400,"Ġdo":5401,"Ġà¦łà¦ķà¦łà¦ķ":5402,"olog":5403,"Ġwho":5404,"Ġà¦ĵà¦²à¦Łà¦ª":5405,"ÂŃÂŃÂŃÂŃÂŃÂŃÂŃÂŃ":5406,"ºçľºçľºçľºçľ":5407,"âĢĵâĢĵâĢĵâĢĵâĢĵâĢĵâĢĵâĢĵ":5408,"·çľ·çľ·çľ·çľ":5409,"Ġà¦¥à¦ķà¦¥à¦ķ":5410,"Ġcollective":5411,"ohela":5412,"',":5413,"21":5414,"22":5415,"30":5416,"af":5417,"act":5418,"ec":5419,"ial":5420,"ike":5421,"ub":5422,"Ð»":5423,"Ùħ":5424,"Ġà§°":5425,"Ġal":5426,"Ġ---":5427,"Ġáĥ":5428,"à¦¾)à¥¤":5429,"à¦¤à¦ĺà¦¡":5430,"à¦ķà¦¦à¦°":5431,"à¦¯à¦ªà¦¦":5432,"à¦¯à§İà¦ķ":5433,"à¦®à¦ªà¦¦":5434,"Ġà¦ķà§°":5435,"à¥¤âĢĵ":5436,"Ġà¦ªà§Łà¦²":5437,"Ġà¦Ĩà¦ĩà¦ķ":5438,"à¦Łà¦°à¦¸":5439,"Ġà¦®à¦ĩà¦¨":5440,"Ġà¦®à¦ļà¦ķ":5441,"à¦ªà¦¤à¦°":5442,"à¦ªà¦«":5443,"à¦ªà¦ķà¦¤":5444,"à¦ľà¦®à¦¨":5445,"à¦ľà¦²à¦ķ":5446,"à¦ľà¦Ńà¦¬à¦¨":5447,"Ġà¦¤à¦Łà¦¸":5448,"à¦¶à¦ªà¦°à¦®":5449,"à¦¼à§ĩâĢĻ":5450,"à¦ĸà¦Ńà¦°":5451,"à¦Ĺà¦®à¦ķ":5452,"à¦·à¦Ľ":5453,"à¦§à¦¸à¦®":5454,"Ġà¦¯à¦¸":5455,"Ġà¦¯à§İà¦¸":5456,"à¦ļà¦ĸ":5457,"à¦ļà¦ĵ":5458,"à¦ļà¦¤à¦®":5459,"à¦ļà¦ªà¦²":5460,"à¦¹à¦Ĺà¦¨":5461,"Ġà¦ķà¦°à¦®à¦°":5462,"à¦£à¦®à§Ł":5463,"Ġà¦¶à¦ķà¦Ł":5464,"Ġà¦°à¦®à¦²":5465,"Ġà¦°à¦Łà¦¨":5466,"Ġà¦°à¦Ĺà¦¡":5467,"à§ĩà¥¤âĢ¦":5468,"à¦¼à¦¾--":5469,"à¦łà¦¤à¦®":5470,"Ġà¦īà¦Łà¦ķ":5471,"à§Ĥ,":5472,"Ġà¦ĵà¦ľ":5473,"Ġà¦«à¦ľà¦°":5474,"Ġà¦ħà¦¨à¦®":5475,"à¦¾à¥¤\"":5476,"Ġà¦§à¦²":5477,"à¦¬à¦¨à¦¹":5478,"à§ľà¦¸":5479,"Ġà¦®à¦¨à¦Ń":5480,"à¦ľà¦¨à¦¹":5481,"à¦ŀà¦°":5482,"à¦ŀà¦¬":5483,"à¦īà¦ªà¦ķ":5484,"à¦ªà¦¨à¦ķ":5485,"à¦Ĩà¦°à¦¤":5486,"à§İà¦ļ":5487,"à§İà¦ķà¦°":5488,"à¦°à¦ķà¦¥":5489,"Ġà¦¬à¦²à¦²à¦¶":5490,"Ġà¦ķà¦¥à¦ŀ":5491,"Ġà¦¡à¦Ł":5492,"Ġà¦Ŀà¦°à¦£":5493,"Ġà¦Ĩà¦ľà¦®":5494,"à§ĭà¦ģ-":5495,"à¦ħà¦ķà¦¸":5496,"Ġà¦¬à¦¨à¦ľà¦Ļ":5497,"Ġà¦ªà¦¥à¦¨":5498,"à¦ķà¦°à¦ĵ":5499,"à¦¨à¦¬à¦¸à¦¤":5500,"à¦¾---":5501,"à¦Ĺà¦²à¦¬à¦¨":5502,"à¦¶à¦¨à¦Ĺ":5503,"à¦§à¦¨à¦®":5504,"Ġà¦ķà¦²à¦ªà¦¨":5505,"à¦ļà¦²à¦Ĺ":5506,"Ġà¦Ĩà¦¤à¦¶à¦¬":5507,"Ġà¦Ńà¦°à¦Ľ":5508,"Ġà¦¹à¦łà¦ķ":5509,"à§Ģ,âĢĿ":5510,"à¦Ĺà¦°à¦ª":5511,"Ġà¦īà§İà¦ķà¦Ł":5512,"à¦ªà¦¦à¦ĩ":5513,"à¦·à¦¤à¦ļ":5514,"à¦ļà¦ķà¦¦":5515,"à¦ľà¦²à¦ª":5516,"Ġà¦ĩà¦¨à¦¡":5517,"à¦¥à¦¨à¦¯":5518,"à¦®à¦¸à¦ľ":5519,"Ġà¦¬à§ľà¦¬":5520,"Ġà¦Īà¦ª":5521,"à¦¤à¦¦à¦¶":5522,"Ġà¦Ĩà¦ĩà¦¨à¦¶":5523,"à¦¤à¦ĸà¦¨à¦ĵ":5524,"Ġà§¨à§®":5525,"ature":5526,"à§ĩâĢĻâĢĶ":5527,"Ġà¦°à¦¤à¦¨à¦¬":5528,"Ġsom":5529,"Ġà¦Ńà¦Ĺà¦¬à¦¦":5530,"Ġch":5531,"à¦Ŀà¦ķà¦Ŀà¦ķ":5532,"Ġà¦Ŀà¦ķà¦®à¦ķ":5533,"Ġà¦¸à¦«à¦²à¦Ń":5534,"arn":5535,"Ġdis":5536,"Ġhis":5537,"Ġlife":5538,"à§§à§¯à§«à§¨":5539,"Ġà§§à§©à§§à§¬":5540,"Ġà§ªà§¦":5541,"Ġà¦īà¦Ńà§Łà¦ĩ":5542,",--":5543,"26":5544,";âĢĶ":5545,"ah":5546,"ÙĪ":5547,"ĠJ":5548,"Ġà§Ł":5549,"à¦Ķ":5550,"à¦¾),":5551,"à¦¨à¦ı":5552,"à¦¨à¦¸à¦°":5553,"à¦¤à¦ļà¦¨":5554,"à¦ķà¦¬à¦¨":5555,"à¦ķà¦°à¦ķà¦®":5556,"Ġà¦¬à¦ķà¦°":5557,"à¥Ĥ":5558,"à¦¸à§ľ":5559,"à¦Łà¦¤à¦°":5560,"Ġà¦®à¦ĸ":5561,"à¦ĩà¦ľà¦²":5562,"à¦Ľà§Ł":5563,"Ġà¦¹à¦Łà¦¬":5564,"Ġà¦¤à¦ªà¦¤":5565,"Ġà¦¤à¦ªà¦¶":5566,"Ġà¦ħà¦Ľ":5567,"Ġà¦ħà¦¹à¦²":5568,"à¦ĸà¦°à¦ļ":5569,"à¦·à¦«":5570,"à¦·à¦ľà¦¨à¦ķ":5571,"à¦£à¦£":5572,"à¦£à¦¬à¦¸":5573,"Ġà¦ļà¦ĸ":5574,"Ġà¦°à¦¦":5575,"Ġà¦°à¦ĵà¦¯":5576,"à¦ĵà¦ľ":5577,"à¦ĵà¦¸à¦¬":5578,"à¦Ńà¦¡":5579,"à¦Ńà¦°à¦£":5580,"à¦Ńà¦¨à¦²":5581,"à¦¼à¦¾à¥¤âĢĿ":5582,"Ġà¦¬à¦²à¦¨":5583,"Ġà¦§à§°":5584,"Ġà¦ªà¦°à¦°":5585,"ĠâĢ¢":5586,"à¦¼à¦¿âĢĻ":5587,"Ġà¦®à¦¨à¦Ĺ":5588,"Ġà¦ıà¦ĩà¦¤":5589,"à¦ľà¦¨à¦ľ":5590,"à¦ľà¦¨à¦Ĺ":5591,"à¦ľà¦¨à¦ķà¦Ń":5592,"à¦ŀà¦Ĺ":5593,"à¦ªà¦¨à¦¤":5594,"à§İà¦²":5595,"Ġà¦Ĩà¦ľà¦Ĺ":5596,"à¦¤à¦¨à¦ĵ":5597,"à¦ħà¦¬à¦¤":5598,"à¦ķà¦²à¦°à¦¬":5599,"Ġà¦ªà¦¥à¦¶":5600,"à¦ķà¦Łà¦¤à¦®":5601,"à¦¯à¦¬à¦¶à¦¤":5602,"à¦ķà¦¤à¦ĩ":5603,"Ġà¦¹à¦¤à¦ļà¦ķ":5604,"à¦Ĩà¦®à¦²":5605,"à¦Ĺà¦²à¦®à¦¯":5606,"Ġà¦ľà¦²à¦®":5607,"à¦¿à¦ĤâĢĿ":5608,"à¦¨à¦ĵà¦°":5609,"à¦²à¦¬à¦£":5610,"à¦°à¦ľà¦¤":5611,"Ġà¦ħà¦ªà¦¹à¦°à¦£":5612,"Ġà¦ħà¦ªà¦¦à¦¸":5613,"à¦¹à¦°à¦·":5614,"Ġà¦Ĩà¦¤à¦¤":5615,"à¦¦à§Łà¦¬":5616,"à¦°à¦ĵà¦°":5617,"Ġà¦ıà¦°à¦ļ":5618,"à¦ļà¦ķà¦ļà¦ķ":5619,"à§°à¦ľ":5620,"Ġà¦¶à¦¤à¦ª":5621,"Ġà¦¶à¦¤à¦Ń":5622,"Ġà¦¨à¦¬à¦ļ":5623,"à¦¨à¦¸à¦ĩ":5624,"Ġà¦ķà¦¨à¦Ń":5625,"à¦°à¦®à¦£à¦Ł":5626,"Ġà¦ªà¦¶à¦²":5627,"à¦¥à¦ķà¦Ń":5628,"à¤¬":5629,"à¤ľ":5630,"Ġà¦¶à¦¹à¦°à¦ľ":5631,"Ġà§§à§¯à§¦à§«":5632,"à§©à§¨":5633,"à§©à§©":5634,"à¦°à¦«à¦°":5635,"hed":5636,"hen":5637,"ink":5638,"à¦¼!âĢĻ":5639,"Ġà¦Ĩà¦ļà¦°à¦£à¦¬":5640,"à¦¯à¦ľà¦Ĺà¦¤":5641,"à¦ıà¦®à¦¨à¦Ł":5642,"à¦¾âĢĿ,":5643,"Ġthere":5644,"Ġà¦ľà¦¨à¦¸à¦Ń":5645,"Ġà¦Ĩà¦Łà¦ľà¦¨":5646,"Ġà¦Ĩà¦ĩà¦ļ":5647,"Ġà¦°à¦ľà¦¤à¦ķ":5648,"Ġà¦°à¦¥à¦¯":5649,"Ġà¤ª":5650,"à¦īà¦ªà¦¹":5651,"ally":5652,"ĠAI":5653,"ĠPohela":5654,"à¦ĩà¦°à¦ķà¦®à¦ĩ":5655,"ĠTh":5656,"very":5657,"Ġcont":5658,"Ġà¦ļà¦Łà¦ķà¦¦":5659,",âĢĶ":5660,"28":5661,"29":5662,"av":5663,"for":5664,"ok":5665,"pl":5666,"tle":5667,"Ã©":5668,"Ñģ":5669,"ÛĮ":5670,"Ġà§¦":5671,"à§ĩ..":5672,"à§ĩ)à¥¤":5673,"à¦°à¦°à¦¥":5674,"à¦°à¦²à¦ķ":5675,"à¦°à¦¡à¦ķ":5676,"à¦¿/":5677,"à¦¿âĢĮ":5678,"à¦¨à¦ıà¦°":5679,"à¦ķà¦¶à¦ķ":5680,"à¦¯à¦£":5681,"à¦¯à¦¸à¦¬":5682,"à¦¯à¦²à¦ķ":5683,"à¦¯à¦ªà¦ķ":5684,"à¦¯à§Łà¦¨":5685,"à¦¬à¦¹à¦¤":5686,"à¦¬à¦īà¦®":5687,"à¦¼/":5688,"à¦¼âĢĿà¥¤":5689,"à¦¼),":5690,"Ġà¦¬à¦ľà¦°":5691,"Ġà¦¬à¦īà¦²":5692,"Ġà¦¸à¦ªà¦°":5693,"Ġà¦¸à¦Łà¦ķ":5694,"Ġà¦¸à§°":5695,"Ġà¦¸à¦ĺà¦¨":5696,"Ġà¦ªà¦Łà¦ķ":5697,"Ġà¦Ĩà¦£":5698,"Ġà¦Ĩà¦ĩà¦°":5699,"Ġà¦Ĩà¦£à¦¬":5700,"à¦¦à¦Ńà¦°":5701,"à¦Łà¦ªà¦°":5702,"à¦Łà¦°à¦¬":5703,"Ġà¦¦à¦ĩà§Ł":5704,"à¦ľà¦ķà¦²":5705,"Ġà¦¹à¦Łà¦²":5706,"à¦¶à¦°à¦®":5707,"à¦¶à¦²à¦¤":5708,"Ġà¦ħà¦°à¦ķ":5709,"Ġà¦ħà¦«à¦²":5710,"à¦·à¦®à¦¯":5711,"âĢ¨":5712,"à¦ļà¦ķà¦¤":5713,"Ġà¦ķà¦°à¦ª":5714,"Ġà¦Ĺà¦Ł":5715,"à¦¥à¦¸à¦®":5716,"Ġà¦¶à¦¬à¦°":5717,"Ġà¦Ńà¦°à¦¬":5718,"à¦Ńà¦ķà¦°":5719,"à§ĥà¦Ĥ":5720,"à¦łà¦ķà¦°":5721,"à¦łà¦¨à¦Ł":5722,"Ġà¦²à¦ĩà¦²":5723,"Ġà¦«à¦ĸà¦°":5724,"Ġà¦ĸà¦Ĺ":5725,"Ġà¦ħà¦¨à¦¶à¦¨":5726,"à¦¬à¦¨à¦¶":5727,"à§ľà¦Ł":5728,"Ġà¦®à¦¨à¦¯":5729,"Ġà¦®à¦¨à¦ľ":5730,"Ġà¦®à¦¨à¦®à¦°":5731,"à¦¿à¥¤\"":5732,"à¦¿à¥¤âĢĺ":5733,"à¦īà¦¬à¦¨":5734,"à¦īà¦ŀ":5735,"à¦īà¦¦à§Ł":5736,"Ġà¦Ĩà¦²à¦¨":5737,"à¦°à¦¬à¦ļà¦¨":5738,"à¦ıà¦·":5739,"à¦ıà¦ĵ":5740,"à¦¬à¦°à¦ļ":5741,"à¦¬à¦°à¦«":5742,"Ġà¦¬à¦²à¦²à¦¯":5743,"Ġà¦¹à¦²à¦ķ":5744,"Ġà¦¹à¦²à¦«":5745,"Ġà¦¡à¦²à¦«":5746,"à¦ĺà¦¸à¦®à¦¯":5747,"Ġà¦ľà¦¨à¦¹":5748,"à¦¬à¦²à¦¸":5749,"à¦°à¦®à¦®":5750,"à¦·à¦£à¦¹":5751,"à¦ħà¦¬à¦°":5752,"à¦¸à¦¬à¦Ł":5753,"à¦¯à¦¬à¦ĩà¦¯":5754,"à¦²à¦ķà¦¬":5755,"Ġà¦Ĩà¦ªà¦¨à¦ľà¦¨":5756,"à¦¦à¦¨à¦Ĺ":5757,"à¦°à¦¥à¦®à¦ľà¦¨":5758,"Ġà¦ľà¦²à¦ĩ":5759,"à¦¶à¦¨à¦ĵ":5760,"Ġà¦ĺà¦°à¦¦":5761,"à¦²à¦¨à¦Ĺ":5762,"Ġà¦¸à¦°à¦Ľ":5763,"à¦®à¦²à¦Ń":5764,"à¦§à¦¨à¦¶":5765,"à¦²à¦¬à¦¦":5766,"à¦°à¦ľà¦°":5767,"à¦ıà¦ĩà¦¤":5768,"Ġà¦Ĺà¦¨à¦Ĺà¦¨":5769,"Ġà¦®à¦°à¦ļ":5770,"à¦¬à¦¦à¦¤":5771,"à¦ľà¦²à¦¸":5772,"à¦ľà¦²à¦ľ":5773,"à¦°à¦ķà¦®à¦ĩ":5774,"Ġà¦ıà¦ķà¦ľà¦¨à¦ĵ":5775,"Ġà¦¤à¦²à¦¸":5776,"à¦¯à¦¥à¦Ń":5777,"Ġà¦¸à¦®à§Łà¦®à¦¤":5778,"Ġà¦ĸà¦¬à¦°à¦ĵ":5779,"à¦®à§Łà¦¤":5780,"à¦®à¦¸à¦ļ":5781,"Ġà¦¦à¦°à¦¦à¦°":5782,"à¤£":5783,"à§«à§¬":5784,"Ġà¦ľà§Łà¦²":5785,"à§ĩâĢ¦à¥¤âĢĿ":5786,"à¦¬à¦Ńà¦Ļ":5787,"à¦¸à¦¹à¦®à¦°":5788,"Ġà¦ľà¦Ĺà¦¤à¦Ł":5789,"à¦Ĺà¦£à¦¤à¦¨":5790,"Ġà¦¸à§İà¦ķà¦°":5791,"Ġà¦¸à§İà¦ļà¦°":5792,"à¦Ĺà¦Ńà¦¬à¦¨":5793,"à¦¾âĢ¦à¥¤":5794,"à¦¶à¦¦à¦Ń":5795,"à¦¬à§Łà¦¬":5796,"à¦¿âĢ¦à¥¤":5797,"à§ĩ,âĢĿâĢĶ":5798,"ary":5799,"Ġwill":5800,"Ġà¦Ĺà¦Ĺà¦¨à¦ļ":5801,"Ġà§©à§¨":5802,"Ġà§©à§«":5803,"âĢįà§įâĢį":5804,"à¦¬à§İà¦¸à¦²":5805,"Ġà¦¨à¦ĸà¦¦à¦°":5806,"stra":5807,"Ġà¦®à¦°à¦®à¦°":5808,"Ġà¦ļà¦ªà¦²à¦¤":5809,"Ġitself":5810,"Ġà§®à§¦":5811,"Ġone":5812,"uman":5813,"ough":5814,"à§§à§¯à§Ńà§§":5815,"27":5816,"cc":5817,"hy":5818,"mat":5819,"per":5820,"ÙĨ":5821,"à°":5822,"Ġ)":5823,"à§ĩ...âĢĿ":5824,"à¦°à¦ĩà¦²":5825,"à¦°à¦ĵà§Ł":5826,"à¦¨à¦ªà¦¦":5827,"à¦¨à¦®à¦¸":5828,"à¦¤à¦ªà¦°":5829,"à¦²à¦¦à¦²":5830,"à¦¬à§İà¦¸":5831,"à¦¬à¦ľà¦¯":5832,"à¦®à¦¦à¦¨":5833,"à¦®à¦«à¦²":5834,"Ġà¦¸à¦ĩà¦¯":5835,"à¦¸à§ľà¦ķ":5836,"à¦¦à¦ªà¦¦":5837,"à¦Łà¦ªà¦¤à¦Ļ":5838,"Ġà¦®à¦«":5839,"Ġà¦®à¦°à¦¨":5840,"Ġà¦®à¦Łà¦°":5841,"à¦ªà¦Łà¦ķ":5842,"à¦ªà¦¬à§Łà¦¸":5843,"à¦ĩà¦®à¦¤":5844,"à¦ĩà¦®à¦¸":5845,"à¦ĩà¦īà¦°":5846,"à§ĢâĢĻ,":5847,"Ġà¦¦à¦§":5848,"Ġà¦¤à¦ĸ":5849,"Ġà¦ıà¦°à¦ĵ":5850,"Ġà¦ıà¦¨à¦¸":5851,"Ġà¦ıà¦®à¦ª":5852,"à¦ĸà¦ķà¦ķ":5853,"à¦Ĺà¦°à¦¸":5854,"à¦Ĺà¦§à¦°":5855,"à¦Ĺà¦ĺà¦¨":5856,"à¦·à¦²à¦§":5857,"à¦¡à¦¡":5858,"à¦ļà¦ļ":5859,"à¦¹à¦«":5860,"à¦¥à¦°à¦ķ":5861,"à¦Ńà¦ĵ":5862,"à¦¼à¦¾âĢĿ":5863,"Ġà¦Ľà¦ª":5864,"à¦łà¦ľ":5865,"à¦łà¦ĸ":5866,"à¦łà¦ļ":5867,"Ġà¦²à¦¬à¦Ļ":5868,"Ġà¦ħà¦¨à¦§":5869,"à¦¾à¥¤âĢ¦":5870,"Ġà¦ªà¦°à¦ľ":5871,"Ġà¦¸à¦®à¦ķà¦ķ":5872,"ĠâĢĮ":5873,"ĠâĢŀ":5874,"Ġà¦®à¦¨à¦ĩ":5875,"Ġà¦ıà¦ĩà¦ĩ":5876,"à¦ľà¦¨à¦®à¦¤":5877,"à¦ľà¦¨à¦ªà¦¦à¦¬":5878,"à¦¤à¦°à¦¶":5879,"à¦«à¦«":5880,"à¦īà¦¶":5881,"à¦īà¦Łà¦¨":5882,"à¦īà¦ľà¦Ł":5883,"à¦°à¦¬à¦¹à¦®":5884,"à¦Ĩà¦°à¦ķ":5885,"à¦Ĩà¦ĩà¦¸":5886,"Ġà¦¡à¦¨":5887,"Ġà¦ĩà¦Ĺ":5888,"Ġà¦ĩà¦¥":5889,"Ġà¦ĩà¦¶à¦¤":5890,"Ġà¦®à¦¤à¦Ń":5891,"Ġà¦ľà¦¨à¦¶à¦ķ":5892,"à¦·à¦£à¦ľ":5893,"Ġà¦ıà¦¸à¦®à¦¯":5894,"Ġà¦¬à¦¨à¦°":5895,"à¦¨à¦¬à¦¶":5896,"à§ĭ,âĢĻ":5897,"à¦¦à¦¨à¦ĩ":5898,"Ġà¦¬à¦°à¦ªà¦ķ":5899,"Ġà¦ıà¦²à¦¸":5900,"Ġà¦ıà¦²à¦ĩà¦¡":5901,"Ġà¦īà¦¦à¦Ń":5902,"Ġà¦ľà¦²à¦¨":5903,"Ġà¦ĺà¦°à¦ľ":5904,"Ġà¦®à¦¹à¦ķ":5905,"à¦°à¦¶à¦¯":5906,"à¦ĩà¦²à¦¶":5907,"à¦®à¦¯à¦ľ":5908,"à¦ļà¦²à¦Ľ":5909,"âĢ¦à¥¤âĢĿ":5910,"à¦¤à¦²à¦Ĺ":5911,"Ġà¦¶à¦°à§İà¦ķ":5912,"à¦ªà¦¥à¦Ł":5913,"à¦°à¦ªà¦²":5914,"Ġà¦ĵà¦ĩà¦Ń":5915,"Ġà¦Ĩà¦§à¦ª":5916,"à§°à¦¦":5917,"à§°à¦ĩ":5918,"à§°à¦ļ":5919,"à§°à¦Ń":5920,"Ġà¦¸à¦ķà¦²à¦ĩ":5921,"à¦¯à¦°à¦ļà¦¨":5922,"Ġà¦Ĺà§ľà¦Ĺà§ľ":5923,"Ġà¦Ĩà¦¦à¦ª":5924,"à¦¼à¦¾à¥¤à¥¤":5925,"à¦°à¦¹à¦£à¦ķ":5926,"Ġà¦ķà¦¨à¦ķà¦²à¦¤":5927,"Ġà¦¦à¦¶à¦°à¦¥":5928,"Ġà¦¦à¦°à¦¶à¦¨":5929,"à§©à§§":5930,"à¦¿âĢĻ!":5931,"à¦¿âĢĻ-":5932,"here":5933,"à¦¶à¦°à§İ":5934,"Ġà¦Ĩà¦ĩà¦¨à¦¸":5935,"à¦īà¦¡à¦¸":5936,"Ġà¦¢à¦²à¦¢à¦²":5937,"Ġour":5938,"Ġà¦Ĩà¦Łà¦ļà¦²":5939,"à§ĭ?âĢĿâĢĶ":5940,"Ġcl":5941,"ard":5942,"ark":5943,"à¦Ĩà¦¨à¦®à¦¨":5944,"Ġbet":5945,"Ġpr":5946,"ict":5947,"Ġà§©à§«à§¦":5948,"out":5949,"à§ĩâĢĿâĢĵ":5950,"Ġà§¨à§¦à§§à§§":5951,"à¦¬à¦°à¦²à¦¹à¦°":5952,"à¦Īà¦¨":5953,"Ġà§«à§¦à§¦":5954,"à¦¿'à¥¤":5955,"Ġbec":5956,"ose":5957,"à¦¡à¦Ńà¦£":5958,"ĠGod":5959,"Ġà¦¹à¦ľà¦¸à¦¨":5960,"Ġà¦§à¦ªà¦§à¦ª":5961,"Ġknow":5962,"Ġ____":5963,"31":5964,"?\"":5965,"AI":5966,"aw":5967,"ek":5968,"mp":5969,"oy":5970,"por":5971,"ÑĤ":5972,"Ø´":5973,"áĢ":5974,"Ġ#":5975,"à§ĩà§Ģ":5976,"à§įâĢĵ":5977,"à¦¿)à¥¤":5978,"à¦¨à¦¸à¦¤":5979,"à¦²à¦¬à¦ª":5980,"à¦²à¦ļà¦¨":5981,"à¦²à¦Ŀà¦°":5982,"à¦ķà¦ķà¦²":5983,"à¦¯à¦°à¦¤":5984,"à¦¯à¦°à¦ķ":5985,"à¦¯à¦¬à¦²":5986,"à¦¬à¦Łà¦¬":5987,"à¦®à¦ľà¦²":5988,"à¦®à¦§à¦°":5989,"Ġà¦ķà¦ĵà¦¯":5990,"Ġà¦ķà¦ĩà¦¬":5991,"à¦¸à¦Ńà¦°":5992,"Ġà¦ªà¦ªà¦ķà¦°":5993,"à¦¦à¦¶à¦®":5994,"à¦ªà¦ľà¦¨":5995,"à¦ĩà¦¡à¦²":5996,"à¦Ľà¦Ń":5997,"Ġà¦¦à¦¬":5998,"Ġà¦¦à¦¦":5999,"Ġà¦¦à¦ĩà¦¯":6000,"Ġà¦¹à¦Łà¦¤":6001,"Ġà¦¤à¦ľ":6002,"Ġà¦¤à¦°à¦®":6003,"à¦¶à¦®à¦£":6004,"à¦ĸà¦²à¦¨":6005,"à¦ĸà¦ľà¦¨à¦ķ":6006,"à¦§à¦ªà¦¤":6007,"à¦ļà¦ĵà¦¡":6008,"à¦¹à¦ªà¦°":6009,"Ġà¦ķà¦°à¦®":6010,"Ġà¦Ĺà¦¸":6011,"à¦£à¦²à¦¤":6012,"à¦£à¦®à¦£":6013,"à¦ĵà¦«":6014,"à¦łà¦ĩ":6015,"Ġà¦īà¦Ĺà¦°":6016,"à¦ĤâĢ¦":6017,"à¦Ļà¦Ł":6018,"Ġà¦ĵà¦ħà¦°":6019,"Ġà¦¬à¦²à¦¶":6020,"à¦¬à¦¨à¦¨":6021,"à¦¼à¦¿;":6022,"à§ľà¦¹":6023,"Ġà¦ıà¦ĩà¦¦":6024,"à¦¤à¦°à¦ŀ":6025,"à¦īà¦¤à¦°":6026,"à¦īà¦ªà¦¤":6027,"Ġà¦Ĩà¦²à¦ĸ":6028,"à¦Ĩà¦Łà¦ķ":6029,"Ġà¦¸à¦¬à¦¸":6030,"Ġà¦Łà¦Ĺà¦°":6031,"Ġà¦ĩà¦īà¦ľ":6032,"Ġà¦§à¦°à¦¨à¦Ł":6033,"à¦¬à¦²à¦°":6034,"à¦¬à¦²à¦Ł":6035,"à¦·à¦£à¦ª":6036,"à¦ħà¦¸à¦¤":6037,"à¦ħà¦Ĺà¦£":6038,"Ġà¦¬à¦¨à¦Ł":6039,"Ġà¦¨à¦¤à¦¶":6040,"Ġà¦ħà¦®à¦¤":6041,"Ġà¦Ĩà¦Ĺà¦®":6042,"à¦ķà¦Łà¦®":6043,"à¦°à¦¸à¦¦à¦¨":6044,"à¦¨à¦¬à¦Ĺ":6045,"à¦¦à¦¨à¦¦":6046,"à¦¦à¦¨à¦ª":6047,"Ġà¦¬à¦°à¦²":6048,"à§ĩ?\"":6049,"Ġà¦īà¦ªà¦¸à¦°":6050,"Ġà¦īà¦ªà¦¶à¦®":6051,"à¦¯à¦¤à¦²":6052,"Ġà¦ħà¦ªà¦ª":6053,"à¦ļà¦²à¦Ń":6054,"Ġà¦¸à¦¹à¦§à¦°":6055,"Ġà¦ĵà¦ªà¦°à¦ĵ":6056,"Ġà¦¬à¦Ľà¦°à¦ĵ":6057,"Ġà¦°à¦Ļà¦§à¦¨":6058,"Ġà¦¯à¦¤à¦Ĺ":6059,"Ġà¦ªà¦¦à¦ª":6060,"Ġà¦ıà¦Ĺà¦ľ":6061,"à¦ªà¦¦à¦Ł":6062,"à¦ªà¦¦à¦Ĺ":6063,"à¦ªà¦¥à¦Ń":6064,"Ġà¦ħà¦ªà¦°à¦ªà¦ķ":6065,"Ġà¦«à¦²à¦Ĺ":6066,"à¦¤à¦ķà¦°à¦¬":6067,"Ġà¦²à¦ķà¦¡":6068,"Ġà¦ªà¦¤à¦ŀ":6069,"Ġà¦¤à¦²à¦ª":6070,"Ġà¦¸à¦®à§Łà¦¸":6071,"Ġà¦ĺà¦¨à¦ĺ":6072,"à¦¹à¦¤à¦Ń":6073,"Ġà¦Īà¦®":6074,"Ġà¦īà¦ªà¦¨à¦¯":6075,"à¤Ĺ":6076,"Ġà¦®à¦²à§Ł":6077,"Ġà¦ľà§Łà¦¦":6078,"Ġà§§à§¯à§§à§Ń":6079,"à§©à§«":6080,"à§©à§¯":6081,"ond":6082,"âĢ¦âĢĿâĢĶ":6083,"ated":6084,"à¦¸à¦ķà¦²à¦ķ":6085,"Ġà¦¦à¦ĸà¦²à¦¦":6086,"Ġapp":6087,"Ġwor":6088,"à¦ļà¦®à§İà¦ķ":6089,"à¦ĭà¦¦":6090,"à¦Ĩà¦ļà¦®à¦ķ":6091,"ice":6092,"led":6093,"Ġà¦ķà¦¬à¦°à¦¸":6094,"Ġà¦¨à§ľà¦Ľ":6095,"Ġà¦®à¦¦à¦¨à¦®":6096,"Ġà¦ķà§ľà¦ķà§ľ":6097,"Ġliter":6098,"Ġthis":6099,"Ġà§Ńà§¦":6100,"igo":6101,"Ġà¦¸à¦®à¦Ŀà¦¦":6102,"ame":6103,"Ġà¦ķà¦ªà¦Łà¦¤":6104,"age":6105,"ĠĠĠĠĠĠĠĠĠĠĠĠĠĠĠĠ":6106,"Ġà¦®à¦ĸà¦®à¦²":6107,"\"à¥¤":6108,"34":6109,"IN":6110,"cle":6111,"ep":6112,"ff":6113,"ood":6114,"ru":6115,"ter":6116,"ther":6117,"uc":6118,"à´":6119,"à¦°à¦Ŀà¦°":6120,"à§įà§į":6121,"à¦¿ÂŃ":6122,"à¦¨à¦ł":6123,"à¦¨à¦Ĩà¦ªà¦¨":6124,"à¦¤à¦Ļ":6125,"à¦¤à¦ªà¦²":6126,"à¦²à¦ªà¦°":6127,"à¦¯à¦¦à¦°":6128,"à¦¬à§İà¦¸à¦°":6129,"à¦®à¦®à§Ł":6130,"Ġà¦¬à¦°à¦¨":6131,"Ġà¦¬à¦ļà¦¸":6132,"Ġà¦¸à¦¦à¦¨":6133,"Ġà¦¸à¦°à¦¸à¦°":6134,"à¦¸à¦¬à¦¨":6135,"Ġà¦¨à¦ĵà¦°":6136,"Ġà¦®à§ľ":6137,"à¦ªà¦¬à¦¦":6138,"à¦ĩà¦·":6139,"à¦ĩà¦¸à¦®à¦¯":6140,"à¦ĩà¦¸à¦Ł":6141,"à§ĢâĢĿà¥¤":6142,"à¦Ľà¦ļ":6143,"à¦ľà¦°à¦£":6144,"Ġà¦¹à¦°à¦ª":6145,"Ġà¦ıà¦§":6146,"Ġà¦ıà¦Ļ":6147,"Ġà¦ıà¦®à¦¬":6148,"à¦¼à§ĩ?âĢĿ":6149,"Ġà¦ħà§°":6150,"Ġà¦ħà¦®à¦¨à¦ĩ":6151,"à¦Ĺà¦°à¦ľ":6152,"à¦Ĺà¦ªà¦¥":6153,"à¦Ĺà¦®à§Ł":6154,"à¦¡à¦ĵà§Ł":6155,"à¦ļà¦°à¦®":6156,"à¦ļà¦ªà¦¦à¦¸":6157,"à¦¹à¦§":6158,"à¦¹à¦²à¦ķ":6159,"Ġà¦ķà¦°à¦¹":6160,"à§Łà¦ľ":6161,"à§Łà¦ľà¦¨":6162,"à§Łà¦¤à¦¨":6163,"Ġà¦Ĺà¦Ĺ":6164,"à¦£à¦ļà¦°":6165,"à¦¥à¦Ľ":6166,"à¦¥à¦°à¦¬":6167,"Ġà¦°à¦¥à¦¬":6168,"à¦¼à¦¾à¦ģ":6169,"à¦¼à¦¾à¦ĥ":6170,"à§ĥà§į":6171,"Ġà¦Ľà¦²à¦ķ":6172,"à¦ĤâĢĶ":6173,"à¦¾à¦ģâĢ¦":6174,"Ġà¦¬à¦²à¦ª":6175,"Ġà¦ĸà§ľà¦ķ":6176,"à¦°à¦¤à¦Ł":6177,"Ġà¦ħà¦¨à¦®à¦¨":6178,"à¦ľà¦¨à¦§à¦°":6179,"à¦«à¦¦":6180,"à¦īà¦«":6181,"à¦ªà¦¨à¦Ł":6182,"à¦°à¦¬à§İ":6183,"à¦Ĩà¦«":6184,"à¦Ĩà¦¹à¦¤":6185,"à¦ıà¦¤à¦Ł":6186,"à¦ıà¦¤à¦ĩ":6187,"à¦¬à¦°à¦ļà¦¨":6188,"Ġà¦Ĩà¦¸à¦¨à¦Ł":6189,"Ġà¦¹à¦²à¦Ł":6190,"Ġà¦ĩà¦Łà¦¸":6191,"Ġà¦®à¦¤à¦ª":6192,"Ġà¦ľà¦¨à¦¬":6193,"Ġà¦Ŀà¦®":6194,"à¦¬à¦²à¦ª":6195,"Ġà¦ļà¦²à¦ķ":6196,"Ġà¦ıà¦¸à¦ª":6197,"à¦¤à¦¨à¦¦":6198,"Ġà¦¨à¦¤à¦®":6199,"à¦ķà¦²à¦¬":6200,"Ġà¦ªà¦¥à¦¯":6201,"Ġà¦ħà¦®à¦²à¦¤":6202,"Ġà¦Ĺà¦²à¦²":6203,"Ġà¦ĵà¦łà¦Ľ":6204,"à¦ķà¦Łà¦²":6205,"à¦ķà¦Łà¦®à¦¯":6206,"à¦¸à¦¬à¦¹":6207,"Ġà¦Ĩà¦ķà¦¨":6208,"à¦¾à¦Ĥ-":6209,"à¦¾à¦Ĥà¥¤":6210,"à¦¦à¦¨à¦ĵ":6211,"à¦ķà¦¤à¦®":6212,"à¦¦à¦°à¦Ń":6213,"à¦Ĺà¦¤à¦ĩ":6214,"à¦®à¦¤à¦Ń":6215,"à¦°à¦¹à¦ĩ":6216,"à¦°à¦¹à¦ĵ":6217,"Ġà¦īà¦ªà¦¶":6218,"à¦ĩà¦²à¦ĸ":6219,"à¦°à¦¦à¦®":6220,"à¦°à¦ľà¦Ĺà¦¤":6221,"Ġà¦ķà¦²à¦ľ":6222,"Ġà¦Ĩà¦¤à¦ª":6223,"à¦ĩà¦¨à¦²":6224,"à¦ıà¦ĩà¦°":6225,"à¦Ńà¦¬à¦ĩ":6226,"à¦Ńà¦¬à§İ":6227,"Ġà¦Ĳà¦²":6228,"à§ĩ!'":6229,"à¦ıà¦ķà¦¸à¦®à§Ł":6230,"Ġà¦¬à¦ĩà¦¸":6231,"Ġà¦¬à¦ĩà¦ª":6232,"Ġà¦¬à¦ĩà¦ĩ":6233,"à¦¬à¦¸à¦Ń":6234,"à¦Łà¦²à¦®":6235,"à¦Łà¦²à¦®à¦²":6236,"Ġà¦«à¦²à¦¦":6237,"Ġà¦«à¦²à¦ĵ":6238,"à¦¯à¦®à¦ĩ":6239,"à¦¬à¦ķà¦¨":6240,"à¦¤à¦¤à¦¸":6241,"à§°à¦§":6242,"à¦ªà¦¸à¦¦":6243,"à¦Łà¦¬à¦¡":6244,"à¦īà¦²à¦Ĺ":6245,"Ġà¦ĺà¦¨à¦ĺà¦Ł":6246,"Ġà¦ķà¦¨à¦¡":6247,"à§¨à§¯":6248,"Ġà¦¹à¦°à¦°":6249,"Ġà¦Ĩà¦Ńà¦°à¦£":6250,"à¤ª":6251,"à¦®à¦¦à¦¤":6252,"à§ĩâĢ¦)":6253,"à§©à§Ń":6254,"Ġà¦Ĩà¦ĩà¦¨à¦Ĺà¦¤":6255,"à¦ľà¦Ĺà§İà¦ķ":6256,"à¦¨à§Łà¦¨à¦¶":6257,"à¦¬à¦ľà¦¨à¦¨":6258,"Ġà¦Ĩà§ľà¦·":6259,"à¦ħà¦¬à¦¸à¦°":6260,"ath":6261,"à¦¬à¦°à¦£à¦ķ":6262,"eng":6263,"ise":6264,"Ġà¦ļà¦°à¦£à¦¤à¦²":6265,"Ġà¦Ķà§İà¦¸":6266,"Ġso":6267,"à¦¦à¦ªà¦¤à¦¨":6268,"à¦ľà¦¦à¦£":6269,"Ġà¦°à¦ľà¦¤à¦¬":6270,"Ġam":6271,"à¦¾?âĢĿâĢĶ":6272,"à¦Ĩà¦¤à¦Ļ":6273,"à¦īà¦łà¦¤":6274,"Ġà¦¨à¦Łà¦¬à¦°":6275,"Ġà§¨à§¦à§§à§¨":6276,"Ġà¤¬":6277,"à¦ĸà¦¬à¦°à¦Ł":6278,"Ġà¦ħà¦¬à¦¸à¦°à¦ª":6279,"à¦°à¦¬à¦£à¦¶à¦ķ":6280,"à§§à§¯à§¬":6281,"Ġthings":6282,"rad":6283,"etective":6284,"ĠBe":6285,"Ġà¦¨à¦ĵà¦¶":6286,"Ġev":6287,"ĠRup":6288,"own":6289,"ĠDe":6290,"Ġà§§à§®à§«à§Ń":6291,"Ġwhat":6292,"Ġà¦Łà¦¹à¦²à¦¦":6293,"Ġà§¨à§¦à§¦à§¯":6294,"Ġ___":6295,"Ġtrans":6296,"!âĢĶ":6297,");":6298,"32":6299,"35":6300,"TI":6301,"from":6302,"ject":6303,"ll":6304,"ne":6305,"ob":6306,"pH":6307,"way":6308,"Ñĥ":6309,"à®":6310,"Ġif":6311,"à§ĩ),":6312,"à¦°à¦Ĺà¦¨":6313,"à¦¨à¦ªà¦ķ":6314,"à¦¨à§Łà¦¬":6315,"à¦¤à¦¬à¦¨":6316,"à¦¤à¦Ĺà¦£":6317,"à¦¤à¦¶à¦¤":6318,"à¦²à¦®à¦§":6319,"à¦ķà¦ªà¦°":6320,"à¦ķà¦¬à¦²":6321,"à¦ķà¦¸à¦¬à¦ľ":6322,"à¦¯à¦¡":6323,"à§ģ)":6324,"à¦¬à¦ĺ":6325,"à¦¬à¦°à¦¬à¦°":6326,"à¦¼âĢĻà¥¤":6327,"à¦®à¦®à¦£":6328,"à§ĭ)":6329,"Ġà¦¬à¦ĸ":6330,"Ġà¦¬à¦ªà¦£":6331,"Ġà¦¸à¦ĵà§Ł":6332,"à¦¸à¦¬à¦²":6333,"à¦¸à¦®à¦ķ":6334,"à¦¸à¦¯à¦ľ":6335,"Ġà¦Ĩà¦ĵà§ľ":6336,"à¦¦à¦ĸà¦²":6337,"à¦Łà¦°à¦Ł":6338,"Ġà¦¨à¦°à¦¹à¦°":6339,"Ġà¦®à¦Ĺà¦ľà¦Ł":6340,"à¦ªà¦®à¦£":6341,"à¦ªà§°":6342,"à¦ªà¦¯à¦ľ":6343,"à¦ĩà¦²à¦¨":6344,"à¦ĩà¦ĺà¦°":6345,"à¦ĩà¦ļà¦Ł":6346,"à¦Ľà¦²à¦¨":6347,"à¦ľà¦¦à¦°":6348,"Ġà¦¹à¦¦à¦¯":6349,"à¦¶à¦²à¦¯":6350,"Ġà¦ħà¦¤à¦¬à¦¡":6351,"à¦ĸà¦¹":6352,"à¦Ĺà§İ":6353,"à¦Ĺà¦Ńà¦°":6354,"à¦§à¦¤à¦°":6355,"à¦§à¦¬à¦°":6356,"à¦ļà¦²à¦ķ":6357,"à¦ļà¦¶à¦®":6358,"Ġà¦ķà¦°à¦¦":6359,"à¦£à¦ĸ":6360,"à¦£à¦ªà¦ķ":6361,"à¦¥à¦ļ":6362,"Ġà¦¶à¦¤à¦°à¦Ļ":6363,"Ġà¦ľà¦Ĺà¦ľ":6364,"Ġà¦ľà¦łà¦°":6365,"Ġà¦°à¦²":6366,"à¦ĵà¦²à¦ľ":6367,"Ġà¦ıà¦ķà¦¶à¦¬":6368,"Ġà¦ıà¦ķà¦ĺà¦°":6369,"Ġà¦Ĩà¦®à¦¸":6370,"Ġà¦īà¦ĩà¦¦":6371,"à¦Ļà¦¡":6372,"Ġà¦²à¦ķà¦²à¦ķ":6373,"à§ĩ,--":6374,"Ġà¦ĸà§Ł":6375,"à¦°à¦¤à¦ª":6376,"à¦¬à¦¨à¦ĸ":6377,"à¦¬à¦¨à¦ļà¦°":6378,"à§ľà¦Ń":6379,"à¦īà¦ĸ":6380,"à¦īà¦°à¦¤à¦¨":6381,"à¦Ĩà¦ĩà¦¡":6382,"à¦¬à¦°à¦¸":6383,"Ġà¦¬à¦²à¦²à¦ıà¦ķà¦Ł":6384,"Ġà¦Łà§Łà¦²":6385,"Ġà¦ĩà¦®à¦¤":6386,"Ġà¦ľà¦¨à¦®à¦¨":6387,"Ġà¦ľà¦¨à¦¬à¦¸à¦¤":6388,"à¦¬à¦ªà¦¦":6389,"à¦°à¦®à¦¦":6390,"à¦°à¦®à¦¶à¦ķ":6391,"à¦¤à¦¨à¦Ĺ":6392,"à¦ħà¦ĸà¦£":6393,"à¦¤à¦¬à¦®":6394,"à¦Ĺà¦²à¦ĩ":6395,"à¦¹à¦¸à¦ĵ":6396,"Ġà¦®à¦¹à¦¡":6397,"à¦Ľà¦¨à¦Ł":6398,"à¦§à¦¨à¦Ńà¦ľà¦¨":6399,"à¦°à¦ľà¦ķ":6400,"Ġà¦īà§İà¦ĸ":6401,"Ġà¦Ĺà¦°à¦Ĺà¦°":6402,"à¦¯à¦®à¦ŀ":6403,"à¦¤à¦ķà¦¦":6404,"à¦¤à¦ķà§ľ":6405,"à¦¤à¦®à¦ľ":6406,"Ġà¦ĩà¦¨à¦¶":6407,"Ġà¦ħà¦²à¦°":6408,"à¦ķà¦¨à¦¸":6409,"à¦¸à¦ķà¦Ĺ":6410,"à§°à¦¥à¦®":6411,"Ġà¦¶à¦¤à¦Ĺ":6412,"Ġà¦Ĩà¦ļà¦®":6413,"Ġà¦Ĩà¦¦à¦°à¦£":6414,"à¦Ĺà¦ľà¦ĸ":6415,"Ġà¦Ĩà¦¹à¦®à¦¦":6416,"Ġà¦ĸà¦¬à¦°à¦ĩ":6417,"Ġà¦ķà¦·à¦²":6418,"Ġà¦¨à¦°à¦®à¦¤":6419,"à¦ľà¦¬à¦ī":6420,"à¦ľà¦¬à¦īà¦¦":6421,"à¦®à¦Łà¦®":6422,"à§ĭ--":6423,"Ġà¦¬à§ľà¦°":6424,"Ġà¦®à¦ľà¦¦":6425,"à¦°à¦°à¦Ļ":6426,"à¤¸":6427,"à¦ķà¦¸à¦Ń":6428,"à¦¿âĢĻâĢĵ":6429,"à§Ńà§¦":6430,"à§ĩ!âĢĿâĢĶ":6431,"Ġà¦ļà¦Łà¦ļà¦Ł":6432,"Ġà¦®à¦¶à¦ķà¦°":6433,"ater":6434,"ative":6435,"ality":6436,"Ġà¦Ĩà§Łà¦¤à¦¨":6437,"ert":6438,"Ġthem":6439,"à¦¾âĢ¦âĢĻ":6440,"Ġà¦²à§ľà¦Ľ":6441,"Ġsoci":6442,"à¦ĩà¦«à¦¯":6443,"arg":6444,"Ġà¦°à¦£à¦¸":6445,"Ġà¦Ńà¦¬à¦¨à¦Ł":6446,"à¦¾,âĢĿâĢĶ":6447,"ions":6448,"à¦ªà¦ľà¦Ļ":6449,"Ġfre":6450,"Ġà¦®à¦¦à¦¨à¦¦":6451,"Ġhad":6452,"Ġhuman":6453,"Ġlove":6454,"Ġlike":6455,"ĠIs":6456,"ĠAr":6457,"____":6458,"à¦Ĭà¦·":6459,"áĥĺ":6460,"Ġà¦ĸà¦²à¦ĸà¦²":6461,"Ġà§§à§¯à§¯à§«":6462,"Ġonly":6463,"erson":6464,"à¦ķà¦Ŀà¦²à¦ķ":6465,"Ġà¦°à¦¸à¦¬à¦¤":6466,"Ġabstra":6467,"Ġdisc":6468,"!(":6469,",---":6470,"33":6471,"37":6472,"55":6473,"?-":6474,"Th":6475,"ake":6476,"cy":6477,"hin":6478,"man":6479,"oore":6480,"Ġ`":6481,"Ġâ":6482,"à§»":6483,"à¦°à¦¡à¦¬":6484,"à§įâĢ¦":6485,"à¦¿à§Ģ":6486,"à¦¨à¦¶à¦ķ":6487,"à¦¤à§İ":6488,"à¦¤à¦¸à¦¨":6489,"à¦¤à§°":6490,"à¦²à¦Ĺà¦²":6491,"à¦²à¦°à¦ķà¦®":6492,"à¦²à¦ªà¦®":6493,"à¦ķà¦ĵà¦¯":6494,"à¦ķà¦ªà¦¥":6495,"à¦¯à¦·":6496,"à¦¬à¦ĩà¦Ł":6497,"à¦®à¦ªà¦ķ":6498,"à¦®à¦¸à¦Ļ":6499,"Ġà¦ķà¦Ľ":6500,"Ġà¦ķà¦ĩà¦Ľ":6501,"Ġà¦¬à¦Łà¦²":6502,"Ġà¦¬à§°":6503,"à¥¤]":6504,"à¦¸à¦ĵà§Ł":6505,"à¦¸à§İà¦ķ":6506,"à¦¸à¦¹à¦¨":6507,"Ġà¦Ĩà¦ĩà¦ª":6508,"à¦¦à¦¬à¦¨":6509,"à¦¦à¦ļà¦¯":6510,"à¦¦æĹ¥ãģ®":6511,"à¦Łà¦¤à¦®":6512,"Ġà¦¨à¦°à¦¸":6513,"Ġà¦®à¦¬":6514,"à¦ªà¦¹à¦°":6515,"à¦ĩà¦®à¦¨":6516,"à¦ĩà¦ªà¦Ł":6517,"à¦ĩà¦¶à¦Ł":6518,"à§ĢâĢ¦âĢĿ":6519,"à¦Ľà¦®":6520,"à¦ľà¦ªà¦¦":6521,"Ġà¦ıà¦ĺà¦°":6522,"Ġà¦ıà¦Ńà¦°":6523,"à¦¶à¦°à¦£":6524,"à¦¶à¦¸à¦®":6525,"à¦¶à§Łà¦¨":6526,"Ġà¦ħà¦ªà¦¨":6527,"à¦ĸà¦¬à¦¨":6528,"à¦ĸà¦®à§Ł":6529,"à¦Ĺà¦ªà¦¤":6530,"à¦·à¦¬à¦°à¦£":6531,"Ġà¦¯à¦ľà¦¨":6532,"à§Łà¦¸à¦Ļ":6533,"Ġà¦Ĺà¦ľà¦¬":6534,"Ġà¦¶à¦¬à¦¨à¦®":6535,"à¦ĵà¦·":6536,"à¦ĵà¦ĵ":6537,"à¦Ńà¦ŀ":6538,"Ġà¦ıà¦ķà¦ªà¦°":6539,"Ġà¦Ĩà¦®à¦ľà¦¨à¦¤":6540,"à¦łà¦§":6541,"à¦łà¦¤à¦°":6542,"à¦łà¦ļà¦ķ":6543,"Ġà¦ĵà¦ľà¦¸":6544,"à¦°à¦¤à¦ĵ":6545,"à§ľà¦¦":6546,"à¦ªà¦°à¦Ł":6547,"à¦¿à¥¤'":6548,"à¦®à¦¨à¦Ĺà¦°":6549,"à¦ľà¦¨à¦¬à¦°":6550,"à¦īà¦¬à¦²":6551,"à¦īà¦ĩà¦¨":6552,"à¦īà¦¤à¦²":6553,"Ġà¦Ĩà¦²à§Ł":6554,"à¦°à¦¬à¦¬":6555,"à¦°à¦¬à¦ª":6556,"à¦Ĩà¦°à¦®":6557,"à¦°à¦ķà¦ķ":6558,"Ġà¦¬à¦²à¦²à¦ıà¦¬":6559,"Ġà¦¬à¦²à¦²à¦Ĳ":6560,"Ġà¦Łà¦¨à¦ķ":6561,"âĢĻ)":6562,"âĢĻà¥¤âĢĿ":6563,"Ġà¦ĩà¦¬à¦¨":6564,"Ġà¦ĩà¦īà¦ķ":6565,"Ġà¦ĩà¦¶à¦°":6566,"Ġà¦ĩà¦Ńà¦¨":6567,"Ġà¦ĩà¦¨à¦¬à¦ķ":6568,"à¦ĺà¦·":6569,"à¦ĺà¦ļ":6570,"à¦¬à¦²à¦Ń":6571,"Ġà¦łà¦ķà¦¬":6572,"à¦¤à¦¨à¦¬":6573,"à¦ħà¦«à¦²":6574,"Ġà¦¬à¦¨à¦ķ":6575,"Ġà¦¬à¦¨à¦¦":6576,"à¦ķà¦²à¦ľ":6577,"à¦ķà¦°à¦Ľ":6578,"à¦ķà¦Łà¦¸":6579,"Ġà¦ħà¦¸à¦¤à¦°":6580,"à¦¤à¦¬à¦Ĺ":6581,"à¦¨à¦¬à¦§à¦°":6582,"à¦¦à¦¨à¦®":6583,"Ġà¦¬à¦°à¦ĩ":6584,"à§ĩ?âĢĵ":6585,"Ġà¦Ĩà¦¨à¦¯":6586,"Ġà¦Ĩà¦¨à¦¸":6587,"à¦Ĺà¦²à¦¨":6588,"à¦Ĺà¦²à¦Ľ":6589,"à¦Ĺà¦²à¦®à§Ł":6590,"Ġà¦ľà¦²à¦®à¦Ĺ":6591,"à¦¿à¦Ĥ!âĢĿ":6592,"à¦¶à¦¨à¦¸":6593,"à¦¶à¦¨à¦¶":6594,"Ġà¦ħà¦¤à¦ĸ":6595,"Ġà¦¸à¦°à¦Ĺà¦°à¦®":6596,"à¦Ľà¦¨à¦ª":6597,"à¦ĩà¦²à¦Ĺ":6598,"à¦ĩà¦²à¦«à¦²à¦ķ":6599,"à§ĩâĢĶâĢĻ":6600,"Ġà¦ħà¦ªà¦²":6601,"Ġà¦ıà¦®à¦¨à¦¤à¦°":6602,"Ġà¦¸à¦¹à¦®à¦¤":6603,"Ġà¦ĵà¦°à¦ĵ":6604,"à¦Ńà¦¬à¦ĵ":6605,"à¦¹à¦²à¦¹":6606,"âĢ¦âĢ¦":6607,"âĢ¦à¥¤âĢĻ":6608,"Ġà¦ķà¦®à¦£":6609,"à¦Ĺà¦¨à¦¸":6610,"Ġà¦ªà¦¦à¦¶à¦¬":6611,"à¦°à¦ªà¦Ļ":6612,"Ġà¦¬à¦ĩà¦ĵ":6613,"à¦·à¦¤à¦®":6614,"à¦·à¦ķà¦¥":6615,"à¦¶à¦ķà¦ķ":6616,"Ġà¦Ĩà¦¡à¦®":6617,"à¦¸à¦ķà¦¦à¦²":6618,"à¦¨à¦¸à¦¹":6619,"à¦¨à¦°à¦°":6620,"à¦ĩà¦Łà¦Ł":6621,"à¦ĩà¦Łà¦Ĺ":6622,"à¦Łà¦¨à¦®":6623,"à¦²à¦Ĺà¦ŀ":6624,"à¤·":6625,"à¦ķà¦°à¦£à¦Ĺà¦¤":6626,"Ġà¦°à¦ĵà¦¶à¦¨à¦ĩ":6627,"à§ĩâĢ¦.":6628,"Ġà¦ħà¦Łà¦²à¦¤":6629,"à¦¯à¦Ńà¦Ļ":6630,"à¦°à¦«à¦°à¦®":6631,"à¦ļà§Łà¦ķ":6632,"à¦·à§Łà¦¬à¦¸":6633,"ens":6634,"ener":6635,"à¦Ńà§Łà¦ķ":6636,"ital":6637,"Ġthese":6638,"Ġà¦°à¦ľà¦¤à¦¦":6639,"Ġà¦Ĩà¦Łà¦¶":6640,"à§ĩâĢĻâĢĵ":6641,"Ġsol":6642,"Ġà¦Ĩà¦ĩà¦ĵà¦Ł":6643,"à§İà¦ªà§°":6644,"à¦ĩà¦«à¦¸":6645,"à§ģ!)":6646,"Ġà¦ıà¦®à¦ı":6647,"à¦ħà¦²à¦Ļ":6648,"à¦ħà¦ªà¦²à¦ķ":6649,"Ġpart":6650,"à¦ħà¦Ĺà¦£à¦¨":6651,"à¦®à¦Ŀà¦®":6652,"Ġà§§à§¯à§Ńà§¦":6653,"Ġà¦ĸà¦°à¦ĸà¦°":6654,"Ġhim":6655,"Ġà¤Ĩ":6656,"omp":6657,"vel":6658,"Ġà¦¶à¦°à§İà¦¬":6659,"à§§à§¯à§®":6660,"ily":6661,"à§į!!":6662,"Ġà¦¨à¦ĵà¦ľ":6663,"Ġà§Ńà§«":6664,"Ġà¦ķà¦¸à¦°à¦¤":6665,"Ġres":6666,"cept":6667,"Ġits":6668,"Ġcons":6669,"Ġà§§à§¯à§®à§¯":6670,"Ġà§§à§¯à§¬à§®":6671,"Ð°Ð":6672,"Ġà¦®à¦ļà¦®à¦ļ":6673,"Ġindigo":6674,"ividual":6675,")-":6676,"-âĢľ":6677,"36":6678,"?'":6679,"?âĢĶ":6680,"are":6681,"cl":6682,"dv":6683,"hil":6684,"iz":6685,"ian":6686,"ma":6687,"mer":6688,"not":6689,"pect":6690,"sh":6691,"ura":6692,"uhin":6693,"xx":6694,"Â«":6695,"Ñĭ":6696,"à¨":6697,"Ġ...":6698,"à¦°à¦²à¦¤":6699,"à¦°à¦ļà¦ķ":6700,"à¦°à¦ĭà¦£":6701,"à§į?":6702,"à§įâĢĶ":6703,"à¦¨à¦ļà¦¨":6704,"à¦¨à¦ļà¦ķ":6705,"à¦¨à¦ªà¦Ł":6706,"à¦¤à¦¦à¦°":6707,"à¦¤à¦ªà¦¤":6708,"à¦¤à¦¤à¦²":6709,"à¦¤à¦°à¦¤à¦®":6710,"à¦²à¦§à¦°":6711,"à¦²à¦Łà¦¨":6712,"à¦²à¦¶à¦¯":6713,"à¦ķà¦¥à¦¨":6714,"à¦¯à¦ĺ":6715,"à¦¯à¦¹à¦¤":6716,"à¦¬à¦ľà§Ł":6717,"à¦¼âĢ¦âĢĿ":6718,"Ġà¦¬à¦ķà¦¶":6719,"à¥ĥ":6720,"à¦¸à¦ĺà¦°":6721,"à¦¸à¦¸à¦¹":6722,"Ġà¦Ĩà¦¹à¦²":6723,"à¦Łà¦§":6724,"à¦Łà¦ĺ":6725,"à¦Łà¦¦à¦²":6726,"Ġà¦®à¦°à¦ķ":6727,"Ġà¦®à¦²à¦¤":6728,"Ġà¦®à¦Ĺà¦Ł":6729,"à¦ªà¦Ĺà¦¤":6730,"à¦ªà¦£à¦¤":6731,"à¦ªà§Łà¦¸":6732,"à¦ĩà¦§":6733,"à¦ĩà¦¥":6734,"à¦ĩà¦°à¦¨":6735,"à¦ĩà¦®à¦²":6736,"à¦ĩà¦īà¦ľ":6737,"à¦ľà¦¹à¦°":6738,"à¦ľà¦Ĺà¦£":6739,"Ġà¦¤à¦¦à¦¬":6740,"Ġà¦ıà¦®à¦¤":6741,"Ġà¦ıà¦§à¦°à¦¨":6742,"à¦ĸà¦²à¦¤":6743,"à¦Ĺà¦¸à¦®":6744,"à¦Ĺà¦ľà¦¨à¦ķ":6745,"à¦§à¦°à¦¤":6746,"à¦§à¦®à¦ķ":6747,"Ġà¦¯à§İ":6748,"Ġà¦¯à¦®à¦¦":6749,"à¦¹à¦¨à¦¤":6750,"Ġà¦ķà¦°à¦ľ":6751,"Ġà¦ķà¦°à¦£à¦ķ":6752,"à¦£à¦ķà¦¥":6753,"à¦£à¦ķà¦£":6754,"Ġà¦¶à¦ķà¦¤":6755,"Ġà¦¶à¦°à¦¶à¦¯":6756,"Ġà¦Ńà¦ķà¦¤":6757,"Ġà¦°à¦°":6758,"à§ĩà¥¤(":6759,"à¦Ńà¦£":6760,"Ġà¦ıà¦ķà¦¤à¦®":6761,"Ġà¦ıà¦ķà¦ıà¦ķà¦Ł":6762,"Ġà¦ıà¦ķà¦ķà¦Ń":6763,"à¦¼à¦¾?âĢĻ":6764,"Ġà¦Ľà¦Łà¦ķ":6765,"Ġà¦Ľà¦²à¦ļ":6766,"Ġà¦īà¦«":6767,"à¦ĤâĢĵ":6768,"à¦Ļà§ľ":6769,"Ġà¦²à¦Łà¦ķ":6770,"Ġà¦Ĩà¦°à¦¬à¦°":6771,"Ġà¦Ĩà¦°à¦¬à¦¦":6772,"Ġà¦ĸà¦ķ":6773,"Ġà¦§à¦¨à¦¬":6774,"Ġà¦¸à¦®à¦ªà¦°":6775,"à¦¬à¦¨à¦Ĺà¦°":6776,"Ġà¦ĺà¦°à¦®à¦¯":6777,"Ġà¦®à¦¨à¦°":6778,"à¦®à¦¨à¦¦":6779,"à¦ľà¦¨à¦ª":6780,"à¦ľà¦¨à¦Ĺà¦£":6781,"à¦¤à¦°à¦¨":6782,"à¦īà¦§":6783,"à¦īà¦ĩà¦²":6784,"Ġà¦Ĩà¦²à¦¯":6785,"à¦Ĩà¦ĩà¦²":6786,"à§İà¦«":6787,"Ġà¦¸à¦¬à¦®":6788,"Ġà¦¬à¦²à¦²à¦ĸ":6789,"Ġà¦¡à¦Ļ":6790,"Ġà¦ĩà¦«":6791,"Ġà¦ªà¦¡à¦ķ":6792,"à¦ĺà¦¦à¦²":6793,"Ġà¦®à¦¤à¦¨à¦ĩ":6794,"à¦°à¦®à¦ĵ":6795,"à¦·à¦£à¦¬":6796,"Ġà¦ıà¦¸à¦¸":6797,"à¦ĥâĢĻ":6798,"à¦ħà§Łà¦¨":6799,"à¦ħà¦¥à¦°":6800,"Ġà¦Ĩà¦Ĺà¦®à¦£":6801,"à¦²à¦ķà¦Ĺ":6802,"Ġà¦Ĩà¦¨à¦ļ":6803,"à¦¦à¦°à¦²":6804,"à¦Ĺà¦²à¦ĵ":6805,"Ġà¦ħà¦¤à¦¦":6806,"à¦§à¦ķà¦°à¦£":6807,"à¦¹à¦¸à¦ķ":6808,"à¦ļà¦¨à¦Ńà¦Ļ":6809,"à¦®à¦²à¦¯":6810,"à¦®à¦²à¦¦":6811,"Ġà¦ħà¦ªà¦¤":6812,"Ġà¦ħà¦ªà¦ĺ":6813,"Ġà¦ķà¦²à¦Ł":6814,"Ġà¦ķà¦²à¦®à¦Ł":6815,"à¦ıà¦ĩà¦ĩ":6816,"à¦°à¦ªà¦°à¦¨":6817,"à¦Łà¦ķà¦¥":6818,"Ġà¦¬à¦¹à¦¨à¦ķ":6819,"à§ĩ!)":6820,"Ġà¦ªà¦¦à¦¤":6821,"à¦®à¦£à¦¬":6822,"à¦®à¦£à¦ĩ":6823,"à¦ıà¦ķà¦ª":6824,"à¦ıà¦ķà¦Ĺ":6825,"à¦ıà¦ķà¦¦à¦²":6826,"à¦¨à¦ķà¦£":6827,"à¦°à¦ªà¦ķ":6828,"à¦¬à¦¦à¦®":6829,"à§İà¦ķà¦£":6830,"Ġà¦Ĩà¦§à¦¶":6831,"à¦¤à¦¤à¦ĩ":6832,"Ġà¦Ńà¦¬à¦®":6833,"à¦ªà¦Łà¦Ń":6834,"à¦ķà¦¨à¦®":6835,"Ġà¦¦à¦²à¦ĩ":6836,"Ġà¦¨à¦¬à¦Ĺ":6837,"à¦¨à¦¸à¦Ń":6838,"à¦¬à¦¶à¦Ļ":6839,"à¦¨à¦°à¦Ļ":6840,"à¦īà¦²à¦Ł":6841,"à¦°à¦®à¦£à¦¬":6842,"à¦°à¦®à¦£à¦Ń":6843,"Ġà¦Ĺà¦£à¦¸":6844,"Ġà¦Ĺà¦£à¦ªà¦¤":6845,"Ġà¦Ĺà¦£à¦¹à¦¤":6846,"à¦¦à¦®à¦¬à¦¨":6847,"à¦²à¦®à¦¹":6848,"Ġà¦§à¦¨à¦°à¦¤":6849,"à¦¹à¦°à¦£à¦ĩ":6850,"à¤¶":6851,"à¤ļ":6852,"à¦¿;-":6853,"à¦¯à¦Ĺà¦łà¦¨":6854,"Ġà¦ľà§Łà¦ķ":6855,"Ġà¦Ĺà¦¹à¦¬à¦°":6856,"Ġà¦Ĳà¦ķà¦®à¦¤":6857,"à§Ŀà¦ļ":6858,"à¦ıà¦ĸà¦¨à¦ķ":6859,"Ġte":6860,"Ġà¦ļà¦¨à¦®à¦¨":6861,"à¦¸à¦¹à¦¦":6862,"à¦ķà¦Ĺà¦£":6863,"hes":6864,"ine":6865,"à¦¨à¦ªà¦¤à¦¨":6866,"à¦¤à¦¸à¦ĩ":6867,"à¦¶à¦¤à¦ªà¦¥":6868,"Ġà¦ªà¦²à¦ķà¦¹":6869,"Ġà¦®à¦¦à¦¤":6870,"Ġà¦Ĩà¦ļà¦°à¦£à¦ķ":6871,"à¦Ĩà¦¶à¦Ļ":6872,"iss":6873,"Ġà¦ıà¦°à¦ªà¦°à¦ĩ":6874,"Ġà¦²à§ľà¦¬":6875,"Ġà¦Ķà¦°":6876,"Ġà¦Ĩà¦«à¦¨":6877,"Ġar":6878,"Ġcult":6879,"Ġà¦®à¦°à¦£à¦ķ":6880,"Ġà¦ĩà¦®à¦ªà¦¸":6881,"esc":6882,"Ġwere":6883,"à§ģà¦Ĥ-":6884,"à¦īà¦łà¦¬":6885,"ication":6886,"Ġà§©à§§":6887,"Ġà§©à§Ń":6888,"à¦£à¦Ńà¦Ł":6889,"à¦°à¦ķà¦Łà¦Ń":6890,"à¦Īà¦°":6891,"à¦¬à§İà¦¸à¦®":6892,"Ġà¦¨à¦Ĺà¦°à¦ķ":6893,"ĠIn":6894,"Ġà§«à§«":6895,"à§§à§¯à§ªà§Ń":6896,"Ġthan":6897,"rag":6898,"old":6899,"ety":6900,"à¦¿',":6901,"ĠâĢ¦à¥¤":6902,"Ġà¦ķà¦¤à¦¬à¦¡":6903,"ĠSoci":6904,"Ġevery":6905,"igh":6906,"Ġrel":6907,"áĥĲ":6908,"ĠRe":6909,"Ġà§§à§¯à§ªà§¨":6910,"Ġà§§à§¯à§ªà§«":6911,"ide":6912,"ĠDetective":6913,"Ġà§¬à§¦":6914,"vers":6915,"à¦¶à¦§à¦°à¦¦":6916,"Ġà¦īà¦ĩà¦¥":6917,"ips":6918,"Ġyour":6919,"****************":6920,"æŃĵæŃĵæŃĵæŃĵæŃĵæŃĵæŃĵæŃĵæŃĵæŃĵæŃĵæŃĵæŃĵæŃĵæŃĵæŃĵ":6921,"Ġà¦«à¦¸à¦«à¦¸":6922,"ĠIndia":6923,"intu":6924,"Ġà¦Ĩà¦ĩà¦ķà¦¨":6925,"!âĢ¦":6926,"ble":6927,"der":6928,"eg":6929,"jun":6930,"low":6931,"ness":6932,"rough":6933,"uch":6934,"yan":6935,"¿½":6936,"Â¦":6937,"Â»":6938,"×Ļ":6939,"Øª":6940,"à«":6941,"ï¿½":6942,"Ġher":6943,"Ġup":6944,"ĠÂ«":6945,"à¦¾à§į":6946,"à¦¾..":6947,"à¦¾...":6948,"à§ĩâĢĮ":6949,"à¦°à¦Ĩà¦¨":6950,"à¦¿...âĢĿ":6951,"à¦¨à¦¸à¦¬":6952,"à¦¨à¦¦à¦¯":6953,"à¦¨à¦ıà¦ĩ":6954,"à¦¨à¦ĺà¦¨":6955,"à¦²à¦ªà¦ķ":6956,"à¦²à¦ĸà¦£":6957,"à¦ķà¦®à¦¨":6958,"à¦ķà¦ķà¦°":6959,"à¦ķà¦¦à¦²":6960,"à¦ķà§°":6961,"à¦ķà¦ıà¦°":6962,"à¦¯à¦®à¦ķ":6963,"à¦¬à¦ķà¦¤":6964,"à¦¬à¦īà§Ł":6965,"à¦¼âĢĻ,":6966,"à¦®à¦Ĺà¦°":6967,"à¦®à¦¸à¦¤":6968,"à¦®à¦¸à¦²":6969,"à¦®à¦Ńà¦ķ":6970,"à¦¸à¦ıà¦°":6971,"Ġà¦Ĩà¦¦à¦¨":6972,"à¦¦à¦°à¦¤":6973,"à¦¦à¦²à¦ķ":6974,"à¦¦à§°":6975,"à¦¦à¦ķà¦£":6976,"Ġà¦¨à¦Łà¦°":6977,"à¦ĩà¦¦à¦¹":6978,"Ġà¦¦à¦°à¦Ĺ":6979,"à¦ľà¦ŀ":6980,"à¦ľà¦¸à¦¨":6981,"Ġà¦ıà¦Ĺà¦¤":6982,"à¦¼à§ĩ--":6983,"à¦ĸà¦®à¦¨":6984,"à¦Ĺà¦łà¦ķ":6985,"à¦Ĺà¦¸à¦¹":6986,"à¦·à¦ĸ":6987,"à¦§à¦¬à¦¨":6988,"à¦§à¦®à¦¨":6989,"à¦§à¦¬à¦²":6990,"à¦§à¦Ńà¦°":6991,"à¦ļà¦Ĺà¦¤":6992,"à¦¹à¦ªà¦¤":6993,"à§Łà¦ĸ":6994,"à§Łà¦¡à¦«":6995,"Ġà¦Ĺà¦Łà¦Ĺ":6996,"Ġà¦°à¦¸à¦®":6997,"à¦ĵà¦°à¦¤":6998,"à¦Ńà¦¹":6999,"à¦¼à¦¾!âĢĻ":7000,"Ġà¦Ĩà¦®à¦¡":7001,"Ġà¦īà¦Ľ":7002,"Ġà¦īà¦°à¦¸":7003,"à¦ĤâĢĻ":7004,"à§ĩ,---":7005,"Ġà¦¬à¦²à¦ĸ":7006,"Ġà¦Ĩà¦°à¦ª":7007,"Ġà¦ĸà¦ļà¦°":7008,"à¦°à¦¤à¦ķà¦°":7009,"à¦°à¦¤à¦ļà¦¨":7010,"à¦¾à¥¤'":7011,"Ġà¦§à¦¨à¦¦":7012,"Ġà¦¸à¦®à¦ľ":7013,"Ġà¦¸à¦®à¦®à¦¨":7014,"Ġà¦¸à¦®à¦ħà¦§":7015,"à¦¾,âĢĶ":7016,"à¦¬à¦¨à¦¸à¦Ļ":7017,"à¦¬à¦¨à¦ķà¦¥":7018,"à¦ªà¦°à¦¨":7019,"à¦ªà¦°à¦®à¦£":7020,"à¦īà¦Ŀ":7021,"Ġà¦Ĩà¦²à¦ªà¦¥":7022,"à¦°à¦¬à¦ĵ":7023,"à¦°à¦¬à¦¤à¦®":7024,"à¦Ĩà¦®à¦¨":7025,"à¦Ĩà¦ľà¦¨":7026,"à¦Ĩà¦¬à¦¦":7027,"à¦Ĩà¦ĩà¦ª":7028,"à¦ıà¦ľ":7029,"à¦¬à¦°à¦®":7030,"Ġà¦¬à¦²à¦²à¦ľ":7031,"Ġà¦¬à¦²à¦²à¦Ĩà¦°":7032,"Ġà¦Łà¦ĩà¦Ł":7033,"Ġà¦Ĩà¦Ľà¦®":7034,"âĢĻ?":7035,"Ġà¦īà¦łà¦¨":7036,"à§Ī,":7037,"à¦ĺà¦Ń":7038,"Ġà¦ľà¦¨à¦¸à¦¨":7039,"à¦¼,âĢĻ":7040,"Ġà¦¢à¦ķà¦¢":7041,"à¦ħà¦ĺ":7042,"Ġà¦¬à¦¨à¦¶":7043,"Ġà¦ħà¦®à¦²à¦ķ":7044,"Ġà¦ħà¦®à¦°à¦¦":7045,"à¦¯à¦¬à¦ļ":7046,"à¦¨à¦¬à¦¬à¦¨":7047,"Ġà¦Ĩà¦¶à¦°":7048,"à¦ķà¦¤à¦²":7049,"Ġà¦Ĩà¦¨à¦ľ":7050,"Ġà¦ľà¦²à¦ļà¦°":7051,"à¦¿à¦Ĥ)":7052,"Ġà¦ħà¦¤à¦¶à¦¤":7053,"à¦²à¦¨à¦¶":7054,"à¦²à¦¨à¦ĵ":7055,"à¦°à¦¯à¦¤":7056,"à¦ĩà¦²à¦¹":7057,"à¦²à¦¬à¦¸":7058,"Ġà¦ħà¦ªà¦¶à¦¨":7059,"à¦¿à¦ĥ,":7060,"à¦¸à¦®à¦·":7061,"à¦¹à¦²à¦ľà¦¨à¦ķ":7062,"à¦Ĺà¦¨à¦ķ":7063,"à§ĩ!âĢĶ":7064,"Ġà¦°à¦Ļà¦²":7065,"Ġà¦°à¦Ļà¦¹":7066,"à¦¸à¦°à¦Ĺ":7067,"à¦¸à¦°à¦ĺà¦°":7068,"à¦¶à¦¬à¦ķ":7069,"à¦ıà¦ķà¦¯":7070,"à¦ıà¦ķà¦ªà¦°":7071,"à¦¨à¦ķà¦¶":7072,"à¦¦à¦²à¦¬à¦²":7073,"Ġà¦¬à¦ĩà¦ªà¦¡":7074,"Ġà¦ħà¦ªà¦°à¦£":7075,"à§Ģà¥¤à¥¤":7076,"à§įâĢĮâĢĶ":7077,"Ġà¦ĵà¦ĩà¦¦":7078,"à¦²à¦²à¦ĵà¦¹":7079,"à¦¤à¦¤à¦¦":7080,"à§ģâĢĻ,":7081,"à§ģâĢĻà¥¤":7082,"!âĢĿ,":7083,"à§°à¦¶":7084,"Ġà¦Ĩà¦Ļà¦Ł":7085,"Ġà¦Ĩà¦¦à¦¬":7086,"Ġà¦¸à¦¹à¦ľà¦¬":7087,"à¦īà¦²à¦ĵ":7088,"Ġà¦ĺà¦¨à¦¶":7089,"à¦°à¦®à¦£à¦¸":7090,"à¦®à§Łà¦²":7091,"à¦®à¦¸à¦Ń":7092,"Ġà¦ľà¦°à§İà¦ķ":7093,"Ġà¦Ĺà¦£à¦Ĩà¦¨":7094,"Ġà¦ķà¦²à¦ķà¦¬":7095,"Ġà¦¬à¦īà¦Ŀ":7096,"à¦Ĺà¦®à¦Ĺ":7097,"à¦¹à¦°à¦£à¦ĵ":7098,"à¦¨à¦Ńà¦¨":7099,"à¦Ĩà¦ķà¦¸":7100,"Ġà¦ªà¦°à¦®à¦ª":7101,"à¤§":7102,"à¦ķà¦ľà¦¨à¦¦":7103,"Ġà¦¦à¦®à¦ķà¦²":7104,"à§Ŀà¦Ń":7105,"à§Ńà§¬":7106,"à¦¸à¦¹à¦¬":7107,"Ġà¦īà§ľà¦²":7108,"à¦¤à¦¸à¦ŀ":7109,"à¦¬à¦ľà¦¨à¦Ĺ":7110,"Ġà¦ĸà¦°à¦ļà¦Ł":7111,"à¦Ĩà¦¬à¦°à¦£":7112,"Ġà¦ķà¦Łà¦®à¦Ł":7113,"Ġ''":7114,"à§¯à§«":7115,"Ġà¦ıà¦°à¦ªà¦°à¦ĵ":7116,"Ġà¦ļà¦°à¦£à¦§":7117,"Ġà¦ľà§ľà¦¤":7118,"Ġout":7119,"Ġother":7120,"Ġà¦Ĩà¦ĩà¦ı":7121,"Ġag":7122,"esh":7123,"Ġposs":7124,"ick":7125,"à¦¤à¦ļà¦°à¦¬":7126,"à¦ħà¦ªà¦°à¦¦":7127,"Ġà§§à§¯à§Ńà§«":7128,"Ġà¤ī":7129,"à§ĭâĢ¦âĢĻ":7130,"à¦Īà¦·à§İ":7131,"Ġà§§à§¯à§«à§¦":7132,"ĠMoore":7133,"Ġà§ªà§®":7134,"ild":7135,"à¦£à¦Ĺà¦¤à¦®":7136,"ĠBeng":7137,"à¦¨à§Łà¦¨à¦ķ":7138,"Ġà§§à§¦à§¦à§¦":7139,"igital":7140,"ational":7141,"Ġbeing":7142,"ĠRiya":7143,"Ġà§¯à§¦":7144,"Ġà¦ĩà¦¸à¦®à¦¤à¦ķ":7145,"à¦ıà¦¨à¦ı":7146,"Ġà¦¹à¦°à¦«à¦Ĺ":7147,"Ġà¦ĩà¦¨à¦«à¦°à¦®":7148,"ĠNot":7149,"à¦ıà¦®à¦ıà¦¸":7150,"Ġà¦Łà¦®à¦Łà¦®à¦Ł":7151,"ack":7152,"Ġà¦¤à§İà¦¸à¦¤":7153,"Ġindividual":7154,"aliz":7155,"âĢķâĢķâĢķâĢķâĢķâĢķâĢķâĢķ":7156,"Ġsome":7157,"Ġà¦Ĺà¦Łà¦Ĺà¦Ł":7158,"Ġà¦¢à¦ķà¦¢à¦ķ":7159,"):":7160,"00":7161,"39":7162,"?âĢĵ":7163,"AR":7164,"ER":7165,"az":7166,"cend":7167,"cret":7168,"eat":7169,"hat":7170,"ile":7171,"ious":7172,"ta":7173,"te":7174,"the":7175,"ved":7176,"yst":7177,"Ðº":7178,"Ø¯":7179,"ä¸":7180,"Ġz":7181,"ĠÃ":7182,"Ġê":7183,"Ġà§·":7184,"Ġus":7185,"Ġess":7186,"Ġqu":7187,"à§ĩ|":7188,"à§ĩà¦¾-":7189,"à¦¨à§ľ":7190,"à¦¨à¦°à¦¦":7191,"à¦¨à¦®à¦ľ":7192,"à¦¨à¦®à¦¨à¦¸":7193,"à¦¤à¦ļà¦²":7194,"à¦¤à¦ľà¦²":7195,"à¦¤à¦ªà¦Ł":7196,"à¦¤à¦¸à¦ķ":7197,"à¦¤à¦¸à¦¹":7198,"à¦²à¦ĵà§Ł":7199,"à¦ķà¦¨à¦Ł":7200,"à¦ķà¦ļà¦°":7201,"à¦¯à¦Ĺà¦°":7202,"à¦¯à¦¶à¦ķ":7203,"à§ģâĢ¦âĢĿ":7204,"à¦¬à¦¬à¦¨":7205,"à¦¬à¦¹à¦¸":7206,"à¦¬à¦¬à¦¸":7207,"à¦¬à§İà¦ķ":7208,"à¦¬à¦®à¦¹":7209,"à¦¬à¦ľà¦¨à¦ķ":7210,"à¦®à¦¤à¦°":7211,"à¦®à¦¬à¦¤":7212,"à¦®à¦°à¦ľ":7213,"à¦®à¦ĺà¦¨":7214,"à§ĭâĢĿâĢĶ":7215,"Ġà¦ķà¦Łà¦¨":7216,"Ġà¦¸à¦²à¦¤":7217,"Ġà¦¸à¦°à¦¬à¦¤":7218,"à¦¸à¦§":7219,"à¦¸à¦ķà¦¤":7220,"Ġà¦ªà¦·":7221,"à¦¦à¦²à¦¬":7222,"à¦¦à¦®à¦ķ":7223,"à¦¦à¦¶à¦ķ":7224,"à¦Łà¦¸à¦®":7225,"à¦Łà¦®à¦£":7226,"à¦Łà¦®à¦Łà¦®":7227,"Ġà¦¨à¦°à¦²":7228,"Ġà¦¨à¦ĵà¦Ĺ":7229,"Ġà¦¨à¦¦à¦¨à¦¦":7230,"à¦ĩà¦ı":7231,"à§Ģ'":7232,"à¦ľà§İ":7233,"à¦ľà¦¸à¦¤":7234,"Ġà¦¹à¦°à¦¨":7235,"Ġà¦¤à¦¸à¦¬":7236,"à¦¶à¦¬à¦°":7237,"Ġà¦ħà¦Ĺà¦¨":7238,"Ġà¦ħà¦ĵà¦°à¦¤":7239,"à¦ĸà¦ļà¦°":7240,"à¦Ĺà¦Ĺà¦¤":7241,"à¦·à¦²à¦¤":7242,"à¦·à¦°à¦ľ":7243,"à¦·à¦ªà¦¤":7244,"à¦§à¦¬à¦ª":7245,"à¦§à¦ªà¦¥":7246,"à¦§à¦¸à¦¤":7247,"à¦§à¦¶à¦ķ":7248,"à¦¡à¦Ļ":7249,"à¦¡à¦¬à¦Ń":7250,"Ġà¦¯à¦®à¦²":7251,"à¦ļà¦¨à¦¬":7252,"à¦£à¦ĺ":7253,"à¦£à¦§à¦°":7254,"à¦¥à¦ķà¦°":7255,"à¦¥à¦°à¦ļ":7256,"Ġà¦¶à§Ł":7257,"Ġà¦ļà¦ĩà¦²":7258,"à¦¼à¦¾)":7259,"à¦¼à¦¾!âĢĿ":7260,"Ġà¦īà¦Ń":7261,"Ġà¦īà¦®à¦°":7262,"Ġà¦īà§°":7263,"Ġà¦²à¦ĸ":7264,"Ġà¦ĵà¦ĺà¦°":7265,"Ġà¦¥à¦ª":7266,"Ġà¦«à¦ķà¦«":7267,"Ġà¦ħà¦¨à¦¬":7268,"à¦¾à¥¤(":7269,"Ġà¦ªà¦°à¦®à¦¤":7270,"Ġà¦ªà¦°à¦®à¦°":7271,"ĠâĢį":7272,"à¦¬à¦¨à¦¤":7273,"à¦¬à¦¨à¦¶à¦ķ":7274,"à¦¬à¦¨à¦®à¦°à¦£":7275,"à¦¼à¦¿âĢ¦":7276,"à§ľà¦Ļ":7277,"Ġà¦ĺà¦¸":7278,"Ġà¦®à¦¨à¦¶":7279,"à¦®à¦¨à¦°":7280,"à¦®à¦¨à¦¤à¦°":7281,"à¦ŀà¦¬à¦¨":7282,"à¦ŀà¦¸à¦®":7283,"à¦«à¦°à¦®":7284,"à¦īà¦ĵ":7285,"à¦īà¦ĺ":7286,"à¦īà¦ľà¦²":7287,"Ġà¦Ĩà¦²à¦®à¦ķ":7288,"Ġà¦Ĩà¦²à¦¬à§İ":7289,"à¦°à¦¬à¦¦à¦¨":7290,"à¦Ĩà¦ªà¦¡":7291,"à§İà¦¸à¦¤":7292,"à¦ıà¦ķà¦°":7293,"à¦°à¦ķà¦¬":7294,"à¦¬à¦°à¦°":7295,"Ġà¦¬à¦²à¦²à¦ł":7296,"à¦¼à¥¤âĢĺ":7297,"Ġà¦¹à¦²à¦«à¦¨":7298,"Ġà¦ĩà¦Ĺà¦²":7299,"Ġà¦ĩà¦°à¦Ĺ":7300,"Ġà¦ĩà¦²à¦¸":7301,"Ġà¦ĩà¦¹à¦ķ":7302,"Ġà¦ĩà¦ķà¦¨à¦®":7303,"à¦ĺà¦¦à¦°":7304,"à§Į,":7305,"Ġà¦ľà¦¨à¦ķà¦²":7306,"Ġà¦Ŀà¦®à¦Ŀà¦®":7307,"Ġà¦ıà¦¸à¦ıà¦¸à¦¸":7308,"âĢĵâĢĿ":7309,"à¦¤à¦¨à¦¯":7310,"Ġà¦ªà¦¥à¦ľ":7311,"Ġà¦ħà¦®à¦¸":7312,"à¦ķà¦°à¦²":7313,"à¦ķà¦°à¦¸":7314,"Ġà¦¹à§Łà¦°":7315,"à¦ķà¦Łà¦Ĺ":7316,"à¦ķà¦Łà¦®à§Ł":7317,"à¦¸à¦¬à¦¦":7318,"Ġà¦ħà¦¸à¦¬à¦°":7319,"à¦¤à¦¬à¦¸":7320,"à¦²à¦ķà¦®à¦²":7321,"à¦¨à¦¬à¦Ľà¦°":7322,"à¦¦à¦¨à¦¹":7323,"à¦Ĺà¦²à¦®":7324,"à¦Ĺà¦²à¦ªà¦¥":7325,"à¦Ĺà¦²à¦ľà¦¨à¦ķ":7326,"Ġà¦ľà¦²à¦¤à¦°à¦Ļ":7327,"à¦¿à¦ĤâĢĵ":7328,"à¦¹à¦¸à¦Ł":7329,"à¦²à¦¨à¦¦":7330,"Ġà¦ķà¦°à¦¬à¦ĩ":7331,"à¦¬à¦¤à¦²":7332,"Ġà¦¯à¦ĸà¦¨à¦¤à¦ĸà¦¨":7333,"à¦²à¦¬à¦¦à¦²":7334,"à¦°à¦ľà¦®":7335,"Ġà¦ħà¦ªà¦¹":7336,"à¦¸à¦¨à¦Ń":7337,"à¦ĩà¦¨à¦·":7338,"à¦ĩà¦¨à¦¹":7339,"à¦¨à¦¨à¦ķ":7340,"Ġà¦ħà¦ľà§Łà¦¦":7341,"âĢ¦!âĢĻ":7342,"à§ĩ!(":7343,"Ġà¦°à¦Ļà¦¬":7344,"Ġà¦°à¦Ļà¦ĵ":7345,"Ġà¦°à¦Ļà¦ļà¦Ļ":7346,"Ġà¦īà§İà¦°":7347,"Ġà¦īà§İà¦¸à¦¬à¦ĩ":7348,"Ġà¦ªà¦¦à¦Ł":7349,"Ġà¦ªà¦¦à¦®à¦°":7350,"à¦®à¦°à¦§":7351,"à¦¦à§Łà¦¤":7352,"à¦¦à§Łà¦ª":7353,"à¦¦à§Łà¦ĩ":7354,"Ġà¦¬à¦ĩà¦ıà¦°":7355,"à§įâĢĮâĢĻ":7356,"Ġà¦«à¦²à¦²":7357,"à¦¤à¦®à¦®":7358,"à¦ªà¦ķà¦¤à¦°":7359,"Ġà¦ĩà¦¨à¦ª":7360,"Ġà¦Ĩà¦§à¦®à¦°":7361,"à¦¯à¦¸à¦Ń":7362,"Ġà¦ıà¦ķà¦¬à¦Ľà¦°":7363,"à¦¹à¦¨à¦Ĺà¦ŀ":7364,"à¦¸à¦«à¦°":7365,"Ġà¦¶à¦¤à¦¶à¦¤":7366,"à§ģ--":7367,"à¦¨à¦¸à¦¹à¦ķ":7368,"à¥¤âĢĻâĢĿ":7369,"à¦¯à¦°à¦Ļ":7370,"à¦¨à¦Ĺà¦®":7371,"à¦Ĩà¦°à¦Ĩà¦ĩ":7372,"à¦Ŀà¦²à¦¸":7373,"?âĢĻâĢĶ":7374,"Ġà¦¬à¦²à¦¬à§İ":7375,"à¦°à¦Ĺà¦ŀ":7376,"à¦°à¦®à¦£à¦ªà¦¥":7377,"Ġà¦°à¦ķà¦®à¦Ń":7378,"Ġà¦¦à¦¶à¦Ĺ":7379,"à§¨à§¦à§¦":7380,"à¦Ĩà¦²à¦¯":7381,"Ġà¦ļà¦ķà¦®":7382,"Ġà¦¬à¦īà¦¬":7383,"Ġà¦¬à§ľà¦²":7384,"à¦ªà¦£à¦¨":7385,"à¦ªà¦£à¦ķ":7386,"Ġà¦Īà¦Ļ":7387,"Ġà¦¶à¦¹à¦°à¦ĩ":7388,"Ġà¦¨à¦ľà¦°à¦¬à¦¨":7389,"Ġà¦ľà¦¬à¦ľà¦¬":7390,"Ġà¦ľà§Łà¦ľà§Łà¦ķ":7391,"à¦ĩà¦Ńà¦ĵà¦¯":7392,"à§©à§®":7393,"Ġtim":7394,"à¦®à¦ªà¦ŀ":7395,"à§ªà§©":7396,"Ġà¦¹à¦ĩà¦ļ":7397,"à¦Ĩà¦Ĺà¦®à¦¨":7398,"à¦£à¦ķà¦®à¦²":7399,"à¦¶à¦¤à¦¦à¦²":7400,"à¦¤à¦ĸà¦¨à¦ķ":7401,"à¦ĸà¦ķà¦·":7402,"Ġà¦®à¦¦à¦¨à¦¬":7403,"à¦¬à¦ľà¦¨à¦°":7404,"Ġà¦Ĭà¦¹":7405,"Ġà§¨à§Ń":7406,"Ġà¦Ĩà¦ļà¦°à¦£à¦ĩ":7407,"Ġà¦ĸà¦°à¦ļà¦ĵ":7408,"à¦ħà¦¬à¦¸à¦¨":7409,"ata":7410,"Ġà¦ķà¦Łà¦ķà¦Ł":7411,"à¦¸à¦ķà¦²à¦ĩ":7412,"Ġà¦ıà¦¡à¦Ń":7413,"à¦²à¦¦à¦¹":7414,"à¦¾!âĢĿâĢĶ":7415,"Ġà¦²à§ľà¦¤":7416,"à¦ªà¦Ĺà¦ª":7417,"Ġ?'":7418,"Ġà¦Ĩà¦Łà¦ļ":7419,"à¦ļà¦°à¦£à¦¶":7420,"Ġà¦Ĩà¦ĩà¦¨à¦¤":7421,"Ġà¦¤à¦ªà¦¨à¦ķ":7422,"Ġà¦ĩà¦Łà¦Ń":7423,"à¦¿âĢ¦.":7424,"Ġcount":7425,"Ġà¦®à¦°à¦£à¦¶":7426,"Ġoff":7427,"Ġpe":7428,"Ġpat":7429,"Ġpass":7430,"Ġà§©à§¬":7431,"à¦¤à¦ļà¦°à¦¦":7432,"Ġfun":7433,"Ġà¦¶à¦¨à¦¶à¦¨":7434,"edom":7435,"Ġà¦ķà¦¦à¦®à¦«":7436,"Ġà¦ļà§ľà¦¤":7437,"à§ĩâĢĿ,":7438,"Ġà¤®":7439,"Ġno":7440,"Ġà¦¨à¦Ĺà¦°à¦¬":7441,"oth":7442,"rah":7443,"Ġà§§à§©à§¦":7444,"à¦®à¦«à¦²à¦ķ":7445,"ĠSt":7446,"ung":7447,"à¦°à¦¡à¦ĵà¦¯":7448,"Ġreg":7449,"cience":7450,"à¦¯à¦Łà¦ķà¦¦":7451,"Ġà§§à§¯à§¬à§Ń":7452,"Ġà§¨à§¦à§¦à§ª":7453,"Ġà¦ªà¦łà¦¨à¦ª":7454,"Ġnever":7455,"ered":7456,"--------":7457,"ĠÙĨ":7458,"ween":7459,"Ġà¦¥à¦ĩà¦¥à¦ĩ":7460,"Ġwhole":7461,"matic":7462,"Ġclass":7463,"Ġbetween":7464,"dvik":7465,"áĥĲáĥ":7466,"Ġà¦ĸà¦ļà¦°à¦ĸà¦ļà¦°":7467,"ĠNothing":7468,"Ġà¦«à¦ķà¦«à¦ķ":7469,"!\"":7470,"-âĢĻ":7471,"38":7472,"45":7473,"?)":7474,"ck":7475,"eb":7476,"ein":7477,"ng":7478,"oT":7479,"ook":7480,"ple":7481,"sha":7482,"vas":7483,"vol":7484,"Ð²":7485,"Ġ6":7486,"ĠÂłÂł":7487,"à¦¾...âĢĿ":7488,"à§ĩà§į":7489,"à¦¨à¦¬à¦²":7490,"à¦¨à¦Ĩà¦°":7491,"à¦¤à¦ŀ":7492,"à¦¤à¦¸à¦¤":7493,"à¦²à¦®à¦¯":7494,"à¦²à¦°à¦¤à¦¨":7495,"à¦ķà¦Ĺà¦¤":7496,"à¦¯à¦¤à¦¬":7497,"à¦¯à¦§à¦¨":7498,"à¦¯à§°":7499,"à¦¬à¦®à¦¤":7500,"à¦¬à¦¸à¦°":7501,"à¦¬à¦®à§Ł":7502,"à¦®à¦°à¦¬":7503,"à¦®à¦ļà¦Ł":7504,"à§ĭà¦¾":7505,"à§ĭâĢĿ,":7506,"Ġà¦ķà¦ķà¦Ł":7507,"Ġà¦¸à¦¶à¦ķ":7508,"à¦¸à¦¯à¦¨":7509,"à¦¸à¦ıà¦ķ":7510,"à¦¸à¦Ńà¦¯":7511,"Ġà¦ªà¦²à¦²":7512,"Ġà¦ªà¦¬à¦®":7513,"Ġà¦Ĩà¦ĩà¦¬":7514,"à¦¦à¦ķà¦°":7515,"à¦¦à¦Ĺà¦¤":7516,"à¦¦à¦ľà¦Ĺà¦¤":7517,"à¦Łà¦Ļ":7518,"à¦Łà¦°à¦ķ":7519,"à¦Łà¦¬à¦¸":7520,"à¦Łà¦¬à¦ķ":7521,"à¦Łà¦Ńà¦°":7522,"Ġà¦¨à¦¨à¦¸":7523,"Ġà¦¨à¦ĸà¦°":7524,"Ġà¦¨à¦ĵà¦²":7525,"Ġà¦®à¦Ŀ":7526,"Ġà¦®à¦ĵà¦ķ":7527,"à¦ªà¦°à¦¤":7528,"à¦ªà¦ĺ":7529,"à¦ªà¦¸à¦¨":7530,"à¦ªà¦¸à¦¤":7531,"à¦ªà¦§à¦°":7532,"à¦ªà¦īà¦·":7533,"à¦ĩà¦ķà¦²":7534,"à¦ĩà¦®à¦°":7535,"à¦ĩà¦ľà¦°":7536,"à§Ģ/":7537,"Ġà¦¦à¦ľ":7538,"Ġà¦¦à¦¦à¦°":7539,"à¦ľà¦¤à¦¤":7540,"à¦ľà¦ĺà¦°":7541,"à¦ľà¦Ńà¦¯":7542,"Ġà¦¤à¦ŀ":7543,"Ġà¦¤à¦¸à¦²":7544,"à¦¶à¦®à§Ł":7545,"à¦¶à¦Ńà¦Ļ":7546,"à¦¼à§ĩà¦¾":7547,"à¦¼à§ĩâĢĿ":7548,"à¦¼à§ĩ!âĢĿ":7549,"Ġà¦ħà¦ķà¦²à¦Ļ":7550,"à¦ĸà¦Ńà¦Ļ":7551,"à¦Ĺà¦¬à¦°":7552,"à¦Ĺà¦¤à¦¬":7553,"à¦Ĺà¦®à¦¤":7554,"à¦Ĺà¦£à¦¨":7555,"à¦Ĺà¦¯à¦ľ":7556,"à¦·à¦¦à¦°":7557,"à¦·à¦¬à¦¦":7558,"à¦§à¦ĸ":7559,"à¦§à¦§":7560,"à¦§à¦Ĺà¦¤":7561,"à¦§à¦®à¦¤":7562,"à¦§à¦¤à¦®":7563,"à¦§à¦®à§Ł":7564,"à¦¡à¦¬à¦ķ":7565,"à¦¡à¦²à¦¸":7566,"à¦¡à¦²à¦Ĺ":7567,"à¦ļà¦«":7568,"à¦ļà¦®à¦¤":7569,"à¦ļà¦¶à¦¬":7570,"à¦ļà¦¤à¦¤":7571,"à¦ļà¦ľà¦¨à¦ķ":7572,"à¦¹à¦Ńà¦Ļ":7573,"Ġà¦ķà¦°à¦¸":7574,"Ġà¦Ĺà¦ªà¦Ĺà¦ª":7575,"à¦£à¦ªà¦¤":7576,"à¦¥à¦Ļ":7577,"Ġà¦ľà¦ªà¦¤":7578,"Ġà¦ľà¦°à¦ľà¦°":7579,"Ġà¦Ńà¦¨à¦Ńà¦¨":7580,"Ġà¦°à¦¨à¦ķ":7581,"Ġà¦°à¦ĩà¦¤":7582,"Ġà¦°à¦ľà¦¬":7583,"à¦¼à¦¾?âĢĿ":7584,"ĠĠĠ":7585,"Ġà¦Ĩà¦®à¦ļ":7586,"Ġà¦Ĩà¦®à¦°à¦£":7587,"Ġà¦Ĩà¦®à¦¤à¦²":7588,"à¦łà¦Ńà¦°":7589,"Ġà¦īà¦¶à¦ķ":7590,"à¦¾à¦ģâĢĻ":7591,"Ġà¦ĵà¦¨à¦²":7592,"Ġà¦«à¦Łà¦«à¦Ł":7593,"Ġà¦Ĩà¦°à¦Ł":7594,"à¦°à¦¤à¦ªà¦ķ":7595,"à¦¾à¥¤âĢĵ":7596,"Ġà¦§à¦¨à¦ķ":7597,"Ġà¦§à¦¨à¦²":7598,"à¦¼à¦¿à¥¤âĢĿ":7599,"à§ľà¦¶":7600,"à¦ªà¦°à¦¬à¦¶":7601,"à¦°à¦£à¦¶":7602,"à¦®à¦¨à¦®":7603,"à¦Ŀà¦Ĺà¦¡":7604,"à¦ľà¦¨à¦°":7605,"à¦ŀà¦ķà¦°":7606,"à¦«à¦ĵ":7607,"à¦īà¦°à¦²":7608,"à¦īà¦ªà¦¦":7609,"à¦īà¦ıà¦°":7610,"à¦īà¦¥à¦²":7611,"à¦īà¦ªà¦®":7612,"à¦¿,--":7613,"à¦ªà¦¨à¦¬":7614,"à¦ªà¦¨à¦¦":7615,"Ġà¦Ĩà¦²à¦ķ":7616,"à¦°à¦¬à¦ĩ":7617,"à¦°à¦¬à¦²à¦¤":7618,"à¦Ĩà¦°à¦¶":7619,"à¦Ĩà¦¸à¦®":7620,"à¦Ĩà¦¬à¦¹":7621,"à¦Ĩà¦Łà¦Ł":7622,"à¦Ĩà¦«à¦¸":7623,"à§İà¦¹":7624,"à§İà¦ªà¦¦":7625,"à¦¬à¦°à¦¸à¦Ń":7626,"Ġà¦¬à¦²à¦²à¦ļà¦²":7627,"Ġà¦¹à¦²à¦®":7628,"Ġà¦¹à¦²à¦ĩ":7629,"Ġà¦¡à¦ľ":7630,"ĠâĢľâĢ¦":7631,"à¦ĺà¦«":7632,"à¦ĺà¦°à¦¬":7633,"Ġà¦®à¦¤à¦ķ":7634,"Ġà¦ľà¦¨à¦°":7635,"Ġà¦ħà¦¬à¦¦à¦®":7636,"Ġà¦łà¦¨":7637,"Ġà¦łà¦Ĺ":7638,"Ġà¦ıà¦¸à¦ıà¦®à¦ıà¦¸":7639,"à¦ħà¦¡":7640,"à¦ħà¦§à¦®":7641,"Ġà¦¬à¦¨à¦¨":7642,"Ġà¦¬à¦¨à¦ļ":7643,"à¦ķà¦²à¦Ĺ":7644,"à¦ķà¦Łà¦ĩ":7645,"Ġà¦ħà¦¸à¦®à¦°":7646,"Ġà¦ħà¦¸à¦®à§Ł":7647,"à¦¯à¦¬à§Łà¦¸":7648,"à¦°à¦¥à¦ķ":7649,"à¦¤à¦¬à¦¸à¦®":7650,"à¦¨à¦¬à§İ":7651,"à§ĭ,-":7652,"Ġà¦Ĩà¦¶à¦®":7653,"Ġà¦¹à¦¤à¦¦à¦°":7654,"Ġà¦¬à¦°à¦ª":7655,"à¦°à¦¥à¦®à¦ª":7656,"Ġà¦ıà¦²à¦®":7657,"Ġà¦ħà¦¦à¦²à¦¬à¦¦à¦²":7658,"à¦Ĩà¦®à¦°à¦£":7659,"Ġà¦ħà¦°à¦«":7660,"Ġà¦ħà¦¤à¦ķ":7661,"Ġà¦ħà¦¤à¦Ĺ":7662,"à¦¯à¦ķà¦¶":7663,"à¦°à¦¹à¦®":7664,"à¦°à¦¹à¦¹":7665,"Ġà¦ĺà¦°à¦ĩ":7666,"Ġà¦īà¦ªà¦¬à¦¨":7667,"Ġà¦īà¦ªà§ľ":7668,"à¦°à¦¶à¦¤":7669,"à¦ĩà¦²à¦ļ":7670,"à¦²à¦¬à¦¬":7671,"à§ĩâĢĶâĢĿ":7672,"à¦°à¦ľà¦Ĺà§İ":7673,"à¦¼à§ĭ?":7674,"Ġà¦¸à¦¹à¦Ĺ":7675,"Ġà¦¸à¦¹à¦®à¦°à¦£":7676,"à¦°à¦ĩà¦¬":7677,"à¦¸à¦¨à¦ªà¦¤":7678,"à¦ķà¦¬à¦ķ":7679,"à¦¸à¦®à¦¬":7680,"à¦Łà¦ķà¦ķ":7681,"Ġà¦Ĳà¦ķà¦¤":7682,"Ġà¦īà§İà¦ªà¦²":7683,"Ġà¦ªà¦¦à¦®":7684,"à¦ªà¦¦à¦¤à¦²":7685,"à¦ªà¦¦à¦¸à¦Ļ":7686,"à¦¦à§Łà¦ľ":7687,"à¦¿?-":7688,"Ġà¦¶à¦¹à¦°à¦ĵ":7689,"à¦°à¦ªà¦ŀ":7690,"à¦·à¦¤à¦Ł":7691,"à¦¯à¦®à§Łà¦¤":7692,"à¦¨à¦Łà¦°":7693,"Ġà¦ĩà¦¨à¦¹":7694,"Ġà¦Ĩà¦§à¦¬":7695,"Ġà¦ħà¦²à¦®":7696,"Ġà¦ħà¦²à¦Ĺ":7697,"à¦¸à¦ķà¦®":7698,"à¦¸à¦ķà¦¶":7699,"à¦¸à¦«à¦¡":7700,"à¦¸à¦«à¦Łà¦ĵà¦¯":7701,"Ġà¦¦à¦²à¦ĵ":7702,"à¥¤âĢĻâĢĻ":7703,"à¦ĩà¦Łà¦¹":7704,"Ġà¦¸à¦¹à¦ľà¦¸":7705,"Ġà¦¸à¦®à§Łà¦ĵ":7706,"à§İà¦¸à¦¹":7707,"à§ĩâĢĵâĢĵ":7708,"à¦°à¦¹à¦£à¦ĩ":7709,"Ġà¦ķà¦¨à¦Ńà¦¯":7710,"à¦®à¦¸à¦¹":7711,"à¦Ĩà¦²à¦Ĺ":7712,"Ġà¦Ĺà¦£à¦¯":7713,"Ġà¦Ĺà¦£à¦¬":7714,"Ġà¦Ĺà¦£à¦ª":7715,"à§Ģ---":7716,"Ġà¦¬à§ľà¦¸à§ľ":7717,"Ġà¦°à¦¸à¦¶":7718,"à¦¡à¦²à¦«":7719,"Ġà¦Īà¦¸":7720,"à¦¾âĢĻ!":7721,"à¤¼":7722,"à¤ģ":7723,"à¦łà¦ķà¦ĩ":7724,"à¦¤à¦ªà¦ŀ":7725,"à¦¥à¦²à¦Ń":7726,"à¦²à¦Ńà¦ª":7727,"à¦¸à¦¹à¦ļà¦°":7728,"à¦°à¦«à§İ":7729,"à¦ļà§Łà¦ªà¦¤":7730,"ank":7731,"à¦¬à¦®à¦Ļ":7732,"Ġà§¨à§©":7733,"Ġà§¨à§¯":7734,"Ġà¦Ĩà¦ļà¦°à¦£à¦Ĺà¦¤":7735,"Ġà¦ľà¦Ĺà¦¬à¦¨":7736,"à¦¾à¦ĥâĢĵ":7737,"ather":7738,"Ġà¦ħà¦¬à¦¨à¦®à¦¨":7739,"à§®à§¦":7740,"Ġà¦ļà¦°à¦®à¦Ń":7741,"Ġà¦°à¦«à¦¤":7742,"ished":7743,"ita":7744,"à¦¾âĢ¦.":7745,"Ġ?\"":7746,"à¦¸à¦Ńà¦¬à¦¨":7747,"à¦¿âĢ¦?âĢĿ":7748,"Ġà¦Ĩà¦«à¦¶":7749,"Ġac":7750,"Ġact":7751,"Ġcr":7752,"à¦¬à¦Ĺà¦ŀ":7753,"ora":7754,"Ġword":7755,"Ġmore":7756,"Ġmost":7757,"à¦¶à¦¹à¦°à¦¤à¦²":7758,"à¦¼à¦¿à¦Ĥ-":7759,"ÂłÂłÂłÂłÂłÂłÂłÂłÂłÂłÂłÂłÂłÂłÂłÂłÂłÂłÂłÂłÂłÂłÂłÂł":7760,"Ġfound":7761,"Ġà¦¨à§ľà¦¤":7762,"Ġà¦¨à§ľà¦²":7763,"Ġà¦ĩà¦īà¦ıà¦¸à¦¬":7764,"Ġà¦¶à¦¶à¦§à¦°":7765,"Ġhand":7766,"Ġà§¨à§¦à§¦à§¦":7767,"Ġà¤Ĺ":7768,"à¦Īà¦®":7769,"à¦īà¦ªà¦²à¦¬":7770,"allen":7771,"ĠPintu":7772,"à¦¿'!":7773,"Ġà¦¥à¦²à¦¥à¦²":7774,"Ġà¦Ńà¦Łà¦ļ":7775,"Ġà¦īà¦ĩà¦²à¦¸à¦¨":7776,"à¦¯à¦ľà¦¨à¦ķà¦Ń":7777,"Ġà¦Ĺà¦łà¦¨à¦ķ":7778,"à¦£à¦ļà¦ŀ":7779,"Ġà¦¸à¦¯à¦¤à¦¨":7780,"ural":7781,"Ġbeen":7782,"osit":7783,"Ġà§§à§¯à§ªà§¯":7784,"à§İà¦¸à¦ķà¦¦":7785,"Ġnothing":7786,"Ġà§§à§Ńà§«à§¬":7787,"Ġà§§à§¯à§®à§«":7788,"agore":7789,"Ø§ÙĦ":7790,"Ġval":7791,"Ġà§§à§¯à§¨à§©":7792,"Ġà¦¬à¦°à¦¬à§°":7793,"Ġà¦ªà¦ļà¦¨à¦¶":7794,"Ġtruth":7795,"Ġcomm":7796,"Ġinto":7797,"Ġà¦Ńà¦°à¦£à¦ª":7798,"ought":7799,"Ġdoes":7800,"ology":7801,"ÂŃÂŃÂŃÂŃÂŃÂŃÂŃÂŃÂŃÂŃÂŃÂŃÂŃÂŃÂŃÂŃ":7802,"ºçľºçľºçľºçľºçľºçľºçľºçľ":7803,"âĢĵâĢĵâĢĵâĢĵâĢĵâĢĵâĢĵâĢĵâĢĵâĢĵâĢĵâĢĵâĢĵâĢĵâĢĵâĢĵ":7804,"·çľ·çľ·çľ·çľ·çľ·çľ·çľ·çľ":7805,"arning":7806,"Ġworld":7807,"Ġsociety":7808,"Ġabstract":7809,"à¦¸à¦¹à¦¨à¦¶":7810,"hilos":7811,"ĠSocial":7812,"ipsism":7813,"'-":7814,".)":7815,"40":7816,"43":7817,"EC":7818,"ED":7819,"EN":7820,"GO":7821,"IoT":7822,"ON":7823,"RA":7824,"bor":7825,"co":7826,"che":7827,"ex":7828,"ft":7829,"ful":7830,"ire":7831,"ja":7832,"land":7833,"mal":7834,"pe":7835,"pend":7836,"wn":7837,"Ð´":7838,"×ķ":7839,"ÙĬ":7840,"âĤ":7841,"âĭ":7842,"ìĿ":7843,"ĠY":7844,"ĠÕ":7845,"Ġra":7846,"à§ĩ(":7847,"à§ĩà¦ĥà¥¤":7848,"à¦°à¦°à¦¸":7849,"à¦°à¦Ńà¦¬":7850,"à¦°à¦īà¦ĩà¦¨":7851,"à§į:":7852,"à¦¿à§į":7853,"à¦¨à¦ªà¦°":7854,"à¦¨à¦¨à¦¬":7855,"à¦¤à¦ķà¦²":7856,"à¦¤à¦ĸà¦¤":7857,"à¦¤à¦®à¦°":7858,"à¦¤à¦¦à¦²":7859,"à¦¤à¦ľà¦¬":7860,"à¦²à¦¸à¦¬":7861,"à¦²à¦¦à¦°":7862,"à¦²à¦Ĺà¦¨":7863,"à¦²à¦°à¦Ļ":7864,"à¦ķà¦ªà¦¨":7865,"à¦ķà¦°à¦®":7866,"à¦¯à¦ķà¦¤":7867,"à¦¯à¦ļà¦ķ":7868,"à¦¯à¦¹à¦®":7869,"à¦¬à¦¬à¦²":7870,"à¦¬à¦®à¦£":7871,"à¦¬à¦Ńà¦°":7872,"à¦¼...":7873,"à¦¼)à¥¤":7874,"à¦®à¦®à¦Ĺ":7875,"à¦®à¦Ńà¦Ļ":7876,"à§ĭà¥¥":7877,"à§ĭ...":7878,"Ġà¦ķà¦Łà¦ķ":7879,"Ġà¦¸à¦ĩà¦Ľ":7880,"Ġà¦¸à§Łà¦²":7881,"à¥¤âĢĶ":7882,"à¦¸à¦°à¦®":7883,"à¦¸à¦°à¦¶":7884,"à¦¸à¦¨à¦ĵ":7885,"Ġà¦ªà¦®":7886,"Ġà¦ªà¦¦à¦¨":7887,"Ġà¦Ĩà¦Łà¦¨à¦®":7888,"à¦¦à¦ľà¦¨":7889,"à¦¦à¦°à¦¸":7890,"à¦¦à¦²à¦¤":7891,"à¦¦à¦¤à¦¤":7892,"à¦¦à¦ªà¦Ł":7893,"à¦Łà§Ł":7894,"à¦Łà¦¶à¦ķ":7895,"à¦Łà¦®à¦¸":7896,"Ġà¦¨à¦ĵà¦¯":7897,"Ġà¦®à¦Ĺà¦°":7898,"Ġà¦®à¦Ĺà¦¡":7899,"Ġà¦®à§ľà¦ķ":7900,"Ġà¦®à¦Īà¦¨":7901,"à¦ªà§Ł":7902,"à¦ªà¦Ľà¦¨":7903,"à¦ĩà¦ķà¦Ł":7904,"à¦ĩà¦ĵà§Ł":7905,"à¦ĩà¦ªà¦²":7906,"à¦ĩà¦ľà¦¨à¦ķ":7907,"à¦ľà¦°à¦ķ":7908,"à¦ľà¦¬à¦°":7909,"à¦ľà¦¬à¦²":7910,"à¦ľà¦¤à¦²":7911,"à¦ľà¦¬à¦¦":7912,"Ġà¦¹à¦°à¦¬":7913,"Ġà¦¹à¦°à¦¹":7914,"Ġà¦¹à¦®à¦ķ":7915,"Ġà¦¹à¦°à¦¦à¦®":7916,"Ġà¦ıà¦¨à¦ĵ":7917,"Ġà¦ıà¦¤à¦°à¦ķà¦®":7918,"à¦¶à¦ķà¦Ł":7919,"à¦¶à¦ªà¦¤":7920,"à¦¶à¦¤à¦ķ":7921,"à¦¶à¦¤à¦®":7922,"à¦¶à§Łà¦¤":7923,"à¦ĸà¦Ŀ":7924,"à¦ĸà¦°à¦¦":7925,"à¦·à¦¤à¦°":7926,"à¦¡à¦ĸ":7927,"à¦¹à¦¡":7928,"à¦¹à¦¬à¦²":7929,"à¦¹à¦Ĺà¦¤":7930,"à¦¹à¦²à¦¬à¦¶à¦¤":7931,"à§Łà¦ª":7932,"à§Łà¦®à¦¨":7933,"Ġà¦Ĺà¦ľà¦°":7934,"à¦ģ?":7935,"à¦¥à¦ĸ":7936,"à¦¥à¦²à¦¨":7937,"à¦¥à¦®à¦¯":7938,"à¦¥à¦¨à¦ķ":7939,"à¦¥à¦¬à¦¦":7940,"Ġà¦ļà¦®à¦¤":7941,"Ġà¦ļà¦ĵà§ľ":7942,"Ġà¦°à¦¸à¦°":7943,"Ġà¦°à¦Łà¦²":7944,"Ġà¦°à¦¸à¦®à¦¯":7945,"Ġà¦°à¦®à¦ľ":7946,"Ġà¦°à¦¡à¦Ł":7947,"à¦ĵà¦ĺà¦°":7948,"à¦Ńà¦Ń":7949,"à¦Ńà§İà¦¸à¦¤":7950,"Ġà¦ıà¦ķà¦ıà¦ķ":7951,"Ġà¦ıà¦ķà¦¶à¦¤":7952,"à¦¼à¦¾âĢ¦âĢĿ":7953,"à¦¼à¦¾âĢĻà¥¤":7954,"Ġà¦Ľà¦Ĺà¦¨":7955,"Ġà¦Ľà¦ĩà¦¯":7956,"à¦łà¦ł":7957,"Ġà¦īà¦¸à¦ĸ":7958,"à§Ĥà¦ĥ":7959,"Ġà¦²à¦ķà¦Ł":7960,"Ġà¦²à¦ĩà¦¤":7961,"Ġà¦ĵà¦®à¦²":7962,"Ġà¦«à¦·":7963,"Ġà¦«à¦°à¦¹":7964,"Ġà¦«à¦°à¦Ĺ":7965,"Ġà¦ĸà¦¶":7966,"à¦¾à¥¤)":7967,"Ġà¦ªà¦°à¦Ĺ":7968,"Ġà¦ªà¦°à¦ľà¦¨":7969,"Ġà¦ªà¦°à¦¶à¦¨":7970,"à¦¬à¦¨à¦²":7971,"à¦¼à¦¿'":7972,"à¦¼à¦¿?âĢĻ":7973,"à§ľà¦ľ":7974,"Ġà¦ĺà¦¨à¦ķ":7975,"à¦°à¦£à¦°":7976,"à¦°à¦£à¦¸à¦®":7977,"à¦¿à¥¤âĢ¦":7978,"à¦ľà¦¨à¦¯":7979,"à¦«à¦¹":7980,"à¦«à¦°à¦ķ":7981,"à¦īà¦°à¦¤":7982,"à¦īà¦¬à¦¯":7983,"à¦īà¦Ľà¦²":7984,"à¦īà¦ªà¦¯":7985,"à¦īà¦ªà¦¬":7986,"à¦īà¦ªà¦ľ":7987,"à¦ªà¦¨à¦ĩ":7988,"à¦Ĩà¦ĩà¦¯":7989,"à¦Ĩà¦ĩà¦¶":7990,"à¦Ĩà¦ĸà¦¡":7991,"à§İà¦Ĺà¦¤":7992,"à§İà¦Ľà¦²":7993,"Ġà¦¸à¦¬à¦°":7994,"à¦¬à¦°à¦ŀ":7995,"à¦¬à¦°à¦®à¦¯":7996,"Ġà¦¬à¦²à¦²à¦ĵ":7997,"Ġà¦Łà¦²à¦Ľ":7998,"âĢĻ;":7999,"Ġà¦ķà¦¥à¦ķà¦ł":8000,"Ġà¦¡à¦®":8001,"Ġà¦¡à¦Ĺà¦®à¦Ĺ":8002,"Ġà¦ĩà¦īà¦®":8003,"à¦ĺà¦¯":8004,"à¦ĺà¦®à¦²":8005,"à¦ĺà¦ªà¦¥":8006,"à¦ĺà¦Ńà¦°":8007,"Ġà¦ľà¦¨à¦¯":8008,"Ġà¦ľà¦¨à¦¬à¦²":8009,"Ġà¦ľà¦¨à¦¬à¦¹":8010,"à¦¬à¦²à¦ĵ":8011,"à¦¬à¦²à¦¤à¦®":8012,"Ġà¦ħà¦¬à¦¬":8013,"à¦°à¦®à¦Ł":8014,"à¦°à¦®à¦ªà¦¦":8015,"à§ģà¦ģ-":8016,"à¦·à¦£à¦¯":8017,"Ġà¦ıà¦¸à¦Ľ":8018,"à¦¤à¦¨à¦®":8019,"à¦ĥâĢĶ":8020,"à¦ħà¦ĩ":8021,"à¦ħà¦°à¦¬":8022,"à¦ħà¦ªà¦Ł":8023,"à¦ħà¦¸à¦®à¦¯":8024,"à¦ħà¦ķà¦¥":8025,"Ġà¦¬à¦¨à¦ª":8026,"Ġà¦¬à¦¨à¦¬à¦¨":8027,"Ġà¦¬à¦¨à¦Ĺà¦®à¦¨":8028,"à¦ķà¦²à¦°":8029,"à¦ķà¦²à¦ķà¦²":8030,"à¦ķà¦Łà¦ĵ":8031,"à¦ķà¦Łà¦ľà¦¨à¦ķ":8032,"à¦¯à¦¬à¦¸à¦¤":8033,"à§ĭà¥¤\"":8034,"Ġà¦Ĩà¦ķà¦Ľ":8035,"à¦¤à¦¬à¦Ł":8036,"à¦¤à¦¬à¦ľ":8037,"à¦°à¦¸à¦ª":8038,"à¦¨à¦¬à¦¦à¦²":8039,"à¦¦à¦¨à¦§":8040,"à¦¦à¦¨à¦®à¦¯":8041,"Ġà¦¬à¦°à¦ĸ":8042,"à§ĩ?'":8043,"à§ĩ?âĢ¦":8044,"à¦Ĩà¦®à¦Ĺ":8045,"à¦¿à¦Ĥ?":8046,"à¦¿à¦ĤâĢ¦":8047,"à¦¿à¦Ĥà¥¤âĢĻ":8048,"à¦¶à¦¨à¦°":8049,"à¦¯à¦ķà¦£":8050,"Ġà¦¸à¦¨à¦¦à¦ªà¦¤":8051,"Ġà¦®à¦¹à¦¬":8052,"à¦¬à¦¤à¦¤":8053,"à¦¯à¦¤à¦Ł":8054,"à¦ĸà¦²à¦Ń":8055,"à¦°à¦ľà¦¯":8056,"à¦°à¦ľà¦Ń":8057,"Ġà¦ħà¦ªà¦¶à¦ķ":8058,"Ġà¦ķà¦²à¦§":8059,"à¦¼à§ĭ!":8060,"Ġà¦īà¦¤à¦¥":8061,"à¦¿à¦ĥ!":8062,"à¦¸à¦¨à¦¸":8063,"à¦¸à¦¨à¦ĩ":8064,"à¦ıà¦ĩà¦ľà¦¨":8065,"à¦ıà¦ĩà¦ļà¦¡":8066,"Ġà¦ķà¦¬à¦Ľà¦°":8067,"à¦¸à¦®à¦£":8068,"à¦Łà¦ķà¦ĵ":8069,"à¦¹à¦²à¦ª":8070,"à¦¹à¦²à¦ĵ":8071,"Ġà¦Ĳà¦ļ":8072,"Ġà¦ķà¦¤à¦ľà¦¨à¦ķ":8073,"à¦¾âĢĶâĢĿ":8074,"à¦Ĺà¦°à¦ĸ":8075,"à¦Ĺà¦°à¦Ĺ":8076,"à§ĩ!\"":8077,"Ġà¦īà§İà¦ķà¦²":8078,"Ġà¦īà§İà¦¸à¦®":8079,"Ġà¦ªà¦¦à¦²":8080,"Ġà¦ªà¦¦à¦¦à¦²":8081,"à¦¸à¦°à¦²à¦¤":8082,"à¦°à¦Ńà¦ŀ":8083,"à¦ªà¦¦à¦¦":8084,"à¦ªà¦¦à¦¶":8085,"à¦¦à§Łà¦Ĺ":8086,"à¦¦à§Łà¦ĵ":8087,"à¦ªà¦¥à¦ª":8088,"à¦¼à§ĩà¥¤à¥¤":8089,"à¦ıà¦ķà¦«":8090,"à¦¬à¦¸à¦²":8091,"à¦·à¦¤à¦ĩ":8092,"à¦·à¦ķà¦Ĺà¦£":8093,"à¦¤à¦ķà¦¥":8094,"à¦¾!'":8095,"à¦ľà¦²à¦®":8096,"à¦ªà¦ķà¦¨":8097,"à§Łà¦¨à¦¶":8098,"à§ģâĢĻâĢĵ":8099,"à¦¯à¦¦à¦¶":8100,"à§°à¦£":8101,"Ġà¦¦à¦²à¦Ľ":8102,"à¦¼à§Ģ-":8103,"à¦ĩà¦¤à¦¸":8104,"?âĢĿâĢĵ":8105,"à¦«à¦²à¦ĩ":8106,"à¦ĩà¦Łà¦¨":8107,"à¦īà¦²à¦¸":8108,"à¦īà¦²à¦ĩ":8109,"à¦¿!)":8110,"Ġà¦ķà¦¨à¦ľ":8111,"à¦°à¦Ĺà¦łà¦¨":8112,"à¦°à¦®à¦£à¦¸à¦Ļ":8113,"Ġà¦¦à¦¶à¦¤à¦²":8114,"à¦®à§Łà¦¦":8115,"à¦®à¦Łà¦°":8116,"Ġà¦¬à¦īà¦Ĺ":8117,"Ġà¦¬à¦īà¦Ń":8118,"Ġà¦ĵà¦ķà¦¥":8119,"à¦®à¦¹à¦ķ":8120,"à¦®à¦¹à¦¨à¦¨":8121,"Ġà¦Īà¦Ĺà¦°à¦ķ":8122,"à¦ķà¦°à¦£à¦¯":8123,"à¦¬à¦¹à¦Ń":8124,"à¦¶à¦®à¦¶":8125,"Ġà§§à§¯à§§à§®":8126,"Ġà¦¸à¦°à¦²à¦°":8127,"à§©à§¬":8128,"à§Ńà§®":8129,"à§ªà§¯":8130,"Ġà¦¬à¦¸à¦¨à¦ĸ":8131,"à¦·à§Łà¦Ń":8132,"inu":8133,"inal":8134,"any":8135,"ance":8136,"à¦ľà¦Ĺà¦łà¦¨":8137,"à¦¶à¦¤à¦¬à¦°":8138,"à¦¦à¦¬à¦¦à¦²":8139,"à¦¬à¦ľà¦¨à¦¹":8140,"reat":8141,"à¦ħà¦¬à¦Ĺ":8142,"attle":8143,"à§¯à§¦":8144,"à§®à§ª":8145,"à¦Ĩà¦¸à¦Ĺà¦°":8146,"Ġà¦°à¦ľà¦¤à¦ĵ":8147,"à¦¬à§Łà¦ĩ":8148,"Ġover":8149,"Ġà¦Ĩà¦Łà¦ĸ":8150,"Ġà¦Ĩà¦Łà¦ĺ":8151,"à¦ļà¦°à¦£à¦ķ":8152,"Ġsm":8153,"Ġà¦Ĩà¦ĩà¦·à¦®":8154,"à¦¸à¦°à¦£à¦ķ":8155,"Ġcould":8156,"ork":8157,"Ġwhen":8158,"à¦ľà¦Ĺà¦¤à¦ķ":8159,"Ġmat":8160,"Ġmuch":8161,"à¦¿âĢĿ,":8162,"à¦¿âĢĿ-":8163,"Ġpre":8164,"Ġpur":8165,"à¦Ĩà¦§à¦ĸ":8166,"à¦£à¦Ĺà¦ŀ":8167,"à¦ªà¦ķà¦¥à¦¨à¦ĩ":8168,"Ġà§©à§¯":8169,"à¦¼à¦¿à¦Ĥ,":8170,"à¦¼à¦¿à¦Ĥà¥¤":8171,"à¦Ńà¦°à¦¤à¦¬":8172,"ason":8173,"Ġfe":8174,"Ġda":8175,"Ġdist":8176,"Ġà¦ĩà¦īà¦ıà¦¸":8177,"Ġà§§à§¯à§Ńà§¨":8178,"Ġhor":8179,"à¦īà¦¬à¦ĵà¦¯":8180,"Ġà§¨à§¦à§§à§©":8181,"Ġà¤µ":8182,"Ġà¤¹":8183,"Ġà¤ħ":8184,"Ġà¤ķ":8185,"à¦Ĺà¦łà¦¨à¦ķ":8186,"Ġinst":8187,"ĠIt":8188,"Ġthink":8189,"ĠMy":8190,"Ġà§ªà§Ń":8191,"ĠAdvik":8192,"ething":8193,"Ġà¦ĺà¦·à¦Ľ":8194,"áĥĶ":8195,"ations":8196,"ĠRah":8197,"Ġà§§à§¯à§ªà§®":8198,"Ġà¦ıà¦«à¦¬":8199,"ident":8200,"Ġgr":8201,"ower":8202,"Ġ|'":8203,"Ġà¦Ĩà¦īà¦Łà¦ª":8204,"Ġà¦Ĺà¦²à¦¦à¦ĺà¦°":8205,"Ġà§¯à§¯":8206,"Ġà§§à§¯à§¯à§¨":8207,"ĠNGO":8208,"Ġà§§à§¨à§¦à§¦":8209,"Ġà§§à§«à§¦":8210,"cious":8211,"Ġà§§à§¯à§®à§¦":8212,"Ø§Ø±":8213,"Ġà§§à§¯à§¬à§«":8214,"indu":8215,"ĠÐ¿":8216,"Ġany":8217,"ĠØª":8218,"Ġnew":8219,"resent":8220,"Ġ19":8221,"Ġà§§à§¯à§¨à§¨":8222,"Ġà§§à§¯à§¨à§¯":8223,"à¦¤à¦°à¦«à¦¦":8224,"Ġmany":8225,"Ġà§§à§¯à§©à§§":8226,"à¦ĩà¦īà¦Ń":8227,"Ġcomp":8228,"à¦ĩà¦¨à¦«à¦°à¦®":8229,"Ġatt":8230,"Ġshall":8231,"ivide":8232,"à¦¦à¦«à¦¤à¦°":8233,"Ġbecom":8234,"port":8235,"Ġliterature":8236,"ĠRupsha":8237,"áĥĺáĥ":8238,"ĠâĨ":8239,"velop":8240,"crete":8241,"Ġtime":8242,"allenge":8243,"hilosop":8244,"âĭ¯":8245,"Ġà¦ıà¦¨à¦ĵà¦¸":8246,"Ġà¦Ľà¦Ĺà¦¨à¦²":8247,"41":8248,"42":8249,"44":8250,"47":8251,"50":8252,"Fi":8253,"II":8254,"In":8255,"ITI":8256,"OC":8257,"aut":8258,"ause":8259,"con":8260,"de":8261,"den":8262,"digital":8263,"io":8264,"ix":8265,"ira":8266,"mb":8267,"ms":8268,"oet":8269,"rat":8270,"ric":8271,"rong":8272,"to":8273,"ves":8274,"wo":8275,"yes":8276,"yond":8277,"Â°":8278,"Ã¡":8279,"Ø³":8280,"Ùģ":8281,"ÙĤ":8282,"áŀ":8283,"âģ":8284,"Ġà¦£":8285,"à§ĩà¦¾à¥¤":8286,"à§ĩÂŃ":8287,"à¦°à¦¨à¦¤":8288,"à¦°à¦²à¦¬":8289,"à¦°à¦īà¦¦":8290,"à§į!âĢĻ":8291,"à¦¨à¦ĩà¦¨":8292,"à¦¨à¦¸à¦ķ":8293,"à¦¨à¦®à¦§":8294,"à¦¨à¦ĸà¦ļ":8295,"à¦¤à¦ł":8296,"à¦¤à¦ĵà¦¯":8297,"à¦¤à¦ķà¦Ł":8298,"à¦¤à¦¸à¦°":8299,"à¦¤à¦¸à¦Ļ":8300,"à¦²à¦¸à¦¨":8301,"à¦ķà¦®à§Ł":8302,"à¦¯à¦ĸà¦£":8303,"à§ģâĢĿà¥¤":8304,"à¦¬à¦Ĺà¦²":8305,"à¦¬à¦§à¦¨":8306,"à¦¬à¦¹à¦°":8307,"à¦¬à¦īà¦¯":8308,"à¦®à¦Ĩà¦®":8309,"à¦®à¦ħà¦¨":8310,"à¦®à¦īà¦¨":8311,"à¦®à¦łà¦¤":8312,"à§ĭ'":8313,"à§ĭâĢĻâĢĶ":8314,"Ġà¦ķà¦ľ":8315,"Ġà¦ķà¦ĸ":8316,"Ġà¦¸à¦ĸà¦¨":8317,"Ġà¦¸à¦ªà¦¥":8318,"Ġà¦¸à¦¸à¦ª":8319,"Ġà¦¸à¦ĩà¦ľ":8320,"à¦¸à¦¬à¦°":8321,"à¦¸à¦¤à¦¨":8322,"à¦¸à¦¦à¦¨":8323,"à¦¸à¦Łà¦¨":8324,"à¦¸à¦īà¦¦":8325,"à¦¸à¦¨à¦¤à¦¨":8326,"Ġà¦ªà¦Ĺ":8327,"Ġà¦Ĩà¦ļà¦°":8328,"Ġà¦Ĩà§°":8329,"Ġà¦Ĩà¦Łà¦¬":8330,"Ġà¦Ĩà¦īà¦¡":8331,"à¦¦à§ľ":8332,"à¦¦à¦¤à¦²":8333,"à¦Łà¦ł":8334,"à¦Łà¦®à¦¨":8335,"à¦Łà¦®à¦°":8336,"à¦Łà¦¬à¦¦":8337,"Ġà¦¨à¦°à¦¦":8338,"Ġà¦¨à¦¹à¦°":8339,"Ġà¦®à¦¦à¦¬":8340,"à¦ªà¦®à¦¨":8341,"à¦ªà¦¢":8342,"à¦ªà¦®à§Ł":8343,"à¦ĩà¦£":8344,"à¦ĩà§ľ":8345,"à¦ĩà¦¶à¦¨":8346,"à¦ĩà¦¤à¦²":8347,"à¦ĩà¦īà¦¡":8348,"à¦Ľà¦®à¦Ľà¦®":8349,"à¦ľà¦¤à¦¬":8350,"à¦ľà¦®à¦¯":8351,"à¦ľà¦®à¦°":8352,"Ġà¦¤à¦Łà¦°":8353,"à¦¶à¦ªà¦°":8354,"à¦¶à¦¨à¦¬":8355,"à¦¶à¦Ńà¦°":8356,"à¦¶à¦Ĺà¦¡":8357,"à¦¼à§ĩ?âĢĻ":8358,"à¦¼à§ĩâĢĶâĢľ":8359,"à¦ĸà¦«":8360,"à¦ĸà¦°à¦ķ":8361,"à¦Ĺà¦ªà¦°":8362,"à¦Ĺà¦«":8363,"à¦·à¦·":8364,"à¦·à¦ł":8365,"à¦·à§ľ":8366,"à¦·à¦°à¦ĩ":8367,"à¦·à¦°à¦Ł":8368,"à¦§à§ľ":8369,"à¦§à¦¹à¦¸":8370,"à¦§à¦¬à¦¬":8371,"à¦§à§°":8372,"Ġà¦¯à¦ļ":8373,"à¦ļà¦ł":8374,"Ġà¦ķà¦°à¦¯":8375,"à§Łà¦¤à¦°":8376,"Ġà¦Ĺà¦Ĺà¦²à¦¸":8377,"à¦£à¦Ľ":8378,"à¦£à¦°à¦ķ":8379,"à¦£à¦¬à¦ķ":8380,"à¦ģà¦ģ":8381,"à¦¥à¦®à¦ķ":8382,"à¦¥à¦°à¦¥à¦°":8383,"Ġà¦¶à¦·":8384,"Ġà¦¶à¦®à¦¨":8385,"Ġà¦¶à¦°à¦ķ":8386,"Ġà¦¶à¦łà¦¤":8387,"Ġà¦ļà§Łà¦¨":8388,"Ġà¦°à¦¸à¦ķ":8389,"Ġà¦°à¦¸à¦ª":8390,"Ġà¦°à¦Ĺà¦°à¦Ĺ":8391,"à§ĩà¥¤âĢľ":8392,"à¦Ńà¦ļ":8393,"Ġà¦ıà¦ķà¦ļà¦²":8394,"Ġà¦ıà¦ķà¦ļà¦ķ":8395,"Ġà¦ıà¦ķà¦°à¦Ļ":8396,"ĠĠâĢ¨":8397,"Ġà¦Ľà¦ľà¦¨":8398,"Ġà¦Ĩà¦®à¦Ł":8399,"Ġà¦īà¦ŀ":8400,"à§Ĥà§į":8401,"à¦Ļà¦Ĺ":8402,"Ġà¦¬à¦²à¦ªà¦¯":8403,"Ġà¦«à§Ł":8404,"Ġà¦«à§Łà¦¸":8405,"Ġà¦ĸà¦Ļ":8406,"Ġà¦ĸà¦°à¦¤à¦°":8407,"à¦°à¦¤à¦¸":8408,"Ġà¦ªà¦°à¦ļ":8409,"âĢĶ\"":8410,"Ġà¦¸à¦®à¦ªà¦¦":8411,"à¦¾,--":8412,"Ġà¦ĺà¦¨à¦¬à¦¸à¦¤":8413,"Ġà¦®à¦¨à¦¬":8414,"Ġà¦®à¦¨à¦Ńà¦°":8415,"Ġà¦®à¦¨à¦Ĺà¦¡":8416,"à¦ªà¦°à¦ªà¦°":8417,"à¦°à¦£à¦¸":8418,"à¦°à¦£à¦ķà¦¬":8419,"à¦Ŀà¦ª":8420,"à¦Ŀà¦Ļ":8421,"à¦¤à¦°à¦ªà¦¤":8422,"à¦«à¦¶":8423,"à¦īà§İ":8424,"à¦īà¦ªà¦ļ":8425,"à¦īà¦¬à¦Ł":8426,"à¦īà¦ªà¦¶":8427,"à¦īà¦¬à¦Ĺ":8428,"à¦īà§ľà¦¨":8429,"à¦īà§İà¦ķà¦£":8430,"à¦ªà¦¨à¦Ĺ":8431,"à¦ªà¦¨à¦ķà¦¥":8432,"à¦Ĩà¦¨à¦¤":8433,"à¦Ĩà¦ķà¦°":8434,"à§İà¦Ł":8435,"à¦ıà¦¯":8436,"à¦ıà¦¹":8437,"à¦ıà¦ľà¦¨":8438,"à¦ıà¦®à¦ľ":8439,"à¦ıà¦¨à¦ª":8440,"Ġà¦¬à¦²à¦²à¦ı":8441,"Ġà¦¬à¦²à¦²à¦¬à¦²":8442,"Ġà¦¬à¦²à¦²à¦¸à¦¬":8443,"Ġà¦¬à¦²à¦²à¦ıà¦ĸà¦¨":8444,"Ġà¦Ĩà¦¸à¦Ļ":8445,"Ġà¦¹à¦²à¦ĵà¦¯":8446,"Ġà¦ĩà¦¸à¦ª":8447,"Ġà¦ĩà¦®à¦ªà¦°":8448,"Ġà¦ĩà¦«à¦¤":8449,"Ġà¦®à¦¤à¦Ł":8450,"à¦¬à¦²à¦Ĺ":8451,"Ġà¦ıà¦¬à¦Ľà¦°":8452,"à¦°à¦®à¦§à¦°":8453,"à¦°à¦®à¦¥à¦¨":8454,"à¦·à¦£à¦¤à¦°":8455,"à¦·à¦£à¦Ńà¦Ļ":8456,"âĢĵâĢĺ":8457,"à¦ħà¦ķà¦°":8458,"à¦ħà¦¶à¦¨":8459,"à¦ħà¦¬à¦ķ":8460,"à¦ħà¦¯à¦¥":8461,"à¦ħà¦¨à¦¬à¦¦":8462,"Ġà¦¬à¦¨à¦¹":8463,"Ġà¦Ĺà¦²à¦¬":8464,"à¦ķà¦Łà¦¨":8465,"à¦¸à¦¬à¦¸à¦®à¦¯":8466,"à¦°à¦¨à¦¦":8467,"à§ĭà¥¤âĢĺ":8468,"à¦¤à¦¬à¦§":8469,"à¦¤à¦¬à¦¹":8470,"à¦¤à¦¬à§İ":8471,"à¦¤à¦¬à¦¸à¦¨":8472,"à¦²à¦ķà¦ĵ":8473,"à¦¦à¦¨à¦ªà¦¤":8474,"Ġà¦¹à¦¤à¦ļ":8475,"à§ĩ?-":8476,"Ġà¦ħà¦¦à¦°":8477,"Ġà¦ħà¦¦à¦®à¦¨":8478,"Ġà¦Ĩà¦¨à¦²à¦ķ":8479,"Ġà¦īà¦¦à¦¬":8480,"à¦¾-'":8481,"Ġà¦ħà¦Ńà¦ķ":8482,"Ġà¦ľà¦²à¦¶":8483,"Ġà¦ľà¦²à¦ļ":8484,"Ġà¦ľà¦²à¦ļà¦ķ":8485,"à¦¶à¦¨à¦ª":8486,"à¦®à¦¤à¦ĵ":8487,"Ġà¦ħà¦¤à¦ĩ":8488,"à¦¯à¦ķà¦Ń":8489,"à¦¯à¦ķà¦°à¦£":8490,"à¦°à¦¹à¦Ĺ":8491,"à¦°à¦¹à¦Ńà¦°":8492,"à¦²à¦¨à¦Ł":8493,"à¦²à¦¨à¦ª":8494,"à¦²à¦¨à¦¹":8495,"Ġà¦®à¦¹à¦¦":8496,"Ġà¦īà¦ªà¦ª":8497,"Ġà¦īà¦ªà¦°à¦¤à¦²":8498,"à¦§à¦¨à¦ª":8499,"à¦°à¦¦à¦£":8500,"Ġà¦ķà¦²à¦¶":8501,"à¦¼à§ĭâĢĶ":8502,"à¦ļà¦²à¦²":8503,"à¦ļà¦²à¦ĸ":8504,"à¦ļà¦²à¦ļ":8505,"à¦®à¦ķà¦¹":8506,"Ġà¦īà¦¤à¦·":8507,"Ġà¦Ĩà¦¤à¦¸":8508,"à¦¸à¦¨à¦¦":8509,"à¦¸à¦¨à¦ļ":8510,"à¦ĩà¦¨à¦ĩ":8511,"à¦ĩà¦¨à¦ľ":8512,"à¦ķà¦¬à¦ĩ":8513,"à¦ķà¦¬à¦¦à¦²":8514,"Ġà¦ħà¦ľà¦ªà¦¥":8515,"à¦¹à¦²à¦ĩ":8516,"Ġà¦ĵà¦ªà¦°à¦¦":8517,"Ġà¦Ĳà¦¯":8518,"Ġà¦Ĳà¦Ń":8519,"âĢ¦)":8520,"âĢ¦..":8521,"Ġà¦ķà¦®à¦¸":8522,"Ġà¦ķà¦®à¦²à¦ķ":8523,"à¦¤à¦²à¦ľ":8524,"Ġà¦¤à¦°à¦²à¦¤":8525,"à§ĩ!âĢĵ":8526,"Ġà¦°à¦Ļà¦ª":8527,"Ġà¦°à¦Ļà¦ļà¦Ł":8528,"Ġà¦ªà¦¦à¦¸à¦ŀ":8529,"à¦°à¦Ńà¦¦":8530,"à¦¶à¦¬à¦¦":8531,"Ġà¦¨à§Łà¦Ł":8532,"à¦®à¦£à¦Ł":8533,"à¦®à¦£à¦ĵ":8534,"à¦®à¦£à¦ķà¦¨":8535,"à¦¿?\"":8536,"à¦¿?'":8537,"à¦ıà¦ķà¦ĩà¦Ń":8538,"Ġà¦ħà¦ķà¦£":8539,"à¦·à¦¤à¦ķ":8540,"à§įâĢĮ?":8541,"à¦¬à¦¦à¦®à¦¨":8542,"à¦·à¦ķà¦¶":8543,"Ġà¦Ľà¦¬à¦Ľà¦°":8544,"à¦¯à¦®à¦¶":8545,"à¦¤à¦ķà¦ķ":8546,"à¦¤à¦®à¦¸":8547,"à¦¿âĢĶâĢĻ":8548,"Ġà¦ħà¦¶à¦ķ":8549,"à¦¨à¦¦à¦¶":8550,"à§ĩ;âĢĵ":8551,"à¦¢à¦Ļ":8552,"à¦ĩà¦ķà¦®":8553,"Ġà¦ħà¦²à¦¸à¦Ń":8554,"à¦¯à¦¸à¦¹":8555,"à¦¹à¦¨à¦ª":8556,"Ġ(âĢľ":8557,"à¦ķà¦¨à¦«":8558,"à§°à¦¬à¦²":8559,"Ġà¦¶à¦¤à¦¦":8560,"Ġà¦¨à¦¬à¦¤à¦°":8561,"à¦ªà¦¸à¦¹":8562,"Ġà¦Ĺà§ľà¦¨":8563,"à¦¥à¦°à¦ĸà¦£":8564,"Ġà¦¸à¦¹à¦ľà¦¤à¦°":8565,"à¦Ĺà¦ľà¦ķà¦²à¦®":8566,"à¦Łà¦¬à¦ĩà§Ł":8567,"Ġà¦ıà¦ķà¦ĩà¦¸":8568,"à¦¿!'":8569,"à¦¿!-":8570,"à¦ķà¦¶à¦¤":8571,"à¦§à¦¬à¦¸à¦®":8572,"Ġà¦¦à¦¶à¦Ń":8573,"Ġà¦Ĺà¦£à¦²":8574,"Ġà¦¬à¦īà¦ĵ":8575,"à¦®à¦°à¦£à¦ķ":8576,"à¦®à¦°à¦£à¦¶à¦ķ":8577,"à¦²à¦¸à¦Ł":8578,"Ġà¦¬à§ľà¦ľà¦¨":8579,"à¦¹à¦°à¦£à¦¤":8580,"à¦¹à¦°à¦£à¦Ł":8581,"à¦¹à¦°à¦£à¦Ĺ":8582,"à¦¦à¦¸à¦ĩ":8583,"à¦¦à¦¸à¦¹":8584,"à¦®à¦¹à§İ":8585,"Ġà¦Ĩà¦ªà¦Ĺ":8586,"à§¦à§§":8587,"à§¦à§¨":8588,"Ġà¦Īà¦·":8589,"Ġà¦ķà¦ªà¦ļ":8590,"-----":8591,"à¤ł":8592,"à¦ķà¦°à¦£à¦ķ":8593,"à¦¿;âĢĵ":8594,"à¦ķà¦¸à¦¹":8595,"à¦¶à¦²à§Ł":8596,"Ġà¦°à¦ĵà¦¶à¦¨à¦ĵ":8597,"Ġà¦Ĺà¦°à¦®à¦ķ":8598,"à¦®à¦¶à¦ķà¦°":8599,"à¦ıà¦¸à¦¬à¦ķ":8600,"à¦ĩà¦¡à¦¬":8601,"Ġà¦Ĺà¦¹à¦¨à¦¤":8602,"Ġà§§à§¯à§§à§¯":8603,"à§Ŀà¦ª":8604,"à¦¬à¦Ńà¦ķ":8605,"à¦£à¦¬à¦§à¦°":8606,"à§Ńà§«":8607,"à¦¸à¦¹à¦ķà¦°":8608,"Ġà¦ľà¦Ĺà¦¤à¦ķ":8609,"à§ªà§§":8610,"à¦°à¦¬à¦²à¦¤à¦°":8611,"à¦¬à¦Łà¦¦":8612,"à¦¬à¦Łà¦Ł":8613,"ination":8614,"Ġà¦īà§ľà¦¬":8615,"à¦ľà§Łà¦§":8616,"Ġà¦ĩà¦²à¦¶":8617,"Ġà¦¸à§İà¦¬":8618,"Ġà¦ĵà¦ªà¦°à¦¤à¦²":8619,"à¦¶à¦Ĺà¦Ļ":8620,"à¦¿à¥¤âĢĻâĢĿ":8621,"Ġà¦ļà¦Łà¦ķà¦²":8622,"à¦¬à¦ľà¦¨à¦¬":8623,"Ġà¦Ĭà¦·à¦°":8624,"Ġà¦Ĩà¦ļà¦°à¦£à¦Ł":8625,"Ġà¦ľà¦Ĺà¦Ĺ":8626,"Ġà¦ıà¦°à¦ķà¦®à¦Ł":8627,"à¦ªà§ľà¦¤":8628,"à¦²à¦ľà¦«":8629,"à§¬à§§":8630,"à§¬à§©":8631,"à¦®à¦®à¦Ń":8632,"alk":8633,"Ġà¦«à¦Łà¦ķà¦Ł":8634,"à¦ĩà¦ªà¦ĩ":8635,"à§®à§©":8636,"Ġà¦ļà¦°à¦®à¦ªà¦¨":8637,"à¦¾âĢĿ-":8638,"Ġà¦ļà¦°à¦£à¦ª":8639,"Ġà¦ļà¦°à¦£à¦ļ":8640,"ite":8641,"Ġà¦Ĩà¦Łà¦¦":8642,"Ġà¦°à¦¤à¦¨à¦¦":8643,"Ġsil":8644,"Ġsup":8645,"à¦ıà¦¤à¦¸à¦¬":8646,"à§ĭ;-":8647,"à¦ĩà¦«à¦°à¦®":8648,"Ġà¦Ńà¦Ĺà¦¬à¦¨":8649,"Ġad":8650,"ari":8651,"Ġwould":8652,"Ġmen":8653,"Ġmind":8654,"Ġmontu":8655,"à¦¿.-":8656,"à¦¿.à¥¤":8657,"à¦īà¦łà¦Ľ":8658,"ÂłÂłÂłÂłÂłÂłÂłÂłÂłÂłÂłÂłÂłÂłÂłÂłÂłÂłÂłÂłÂłÂłÂłÂłÂłÂłÂłÂłÂłÂłÂłÂłÂłÂłÂłÂł":8659,"Ġdes":8660,"Ġdif":8661,"Ġà§§à§¯à§Ńà§©":8662,"Ġà¦ķà¦¦à¦®à¦Ĺ":8663,"Ġà§¨à§¦à§§à§¦":8664,"Ġà§¨à§¦à§§à§«":8665,"Ġà¤ľ":8666,"à¦ĸà¦¬à¦°à¦¦":8667,"omas":8668,"Ġà¦ªà¦¥à¦ļà¦²à¦¤":8669,"***":8670,"Ġlong":8671,"Ġà§§à§¯à§«à§§":8672,"Ġà§§à§¯à§«à§«":8673,"Ġà§«à§§":8674,"olar":8675,"ĠMan":8676,"ĠMontu":8677,"elod":8678,"Ġà§ªà§¦à§¦":8679,"ĠAyan":8680,"ental":8681,"ĠParg":8682,"à¦£à¦¸à¦ŀ":8683,"ĠBang":8684,"Ġà§Ńà§¦à§¦":8685,"Ġà¦īà¦Ńà§Łà¦ķ":8686,"Ġreason":8687,"à¦¸à§İà¦¤":8688,"Ġbeyond":8689,"Ġà§§à§¯à§ªà§¦":8690,"Ġgl":8691,"ĠDiya":8692,"ody":8693,"Ġà¦Ĺà¦²à¦¦à¦ĺ":8694,"ular":8695,"Ġà¦¶à¦ĵà¦ķà¦°":8696,"Ġà¦īà¦ĩà¦¨à¦ļ":8697,"Ġà¦§à¦ķà¦§à¦ķ":8698,"Ġà¦¬à¦Ĺà¦²à¦¦":8699,"!![":8700,"ement":8701,"Ġà§§à§Ńà§«à§Ń":8702,"Ġà§§à§¯à§®à§§":8703,"Ġà¦¦à¦¹à¦°à¦®":8704,"Ġvill":8705,"ope":8706,"ople":8707,"riot":8708,"Ġneigh":8709,"Ġà§§à§¯à§©à§©":8710,"ĠWi":8711,"ÐµÑĢ":8712,"ĠFre":8713,"ief":8714,"Ġà¦Ĩà¦īà¦Łà¦²":8715,"Ġspe":8716,"Ġabout":8717,"TEM":8718,"Ġcannot":8719,"Ġimag":8720,"Ġà¦«à¦¸à¦«à¦°":8721,"Ġjust":8722,"Ġà¦ħà§Łà¦¨à¦ķ":8723,"uthor":8724,"ught":8725,"ĠUn":8726,"Ġsomething":8727,"ways":8728,"Ġsolipsism":8729,"Ġart":8730,"ystem":8731,"Ġdiff":8732,"![":8733,"/-":8734,"?à¥¤":8735,"AL":8736,"MO":8737,"NA":8738,"Pro":8739,"SB":8740,"VR":8741,"aj":8742,"au":8743,"ave":8744,"ds":8745,"fin":8746,"ga":8747,"has":8748,"ied":8749,"less":8750,"lab":8751,"oh":8752,"over":8753,"ph":8754,"pr":8755,"ran":8756,"rish":8757,"so":8758,"ty":8759,"ten":8760,"ues":8761,"uja":8762,"ven":8763,"ward":8764,"wise":8765,"||":8766,"£áĥ":8767,"Ã¦":8768,"Ð¿":8769,"Ñĩ":8770,"×¨":8771,"à©":8772,"âĪ":8773,"ï¼":8774,"ĊĠĠ":8775,"ĠX":8776,"ĠÎ":8777,"Ġen":8778,"Ġet":8779,"ĠÚ©":8780,"à¦¾\"":8781,"à¦¾(":8782,"à¦¾à¦¿":8783,"à¦¾ÂŃ":8784,"à§ĩ\"":8785,"à§ĩ_":8786,"à¦°à¦°à¦¬":8787,"à¦°à¦°à¦¶":8788,"à¦¿..":8789,"à¦¿),":8790,"à¦¤à¦¬à¦²":8791,"à¦¤à¦§à¦°":8792,"à¦¤à¦ļà¦°à¦£":8793,"à¦¤à¦¯à¦¶":8794,"à¦¤à¦Ĩà¦Ł":8795,"à¦²à§ľ":8796,"à¦²à¦Ĩ":8797,"à¦²à¦¤à¦¨":8798,"à¦²à¦²à¦¨":8799,"à¦²à¦ªà¦Ł":8800,"à¦²à¦ªà¦¡":8801,"à¦ķà§İ":8802,"à¦ķà¦®à¦£":8803,"à¦ķà¦ľà¦¬":8804,"à¦ķà¦Ĩà¦īà¦Ł":8805,"à¦¯à¦¦à§Ł":8806,"à¦¯à¦ľà¦¯":8807,"à§ģ.":8808,"à§ģâĢĮ":8809,"à¦¬à¦¤à¦¬":8810,"à¦¬à¦Ĺà¦®":8811,"à¦¼âĢĿâĢĶ":8812,"à¦¼âĢĿâĢĵ":8813,"à¦®à¦ķà¦¤":8814,"à¦®à¦¦à¦²":8815,"à¦®à¦¬à¦¸":8816,"à¦®à¦Ĺà¦ľ":8817,"à¦®à¦Ĩà¦ªà¦¨":8818,"à¦®à¦ĸà¦£":8819,"à§ĭâĢĻ,":8820,"Ġà¦ķà¦¦à¦²":8821,"Ġà¦ķà¦ķà¦ª":8822,"Ġà¦¬à¦ĵà¦¯":8823,"Ġà¦¬à¦ķà¦²":8824,"Ġà¦¬à¦¶à¦®":8825,"Ġà¦¬à¦°à¦¬à¦°":8826,"Ġà¦¬à¦¨à¦¤à¦²":8827,"Ġà¦¬à¦ĸà¦¶":8828,"Ġà¦¸à¦¬à¦¨":8829,"Ġà¦¸à¦¦à¦Ĺ":8830,"Ġà¦¸à¦¦à¦²à¦¬à¦²":8831,"à¦¸à¦¥":8832,"à¦¸à¦°à¦¬":8833,"à¦¸à¦ļà¦²":8834,"Ġà¦ªà¦¦à¦°":8835,"Ġà¦ªà¦²à¦¤":8836,"Ġà¦ªà¦¨à¦°":8837,"Ġà¦ªà¦ªà¦²":8838,"Ġà¦ªà¦īà¦·":8839,"Ġà¦ªà¦ĩà¦ªà¦ĩ":8840,"Ġà¦Ĩà¦Łà¦¤":8841,"Ġà¦Ĩà¦īà¦°":8842,"à¦¦à¦ªà¦°":8843,"à¦¦à¦Ĺà¦²":8844,"à¦Łà¦¬à¦¨":8845,"à¦Łà¦®à¦¡":8846,"à¦Łà¦¸à¦¸":8847,"Ġà¦¨à¦°à¦ª":8848,"Ġà¦¨à¦ĸà¦ļ":8849,"Ġà¦¨à¦¬à¦¤à¦®":8850,"Ġà¦¨à¦°à¦¹à¦¤":8851,"Ġà¦®à¦°à¦¹":8852,"Ġà¦®à§°":8853,"à¦ªà¦ķà¦Ł":8854,"à¦ªà¦¸à¦¬":8855,"à¦ªà¦®à¦²":8856,"à¦ªà¦¶à¦¬":8857,"à¦ĩà¦Ĩà¦®":8858,"à¦ĩà¦¨à¦ĵ":8859,"à¦ĩà¦ªà¦¥":8860,"à¦ĩà¦ĵà¦°":8861,"à¦ĩà¦ªà¦®":8862,"à¦ĩà¦ĵà¦¨":8863,"à§Ģ\"":8864,"à§ĢâĢĶâĢľ":8865,"à§ĢâĢĿâĢĶ":8866,"à¦Ľà¦ªà¦Ł":8867,"à¦Ľà¦§à¦°":8868,"Ġà¦¦à¦¸à¦¤":8869,"Ġà¦¦à§°":8870,"à¦ľà¦«":8871,"à¦ľà¦ĵà¦¯":8872,"à¦ľà¦®à¦¤":8873,"à¦ľà¦Ĺà¦¨":8874,"à¦ľà¦ķà¦¦":8875,"à¦ľà¦ĺà¦¨":8876,"Ġà¦¹à¦°à¦ķ":8877,"Ġà¦¹à¦¸à¦ª":8878,"Ġà¦¤à¦ļ":8879,"Ġà¦¤à¦£":8880,"Ġà¦¤à¦ķà¦¤à¦ķ":8881,"Ġà¦ıà¦¤à¦°":8882,"Ġà¦ıà¦¨à¦Ĺ":8883,"à¦¶à¦£":8884,"à¦¶à¦¬à¦²":8885,"à¦¶à¦°à¦¥":8886,"à¦¶à¦²à¦ķ":8887,"à¦¶à¦²à¦¬":8888,"à¦¶à¦°à¦¦":8889,"à¦¶à¦ľà¦²":8890,"Ġà¦ħà¦°à¦¸":8891,"à¦ĸà¦ŀ":8892,"à¦ĸà¦°à¦¬":8893,"à¦Ĺà¦¬à¦²":8894,"à¦Ĺà¦¢":8895,"à¦·à¦¬à¦°":8896,"à¦·à¦¸à¦°":8897,"à¦·à¦Ńà¦°":8898,"à¦·à¦ªà¦²":8899,"à¦§à¦°à¦¬":8900,"à¦§à¦Ĺà¦²":8901,"à¦§à¦¬à¦ķ":8902,"âĢĥ":8903,"âĢĭ":8904,"Ġà¦¯à¦·":8905,"à¦ļà¦¤à¦¨":8906,"à¦ļà¦°à¦¨":8907,"à¦ļà¦¬à¦ķ":8908,"à¦ļà§Łà¦¨":8909,"à¦ļà§°":8910,"à¦ļà¦¬à¦Ł":8911,"à¦¹à¦°à¦¬":8912,"à¦¹à¦ĩà¦²":8913,"à¦¹à¦ķà¦¦":8914,"Ġà¦ķà¦°à¦ķà¦°":8915,"à§Łà¦®à¦ķ":8916,"Ġà¦Ĺà¦°à¦¦":8917,"Ġà¦Ĺà¦®à¦ķ":8918,"à¦£à¦®à¦¤":8919,"à¦£à¦ªà¦¦à¦ķ":8920,"à¦ģà¦¾":8921,"à¦¥à¦¬à¦°":8922,"à¦¥à¦°à¦ĵ":8923,"à¦¥à¦ķà¦¦":8924,"Ġà¦¶à¦ł":8925,"Ġà¦¶à¦®à¦¸":8926,"Ġà¦¶à¦¬à¦°à¦¦":8927,"Ġà¦ľà¦Ń":8928,"Ġà¦ľà¦ªà¦®":8929,"Ġà¦ļà¦ķà¦°":8930,"Ġà¦ļà¦°à¦¨":8931,"Ġà¦Ńà¦ľà¦®":8932,"Ġà¦°à¦ĩà¦¨":8933,"Ġà¦°à¦¸à¦¤":8934,"Ġà¦°à¦ľà¦ķ":8935,"Ġà¦°à¦¸à¦ķà¦·":8936,"Ġà¦°à¦¦à¦¬à¦¦à¦²":8937,"à§ĩà¥¤âĢĵ":8938,"à¦ĵà¦°à¦ķ":8939,"à¦Ńà¦°à¦ķ":8940,"à¦Ńà¦°à¦ª":8941,"Ġà¦ıà¦ķà¦¡":8942,"Ġà¦ıà¦ķà¦ªà¦ķ":8943,"Ġà¦ıà¦ķà¦ķà¦£":8944,"Ġà¦ıà¦ķà¦¶à¦Ł":8945,"Ġà¦ıà¦ķà¦§à¦°à¦£":8946,"à¦¼à¦¾/":8947,"à¦¼à¦¾:":8948,"à¦¼à¦¾à¦¾":8949,"à¦¼à¦¾---":8950,"à¦łà¦ªà¦¥":8951,"à¦łà¦²à¦Ĺ":8952,"Ġà¦īà¦ĩà¦®":8953,"à¦Ĥ/":8954,"à¦¾à¦ģà¥¤âĢĿ":8955,"à¦¾à¦ģ!âĢĿ":8956,"Ġà¦²à¦¬à¦¨":8957,"Ġà¦ĵà¦ĵ":8958,"Ġà¦ĵà¦Ļ":8959,"Ġà¦ĵà¦®à¦¨":8960,"Ġà¦ĵà¦«":8961,"Ġà¦¬à¦²à¦¹":8962,"Ġà¦Ĩà¦°à¦¨à¦¬":8963,"Ġà¦ĸà¦°à¦¤":8964,"à¦°à¦¤à¦¯":8965,"à¦°à¦¤à¦ĩ":8966,"Ġà¦ªà¦°à¦Ĺà¦£":8967,"Ġà¦¸à¦®à¦ª":8968,"Ġà¦¸à¦®à¦°à¦ķ":8969,"à¦¼à¦¿!âĢĿ":8970,"à§ľà¦°":8971,"à§ľà¦ª":8972,"Ġà¦ĺà¦°à¦®":8973,"Ġà¦®à¦¨à¦®à¦¤":8974,"à¦ªà¦°à¦ĩ":8975,"Ġà¦ıà¦ĩà¦¡":8976,"à¦Ŀà¦¦":8977,"à¦ľà¦¨à¦Ĺà¦¨":8978,"à¦¤à¦°à¦ľà¦Ĺà¦¤":8979,"à¦«à¦¥":8980,"à¦«à¦Ŀ":8981,"à¦«à¦ĵà¦¯":8982,"à¦īà¦Ľ":8983,"à¦īà¦°à¦¨":8984,"à¦īà¦®à¦°":8985,"à¦īà¦¨à¦¸":8986,"à¦īà§İà¦°":8987,"à¦¿,âĢĶ":8988,"Ġà¦Ĩà¦²à¦ľ":8989,"à¦°à¦¬à¦¹":8990,"à¦Ĩà¦ŀ":8991,"à¦Ĩà¦ĩà¦°":8992,"à§İà¦¦":8993,"à§İà¦ĵ":8994,"à§İà¦ªà¦¨":8995,"à§İà¦ªà¦Ł":8996,"à¦¬à¦°à¦Ń":8997,"à¦¬à¦°à¦Ļ":8998,"à¦¬à¦°à¦¦à¦¸":8999,"Ġà¦¬à¦²à¦²à¦ļ":9000,"Ġà¦¬à¦²à¦²à¦ıà¦ķ":9001,"Ġà¦¬à¦²à¦²à¦ıà¦ĸ":9002,"Ġà¦Łà¦¸":9003,"Ġà¦Łà¦Ł":9004,"Ġà¦Łà¦Ĺ":9005,"Ġà¦Łuhin":9006,"Ġà¦Ĩà¦Ľà¦¨":9007,"à¦¼à¥¤(":9008,"Ġà¦¹à¦²à¦°":9009,"Ġà¦¡à¦¬":9010,"Ġà¦ĩà¦Ĺà¦¨":9011,"Ġà¦ĩà¦īà¦¸":9012,"Ġà¦ĩà¦«à¦°":9013,"à¦ĺà¦ĵ":9014,"à¦ĺà¦°à¦Ľ":9015,"Ġà¦ľà¦¨à¦¸à¦Ļ":9016,"ĠĠĊĊ":9017,"Ġà¦Ŀà¦ķà¦®":9018,"à¦¬à¦²à¦¤à¦°":9019,"à¦°à¦®à¦ªà¦°":9020,"à§ģà¦ģà¦ģ":9021,"à¦·à¦£à¦¨":9022,"Ġà¦ıà¦¸à¦ĩà¦īà¦Ń":9023,"à¦¤à¦¨à¦¸à¦¹":9024,"à¦ĥ?":9025,"à¦ħà¦Ŀ":9026,"à¦ħà¦ķà¦²":9027,"à¦ħà¦¹à¦²":9028,"à¦ħà¦ľà¦°":9029,"à¦ħà¦¬à¦§":9030,"Ġà¦¬à¦¨à¦ªà¦°":9031,"à¦ķà¦²à¦¶":9032,"à¦ķà¦²à¦Ń":9033,"Ġà¦Ĩà¦¬à¦¡":9034,"Ġà¦ħà¦®à¦²à¦¬":9035,"Ġà¦Ĺà¦²à¦«":9036,"à¦¸à¦¬à¦Ĺ":9037,"à¦°à¦¨à¦¬":9038,"à¦°à¦¥à¦ª":9039,"à¦¤à¦¬à§Łà¦¸":9040,"à¦²à¦ķà¦¥":9041,"à¦¾à¦Ĥ!":9042,"à¦¦à¦¨à¦¯":9043,"à¦¦à¦¨à¦¬à¦¨":9044,"à¦°à¦¥à¦®à¦ĩ":9045,"à§ĩ?)":9046,"Ġà¦ıà¦²à¦Ĺ":9047,"à¦Ĩà¦®à¦¤":9048,"à¦Ĩà¦®à¦²à¦ķ":9049,"Ġà¦ħà¦°à¦ľ":9050,"à¦Ĺà¦²à¦°":9051,"à¦Ĺà¦²à¦ķà¦°":9052,"Ġà¦ħà¦Ńà¦¬":9053,"Ġà¦ħà¦Ńà¦Ļ":9054,"Ġà¦ľà¦²à¦¤":9055,"Ġà¦ľà¦²à¦ľà¦²":9056,"à¦Ĺà¦¤à¦¦":9057,"à¦¶à¦¨à¦¦":9058,"Ġà¦ĺà¦°à¦ĵ":9059,"Ġà¦ĺà¦°à¦¬à¦¨":9060,"à¦²à¦¨à¦¯":9061,"Ġà¦īà¦ªà¦¬à¦°":9062,"Ġà¦īà¦ªà¦¦à¦²":9063,"à¦¬à¦¤à¦ķ":9064,"à¦¬à¦¤à¦°à¦£":9065,"à¦ĩà¦²à¦¡":9066,"à¦®à¦²à§Ł":9067,"à¦§à¦¨à¦°":9068,"à¦§à¦¨à¦ªà¦¥":9069,"à¦§à¦¨à¦Ńà¦Ļ":9070,"à¦°à¦ľà¦¦":9071,"à¦°à¦ľà¦ª":9072,"à¦°à¦ľà¦¬à¦°à¦¦à¦¸":9073,"à¦°à¦²à¦¹à¦°":9074,"à¦°à¦²à¦¸à¦Ń":9075,"Ġà¦ķà¦²à¦ª":9076,"Ġà¦ķà¦²à¦Ĺ":9077,"Ġà¦¸à¦¹à¦®":9078,"Ġà¦ıà¦¤à¦ľà¦¨":9079,"à¦¿à¦ĥâĢĵ":9080,"à¦¸à¦¨à¦ķà¦°":9081,"à¦ĩà¦¨à¦¡":9082,"à¦¨à¦¨à¦¦":9083,"à¦¨à¦¨à¦Ń":9084,"à¦¨à¦¨à¦Ĺà¦°":9085,"à¦ıà¦ĩà¦¸à¦¬à¦ĩ":9086,"Ġà¦ħà¦ļà¦²à¦¤":9087,"Ġà¦ķà¦¬à¦·":9088,"à§Ģ,âĢĶ":9089,"à¦¿-'":9090,"à¦¹à¦²à¦Ł":9091,"à¦¹à¦²à¦Ńà¦°":9092,"à¦¹à¦²à¦®à§Ł":9093,"Ġà¦īà¦¨à¦ªà¦ŀ":9094,"Ġà¦ķà¦¤à¦¶à¦¤":9095,"âĢ¦!":9096,"Ġà¦ķà¦®à¦¬à¦¯":9097,"Ġà¦¬à¦¹à¦¤":9098,"à§ĩ!!":9099,"Ġà¦¯à¦¤Åĵ":9100,"Ġà¦ªà¦¦à¦¦":9101,"Ġà¦ªà¦¦à¦ªà¦¥":9102,"à¦®à¦°à¦Ł":9103,"à¦¸à¦°à¦·":9104,"à¦ªà¦¦à¦®":9105,"à¦ªà¦¦à¦ľà¦¨à¦ķ":9106,"à¦°à¦ĵà¦ĩ":9107,"à¦ªà¦¥à¦ķ":9108,"à¦ªà¦¥à¦ĩ":9109,"Ġà¦ħà¦®à¦²à¦ª":9110,"à¦®à¦£à¦¯":9111,"à¦®à¦£à¦Ń":9112,"à¦¨à¦ķà¦¨":9113,"à¦¬à¦¸à¦ļ":9114,"à¦Łà¦²à¦Ł":9115,"à¦ĩà¦°à¦Ļ":9116,"Ġà¦«à¦²à¦ĩ":9117,"à¦·à¦ķà¦ľ":9118,"à¦¤à¦ķà¦¨":9119,"à¦¤à¦ķà¦®à¦²":9120,"Ġà¦²à¦ķà¦ª":9121,"à¦¤à¦®à¦¬":9122,"à¦¿âĢĶâĢĿ":9123,"à¦¾!-":9124,"à¦¾!âĢĶ":9125,"à¦¾!âĢ¦":9126,"à¦¬à¦ķà¦®":9127,"Ġà¦ĩà¦¨à¦«à¦°":9128,"Ġà¦Ĩà¦§à¦ĺà¦¨":9129,"à¦¤à¦¤à¦ªà¦ķ":9130,"à¦¬à¦¬à¦¶":9131,"à¦¬à¦¬à¦¶à¦¤":9132,"Ġà¦Ńà¦¬à¦Ń":9133,"à¦ĸà¦¬à¦ĩ":9134,"à¦¸à¦ķà¦ķ":9135,"à§°à¦ª":9136,"à§°à¦Ĺ":9137,"à§°à¦·":9138,"Ġà¦¶à¦¤à¦§":9139,"Ġà¦¨à¦¬à¦ªà¦°":9140,"à¦¨à¦¸à¦ª":9141,"à¦¨à¦¸à¦ŀ":9142,"à¦¼à§Ģ?":9143,"à¦¼à§ĢâĢĶ":9144,"à¦¼à§ĢâĢĵ":9145,"?âĢĿ,":9146,"Ġà¦Ĺà§ľà¦Ľ":9147,"Ġà¦ĭà¦¤à¦¨":9148,"à¦Łà¦¬à¦ī":9149,"à¦¿!(":9150,"Ġà¦ªà¦²à¦¸":9151,"à¦ķà¦¶à¦Ł":9152,"à¦·à¦®à¦Ń":9153,"à¦§à¦¬à¦¹":9154,"Ġà¦°à¦ķà¦®à¦Ł":9155,"Ġà¦īà§İà¦¸à¦Ł":9156,"Ġà¦īà§İà¦¸à¦ľ":9157,"Ġà¦¬à¦Łà¦®":9158,"Ġà¦¬à¦Łà¦ł":9159,"à¦¾;-":9160,"Ġà¦Ĺà¦£à¦®à¦¨":9161,"à¦¾âĢĵâĢĻ":9162,"Ġà¦ħà¦Łà¦²à¦Ń":9163,"à¦Ĺà¦®à¦ª":9164,"Ġà¦§à¦¨à¦ªà¦¤":9165,"à¦®à¦¹à¦®":9166,"à§¦à§©":9167,"à§¦à§Ń":9168,"Ġà¦Īà¦·à¦¦":9169,"à¤¡":9170,"à¤ĺ":9171,"à¤Ń":9172,"à§«à§©":9173,"à§«à§¯":9174,"à¦¶à¦²à¦ĩ":9175,"à¦ªà¦²à¦ĵà¦¯":9176,"Ġà¦ľà§Łà¦Ł":9177,"Ġà¦ľà§Łà¦ª":9178,"Ġà¦ľà§Łà¦ıà¦°":9179,"Ġà§§à§¯à§¨à§¦":9180,"à§Ŀà¦¸":9181,"Ġtwo":9182,"à§ĭ!!":9183,"à§ªà§®":9184,"à¦Łà¦Ľà¦¡":9185,"à¦Ĺà¦£à¦ķ":9186,"à¦²à¦ªà§ľ":9187,"Ġà¦·à¦Ł":9188,"Ġà¦ķà§Łà¦Ł":9189,"Ġ-'":9190,"Ġà¦¸à§İà¦®":9191,"Ġà¦¸à§İà¦ª":9192,"à¦¨à§Łà¦¨à¦®":9193,"Ġà¦¶à¦ªà¦¥à¦¬":9194,"à¦¦à¦¶à¦¦":9195,"à¦¬à¦ľà¦¨à¦®":9196,"à¦¬à¦ľà¦¨à¦¸":9197,"Ġà¦ķà¦ļà¦ĵ":9198,"Ġà¦Ĭà¦ł":9199,"Ġà¦¤à¦¨à§Ł":9200,"à§¬à§«":9201,"à¦®à¦®à¦ŀ":9202,"à¦¯à¦ķà¦°à¦Ń":9203,"Ġà¦ħà¦¬à¦¨à¦®":9204,"Ġ!'":9205,"à¦¸à¦®à§Łà¦¸":9206,"à§®à§«":9207,"à¦ĵà¦ĩà¦ĸ":9208,"Ġà¦ıà¦¡à¦®":9209,"isha":9210,"à¦Ĳà¦ĸ":9211,"à¦Ĳà¦¤à¦°":9212,"ittle":9213,"à¦¶à¦¹à¦°à¦Ł":9214,"à¦¾âĢ¦à¥¤âĢĿ":9215,"à¦ªà¦Ĺà¦ŀ":9216,"Ġà¦ľà¦¨à¦¸à¦®à¦ķ":9217,"Ġopp":9218,"Ġà¦¤à¦ªà¦¨à¦¦":9219,"âĢįà§įâĢĮ":9220,"Ġ;-":9221,"à¦¿?âĢĻâĢĶ":9222,"Ġacc":9223,"Ġcre":9224,"Ġcir":9225,"Ġchar":9226,"à¦ķà¦¶à¦¨à¦Ł":9227,"Ġà¦ĭà¦£à¦Ĺ":9228,"Ġà¦¸à¦®à¦¤à¦²à¦¬":9229,"Ġà¦¨à¦°à¦ĵà¦¯":9230,"ara":9231,"arch":9232,"Ġà¦ķà¦¦à¦®à¦¬":9233,"ort":9234,"Ġwhere":9235,"à¦¿!âĢĿâĢĶ":9236,"Ġmay":9237,"Ġmod":9238,"Ġmem":9239,"Ġmake":9240,"à¦¿âĢĿ!":9241,"à¦ħà¦ªà¦Ľà¦¨":9242,"Ġà¦¬à¦°à¦«à¦ª":9243,"Ġperson":9244,"Ġphilosop":9245,"à¦ħà¦ľà¦Ĺà¦°":9246,"anda":9247,"icism":9248,"Ġà¦ħà¦²à¦ķà¦ķ":9249,"Ġà§©à§¦à§¦":9250,"oub":9251,"Ġà¦°à¦¨à¦ľ":9252,"ase":9253,"asure":9254,"Ġfa":9255,"Ġfind":9256,"Ġà¦ķà¦¬à¦°à¦Ł":9257,"Ġà¦ĩà¦īà¦ª":9258,"Ġà§§à§¯à§Ńà§¬":9259,"Ġà¦Ĩà¦¬à¦°à¦£à¦Ł":9260,"Ġhar":9261,"Ġhist":9262,"à§ĢâĢĻâĢĶ":9263,"Ġà¤¦":9264,"Ġà¤°":9265,"Ġà¤ĸ":9266,"omm":9267,"omen":9268,"Ġà¦¸à¦²à¦®à¦¨":9269,"à¦īà§İà¦¸à¦¬à¦®":9270,"other":9271,"Ġà§«à§¬":9272,"Ġà§«à§®":9273,"à¦īà¦ªà¦¬à¦¨":9274,"à¦¶à¦ĵà¦ª":9275,"à¦¨à¦¶à¦¨à¦Ł":9276,"ĠAp":9277,"ĠAnd":9278,"ution":9279,"ĠPro":9280,"ĠPuja":9281,"ility":9282,"ĠBut":9283,"ĠBrah":9284,"à¦¼âĢ¦âĢĻ":9285,"ĠSh":9286,"Ġà¦īà¦ĩà¦²à¦Ł":9287,"Ġeach":9288,"ign":9289,"igion":9290,"Ġref":9291,"Ġrem":9292,"Ġreal":9293,"áĥķ":9294,"ĠTagore":9295,"à¦¤à¦ĸà¦°à¦ļ":9296,"Ġgener":9297,"Ġà§¬à§«":9298,"à¦¶à¦¶à¦¤à¦ķ":9299,"Ġà¦¸à¦®à¦¤à¦²à¦Ń":9300,"ĠComp":9301,"Ġà¦ĸà§ľà¦Ĺ":9302,"ification":9303,"Ġà¦¶à¦ĵà¦ķà¦¤à¦ķ":9304,"irit":9305,"à¦°à¦²à§Łà¦Ļ":9306,"ĠHindu":9307,"à¦¸à¦®à¦¤à¦²":9308,"Ġconst":9309,"Ġconcrete":9310,"ĠÐ²":9311,"Ġà¦Ĺà¦«à¦°à¦Ĺ":9312,"Ġà¦®à§Łà¦®à¦¨à¦¸":9313,"Ġà¦¡à¦ľà¦¨à¦ĸ":9314,"ĠØ´":9315,"Ġà¦¬à¦°à¦¬à¦Ł":9316,"Ġorig":9317,"Ġà¦®à¦Łà¦°à¦¶":9318,"à¦¦à¦ļà§Łà¦¨":9319,"Ġcome":9320,"ĠÙħ":9321,"Ġà¦Ĩà¦īà¦Łà¦¬":9322,"Ð¾Ð»":9323,"ible":9324,"ears":9325,"wey":9326,"ĠĠĠĊĠĠ":9327,"Ġsuch":9328,"Ġimp":9329,"Ġà¦¬à¦°à¦ķà¦¤":9330,"Ġshould":9331,"========":9332,"ĠUSB":9333,"Ġchallenge":9334,"Ġ_____":9335,"ĠBeing":9336,"Ġevil":9337,"ĠRupali":9338,"ĠDewey":9339,"Ġtranscend":9340,"Ġfreedom":9341,"ĠArjun":9342,"Thomas":9343,"Ġà¦Łà¦ĩà¦Łà¦®":9344,"Ġpeople":9345,"Ġpatriot":9346,"ositive":9347,"velopment":9348,"âģł":9349,"!]":9350,"!..":9351,"%-":9352,"'s":9353,",'":9354,"-(":9355,".à¥¤":9356,"46":9357,"49":9358,"57":9359,"?âĢ¦":9360,"ATE":9361,"IF":9362,"LM":9363,"My":9364,"RE":9365,"be":9366,"ber":9367,"fore":9368,"gress":9369,"know":9370,"les":9371,"min":9372,"na":9373,"ning":9374,"part":9375,"rist":9376,"sc":9377,"uk":9378,"va":9379,"val":9380,"ving":9381,"vent":9382,"with":9383,"ye":9384,"Â¤":9385,"Â¸":9386,"Ã¼":9387,"Ä±":9388,"Îµ":9389,"Ð±":9390,"ÑĮ":9391,"×¢":9392,"×ľ":9393,"Ø¨":9394,"Ùĩ":9395,"ÛĴ":9396,"à¯":9397,"àµ":9398,"åķ":9399,"ê°":9400,"Ġ3":9401,"Ġ]":9402,"Ġ?âĢĿ":9403,"Ġer":9404,"Ġed":9405,"Ġel":9406,"Ġri":9407,"Ġ55":9408,"ĭľ":9409,"à¦¾âĢį":9410,"à§ĩà¦¾,":9411,"à¦°à¦°à¦¤":9412,"à¦°à¦«à¦²":9413,"à¦°à¦ıà¦°":9414,"à¦°Ã¦":9415,"à§į;":9416,"à¦¿|":9417,"à¦¨à¦²à¦ķ":9418,"à¦¨à¦°à¦¶":9419,"à¦¨à¦²à¦¬":9420,"à¦¨à¦°à¦ª":9421,"à¦¨à¦¸à¦²":9422,"à¦¨à¦¸à¦Ļ":9423,"à¦¨à¦ªà¦²":9424,"à¦¨à¦®à¦¶":9425,"à¦¨à¦Ĩà¦¸":9426,"à¦¨à¦ķà¦¤à¦ķ":9427,"à¦¤à¦Ŀ":9428,"à¦¤à¦²à¦ķ":9429,"à¦¤à¦®à¦¤":9430,"à¦¤à¦°à¦¤à¦²":9431,"à¦²à¦°à¦ķ":9432,"à¦²à¦ıà¦ĩ":9433,"à¦²à¦¸à¦«":9434,"à¦²à¦«à¦²":9435,"à¦²à¦ĩà¦¬":9436,"à¦²à¦Ĩà¦ªà¦¨":9437,"à¦²à§İà¦ľ":9438,"à¦ķà¦·à¦£":9439,"à¦ķà¦ªà¦¤":9440,"à¦ķà¦ħà¦¨":9441,"à¦ķà¦¸à¦ª":9442,"à¦ķà¦¥à¦ķ":9443,"à¦ķà¦¯à¦ľ":9444,"à¦¯à¦Ľ":9445,"à¦¯à¦²à¦¤":9446,"à¦¯à¦®à¦°":9447,"à¦¯à¦«à¦²":9448,"à§ģà§Ĥ":9449,"à§ģà¥¥":9450,"à¦¬à¦ĵà¦¯":9451,"à¦¬à¦¬à¦¤":9452,"à¦¬à¦ľà¦°":9453,"à¦¬à¦īà¦²":9454,"à¦¬à¦®à¦¸":9455,"à¦¼à§ĭà¥¤âĢĿ":9456,"à¦¼à¥¥":9457,"à¦®à¦¸à¦°":9458,"à¦®à¦¬à¦¦":9459,"à¦®à§°":9460,"à¦®à¦°à¦¹à¦¸":9461,"à§ĭ.":9462,"à§ĭ...âĢĿ":9463,"Ġà¦ķà¦¨à¦Ĺ":9464,"Ġà¦¬à¦ķà¦¤":9465,"Ġà¦¸à¦¦à§Ł":9466,"à¥¤-":9467,"à¥¤à¥¤âĢĻ":9468,"à¦¸à¦ĸà¦¨":9469,"à¦¸à¦¦à¦°":9470,"à¦¸à¦ªà¦¥":9471,"à¦¸à¦°à¦¬à¦°":9472,"à¦¸à¦ªà¦°à¦Ł":9473,"Ġà¦ªà¦¹à¦°":9474,"Ġà¦ªà¦¢":9475,"Ġà¦ªà¦ļà¦¬":9476,"Ġà¦Ĩà¦ªà¦ķ":9477,"Ġà¦Ĩà¦ĩà¦¯":9478,"Ġà¦Ĩà¦ĵà¦²":9479,"à¦¦à¦¦à¦°":9480,"à¦¦à¦¶à¦¨":9481,"à¦¦à¦ľà¦²":9482,"à¦¦à¦ķà¦¦":9483,"à¦¦à¦ĩà§Ł":9484,"à¦¦à¦¬à¦§":9485,"à¦Łà¦¥":9486,"à¦Łà¦Ŀ":9487,"à¦Łà¦ķà¦¤":9488,"à¦Łà¦°à¦¦":9489,"à¦Łà¦ªà¦¤":9490,"à¦Łà¦¨à¦ķ":9491,"à¦Łà¦ªà¦Ł":9492,"à¦Łà¦¸à¦¹":9493,"à¦Łà¦ķà¦Łà¦ķ":9494,"Ġà¦¨à¦¬à¦¤":9495,"Ġà¦¨à¦²à¦Ł":9496,"Ġà¦¨à¦°à¦ĸ":9497,"Ġà¦¨à¦Ńà¦¸":9498,"Ġà¦¨à¦ŀà¦°":9499,"Ġà¦®à§İ":9500,"Ġà¦®à¦²à¦®à¦²":9501,"à¦ªà§İ":9502,"à¦ªà¦²à¦¤":9503,"à¦ªà¦®à¦¤":9504,"à¦ªà¦¶à¦ķ":9505,"à¦ªà¦Ńà¦°":9506,"à¦ªà¦īà¦ªà¦¨":9507,"à¦ĩà¦ķà¦°":9508,"à¦ĩà¦²à¦ķ":9509,"à¦ĩà¦Łà¦²":9510,"à¦ĩà¦«à¦²":9511,"à¦ĩà¦īà¦Ł":9512,"à¦ĩà¦¶à¦¤":9513,"à§Ģà¦ģ":9514,"à¦Ľà¦ľ":9515,"à¦ľà¦¬à¦ª":9516,"à¦ľà¦²à¦¤":9517,"à¦ľà¦ªà¦¦à¦¬":9518,"Ġà¦¹à¦¦à§Ł":9519,"Ġà¦¹à¦°à¦Ĺ":9520,"Ġà¦¹à¦ķà¦¸":9521,"Ġà¦¤à¦«à¦¸":9522,"Ġà¦ıà¦Ĺà¦²":9523,"Ġà¦ıà¦°à¦²":9524,"Ġà¦ıà¦®à¦¡":9525,"à¦¶à¦¤à¦¬":9526,"à¦¶à¦¦à¦°":9527,"à¦¶à¦¬à¦¤":9528,"à¦¶à¦ķà¦¬":9529,"à¦¼à§ĩ)":9530,"à¦¼à§ĩ!âĢĻ":9531,"Ġà¦ħà¦°à¦¤":9532,"Ġà¦ħà¦ĸà¦¨":9533,"Ġà¦ħà¦¯à¦¯":9534,"à¦ĸà¦°à¦¸":9535,"à¦ĸà¦ķà¦ĩ":9536,"à¦Ĺà§Ł":9537,"à¦Ĺà¦ķà¦°":9538,"à¦Ĺà¦°à¦¨":9539,"à¦Ĺà¦¦à¦°":9540,"à¦Ĺà¦¬à¦¦":9541,"à¦Ĺà¦®à¦¸":9542,"à¦Ĺà¦°à¦¤à¦²":9543,"à¦·à¦ļà¦¨":9544,"à¦·à¦¸à¦®":9545,"à¦·à¦°à¦¸à¦®":9546,"à¦§à¦¨à¦¤":9547,"à¦§à¦°à¦²":9548,"à¦§à¦¶à¦°":9549,"à¦§à¦¨à¦¤à¦¤":9550,"à¦¡à¦¬à¦²":9551,"à¦¡à¦²à¦Ł":9552,"à¦¡à¦Ńà¦¨":9553,"à¦¡à¦¬à¦ľà¦¨à¦¨":9554,"Ġà¦¯à¦®à¦¸":9555,"à¦ļà¦ªà¦°":9556,"à¦ļà¦°à¦¦":9557,"à¦ļà¦Łà¦ķ":9558,"à¦ļà¦ªà¦¦":9559,"à¦ļà¦¢":9560,"à¦ļà¦Ĺà¦¡":9561,"Ġà¦ķà¦°à¦®à¦ļ":9562,"à§Łà¦°à¦¤":9563,"à§Łà¦®à¦Ĺ":9564,"à§Łà¦¶à¦ĩ":9565,"Ġà¦Ĺà¦Ľ":9566,"Ġà¦Ĺà§Ł":9567,"Ġà¦Ĺà¦¬à¦°":9568,"Ġà¦Ĺà¦Ĺà¦²":9569,"Ġà¦Ĺà¦¤à¦®":9570,"à¦£à¦ªà¦¥":9571,"à¦£à¦ļà¦ķ":9572,"à¦£à¦¸à¦Ļ":9573,"à¦£à¦¯à¦ľ":9574,"à¦¥à¦¬à¦¨":9575,"à¦¥à¦Ĺà¦¤":9576,"à¦¥à¦¸à¦¨":9577,"Ġà¦¶à¦ľ":9578,"Ġà¦¶à¦£":9579,"Ġà¦¶à¦°à¦¨":9580,"Ġà¦¶à¦ĸà¦Ł":9581,"Ġà¦ľà¦ĸ":9582,"Ġà¦ľà¦°à¦¦":9583,"Ġà¦ľà§°":9584,"Ġà¦ļà¦°à¦¸":9585,"Ġà¦ļà¦°à¦ª":9586,"Ġà¦ļà¦°à¦Ľ":9587,"Ġà¦ļà¦ªà¦Ł":9588,"Ġà¦ļà§°":9589,"Ġà¦ļà¦®à¦ļ":9590,"Ġà¦Ńà¦ĩà¦²":9591,"Ġà¦Ńà¦Łà¦Ń":9592,"Ġà¦°à§ľ":9593,"Ġà¦°à¦¦à¦¨":9594,"Ġà¦°à¦ĩà¦Ľ":9595,"Ġà¦°à¦¶à¦®":9596,"Ġà¦°à¦ĩà¦®":9597,"Ġà¦°à¦ĩà¦ļ":9598,"à§ĩà¥¤-":9599,"à¦ĵà¦ľà¦¨":9600,"à¦Ńà¦Ľ":9601,"à¦Ńà¦°à¦¦":9602,"à§ĥà¦ĥ":9603,"Ġà¦Ľà¦°":9604,"Ġà¦Ľà¦¸":9605,"Ġà¦Ľà¦ĩ":9606,"Ġà¦Ĩà¦®à¦¹":9607,"Ġà¦Ĩà¦®à¦Ŀ":9608,"Ġà¦Ĩà¦®à¦¸à¦¤":9609,"à¦łà¦¤à¦²":9610,"à¦łà¦ļà¦°":9611,"Ġà¦īà¦¶à¦ĸ":9612,"à¦Ĥ!":9613,"à¦Ĥ?":9614,"à¦¾à¦ģâĢĵ":9615,"Ġà¦²à¦ĸà¦¨":9616,"Ġà¦²à¦ĩà¦¨":9617,"Ġà¦²à¦Ĺà¦¨":9618,"Ġà¦ĵà¦Ľ":9619,"Ġà¦ĵà¦ľà¦°":9620,"Ġà¦«à¦°à¦«à¦°":9621,"Ġà¦Ĩà¦°à¦Ń":9622,"Ġà¦Ĩà¦°à¦«":9623,"Ġà¦ĸà¦¸à¦²":9624,"Ġà¦ĸà¦ĩà¦¯":9625,"Ġà¦ĸà¦ĩà§Ł":9626,"Ġà¦ħà¦¨à¦Ļ":9627,"Ġà¦ħà¦¨à¦¬à¦§":9628,"Ġà¦§à¦ĩà¦°":9629,"Ġà¦§à¦²à¦¡":9630,"Ġà¦ªà¦°à¦¹":9631,"Ġà¦ªà¦°à¦£":9632,"Ġà¦ªà¦°à¦Ń":9633,"Ġà¦ªà¦°à¦Ĺà¦¨":9634,"Ġà¦ªà¦°à¦®à¦¤à¦¤":9635,"âĢĶà¥¤":9636,"à¦¬à¦¨à¦®à¦¨":9637,"à¦¬à¦¨à¦°à¦ķ":9638,"à¦¬à¦¨à¦®à¦¯":9639,"à¦¬à¦¨à¦®à§Ł":9640,"à¦¼à¦¿âĢĿ":9641,"à¦¼à¦¿à¥¤âĢĻ":9642,"à§ľà¦ĩ":9643,"à§ľà¦¤à¦²":9644,"à¦ªà¦°à¦¯":9645,"à¦°à¦£à¦¦":9646,"à¦°à¦£à¦ª":9647,"Ġà¦ıà¦ĩà¦¯":9648,"à¦¿à¥¤(":9649,"à¦®à¦¨à¦§":9650,"à¦ľà¦¨à¦§":9651,"à¦ľà¦¨à¦ªà¦¦":9652,"à¦ŀà¦¨":9653,"à¦¤à¦°à¦°":9654,"à¦¤à¦°à¦ļ":9655,"à¦«à¦Łà¦¨":9656,"à¦īà¦¸à¦ķ":9657,"à¦īà¦¸à¦«":9658,"à¦īà¦¥à¦ª":9659,"à¦¿,âĢĵ":9660,"Ġà¦Ĩà¦²à¦®à¦Ĺ":9661,"à¦°à¦¬à¦Ł":9662,"à¦°à¦¬à¦¶":9663,"à¦°à¦¬à¦ľà¦¨à¦ķ":9664,"à¦Ĩà¦ĵ":9665,"à¦Ĩà¦ĵà¦¯":9666,"à¦Ĩà¦ªà¦Ł":9667,"à¦Ĩà¦ªà¦¸":9668,"à¦Ĩà¦§à¦¬":9669,"à¦Ĩà¦¦à¦®":9670,"à¦Ĩà¦¦à¦¬":9671,"à§İà¦¨":9672,"à¦ıà¦¶":9673,"à¦ıà§Ł":9674,"à¦ıà¦®à¦¤":9675,"à¦ıà¦¨à¦ķ":9676,"à¦ıà¦¸à¦ª":9677,"à¦°à¦ķà¦¤":9678,"à¦¬à¦°à¦ľ":9679,"à¦¬à¦°à¦Ńà¦Ļ":9680,"Ġà¦¬à¦²à¦²à¦Ĺ":9681,"Ġà¦¬à¦²à¦²à¦Ĩà¦Ĺ":9682,"Ġà¦Łà¦«":9683,"âĢĻâĢĻ":9684,"à¦¼à¥¤'":9685,"à¦¼à¥¤âĢ¦":9686,"Ġà¦¹à¦²à¦ĵ":9687,"Ġà¦¡à¦²à¦¤":9688,"ĠâĢľâĢĺ":9689,"à§ĪâĢĵ":9690,"Ġà¦ĩà¦ķà¦²":9691,"Ġà¦ĩà¦¹à¦¸":9692,"Ġà¦ĩà¦ķà¦¬":9693,"Ġà¦ĩà¦¸à¦ķ":9694,"Ġà¦ĩà¦Łà¦¬":9695,"Ġà¦ĩà¦¡à¦²":9696,"à¦ĺà¦ĩ":9697,"à¦ĺà¦¬à¦¤":9698,"à¦ĺà¦°à¦¦":9699,"à¦ĺà¦¢":9700,"Ġà¦ľà¦¨à¦ªà¦¥":9701,"Ġà¦§à¦°à¦ª":9702,"Ġà¦Ŀà¦°à¦ķ":9703,"à¦¬à¦²à¦¶":9704,"à¦¬à¦²à¦ļ":9705,"à¦¬à¦ªà¦²":9706,"à¦·à¦£à¦ªà¦¦":9707,"à¦·à¦£à¦¤à¦¤":9708,"à¦·à¦£à¦¸à¦¹":9709,"à¦¨à¦¤à¦ĩ":9710,"à¦¨à¦¤à¦¶":9711,"Ġà¦ıà¦¸à¦¡":9712,"âĢĵà¥¤":9713,"Ġà¦¬à¦¸à¦°":9714,"Ġà¦Ĩà¦ľà¦°":9715,"à¦¤à¦¨à¦ª":9716,"à¦¤à¦¨à¦¹":9717,"à¦ħà¦¹à¦®":9718,"à¦ħà¦¬à¦ľ":9719,"à¦ħà¦ªà¦¬":9720,"à¦ħà¦¨à¦Łà¦¨":9721,"à¦ķà¦²à¦Ł":9722,"à¦ķà¦²à¦¬à¦¦":9723,"Ġà¦Ĩà¦¬à¦ķ":9724,"Ġà¦Ĩà¦Ĺà¦°":9725,"Ġà¦Ĩà¦Ĺà¦°à¦¤à¦²":9726,"Ġà¦Ĩà¦Ĺà¦°à¦ĵà¦¯":9727,"à¦ķà¦°à¦°":9728,"à¦ķà¦°à¦ª":9729,"à¦ķà¦°à¦Ĺ":9730,"à¦ķà¦°à¦¹":9731,"à¦¸à¦¬à¦ķà¦Ł":9732,"à¦¸à¦¬à¦¶à¦¤":9733,"à¦°à¦¨à¦®":9734,"Ġà¦ħà¦¸à¦«à¦²":9735,"à¦°à¦¸à¦¦":9736,"à¦¨à¦¬à¦¦à¦°à¦¦":9737,"à¦¦à¦¨à¦Ł":9738,"à¦¦à¦¨à¦ªà¦¦":9739,"à¦ķà¦¤à¦ķà¦Ł":9740,"à§ĩ?âĢĶ":9741,"à§ĩ?!âĢĿ":9742,"Ġà¦ıà¦²à¦Ĺà¦°":9743,"Ġà¦ħà¦¦à¦²":9744,"Ġà¦īà¦¦à¦Ĺà¦¤":9745,"à¦Ĺà¦²à¦§":9746,"à¦Ĺà¦²à¦ļ":9747,"à¦Ĺà¦²à¦Ń":9748,"à¦Ĺà¦²à¦ļà¦ķ":9749,"à¦Ĺà¦²à¦ļà¦£":9750,"Ġà¦ľà¦²à¦Ĺ":9751,"Ġà¦ľà¦²à¦ªà¦°":9752,"à¦Ĺà¦¤à¦ĵ":9753,"à¦®à¦¤à¦ĩ":9754,"à¦¯à¦ķà¦¨":9755,"Ġà¦¸à¦¨à¦ķ":9756,"à¦§à¦ķà¦ĩ":9757,"à¦§à¦ķà¦£":9758,"Ġà¦ĺà¦°à¦Ń":9759,"à¦¹à¦¸à¦Ļ":9760,"à¦ļà¦¨à¦Ł":9761,"à¦ļà¦¨à¦¶":9762,"à¦²à¦¨à¦Ń":9763,"à¦²à¦¨à¦®à¦¯":9764,"Ġà¦īà¦ªà¦²":9765,"Ġà¦īà¦ªà¦Ľ":9766,"Ġà¦īà¦ªà¦¸à¦®":9767,"à¦°à¦¯à¦ľ":9768,"à¦¬à¦¤à¦¸":9769,"à¦¨à¦ĵà¦ĩ":9770,"à¦®à¦²à¦®":9771,"à¦¯à¦¤à¦ĵ":9772,"à¦ĸà¦²à¦®":9773,"à¦§à¦¨à¦¸":9774,"à¦§à¦¨à¦Ń":9775,"à¦§à¦¨à¦ªà¦¦":9776,"Ġà¦ħà¦ªà¦Ń":9777,"Ġà¦ıà¦®à¦¨à¦¸à¦®à¦¯":9778,"à¦¼à§ĭà¦ĥ":9779,"à¦ļà¦²à¦ĵ":9780,"Ġà¦¸à¦¹à¦¶":9781,"Ġà¦¸à¦¹à¦ľà¦¨":9782,"à¦ªà¦¤à¦®":9783,"à¦¹à¦°à¦ª":9784,"à¦¹à¦°à¦°à¦®":9785,"à¦¸à¦¨à¦Ł":9786,"Ġà¦ľà¦®à¦ľ":9787,"Ġà¦ľà¦®à¦¦à¦Ĺ":9788,"Ġà¦¹à¦łà¦¯":9789,"à¦°à¦ªà¦°à¦ıà¦ķà¦Ł":9790,"à¦¸à¦®à¦ŀ":9791,"à¦Ńà¦¬à¦¸":9792,"à§Ģ,-":9793,"à¦Łà¦ķà¦¯":9794,"Ġà¦ªà§ľà¦¶":9795,"à¦¹à¦²à¦®à¦¯":9796,"Ġà¦ĺà¦Łà¦®":9797,"Ġà¦ĵà¦ªà¦°à¦Ł":9798,"Ġà¦ķà¦¤à¦Ń":9799,"âĢ¦,":9800,"âĢ¦?":9801,"âĢ¦?âĢĿ":9802,"Ġà¦ķà¦®à¦«":9803,"à¦Ĺà¦°à¦°":9804,"Ġà¦°à¦Ļà¦Ĺ":9805,"à¦¸à¦°à¦°":9806,"à¦¸à¦°à¦ŀ":9807,"à¦°à¦Ńà¦ķ":9808,"à¦°à¦Ńà¦®à¦¯":9809,"à¦ªà¦¦à¦²":9810,"à¦ªà¦¦à¦Ĩà¦ªà¦¦":9811,"à¦¦à§Łà¦®":9812,"à¦¦à§Łà¦ĸ":9813,"à¦¶à¦¬à¦ĩ":9814,"Ġà¦¨à§Łà¦ķ":9815,"à¦ıà¦ķà¦ķà¦¥":9816,"à¦ıà¦ķà¦ľà¦¨à¦ķ":9817,"à¦ıà¦ķà¦§à¦°à¦¨":9818,"à¦¨à¦ķà¦¯":9819,"à¦¨à¦ķà¦¡":9820,"Ġà¦ħà¦ķà¦®":9821,"Ġà¦¶à¦¹à¦°à¦ª":9822,"Ġà¦Ĺà¦°à¦ľà¦¨":9823,"à¦¦à¦²à¦ĩ":9824,"à¦°à¦ªà¦¤à¦¨":9825,"à¦¬à¦¸à¦®à¦ķ":9826,"Ġà¦ħà¦ªà¦°à¦Ł":9827,"à¦Łà¦²à¦ĵ":9828,"à§įâĢĮ--":9829,"Ġà¦«à¦²à¦¬à¦¤":9830,"à¦·à¦ķà¦ĵ":9831,"à¦¯à¦®à¦Ł":9832,"à¦¯à¦®à¦ª":9833,"à¦¤à¦ķà¦®":9834,"à¦¤à¦ķà¦ª":9835,"à¦ħà¦¨à¦¡":9836,"à¦¤à¦®à¦¦":9837,"à¦¤à¦®à¦§":9838,"à¦¾!!":9839,"à¦ľà¦²à¦ĸ":9840,"à¦ľà¦²à¦ļà¦ķ":9841,"à¦ľà¦²à¦°à¦Ļ":9842,"à¦¼à§ĩ,âĢĿ":9843,"à¦®à¦¬à¦§":9844,"à¦ªà¦ķà¦®":9845,"Ġà¦ħà¦¶à¦¥":9846,"à¦¬à¦ķà¦¸":9847,"à§ĩ;---":9848,"à¦¶à¦ķà¦®":9849,"Ġà¦Ĩà¦§à¦ĺ":9850,"Ġà¦ħà¦²à¦ª":9851,"Ġà¦ħà¦²à¦ĸ":9852,"Ġà¦ıà¦ķà¦¬à¦ļà¦¨":9853,"Ġà¦īà¦ªà¦°à¦ķ":9854,"Ġà¦īà¦ªà¦°à¦ĵ":9855,"à¦¹à¦¨à¦Ĺ":9856,"à¦¯à¦¦à¦¸":9857,"à¦ķà¦¨à¦Ĺ":9858,"à§°à¦²":9859,"à§°à¦¥":9860,"à§°à¦Ĺà¦¤":9861,"à§°à¦®à¦£":9862,"Ġà¦¶à¦¤à¦ĸ":9863,"Ġà¦¶à¦¤à¦¸à¦¹à¦¸":9864,"Ġà¦īà¦²à¦Łà¦ª":9865,"Ġà¦¨à¦¬à¦§":9866,"Ġà¦¨à¦¬à¦īà¦¦":9867,"à¦·à¦°à¦°":9868,"à¦¨à¦¸à¦¦":9869,"à¦¼à§Ģ!":9870,"à¦ªà¦¸à¦ĩ":9871,"à¦ªà¦¸à¦ľ":9872,"à¦Ĩà¦ľà¦Ĺ":9873,"à¦«à¦²à¦ĵ":9874,"à¦¥à¦°à¦Ĺà¦¤":9875,"à¦ĩà¦Łà¦¬":9876,"Ġà¦Ĩà¦¦à¦°à¦®":9877,"Ġà¦Ĩà¦¦à¦¬à¦ķ":9878,"Ġà¦¸à¦¹à¦ľà¦ª":9879,"Ġà¦Ĩà¦¹à¦¤à¦¦":9880,"à§İà¦¸à¦ķà¦°":9881,"à¦²à¦Ľà¦¬":9882,"Ġà¦ķà¦·à¦Ľ":9883,"à¦Ĺà¦¬à¦§":9884,"à¦°à¦Ĺà¦Ł":9885,"à¦ıà¦¬à¦®":9886,"Ġà¦ıà¦¨à¦ľà¦¯":9887,"Ġà¦°à¦ķà¦®à¦«":9888,"Ġà¦¤à¦¤à¦¸":9889,"Ġà¦Ĺà¦£à¦¶":9890,"Ġà¦Ĺà¦£à¦¶à¦ķ":9891,"Ġà¦¨à¦°à¦®à¦Ń":9892,"Ġà¦¨à¦°à¦®à¦ªà¦¨":9893,"ĠâĢĶâĢĺ":9894,"Ġà¦Ńà§Łà¦Ł":9895,"Ġà¦Ńà§Łà¦ĩ":9896,"Ġà¦¬à¦īà¦ıà¦°":9897,"à¦®à¦°à¦£à¦¶":9898,"à¦²à¦®à¦¶à¦²":9899,"âĢĺâĢĺ":9900,"Ġà¦īà§İà¦¸à¦¬à¦®à¦£":9901,"Ġà¦°à¦¸à¦§":9902,"Ġà¦°à¦¸à¦¹":9903,"Ġà¦ªà¦¶à¦°":9904,"à¦¼---":9905,"à¦¼âĢĶâĢĺ":9906,"Ġà¦Ĩà¦ªà§İà¦ķ":9907,"à¤¥":9908,"à¤Ľ":9909,"à§«à§«":9910,"à§«à§ª":9911,"à§«à§®":9912,"à¦łà¦ķà¦¯":9913,"à¦łà¦ķà¦ĵ":9914,"à¦ľà¦®à¦¶":9915,"à¦ľà¦®à¦ľà¦®":9916,"Ġà¦ľà§Łà¦®":9917,"à¦ķà¦ľà¦¨à¦ĩ":9918,"à¦ķà¦ľà¦¨à¦ĵ":9919,"à¦ĩà¦Ńà¦¸":9920,"à§ĩà¥¤âĢĻâĢĿ":9921,"à¦®à¦¦à¦ª":9922,"à¦®à¦¦à¦Ĺ":9923,"à¦¾à¥¤âĢĻâĢĻ":9924,"Ġà§§à§¯à§§à§§":9925,"à¦£à¦¬à¦Ļ":9926,"à§Ńà§§":9927,"à§Ńà§¨":9928,"à¦²à¦Ńà¦Ļ":9929,"à¦¯à§İà¦ĩ":9930,"à¦ķà¦Ĺà¦®à¦¨":9931,"Ġà¦¸à¦¦à¦Ĺà¦¤":9932,"à¦ľà¦Ľà¦¤":9933,"hel":9934,"het":9935,"à¦¶à¦°à¦Ļ":9936,"Ġà¦Ĩà¦ĩà¦¨à¦¸à¦Ļ":9937,"inct":9938,"Ġà¦·à¦ĸà¦¨":9939,"à¦Ĩà¦Ĺà¦¸":9940,"à¦ľà§Łà¦¬":9941,"Ġà¦¨à¦Ĺà¦°à¦Ĺ":9942,"anc":9943,"à¦Ĺà¦¡à¦Ĺ":9944,"Ġà¦¸à§İà¦ªà¦¥":9945,"Ġà¦¸à§İà¦¸à¦Ļ":9946,"Ġà¦ªà¦²à¦ķà¦¬":9947,"onst":9948,"à¦ķà§ľà¦ķ":9949,"Ġà¦¶à¦ªà¦¥à¦Ĺ":9950,"Ġà¦¶à¦ªà¦¥à¦ªà¦¤":9951,"Ġà¦¶à¦ªà¦¥à¦¬à¦¦":9952,"à¦®à¦ļà¦°à¦£":9953,"Ġà¦ķà¦ļà¦¸":9954,"ream":9955,"read":9956,"Ġà¦ıà¦°à¦ķà¦®à¦Ń":9957,"Ġà¦®à¦¨à¦¨à¦¶à¦ķ":9958,"à¦¸à¦¦à¦¦":9959,"ale":9960,"à¦īà¦¡à¦Ĺ":9961,"à¦«à¦Łà¦¹":9962,"à¦«à¦Łà¦ı":9963,"à§¯à§ª":9964,"Ġà¦ļà¦°à¦®à¦ªà¦¤":9965,"Ġà¦ļà¦®à¦ķà¦Ł":9966,"à¦¾âĢĿ!":9967,"ene":9968,"ense":9969,"ised":9970,"ishes":9971,"à¦Ĳà¦¨":9972,"Ġà¦ļà¦°à¦£à¦ķ":9973,"Ġà¦ļà¦°à¦£à¦¦":9974,"itc":9975,"its":9976,"à¦£à¦¦à¦£":9977,"Ġà¦Ĺà¦łà¦¨à¦Ĺà¦¤":9978,"Ġown":9979,"à§ĩâĢĻ!":9980,"Ġà¦°à¦¤à¦¨à¦²":9981,"Ġà¦Ķà¦ļ":9982,"à¦ħà¦®à¦Ļ":9983,"Ġshe":9984,"Ġsus":9985,"Ġsam":9986,"Ġscience":9987,"à¥¥(":9988,"Ġà¦Ĩà¦ĸà§ľ":9989,"Ġà¦¬à¦¦à¦Ń":9990,"à¦ĩà¦«à¦ķ":9991,"Ġà¦°à¦¥à¦ļà¦ķ":9992,"Ġauthor":9993,"Ġca":9994,"Ġcent":9995,"Ġcur":9996,"Ġà¦Ńà¦°à¦¤à¦®":9997,"Ġà¦Ńà¦°à¦¤à¦¸":9998,"Ġà¦¨à¦°à¦ļà¦¨":9999,"arr":10000,"Ġà¦ıà¦®à¦Ĩà¦°":10001,"Ġmet":10002,"Ġmust":10003,"Ġà¦Ŀà§ľà¦Ŀà¦ŀ":10004,"à¦ĭà¦Ĺ":10005,"à¦·à¦ªà¦ŀ":10006,"Ġà¦ĩà¦¹à¦ľ":10007,"à¦ħà¦ªà¦¹à¦°à¦£":10008,"Ġbel":10009,"Ġpl":10010,"Ġprom":10011,"Ġpla":10012,"Ġpositive":10013,"Ġà¦¹à¦ĵà¦¨":10014,"à¦īà¦łà¦²":10015,"Ġà¦Ńà¦¬à¦¨à¦Ĺ":10016,"à¦ĺà¦Łà¦¨à¦ªà¦Ł":10017,"ional":10018,"Ġfl":10019,"Ġfol":10020,"Ġfact":10021,"edic":10022,"Ġdr":10023,"Ġdra":10024,"Ġdem":10025,"Ġdest":10026,"Ġdark":10027,"Ġdivide":10028,"Ġdream":10029,"Ġà¦®à§İà¦¸à¦ľ":10030,"Ġà¦ķà¦¦à¦®à¦ª":10031,"Ġà¦¬à¦ĩà¦Łà¦ĩ":10032,"à¦²à¦ĵà¦Ń":10033,"à¦īà¦¬à¦ĵà§Ł":10034,"Ġà§¨à§¦à§§à§Ń":10035,"Ġà¤¨":10036,"Ġà¤¶":10037,"à¦Ĩà¦ĩà¦ĵà¦Ł":10038,"à§ĭâĢ¦à¥¤":10039,"Ġins":10040,"Ġname":10041,"Ġà¦ĸà¦¨à¦ĸà¦¨":10042,"à¦Īà¦Ĺà¦°":10043,"Ġlo":10044,"Ġlul":10045,"Ġlight":10046,"ĠIN":10047,"ĠInt":10048,"ĠIrish":10049,"Ġà¦¸à¦°à¦²à¦¤à¦®":10050,"Ġà§«à§©":10051,"Ġthy":10052,"à¦ıà¦ķà¦ĩà¦¸à¦Ļ":10053,"olo":10054,"à¦īà¦ªà¦²à¦ķ":10055,"elf":10056,"ely":10057,"ellect":10058,"Ġà§§à§©à§¨":10059,"Ġà§ªà§©":10060,"Ġà§ªà§ª":10061,"ĠAn":10062,"ĠAs":10063,"Ġà¦¨à¦°à¦ķà¦ķ":10064,"ĠPa":10065,"ĠBip":10066,"à¦Ĭà¦¨":10067,"Ġever":10068,"Ġemp":10069,"Ġemer":10070,"Ġà§Ńà§§":10071,"Ġà§Ńà§¨":10072,"à¦¼?âĢĿâĢĶ":10073,"à¦·à¦ľà¦¨à¦ĵ":10074,"ĠRec":10075,"osa":10076,"Ġà¦Ĩà¦ķà¦¬à¦°à¦Ń":10077,"Ġgod":10078,"ĠDur":10079,"Ġà¦Ĩà¦ªà¦¸à¦¹":10080,"Ġà¦ªà¦¬à¦¨à¦¦":10081,"odu":10082,"Ġà¦ĸà§ľà¦ĸà§ľ":10083,"Ġwhose":10084,"Ġà§¯à§«":10085,"Ġà§¯à§®":10086,"Ġà¦®à¦¤à¦²à¦¬à¦Ł":10087,"ĠNaz":10088,"Ġà§§à§¨à§«":10089,"Ġà¦¶à¦ĵà¦ķà¦¤à¦ĵ":10090,"à¦¾'à¥¤":10091,"irst":10092,"cient":10093,"ade":10094,"Ġà¦¯à¦¬à¦¨à¦°":10095,"ected":10096,"ĠÑĪ":10097,"Ġà¦®à¦«à¦¸à¦¸à¦²":10098,"Ġà§§à§¯à§®à§©":10099,"istic":10100,"Ġà¦¨à¦¬à¦¬à¦¸à¦¨":10101,"Ġyet":10102,"iven":10103,"ĠEur":10104,"à§§à§ªà§«":10105,"Ġstre":10106,"ends":10107,"ĠÐ·":10108,"acy":10109,"aces":10110,"à§ĩ'à¥¤":10111,"à¦¤à¦¸à¦®à¦°":10112,"Ġà¦¬à¦Ľà¦°à¦ķ":10113,"Ġneg":10114,"Ġhapp":10115,"ogn":10116,"Ġ10":10117,"à¦ķà¦ľà¦®à¦ķà¦ª":10118,"Ġunder":10119,"Ġà§§à§¯à§¨à§§":10120,"Ġà§§à§¯à§¨à§Ń":10121,"Ġà¦¤à§İà¦¸à¦®":10122,"Ġà¦ĵà¦ĩà¦°à¦ķà¦®à¦ĩ":10123,"Ġà¦ħà¦ĺà¦Łà¦¨à¦ĺà¦Łà¦¨à¦ªà¦Ł":10124,"Ġà¦Ŀà¦²à¦Ŀà¦²":10125,"Ġwithout":10126,"ĠThere":10127,"iew":10128,"ibility":10129,"Ġspirit":10130,"à¦īà¦Ńà§Łà¦ĩ":10131,"à¤¹à¤°":10132,"âĢĶâĢĶâĢĶâĢĶ":10133,"ude":10134,"Ġlearning":10135,"Ġà¦ıà¦¤à¦¬à¦Ľà¦°":10136,"Ø§Øª":10137,"à¦ħà¦¬à¦¨à¦¤":10138,"afi":10139,"afÃ©":10140,"Ġalways":10141,"arna":10142,"à¦Ķà¦¦":10143,"Ġcontinu":10144,"Ġknowled":10145,"Ġappro":10146,"Ġwork":10147,"ucation":10148,"à§įà§įà§įà§į":10149,"radition":10150,"Ġeven":10151,"________":10152,"à§»à§ĩ":10153,"ship":10154,"æŃĵæŃĵæŃĵæŃĵæŃĵæŃĵæŃĵæŃĵæŃĵæŃĵæŃĵæŃĵæŃĵæŃĵæŃĵæŃĵæŃĵæŃĵæŃĵæŃĵæŃĵæŃĵæŃĵæŃĵæŃĵæŃĵæŃĵæŃĵæŃĵæŃĵæŃĵæŃĵ":10155,"à«į":10156,"Ġupon":10157,"Ġagain":10158,"ĠBengal":10159,"ĠBengali":10160,"alized":10161,"Ġessay":10162,"Ġfunction":10163,"Ġà¦ľà¦ªà¦¤à¦ª":10164,"Ġvalue":10165,"âĤĤ":10166,"ìĿĺ":10167,"à§į:âĢĶ":10168,"Ġà¦ªà¦¦à¦¨à¦ĸ":10169,"orks":10170,"Ġinstinct":10171,"áĥĶáĥ":10172,"ĠRahim":10173,"Ġsilent":10174,"ĠPargiter":10175,"Ġvillage":10176,"Ġspeak":10177,"laby":10178,"âĪĴ":10179,"Ġhistory":10180,"Ġpatriotism":10181,"LMS":10182,"Ġ555":10183,"Ġà¦ļà¦®à¦ļà¦®":10184,"Ġà¦Ńà¦Łà¦Ńà¦Ł":10185,"Ġsamosa":10186,"Ġlullaby":10187,"ĠBipul":10188,"Ġknowledge":10189,"!*":10190,"!)à¥¤":10191,"'!":10192,").":10193,"-à¦¾":10194,".,":10195,".-":10196,"48":10197,"51":10198,"56":10199,"70":10200,"Ar":10201,"BB":10202,"BH":10203,"Boss":10204,"CE":10205,"CT":10206,"Hein":10207,"IS":10208,"Int":10209,"Joy":10210,"Man":10211,"Montu":10212,"OT":10213,"RI":10214,"RO":10215,"Re":10216,"STEM":10217,"Tr":10218,"Works":10219,"ace":10220,"cons":10221,"day":10222,"dam":10223,"ever":10224,"frag":10225,"gan":10226,"get":10227,"hical":10228,"hrist":10229,"ier":10230,"iel":10231,"ient":10232,"iam":10233,"jective":10234,"kind":10235,"ls":10236,"lic":10237,"lam":10238,"ner":10239,"ned":10240,"nce":10241,"oon":10242,"oat":10243,"ole":10244,"oot":10245,"ped":10246,"pid":10247,"press":10248,"person":10249,"present":10250,"rb":10251,"ron":10252,"rul":10253,"rich":10254,"ses":10255,"ted":10256,"ters":10257,"uce":10258,"ymp":10259,"ycle":10260,"ze":10261,"¡Õ":10262,"»¿":10263,"Ð·":10264,"ÑĪ":10265,"Ñĸ":10266,"Õ¥":10267,"Õ¸":10268,"ØŃ":10269,"Ú¯":10270,"à±":10271,"à²":10272,"à¶":10273,"à·":10274,"æĭ":10275,"ï»¿":10276,"Ġ0":10277,"ĠZ":10278,"Ġent":10279,"Ġend":10280,"Ġident":10281,"Ġà¦Ļ":10282,"à¦¾_":10283,"à§ĩà¦¿":10284,"à§ĩà§ģ":10285,"à§ĩà§ĭ":10286,"à¦°à¦Łà¦²":10287,"à¦°à¦ļà¦¯":10288,"à¦°à¦Ŀà¦¡":10289,"à¦°à¦ĺà¦£":10290,"à¦°à¦ĺà¦¡":10291,"à§įâĢĿ":10292,"à§įâĢĻ-":10293,"à¦¿âĢĲ":10294,"à¦¿âĭ¯":10295,"à¦¿Â¤":10296,"à¦¨à¦ĸà¦¨":10297,"à¦¨à¦°à¦¸":10298,"à¦¨à¦¦à¦°":10299,"à¦¨à¦®à¦°":10300,"à¦¨à¦ıà¦ķ":10301,"à¦¨à¦¢":10302,"à¦¨à¦ıà¦ķà¦Ł":10303,"à¦¨à¦ĩà¦¬":10304,"à¦¨à¦Ĩà¦®à¦°":10305,"à¦¨à¦®à¦¹":10306,"à¦¨à¦ľà¦®":10307,"à¦¨à¦ľà§Ł":10308,"à¦¨à¦ĺà¦£":10309,"à¦¤à¦¸à¦¬":10310,"à¦¤à¦²à¦¬":10311,"à¦¤à¦¶à¦ķ":10312,"à¦¤à¦·à¦Ł":10313,"à¦¤à¦¯à¦ľ":10314,"à¦¤à¦°à¦¤à¦°":10315,"à¦²à¦·":10316,"à¦²à¦ĩà¦¯":10317,"à¦²à¦®à§Ł":10318,"à¦²à¦ªà¦²":10319,"à¦ķà¦ĺ":10320,"à¦ķà¦®à¦°":10321,"à¦ķà¦¨à¦¦":10322,"à¦ķà¦¸à¦Ł":10323,"à¦ķà¦®à¦ª":10324,"à¦¯à¦«":10325,"à¦¯à¦ļà¦¨":10326,"à¦¯à¦Ńà¦¬":10327,"à¦¯à¦¶à¦¬":10328,"à¦¯à¦¸à¦¤":10329,"à¦¯à¦ľà¦²":10330,"à§ģ/":10331,"à§ģà§ĩ":10332,"à§ģ...":10333,"à¦¬à¦·":10334,"à¦¬à¦ł":10335,"à¦¬à¦«":10336,"à¦¬à¦®à¦°":10337,"à¦¬à¦ĩà¦¤":10338,"à¦¬à¦®à¦ª":10339,"à¦¬à¦īà¦Ł":10340,"à¦¬à¦īà¦°":10341,"à¦¼âĢĻ-":10342,"à¦®à¦°à¦²":10343,"à¦®à¦¹à¦¨":10344,"à¦®à¦Ńà¦°":10345,"à¦®à¦·à¦ª":10346,"à§ĭà¦¿":10347,"à§ĭ)à¥¤":10348,"Ġà¦ķà¦ĩà¦¨":10349,"Ġà¦ķà¦ĩà¦¯":10350,"Ġà¦ķà¦ĩà¦®":10351,"Ġà¦ķà¦¸à¦®à¦¸":10352,"Ġà¦¬à¦°à¦¸":10353,"Ġà¦¬à¦¹à¦²":10354,"Ġà¦¬à¦¢":10355,"Ġà¦¬à¦īà¦¨":10356,"Ġà¦¬à¦¦à¦¹":10357,"Ġà¦¬à¦°à¦ķà¦¨":10358,"Ġà¦¬à§İà¦¸à¦²":10359,"Ġà¦¬ab":10360,"Ġà¦¸à§ľ":10361,"Ġà¦¸à¦ĩà¦²":10362,"Ġà¦¸à§İà¦¸":10363,"à¥¤*":10364,"à¦¸à¦ªà¦°":10365,"à¦¸à¦ı":10366,"à¦¸à¦¦à¦¯":10367,"à¦¸à¦¯à¦¤":10368,"à¦¸à¦ļà¦ķ":10369,"à¦¸à¦¦à¦¸":10370,"Ġà¦ªà¦ĩ":10371,"Ġà¦ªà¦ĸ":10372,"Ġà¦ªà¦ł":10373,"Ġà¦ªà¦ļà¦¤":10374,"Ġà¦Ĩà¦ķà¦²":10375,"Ġà¦Ĩà¦ĩà¦Ľ":10376,"à¦¦à¦¶à¦¬":10377,"à¦¦à¦ĩà¦¯":10378,"à¦¦à¦Ńà¦Ļ":10379,"à¦¦à¦¨à¦¤à¦¤":10380,"à¦¦à¦°à¦¨à¦Ĺà¦°":10381,"à¦¦à¦²à¦¬à¦¦":10382,"à¦Łà¦¸à¦¨":10383,"à¦Łà¦ªà¦¦":10384,"à¦Łà¦¨à¦Ł":10385,"Ġà¦¨à¦¬à¦²":10386,"Ġà¦¨à¦ĵà§Ł":10387,"Ġà¦¨à¦§à¦°":10388,"Ġà¦¨à¦°à¦¬à¦²":10389,"Ġà¦¨à¦¬à¦²à¦¬":10390,"Ġà¦¨à¦°à¦¬à¦ª":10391,"Ġà¦¨esc":10392,"Ġà¦®à¦ª":10393,"Ġà¦®à¦ī":10394,"Ġà¦®à¦ķà¦°":10395,"Ġà¦®à¦ĩà¦°":10396,"Ġà¦®à¦Ľà¦²":10397,"Ġà¦®à¦¸à¦¨à¦¦":10398,"à¦ªà¦¦à¦¯":10399,"à¦ªà§İà¦¸":10400,"à¦ªà¦¹à¦¤":10401,"à¦ªà¦Ĩà¦²":10402,"à¦ªà¦²à¦¸":10403,"à¦ªà¦Ŀà¦°":10404,"à¦ªà¦Ńà¦¯":10405,"à¦ªank":10406,"à¦ĩà¦¸à¦¨":10407,"à¦ĩà¦¥à¦¨":10408,"à¦ĩà¦®à¦Ł":10409,"à¦ĩà¦®à¦ª":10410,"à¦ĩà¦ľà¦Ł":10411,"à§Ģà§į":10412,"à§Ģ)à¥¤":10413,"à¦Ľà¦ĸ":10414,"à¦Ľà¦ķà¦ĩ":10415,"Ġà¦¦à¦Ļ":10416,"à¦ľà¦¹à¦¸":10417,"à¦ľà¦ķà¦¶":10418,"à¦ľà¦łà¦°":10419,"à¦ľà¦²à¦ķà¦£":10420,"Ġà¦¹à¦¸à¦¨":10421,"Ġà¦¹à¦Łà¦ķ":10422,"Ġà¦¤à¦ĸà¦¤":10423,"Ġà¦¤à¦ĵà¦¬":10424,"Ġà¦ıà¦²à¦ķ":10425,"Ġà¦ıà¦ľà¦²":10426,"à¦¶à¦·":10427,"à¦¶à¦ł":10428,"à¦¶à¦ŀ":10429,"à¦¶à¦ļà¦°":10430,"à¦¶à¦²à¦Ł":10431,"à¦¶à¦¸à¦¹":10432,"Ġà¦ħà¦°à¦®":10433,"à¦ĸà¦ĺ":10434,"à¦ĸà¦²à¦ķ":10435,"à¦ĸà¦°à¦Ĺ":10436,"à¦Ĺà¦ªà¦¨":10437,"à¦Ĺà¦ĺ":10438,"à¦Ĺà¦ķà¦²":10439,"à¦Ĺà¦¦à¦²":10440,"à¦Ĺà¦ļà¦°":10441,"à¦Ĺà¦£à¦¤":10442,"à¦Ĺà¦¶à¦ķ":10443,"à¦Ĺà¦¸à¦Ļ":10444,"à¦Ĺà¦ķà¦¨":10445,"à¦Ĺà§°":10446,"à¦Ĺà¦¦à¦¤":10447,"à¦Ĺà¦ĸà¦£":10448,"à¦·à¦®à¦¨":10449,"à¦·à¦°à¦¬":10450,"à¦·à¦°à¦ĵ":10451,"à¦·à¦®à¦£":10452,"à¦§à¦°à¦ķ":10453,"à¦§à¦Ĺà¦£":10454,"à¦§à¦Ńà¦ķ":10455,"âĢŀ":10456,"à¦¡à¦¯":10457,"à¦¡à¦§":10458,"à¦¡à¦°à¦Ł":10459,"à¦¡à¦¬à¦¬":10460,"à¦¡à¦ķà¦¨à¦¸":10461,"Ġà¦¯à¦ĸ":10462,"Ġà¦¯à¦£":10463,"Ġà¦¯à¦®à¦°":10464,"à¦ļà¦ľ":10465,"à¦ļà¦¹":10466,"à¦ļà§İ":10467,"à¦ļà¦°à¦ķà¦®":10468,"à¦ļà¦ĺà¦°":10469,"à¦¹à¦¬à¦°":10470,"à¦¹à¦°à¦¸":10471,"à¦¹à¦ķà¦¤":10472,"à¦¹à¦ªà¦¥":10473,"à¦¹à¦¬à¦¦":10474,"à¦¹à¦ĩà¦¬":10475,"à¦¹à¦®à¦¸":10476,"à¦¹à¦ķà¦ķ":10477,"à¦¹à¦®à¦§":10478,"à¦¹à¦¬à¦¶à¦¤":10479,"à§Łà¦²à¦¬":10480,"à§Łà¦¨à¦ķ":10481,"Ġà¦Ĺà¦¥":10482,"Ġà¦Ĺà¦ĺ":10483,"Ġà¦Ĺà¦ľà¦¸":10484,"Ġà¦Ĺà¦ľà¦®":10485,"à¦£à¦ªà¦°":10486,"à¦£à¦ľà¦¨":10487,"à¦£à¦°à¦¥":10488,"à¦£à¦°à¦¶":10489,"à¦£à¦§à¦¨":10490,"à¦£à¦Ĺà¦¨":10491,"à¦£à¦¬à¦¯":10492,"à¦£à¦ľà¦¯":10493,"à¦£à¦Ńà¦¯":10494,"à¦£à¦²à¦Ļ":10495,"à¦ģâĢ¦":10496,"à¦¥à¦ľà¦¨":10497,"à¦¥à¦°à¦Ń":10498,"à¦¥à¦Ĺà¦ŀ":10499,"Ġà¦ľà¦¦":10500,"Ġà¦ľà¦ĵà¦¯":10501,"Ġà¦ľà¦°à¦¥":10502,"Ġà¦ļà¦°à¦²":10503,"Ġà¦Ńà¦®":10504,"Ġà¦Ńà¦°à¦ķ":10505,"Ġà¦Ńà¦²à¦ķ":10506,"Ġà¦Ńà¦ľà¦¤":10507,"Ġà¦°à§Łà¦¨":10508,"Ġà¦°à¦ľà¦¸":10509,"Ġà¦°à¦£à¦¨":10510,"Ġà¦°à¦£à¦¬":10511,"Ġà¦°à¦¸à¦¤à¦¤":10512,"à§ĩà¥¤âĢĶ":10513,"à§ĩà¥¤à¥¤âĢĻ":10514,"à¦ĵà¦§":10515,"à¦Ńà¦²à¦ķ":10516,"à¦Ńà¦²à¦Ĺ":10517,"Ġà¦ıà¦ķà¦ł":10518,"Ġà¦ıà¦ķà¦¬à¦¸":10519,"Ġà¦ıà¦ķà¦²à¦Ĺ":10520,"Ġà¦ıà¦ķà¦¸à¦ª":10521,"à¦¼à¦¾à¦ĥà¥¤":10522,"à§ĥ.":10523,"à§ĥà¦¾":10524,"Ġà¦Ľà¦°à¦°":10525,"à¦łà¦²":10526,"à¦łà¦Ľ":10527,"à¦łà¦¬à¦¨":10528,"à¦łà¦®à¦¤":10529,"à¦łà¦¨à¦ķ":10530,"à¦łà¦¬à¦¦":10531,"à¦łà¦Ĺà§ľ":10532,"Ġà¦īà¦²à¦ķ":10533,"Ġà¦īà¦¨à¦¬":10534,"Ġà¦īà¦ĩà¦ļ":10535,"à§ĤâĢĵ":10536,"à¦¾à¦ģâĢĶ":10537,"à¦Ļà¦°à¦¹":10538,"Ġà¦²à¦Ľ":10539,"Ġà¦²à¦¬à¦¸":10540,"Ġà¦²à¦¸à¦¸":10541,"Ġà¦²à¦ķà¦¬à¦ķ":10542,"Ġà¦¥à¦ªà¦¥à¦ª":10543,"Ġà¦¬à¦²à¦ķ":10544,"Ġà¦¬à¦²à¦Ĺ":10545,"Ġà¦¬à¦²à¦¬à¦¤":10546,"Ġà¦«à¦¨à¦ķ":10547,"Ġà¦Ĩà¦°à¦¸":10548,"Ġà¦Ĩà¦°à¦ĺ":10549,"Ġà¦Ĩà¦°à¦¬à¦Ń":10550,"Ġà¦ĸà¦¬":10551,"à¦°à¦¤à¦§":10552,"à¦°à¦¤à¦ªà¦°":10553,"Ġà¦ħà¦¨à¦¬à¦ļ":10554,"à¦¾à¥¤-":10555,"à¦¾à¥¤à¥¤âĢĺ":10556,"Ġà¦¹à¦¯à¦°à¦¤":10557,"âĢĶ-":10558,"âĢĶâĢĵ":10559,"Ġà¦¸à¦®à¦§":10560,"Ġà¦¸à¦®à¦¦à¦°":10561,"à¦¬à¦¨à¦«":10562,"à¦¬à¦¨à¦°à¦Ļ":10563,"à¦ĸà¦¨à¦¶":10564,"Ġà¦ĺà¦°à¦¸":10565,"Ġà¦ĺà¦°à¦ķà¦¨":10566,"Ġà¦®à¦¨à¦ªà¦Ł":10567,"Ġà¦®à¦¨à¦¨à¦¯":10568,"Ġà¦®à¦¨à¦Ĺà§ľ":10569,"à¦ªà¦°à¦ª":10570,"Ġà¦ıà¦ĩà¦®à¦¤":10571,"Ġà¦ıà¦ĩà¦¸à¦¬à¦ĩ":10572,"à¦¿à¥¤)":10573,"à¦¿à¥¤âĢĵ":10574,"à¦Ŀà¦¸":10575,"à¦Ŀà¦°à¦Ľ":10576,"à¦Ŀà¦Ĺà§ľ":10577,"à¦ľà¦¨à¦°à¦¤":10578,"à¦ľà¦¨à¦°à¦¸":10579,"à¦ľà¦¨à¦Ĺà¦°":10580,"à¦ŀà¦Ł":10581,"à¦ŀà¦ªà¦°":10582,"à¦¤à¦°à¦ĸà¦£":10583,"à¦¤à¦°à¦ªà¦¶":10584,"à¦«à¦ľ":10585,"à¦«à¦Ĺ":10586,"à¦«à¦ļ":10587,"à¦«à¦Łà¦ķ":10588,"à¦īà¦ı":10589,"à¦īà¦°à¦ķ":10590,"à¦īà¦²à¦¤":10591,"à¦ªà¦¨à¦°":10592,"à¦ªà¦¨à¦ļ":10593,"à¦ªà¦¨à¦Ń":10594,"à¦ªà¦¨à¦Ĺà¦°":10595,"Ġà¦Ĩà¦²à¦®à¦¦":10596,"à¦°à¦¬à¦¯":10597,"à¦°à¦¬à¦®":10598,"à¦°à¦¬à¦°à¦£":10599,"à¦°à¦¬à¦¸à¦¨":10600,"à¦°à¦¬à¦£à¦ķ":10601,"à¦Ĩà¦£":10602,"à¦Ĩà¦Ĩ":10603,"à¦Ĩà¦°à¦¨":10604,"à¦Ĩà¦¨à¦¬":10605,"à¦Ĩà¦Ĺà¦¤":10606,"à¦Ĩà¦²à¦¬":10607,"à¦Ĩà¦Ĺà¦¨":10608,"à¦Ĩà¦¨à¦ķ":10609,"à¦Ĩà¦¸à¦ķ":10610,"à¦Ĩà¦ªà¦²":10611,"à¦Ĩà¦ĩà§Ł":10612,"à¦Ĩà¦ĩà¦ľ":10613,"à§İà¦®":10614,"à§İà¦ĸ":10615,"à§İà¦¸à¦Ļ":10616,"à¦ıà¦²à¦ķ":10617,"à¦ıà¦¤à¦Ĺ":10618,"à¦ıà¦¤à¦¬à¦¡":10619,"à¦ıà¦Ĩà¦ĩà¦¯":10620,"âĢĿ?":10621,"âĢĿà§ĩ":10622,"à¦°à¦ķà¦ª":10623,"Ġà¦¸à¦¬à¦ĵ":10624,"à¦¬à¦°à¦§":10625,"à¦¬à¦°à¦Ŀ":10626,"Ġà¦¬à¦²à¦²à¦Ĩà¦¸":10627,"Ġà¦¬à¦²à¦²à¦ıà¦ĸà¦¨à¦ĵ":10628,"Ġà¦Łà¦²à¦¸":10629,"Ġà¦Ĩà¦Ľà¦¯":10630,"à¦¼à¥¤\"":10631,"Ġà¦¹à¦²à¦¨":10632,"Ġà¦¹à¦²à¦¸":10633,"Ġà¦īà¦łà¦²à¦¤":10634,"Ġà¦¡à¦Ĺà¦¡à¦Ĺ":10635,"à§Ī!":10636,"Ġà¦ĩà¦°à¦¤":10637,"à¦ĺà¦¤":10638,"à¦ĺà¦Ŀ":10639,"à¦ĺà¦°à¦ķ":10640,"à¦ĺà¦ĺ":10641,"Ġà¦Ŀà¦¨à¦ķ":10642,"à¦¬à¦²à¦Ŀà¦²":10643,"à¦¼,--":10644,"à¦¬à¦ªà¦Ł":10645,"Ġà¦ħà¦¬à§Ł":10646,"à¦°à¦®à¦Ĺ":10647,"à¦°à¦®à¦Ń":10648,"à¦°à¦®à¦ŀ":10649,"à¦°à¦®à¦¹à¦²":10650,"à¦·à¦£à¦¦":10651,"à¦·à¦£à¦¸à¦®":10652,"à¦·à¦£à¦°à¦ķà¦®":10653,"à¦¨à¦¤à¦¬":10654,"à¦¤à¦¨à¦¸":10655,"à¦¤à¦¨à¦¤à¦°":10656,"à¦ħà§Ł":10657,"à¦ħà¦ªà¦¤":10658,"à¦ħà¦¸à¦°":10659,"à¦ħà¦¬à¦ļ":10660,"Ġà¦¬à¦¨à¦Ŀ":10661,"Ġà¦¬à¦¨à¦°à¦ķ":10662,"Ġà¦¬à¦¨à¦«à¦²":10663,"Ġà¦¨à¦¤à¦®à¦¸":10664,"à¦ķà¦²à¦¬à¦¨":10665,"Ġà¦ªà¦¥à¦¬":10666,"Ġà¦ªà¦¥à¦ĸ":10667,"Ġà¦ħà¦®à¦¯":10668,"Ġà¦ħà¦®à¦°à¦ķ":10669,"Ġà¦Ĺà¦²à¦Ĺ":10670,"à¦ķà¦Łà¦Ł":10671,"à¦ķà¦Łà¦ª":10672,"à¦¸à¦¬à¦§":10673,"à¦¸à¦¬à¦¸à¦®à§Ł":10674,"à¦°à¦¨à¦Ł":10675,"à¦°à¦¨à¦ĩ":10676,"à¦¯à¦¬à§İ":10677,"à¦¯à¦¬à¦¦à¦²":10678,"à¦¯à¦¬à§°":10679,"à¦¤à¦¬à¦Ń":10680,"à¦¤à¦¬à¦¦à¦²":10681,"à¦¤à¦¬à§İà¦¸":10682,"à¦°à¦¸à¦ľ":10683,"à¦²à¦ķà¦¤":10684,"à¦²à¦ķà¦¡":10685,"à¦¨à¦¬à¦§":10686,"à¦¨à¦¬à¦¡":10687,"à¦¨à¦¬à¦°à¦£":10688,"à¦¨à¦¬à¦¬à¦°":10689,"à¦¦à¦¨à¦¸":10690,"à¦¦à¦¨à¦®à§Ł":10691,"à¦¦à¦¨à¦¸à¦¹":10692,"à¦¦à¦¨à¦¨à¦Ĺà¦°":10693,"à¦ķà¦¤à¦ĸ":10694,"Ġà¦¹à¦¤à¦ĩ":10695,"Ġà¦¹à¦¤à¦¶":10696,"Ġà¦¬à¦°à¦Ĺ":10697,"à¦°à¦¥à¦®à¦Ń":10698,"Ġà¦ıà¦ĸà¦¨à¦¤":10699,"à§ĩ?(":10700,"à§ĩ?à¥¤":10701,"Ġà¦ıà¦²à¦¬":10702,"Ġà¦Ĩà¦¨à¦«":10703,"à¦Ĩà¦®à¦¦":10704,"Ġà¦īà¦¦à¦¦":10705,"Ġà¦īà¦¦à¦°à¦¸":10706,"à¦¦à¦°à¦Ĺ":10707,"à¦¦à¦°à¦ĵ":10708,"à¦¦à¦°à¦ŀ":10709,"Ġà¦ħà¦°à¦²":10710,"à¦Ĺà¦²à¦¤à¦¤":10711,"à¦Ĺà¦²à¦Ĺà¦ŀ":10712,"à¦Ĺà¦²à¦¶à¦Ļ":10713,"Ġà¦ľà¦²à¦¸à¦®":10714,"Ġà¦ľà¦²à¦¸à¦¤":10715,"Ġà¦ľà¦²à¦ªà¦Ł":10716,"à¦Ĺà¦¤à¦¸":10717,"à¦®à¦¤à¦²à¦¬":10718,"à¦§à¦ķà¦ĵ":10719,"à¦°à¦¹à¦¨à¦ķ":10720,"à¦°à¦¹à¦¨à¦¯":10721,"Ġà¦ĺà¦°à¦ĺà¦°":10722,"Ġà¦īà¦łà¦²à¦°":10723,"à¦ļà¦¨à¦ĵ":10724,"à¦²à¦¨à¦ĸ":10725,"Ġà¦®à¦¹à¦¨":10726,"Ġà¦īà¦ªà¦Ĺà¦¤":10727,"Ġà¦īà¦ªà¦¢":10728,"Ġà¦īà¦ªà¦²à¦¦":10729,"Ġà¦¸à¦°à¦ľ":10730,"Ġà¦¸à¦°à¦Ĺà¦®":10731,"à¦¬à¦¤à¦ª":10732,"à¦¬à¦¤à¦ļ":10733,"à¦¨à¦ĵà¦¨":10734,"à¦¨à¦ĵà¦ª":10735,"à¦¨à¦ĵà¦ĸ":10736,"à¦ĩà¦²à¦ĩ":10737,"à¦ĩà¦²à¦ĵ":10738,"à¦ĩà¦²à¦ªà¦¤":10739,"à¦§à¦¨à¦¦":10740,"à¦²à¦¬à¦ĩ":10741,"à¦°à¦ľà§Ł":10742,"à¦°à¦ľà§Łà¦¨":10743,"Ġà¦ħà¦ªà¦ļ":10744,"Ġà¦ħà¦ªà¦Ĺà¦¤":10745,"Ġà¦ħà¦ªà¦¶à¦¬":10746,"Ġà¦ķà¦²à¦ĵ":10747,"Ġà¦ķà¦²à¦ĺà¦°":10748,"à¦¼à§ĭâĢĻ":10749,"à¦¼à§ĭâĢĵ":10750,"à¦¼à§ĭà¦ĥà¥¤":10751,"Ġà¦Ĩà¦¤à¦¶":10752,"à¦ĩà¦¨à¦ª":10753,"à¦¨à¦¨à¦¸":10754,"à¦ıà¦ĩà¦¯":10755,"à¦ıà¦ĩà¦®à¦¤":10756,"Ġà¦ħà¦ļà¦ķ":10757,"Ġà¦ħà¦ļà¦ªà¦²":10758,"à§ĩ-âĢĺ":10759,"à¦Łà¦ķà¦®":10760,"à¦Łà¦ķà¦ĩ":10761,"à¦Łà¦ķà¦Ĺ":10762,"à¦Łà¦ķà¦ļ":10763,"Ġà¦ħà¦ľà¦²":10764,"à¦¹à¦²à¦®":10765,"Ġà¦īà¦¨à¦ļà¦²":10766,"âĢ¦âĢĿà¥¤":10767,"Ġà¦ķà¦®à¦ľ":10768,"Ġà¦ķà¦®à¦ĵ":10769,"à¦¤à¦²à¦§":10770,"à§ĩ!''":10771,"Ġà¦°à¦Ļà¦ĩ":10772,"Ġà¦īà§İà¦¸à¦ķ":10773,"Ġà¦ªà¦¦à¦Ľ":10774,"Ġà¦ªà¦¦à¦Ĺ":10775,"à¦®à¦°à¦ļ":10776,"à¦°à¦Ńà¦¬à¦¨":10777,"à¦¦à§Łà¦°":10778,"à¦¦à§Łà¦¬à¦¨":10779,"à¦°à¦ĵà¦¨":10780,"à¦°à¦ĵà¦ªà¦°":10781,"à¦°à¦ĵà¦°à¦ĩ":10782,"à¦®à¦£à¦¶":10783,"à¦®à¦£à¦¸à¦®":10784,"à¦¿?âĢĵ":10785,"à¦ıà¦ķà¦Ŀ":10786,"âĢĮâĢĮ":10787,"à¦¾?'":10788,"Ġà¦®à¦°à¦Łà¦¨":10789,"Ġà¦Ĺà¦°à¦°":10790,"à¦¦à¦²à¦Ł":10791,"à¦¬à¦¦à¦ķ":10792,"Ġà¦«à¦²à¦«":10793,"à¦·à¦ķà¦¨":10794,"à¦¯à¦®à¦ĵ":10795,"Ġà¦²à¦ķà¦Ĺ":10796,"à¦¿à¦ģ,":10797,"à¦¿à¦ģ-":10798,"à§ģà¦ĥ!":10799,"à¦¾!)":10800,"à¦ªà¦ķà¦ª":10801,"à¦ªà¦ķà¦£":10802,"Ġà¦ħà¦¶à¦¤":10803,"à¦¬à¦ķà¦¨à¦¶":10804,"Ġà¦ĩà¦¨à¦ķà¦°":10805,"à¦¢à¦ª":10806,"Ġà¦Ĩà¦§à¦®":10807,"à§Łà¦¨à¦¹":10808,"à¦ĩà¦ķà¦¸":10809,"à¦¯à¦¸à¦ļ":10810,"à¦¬à¦¬à§İ":10811,"Ġà¦Ńà¦¬à¦®à¦£":10812,"à¦¼à§ģâĢĶ":10813,"à¦¼à§ģâĢĵ":10814,"Ġà¦Ĺà¦¤à¦¯":10815,"à¦ľà¦°à¦Ĺ":10816,"Ġà¦īà¦²à¦«":10817,"Ġà¦¨à¦¬à¦Ń":10818,"Ġà¦¨à¦¬à¦°à¦¤":10819,"Ġà¦¬à¦¦à¦²à¦ª":10820,"à¦¨à¦¸à¦ªà¦Łà¦ķ":10821,"à¦¼à§Ģà¥¤âĢĿ":10822,"?âĢĿà¥¤":10823,"à¦¬à¦¶à¦®":10824,"à¦¬à¦¶à¦°à¦£":10825,"à¦¬à¦¶à¦¤à¦ĩ":10826,"à¦Ĩà¦ľà¦¬":10827,"à¦¨à¦°à¦Ĺ":10828,"à¦°à¦ľà¦¨à¦®":10829,"à¦°à¦ľà¦¨à¦ĩ":10830,"à¦«à¦²à¦Ł":10831,"à¦ĩà¦Łà¦Ń":10832,"Ġà¦¸à¦¹à¦ľà¦¤":10833,"à¦Ĺà¦ľà¦ĩ":10834,"à¦Ĺà¦ľà¦ĸà¦£":10835,"Ġà¦¸à¦®à§Łà¦Ĺ":10836,"à§İà¦¸à¦ĩ":10837,"à¦°à¦¹à¦£à¦®":10838,"à¦°à¦¹à¦£à¦ĵ":10839,"à¦Łà¦¬à¦ĩà¦¯":10840,"Ġà¦ıà¦ķà¦ĩà¦¸à¦®à¦¯":10841,"à¦īà¦²à¦Ļ":10842,"à¦īà¦²à¦ªà¦¨":10843,"à¦¿!âĢĶ":10844,"ÂłÂłÂłÂłÂłÂłÂłÂłÂłÂłÂłÂłÂłÂłÂłÂłÂłÂłÂłÂłÂłÂłÂł":10845,"Ġà¦ĺà¦¨à¦¤à¦°":10846,"Ġà¦ĸà¦¬à¦°à¦Ĺ":10847,"à¦°à¦®à¦£à¦¯":10848,"Ġà¦ıà¦¨à¦¡":10849,"ĠâĢĵâĢĺ":10850,"Ġà¦¦à¦¶à¦ªà¦¨":10851,"Ġà¦¦à¦¶à¦ľà¦¨à¦ķ":10852,"Ġà¦īà§İà¦¸à¦Ĺ":10853,"à¦ķà¦ķà¦£":10854,"Ġà¦ķà¦ĸà¦¨à¦ĵà¦ķà¦ĸà¦¨à¦ĵ":10855,"à¦Ĩà¦²à¦«":10856,"à¦Ĩà¦²à¦ªà¦¨":10857,"Ġà¦¬à¦ķà¦ļ":10858,"Ġà¦¬à§Łà¦²":10859,"à¦ľà¦¬à¦ľ":10860,"à¦ľà¦¬à¦ªà¦¨":10861,"à¦¦à¦®à¦Ĺ":10862,"Ġà¦Ńà§Łà¦Ń":10863,"Ġà¦¬à¦īà¦ĩ":10864,"Ġà¦¬à¦īà¦¡":10865,"à¦Łà¦°à¦°":10866,"à¦®à¦°à¦£à¦¯":10867,"à¦®à¦°à¦£à¦¸":10868,"à¦²à¦®à¦Ĺ":10869,"à¦Ĺà¦®à¦ĵ":10870,"Ġà¦ıà¦¸à¦¬à¦ĵ":10871,"à¦²à¦¸à¦ĵ":10872,"à¦²à¦Ĺà¦Ĺà¦¨":10873,"Ġà¦¬à§ľà¦®":10874,"Ġà¦¬à§ľà¦ľ":10875,"à¦ªà¦£à¦ĵ":10876,"Ġà¦īà§İà¦¸à¦¬à¦ļ":10877,"Ġà¦°à¦¸à¦ľ":10878,"Ġà¦°à¦¸à¦Ń":10879,"à¦®à¦¹à¦°à¦®":10880,"à¦Łà¦«à¦°à¦®":10881,"à§Łà¦¤à¦ĩ":10882,"Ġà¦§à¦°à¦¨à¦§":10883,"Ġà¦Īà¦Ĺà¦²":10884,"à¦¯à¦ªà¦²":10885,"à¦¸à¦Łà¦¸":10886,"Ġà¦®à¦ľà¦¹":10887,"Ġà¦ªà¦°à¦®à¦¶":10888,"à¤«":10889,"à¦ķà¦°à¦£à¦Ĺ":10890,"à¦ķà¦°à¦£à¦¹":10891,"à§«à§§":10892,"à¦¬à¦Ľà¦°à¦ĩ":10893,"à¦¶à¦²à¦Ĺà¦¤":10894,"à¦¯à¦Ĺà¦ļ":10895,"Ġà¦¶à¦¹à¦°à¦®à¦¯":10896,"à¦¬à¦£à¦ķ":10897,"à¦¬à¦£à¦§":10898,"à§ĩ?âĢĿà¥¤":10899,"à¦łà¦ķà¦ª":10900,"à¦¿âĢĵâĢĵ":10901,"à¦·à¦¦à¦ķ":10902,"à¦·à¦¦à¦¬à¦°":10903,"Ġà¦ľà§Łà¦¬":10904,"à¦ĩà¦Ńà¦Ł":10905,"à§ĩà¥¤âĢĻâĢĻ":10906,"à¦¾à¥¤âĢĻâĢĿ":10907,"à§ĩâĢ¦à¥¤âĢĻ":10908,"à§ĩâĢ¦âĢĿà¥¤":10909,"à¦¼à¦Ĥà¥¤":10910,"Ġà§§à§¯à§©à§¦":10911,"à¦°à¦ĸà¦£":10912,"à¦ĩà§Łà¦°":10913,"à¦¿âĢĻ?":10914,"Ġà¦ªà¦°à¦¶à¦ĸ":10915,"à¦²à¦Ńà¦ķ":10916,"à¦®à¦ľà¦Ĺà¦¤":10917,"à¦¸à¦¹à¦ķ":10918,"à¦¸à¦¹à¦ª":10919,"à§ĭ!'":10920,"à¦ħà¦°à¦«":10921,"Ġà¦ªà¦£à¦ª":10922,"à§ªà§ª":10923,"Ġà¦¹à¦ĩà¦ĵ":10924,"à¦·à§Łà¦ĩ":10925,"à¦·à§Łà¦ĵ":10926,"à¦¬à¦Łà¦¤à¦²":10927,"ined":10928,"iness":10929,"Ġà¦ķà§Łà¦ľà¦¨":10930,"à§ĩ?âĢĻâĢĶ":10931,"à¦ľà§Łà¦°à¦¥":10932,"Ġà¦¨à¦Ĺà¦°à¦ª":10933,"Ġà¦¨à¦Ĺà¦°à¦Ń":10934,"anan":10935,"à¦¨à¦Ľà¦¡":10936,"à¦ľà¦Ĺà¦¦":10937,"ony":10938,"à¦¨à§Łà¦¨à¦ĩ":10939,"Ġà¦ĩà¦¸à¦ķà¦¨":10940,"Ġà¦¶à¦ªà¦¥à¦ĩ":10941,"Ġà¦®à¦¦à¦®à¦¤":10942,"à¦¦à¦¶à¦¬à¦°":10943,"Ġà¦Ĭà¦§":10944,"Ġà¦Ĭà¦¨à¦ªà¦ŀ":10945,"Ġà¦Ĩà¦ļà¦°à¦£à¦Ĺ":10946,"Ġà¦Ĩà¦ļà¦°à¦£à¦ĵ":10947,"Ġà¦Ĩà§ľà¦ļ":10948,"Ġà¦®à¦¨à¦¨à¦§":10949,"Ġà¦®à¦¨à¦¨à¦ļà¦°":10950,"à¦ªà§ľà¦¬":10951,"à¦ªà§ľà¦¶":10952,"à¦¾à¦ĥâĢĻ":10953,"à§¬à§¯":10954,"à§¬à§®":10955,"à¦ķà¦ĸà¦¨à¦ĩ":10956,"atis":10957,"atural":10958,"alism":10959,"Ġ!\"":10960,"Ġ!âĢĶ":10961,"à¦¨à¦¬à¦ľà¦Ĺà¦¤":10962,"Ġà¦Ĩà¦¸à¦¨à¦ĸ":10963,"à¦¬à¦°à¦£à¦ĵ":10964,"à§¯à§¨":10965,"à§¯à§®":10966,"à§®à§¬":10967,"!âĢĻâĢĿ":10968,"Ġà¦ıà¦¡à¦®à¦¨":10969,"ency":10970,"ision":10971,"à¦Ĳà¦¦":10972,"Ġà¦ļà¦°à¦£à¦¬":10973,"Ġà¦ļà¦°à¦£à¦Ĺ":10974,"ited":10975,"ities":10976,"itude":10977,"Ġ:-":10978,"Ġà¦Ĩà¦Łà¦·à¦Ł":10979,"à§ĩâĢĻ-":10980,"à§ĩâĢĻ?":10981,"Ġà¦°à¦¤à¦¨à¦ª":10982,"Ġà¦Ķà¦°à¦Ļ":10983,"à§ĭ?âĢĿ,":10984,"Ġser":10985,"Ġsay":10986,"Ġsha":10987,"Ġske":10988,"Ġsense":10989,"Ġà¦ĩà¦Łà¦Ĺ":10990,"Ġ;--":10991,"Ġà¦ľà¦Ĺà§İà¦¦":10992,"Ġà¦ľà¦Ĺà§İà¦ª":10993,"Ġà¦ľà¦Ĺà§İà¦ľ":10994,"à¦¿âĢ¦âĢĻ":10995,"à¦¿âĢ¦à¥¤âĢĿ":10996,"à¦¿âĢ¦à¥¤âĢĻ":10997,"à¦ĩà¦«à§Ł":10998,"Ġà¦Ĩà¦«à¦¤":10999,"Ġaway":11000,"à¦ķà¦¶à¦¨à¦ĵ":11001,"Ġà¦®à¦°à¦£à¦«":11002,"Ġà¦Ńà¦°à¦¤à¦ª":11003,"Ġà¦Ńà¦°à¦¤à¦Ń":11004,"arun":11005,"arri":11006,"arily":11007,"Ġà¦°à¦£à¦¹":11008,"Ġà¦°à¦£à¦°à¦Ļ":11009,"Ġà¦°à¦£à¦ļà¦£":11010,"Ġà¦ķà¦¦à¦®à¦¤à¦²":11011,"oral":11012,"Ġwar":11013,"Ġway":11014,"Ġwant":11015,"à¦®à¦Ńà¦ľà¦¨":11016,"à¦¬à¦ªà¦¨à¦®à¦¯":11017,"Ġmass":11018,"Ġmach":11019,"Ġmiss":11020,"Ġmade":11021,"Ġà¦Ŀà§ľà¦ĩ":11022,"à¦ĭà¦Ĺà¦¬":11023,"Ġà¦ĩà¦¹à¦ľà¦¨":11024,"Ġà¦ĩà¦¹à¦ľà¦Ĺà¦¤":11025,"à¦ħà¦ªà¦¹":11026,"Ġà¦¬à¦°à¦«à¦¶":11027,"Ġà¦¬à¦°à¦«à¦Ŀà¦°":11028,"Ġbl":11029,"Ġbir":11030,"Ġpri":11031,"Ġpain":11032,"Ġpower":11033,"Ġpoet":11034,"Ġà¦Ĺà¦Ĺà¦¨à¦Ń":11035,"Ġà¦Ĺà¦Ĺà¦¨à¦®à¦£":11036,"andita":11037,"Ġà¦ıà¦°à¦ĩà¦®à¦§":11038,"ica":11039,"ics":11040,"icular":11041,"ingly":11042,"à§Īà¦ĥ,":11043,"à§Īà¦ĥâĢĵ":11044,"Ġà§©à§®":11045,"let":11046,"lex":11047,"oun":11048,"oura":11049,"à§·à§·":11050,"ask":11051,"Ġfar":11052,"Ġfri":11053,"edia":11054,"Ġà¦¨à§ľà¦ļà§ľ":11055,"Ġdet":11056,"Ġdid":11057,"Ġdow":11058,"à¥¤à¥¤/":11059,"à¥¤à¥¤âĢĺ":11060,"Ġà§§à§¯à§Ńà§®":11061,"Ġà¦ļà§ľà¦²":11062,"Ġà¦ļà§ľà¦ķ":11063,"Ġà¦ļà§ľà¦Ľ":11064,"Ġhig":11065,"Ġholo":11066,"Ġà§¨à§¦à§§à§ª":11067,"Ġà§¨à§¦à§«à§¦":11068,"Ġà¤¤":11069,"Ġà¤Ľ":11070,"à¦¿,âĢĿâĢĶ":11071,"Ġà¦¦à¦®à¦¨à¦¨":11072,"ctu":11073,"à§ĭâĢ¦à¥¤âĢĿ":11074,"à§ĭ!âĢĿâĢĶ":11075,"Ġà¦ķà¦²à¦¤à¦²":11076,"Ġnor":11077,"Ġliv":11078,"Ġlaw":11079,"à¦Ŀà¦¨à¦Ŀà¦¨":11080,"Ġà¦¸à¦¦à¦°à¦ĺ":11081,"Ġà¦ĵà¦ľà¦¨à¦¹":11082,"Ġà§§à§¯à§«à§¬":11083,"Ġà§«à§¨":11084,"Ġà§«à§ª":11085,"Ġthing":11086,"Ġthrough":11087,"Ġthought":11088,"race":11089,"Ġà¦¨à¦¬à¦¦à¦®":11090,"Ġà¦¨à§Łà¦¨à¦Ńà¦°":11091,"Ġà¦Łà¦²à¦·":11092,"ĠMelod":11093,"Ġà§§à§©à§¦à§¦":11094,"ĠAl":11095,"Ġà¦īà¦ªà¦ķà¦°à¦£à¦Ĺ":11096,"ential":11097,"Ġà¦ĺà¦·à¦²":11098,"à§§à§¦à§¦":11099,"ute":11100,"uture":11101,"ĠPM":11102,"ĠPr":11103,"à¦¿'?":11104,"Ġtoo":11105,"Ġtoward":11106,"à§¦à§¦à§¦":11107,"Ġà¦ĸà¦Łà¦®à¦Ł":11108,"ĠâĢ¦.":11109,"ĠâĢ¦âĢĿ":11110,"à§ĩ):":11111,"à§į!]":11112,"ĠBrit":11113,"à¦¼âĢ¦à¥¤":11114,"à¦Ĺà¦¬à¦¤à¦ª":11115,"ĠSum":11116,"à¦¶à¦ªà¦¥à¦¬à¦¦":11117,"Ġele":11118,"Ġequ":11119,"à¦¾âĢ¦âĢĿâĢĶ":11120,"à¤¾à¤ģ":11121,"uring":11122,"Ġrevol":11123,"ĠTarun":11124,"à¦·à¦ľà¦¨à¦¦":11125,"Ġbeaut":11126,"ĠRel":11127,"ĠRoh":11128,"à§ĭâĢ¦âĢĿâĢĶ":11129,"chn":11130,"Ġà§§à§¯à§ªà§§":11131,"Ġà§§à§¯à§ªà§ª":11132,"à¦¬à¦Ĺà¦¤à¦Ń":11133,"Ġà¦ıà¦«à¦Ĩà¦°à¦Ĩà¦ĩ":11134,"imate":11135,"Ġà¦ķà¦¨à¦ķà¦¦":11136,"Ġà¦ĸà¦²à¦¬à¦²":11137,"à§Ģ?âĢĿâĢĶ":11138,"Ġgot":11139,"Ġgreat":11140,"ĠDJ":11141,"à§§à§¨à§«":11142,"usi":11143,"à¦¶à¦¶à¦§à¦°":11144,"ames":11145,"Ġà¦ªà¦¬à¦¨à¦ª":11146,"ĠCont":11147,"Ġà§§à§®à§¦":11148,"Ġà§§à§®à§¬à§¦":11149,"Ġà§¯à§¦à§¦":11150,"verse":11151,"ific":11152,"à¦ªà¦°à¦¶à¦®à¦£":11153,"à§ĩà¥¥(":11154,"ĠNe":11155,"ĠNandita":11156,"Ġà¥¥âĢĿ":11157,"Ġà§§à§¨à§¦":11158,"Ġà¦īà¦ĩà¦Ļ":11159,"Ġà¦ıà¦ķà¦¨à¦ľà¦°":11160,"ĠHein":11161,"!!!":11162,"empt":11163,"empor":11164,"à¤¤à¤°":11165,"à¦¡à¦īà¦ĩà¦¥":11166,"Ġà§§à§¯à§®à§¬":11167,"hers":11168,"Ġà¦¨à¦¬à¦°à¦Ļ":11169,"ipon":11170,"ĠLED":11171,"à§ĩ.à¥¤":11172,"Ġvari":11173,"Ġvision":11174,"Ġà¦Ĺà¦®à¦¨à¦ª":11175,"Ġà§§à§¯à§¬à§§":11176,"Ġà§§à§¯à§¬à§¨":11177,"Ġà§§à§¯à§¬à§ª":11178,"Ġstate":11179,"Ġstrong":11180,"Ġà§¨à§¦à§¦à§§":11181,"Ġà§¨à§¦à§¦à§¬":11182,"Ġà§¨à§¦à§¦à§®":11183,"ĠÐ³":11184,"ĠÐº":11185,"ĠÐ½":11186,"à¤ķà¤²":11187,"Ġà¦«à¦¸à¦²à¦ķ":11188,"ĠØ±":11189,"Ġà¦Ĩà¦īà¦²à¦ļ":11190,"à¸²":11191,"à¸ģ":11192,"Ġhere":11193,"Ġà§§à§¯à§©à§ª":11194,"Ġà§§à§¯à§©à§¯":11195,"Ġà¦®à¦Łà¦®à¦Ł":11196,"aster":11197,"ÐµÐ½":11198,"Ġright":11199,"Ġrather":11200,"Ġseem":11201,"Ġsearch":11202,"Ġtry":11203,"Ġìĭľ":11204,"Ġà¦Ĭà¦¨à¦¸à¦¤":11205,"Ġexc":11206,"Ġexist":11207,"Ġà¦Ĺà¦¤à¦¬à¦Ľà¦°":11208,"Ġproper":11209,"ments":11210,"selves":11211,"à¦°à¦Ĺà¦²à¦Ń":11212,"Ð¾Ð²":11213,"àª°":11214,"Ġà¦Ĳà¦°à¦ķà¦®à¦ĩ":11215,"Ġintellect":11216,"à§§à§¯à§Ńà§¦":11217,"ritical":11218,"Ġmyth":11219,"ape":11220,"Ġ×Ķ":11221,"Ġsub":11222,"Ġsucc":11223,"ocrat":11224,"Ġalso":11225,"à¦ªà¦ķà¦¤à¦®":11226,"à¦īà¦ªà¦ķà¦°à¦£":11227,"Ġchild":11228,"ĠThrough":11229,"aven":11230,"hys":11231,"à§°à¦¦à§°":11232,"Ġprodu":11233,"iction":11234,"Ġbecause":11235,"ĠĠĠĠĠĠĠĠĠĠĠĠĠĠĠĠĠĠĠĠĠĠĠĠĠĠĠĠĠĠĠĠ":11236,"ruction":11237,"Ġà¦Ĺà¦Ĺà¦¨à¦¬":11238,"TION":11239,"Ġfree":11240,"ĠIslam":11241,"Ġabstraction":11242,"Ġ``":11243,"à§»à¦¾":11244,"Ġconscious":11245,"uravas":11246,"xxxx":11247,"ragmatic":11248,"×Ļ×":11249,"Ġpossess":11250,"alization":11251,"ĠÃĹ":11252,"Ġà¦ªà¦°à¦®à¦¤à¦¸à¦¹":11253,"à¤¼à§ĩ":11254,"Ġaccept":11255,"ĠYou":11256,"Ġmathe":11257,"Ġbecome":11258,"mbrace":11259,"Ġneighbor":11260,"Ġdiffere":11261,"Ġetern":11262,"ishav":11263,"Ġmemory":11264,"ĠAparna":11265,"Ġremind":11266,"Ġconstant":11267,"known":11268,"à¦ľà¦¬à¦ªà¦£":11269,"Ġplace":11270,"Ġemerg":11271,"ĠDurga":11272,"ĠNazrul":11273,"ĠEurope":11274,"ognition":11275,"Heinrich":11276,"damental":11277,"Ġidentity":11278,"Ġà¦¬abu":11279,"Ġà¦¨escafÃ©":11280,"à¦ªankar":11281,"Ġdowry":11282,"Ġhigher":11283,"ĠMelodies":11284,"ĠRohit":11285,"Ġvariable":11286,"Ġsuccess":11287,"!âĢĺ":11288,"!--":11289,"\"âĢĶ":11290,",âĢĺ":11291,"52":11292,"60":11293,"66":11294,"97":11295,"??":11296,"AC":11297,"AM":11298,"Al":11299,"BD":11300,"Digital":11301,"ETE":11302,"HO":11303,"If":11304,"It":11305,"Mod":11306,"On":11307,"PM":11308,"PP":11309,"PU":11310,"RU":11311,"Red":11312,"Ripon":11313,"SI":11314,"TA":11315,"Tub":11316,"VIN":11317,"What":11318,"[*":11319,"[âĢľ":11320,"]à¥¤":11321,"ai":11322,"aught":11323,"bi":11324,"bel":11325,"book":11326,"body":11327,"ced":11328,"col":11329,"count":11330,"cond":11331,"comp":11332,"eed":11333,"fil":11334,"gr":11335,"han":11336,"hip":11337,"ired":11338,"ivers":11339,"iverse":11340,"lo":11341,"ler":11342,"lad":11343,"lant":11344,"ox":11345,"oz":11346,"pen":11347,"put":11348,"pose":11349,"rug":11350,"rvas":11351,"sil":11352,"sub":11353,"ts":11354,"tra":11355,"ture":11356,"tick":11357,"uf":11358,"uild":11359,"xist":11360,"yl":11361,"yn":11362,"yp":11363,"ys":11364,"¿Ĵ":11365,"Ã¶":11366,"Î±":11367,"ÏĦ":11368,"Ïħ":11369,"Ð¼":11370,"Ò¯":11371,"Õ«":11372,"Õ¿":11373,"Õ¡Õ":11374,"ÖĢ":11375,"×Ĳ":11376,"×ŀ":11377,"ÚĨ":11378,"Ûģ":11379,"âĶ":11380,"å®":11381,"å¿":11382,"ç¿Ĵ":11383,"íĻ":11384,"ĉĊ":11385,"ĊĠ":11386,"Ġ&":11387,"Ġ2":11388,"Ġà§į":11389,"Ġà§İà¦¸":11390,"Ġing":11391,"Ġ)à¥¤":11392,"Ġro":11393,"Ġvery":11394,"Ġà¨":11395,"Ġvers":11396,"ĠØ§ÙĦ":11397,"Ġ***":11398,"Ġign":11399,"Ŀáĥ":11400,"Ġà¦ŀ":11401,"à¦¾à¦¼":11402,"à¦¾à§ĭ":11403,"à¦¾à¦¾à¦ģ":11404,"à¦¾âĢĺ":11405,"à¦¾âĢķ":11406,"à§ĩà¦¼":11407,"à¦°à¦ł":11408,"à¦°à¦ĸà¦¨":11409,"à¦°à¦¦à¦¨":11410,"à¦°à¦Ĩà¦®":11411,"à¦°à¦¢":11412,"à¦°à¦Ĩà¦°":11413,"à¦°à¦ĺà¦¨":11414,"à¦°à¦ħà¦²":11415,"à§į'":11416,"à§į!âĢĿ":11417,"à¦¿\"":11418,"à¦¿(":11419,"à¦¿à¦¾à¦ģ":11420,"à¦¿\"à¥¤":11421,"à¦¨à¦Ĩ":11422,"à¦¨à¦¨à¦ĵ":11423,"à¦¨à¦®à¦²":11424,"à¦¨à¦ļà¦²":11425,"à¦¨à¦®à¦ķ":11426,"à¦¨à¦¦à¦²":11427,"à¦¨à¦ļà¦¡":11428,"à¦¨à¦ıà¦Ł":11429,"à¦¨à¦ĸà¦£":11430,"à¦¨à¦ľà¦ª":11431,"à¦¨à¦īà¦¤":11432,"à¦¨à¦ħà¦²":11433,"à¦¤à¦¹à¦¸":11434,"à¦¤à¦Ĺà¦¨":11435,"à¦¤à¦¶à¦¬":11436,"à¦¤à¦«à¦²":11437,"à¦¤à¦¹à¦¤":11438,"à¦¤à¦Ĺà¦®":11439,"à¦¤à¦ľà¦®":11440,"à¦¤à¦¶à¦¯":11441,"à¦²à¦ł":11442,"à¦²à¦°à¦¸":11443,"à¦²à¦ĩà¦²":11444,"à¦²à¦¸à¦°":11445,"à¦²à¦¸à¦¤":11446,"à¦²à¦¢":11447,"à¦²à¦¸à¦ķ":11448,"à¦²à¦ıà¦ķà¦Ł":11449,"à¦²à¦ĺà¦¡":11450,"à¦ķà¦ļà¦¨":11451,"à¦ķà¦ĸà¦¤":11452,"à¦ķà¦ķà¦¬":11453,"à¦ķà¦Ĺà¦¨":11454,"à¦ķà¦ľà¦²":11455,"à¦ķà¦¸à¦²":11456,"à¦ķà¦ĺà¦¨":11457,"à¦ķà¦°à¦¤à¦²":11458,"à¦¯à¦¨à¦¬":11459,"à¦¯à¦¦à¦¯":11460,"à¦¯à¦ħà¦¨":11461,"à¦¯à¦²à¦Ĺ":11462,"à¦¯à¦ĺà¦¨":11463,"à§ģà¦¾":11464,"à§ģà§ĥ":11465,"à§ģâĢĶâĢľ":11466,"à§ģâĢĿ!":11467,"à¦¬à¦Ĺà¦¨":11468,"à¦¬à¦®à¦¬":11469,"à¦¬à¦ĺà¦°":11470,"à¦¬à¦īà¦ķ":11471,"à¦¬à§İà¦ĩ":11472,"à¦¼à§ģâĢĻ":11473,"à¦®à¦Ĺà¦²":11474,"à¦®à§Łà¦¨":11475,"à¦®à¦ľà¦¯":11476,"à¦®à¦Ŀà¦°":11477,"à¦®à¦ľà¦®":11478,"à¦®à¦Ĺà¦¤à¦Ń":11479,"à§ĭ'à¥¤":11480,"Ġà¦ķà¦¬à¦¨":11481,"Ġà¦ķà¦Łà¦²":11482,"Ġà¦ķà¦ĩà¦¸":11483,"Ġà¦ķà¦®à¦¨à¦¸":11484,"Ġà¦ķØ§Ø":11485,"Ġà¦¬à¦ľà¦¨":11486,"Ġà¦¬à¦·à¦Ł":11487,"Ġà¦¬à¦°à¦¬à¦£":11488,"Ġà¦¬ung":11489,"Ġà¦¬à¦ľà¦¬à¦ľ":11490,"Ġà¦¸à¦ªà¦Ł":11491,"Ġà¦¸à¦¦à¦®":11492,"Ġà¦¸à¦²à¦«":11493,"Ġà¦¸à¦¦à§Łà¦¤":11494,"à¥Į":11495,"à¦¸à¦¸à¦¬":11496,"à¦¸à¦°à¦¹":11497,"à¦¸à¦°à¦¦":11498,"à¦¸à¦°à¦ĩ":11499,"à¦¸à¦¹à¦°":11500,"à¦¸à¦ļà¦°":11501,"à¦¸à¦ªà¦Ł":11502,"à¦¸à§°":11503,"à¦¸à¦Ńà¦Ļ":11504,"à¦¸à¦°à¦¤à¦®":11505,"Ġà¦ªà¦¯à¦°":11506,"Ġà¦ªà¦ªà¦¡":11507,"Ġà¦Ĩà¦ĸà¦¤":11508,"Ġà¦Ĩà§İà¦ķ":11509,"Ġà¦Ĩà¦¢":11510,"Ġà¦Ĩà¦ĵà¦°":11511,"à¦¦à¦¬à¦²":11512,"à¦¦à¦ķà¦²":11513,"à¦¦à¦¬à¦¤":11514,"à¦¦à¦¸à¦¨":11515,"à¦¦à¦ªà¦¥":11516,"à¦¦à¦§à¦°":11517,"à¦¦à¦Ĺà¦®":11518,"à¦¦à¦ľà¦Ĺà§İ":11519,"à¦Łà¦ŀ":11520,"à¦Łà¦Ĩ":11521,"à¦Łà¦®à¦¤":11522,"à¦Łà¦ªà¦¥":11523,"à¦Łà¦Łà¦²":11524,"à¦Łà¦¨à¦¦":11525,"à¦Łà¦¸à¦ķ":11526,"à¦Łà¦ĺà¦°":11527,"Ġà¦¨à¦¸à¦°":11528,"Ġà¦¨à¦ĩà¦¬":11529,"Ġà¦¨à¦²à¦ĸ":11530,"Ġà¦®à¦¹à¦¸":11531,"Ġà¦®à¦ĩà¦¯":11532,"Ġà¦®à¦ķà¦¦":11533,"Ġà¦®à¦Łà¦¨":11534,"Ġà¦®à¦¦à¦Ł":11535,"Ġà¦®à¦¦à¦ķ":11536,"à¦ªà¦ł":11537,"à¦ªà¦ĵà¦¯":11538,"à¦ªà¦¬à¦²":11539,"à¦ªà¦ļà¦¨":11540,"à¦ªà¦ķà¦¬":11541,"à¦ªà¦¸à¦°":11542,"à¦ªà¦ªà¦¥":11543,"à¦ªà¦ļà¦ķ":11544,"à¦ªà¦¶à¦¯":11545,"à¦ªà¦¬à¦§":11546,"à¦ĩà¦ĺ":11547,"à¦ĩà¦¸à¦®":11548,"à¦ĩà¦Łà¦ķ":11549,"à¦ĩà¦¸à¦ķ":11550,"à¦ĩà¦Ĩà¦°":11551,"à¦ĩà¦¶à¦°":11552,"à§Ģ),":11553,"à¦Ľà¦«":11554,"Ġà¦¦à¦°à¦®":11555,"Ġà¦¦à¦¶à¦¨":11556,"Ġà¦¦à¦®à¦¯":11557,"Ġà¦¦à¦®à¦¬":11558,"Ġà¦¦à¦®à¦Ł":11559,"Ġà¦¦à¦ĩà¦Ń":11560,"à¦ľà¦°à¦¬":11561,"à¦ľà¦°à¦¨":11562,"à¦ľà¦²à¦¨":11563,"à¦ľà¦°à¦¦":11564,"à¦ľà¦ĵà§Ł":11565,"à¦ľà¦ļà¦ķ":11566,"à¦ľà¦®à¦Ł":11567,"Ġà¦¹à¦Łà¦°":11568,"Ġà¦¤à¦ĩ":11569,"Ġà¦¤à¦Ľ":11570,"Ġà¦¤à¦¹":11571,"Ġà¦¤à¦°à¦¸":11572,"Ġà¦¤à¦ĸà¦²":11573,"Ġà¦¤à¦°à¦ľ":11574,"Ġà¦¤à¦¥à¦¨":11575,"Ġà¦¤à¦Łà¦Ń":11576,"Ġà¦ıà¦ªà¦°":11577,"Ġà¦ıà¦·à¦£":11578,"Ġà¦ıà¦Ĺà¦¨":11579,"Ġà¦ıà¦ªà¦¥":11580,"Ġà¦ıà¦¨à¦Ł":11581,"Ġà¦ıà¦ªà¦¸":11582,"à¦¶à¦°à¦¬":11583,"à¦¶à§İ":11584,"à¦¶à¦Ĺà¦²":11585,"à¦¶à¦®à¦°":11586,"à¦¶à¦ªà¦¦":11587,"à¦¶à¦ªà¦Ł":11588,"à¦¶à¦®à¦¨à¦ķ":11589,"à¦¼à§ĩà¦ģ":11590,"à¦¼à§ĩâĢĻ,":11591,"à¦¼à§ĩâĢ¦âĢĻ":11592,"Ġà¦ħà¦°à¦¥":11593,"Ġà¦ħà¦¶à¦¬":11594,"Ġà¦ħà¦ĩà¦¯":11595,"Ġà¦ħà¦Ŀà¦°":11596,"Ġà¦ħà¦£à¦¨":11597,"à¦ĸà¦°à¦®":11598,"à¦ĸà¦¦à¦°":11599,"à¦ĸà¦°à¦¹":11600,"à¦ĸà¦¹à¦°":11601,"à¦ĸà¦¸à¦®":11602,"à¦ĸà¦ľà¦²":11603,"à¦Ĺà¦®à¦£":11604,"à¦Ĺà¦Ĺà¦ľ":11605,"à¦·à¦¬à¦¨":11606,"à¦·à¦²à¦ķ":11607,"à¦·à¦°à¦¶":11608,"à¦·à¦¨à¦ĵ":11609,"à¦·à¦ķà¦¬":11610,"à¦·à¦¬à¦¹":11611,"à¦·à¦¸à¦¹":11612,"à¦§à¦£":11613,"à¦§à¦Ŀ":11614,"à¦§à¦«":11615,"à¦§à¦ĵà¦¯":11616,"à¦§à¦ķà¦²":11617,"à¦§à¦°à¦¦":11618,"à¦§à¦Ĺà¦¨":11619,"à¦§à¦°à¦ª":11620,"à¦§à¦ļà¦ķ":11621,"à¦§à¦°à¦Ľ":11622,"âĢĬ":11623,"à¦¡à¦ªà¦¤":11624,"à¦¡à¦¸à¦¤":11625,"à¦¡à§Łà¦¨":11626,"à¦¡à¦¸à¦¹":11627,"à¦¡à¦¬à¦¡":11628,"à¦¡à¦¬à¦ªà¦ķ":11629,"Ġà¦¯à¦®à¦ª":11630,"à¦ļà¦°à¦¬":11631,"à¦ļà¦ĵà¦¯":11632,"à¦ļà¦¬à¦ĩ":11633,"à¦¹à¦¥":11634,"à¦¹à¦°à¦¤":11635,"à¦¹à¦§à¦¨":11636,"à¦¹à¦¨à¦¨":11637,"à¦¹à¦¤à¦²":11638,"à¦¹à¦§à¦°":11639,"Ġà¦ķà¦°à¦ķ":11640,"Ġà¦ķà¦°à¦Ł":11641,"Ġà¦ķà¦°à¦§":11642,"Ġà¦ķà¦°à¦ļ":11643,"Ġà¦ķà¦°à¦¨à¦ĸ":11644,"à§Łà¦¡":11645,"à§Łà¦¨à¦¬":11646,"à§Łà¦®à¦®":11647,"Ġà¦Ĺà¦Ĺà¦£":11648,"à¦£à¦ĸà¦¨":11649,"à¦£à¦°à¦¸":11650,"à¦£à¦ªà¦¦":11651,"à¦£à¦ĺà¦¨":11652,"à¦£à¦¸à¦¹":11653,"à¦£à¦°à¦Ļ":11654,"à¦£à¦ªà¦¶":11655,"à¦£à¦ľà¦Ĺà¦¤":11656,"à¦£à¦ĺà¦Ł":11657,"à¦ģ,":11658,"à¦¥à¦°à¦¤":11659,"à¦¥à¦°à¦ĩ":11660,"à¦¥à¦ªà¦¥":11661,"à¦¥à¦°à¦ª":11662,"à¦¥à¦§à¦°":11663,"à¦¥à¦²à¦Ł":11664,"Ġà¦¶à¦¦":11665,"Ġà¦¶à¦¶à¦ķ":11666,"Ġà¦¶à¦°à¦¬à¦°":11667,"Ġà¦¶à¦Łà¦Ĺ":11668,"Ġà¦¶à¦°à¦¬à§İ":11669,"Ġà¦ľà¦ķ":11670,"Ġà¦ľà¦Ĺà¦²":11671,"Ġà¦ľà¦Ĺà¦¬":11672,"Ġà¦ľà§Łà¦¤":11673,"Ġà¦ľà¦ĵà¦¹":11674,"Ġà¦ļà¦¶":11675,"Ġà¦ļà¦°à¦Ĺ":11676,"Ġà¦ļà¦ķà¦¦":11677,"Ġà¦Ńà¦·":11678,"Ġà¦Ńà§ľ":11679,"Ġà¦Ńà¦ŀ":11680,"Ġà¦Ńà¦°à¦¨":11681,"Ġà¦Ńà¦²à¦Ĺ":11682,"Ġà¦°à¦ĵà§Ł":11683,"Ġà¦°à¦¬à¦ķ":11684,"Ġà¦°à¦¸à¦²":11685,"Ġà¦°à¦ļà§Ł":11686,"Ġà¦°à¦¡à¦°":11687,"à§ĩà¥¤*":11688,"à§ĩà¥¤--":11689,"à¦ĵà¦¥":11690,"à¦ĵà¦¬à¦¨":11691,"à¦ĵà¦Ĩà¦®":11692,"à¦ĵà¦°à¦ĩ":11693,"à¦ĵà¦¸à¦®":11694,"à¦ĵà¦ĩà¦Ł":11695,"à¦ĵà§İà¦¸":11696,"à¦ĵà¦Ĩà¦°":11697,"à¦ĵà§ľà¦¨":11698,"à¦Ńà¦¬à¦ª":11699,"à¦Ńà¦¨à¦¤":11700,"à¦Ńà¦®à¦¯":11701,"à¦Ńà¦¶à¦ķ":11702,"Ġà¦ıà¦ķà¦Ľ":11703,"Ġà¦ıà¦ķà¦¦à¦°":11704,"Ġà¦ıà¦ķà¦ĺà¦¨":11705,"Ġà¦ıà¦ķà¦ıà¦ķà¦ľà¦¨":11706,"Ġà¦ıà¦ķà¦Ĩà¦§à¦Ł":11707,"à¦¼à¦¾âĢĻ,":11708,"à¦¼à¦¾âĢĻâĢĶ":11709,"à¦¼à¦¾âĢ¦âĢĻ":11710,"à§ĥâĢĻ":11711,"Ġà¦Ľà¦®à¦ķ":11712,"Ġà¦Ľà¦ªà¦Ľ":11713,"Ġà¦Ĩà¦®à¦ľ":11714,"à¦łà¦¯":11715,"à¦łà¦°à¦¬":11716,"à¦łà¦¬à¦°":11717,"à¦łà¦ķà¦¬":11718,"à¦łà¦¶à¦¬":11719,"à¦łà¦¸à¦Ļ":11720,"à¦łà¦¨à¦ĩ":11721,"à¦łà¦ĸà¦¡":11722,"à¦łç¿Ĵ":11723,"Ġà¦īà¦ķà¦Ł":11724,"Ġà¦īà¦¶à¦¨":11725,"Ġà¦īà¦ĩà¦¯":11726,"Ġà¦īà¦ĩà¦¡":11727,"Ġà¦īà¦Ńà¦ķ":11728,"Ġà¦īà¦ĩà¦ª":11729,"Ġà¦īà¦ĩà¦Ĺ":11730,"Ġà¦īà¦Ľà¦¸":11731,"à¦Ĥ;":11732,"à¦¾à¦ģ?âĢĿ":11733,"à¦¾à¦ģ?âĢĻ":11734,"à¦Ļà¦¶":11735,"Ġà¦²à¦ª":11736,"Ġà¦²à¦ĩà¦Ľ":11737,"Ġà¦²à¤¹à¤°":11738,"Ġà¦ĵà¦¶":11739,"Ġà¦¥à¦¬":11740,"Ġà¦¥à¦¸":11741,"Ġà¦«à¦ľ":11742,"Ġà¦«à¦ķà¦°":11743,"Ġà¦Ĩà¦°à¦ıà¦¸":11744,"Ġà¦ĸà¦®":11745,"à¦°à¦¤à¦¦":11746,"à¦°à¦¤à¦°à¦Ļ":11747,"à¦¾à¥¤âĢĶ":11748,"à¦¾à¥¤..":11749,"Ġà¦§à¦¨à¦¸":11750,"Ġà¦§à¦®à¦§":11751,"Ġà¦ªà¦°à¦ªà¦ķ":11752,"Ġà¦ªà¦°à¦§à¦°":11753,"Ġà¦ªà¦°à¦¶à¦ª":11754,"Ġà¦¸à¦®à¦®à¦°":11755,"à¦¾,à¥¤":11756,"à¦¾,âĢĵ":11757,"à¦¾,âĢľ":11758,"à¦¬à¦¨à¦¬à¦¨":11759,"à¦¬à¦¨à¦°à¦¸":11760,"à¦¬à¦¨à¦¸à¦®":11761,"à¦¬à¦¨à¦¨à¦¦":11762,"à¦¼à¦¿?âĢĿ":11763,"à§ľà¦ļ":11764,"à§ľà¦ªà¦¤":11765,"à¦ĸà¦¨à¦ª":11766,"à¦ĸà¦¨à¦ĸ":11767,"Ġà¦ĺà¦°à¦¨":11768,"Ġà¦®à¦¨à¦¨à¦ĩ":11769,"Ġà¦®à¦¨à¦ķà¦£":11770,"à¦ªà¦°à¦°":11771,"à¦ªà¦°à¦²":11772,"à¦ªà¦°à¦¹à¦°":11773,"à¦°à¦£à¦§":11774,"à¦°à¦£à¦ľà¦¨":11775,"à¦°à¦£à¦Ĺà¦¤":11776,"Ġà¦ıà¦ĩà¦¸à¦Ļ":11777,"à¦¿à¥¤âĢĶ":11778,"à¦®à¦¨à¦ĸ":11779,"à¦®à¦¨à¦ĵ":11780,"à¦Ŀà¦¨à¦¦":11781,"à¦ľà¦¨à¦Ń":11782,"à¦ŀà¦®":11783,"à¦ŀà¦ĵ":11784,"à¦ŀà¦ľà¦¨":11785,"à¦ŀà¦¦à¦ķ":11786,"à¦¤à¦°à¦§":11787,"à¦¤à¦°à¦ľà¦Ĺà§İ":11788,"à¦«à¦Ŀà¦®":11789,"à¦īà¦²à¦¬":11790,"à¦īà¦ĩà¦Ł":11791,"à¦īà¦®à¦Ĺ":11792,"à¦īà¦ªà¦²":11793,"à¦īà§İà¦ªà¦¤":11794,"à¦īà§İà¦ķà¦°":11795,"à¦īà¦ĩà§Łà¦°":11796,"à¦¿,---":11797,"à¦ªà¦¨à¦ĵ":11798,"Ġà¦Ĩà¦²à¦¹":11799,"Ġà¦Ĩà¦²à¦¬à¦¤":11800,"à¦°à¦¬à¦ªà¦ķ":11801,"à¦°à¦¬à¦¹à¦¨":11802,"à¦°à¦¬à¦£à¦®":11803,"à¦°à¦¬à¦²à¦¤à¦®":11804,"à¦Ĩà¦¤à¦°":11805,"à¦Ĩà¦²à¦ķ":11806,"à¦Ĩà¦Ĺà¦²":11807,"à¦Ĩà¦ļà¦²":11808,"à¦Ĩà¦ªà¦¤":11809,"à¦Ĩà¦¹à¦²":11810,"à¦Ĩà¦ķà¦¨":11811,"à¦Ĩà¦¨à¦²":11812,"à¦Ĩà¦¨à¦Ĺ":11813,"à¦Ĩà¦ĩà¦Ł":11814,"à¦Ĩà¦¶à¦¯":11815,"à¦Ĩà¦¦à¦¤":11816,"à¦Ĩà§Łà¦°":11817,"à§İà¦¬à¦°":11818,"à§İà¦¶à¦ķ":11819,"à§İà¦«à¦¨":11820,"à¦ıà¦¥":11821,"à¦ıà¦Ļ":11822,"à¦ıà¦ŀ":11823,"à¦ıà¦°à¦ĵ":11824,"à¦ıà¦¨à¦¸":11825,"à¦ıà¦®à¦ª":11826,"à¦ıà¦«à¦¸":11827,"à¦ıà¦°à¦ªà¦°à¦ĩ":11828,"âĢĿâĢĶâĢľ":11829,"à¦°à¦ķà¦ĩ":11830,"Ġà¦¸à¦¬à¦¤":11831,"Ġà¦¸à¦¬à¦§à¦°à¦¨":11832,"à¦¬à¦°à¦ĸ":11833,"à¦¬à¦°à¦®à¦£":11834,"à¦¬à¦°à¦ľà¦²":11835,"Ġà¦¬à¦²à¦²à¦²":11836,"Ġà¦¬à¦²à¦²à¦ħà¦¨":11837,"Ġà¦¬à¦²à¦²à¦¯à¦¦":11838,"Ġà¦¬à¦²à¦²à¦ıà¦¤":11839,"Ġà¦Ĩà¦¸à¦¹":11840,"Ġà¦Ĩà¦¸à¦¨à¦ª":11841,"Ġà¦Łà§Ł":11842,"Ġà¦Łà¦ªà¦¨":11843,"Ġà¦Łà¦²à¦ķ":11844,"Ġà¦Łà¦ªà¦²":11845,"Ġà¦Ĩà¦Ľà¦°":11846,"âĢĻ?âĢĿ":11847,"à¦¼à¥¤]":11848,"Ġà¦¹à¦²à¦Ĺ":11849,"Ġà¦¡à¦ĵ":11850,"Ġà¦¡à¦«":11851,"Ġà¦¡à¦®à¦°":11852,"Ġà¦¡à¦Łà¦ª":11853,"Ġà¦ĩà¦¬à¦²":11854,"Ġà¦ĩà¦°à¦®":11855,"Ġà¦ĩà¦ľà¦®":11856,"ÂłĠÂłĠÂł":11857,"à¦ĺà¦¹":11858,"à¦ĺà¦²à¦¤":11859,"à¦ĺà¦¶à¦ķ":11860,"à¦ĺà¦Łà¦¬":11861,"à¦ĺà¦Ŀà¦¡":11862,"Ġà¦ľà¦¨à¦ªà¦°":11863,"Ġà¦§à¦°à¦¨à¦ĵ":11864,"Ġà¦Ŀà¦ĩ":11865,"Ġà¦Ŀà¦Ŀ":11866,"à¦¬à¦²à¦¹":11867,"à¦¬à¦²à¦ľà¦²":11868,"à¦¼,âĢĵ":11869,"ĠâĢĺ)à¥¤":11870,"à¦¬à¦ªà¦¥":11871,"à¦°à¦®à¦ķà¦°":11872,"à¦°à¦®à¦¥à¦ķ":11873,"à¦°à¦®à¦¦à¦¤":11874,"à§ģà¦ģ!":11875,"Ġà¦łà¦ķà¦²":11876,"Ġà¦łà¦®à¦ķ":11877,"à¦·à¦£à¦§à¦°":11878,"Ġà¦ķà¦°à¦²à¦ķ":11879,"Ġà¦ıà¦¸à¦¤":11880,"Ġà¦ıà¦¸à¦Ł":11881,"Ġà¦ıà¦¸à¦ķà¦°":11882,"âĢĵ]":11883,"à¦¤à¦¨à¦°":11884,"à¦ĥ/":11885,"à¦ĥâĢ¦":11886,"à¦ħà¦ĸ":11887,"à¦ħà¦ªà¦¨":11888,"à¦ħà¦¤à¦¨":11889,"à¦ħà¦Ńà¦¯":11890,"à¦ħà¦¹à¦Ļ":11891,"Ġà¦¬à¦¨à¦¯":11892,"Ġà¦ªà¦¥à¦®":11893,"Ġà¦ªà¦¥à¦¸à¦Ļ":11894,"Ġà¦ħà¦®à¦°à¦¬":11895,"Ġà¦ħà¦®à¦°à¦²":11896,"Ġà¦Ĩà¦Ĺà¦¬":11897,"Ġà¦Ĩà¦Ĺà¦¡":11898,"Ġà¦Ĺà¦²à¦ª":11899,"à¦ķà¦°à¦¨":11900,"à¦ķà¦°à¦ĩ":11901,"à¦ķà¦°à¦ĸ":11902,"à¦ķà¦°à¦¦à¦°":11903,"à¦ķà¦Łà¦¤":11904,"à¦¸à¦¬à¦¸":11905,"à¦°à¦¨à¦¨":11906,"à¦°à¦¨à¦ķ":11907,"à¦°à¦¨à¦¸":11908,"à¦°à¦¨à¦ľ":11909,"à¦¯à¦¬à¦¸à¦°":11910,"à¦¯à¦¬à¦ĩà¦¤":11911,"à§ĭà¥¤'":11912,"à§ĭà¥¤à¥¤":11913,"à¦°à¦¥à¦¯":11914,"à¦¤à¦¬à¦¦":11915,"à¦¤à¦¬à¦¶":11916,"à¦¤à¦¬à§ľ":11917,"à¦¤à¦¬à¦ķà¦Ĺ":11918,"à¦°à¦¸à¦¡":11919,"à¦°à¦¸à¦°à¦¤":11920,"à¦²à¦ķà¦®":11921,"à¦²à¦ķà¦ĩ":11922,"à¦¨à¦¬à¦Ł":11923,"à¦¨à¦¬à¦ĩ":11924,"à¦¨à¦¬à¦¦à¦¨":11925,"à¦¨à¦¬à¦¸à¦¨":11926,"à¦¨à¦¬à¦ļà¦°":11927,"à¦¨à¦¬à¦Ĺà¦£":11928,"à¦¨à¦¬à¦¸à¦¦":11929,"à¦¾à¦ĤâĢĶ":11930,"à¦¾à¦ĤâĢĮ":11931,"à§ĭ,âĢĿâĢĶ":11932,"Ġà¦Ĩà¦¶à¦ķ":11933,"à¦¦à¦¨à¦°":11934,"à¦¦à¦¨à¦¨":11935,"à¦¦à¦¨à¦ļà¦ķ":11936,"à¦ķà¦¤à¦¤":11937,"à¦ķà¦¤à¦Ĺ":11938,"à¦ķà¦¤à¦ķà¦Ĺ":11939,"Ġà¦¹à¦¤à¦ľ":11940,"Ġà¦¬à¦°à¦ľ":11941,"à¦°à¦¥à¦®à¦¤à¦®":11942,"à§ĩ?âĢľ":11943,"Ġà¦ħà¦¦à¦°à¦ķ":11944,"Ġà¦Ĩà¦¨à¦¹":11945,"Ġà¦Ĩà¦¨à§Łà¦¨":11946,"Ġà¦īà¦¦à§Łà¦¨":11947,"à¦¦à¦°à¦ĩ":11948,"Ġà¦ħà¦°à¦Ĺ":11949,"à¦Ĺà¦²à¦¶":11950,"à¦Ĺà¦²à¦Ĩà¦®":11951,"à¦Ĺà¦²à¦¸à¦°":11952,"à¦Ĺà¦²à¦ĺà¦Ł":11953,"à¦Ĺà¦²à¦®à¦¹à¦²":11954,"Ġà¦ľà¦²à¦¯":11955,"Ġà¦ľà¦²à¦¬à¦¨":11956,"Ġà¦ľà¦²à¦ľà¦¨":11957,"Ġà¦ľà¦²à¦¬à¦°":11958,"Ġà¦ľà¦²à¦¬à¦¤":11959,"Ġà¦ľà¦²à¦®à¦¯":11960,"Ġà¦ľà¦²à¦¶à¦ķ":11961,"Ġà¦ľà¦²à¦Ŀà¦°":11962,"Ġà¦ľà¦²à¦Ľà¦¡":11963,"à¦²à¦¤à¦¦":11964,"à¦¿à¦Ĥ?âĢĿ":11965,"à¦¿à¦Ĥ!âĢĻ":11966,"à¦¶à¦¨à¦²":11967,"à¦¶à¦¨à¦®à¦¯":11968,"à¦®à¦¤à¦ķ":11969,"à¦®à¦¤à¦ª":11970,"à¦¯à¦ķà¦¬":11971,"Ġà¦¸à¦¨à§İà¦ķ":11972,"à¦°à¦¹à¦¯":11973,"à¦°à¦¹à¦Ļ":11974,"à¦°à¦¹à¦°à¦ķ":11975,"à¦°à¦¹à¦¨à¦¨":11976,"Ġà¦ĺà¦°à¦ª":11977,"Ġà¦īà¦łà¦²à¦¨":11978,"Ġà¦īà¦łà¦²à¦¸":11979,"Ġà¦īà¦łà¦²à¦ĵà¦¹":11980,"à¦ļà¦¨à¦ļ":11981,"à¦²à¦¨à¦¨":11982,"à¦²à¦¨à¦ķà¦¶":11983,"à¦²à¦¨à¦®à§Ł":11984,"Ġà¦īà¦ªà¦®à¦¨":11985,"Ġà¦¸à¦°à¦ª":11986,"Ġà¦¸à¦°à¦²à¦¸":11987,"à¦°à¦¯à¦ļ":11988,"Ġà¦¯à¦ĸà¦¨à¦ķ":11989,"à¦¨à¦ĵà§Ł":11990,"à¦ĩà¦²à¦ª":11991,"à¦®à¦²à¦¤à¦°":11992,"à¦ĸà¦²à¦¹":11993,"à¦§à¦¨à¦§":11994,"à¦§à¦¨à¦°à¦¤":11995,"à¦§à¦¨à¦¸à¦®":11996,"à¦²à¦¬à¦Ł":11997,"à¦²à¦¬à¦ĵ":11998,"à¦²à¦¬à¦¦à¦¨":11999,"à¦²à¦¬à¦¸à¦¨":12000,"à¦°à¦¦à¦¸":12001,"à¦°à¦¦à¦¦":12002,"à¦°à¦¦à¦Ł":12003,"à¦°à¦¦à¦¶":12004,"à¦°à¦ľà¦¸":12005,"à¦°à¦ľà¦°à¦®à¦£":12006,"Ġà¦ħà¦ªà¦¶":12007,"Ġà¦ħà¦ªà¦¥":12008,"Ġà¦ķà¦²à¦²":12009,"Ġà¦ķà¦²à¦Ń":12010,"Ġà¦ķà¦²à¦®à¦ļ":12011,"Ġà¦ķà¦²à¦¸à¦ĸ":12012,"à¦ļà¦²à¦¸à¦®":12013,"à¦®à¦ķà¦£":12014,"à¦°à¦ĩà¦¨":12015,"Ġà¦Ĩà¦¤à¦²":12016,"à¦¸à¦¨à¦¯":12017,"Ġà¦Ńà¦°à¦Ńà¦°":12018,"à¦ĩà¦¨à¦¦":12019,"à¦ķà¦¬à¦¯":12020,"à¦ķà¦¬à¦§":12021,"à¦ıà¦ĩà¦Ĺ":12022,"à¦°à¦ªà¦°à¦®":12023,"à¦¸à¦®à¦Ŀ":12024,"à§Ģ,âĢĻ":12025,"à§Ģ,--":12026,"à¦¿-âĢĻ":12027,"à¦¿-âĢĺ":12028,"à¦Łà¦ķà¦¹":12029,"à¦Łà¦ķà¦£":12030,"à¦Łà¦ķà¦°à¦£":12031,"Ġà¦ıà¦ĸà¦ĸ":12032,"Ġà¦ķà¦¤à¦²":12033,"Ġà¦ķà¦®à¦¦":12034,"à¦¤à¦²à¦®":12035,"à¦¤à¦²à¦ĸ":12036,"à¦Ĺà¦¨à¦¦":12037,"à¦Ĺà¦¨à¦ĵà¦¯":12038,"Ġà¦¬à¦Ľà¦°à¦Ł":12039,"à§ĩ!*":12040,"à§ĩ!--":12041,"Ġà¦°à¦Ļà¦¤":12042,"Ġà¦¯à¦¤à¦ľà¦¨":12043,"Ġà¦īà§İà¦ķà¦¨":12044,"à¦°à¦Ńà¦¨":12045,"Ġà¦ıà¦Łà¦®":12046,"à¦ªà¦¦à¦§":12047,"à¦¦à§Łà¦¦":12048,"à¦¦à§Łà¦¹":12049,"à¦¦à§Łà¦ªà¦Ł":12050,"à¦¦à§Łà¦Ńà¦°":12051,"Ġà¦¶à¦°à¦¬à¦¨":12052,"à¦°à¦ĵà¦ķ":12053,"Ġà¦ħà¦Ĺà¦ª":12054,"à¦ªà¦¥à¦¶":12055,"Ġà¦¨à§Łà¦¨à¦ľ":12056,"Ġà¦ħà¦®à¦²à¦¦":12057,"Ġà¦ħà¦®à¦²à¦§":12058,"à¦®à¦£à¦ª":12059,"à¦¿?''":12060,"à¦ıà¦ķà¦ļ":12061,"à¦ıà¦ķà¦Ń":12062,"à¦ıà¦ķà¦®à¦¨":12063,"à¦ıà¦ķà¦ĸà¦£":12064,"à¦ıà¦ķà¦ĺà¦£":12065,"à¦¾?âĢĶ":12066,"Ġà¦ıà¦°à¦ľà¦¨":12067,"à¦¨à¦ķà¦°à¦£":12068,"à¦°à¦ªà¦¶":12069,"à¦°à¦ªà§ľ":12070,"Ġà¦¬à¦ĩà¦ĺà¦°":12071,"Ġà¦¬à¦ĩà¦Ńà¦°":12072,"à¦¬à¦¸à¦¯":12073,"à¦¬à¦¸à¦¹":12074,"Ġà¦ħà¦ªà¦°à¦ľà¦¨":12075,"à¦Łà¦²à¦Łà¦²":12076,"à§Ģà¥¤(":12077,"à¦·à¦¤à¦¸":12078,"à§įâĢĮ;":12079,"Ġà¦«à¦²à¦ľ":12080,"Ġà¦«à¦²à¦Ń":12081,"à¦¯à¦®à¦¦":12082,"à¦¯à¦®à¦ľ":12083,"à¦¯à¦®à¦¹":12084,"à¦¤à¦ķà¦Ĺ":12085,"à§ģ,âĢĿâĢĶ":12086,"à¦¤à¦®à¦¹":12087,"à¦¾!âĢĵ":12088,"à¦ļà¦ķà¦¨":12089,"à¦ļà¦ķà¦Ń":12090,"à¦ľà¦²à¦Ľ":12091,"à¦ľà¦²à¦¢":12092,"à¦ľà¦²à¦§à¦°":12093,"à¦ľà¦²à¦®à¦Ĺ":12094,"à¦ľà¦²à¦Ľà¦¬":12095,"à¦ªà¦ķà¦ĵ":12096,"à¦ªà¦ķà¦°à¦£":12097,"à¦¬à¦ķà¦ª":12098,"à¦¬à¦ķà¦ĩ":12099,"à¦¬à¦ķà¦Ĺ":12100,"à¦¬à¦ķà¦ľà¦¨":12101,"à¦¨à¦¦à¦ķ":12102,"à§ĩ;âĢĿ":12103,"à¦£à¦¤à¦¤":12104,"à¦£à¦¤à¦ĩ":12105,"à¦¶à¦ķà¦ĵ":12106,"à¦¢à¦ķ":12107,"Ġà¦Ĩà¦§à¦«":12108,"à¦¤à¦¤à¦Ł":12109,"à¦°à¦ķà¦®à¦Ń":12110,"à¦¯à¦¸à¦ŀ":12111,"à¦¯à¦¸à¦®à¦¯":12112,"à¦¯à¦¸à¦¹à¦ļà¦°":12113,"à¦¹à¦¨à¦ľà¦²":12114,"Ġà¦Ĩà¦¸à¦²à¦Ł":12115,"à§ĩà¥¤âĢĿâĢĶ":12116,"à¦ªà¦Łà¦ªà¦Ł":12117,"à¦¼à§ģ!":12118,"à¦ľà¦°à¦°":12119,"!âĢĿà¥¤":12120,"!âĢĿâĢĵ":12121,"à¦ķà¦¨à¦²à¦ľ":12122,"à¦¸à¦ķà¦Ń":12123,"à¦¸à¦ķà¦®à¦£":12124,"à§°à¦ľà¦¨":12125,"à§°à¦ķà¦²":12126,"à§°à¦®à¦¶":12127,"à§°à¦¯à¦ľ":12128,"à¦¸à¦«à¦°à¦®":12129,"Ġà¦¶à¦¤à¦¸":12130,"Ġà¦¶à¦¤à¦Ł":12131,"Ġà¦¶à¦¤à¦Ľ":12132,"Ġà¦¶à¦¤à¦ļ":12133,"à§ģ---":12134,"à§ģà¥¤âĢĺ":12135,"Ġà¦¨à¦¬à¦¤à¦°à¦Ļ":12136,"Ġà¦īà¦ľà¦¬":12137,"Ġà¦Ĩà¦ļà¦£":12138,"Ġà¦Ĩà¦ļà¦®à¦¨":12139,"Ġà¦¬à¦¦à¦²à¦Ł":12140,"à¦¨à¦¸à¦Ł":12141,"à¦ªà¦¸à¦ª":12142,"à¦ªà¦¸à¦Ń":12143,"à¦ªà¦¸à¦°à¦£":12144,"à¦¬à¦¶à¦¸":12145,"à¦°à¦ľà¦¨à¦¨à¦ķ":12146,"à¥¤âĢĻ)à¥¤":12147,"Ġà¥¤'":12148,"à¦¨à¦Ĺà¦¡":12149,"Ġà¦Ĺà§ľà¦²":12150,"à¦«à¦²à¦¸":12151,"à¦«à¦²à¦Ĺ":12152,"à¦¥à¦°à¦ĸ":12153,"à¦ĩà¦Łà¦ª":12154,"à¦ªà¦·à¦ľ":12155,"Ġà¦¸à¦¹à¦ľà¦¤à¦®":12156,"à¦Ĺà¦ľà¦¬":12157,"à¦Ĺà¦ľà¦ĵ":12158,"à¦¼à¦¾à¥¤\"":12159,"à¦²à¦Ľà¦Ł":12160,"à§ĩâĢĵâĢľ":12161,"à§ĩâĢĵâĢĺ":12162,"à¦īà¦²à¦ª":12163,"à¦¿!''":12164,"à¦ķà¦¶à¦¯":12165,"Ġà¦ıà¦¨à¦Ń":12166,"à§ĭâĢĶâĢĿ":12167,"à§ĭâĢĶâĢĻ":12168,"Ġà¦°à¦ķà¦®à¦ĵ":12169,"Ġà¦°à¦ķà¦®à¦¸à¦ķà¦®":12170,"à¦®à§Łà¦ķ":12171,"à¦®à§Łà¦¬":12172,"à¦ķà¦¦à¦¦à¦¸":12173,"Ġà¦īà§İà¦¸à¦¬à¦ª":12174,"Ġà¦¬à¦Łà¦¦":12175,"Ġà¦¹à¦°à¦ł":12176,"à¦Ĩà¦²à¦Ł":12177,"à¦ķà¦¡à¦ĩà¦¨":12178,"Ġà¦ľà¦°à¦¡à¦¨":12179,"Ġà¦Ĺà¦£à¦¦":12180,"Ġà¦Ĺà¦£à¦§à¦°":12181,"Ġà¦Ĺà¦£à¦ħà¦Ń":12182,"Ġà¦¨à¦°à¦®à¦¸":12183,"ĠâĢĶâĢĶâĢĶ":12184,"Ġà¦¬à§Łà¦«":12185,"à¦ľà¦¬à¦īà¦®":12186,"à¦¦à¦®à¦ł":12187,"Ġà¦ķà¦²à¦ķà¦¤":12188,"Ġà¦Ńà§Łà¦Ĺ":12189,"Ġà¦Ńà§Łà¦ĵ":12190,"Ġà¦Ĩà¦¦à¦°à¦¯à¦¤":12191,"à¦®à¦°à¦£à¦ľ":12192,"à¦²à¦®à¦¶":12193,"à¦²à¦¸à¦¦":12194,"Ġà¦§à¦¨à¦®":12195,"à¦²à¦Ĺà¦Ł":12196,"Ġà¦īà§İà¦¸à¦¬à¦ķ":12197,"à¦¼?âĢĶ":12198,"Ġà¦°à¦¸à¦ĩ":12199,"à¦®à¦¹à¦¦":12200,"Ġà¦Īà¦¦à¦Ĺ":12201,"à¦¥à¦ķà¦·":12202,"à¦Ĩà¦ķà¦¬à¦°":12203,"à¦¾âĢĻ?":12204,"à¦¾âĢĻâĢĻ":12205,"à¦¾âĢĻ!âĢĿ":12206,"à¦°à¦°à¦ŀ":12207,"à¦°à¦°à¦ļà¦¨":12208,"Ġà¦ªà¦°à¦®à¦®":12209,"Ġà¦ªà¦°à¦®à¦§à¦°":12210,"à¤¢":12211,"à¤ĸ":12212,"à¦ķà¦°à¦£à¦Ł":12213,"Ġà¦ħà¦¸à¦®à¦ŀ":12214,"à¦¿;---":12215,"à¦¶à¦²à¦ĵ":12216,"à§ĩ?âĢĿ,":12217,"Ġà¦ļà¦®à¦ķà¦¦":12218,"à¦łà¦ķà¦¸à¦®":12219,"à¦łà¦ķà§Łà¦²":12220,"à¦¿âĢĵâĢĿ":12221,"à¦·à¦¦à¦¦":12222,"Ġà¦ľà§Łà¦¸":12223,"Ġà¦ıà¦Ńà¦²":12224,"à¦ķà¦Ńà¦ķ":12225,"à¦ĩà¦¡à¦¸":12226,"à¦®à¦¦à¦®à¦¨":12227,"à§ĩâĢ¦?âĢĿ":12228,"à§ĩâĢ¦..":12229,"à§ĩâĢ¦âĢĿâĢĶ":12230,"Ġà§§à§¯à§¦":12231,"Ġà§§à§¯à§§à§ª":12232,"Ġà¦¸à¦°à¦²à¦®à¦¤":12233,"Ġter":12234,"Ġtur":12235,"Ġtri":12236,"Ġtalk":12237,"à¦¨à¦¶à¦°":12238,"à¦£à¦¬à¦§":12239,"à¦¿âĢĻ!âĢĿ":12240,"à§Ńà§©":12241,"à§Ńà§Ń":12242,"à¦²à¦Ńà¦¤":12243,"à¦ĩà¦¸à¦Ĺ":12244,"à¦¤à¦¹à¦¬":12245,"à¦¯à§İà¦Ł":12246,"à¦Łà¦Ľà§ľ":12247,"à¦ļà¦Łà¦ªà¦Ł":12248,"Ġà¦¹à¦ĩà¦¹à¦Ł":12249,"à¦·à§Łà¦ª":12250,",âĢĿâĢĵ":12251,"Ġà¦Ĩà¦ĩà¦¨à¦ª":12252,"Ġà¦Ĩà¦ĩà¦¨à¦®à¦¨":12253,"Ġà¦Ĩà¦ĩà¦¨à¦Ńà¦Ļ":12254,"ins":12255,"ines":12256,"à¦¤à¦Ńà¦Ļ":12257,"à¦¨à¦ªà¦²à¦ķ":12258,"à¦ľà§Łà¦¸":12259,"à¦ľà§Łà¦¦":12260,"à¦ľà§Łà¦ª":12261,"à¦ľà§Łà¦ĩ":12262,"à¦ľà§Łà¦ªà¦¤":12263,"Ġà¦¨à¦Ĺà¦°à¦°":12264,"à¦¤à¦¸à¦Ń":12265,"Ġ-âĢľ":12266,"Ġ-âĢĺ":12267,"ana":12268,"anya":12269,"à¦¨à¦ļà¦£":12270,"..à¥¤":12271,"....":12272,"à¦ĩà¦ľà¦Ń":12273,"Ġà¦ĩà¦²à¦°":12274,"Ġà¦ħà¦¨à¦²à¦¶":12275,"onom":12276,"à¦¼!'":12277,"à¦ħà¦¸à§İ":12278,"à¦ħà¦¸à¦°à¦ķ":12279,"Ġà¦®à¦¦à¦¦":12280,"à¦¦à¦¶à¦ľà¦¨":12281,"à¦¬à¦ľà¦¨à¦¸à¦®à¦ķ":12282,"ree":12283,"à¦¯à¦Łà¦ķà¦°":12284,"à¦¯à¦Łà¦¨à¦ķ":12285,"Ġà¦ľà¦Ĺà§İà¦¸":12286,"Ġà¦ľà¦Ĺà¦Ŀà¦®":12287,"à¦Ĺà¦°à¦£à¦ĩ":12288,"Ġà¦®à¦¨à¦¨à¦®":12289,"Ġà¦®à¦¨à¦¨à¦Ĺà¦°":12290,
[...]
