#version: 0.2
à ¦
à §
Ġ à¦
à§ ĩ
à¦ ¾
à¦ °
à¦ ¿
à§ į
à¦ ¨
à¦ ²
à¦ ¤
à¦ ķ
à¦ ¯
à§ ģ
à¦ ¼
à¦ ¬
à§ ĭ
Ġà¦ ķ
à¦ ®
Ġà¦ ¬
Ġà¦ Ĩ
Ġà¦ ¸
à¦ Ł
à¦ ¸
Ġà¦ ª
à¦ Ľ
Ġà¦ ¨
à¦ ĩ
à¦ ¦
Ġà¦ ®
Ġà¦ ¦
Ġà¦ ı
Ġà¦ ¤
Ġà¦ ¹
à¦¼ à§ĩ
à¦ ª
à¦ ĸ
à¦ ľ
à§ Ģ
à¦ ¡
à¦ ¶
Ġà¦ ħ
à¦ Ĺ
Ġà¦ķ à¦°
Ġà¦ ¯
Ġà¦ Ĺ
à¦ ļ
à¦ ģ
Ġà¦ ļ
à¦ ·
à§ Ł
Ġà¦ °
Ġà¦ ¶
à¦ §
Ġà¦ Ń
Ġà¦ ľ
à¦ ¥
à¦ ¹
Ġà¦ı à¦ķ
Ġà¦Ĩ à¦®
à¦ ĵ
à¦¼ à¦¾
à¦ £
Ġà¦ Ľ
Ġà¦¬ à¦²
Ġà¦ ²
Ġà¦ ¥
à¦ ł
Ġà¦Ĩ à¦°
à¦¾ à¦ģ
à¦ Ń
Ġà¦ «
Ġà¦ ī
Ġà¦ ĸ
à¦ Ļ
Ġà¦ ĵ
à§ ĥ
Ġà¦¹ à¦¯
à¦ Ĥ
à§ Ĥ
Ġà¦ §
à¦¼ à¦¿
Ġà¦ħ à¦¨
č Ċ
čĊ č
Ġà¦ıà¦ķ à¦Ł
à¦ĸ à¦¨
Ġà¦ ĺ
Ġà¦ª à¦°
Ġà¦¬à¦² à¦²
à¦° à¦¤
à¦ «
à§ ľ
Ġà¦® à¦¨
à¦ Ŀ
Ġà¦ Ł
à¦ ī
Ġà¦Ĩ à¦Ľ
à¦ª à¦¨
Ġà¦¸ à¦®
à¦ª à¦°
Ġà¦ī à¦ł
Ġà¦ı à¦ĩ
à¦® à¦¨
Ġà¦ª à¦¡
Ġà¦Ĩ à¦²
Ġà¦¸ à¦¬
Ġà¦Ĩ à¦¸
à¦ľ à¦¨
Ġà¦ķ à¦¥
à¦¤ à¦°
Ġà¦ ¡
à¦¬ à¦¨
à¦° à¦¬
à§ İ
Ġà¦® à¦¤
Ġà¦ ĩ
à¦ ŀ
Ġà¦¹ à¦²
Ġà¦ ł
à¦ĵ à¦¯
à¦° à¦£
Ġà¦ı à¦¸
à¦° à¦ķ
Ġà¦¹ à¦¬
Ġà¦ķà¦° à¦²
Ġà¦ Ŀ
Ġà¦Ĩ à¦ľ
à¦¬ à¦°
à¦ ĺ
Ġà¦Ĩ à¦Ĺ
Ġà¦§ à¦°
Ġà¦¬ à¦¸
Ġà¦ķà¦° à¦¤
à¦ ı
Ġà¦ľ à¦¨
Ġà¦¸ à¦Ļ
Ġà¦ ¢
Ġà¦ļ à¦²
Ġà¦Ĩ à¦ªà¦¨
Ġà¦Ĺ à¦²
à§ģ à¦ģ
Ġà¦ı à¦ĸà¦¨
à¦¬ à¦²
à¦ķ à¦°
à¦ķ à¦Ł
Ġà¦ķà¦° à¦Ľ
à§ĭ à¦ģ
à¦¨ à¦¤
à¦· à¦£
Ġà¦ħ à¦¬
Ġà¦ı à¦²
à§ Į
Ġà¦Ĩ à¦¬
Ġà¦¨ à¦¤
à¦¬ à¦ª
Ġà¦īà¦ł à¦²
à§ĩ à¦ģ
à¦ Ĩ
Ġà¦® à¦§
Ġà¦ħ à¦¸
à¦² à¦ķ
Ġà¦¬ à¦¨
Ġ Ġ
à¦° à¦®
Ġà¦Ĩ à¦ķ
à¦¥ à¦®
Ġà¦ħ à¦¦
à¦ķ à¦²
Ġà¦ı à¦¬
Ġà¦ħ à¦°
à¦¶ à¦¨
Ġà¦¹ à§Ł
à¦Ĺ à¦²
à¦° à¦¥à¦®
Ġà¦¸à¦® à¦¯
à¦ĩ à¦²
Ġà¦¹ à¦¤
Ġà¦¤ à¦¬
Ġà¦¶ à¦¬
Ġà¦ĺ à¦°
Ġà¦ĵ à¦°
à¦° à¦¨
Ġà¦¨ à¦¯
Ġà¦¤ à¦ĸà¦¨
à¦² à¦¤
à¦Ľ à¦¨
Ġà¦Ĩà¦® à¦°
à§ Ī
Ġà¦ķà¦° à¦¬
à¦® à¦²
à¦ĸ à¦¤
Ġà¦¹ à¦ļ
à¦ĸ à¦²
à¦ ĥ
à¦° à¦ľ
à¦§ à¦ķ
Ġà¦¬ à¦¡
à¦° à¦²
à¦¹ à¦°
à¦¿ à¦Ĥ
Ġà¦ª à¦¥
Ġà¦¹ à¦ł
Ġà¦ĵ à¦ł
Ġà¦¸ à¦¨
à¦¸ à¦¬
Ġà¦ķ à¦ĸà¦¨
à¦ķ à¦¤
Ġà¦¨ à¦¦
Ġà¦ı à¦¤
Ġà¦¸ à¦¤
à¦¤ à¦¨
Ġà¦° à¦ķ
Ġà¦ľ à¦®
à¦° à¦¸
Ġà¦ħ à¦®
Ġà¦ķ à¦£
Ġà¦Ĩ à¦¨
à¦¾ à¦Ĥ
à¦° à¦¶
à¦° à¦ªà¦°
Ġà¦ľ à¦²
à¦¹ à¦¸
Ġà¦¯ à¦¦
Ġà¦ı à¦ĸ
à¦® à¦¤
Ġà¦¬ à¦°
Ġà¦ħ à¦ļ
à¦ķ à¦¬
Ġà¦ı à¦®à¦¨
Ġà¦ħ à¦ª
Ġà¦ĵ à¦ªà¦°
à¦¨ à¦ĵ
Ġà¦¦ à¦°à¦ľ
à¦Ł à¦ķ
Ġà¦Ĩ à¦¶
à¦ĵ à§Ł
à¦ĩ à¦¨
à¦¤ à¦¬
à¦¦ à¦¨
Ġà¦ħ à¦Ń
à¦® à¦ķ
Ġà¦ī à¦¤
à¦¦ à¦°
Ġà¦¯ à¦ĸà¦¨
Ġà¦¬à¦² à¦¤
Ġà¦Ń à¦¯
à¦² à¦¬
ĠĠ čĊč
Ġà¦ħ à¦¤
à¦Ľ à¦°
à¦ ħ
Ġà¦¶ à¦¹à¦°
à¦¯ à¦¬
Ġà¦¸ à¦°
à¦® à¦¯
Ġà¦¬ à¦Ľà¦°
Ġà¦ª à§ľ
Ġà¦ħ à¦§
à¦ĩ à¦°
Ġà¦ķ à¦²
Ġà¦ī à¦¦
à¦¹ à¦²
à¦° à¦ĩ
à¦Ŀ à¦¤
à¦ª à¦¤
Ġà¦ħ à¦ľ
à¦° à¦Ľ
Ġà¦ı à¦Ĺ
à¦¨ à¦¬
Ġ čĊč
à¦¼ à§ĭ
Ġà¦ķ à¦®
à¦¤ à¦²
Ġà¦ī à¦ª
à¦° à¦ª
Ġà¦ķ à¦¤
Ġà¦ı à¦Ł
Ġà¦ĵ à¦ĩ
à¦¿ à¦ĥ
Ġà¦¬ à¦ĩ
à¦Ń à¦¬
à¦¦ à¦²
Ġà¦¬à¦² à¦Ľ
à¦² à¦²
à¦¯ à¦¨
Ġà¦ķ à¦¯
Ġà¦Ľ à¦¡
Ġà¦¶ à¦°
à¦Ĺ à¦¤
Ġà¦¸ à¦ķ
à§İ à¦ķ
à¦¿ à¦ģ
Ġà¦Ń à¦°
à¦² à¦¨
Ġà¦Ĩà¦¸ à¦Ľ
Ġà¦ĺ à¦Ł
Ġà¦ı à¦°
à¦° à¦Ł
à¦ļ à¦¨
Ġà¦Ĩ à¦¤
Ġà¦® à¦¹
Ġà¦¬ à¦¯
à¦° à¦¦
à¦¨ à¦ķ
à¦¨ à¦Ł
Ġà¦° à¦ĵ
à¦° à¦ĵ
Ġà¦ĩ à¦ļ
Ġà¦¸ à¦¹
à¦¸ à¦«
à¦° à¦¹
Ġà¦Ĺ à¦¨
à¦¤ à¦ķ
Ġà¦¨ à§Ł
Ġà¦°à¦ĵ à¦¶à¦¨
Ġà¦¤ à¦°
Ġà¦ıà¦ķ à¦¬
Ġà¦ıà¦ķ à¦ľà¦¨
à¦¯ à¦¤
à¦® à¦°
Ġà¦ĩ à¦¤
Ġà¦¶ à¦ķ
Ġà¦Ĺ à¦Ń
à¦¯ à¦ķ
à¦¸ à¦¨
Ġà¦Ľ à¦¬
Ġà¦° à¦¹à¦¸
Ġà¦¸à¦® à¦¸
à¦¦ à¦¯
Ġà¦Ĺ à¦°
à¦¸ à¦²
Ġà¦¯ à¦¤
Ġà¦ī à¦ļ
à¦¬ à¦¤
Ġà¦ıà¦ķ à¦¦
à¦ı à¦ķ
Ġà¦ī à¦¨
Ġà¦ĵ à¦¦
à¦ļ à¦ķ
Ġà¦ħ à¦ªà¦°
à¦°à¦ķ à¦®
à¦°à¦¬ à¦¤
Ġà¦° à¦Ļ
à¦ļ à¦²
à¦ĩ à¦Ł
à¦ĸ à¦Ľ
à¦Ł à¦²
Ġà¦Ĩ à¦¡
Ġà¦ħ à¦¥
à¦° à¦¯
à¦¸ à¦¤
à¦¨ à¦²
Ġà¦¬ à¦¦à¦²
Ġà¦Ĩà¦ľ à¦ķ
à¦¸ à¦°
Ġà¦Ĩà¦° à¦ĵ
Ġà¦Ĩà¦¸ à¦²
à¦¶ à¦¬
à¦¬ à¦¸
à¦ĩ à¦¯
à¦¨ à¦¨
Ġ à§
à¦ļ à¦¯
Ġà¦ķ à¦¬
Ġà¦ħ à¦«
à¦² à¦Ľ
à¦ĩ à¦ķ
Ġà¦¬à¦² à¦¬
à¦ľ à¦¤
Ġà¦° à¦ĩà¦²
Ġà¦Ĩ à¦Ļ
à¦® à¦¬
à¦· à¦ķ
Ġà¦ħà¦¬ à¦¶
à¦ª à¦¦
Ġà¦Ĩ à¦Łà¦ķ
à¦ĸ à¦¬
Ġà¦ıà¦ķ à¦¸
Ġà¦Ĩà¦¸ à¦¬
à¦Ĩ à¦®
à§Į à¦ģ
à¦¨ à¦¦
Ġà¦ĸ à¦¬à¦°
Ġà¦ħà¦¥ à¦ļ
Ġà¦ª à¦¦
Ġà¦ħ à¦ķ
à¦ª à¦Ł
Ġà¦ķ à¦·
à¦Ĺ à¦¨
à¦Ł à¦¤
à¦ī à¦¨
à¦Ĺ à¦ľ
Ġà¦² à¦ķ
Ġà¦¦ à¦²
Ġà¦Ĺ à¦¤
Ġà¦ħà¦¨ à¦¨
à¦Ł à¦¬
Ġà¦® à¦°
à¦¦ à§Ł
Ġà¦ħà¦¬ à¦¸
à¦Ŀ à¦²
à¦ª à¦ķ
à¦¸ à¦®
Ġà¦ķ à¦²à¦ķ
à¦ı à¦ĩ
Ġà¦Ĺ à¦¡
à¦° à¦ļ
à¦Ĺ à¦°
Ġà¦Ĩ à¦ļ
à§İ à¦¸
à¦ĺ à¦°
Ġà¦ħ à¦¶
à¦¬ à¦ķ
à¦ľ à¦²
Ġà¦ħ à¦²
Ġà¦ľ à¦¡
Ġà¦Ĩ à¦¯
Ġà¦ĩ à¦¨
Ġà¦ķ à¦¨
Ġà¦ĺ à¦¨
Ġà¦ī à¦ªà¦°
Ġà¦°à¦ķ à¦®
Ġà¦ Ĳ
à¦¼ à§ģ
à¦¹ à¦¨
Ġà¦Ĩà¦¸ à¦¤
Ġà¦ª à¦ķ
à¦¤ à¦¤
à¦Ĺ à¦Ľ
à¦§ à¦¨
à¦ª à¦¥
à¦¯ à¦¸
Ġà¦¦ à¦°à¦ķ
Ġà¦ı à¦¦
Ġà¦ıà¦ĸà¦¨ à¦ĵ
à¦ķ à¦ķ
à§ģ à¦ĥ
à¦Ł à¦°
Ġà¦ĵ à¦Ł
à¦· à¦¯
Ġà¦īà¦ł à¦Ľ
à¦¹ à¦®
à¦¨ à¦Ĺ
à¦ª à¦¡
à¦ķ à¦¨
à¦ķ à¦¦
Ġà¦¤ à¦²
Ġà¦¦ à¦¶
à¦¹ à¦ł
à¦ı à¦ķà¦Ł
à¦² à¦®
Ġà¦ħ à¦Ĺ
Ġà¦Ń à¦¬
Ġà¦¬ à¦ī
à¦ ¢
à¦¯ à¦°
à¦· à¦¤
Ġà¦Ĩà¦¨ à¦¨
Ġà¦Ĩ à¦ĵà¦¯
Ġà¦Ľ à§ľ
à§Ł à¦¨
à¦¥ à¦°
Ġà¦° à¦¬
à¦¯à¦¬ à¦¸
Ġà¦ĵ à¦ķ
Ġà¦¨ à¦®
à¦² à¦Ł
Ġà¦ª à¦¤
ĠĠ č
à¦° à¦Ń
à¦¦ à¦®
Ġà¦¹ à¦ĵà¦¯
Ġà¦ĺà¦Ł à¦¨
à¦ĩ à¦¤
Ġà¦Ń à¦¦
Ġà¦¸à¦® à§Ł
à¦§ à¦¤
à¦ĩ à¦Ľ
à¦ļ à¦°
Ġà¦° à¦¯
Ġà¦īà¦ł à¦¤
à¦² à¦¸
à¦ª à¦¸
à¦ľ à¦°
à¦¸ à¦ķ
à¦¸ à¦ª
à¦¼ à§Ģ
Ġà¦ķ à¦ł
à¦° à¦Ĺ
à¦ĩ à¦¬
à¦£ à¦¤
à¦® à¦Ł
Ġà¦¬ à¦¹
Ġà¦ı à¦¨
à¦Ł à¦¨
à¦¦ à¦¸
Ġà¦¤à¦ĸà¦¨ à¦ĩ
§ à§
Ġà¦ļ à¦ķ
Ġà¦² à¦¡
Ġà¦§à¦° à¦²
Ġà¦¨ à¦°à¦®
à¦° à¦°
Ġà¦ıà¦ķ à¦ĩ
à¦¤ à¦®
Ġà¦¯ à¦¨
à¦ª à¦·
Ġà¦Ń à§Ł
à¦ļ à¦¡
à¦¬ à¦Ľ
à¦¨ à¦¸
à¦ķ à¦¶
à¦ķ à¦¡
à¦® à§Ł
Ġà¦Ĩ à¦¦
Ġà¦¸à¦¹ à¦ľ
à¦ī à¦ķ
Ġà¦Ĩ à¦ª
Ġà¦®à¦¤ à¦¨
à¦¸ à¦Ł
Ġà¦Ĩ à¦Ń
à¦¤ à¦Ł
à¦¯ à¦¥
à¦¬ à¦¦
Ġà¦ī à¦¡
Ġà¦¥ à¦®à¦ķ
Ġà¦ī à¦²
Ġà¦¸à¦¬ à¦ļ
à¦Ĺ à¦¬
à¦¶ à¦ķ
Ġà¦ıà¦¸ à¦¬
Ġà¦ļà¦² à¦Ľ
Ġà¦¬à¦¸ à¦²
à¦· à¦°
Ġà¦ľ à¦¬
à¦ķ à¦ľà¦¨
Ġà¦ª à¦²
Ġà¦ħ à¦Ļ
à¦ķ à¦Ľ
à¦ª à¦ļ
à¦ł à¦¸
à¦¨ à¦ĩ
Ġà¦ķ à¦ª
à¦² à¦®à¦²
Ġà¦ī à¦ľ
Ġà¦ıà¦ķà¦¸ à¦Ļ
Ġà¦ĩ à¦¯
à¦² à¦Ĺ
Ġà¦Ŀ à¦°
à¦§ à¦¬
Ġà¦² à¦ľ
à¦¬ à¦¬
Ġà¦Ń à¦Ļ
Ġà¦¶ à¦¹
à¦Ł à¦Ľ
à¦ı à¦°
à¦¯à¦¬ à¦¹
Ġà¦ħ à¦®à¦²
Ġà¦ĩ à¦¸
Ġà¦¶ à¦¤
à¦Ĺ à¦®
Ġà¦¸ à¦ķà¦²
à¦ĩ à¦Ń
Ġà¦° à¦ľà¦¤
à¦¬ à¦ĩ
à¦ħ à¦¨
Ġà¦® à¦²
Ġà¦ıà¦ķ à¦®
à¦¯ à¦ĩ
Ġà¦Ĺ à¦®
Ġà¦¸à¦¬ à¦ĩ
à¦ľ à¦Ľ
Ġà¦Ĺ à¦°à¦®
Ġà¦ļ à¦®à¦ķ
Ġà¦¬ à§Ł
à¦¯ à¦¦
Ġà¦Ĩ à¦¹
à¦¸ à¦Ľ
à¦¸à¦¬ à¦ĩ
Ġà¦ħà¦¸ à¦®
à¦ª à¦Ľ
Ġà¦§à¦° à¦¨
à¦¬ à¦£
Ġà¦¦ à¦®
Ġà¦¤ à¦ªà¦¨
Ġà¦¬ à¦Ł
Ġà¦Ŀ à¦²à¦®à¦²
à¦Ĩ à¦°
Ġà¦ĺ à¦£
à¦¶ à¦®
Ġà¦ĵ à¦ĸ
Ġà§ §à§
Ġà¦® à¦¸
Ġà¦ħ à¦ŀ
Ġà¦² à¦®
Ġà¦° à¦«
Ġà¦« à¦²
à¦· à¦®à¦¤
à¦¹ à¦¯
Ġà¦ľ à¦°
Ġà¦¸à¦¬ à¦ķ
Ġà¦ªà§ľ à¦²
Ġà¦Ĩ à¦§
à¦ľ à¦¬
Ġà¦ª à¦Ľà¦¨
à¦Ŀ à¦ĸ
à¦¬ à¦¶
Ġà¦ħ à¦¬à¦¨
à¦° à¦§
à¦² à¦¯
à¦« à¦²
à¦Ń à¦°
Ġà¦Ĩà¦ľ à¦ĵ
à¦¯ à¦®
à¦ĩ à¦¸
à¦° à¦«
à¦Ł à¦®
Ġà¦¦ à¦°
Ġà¦ķà¦ĸà¦¨ à¦ĵ
Ġà¦ī à§İà¦¸
Ġà¦¬ à¦ķ
Ġà¦¬ à§ľ
Ġà¦ĵ à¦¯
à¦ĺ à¦²
à¦« à¦Ł
à¦ī à¦°
à¦¨ à¦°
à¦¨ à¦Ľ
à¦¤ à¦ª
à¦· à¦®
à¦² à¦ļ
à¦Ł à¦Ł
à¦¥ à¦¨
Ġà¦¨ à¦¡
à¦¶ à¦²
à¦ļ à¦¤
Ġà¦ĵ à¦ª
à¦ĩ à¦¡
Ġà¦« à¦°
Ġà¦§ à¦¨
Ġà¦īà¦ł à¦¬
à¦Ĩ à¦ľ
Ġà¦ı à¦Ń
Ġà¦ľ à¦Ļ
Ġà¦ ĭ
à¦® à¦§
Ġà¦Ĺ à§ľ
à¦ľà¦¨ à¦ķ
à¦² à¦Ń
Ġà¦ı à¦°à¦ķà¦®
à¦« à¦°
à¦ĺ à¦¨
Ġà¦® à¦¯
à¦¦ à¦Ĺ
à¦ľ à¦Ł
Ġà¦īà¦ª à¦¸
à¦¨ à¦Ń
Ġà¦Ĺ à¦¬
à¦¡ à¦²
Ġà¦ľ à¦Ł
Ġà¦ī à¦ªà¦¨
Ġà¦ ·
à¦ĩ à¦®
à¦ķ à¦¸
à¦® à¦¡
à¦ī à¦Ł
Ġà¦ķ à¦«
Ġà¦ľ à¦¯
Ġà¦¹ à¦°
à¦· à¦Ł
à¦² à¦ª
à¦ķ à¦Ĺ
à¦Ŀ à¦°
à¦® à¦Ľ
à¦ļ à¦Ł
à¦® à¦¦
à¦ľ à¦®
Ġà¦Ĺ à¦£
à¦ķ à¦ĩ
à¦Ł à¦ª
Ġà¦® à¦ŀ
Ġà¦ļ à¦Ł
Ġà¦° à¦¹à¦®
Ġà¦¤ à¦¥
à¦ī à¦¯
Ġà¦Ĩ à¦ĺ
Ġà¦§ à¦°à¦¤
à¦¬ à¦¡
à¦¸ à¦®à¦¯
Ġà¦ª à¦¯
Ġà¦® à¦ľ
Ġà¦Ł à¦°
Ġà¦¸ à¦°à¦ķ
Ġà¦ħà¦¸ à¦¹
à¦¨ à¦¯
Ġà¦ķ à¦ķ
Ġà¦¤ à¦¤
à¦§ à¦¹à¦¯
à¦® à¦£
Ġà¦¨ à¦¬
à¦ĩ à¦ª
à§ ¦
Ġà¦ī à§İ
à¦ĸ à¦Ł
à¦ħ à¦°
à¦¬ à¦¹
à¦ª à¦£
Ġà¦« à¦Ł
Ġà¦ª à¦ŀ
Ġà¦¯à¦¤ à¦ĩ
Ġà¦¸ à¦Ń
Ġà¦ªà¦¦ à¦ķ
à¦¸ à¦Ļ
Ġà¦¶ à¦«
Ġà¦ļà¦² à¦²
à¦Ľ à¦²
à¦® à¦¸
à¦ª à¦²
à¦¨ à¦¶
Ġà¦¸ à¦ª
Ġà¦¸ à¦°à¦²
Ġà¦ħà¦¦ à¦®
à¦ĵ à¦°
à¦ľ à¦¯
Ġà¦¯ à¦¥
Ġà¦¬à¦ĩ à¦¯
Ġà¦Ŀ à¦¡
Ġà¦ĩ à¦īà¦¨
Ġà¦Ĩ à§ľ
à¦ľ à¦¸
à¦® à¦ª
à¦ķ à¦®
à¦£ à¦¬
à¦° à¦ĸ
à¦¦ à¦Ł
à¦ī à¦²
à¦° à¦¹à¦°
à¦¤ à¦¦
à¦¬ à¦¯
à¦°à¦¥à¦® à¦¬
à§ĩ à¦¾
Ġà¦ķ à¦¡
à¦® à¦¹
Ġà¦¹à§Ł à¦¤
à¦° à¦ľà¦¨
à¦ª à¦®
à¦ļ à¦¬
à§ «
Ġà¦¨ à¦¨
Ġà¦ļ à¦¡
Ġà¦¬à¦¸ à¦¤
à¦¦ à¦ķ
Ġà¦° à¦ŀ
Ġà¦ Ī
Ġà¦¸ à¦ŀ
Ġà¦Ĩ à¦¨à¦¤
Ġà¦Ľ à¦¨
à¦°à¦¬ à¦²
à¦¬à¦² à¦ľ
Ġà¦¨ à¦·
à¦« à¦¸
à¦Ł à¦¸
Ġà¦ķà¦² à¦®
Ġà¦ķ à§Ł
Ġà¦Ĩ à¦ĵà§Ł
à¦¬à¦² à¦Ľ
à¦ĩ à¦ļ
Ġà¦ļ à¦¶à¦®
à¦¨ à¦ª
à¦¯ à¦¯
Ġà¦ķ à¦¦
Ġà¦ª à¦¶
à¦ĩ à¦ľ
Ġà¦Ĩà¦¤ à¦Ļ
à¦² à¦ľ
à¦¤ à¦Ń
à¦§ à¦°
Ġà¦®à¦¨ à¦Ł
à¦² à¦¦
à¦® à¦°à¦£
à¦¶ à¦Ł
Ġà¦Ĩà¦° à¦ľ
à¦ı à¦Ł
à¦· à¦¦
à§ Ŀ
Ġà¦ħ à¦Ł
Ġà¦¤à¦° à¦Ļ
Ġà¦¦ à¦ķ
Ġà¦ĸ à¦¸
Ġà¦ļà¦² à¦¤
à¦ŀ à¦¤
Ġà¦² à§ľ
Ġà¦ĸ à¦°à¦ļ
à¦Ľ à¦¬
Ġà¦® à¦£
Ġà¦ļà¦² à¦¬
Ġà¦Ĺ à¦ľ
à¦ī à¦ľ
Ġà¦ĩ à¦²
à¦¬ à¦§
Ġà¦Ĩ à¦¦à¦°
Ġà¦Ľ à¦Ł
Ġà¦¸ à¦¤à¦°
Ġà¦ļ à¦®
Ġà¦ĩ à¦ŀ
à¦ı à¦¬
Ġà¦Ĩà¦° à¦£
Ġà¦¨ à¦ľà¦°
à¦¡ à¦°
à¦ļ à§Ł
Ġà¦ĺ à¦¡
Ġà¦ĩ à¦¶
Ġà¦ķà¦¤ à¦Ł
à¦® à¦¶
Ġà¦ªà¦° à¦¬à¦°
à¦ĸ à¦°
Ġà¦ª à¦²à¦ķ
à¦¦ à¦¤
à§ Ń
à¦ī à¦¸
Ġà¦Ĩà¦² à¦®
Ġà¦¬à¦¸ à¦¬
à¦¨ à¦®
à¦¯ à¦Ł
Ġà¦° à¦¸
Ġà¦² à¦²
à¦°à¦¬ à¦°
à¦Ĩ à¦²
à¦ķ à¦ª
à¦ľ à¦Ĺ
Ġà¦Ĺ à¦¹
Ġà¦ļ à¦°
à¦¥ à¦ķ
Ġà¦¤à¦° à¦«
à¦¨ à¦ļ
à¦ķ à§ľ
à¦ĩ à§Ł
Ġà¦ľ à§Ł
à¦¯ à¦®à¦¯
à¦ĺ à¦¶
à¦² à¦«
à¦ķ à¦ļ
à¦® à¦ľ
Ġà¦¬ à¦ľ
Ġà¦ª à¦¨
à¦Ľ à¦¤
à¦ĸ à¦ķ
à¦¯ à§İ
à¦°à¦® à¦£
à¦¹ à¦°à¦£
Ġà¦®à¦¨ à¦¸
Ġà¦¬à¦ĩ à§Ł
à¦· à¦¬
Ġà¦ī à¦·
Ġà¦ħà¦¤ à¦²
à¦¬ à¦ļ
Ġà¦ıà¦¤ à¦ķ
Ġà¦ıà¦®à¦¨ à¦ķ
Ġà¦ıà¦ķà¦¦ à¦®
Ġà¦® à¦¶
à¦Ŀ à¦¬
Ġà¦Ŀ à¦²à¦ķ
ĠĠ čĊ
Ġà¦Ĩà¦¨ à¦²
à¦ĩ à¦¶
à¦Ĺ à¦¡
à¦ł à¦ķ
à¦ķ à¦Ń
à¦ª à§ľ
à¦¡ à¦¨
Ġà¦¬ à¦¦
Ġà¦Ĩ à¦ĩà¦¨
Ġà¦® à¦¡
Ġà¦ĩ à¦Ł
Ġà¦ħà¦ľ à¦¸
à¦¨à¦¬ à¦¤
à§ ¨
ĠĠ ĠĠ
Ġà¦¨ à¦ĩà¦²
Ġà¦ı à¦¡
Ġà¦° à¦¤à¦¨
Ġà¦Ĩ à¦Ł
à¦® à¦Ĺ
Ġà¦Ĺ à¦Ļ
à¦ļ à§ľ
à¦¦ à¦Ľ
Ġà¦ı à¦°à¦ªà¦°
Ġà¦¤à¦°à¦« à¦¦
à¦¬à¦² à¦¤
à¦Ĩ à¦®à¦°
Ġà¦ıà¦¤ à¦¦
Ġà§ ¨
Ġà¦Ĩ à¦ķà¦°
à¦¬ à¦Ł
Ġà¦® à¦¦
à¦ľ à¦ķ
Ġà¦¶ à¦Ļ
Ġà¦ĩ à¦Ļ
Ġà¦ļà¦® à§İà¦ķ
à¦¼ à¦Ĥ
à¦ľ à¦¦
à¦ı à¦ĸà¦¨
Ġà¦ıà¦ķ à¦ª
Ġà¦ľ à¦Ĺà¦¤
à¦¸à¦¬ à¦ķ
à¦° à§Ł
Ġà¦ħ à¦Łà¦²
Ġà¦Ĩ à¦ĩ
Ġà¦¹ à¦ĵà§Ł
Ġà¦ħ à¦°à¦£
Ġà¦ıà¦ķ à¦²
Ġà¦Ŀ à¦ķ
Ġà¦ıà¦¤ à¦Ł
Ġà¦¸ à¦ļ
Ġà¦¦ à¦ĸà¦²
à¦² à¦ĩ
Ġà¦īà§İ à¦¸à¦¬
Ġà¦¨ à¦ķ
Ġà¦¨ à¦ĩ
Ġà¦¥ à¦®
Ġà§§à§ ¯
Ġà¦Ĩ à¦ªà¦¤
Ġà¦¤ à¦¨
à¦°à¦¹ à¦£
à¦® à¦ļ
à¦ĩ à¦ľà¦¨
Ġà¦ħ à¦®à¦¨
Ġà¦ħà¦¬ à¦§
à¦¤ à¦ĩ
Ġà¦® à¦®à¦¤
à¦¹ à¦¤
à¦ł à¦¨
Ġà¦¸à¦¬ à¦¸à¦®à¦¯
à¦°à¦ļ à¦£
Ġà¦¸ à¦ľ
Ġà¦Ĩà¦° à¦¤
Ġà¦Ĩà¦ľ à¦ĩ
à¦Ł à¦Ĺ
à¦¸ à¦¸
à¦¶ à¦ª
Ġà¦ĺà¦° à¦Ł
à¦¨ à¦ľà¦¨
Ġà¦ıà¦ĸà¦¨ à¦ĩ
à¦°à¦® à¦¶
à¦Ŀ à¦ķ
Ġà¦Ĩà¦¬ à¦¦
à§ §à§
Ġà¦ı à¦®
Ġà¦¹ à¦ĩ
à¦¯ à¦ª
Ġà¦Ĩà¦° à¦®
à¦°à¦ķ à¦²
à¦Ľ à¦Ł
Ġà¦° à§Ł
à¦ī à§Ł
à¦ı à¦ĸ
à¦ı à¦Ń
Ġà¦¤à¦ĸà¦¨ à¦ĵ
Ġà¦ıà¦ķà¦¸ à¦®à¦¯
à¦ķ à¦¶à¦¨
à¦ľ à§Ł
Ġ č
à¦£ à¦¨
Ġà¦§ à¦®à¦ķ
à¦Ĩ à¦Ĺ
à¦ıà¦ķ à¦¦
Ġà¦¥à¦® à¦¥à¦®
à¦ķ à¦ł
à¦® à¦®
Ġà¦ļ à¦¨
Ġà¦ªà¦° à¦¸
à¦¶ à¦¦
à¦°à¦¸ à¦Ļ
Ġà¦ªà§ľ à¦Ľ
Ġà¦¸ à¦¦
Ġà¦Ń à¦¬à¦¨
Ġà¦īà¦ª à¦ķ
à¦¬ à¦Ń
Ġà¦ķ à¦Ł
Ġà¦Ĩ à§Ł
à¦¦ à¦ª
à¦¶ à¦¤
à§Ł à¦Ĺ
à¦ĵ à¦¡
Ġà¦Ĩà¦ļ à¦®à¦ķ
Ġà¦ıà¦ķ à¦¶
à¦Ļ à¦¤
Ġà¦¯à¦¤ à¦Ł
à¦¨ à¦¹
à¦ĸ à¦¸
Ġà¦Ń à¦°à¦¸
Ġà¦Ĩà¦¨ à¦¬
Ġà¦ļà¦ķ à¦ļà¦ķ
à¦ª à¦¯
à¦°à¦¤ à¦°
à¦Ńà¦¬ à¦¤
à¦¤ à¦Ĺ
Ġà¦¹ à¦¨
Ġà¦ıà¦ĩ à¦¸à¦¬
à§ °
Ġà¦¨ à¦¥
à¦ĩ à¦«
à¦¦ à¦¬
Ġà¦ıà¦ķ à¦¤
Ġà¦ĩ à¦®
Ġà¦ĭ à¦¦
Ġà¦ķ à¦ĩ
Ġà¦¸ à¦ł
Ġà¦¶ à¦ªà¦¥
Ġà¦² à¦¨
Ġà¦¬à¦Ł à¦Ĺ
Ġà¦° à¦ļà¦¨
Ġà¦ĩ à¦ī
à¦¤ à¦ľ
à¦¯ à¦°à¦ķà¦®
à¦Ĺ à¦Ł
à¦¥ à¦²
Ġà¦² à¦¤
à¦¾ à¦ĥ
à§Ł à¦®
Ġà¦ıà¦ĩ à¦Ł
à¦Ĩ à¦ķ
Ġà¦¬à¦° à¦«
à¦¶ à¦¯
à¦Ń à¦¨
Ġà¦Ŀ à¦²à¦¸
Ġà¦Ŀà¦ķ à¦Ŀà¦ķ
à¦ĩ à¦¦
Ġà¦ĵ à¦Ĺ
à¦ķ à¦¥
à¦® à¦Ŀ
Ġà¦¬ à¦¹à¦¨
à¦Ł à¦ĸ
à¦² à§Ł
Ġà¦ħ à¦¬à¦²
à§ ª
Ġà¦¤ à¦¤à¦ķ
Ġà¦ĵ à¦·
à¦ĺ à¦Łà¦¨
Ġà¦¢ à¦²
Ġà¦Ĩà¦¬ à¦Ľ
à¦¥ à¦¬
à§İ à¦ĩ
Ġà¦¦à¦¶ à¦Ł
à¦¦ à¦¶
Ġà¦ļ à¦¤
Ġà¦« à¦¸à¦²
à¦ī à¦¡
Ġà¦ħà¦® à¦°
à¦² à¦ĸ
à¦ª à¦Ĺ
à¦ĸ à¦ĸ
à¦ļ à¦Ľ
à§ §
Ġà¦Ĩ à¦«
Ġà¦¦ à¦¡
Ġà¦¤ à¦¦à¦¨
à¦£ à¦¦
à¦Ĩ à¦ªà¦¨
à¦Ľ à¦Ĺ
Ġà¦īà¦ª à¦²à¦¬
Ġà¦Ľà¦Ł à¦«à¦Ł
Ġà¦ Ĭ
Ġà¦ıà¦ķ à¦°
à¦ī à¦¦
à¦ķ à¦®à¦¤
Ġà¦¥ à¦°
Ġà¦ªà¦° à¦¦
à¦®à¦¨ à¦ĩ
à¦ª à¦¬
à¦Ń à¦¯
Ġà¦ªà¦° à¦®
Ġà¦ķà¦¤ à¦¦
à¦° à¦¦à¦°
à¦¤ à¦¸
à¦ķ à¦£
à¦¸ à¦¦
Ġà¦Ĩà¦® à¦¨
à¦¬à¦² à¦¨
à¦¼ à§į
Ġà¦° à¦®
Ġà¦ī à¦²à¦Ł
à§İ à¦ª
Ġà¦¨ à¦ķà¦¶
à¦¶ à¦°
Ġà¦ĸ à¦¡
Ġà¦¹à§Ł à¦¨
à¦¤ à¦Ľ
Ġà¦¹ à¦ķ
Ġà¦ħ à¦¹
Ġà¦ī à§ľ
Ġà¦¬à¦ī à¦¦
à¦¸ à¦¹
Ġà¦ı à¦¯
Ġà¦Ĩà¦® à¦²
à¦ĵ à¦ķà¦¤
Ġà¦ªà¦° à¦¤
à¦ī à¦®
Ġà¦Ĩà¦² à¦¤
Ġà¦ĩà¦¸ à¦®à¦¤
Ġà¦ª à¦¬
Ġà¦¨ à¦Ĺà¦°
à¦Ĺ à¦Ń
Ġà¦Ĳ à¦¤
à§ ·
à¦¨ à¦ľ
à¦¯ à¦Ń
à¦® à¦ĩ
Ġà¦¸ à¦«à¦²
à¦Ł à¦«
Ġà¦ı à¦ª
à¦ľ à¦ª
à¦ĵ à¦¨
Ġà¦ħà¦ª à¦®
à¦¤à¦¬ à¦¤
Ġà¦ķà¦¨ à¦°
à¦¤ à¦¹
à¦¬ à¦ľà¦¨
Ġà¦¦ à¦¯
Ġà¦Ĺ à¦¤à¦ķ
Ġà¦ľ à§ľ
Ġà¦ıà¦ķ à¦Ĺ
à¦Ļ à¦²
à¦¤à¦° à¦Ł
à¦¬à¦¨ à¦Ł
Ġà¦¸à¦¹ à¦¯
Ġà¦· à¦¡
Ġà¦¶ à¦ĵà¦ķà¦¤
Ġà¦§ à¦°à¦¬
Ġà¦ªà¦° à¦¶
Ġà¦¬à¦¸ à¦¨
Ġà¦¬à§Ł à¦¸
à¦¬ à¦°à¦¤
Ġà¦Ĩ à§Łà¦¨
à¦¡ à¦ķ
à§Ĥ à¦ģ
à¦ī à¦ĩ
Ġà¦ĩ à¦ľ
à¦ĺ à¦£
Ġà¦¸à¦¹ à¦ķ
à¦ªà¦Ł à¦ª
à¦ķ à¦°à¦£
Ġà¦¨ à¦ĸ
Ġà¦® à¦Ľ
à¦ľ à¦Ļ
Ġà¦° à¦ľ
à¦Ń à¦¸
Ġà¦¸à¦® à¦°
Ġà¦¡ à¦²
Ġà¦ĭ à¦£
à¦¨ à¦¶à¦¨
Ġà¦ķ à¦¬à¦°
à¦¸ à¦ĩ
Ġà¦ª à¦Ł
Ġà¦¨ à¦²
à¦ª à¦ľ
à¦¶ à¦¹à¦°
à¦Ĺ à¦¦
Ġà¦ļ à¦°à¦®
Ġà¦ıà¦ķ à¦¦à¦²
Ġà¦Ľ à¦¯
Ġà¦ªà¦° à¦¨
Ġà¦ħà¦¸ à¦Ń
Ġà¦Ĩà¦ķ à¦¸
à¦Ł à¦«à¦°
Ġà¦¨ à§ľ
à¦£ à¦ķ
à¦¬ à¦ľ
Ġà¦Ĩà¦¹ à¦¤
à¦¯ à§Ł
à§ĭ à¦Ĥ
Ġà¦ĵ à¦¸
Ġà¦Ĩà¦Ľ à¦¡
Ġà¦Ĩà¦ķ à¦¬à¦°
Ġà¦ħà¦ļ à¦²
Ġà¦Ĩà¦¶ à¦Ļ
à¦° à¦¥
Ġà¦¸ à¦¹à¦¸
Ġà¦ĵ à¦¸à¦¬
à¦¼à¦¿ à¦Ĥ
Ġà¦§à¦° à¦Ľ
à¦ıà¦ķ à¦ľà¦¨
à§ ©
à§ ¬
Ġà¦Ĩ à¦«à¦¸
à¦Ĺ à¦£
à¦ļ à¦¸
à§Ł à¦¬
Ġà¦ĵ à¦¹
à¦ĺ à¦¦
à¦°à¦ªà¦° à¦ĵ
à¦¤ à¦ĸà¦¨
Ġà¦¬ à¦ŀ
Ġà¦Ĩ à¦¬à¦°
à¦ªà¦ķ à¦¥à¦¨
à¦¯ à¦®à§Ł
Ġà¦ķ à¦®à¦²
à¦Ľ à¦ª
Ġà¦® à¦¦à¦¨
Ġà¦¯ à¦¤à¦ķ
à¦¥ à¦¤
Ġà¦ªà¦° à¦ĩ
Ġà¦ħà¦¥ à¦¬
à¦¯ à¦ĵ
Ġà¦ķ à¦ļ
Ġà¦¨ à¦¬à¦ķ
Ġà¦ħ à¦£
Ġà¦ļ à¦ŀ
Ġà¦ĸ à¦£
Ġà¦®à¦¨ à¦ķ
Ġà¦ªà§ľ à¦¤
à¦¤ à¦ĵ
à¦ķ à¦«
Ġà¦¦ à¦¤
à¦ĸ à¦Ĺ
Ġà¦° à¦¨
Ġà¦ķà¦¤ à¦ķ
à¦ķ à¦ĵ
à¦Ł à¦¹
Ġà¦¤ à¦ķ
à§Ł à¦¤
à¦ĵ à¦²
Ġà¦§ à¦¡
à¦Ĩ à¦¶
à¦Ń à¦®
Ġà¦°à¦ĵ à¦¨
Ġà¦ĸà¦¬à¦° à¦Ł
à§ ®
à¦¤ à¦¨à¦¤
à¦ķ à¦ĸ
Ġà¦¬ à¦Ļ
à¦¸ à¦¡
à§Ł à¦ķ
Ġà¦° à¦¶
Ġà¦¶ à¦¨
Ġà¦ī à§İà¦ķ
à¦¬à¦¨ à¦ķ
à¦°à¦® à¦¹
Ġà¦¬à¦ĩ à¦Ľ
Ġà¦ķà¦¨ à¦¸
à¦² à¦¸à¦¬
à¦¯ à¦Ĺ
Ġà¦¸ à¦¸
à¦¦ à¦¹
Ġà¦ı à¦ľ
à¦¹ à¦¬
Ġà¦ıà¦ķ à¦ĸ
à¦®à¦¨ à¦¸
Ġà¦Ĩà¦ľ à¦®à¦²
Ġà¦ıà¦®à¦¨ à¦Ń
Ġà¦Ĩ à¦Łà¦Ł
Ġà¦¸ à¦¡
Ġà¦® à¦Ļ
à¦Ĺ à¦°à¦£
à¦§ à¦®
Ġà¦¶à¦¹à¦° à¦Ł
Ġà¦Ī à¦¶
à¦® à¦²à¦¤
Ġà¦Ĩ à¦ł
à¦¦ à¦ĩ
Ġà¦ħ à¦¬à¦°
Ġà¦Ĩà¦° à¦ķ
Ġà¦Ĩà¦¬ à¦¹
Ġà¦°à¦ĵà¦¶à¦¨ à¦ķ
à¦² à¦¶
à¦® à¦Ń
Ġà¦ľ à¦Ĺ
Ġà¦¸à¦¬ à¦Ł
Ġà¦Ĩà¦¸ à¦¨
Ġà¦Ŀ à§ľ
Ġà¦ħà¦¬ à¦ļ
à¦Ĩ à¦ĩ
Ġà§ ª
Ġà¦ªà¦¦ à¦ļ
à¦¸à¦® à§Ł
Ġà¦Ĩà¦ļ à¦°à¦£
Ġà¦¤à¦¤ à¦ĩ
à¦² à¦°
Ġà¦Ĩ à¦¹à¦®
Ġà¦¨ à¦Ł
Ġà¦¶ à¦¯
à¦Ļ à¦¨
Ġà¦ħà¦¨ à¦¬à¦°à¦¤
Ġà¦Ĩà¦Ĺ à¦®à¦¨
Ġà¦ıà¦¤ à¦ĩ
à¦¡ à¦¬
à¦¡ à¦Ĺ
à¦¶ à¦¸
Ġà¦¸à¦® à¦¨
Ġà¦¸à¦¹ à¦ķà¦°
Ġà¦ķ à§ľ
à¦ĸ à¦®
Ġà¦ıà¦ķ à¦ķ
à¦ī à¦¬
Ġà¦Ŀ à¦°à¦Ľ
Ġà¦Ŀ à¦Ĺà¦¡
à¦ı à¦¸à¦¬
à¦Ĩ à¦¬
à¦Ĩ à¦ª
Ġà¦īà¦ª à¦¹
ĠĠčĊ Ġč
Ġà¦¥à¦° à¦¥à¦°
à¦¬ à¦®
Ġà¦¸ à¦¦à¦¸
à¦ĩ à¦ĩ
à¦ª à¦ĩ
à¦¹ à¦ķ
à¦ł à¦¶
Ġà¦ĵ à¦Ń
Ġà¦ªà¦° à¦ªà¦°
à¦ı à¦®à¦¨
Ġà¦Ĩà¦¨ à¦Ľ
Ġà¦ĺà¦Ł à¦²
à¦ªà¦ķ à¦¦
Ġà¦¦à¦¶ à¦ķ
Ġà¦ķà¦¦ à¦¬
à¦° à¦Ĺà¦¤
Ġà¦ª à¦£
à¦ª à¦Ļ
à¦ľ à¦ĩ
à¦¡ à¦Ł
à¦¶ à¦Ŀ
Ġà¦Ľ à¦¦
Ġà¦¡ à¦Ĺ
Ġà¦ıà¦®à¦¨ à¦ĩ
à¦ħ à¦²
à¦Ĺà¦ľ à¦Ł
Ġà¦¬à¦ī à¦¯
Ġà¦īà§İà¦ķ à¦£
à¦¤ à¦²à¦¤
à¦¬ à¦Ľà¦°
à¦¦ à¦ĵ
à¦¶ à¦ĩ
à¦¶ à¦Ĺ
Ġà¦ħ à¦¯
Ġà¦ĵ à¦®
Ġà¦ĵ à¦ľà¦¨
Ġà¦ĺ à§ľ
Ġà¦ªà¦° à¦ĵ
Ġà¦ĩ à¦¦
Ġà¦ľà¦¨ à¦¤
Ġà¦ħà¦¬ à¦¹
Ġà¦Ĩ à¦ĸ
à¦ĸ à¦¬à¦°
à¦ļ à¦°à¦£
à¦· à¦°à¦Ĺ
Ġà¦ĵ à¦¡
à¦ľà¦¨ à¦ĩ
à¦°à¦£ à¦¤
à¦ĺ à¦¡
Ġà¦Ĭ à¦°
à¦² à¦ĵ
à¦¬ à§Ł
à¦¸ à¦ĵ
à¦¸ à¦°à¦£
à¦¦ à¦°à¦ľ
Ġà¦® à¦Ĺ
Ġà¦¹ à¦Ł
à¦¡ à¦¸
à¦Ĺ à¦Ĺ
à¦§ à¦Ł
à¦Ń à§Ł
Ġà¦¹à¦² à¦¦
à¦Ĺà¦ľ à¦ªà¦¤
Ġà¦®à¦¸ à¦ľ
Ġà¦ħ à¦°à¦¬
Ġà¦Ń à¦Ĺ
à¦ĵ à¦¤
Ġà¦Ŀ à¦°à¦¨
à¦ı à¦¸
Ġà¦ľà¦² à¦°
à¦ķ à¦°à¦ķ
à¦· à§Ł
Ġà¦² à¦°
Ġà¦¡ à¦¯
Ġà¦¹à¦¤ à¦Ńà¦®
à¦Ĩà¦ľ à¦ķ
Ġà¦ļ à¦ĵà¦¡
Ġà¦ī à¦ķ
Ġà¦ī à¦§
à¦¤à¦° à¦ķ
Ġà¦ħà¦° à¦¨
Ġà¦¬à¦ĩ à¦Ł
Ġà¦ķ à¦¤à¦¬
Ġà¦¤ à¦°à¦²
à¦¡ à¦®
à¦Ĺ à¦ŀ
à¦· à¦ĩ
à¦Ń à¦Ļ
à¦¤à¦° à¦£
Ġà¦¡ à¦ķ
à¦¬à¦° à¦Ł
Ġà¦ªà§ľ à¦¬
à¦ªà¦ķ à¦¥
à¦ļà§Ł à¦¤
à¦¬ à¦°à¦£
à¦¬ à¦ķà¦Ł
à¦Ł à¦ĵà§Ł
Ġà¦¶ à¦¸
Ġà¦¶ à¦ĸ
Ġà¦ł à¦ķ
Ġà¦ªà¦¥ à¦ļà¦²
Ġà§ ©
à¦² à¦Ĺà¦°
à¦¯ à¦ķà¦°
Ġà¦¦ à¦Ĺ
Ġà¦¤ à§İà¦ķ
à¦· à¦Ĺ
à¦¹ à¦¨à¦¬
Ġà¦§ à¦¸
Ġà¦¬à¦ĩ à¦¤
Ġà¦ĭ à¦¤
à§ ¯
à¦¨ à¦Ŀ
à¦¤ à¦ļ
à¦Ł à¦ĵà¦¯
Ġà¦¨ à¦Ń
à¦¦ à¦¦
à¦ĵ à¦ĩ
à§ľ à¦¤
à¦ľà¦¨ à¦¤
à¦°à¦¸ à¦°
à¦ħ à¦ªà¦°
à¦²à¦Ľ à¦²
Ġà¦Ĳ à¦ķ
à¦° à¦¡
à¦² à¦¡
à¦® à¦ĵ
à¦Ł à¦¦
à¦¸ à¦ªà¦¤
Ġà¦¦ à¦«
Ġà¦¹ à¦ĩà¦²
à¦ª à¦¶
Ġà¦ħ à§Łà¦¨
Ġà¦ªà¦° à¦ķ
Ġà¦®à¦¤ à¦ĩ
à¦°à¦£ à¦®à¦¯
Ġà¦Ĳ à¦¶
Ġà¦¬à¦ī à¦Ł
Ġà¦Ŀà¦° à¦Ŀà¦°
Ġà¦ª à¦ļ
Ġà¦Ń à¦ķ
Ġà¦ıà¦ķ à¦¥
Ġà¦Ĩà¦° à¦¬
Ġà¦ĵ à§Ł
Ġà¦®à¦¨ à¦¤
à¦Ĩ à¦ĩà¦¨
Ġà¦ĺà¦Ł à¦¬
Ġà§¨ à§¦
à¦° à¦·
à¦¸ à¦Ĺ
à¦¸ à¦Ń
à¦¶ à¦Ń
Ġà¦ħ à¦·
à¦ļ à¦®
Ġà¦° à¦ľà¦¨
Ġà¦Ľ à¦²à¦Ľà¦²
à¦Ń à¦²à¦Ń
à¦°à¦¤ à¦²
à¦« à¦¤
Ġà¦Ł à¦²à¦®à¦²
Ġà¦Ĩà¦¶ à¦ª
Ġà¦īà¦¦ à¦¯
Ġà¦¯à¦¤ à¦¦
Ġà¦Ī à¦°
Ġà¦ľà¦Ĺ à§İ
à¦ķ à¦¯
Ġà¦¬ à¦Łà¦¬
Ġà¦Ĩ à¦ĩà¦¡
Ġà¦¦ à¦¸
Ġà¦ı à¦°à¦ĩ
Ġà¦Ĺ à¦¯
Ġà¦² à¦¸
Ġà¦ī à¦ĩà¦²
Ġà¦ªà¦° à¦²
à§ľ à¦Ľ
Ġà¦Ĩà¦¸ à¦Ĺà¦°
ĠĠ Ġ
à¦ħ à¦®
à¦¨ à¦®à¦¨
à¦¯ à¦ĸà¦¨
à¦¸ à¦ĺ
Ġà¦ı à¦Ľ
à¦ĸ à¦¦
à¦§ à¦²
Ġà¦² à¦£
à¦« à¦¡
Ġà¦¸à¦® à¦Ĺ
à¦ħ à¦ļ
à¦¸à¦² à¦®
à¦¯ à¦®à¦¨à¦¸
Ġà¦¬ à¦®
Ġà¦¸ à¦²
Ġà¦¹ à¦ĵ
à¦ª à¦¶à¦¨
Ġà¦ħ à¦¡
à¦· à¦¨
à§Ł à¦¸
Ġà¦° à¦¹
Ġà¦ī à¦°
Ġà¦Ĩà¦² à¦Ĺ
à¦ıà¦ĩ à¦ļ
à¦¯ à¦ľ
à§ģ à¦Ĥ
à¦® à¦«
Ġà¦¬ à¦ªà¦¨
à¦Ł à¦Ń
Ġà¦® à¦°à¦¤
Ġà¦® à¦¹à¦²
à¦ĸ à¦ļ
à¦ĸ à¦£
à¦ĺ à¦ķ
Ġà¦ľà¦® à¦¶
à¦ Ĳ
à¦° à¦¸à¦¬
à¦¨ à¦ĸ
Ġà¦Ĩ à¦¹à¦¸
Ġà¦Ĩ à¦īà¦Ł
Ġà¦¨ à¦°
Ġà¦° à¦¥
Ġà¦¶ à¦®
à¦Ń à¦ķ
Ġà¦ĺ à¦·
à¦ı à¦Ĺ
Ġà¦ķ à¦Ļ
à¦Ł à¦ĵ
Ġà¦¨ à¦ĵ
à¦ĩ à¦¸à¦¬
Ġà¦¦ à¦®à¦ķ
à¦Ĺ à¦ª
Ġà¦ıà¦ķ à¦ľ
à¦ł à¦°
Ġà¦« à¦¯
Ġà¦Ł à¦²
à¦ī à¦¶à¦¨
Ġà¦ Ķ
Ġà¦ķ à¦¦à¦®
à¦ĩ à¦ĸ
à¦ĩ à¦ĵ
Ġà¦ı à¦·
à¦§ à¦¸
à¦¹ à¦Ł
Ġà¦¥ à¦²
Ġà¦« à¦Łà¦ķ
Ġà¦« à¦ľà¦²
à§ľ à¦ķ
à¦°à¦£ à¦Ł
Ġà¦Ŀ à¦¨à¦Ŀ
à¦ı à¦¤
à¦Ĩ à¦¸
à¦ħ à¦Ń
Ġà¦Ĩà¦« à¦ľ
à¦¤à¦ĸà¦¨ à¦ĩ
à§ĩ à¦¾à¦ģ
à¦¯ à¦¹
Ġà¦¸ à§İ
Ġà¦ı à¦ŀ
à¦Ĺ à¦ĩ
à¦· à¦ª
Ġà¦ĵ à¦¸à¦®
Ġà¦§ à¦¬
à¦¨à¦¬ à¦ľ
Ġà¦Ŀà¦¨à¦Ŀ à¦¨
à¦² à¦¹
à¦¤ à¦ĸ
à¦¤ à¦¡
Ġà¦ı à¦«
Ġà¦Ĺ à¦¦
Ġà¦Ĺ à¦¹à¦¨
à¦ļ à¦¶
Ġà¦° à¦¡
Ġà¦ıà¦ķ à¦°à¦ķà¦®
à¦Ļ à¦Ľ
à§ľ à¦²
à¦ķà¦Ł à¦ķ
à¦ĩà¦² à¦Ł
Ġà¦ķà¦ĸà¦¨ à¦ĩ
Ġà¦¦à¦® à¦¬à¦¨
à¦° à¦Ļ
à¦® à¦ŀ
à¦® à¦ķà¦°
à¦¸ à¦¯
Ġà¦¨ à¦Ĺ
Ġà¦® à¦°à¦¬
Ġà¦¹ à¦ĩà¦Ľ
à¦ª à¦Ŀ
à¦· à§İ
Ġà¦² à¦Ļ
Ġà¦ĸ à¦Ł
à¦°à¦¤ à¦®
à¦¬à¦¨ à¦¯
Ġà¦Ŀ à¦Ł
à¦ı à¦ķà¦¬
à¦ķà¦² à¦®
Ġà¦¹à¦¤ à¦¬
à¦ĩà¦¨ à¦Ĺ
à¦ħ à¦ª
Ġà¦īà¦ª à¦¦
Ġà¦ĺà¦Ł à¦¤
Ġà¦ıà¦ķà¦¸ à¦®à§Ł
ĠĠĠĠ ĠĠĠĠ
à¦ķ à¦Ĩà¦ª
à¦Ł à¦¬à¦²
à¦ĸ à¦®à¦¯
à¦¶ à¦«
à§Ł à¦¦
à§ľ à¦¨
à¦¬à¦² à¦²
à¦ĩà¦¨ à¦Ł
Ġà¦¯à¦ĸà¦¨ à¦ĩ
Ġà¦ħà¦ªà¦° à¦ķ
Ġà¦ķà¦¨ à¦«
Ġà¦§à¦¬ à¦§à¦¬
à¦¨ à¦¡
à¦² à¦¬à¦¨
Ġà¦¦ à¦®à¦¨
Ġà¦¤ à¦¤à¦Ł
à¦§ à¦Ľ
Ġà¦Ĩà¦® à¦Ĺ
à¦Ń à¦Ł
à¦Ļ à¦¬
Ġà¦ĵ à¦°à¦ķà¦®
Ġà¦ħà¦¬ à¦ķ
Ġà¦Ĩà¦¬ à¦°à¦£
Ġà¦ľà¦® à¦¤
Ġà¦ķà¦² à¦°à¦¬
Ġà¦¬à¦ĩ à¦Ĺ
Ġà¦ıà¦ķà¦ľà¦¨ à¦ķ
Ġà¦ħà¦Ĺ à¦£
Ġà§§à§¯ à§Ń
à¦¨ à¦«
Ġà¦ı à¦ĵ
Ġà¦¤ à¦«
Ġà¦¤ à¦°à¦ķ
à§Ģ à¦Ĥ
Ġà¦ħ à¦Ŀ
à¦¹ à¦ķà¦°
Ġà¦ıà¦ķ à¦ıà¦ķà¦Ł
à¦£ à¦ļ
à¦£ à¦ªà¦£
Ġà¦² à¦¬à¦£
Ġà¦ıà¦ĩ à¦ĸ
à¦ı à¦¦
à¦¨à¦ĵ à¦¦
Ġà¦ħà¦¤ à¦ıà¦¬
à¦ħ à¦§
Ġà¦¨à¦¬ à¦ľ
Ġà¦Ī à¦·à§İ
à¦° à¦¹à¦¸
à¦² à¦ıà¦ĩ
à¦¯ à¦°à¦¸
à¦® à¦ĺ
à¦Ľ à¦ķ
à¦¡ à¦ª
à¦¡ à¦¶
Ġà¦¶ à¦¤à¦ķ
à¦£ à¦Ń
Ġà¦ī à¦ĩ
à¦ħ à¦¤
à¦ħ à¦¦
à¦ħ à¦¨à¦¨
Ġà¦ĩà¦¤ à¦¸
Ġà¦ĩà¦¨ à¦«
Ġà§§à§ ¨
Ġà¦ĸà¦¸ à¦ĸà¦¸
à¦° à¦Ŀ
à¦° à¦ĺ
Ġà¦ı à¦Ĩà¦ĩ
à¦Ĺ à¦łà¦¨
Ġà¦Ń à¦Ĺà¦¬
Ġà¦ıà¦ķ à¦¤à¦²
Ġà¦² à¦¬
à¦ł à¦Ł
Ġà¦ĸ à¦°
à¦°à¦¤ à¦¬à¦°
Ġà¦®à¦¨ à¦¨
Ġà¦Ł à¦ķà¦Łà¦ķ
à¦ī à¦Ĺ
Ġà¦Ĩà¦Ľ à§ľ
Ġà¦ıà¦ĩ à¦ľà¦¨
à¦Ĩ à¦¨à¦¨
à¦°à¦ªà¦° à¦ĩ
Ġà§ §
Ġà§ «
Ġà¦ĩà¦¨ à¦ľ
à¦° à¦ªà¦¤
à¦¤ à¦¯
à¦¤ à¦ķà¦¤
à¦¸ à¦ĸ
à¦ĩ à¦°à¦ķà¦®
à¦¦ à¦£
Ġà¦¹ à¦¸
Ġà¦Ń à¦Ł
Ġà¦Ń à¦°à¦¤
Ġà¦ıà¦ķ à¦Ŀ
à¦£ à¦®
Ġà¦Ľ à¦¤
Ġà¦Ľ à¦ķ
Ġà¦ī à¦Ńà¦¯
Ġà¦§ à¦ķ
à¦ī à¦¤
à¦ī à¦ļ
Ġà¦ıà¦ĩ à¦¬
Ġà¦ĩ à¦¸à¦²
Ġà¦ĩ à¦ĵà¦°
à¦°à¦¸ à¦¨
Ġà¦Ĩà¦¨ à¦®à¦¨
à¦¦à¦° à¦Ł
à¦ħ à¦¬à¦¶
Ġà¦¨à¦® à¦¸
à¦®à¦Ľ à¦®
à¦¤ à¦¶
à¦ķ à¦ĸà¦¨
Ġà¦¸ à¦°à¦¸
Ġà¦¸ à¦¦à¦°
Ġà¦° à¦¤
à¦§ à¦¦
Ġà¦ľ à¦²à¦ķ
Ġà¦ľ à¦®à¦²
Ġà¦Ľ à¦®à¦Ľà¦®
Ġà¦ĵ à¦²
à¦Ŀ à¦Ľ
ĠĠ Ġč
Ġà¦ªà¦¥ à¦Ł
Ġà¦ľà¦® à¦Ľ
Ġà¦ľà¦² à¦ª
Ġà¦ľà¦² à¦ľ
à¦ħ à¦«
Ġà¦īà¦ª à¦Ń
Ġà¦ªà¦¦ à¦§
à¦ķ à¦ľ
à¦¬ à¦ĵ
à¦® à¦ĸ
Ġà¦¸ à¦ĩ
Ġà¦¨ à¦ķà¦²
Ġà¦ı à¦¨à¦ķ
Ġà¦¤ à¦ª
à¦Ĺ à¦¸
Ġà¦Ĺ à¦łà¦¨
à¦ļ à¦¦
à¦ļ à¦ľà¦¨
à§Ł à¦²
Ġà¦¶ à¦ª
à¦ĵ à¦¦
à¦£ à¦°
Ġà¦² à¦Ĺ
Ġà¦ī à¦ĩà¦¨
Ġà¦Ł à¦ª
à¦ªà¦° à¦ķ
Ġà¦ıà¦ĩ à¦®
Ġà¦Ĺà¦² à¦¦
Ġà¦ķà¦² à¦Ļ
Ġà§ Ń
Ġà¦¬à¦ī à¦ķ
Ġà§§à§ Ń
à¦² à¦Ļ
à¦¬ à§ľ
Ġà¦ķ à¦²à¦¤
Ġà¦ķ à¦ĩà¦°
Ġà¦¬ à¦¦à¦°
Ġà¦¸ à¦«
Ġà¦¸ à¦¶à¦¸
à¦£ à¦ª
Ġà¦ī à¦¹
à¦Ŀ à¦ªà¦¥
à¦¤à¦° à¦Ļ
Ġà¦ļà¦² à¦¨
à¦¬à¦² à¦®
Ġà¦ħà¦¬ à¦ľ
à¦Ĩ à¦¨
à¦Ĩ à¦¡
à¦°à¦® à¦¹à¦²
Ġà¦ķà¦¤ à¦Ĺ
à¦·à¦ķ à¦¦
Ġà¦Ńà§Ł à¦Ļ
à¦ķà¦ľà¦¨ à¦ķ
à¦°à¦®à¦¶ à¦ĩ
Ġà¦ķ à¦ªà¦Ł
à¦® à¦¹à¦²
Ġà¦ª à¦Ļ
à¦ª à¦ĵ
à¦ľ à¦Ĺà¦¤
à¦¶ à¦ªà¦¥
Ġà¦¯ à¦®
à§Ł à¦°
à¦¹ à¦Ń
à¦£ à¦Ł
Ġà¦« à¦¡
Ġà¦§ à¦°à¦£
à¦« à¦ķ
à¦« à¦²à¦¨
à§ľ à¦¬
Ġà¦Ł à¦¹à¦²
Ġà¦ıà¦ĩ à¦°à¦ķà¦®
Ġà¦ĩ à¦¨à¦²
à¦¬à¦² à¦ĩ
Ġà¦ªà¦¥ à¦ļ
Ġà¦ħà¦ľ à¦¯
Ġà¦ħà¦¶ à¦°
Ġà¦īà§İ à¦ª
ĠĠčĊ ĠĠĠč
à¦° à¦¬à¦¨
à¦° à¦ŀ
à¦Ł à¦ĩ
à¦¸ à¦¶
Ġà¦ª à¦¤à¦¨
à¦¦ à¦ªà¦¤
à¦¦ à¦°à¦®à¦¹à¦²
Ġà¦® à¦Ĺà¦ľ
Ġà¦® à¦ĵà¦²
Ġà¦¹ à¦¦
à¦ª à¦ª
à¦ľ à¦ªà¦¥
à¦ľ à¦ĸà¦¬à¦°
à¦¶ à¦Ľ
Ġà¦ļ à§ľ
Ġà¦¶ à¦¶
Ġà¦ıà¦ķ à¦§
Ġà¦Ľ à§Ł
Ġà¦« à¦°à¦¸
Ġà¦ĵ à¦¨
à¦« à¦¨
à¦ī à¦£
Ġà¦¸à¦¬ à¦¸à¦®à§Ł
Ġà¦Ĩà¦¶ à¦«
à¦ħ à¦ľ
à¦®à¦¹ à¦¤
à§§à§ Ń
Ġà¦¹à¦ķ à¦ļà¦ķ
à¦¨ à¦Ńà¦°
à¦¤ à¦Ńà¦°
Ġà¦¬ à¦¦à¦®
Ġà¦¸ à¦«à¦Ł
à¦ĩ à¦Ĺ
à¦ľ à¦ķà¦°
à¦¶ à¦¹
à¦¶ à¦ĵ
à¦¶ à¦Ļ
à¦Ĺ à¦ķ
à¦Ĺ à§ľ
Ġà¦° à¦ļ
à¦Ń à¦¦
à¦Ļ à¦°
Ġà¦Ł à¦ªà¦ķ
Ġà¦¸à¦® à¦¬
à¦ªà¦° à¦¬à¦°
Ġà¦ıà¦ĩ à¦Ń
Ġà¦Ĩà¦¸ à¦®
à¦¬à¦¨ à¦¬
à¦¬à¦° à¦ĩ
Ġà¦¸à¦¤ à¦¤
Ġà¦ľà¦² à¦¬
Ġà¦īà¦ª à¦¯
Ġà¦ĺà¦Ł à¦Ľ
Ġà¦ĩà¦¨ à¦¸
Ġà§§à§¯ à§ª
â Ģ
à¦° à¦ĵà¦¯
à¦² à¦ıà¦ķ
à¦ķ à¦·
à¦ķ à¦°à¦¬
à¦¯ à¦ľà¦¨
Ġà¦ķ à¦ľà¦¨
à¦® à§ľ
à¦® à¦¸à¦®
Ġà¦Ĩ à¦·
à¦¸ à¦°à¦ķ
Ġà¦ª à¦Łà¦²
Ġà¦¨ à¦¸
Ġà¦¤ à¦®
à¦ª à¦¬à¦¯
à¦¶ à¦¬à¦¨
Ġà¦ħ à¦ĩ
Ġà¦¯ à¦¤à¦¬
à¦· à¦ľ
à¦· à¦ľà¦¨
à¦§ à¦¶
Ġà¦Ń à¦ľ
Ġà¦ıà¦ķ à¦«
à¦ĵ à§ľ
Ġà¦Ľ à¦²
Ġà¦ĸ à¦¨
Ġà¦§ à§ľ
Ġà¦ªà¦° à¦¬
Ġà¦¸à¦® à¦¤
à¦¬à¦¨ à¦®
à¦¬à¦° à¦¹
Ġà¦ľà¦¨ à¦¸
à¦ķà¦° à¦¦
Ġà¦ħà¦¬ à§Łà¦¬
à¦§à¦ķ à¦¤
à¦°à¦¶ à¦¸
à¦ħ à¦¸
Ġà¦ħà¦ľ à§Ł
Ġà¦¶à¦° à§İ
Ġà¦®à¦¹ à§İ
à¦¨à¦Ł à¦¨
Ġà¦°à¦ĵà¦¶à¦¨ à¦¦
Ġà¦°à¦ķà¦® à¦ĩ
à¦¨ à¦Ĺà¦°
à¦ķ à¦¬à¦°
Ġà¦ķ à¦¬à¦²
Ġà¦ķ à¦¨à¦ķ
Ġà¦¸ à¦ļà¦²
Ġà¦® à¦¶à¦²
Ġà¦¦ à¦ª
Ġà¦¦ à¦²à¦¬
à¦¡ à¦Ń
à¦¶ à§Ł
à¦ļ à¦¤à¦²
Ġà¦ıà¦ķ à¦ļ
Ġà¦² à¦ŀ
Ġà¦ĸ à¦¤
Ġà¦ħà¦¨ à¦¡
Ġà¦Ł à¦¨à¦Łà¦¨
à¦ī à¦ł
Ġà¦Ĩà¦¸ à¦°
à¦°à¦ķ à¦¨
Ġà¦ħà¦¬ à¦¸à¦°
à¦Ĩ à¦¦
à¦Ĺà¦² à¦Ł
à§Ī à¦ĥ
Ġà¦ľà¦® à¦ľà¦®
à¦¤à¦ķ à¦¡
à¦Łà¦¬ à¦ĩ
Ġà¦ħà¦² à¦¸
Ġà§§à§ ¦
à¦Łà¦® à¦¹à¦²
à§Ŀ à¦¤
Ġà¦ªà¦Ł à¦Ń
à¦² à¦ªà¦¤
à¦¬ à¦ļà¦¨
Ġà¦¬ à¦Ĺà¦²
Ġà¦¸ à¦ĸ
à¦Ľ à¦¤à¦²
Ġà¦® à¦°à¦£
Ġà¦ı à¦ľà¦¨
à¦ĸ à¦¡
à¦ľ à¦§
à¦· à¦ĵ
à¦· à¦ķà¦°
Ġà¦° à¦®à¦£
à¦¥ à¦¸
Ġà¦ĩ à¦¸à¦°
Ġà¦ĩ à¦®à¦ª
Ġà¦Ŀ à¦Łà¦ķ
à¦Ĩ à¦¸à¦²
Ġà¦ĺà¦° à¦Ĺ
Ġà¦ħà¦ª à¦²à¦ķ
Ġà¦ħà¦§ à¦°
Ġà¦ķà¦® à¦¬
Ġà¦Ĺà¦Ń à¦°
Ġà¦ķà¦¬ à¦ľ
à§¦ à§¦
à§« à§Ń
Ġà¦¦à¦Ĺ à¦¦à¦Ĺ
à¦¤ à¦«
à¦ķ à¦§
à¦¯ à¦¶
à¦¯ à¦ľà¦¨à¦ķ
à¦¬ à¦Ĺ
à¦¬ à¦¤à¦¨
Ġà¦¬ à¦¶
Ġà¦Ĩ à¦ªà¦¡
Ġà¦Ĩ à¦ĩà¦¸
Ġà¦¸ à¦ľà¦²
Ġà¦® à¦ķà¦¬
Ġà¦¦ à¦£
à¦ľ à¦¡
à¦ľ à¦ĵ
Ġà¦ħ à¦¯à¦¥
Ġà¦Ĺ à¦«
à¦· à¦ªà¦°
Ġà¦Ń à¦°à¦ª
à¦¥ à¦¹
à¦¹ à¦ĩ
Ġà¦ĸ à¦¦
Ġà¦¸à¦¬ à¦ľ
à§İ à¦¸à¦¬
à¦¬à¦° à¦²
Ġà¦Ĩà¦Ĺ à¦²
Ġà¦ļà¦² à¦®
à¦Ĩ à¦¯
Ġà¦ıà¦¤ à¦Ĺ
à¦ħ à¦¬
Ġà¦ķà¦® à¦°
Ġà¦īà¦ª à¦ªà¦¤
à¦ıà¦ķ à¦ĩ
Ġà¦ķà¦²à¦ķ à¦²
Ġà¦¬à¦ī à¦®
Ġà¦¤à¦ªà¦¨ à¦¬
à¦ ĭ
à¦° à¦ļà¦²
à¦¨ à§Łà¦¨
à¦² à¦®à¦¨
à¦² à¦ķà¦Ł
Ġà¦Ĩ à¦¦à¦²
Ġà¦¸ à¦¯
Ġà¦¨ à¦°à¦ķ
à¦ĩ à¦ŀ
à¦¦ à¦®à¦¯
à¦ļ à¦Ĺ
Ġà¦ıà¦ķ à¦¯
Ġà¦² à¦¯
à¦Ń à§İà¦¸
Ġà¦« à¦£
Ġà¦ī à¦¯
Ġà¦§ à¦ª
à¦¬à¦¨ à¦ĩ
Ġà¦Ŀ à¦°à¦¤
à¦ķà¦° à¦¶
à¦Ĩ à¦¤
Ġà¦ĵà¦ł à¦²
à¦¯à¦¬ à¦¯
Ġà¦¸à¦¹ à¦ª
Ġà¦¶à¦¹ à¦°à¦¤à¦²
Ġà¦Ĩà¦§ à¦ĺà¦£
à¦ķà¦¸ à¦ĩ
Ġ à§ĩ
à¦¨ à¦¬à¦¨
à¦¨ à¦ı
à¦¨ à¦Ĩà¦®
à¦ķ à§Ł
à¦ķ à¦¹
à¦¯ à¦ļ
à¦¯ à¦Ļ
Ġà¦¬ à¦£
Ġà¦¬ à¦°à¦£
Ġà¦¬ à¦¹à¦®
à¦¸ à¦ķà¦²
Ġà¦® à¦ľà¦¬
Ġà¦¦ à¦ĩ
Ġà¦¹ à¦ľ
Ġà¦¹ à¦ĩà¦ļ
à¦ĸ à¦ľ
à¦ĸ à¦®à¦£
à¦ľ à¦Ń
à¦¡ à¦¹
à¦¶ à¦§
Ġà¦ļ à¦¬
à§Ł à¦Ń
à¦§ à¦ĵ
Ġà¦ıà¦ķ à¦¨
Ġà¦² à¦ĺ
à¦Ń à¦°à¦¤
Ġà¦« à¦ĸà¦°
Ġà¦ī à¦Ńà§Ł
Ġà¦ĸ à¦ļ
Ġà¦ħà¦¨ à¦²
à§İ à¦¸à¦°
Ġà¦ĩ à¦īà¦°
à¦°à¦£ à¦¨
à¦ı à¦²
Ġà¦ľà¦¨ à¦®
Ġà¦ľà¦¨ à¦Ĺà¦£
Ġà¦ħà¦¬ à¦¤
à¦²à¦ķ à¦²
à¦¤à¦¬ à¦¡
à¦¯à¦¬ à¦§
Ġà¦ķà¦® à¦ª
à¦¯à¦¤ à¦®
Ġà§ ¯
à¦Ŀà¦² à¦®à¦²
Ġà¦ĺà¦¨ à¦ĺà¦¨
Ġà¦ħà¦¬à¦² à¦®
Ġà¦Łà¦² à¦Łà¦²
à¦¨ à¦¸à¦¬
à¦¨ à¦ıà¦ĩ
à¦¤ à¦ļà¦°
à¦ķ à¦²à¦ķ
à¦® à¦ĵà¦¯
Ġà¦¸ à¦«à¦°
à¦¸ à¦ļ
à¦Ľ à¦¡
Ġà¦® à¦ľà¦¨
Ġà¦¹ à¦°à¦«
Ġà¦ľ à§Łà¦¨
à¦£ à¦Ĺ
Ġà¦Ĩà¦° à¦¨
à¦Ń à¦²
Ġà¦ĸ à¦²
Ġà¦ĺ à¦°à¦¬
à¦°à¦¬ à¦£
Ġà¦ķà¦°à¦² à¦ķ
Ġà¦Ĩà¦ľ à¦¬
Ġà¦Ĩà¦Ĺ à¦¨
Ġà¦¬à¦¸ à¦Ľ
Ġà¦ľà¦¨ à¦ª
à¦Ĩ à¦Ł
à¦Ĩ à¦ļ
à¦Ĩ à¦°à¦ľ
à¦°à¦® à¦§
à¦¶à¦¨ à¦Ł
Ġà¦ľà¦² à¦¸
Ġà¦īà¦ª à¦²à¦ķ
à¦Ĺà¦¤ à¦®
Ġà§ ¬
Ġà¦ªà¦¦ à¦¬
Ġà¦ĸà¦¸ à¦¡
Ġà¦®à¦¦à¦¨ à¦ķ
à¦² à¦ıà¦ķà¦Ł
à¦ķ à¦¢
Ġà¦¸ à¦°à¦¤
à¦Ł à¦ļ
Ġà¦¨ à¦ľ
Ġà¦¦ à¦²à¦¨
Ġà¦¦ à¦°à¦¦
Ġà¦¤ à¦¡
à¦ĸ à¦ķà¦¦
à¦ľ à¦īà¦¦
à¦ļ à¦ĩ
à¦¹ à¦°à¦¨
à¦¹ à¦ľà¦¨à¦ķ
Ġà¦ıà¦ķ à¦ĺ
à¦£ à¦¸
Ġà¦² à¦Ł
Ġà¦² à§Ł
Ġà¦« à¦ķ
Ġà¦ĸ à¦ª
à¦ī à¦Ń
Ġà¦ıà¦ĩ à¦¤
à¦ĺ à¦Ł
à¦ı à¦¸à¦¬à¦ĩ
à¦ĩà¦² à¦¸
à¦¤à¦¨ à¦Ń
Ġà¦ħà¦ª à¦¬
à¦ħ à¦ķ
Ġà¦īà¦ª à¦ļ
Ġà¦¦à¦² à¦Ł
Ġà§§à§ «
à¦°à¦ĸ à¦°
Ġà§¨ à§¨
Ġà¦ıà¦ķà¦ª à¦²à¦ķ
Ġà¦¸à¦« à¦²à¦¤
à¦ Ī
à¦¨ à¦ıà¦ķ
à¦¨ à¦ıà¦ķà¦Ł
à¦² à¦ĵà¦¯
à¦¬ à¦¦à¦²
Ġà¦ķ à¦¸
Ġà¦ķ à¦¦à¦°
Ġà¦ķ à¦¨à¦Ł
Ġà¦¬ à¦§
Ġà¦¬ à¦ķà¦¬
Ġà¦¸ à¦¯à¦¤
à¦ĩ à¦ĵà¦¯
Ġà¦ħ à¦²à¦ķ
à¦ļ à¦ª
à¦· à¦Ń
à¦¥ à¦ª
Ġà¦Ĩà¦® à¦¤
à¦ł à¦¤
Ġà¦ī à¦¬
Ġà¦ī à¦Ĺ
Ġà¦ħà¦¨ à¦°
Ġà¦ĺ à¦·à¦¤
à§ľ à¦¯à¦¨
Ġà¦¸à¦¬ à¦¥
à¦ľà¦¨ à¦¶
à¦¤à¦° à¦¬
à¦¤à¦° à¦ķà¦®
Ġà¦ĩ à¦°
Ġà¦ĩ à¦ķ
Ġà¦ĩ à¦¨à¦Ł
à¦°à¦ķ à¦°
à¦°à¦ķ à¦Ł
Ġà¦ľà¦¨ à¦¨
Ġà¦ħà¦¬ à¦¸à¦¨
Ġà¦ıà¦®à¦¨ à¦Ł
Ġà¦ħà¦ª à¦Ľà¦¨
Ġà¦¸à¦° à¦²à¦¤
à¦Ĺà¦¤ à¦ķ
Ġà¦¸à¦¹ à¦®à¦°
Ġà¦¦à¦² à¦¬à¦²
à¦¸à¦® à¦¸
Ġà¦ĩà¦¨ à¦Ń
Ġà¦¶à¦¤ à¦¬à¦°
Ġà¦· à§ľà¦¯à¦¨
Ġà¦Ĺà¦£ à¦¤à¦¨
Ġà¦ļà¦Ł à¦ªà¦Ł
à¦ĩà¦ļ à¦°à¦£
à¦² à¦ªà¦¦
à¦¬ à¦°à¦ķ
à¦¬ à¦Ĺà¦¤
Ġà¦¦ à¦¹à¦¨
à¦¡ à¦ļ
à¦¡ à¦«
à¦Ĺ à¦ĵ
Ġà¦¯ à¦¶
Ġà¦¶ à¦°à¦¤
Ġà¦ľ à¦ĺà¦¨
à¦¹ à§Ł
à¦ĵ à¦ķ
à¦£ à¦¹
Ġà¦² à¦¹à¦°
à¦ł à¦ª
Ġà¦« à¦¤
Ġà¦ī à¦ĩà¦¸
à¦« à§ľ
à¦ªà¦° à¦¦
à¦ľà¦¨ à¦¦
Ġà¦ĩ à¦¸à¦®
Ġà¦Ŀ à¦ª
à¦ĺ à¦®
à¦ĺ à§ľ
à¦·à¦£ à¦ĩ
Ġà¦ħà¦¸ à¦¨
à¦Ĺà¦² à¦ª
à¦Ľà¦¨ à¦¦
à¦ĩà¦¨ à¦¬
à¦ĩà¦¨ à¦®
à¦ĩà¦¨ à¦¸
Ġà¦¸à¦° à¦ŀ
Ġà¦ķà¦® à¦Ľ
Ġà¦ķà¦¤ à¦ĸ
Ġà¦¬à¦ĩ à¦ĸ
Ġà§§à§ ®
Ġà¦¤à¦¤ à¦¦
Ġà¦īà§İ à¦¸à¦°
à§« à§¬
Ġà¦Ī à¦¦
Ġà¦°à¦ľ à¦¤à¦ķ
Ġà¦ķà¦¨à¦ķ à¦¨
à§ĩ à¦Ĥ
à¦ķ à¦°à¦¤
à¦¯ à¦ªà¦Ł
Ġà¦ķ à¦Ń
à¦® à¦°à¦ķ
à¦® à¦ļà¦¨
Ġà¦¬ à¦¬
Ġà¦Ĩ à¦ªà¦¸
à¦Ł à¦ľ
à¦Ł à¦¡
à¦ĩ à¦ľà¦²
à¦¦ à¦¯à¦¨
à¦ĸ à¦Ń
à¦ĸ à¦ķà¦°
à¦¶ à¦¡
à¦Ĺ à¦°à¦®
Ġà¦ļ à¦ķà¦²
à¦· à¦¸
à§Ł à¦ĩ
à¦§ à¦ķà¦°
Ġà¦ıà¦ķ à¦ıà¦ķ
Ġà¦² à¦¹à¦®
Ġà¦¥ à¦¤
à¦Ń à¦¨à¦²
Ġà¦ĵ à¦¤
Ġà¦Ł à¦²à¦¤
Ġà¦¸à¦® à¦Ŀ
Ġà¦Ĩà¦² à¦«
Ġà¦¸à¦¬ à¦Ĺ
Ġà¦¸à¦¬ à¦ķà¦Ł
à¦¤à¦° à¦¸
Ġà¦®à¦¤ à¦²à¦¬
Ġà¦ĩ à¦¹
à¦°à¦£ à¦ķ
Ġà¦ıà¦¸ à¦®à¦¯
à¦·à¦£ à¦ķ
Ġà¦ıà¦¤ à¦¬à¦¡
Ġà¦ľà¦² à¦¦
à¦ħ à¦®à¦²
Ġà¦ĵà¦ĩ à¦Ł
Ġà¦ĸà¦¬à¦° à¦¦
Ġà¦¬à¦ī à¦°
à¦·à¦¤ à¦Ĺ
Ġà¦īà¦² à¦Ļ
Ġà§§à§ ª
Ġà¦ľà§Ł à¦Ĺ
Ġà¦¨à§ľ à¦¬à§ľ
à¦Ĳ à¦¤
âĢ ī
à¦ķ à¦¥à¦ķ
à¦¬ à¦ķà¦°
à¦® à¦¸à¦¨
à¦Ł à¦¶
à¦Ł à¦ķà¦Ł
à¦¸ à¦ľ
à¦Ľ à¦Ľ
Ġà¦¨ à¦Ĺà¦¦
Ġà¦¦ à§Ł
à¦ľ à¦¹
Ġà¦ļ à¦£
à¦· à¦ªà¦¥
Ġà¦° à¦ĺ
Ġà¦Ń à¦²
à¦¹ à¦¦
à¦ĵ à¦ľ
à¦£ à¦ĵ
Ġà¦« à¦°à¦®
Ġà¦ĸ à¦Łà¦ķ
Ġà¦ĵ à¦²à¦Ł
Ġà¦ªà¦° à¦ĸ
à¦Ŀ à¦¡
Ġà¦Ł à¦ķ
à¦ī à¦ªà¦¨
Ġà¦¡ à¦¬à¦²
à¦°à¦£ à¦¯
à¦¬à¦° à¦ª
Ġà¦ļà¦² à¦ļ
Ġà¦ıà¦ĸà¦¨ à¦ķ
ĠĠ ĠĠčĊč
Ġà¦ħà¦° à¦«
Ġà¦ľà¦² à¦§
Ġà¦īà¦ª à¦ľ
Ġà¦ķà¦¤ à¦ľà¦¨
Ġà¦¸à¦ķ à¦²à¦ķ
à¦°à¦ĵ à¦¶à¦¨
Ġà¦ħà¦² à¦Ļ
Ġà¦¦à¦¶ à¦®
Ġà¦Ĺà¦® à¦Ĺà¦®
Ġà¦Ĩà§ľ à¦®
Ġà§§à§¯ à§«
à¦°à¦¹à¦£ à¦¯
Ġà¦ıà¦® à¦ı
Ġà¦Ĭ à¦·
à¦ķà¦ĵ à¦¦
Ġà¦§à§ľ à¦«à§ľ
Ġà¦¹à¦ĩà¦ļ à¦ĩ
à¦¾ à§ĩ
à¦° à¦®à¦¨
à¦¨ à¦¸à¦¬à¦ĩ
à¦² à¦§
à¦² à¦Ĩà¦®
à¦¤ à¦¬à¦°
à¦¬ à¦¬à¦°
à¦¬ à¦¦à¦¨
Ġà¦ķ à¦®à¦¤
à¦® à¦¹à¦°
Ġà¦¬ à¦¦à¦¨
Ġà¦Ĩ à¦ĩà¦°
Ġà¦¦ à¦¶à¦¬
Ġà¦ı à¦Ĩ
Ġà¦¹ à¦°à¦¤
Ġà¦¹ à¦ĩà¦¤
Ġà¦¹ à¦ľà¦®
à¦ª à¦¬à¦¤
à¦ĸ à¦ĩ
à¦¶ à¦ľ
à¦¶ à¦ļ
Ġà¦ħ à¦Ĺà¦¤
à¦· à¦¤à¦¬
Ġà¦° à¦Ĺ
à¦§ à¦ª
Ġà¦Ń à¦°à¦²
Ġà¦ľ à¦ĸà¦®
à¦¹ à¦ª
Ġà¦Ĩà¦° à¦¶
à¦Ļ à¦ļ
Ġà¦¸à¦® à¦¤à¦²
Ġà¦Ĩà¦² à¦ªà¦¨
Ġà¦¸à¦¬ à¦¶
Ġà¦¹à¦² à¦ķ
à¦ĺ à¦Ĺ
Ġà¦Ĺà¦² à¦Ĺà¦²
à¦¬à¦² à¦¬
à¦ķà¦° à¦Ł
Ġà¦ħà¦¬ à¦¯
à¦Ĩ à¦§
à¦Ĩ à¦īà¦Ł
Ġà¦ĵà¦ł à¦¬
Ġà¦ħà¦¤ à¦Ł
Ġà¦¬à¦Ľà¦° à¦ĸ
à¦¤à¦² à¦Ł
Ġà¦ķà¦¤ à¦ĩ
Ġà¦ķà¦¤ à¦ķà¦Ĺ
Ġà¦¬à¦ĩ à¦ªà¦¤
Ġà¦¨à§Ł à¦¤
Ġà§ ®
Ġà¦ħà¦ķ à¦ªà¦Ł
Ġà¦¸à¦¹à¦ľ à¦¸
Ġà¦¶à¦¹ à¦°à¦ķ
Ġà¦Ĩà¦¹ à¦¬
Ġà¦ĸà¦¸ à§ľ
Ġà¦°à¦¸ à¦Ĺ
Ġà§ª à§¨
Ġà¦ľà¦²à¦ķ à¦£
à§ Ĺ
à§ĩ à§Ĺ
à¦° à¦¸à¦¬à¦ĩ
à¦¨ à¦ĺ
à¦¨ à¦ªà¦¤
à¦¨ à¦ľà¦¨à¦ķ
à¦² à¦¥
à¦² à¦ĺ
à¦¤ à¦Ĩà¦Ł
à¦ķ à¦¸à¦¬
Ġà¦ķ à¦¤à¦°à¦ķà¦®
à¦® à¦ł
à¦® à¦ªà¦°
à¦® à¦¤à¦¨
à¦® à¦®à¦¤
Ġà¦Ĩ à¦ĩà¦Ł
Ġà¦Ĩ à¦ĩà¦¶
à¦Ł à¦¯
Ġà¦® à¦«à¦¸
Ġà¦¦ à¦°à¦¬
Ġà¦ı à¦°à¦®à¦§
Ġà¦¤ à¦°à¦¬
à¦ĸ à¦ĵ
à¦¡ à¦ľ
à¦¶ à¦¶
Ġà¦ħ à¦ĺ
à¦Ĺ à¦¹
à¦· à¦°à¦£
à¦§ à¦¡
Ġà¦ıà¦ķ à¦Ń
Ġà¦Ľ à¦®
Ġà¦ī à¦¥
Ġà¦®à¦¨ à¦ĸ
à¦¤à¦° à¦ĩ
à¦¤à¦° à¦ª
à¦¬à¦¨ à¦¡
à¦°à¦¬ à¦§
Ġà¦Ĩà¦Ĺ à¦¸
à¦ı à¦¨à¦ľ
à¦®à¦² à¦¬
Ġà¦ľà¦® à¦ķ
Ġà¦ıà¦®à¦¨ à¦ĵ
à¦¨à¦ĵ à¦Ł
à¦¯à¦¬ à¦¦
Ġà¦ķà¦² à¦¸
Ġà¦īà¦¦ à¦Ĺ
Ġà¦īà¦¦ à¦ĺ
Ġà¦ħà¦ľ à¦ª
à¦°à¦ª à¦¥
à¦°à¦ĵ à¦°
Ġà¦ħà¦ªà¦° à¦£
à¦ªà¦¦ à¦¸
Ġà¦¤à¦² à¦¦
Ġà¦¦à¦¶ à¦ľà¦¨
Ġà¦¸à¦®à§Ł à¦ĩ
à¦¸à¦ķ à¦·
à¦Ĺà¦¬ à¦Ĺ
à¦ľà¦® à¦¹à¦²
ĠĠčĊ ĠĠč
à¦łà¦ķ à¦ĸ
Ġà¦°à¦¤à¦¨ à¦ķ
à§§à§ ¨
à§§à§ «
Ġà¦Ĩà¦« à¦¨
Ġà¦¹à¦ľ à¦¸à¦¨
Ġ à§į
à¦° à¦Ĩ
à¦¨ à§Ł
à¦¨ à¦§
à¦¤ à§ľ
à¦ķ à¦Ńà¦°
à§ģ à§į
Ġà¦¬ à§İà¦¸à¦°
à¦Ł à¦ķà¦°
Ġà¦¨ à¦²à¦ķ
Ġà¦¨ à¦¬à¦¬
à¦ĩ à¦ıà¦°
Ġà¦® à¦°à¦²
Ġà¦® à¦¸à¦²
Ġà¦® à¦Ĺà¦Ł
Ġà¦® à§Łà¦¦
Ġà¦ı à¦¹
Ġà¦¤ à¦¬à¦²
à¦ľ à¦¶
Ġà¦ħ à¦¤à¦°
à¦Ĺ à¦¬à¦¨
Ġà¦Ĺ à¦¤à¦°
Ġà¦Ĺ à¦Ĺà¦¨
Ġà¦ļ à¦°à¦£
Ġà¦ļ à¦Łà¦ķ
Ġà¦° à¦Ł
à¦¹ à¦£
à¦¹ à¦°à¦ķ
Ġà¦Ľ à¦²à¦¨
à¦Ń à¦²à¦¬
Ġà¦« à¦¨
Ġà¦« à¦¸
Ġà¦ĸ à¦²à¦¨
Ġà¦ħà¦¨ à¦¬à¦¦
čĊ čĊ
Ġà¦®à¦¨ à¦®
Ġà¦Ł à¦¨
Ġà¦Ł à¦Ĺà¦¬à¦Ĺ
à¦ī à¦ĩà¦¯
à¦®à¦¨ à¦Ł
Ġà¦Ĩà¦² à¦¬
Ġà¦Ĩà¦² à¦¸
à§İ à¦¬
à§İ à¦ªà¦°
à¦ŀ à¦ª
à¦ķà¦° à¦Ń
à¦¬à¦ª à¦¤
à¦Ĩ à¦¹
à¦Ĩ à¦°à¦£
Ġà¦¬à¦¨ à¦Ń
Ġà¦ıà¦¬ à¦¡
à¦Ĺà¦² à¦¦
à¦°à¦ľ à¦¤
à¦¹à¦¸ à¦ĩ
à§İà¦ķ à¦®
à¦ıà¦ķ à¦¸à¦®à¦¯
Ġà§ ¦
à¦Łà¦° à¦Ĺ
Ġà¦¸à¦®à§Ł à¦Ł
à¦ķà¦Ľ à¦Ł
Ġà¦¶à¦¹ à¦°à¦ľ
Ġà¦¦à¦° à¦¦à¦°
à¦¬à¦Ń à¦Ļ
Ġà¦°à¦ľ à¦¤à¦¬
Ġà¦ıà¦ķà¦§ à¦°à¦¨
Ġà¦ ¾
à¦¨ à¦ķà¦²
à¦¨ à¦®à¦¤
à¦¨ à¦¸à¦®
à¦² à¦Ŀ
à¦² à¦Ĩà¦ľ
à¦² à¦Ŀà¦°
à¦¯ à¦°à¦¶
Ġà¦Ĩ à¦ŀ
Ġà¦Ĩ à¦ĩà¦²
Ġà¦¸ à¦Ł
Ġà¦¦ à§ľ
Ġà¦¤ à§ľ
Ġà¦¹ à¦¨à¦¨
à¦ª à¦ŀ
à¦ª à¦¸à¦¬
à¦ĸ à¦²à¦¤
Ġà¦ħ à¦ĸ
à¦Ĺ à¦ł
Ġà¦Ĺ à¦°à¦ľ
à¦ļ à¦²à¦¤
Ġà¦ļ à¦·
à¦· à¦ķà¦¤
à¦§ à¦Ĺ
à¦§ à¦ļ
Ġà¦ľ à¦Łà¦²
à¦¹ à¦¶
à¦¹ à§İ
Ġà¦ıà¦ķ à¦¹
à¦£ à¦«
à¦£ à¦¬à¦¨
Ġà¦¬à¦² à¦¯
Ġà¦¥ à¦ķà¦¥à¦ķ
Ġà¦ĸ à§ľ
Ġà¦ĸ à¦¤à¦®
à¦°à¦¤ à¦ķ
Ġà¦Ł à¦¬
Ġà¦Ł à¦®
Ġà¦Ł à¦ªà¦Łà¦ª
à¦ı à¦°à¦ªà¦°
à¦¨à¦¤ à¦²
Ġà¦ħà¦¸ à¦®à¦¯
à¦²à¦ķ à¦¨
à¦Ĺà¦² à¦¬
Ġà¦¹à¦¤ à¦Ń
Ġà¦ľà¦® à¦¬
à¦¦à¦¨ à¦¶
Ġà¦īà¦¦ à§Ł
Ġà¦¬à¦ĩ à¦ķ
à¦²à¦¨ à¦ķ
à¦²à¦¨ à¦®
Ġà¦¨à§Ł à¦¨
à¦¬à¦¤ à¦ĩ
à¦ıà¦ķ à¦¸à¦Ļ
à¦Łà¦¬ à¦¡
à§İà¦¸ à¦ķ
à¦¬à¦ķ à¦ķ
Ġà¦Ĳ à¦Ł
à¦°à¦Ĺ à¦®
Ġà¦ıà¦ķà¦ĩ à¦Ń
à¦¬à¦¬ à¦Ļ
Ġà¦· à¦·
Ġà¦· à¦£
à¦ĩà¦ľ à¦¡
Ġà¦Ĩà¦ĩ à¦¸à¦ķ
à§§à§ ¯
à¦¬à¦ľà¦¨ à¦¦
Ġà¦®à¦¦à¦¨ à¦¦
Ġà¦ĸà¦Ł à¦ĸà¦Ł
Ġà¦¦à¦²à¦¬ à¦¦
Ġà¦¬à¦ķà¦¬ à¦ķ
Ġà¦¨à¦¬à¦¬ à¦§
à¦¨ à¦®à¦¯
à¦¨ à¦¸à¦¨
à¦¨ à¦®à§Ł
à¦¯ à¦ĸ
à¦¯ à¦¦à¦²
à¦¬ à¦ªà¦¨
à¦¬ à§İ
Ġà¦Ĩ à¦ī
Ġà¦Ĩ à¦«à¦Ł
Ġà¦¸ à¦ļà¦ķ
Ġà¦¸ à§ľà¦ķ
à¦Ľ à§ľ
Ġà¦® à¦ķ
Ġà¦® à¦²à¦®
Ġà¦¦ à¦ªà¦¦
Ġà¦ı à§ľ
Ġà¦ı à¦ĺà¦°
Ġà¦¤ à¦Ľà¦¨
Ġà¦¹ à¦¡
à¦ª à¦¹
à¦ª à¦ķà¦²
à¦ľ à¦ĸ
Ġà¦Ĺ à¦¤à¦¬
à¦§ à¦Ń
Ġà¦Ń à¦¸
Ġà¦ľ à¦ŀ
à¦¥ à¦ķà¦¤
Ġà¦ıà¦ķ à¦ĺà¦£
à¦ĵ à¦Ł
à¦£ à¦¯
Ġà¦ĸ à¦¯
Ġà¦§ à¦ķà¦²
à¦Ŀ à¦¬à¦¯
à¦ī à¦¥
à¦ī à§İà¦¸à¦¬
à¦¤à¦° à¦¦
à¦¤à¦° à¦Ĺ
Ġà¦ĩ à¦°à¦Ĺ
Ġà¦ķà¦°à¦² à¦ª
à¦ĺ à¦¸à¦®à¦¯
à¦ı à¦®
à¦ķà¦° à¦ĵ
à¦¨à¦¤ à¦®
Ġà¦ħà¦¬ à¦¦
à¦²à¦ķ à¦®à¦²
ĠĠ ĠčĊč
à¦°à¦¥à¦® à¦Ł
Ġà¦¤à¦ĸà¦¨ à¦ķ
à¦®à¦² à¦Ń
Ġà¦ªà¦¥ à¦ª
Ġà¦ĵà¦ªà¦° à¦ĩ
à¦¤à¦¬ à¦ķ
à¦ħ à¦ŀ
Ġà¦¬à¦ĩ à¦®
Ġà¦ıà¦° à¦ļ
Ġà¦°à¦ĵà¦¶à¦¨ à¦ĩ
à¦ĩà¦Ł à¦¸
Ġà¦²à¦ķ à¦¡
à¦¦à§Ł à¦Ł
à¦¬à¦ķ à¦¦
à¦¦à¦® à¦¸
Ġà¦Ńà§Ł à¦ķ
à¦ķà¦¶ à¦ª
à¦¶à¦® à¦£
Ġà¦Ĩà¦§ à¦ĸ
à¦®à¦¸ à¦®à¦°
à¦ľà¦¸ à¦ľ
à¦ļà§Ł à¦ĩ
Ġà§§à§¯à§Ń à§§
à¦®à¦ĺ à¦Ł
Ġà¦¦à¦ªà¦¦ à¦ª
Ġà¦¤à¦Ľà¦¨ à¦Ľ
Ġà¦ ¿
à¦° à§İ
à¦° à¦ıà¦ĩ
à¦¨ à¦¥
à¦¨ à¦ªà¦¥
à¦² à¦ľà¦²
à¦² à¦ªà¦¥
à¦² à¦¸à¦¬à¦ĩ
à¦¤ à¦Ŀà¦°
à¦¤ à¦ĺà¦¡
à¦¯ à¦¬à¦°
à¦¬ à¦¸à¦¤
Ġà¦ķ à¦ļà¦ķ
Ġà¦¬ à¦¤
Ġà¦Ĩ à¦Łà¦²
Ġà¦Ĩ à¦Łà¦¨
Ġà¦Ĩ à¦Łà¦ª
Ġà¦Ĩ à¦ĩà¦ļ
Ġà¦Ĩ à¦ĩà¦ľ
à¦¸ à¦ĵà¦¯
à¦¸ à¦¸à¦¬
Ġà¦ª à§Ł
à¦Ľ à¦¦
à¦ĩ à¦¹
à¦ĩ à¦Ŀ
Ġà¦® à¦°à¦Ľ
Ġà¦® à§İà¦¸
Ġà¦¤ à¦Ł
à¦ª à¦ªà¦¤
à¦¡ à¦ĵà¦¯
à¦¶ à¦ķà¦°
à¦¶ à¦¤à¦²
à¦¶ à¦ķà¦¦
à¦¶ à¦§à¦°
Ġà¦Ĺ à¦ª
Ġà¦° à¦®à¦¨
Ġà¦ľ à¦¬à¦°
à¦¥ à¦ĩ
à¦¥ à¦Ń
à¦¹ à¦ľ
Ġà¦Ĩà¦® à¦¬
Ġà¦Ĩà¦® à¦¸
à¦ĵ à¦ĸ
à¦Ń à¦¬à¦¨
Ġà¦« à¦²à¦ķ
Ġà¦ī à¦Ł
Ġà¦ĵ à¦ħà¦°
à¦« à¦ª
à§ľ à¦Ŀ
Ġà¦ıà¦ĩ à¦¯
Ġà¦¡ à¦ľà¦¨
à§İ à¦ļ
Ġà¦ĩ à¦Ń
Ġà¦ĩ à¦®à¦¨
Ġà¦Ŀ à¦Ļ
Ġà¦Ŀ à¦ŀ
à¦ĺ à¦¬
à¦ı à¦°à¦ĩ
à¦ı à¦®à¦ľ
Ġà¦ľà¦¨ à¦ªà¦¦
à¦·à¦£ à¦¸
à¦Ĩ à¦°à¦¤
Ġà¦Ĩà¦ķ à¦¨
Ġà¦ħà¦ļ à¦ŀ
à¦¨à¦ĵ à¦°à¦ķà¦®
à¦¦à¦° à¦¬à¦¨
à¦ħ à¦¥
à¦ħ à¦°à¦£
à¦¨à¦¬ à¦¸à¦Ń
Ġà¦ĵà¦ĩ à¦¸à¦¬
Ġà¦¶à¦° à¦¦
Ġà¦®à¦¹ à¦ķ
à¦·à¦ķ à¦¶
Ġà¦ħà¦ķ à¦¥
Ġà¦¬à¦ī à§Ł
Ġà§§à§ ©
Ġà¦§à¦¨ à¦ŀ
à¦Ĩà¦ľ à¦ĵ
Ġà¦Ĺà§ľ à¦¬
Ġà¦Ĺà¦£ à¦¨
Ġà¦ķà§Ł à¦²
à§§à§ ¦
Ġà¦¹à¦ĩ à¦¹à¦ĩ
Ġà¦īà¦ªà¦ķ à¦£
Ġà¦Ķ à¦ªà¦¨
Ġà§§à§Ń à§«à§¬
Ġà§§à§¯à§ª à§Ń
Ġà¦¨à¦ľ à¦°à¦¦
à¦° à¦ħ
à¦¨ à¦¨à¦¤
à¦¨ à¦ıà¦°
à¦² à¦ı
à¦² à¦ķà¦°
à¦² à¦¨à¦¤
à¦² à¦ıà¦Ł
à¦¯ à¦²
à¦¬ à¦Ļ
à¦¬ à¦¸à¦¨
à¦¬ à¦ĩà¦¯
Ġà¦ķ à¦ļà¦²
à¦® à¦ªà¦¨
à¦® à¦ĵà§Ł
Ġà¦¬ à¦Ĺ
Ġà¦¬ à¦¹à¦°
Ġà¦Ĩ à¦¦à¦®
Ġà¦Ĩ à¦ĵà¦¡
Ġà¦¸ à¦ĩà¦¤
à¦¦ à¦°à¦ķ
à¦¦ à¦ĺ
à¦¦ à¦¸à¦¬
Ġà¦® à¦®
Ġà¦® à¦¥
Ġà¦® à¦ł
Ġà¦® à¦«
Ġà¦ı à¦¶
Ġà¦¤ à¦¤à¦¬
Ġà¦¤ à§İà¦ª
Ġà¦¹ à¦ĩà¦¬
à¦ª à¦ĸ
à¦ª à¦Ĩà¦²
à¦ĸ à¦ª
à¦¡ à¦ĩ
à¦¡ à¦ĵ
à¦¶ à¦ªà¦°
Ġà¦ħ à¦¯à¦¤
à¦Ĺ à¦Ļ
à¦Ĺ à¦®à¦¨
Ġà¦ķà¦° à¦£
à¦· à¦¶
à¦· à¦¹
à¦· à¦Ļ
à§Ł à¦Ł
à§Ł à¦ļ
Ġà¦° à¦£
Ġà¦° à¦ĵà¦¯
Ġà¦¶ à¦¬à¦°
Ġà¦¶ à¦°à¦¬à¦¤
Ġà¦¶ à¦®à¦¶
à¦§ à¦ĩ
à¦¥ à¦ªà¦°
à¦¹ à¦¹
à¦¹ à¦¬à¦§
Ġà¦Ĩà¦® à¦¦
à¦ł à¦¬
à¦ł à¦¦
à¦ł à¦¹
Ġà¦ĵ à¦¬
Ġà¦ĵ à¦®à¦°
Ġà¦§ à¦®
Ġà¦§ à¦®à¦¨
Ġà¦ıà¦ĩ à¦ĩ
Ġà¦ıà¦ĩ à¦ļ
Ġà¦Ĩà¦¸ à¦ķ
à¦¤à¦° à¦ĵ
à¦¬à¦¨ à¦ĵ
Ġà¦ĩ à¦¥
à¦°à¦£ à¦¬
à¦°à¦£ à¦ĩ
à¦°à¦£ à¦ĵ
à¦ĺ à¦°à¦Ł
à¦ı à¦«
Ġà¦ľà¦¨ à¦¸à¦®
Ġà¦īà¦łà¦² à¦ķ
à¦Ĩ à¦§à¦Ł
à¦°à¦¥à¦® à¦¤
à¦°à¦¥à¦® à¦¦
à¦ĸà¦² à¦ª
Ġà¦ªà¦¥ à¦ĩ
à¦ķà¦¤ à¦ķ
Ġà¦ľà¦² à¦Ł
à¦ĩà¦¨ à¦²
Ġà¦¸à¦° à¦¦
à¦ªà¦¤ à¦Ļ
à¦¨à¦¬ à¦¦
Ġà¦īà¦ª à¦¡
Ġà¦¬à¦ĩ à¦¬
à¦°à¦¹ à¦Ł
Ġà¦Ĺà¦¨ à¦Ĺà¦¨
à¦ıà¦ķ à¦¸
Ġà¦°à¦Ļ à¦²
Ġà¦®à¦° à¦ļ
à¦ıà¦ĩ à¦Ń
Ġà¦Ĳ à¦¦
Ġà¦¤à¦² à¦¸
à¦®à¦Ł à¦®
Ġà¦ıà¦ķà¦ĩ à¦¸à¦Ļ
Ġà¦¶à¦¹ à¦°à¦¬
Ġà¦¦à¦® à¦¦à¦®
Ġà¦ħà¦¬à¦¨ à¦¤
à¦ĩà¦¸ à¦Ļ
Ġà¦¨à¦¬ à¦¯
Ġà¦ĩà¦¶ à¦¤
à¦®à¦Ĺ à¦ŀ
Ġà§¨ à§«
Ġà§¨ à§ª
Ġà§¨ à§§
Ġà¦ĩà¦ī à¦ıà¦¸à¦¬
Ġà¦ĩà¦¸à¦®à¦¤ à¦ķ
Ġà¦łà¦ķ à¦łà¦ķ
Ġà¦Ķ à¦¦
ĠĠĠĠĠĠĠĠ ĠĠĠĠĠĠĠĠ
Ġà¦¸à¦«à¦Ł à¦ĵà¦¯
Ġà¦¸à¦«à¦Ł à¦ĵà§Ł
à¦ĭ à¦£
Ġà¦¸à¦¹à¦ľà¦¸ à¦°à¦²
Ġà¦ķà¦ļà¦ķ à¦ļ
à¦ħà¦¥ à¦ļ
Ġà¦¤à§İà¦ª à¦°à¦¤
à¦° à¦ĵà§Ł
à¦° à¦Ĩà¦®
à¦° à¦Ĺà¦°
à¦° à¦ıà¦°
à¦¨ à¦¸à¦°
à¦¨ à¦ıà¦Ł
à¦² à¦¬à¦°
à¦² à¦¸à¦¨
à¦² à¦ıà¦ĸ
à¦¤ à¦°à¦¤
à¦¤ à¦¸à¦¬
à¦¤ à¦¦à¦¨
à¦¯ à¦®à¦¨
à¦¯ à¦¸à¦¬
à¦¬ à¦¶à¦ķ
Ġà¦Ĩ à¦£à¦¬
Ġà¦¸ à¦ĵà¦¯
à¦¸ à¦ıà¦°
à¦¸ à¦¸à¦¬à¦ĩ
Ġà¦ª à¦ª
à¦ĩ à¦²à¦ķ
Ġà¦® à§Łà¦²
Ġà¦¦ à¦¬
Ġà¦¤ à§İà¦ªà¦°
Ġà¦¹ à¦Łà¦²
Ġà¦¹ à¦Łà¦¬
à¦ª à¦Łà¦²
à¦ľ à§ľ
à¦¡ à¦¦
Ġà¦ħ à§Ł
Ġà¦ħ à¦ĺà¦Łà¦¨
à¦Ĺ à¦²à¦ķ
à¦ļ à¦Ļ
Ġà¦ļ à¦°à¦ķ
à¦· à¦§
à§Ł à¦ª
à§Ł à¦¬à¦¦
à¦¥ à¦Ł
à¦¹ à¦Ĺ
Ġà¦ıà¦ķ à¦®à¦¤
à¦ĵ à¦¹
à¦ĵ à¦«
à¦£ à¦§
à¦ł à¦Ĺà¦¡
Ġà¦« à¦¸à¦«
Ġà¦ī à¦®
Ġà¦ī à¦ªà¦¤
à¦°à¦¤ à¦¬
Ġà¦¸à¦¬ à¦¦
à§İ à¦¦
Ġà¦ĩ à¦®à¦¤
à¦°à¦£ à§Ł
à¦°à¦ķ à¦£
Ġà¦ķà¦°à¦² à¦¬
Ġà¦ķà¦°à¦² à¦¸
à¦ĺ à¦¸
Ġà¦ľà¦¨ à¦ķ
Ġà¦¢ à¦ķà¦¢
Ġà¦ıà¦ĸà¦¨ à¦¤
Ġà¦ħà¦¬ à¦Ĺ
Ġà¦¨à¦¤ à¦ľ
Ġà¦īà¦łà¦² à¦®
Ġà¦īà¦łà¦² à¦ıà¦ķà¦Ł
à¦Ĩ à§Ł
Ġà¦ħà¦¸ à¦¹à¦¯
à¦°à¦® à¦°
à¦°à¦® à¦¯
à¦°à¦® à¦ľ
Ġà¦ĺà¦° à¦ľ
Ġà¦ĵà¦° à¦ĩ
à¦°à¦¨ à¦Ĺà¦°
à¦°à¦² à¦®
Ġà¦ħà¦® à¦Ļ
Ġà¦¬à¦° à¦¦
à¦¨à¦ĵ à¦ķ
à¦ħ à¦Ĺ
Ġà¦¶à¦¹à¦° à¦Ĺ
Ġà¦ķà¦² à¦¹
à¦Ĺà¦¤ à¦Ń
à¦°à¦ķà¦® à¦ĩ
Ġà¦¦à¦¶ à¦ªà¦¨
Ġà¦ħà¦Ĺ à¦Ń
Ġà¦ıà¦ķà¦ĩ à¦°à¦ķà¦®
à¦¬à¦¦ à¦¤
Ġà¦¤à¦ªà¦¨ à¦ķ
Ġà¦¬à¦Ł à¦¤à¦²
Ġà¦ķà¦ĸà¦¨à¦ĵ à¦ĩ
à¦²à¦ļ à¦²à¦¨
Ġà¦Ĺà§ľ à¦¤
à§¦ à§«
Ġà¦Ĺà¦ľ à¦Ĺà¦ľ
Ġà¦ĩà¦® à¦ªà¦¸
Ġà¦īà§ľ à¦¤
Ġà¦¸à¦«à¦² à¦Ń
Ġà§ª à§«
Ġà§© à§¦
à¦°à¦¡ à¦ĵà¦¯
Ġà§§à§¯à§ª à§¨
Ġà§§à§¦ à§¦
Ġà¦Ĩà¦ī à¦Łà¦¬
Ġà¦¢à¦ķà¦¢ à¦ķ
à¦ Ĭ
à¦° à¦ļà¦¨
à¦° à¦ĺà¦°
à¦¿ à¦¾
à¦¨ à¦¬à¦°
à¦² à¦ªà¦°
à¦¤ à¦Ĩà¦®
à¦ķ à¦ļà¦ķ
à¦ķ à¦°à¦ķà¦®
à¦¯ à¦§
à¦¯ à¦ŀ
à¦¯ à¦ªà¦¤
à¦¬ à¦ĸ
Ġà¦ķ à¦®à¦¨
Ġà¦ķ à¦¸à¦®
Ġà¦ķ à¦Łà¦¨
à¦® à¦°à¦¤
à¦® à¦ªà¦¤
à¦® à¦Ĩà¦®
à¦® à¦ĺà¦°
Ġà¦¬ à¦ĸ
Ġà¦Ĩ à¦ľà¦¨
Ġà¦¸ à¦¶à¦¬
Ġà¦¸ à¦°à¦¬à¦°
à¦Ł à¦ªà¦¤à¦Ļ
Ġà¦ª à¦ľ
Ġà¦¨ à¦®à¦¨
à¦¦ à¦°à¦²
à¦¦ à¦®à¦¤
Ġà¦® à¦ļà¦ķ
Ġà¦¤ à¦®à¦²
Ġà¦¤ à¦Łà¦¸
Ġà¦¤ à¦°à¦¤à¦°
à¦ª à¦§
à¦ª à¦ķà¦°
à¦ĸ à¦Ńà¦°
à¦ľ à¦ķà¦¨
à¦¶ à¦Ĺà¦¤
Ġà¦ħ à¦¶à¦¨
Ġà¦ħ à¦¤à¦¨
Ġà¦ħ à¦ĸà¦£
à¦Ĺ à¦¯
à¦Ĺ à§İ
Ġà¦¯ à¦ķ
Ġà¦ļ à¦ª
à§Ł à¦¯
à§Ł à¦¹
Ġà¦¶ à¦°à¦£
à¦§ à¦¹
Ġà¦Ń à¦¡
Ġà¦ľ à¦¹
à¦¥ à¦°à¦Ł
à¦ĵ à¦Ľ
à¦ĵ à¦Ĺ
à¦ĵ à¦ĵ
à¦¼à¦¾ à¦ģ
à¦¼à¦¾ à¦Ĥ
Ġà¦¬à¦² à¦ªà¦¯
Ġà¦Ĩà¦° à¦ıà¦ķà¦Ł
à¦Ń à¦¤
Ġà¦ī à¦¥à¦²
Ġà¦ħà¦¨ à¦¶à¦¨
à¦Ŀ à§ľ
à¦Ŀ à¦²à¦ķ
Ġà¦Ł à¦¯
à¦ī à¦ª
à¦ī à¦¬à¦²
à¦ī à§İà¦¸
à¦ī à¦ľà¦Ł
Ġà¦ķà¦¥ à¦ķ
à¦¬à¦¨ à¦¦
à¦°à¦¬ à¦ļ
à¦°à¦¬ à¦£à¦¤
Ġà¦ĩ à¦¤à¦°
Ġà¦ĩ à¦¨à¦ķ
Ġà¦ĩ à¦®à¦°
Ġà¦¹à¦² à¦ĵà¦¯
à¦°à¦£ à¦Ń
Ġà¦ķà¦°à¦² à¦¤
Ġà¦ķà¦°à¦² à¦ıà¦ĩ
Ġà¦ķà¦°à¦² à¦ıà¦ķà¦Ł
à¦ĺ à¦¬à¦¦
Ġà¦Ĺà¦² à¦¤
à¦¬à¦² à¦ķ
Ġà¦ħà¦¬ à¦¤à¦°à¦£
Ġà¦ıà¦² à¦ĩà¦¡
à¦²à¦ķ à¦§
à¦¶à¦¨ à¦Ĺ
à¦ĩà¦² à¦¹
Ġà¦ĺà¦° à¦¸
à¦®à¦² à¦¦
à¦°à¦² à¦¯
Ġà¦ªà¦¥ à¦Ĺ
Ġà¦ıà¦¤ à¦ĸ
Ġà¦ıà¦¤ à¦¸à¦¬
Ġà¦ħà¦® à¦°à¦¦
à¦°à¦¶ à¦ķ
Ġà¦ľà¦² à¦®
Ġà¦ľà¦² à¦Ńà¦°
Ġà¦¬à¦° à¦¯
Ġà¦¬à¦° à¦ªà¦ķ
Ġà¦Ĩà¦¶ à¦°
Ġà¦Ĩà¦¶ à¦¯
Ġà¦¯à¦ĸà¦¨ à¦¤à¦ĸà¦¨
Ġà¦¬à¦Ľà¦° à¦ĩ
Ġà¦ķà¦® à¦ªà¦ķ
Ġà¦īà¦ª à¦Ĺ
à¦Ńà¦¬ à¦ķ
à¦Łà¦² à¦Ĺ
à¦¸à¦° à¦Ĺ
à¦ªà¦¦ à¦ķ
à¦Ĺà¦¨ à¦¸
à¦¦à§Ł à¦ķ
Ġà¦¤à¦² à¦ª
Ġà¦¦à¦¶ à¦¤à¦²
à¦¥à¦° à¦Ĺ
à¦°à¦Ń à¦°
à¦°à¦Ń à¦Ļ
Ġà¦¸à¦®à§Ł à¦¸
à¦¨à¦¸ à¦ªà¦Ł
à¦®à§Ł à¦ķà¦°
Ġà¦ļà¦®à¦ķ à¦ª
Ġà¦Ĩà¦§ à¦Ł
à¦°à¦§ à¦°
Ġà¦ıà¦°à¦ķà¦® à¦ĩ
Ġà¦Ĺà¦£ à¦®
Ġà¦īà§İ à¦«
à¦ªà¦² à¦ĵà¦¯
à§« à§¦
Ġà¦Ĩà¦ĩà¦¨ à¦ľ
Ġà¦Ĩà¦ĩà¦¨ à¦¶
Ġà¦°à¦¤à¦¨ à¦¦
Ġà¦Ĩà¦Ł à¦ļ
Ġà¦Ĩà¦Ł à¦ļà¦²
à¦ıà¦ĸà¦¨ à¦ĩ
à¦ĩà¦ľà¦¨ à¦ĩ
à§§à§ ¬
Ġà¦¹à¦¨ à¦¹à¦¨
à¦¬à¦ľ à¦Ĺà¦¤
Ġà¦ıà¦ķà¦ĸ à¦£
Ġà§ª à§©
Ġà¦ªà¦°à¦ªà¦° à¦ĩ
à§¯ à§®
Ġà¦°à¦¹ à¦®à¦¤
à¦ĩà¦°à¦ķà¦® à¦ĩ
Ġà¦ıà¦ķà¦Ŀ à¦²à¦ķ
à¦ķà¦ľ à¦®à¦ķ
Ġà¦ĸà¦ļ à¦ĸà¦ļ
Ġà§§à§® à§«à§Ń
Ġà¦¥à¦¤ à¦®à¦¤
à§ĩà§Ĺ à¦ģ
Ġà¦ľà¦¬à¦° à¦¦à¦¸
Ġ à§Ł
à§ »
à¦¾ à¦¾
à¦° à¦¦à¦²
à¦° à¦ľà¦¨à¦ķ
à¦¨ à¦·
à¦¨ à¦ĵà¦¯
à¦² à¦¸à¦®
à¦² à¦ħà¦¨
à¦² à¦Ĩà¦°
à¦² à¦Ĩà¦®à¦°
à¦¤ à¦Ļ
à¦¤ à¦¤à¦°
à¦¤ à¦¤à¦ķ
à¦ķ à¦®à¦¯
à¦¯ à¦ķà¦²
à¦¬ à¦ļà¦ķ
à¦¬ à¦¹à¦¨
Ġà¦ķ à¦ľ
à¦® à¦ľà¦¨
Ġà¦¬ à¦°à¦ķ
Ġà¦¬ à¦ĩà¦²
Ġà¦Ĩ à¦¦à¦¨
Ġà¦Ĩ à¦ĩà¦ª
Ġà¦¸ à¦°à¦¬
Ġà¦¸ à¦ļà¦°
Ġà¦¸ à¦°à¦¸à¦°
Ġà¦¸ à¦ĵà¦¦
à¦Ł à¦ªà¦°
Ġà¦ª à¦ļà¦¨
Ġà¦ª à¦¶à¦²
Ġà¦¨ à¦¨à¦¦
Ġà¦¨ à¦¬à¦¦
à¦ĩ à¦®à¦¨
à¦ĩ à¦Ĩà¦®
à¦¦ à¦ľ
à¦¦ à¦®à¦¨
à¦¦ à¦²à¦ķ
à¦¦ à¦Ĩà¦¶
Ġà¦¤ à¦¦
Ġà¦¤ à¦ķà¦®
à¦ª à¦Ń
à¦ĸ à§ľ
à¦ĸ à¦ķà¦ķ
à¦ĸ à¦¢
à¦¶ à¦¬à¦¤
Ġà¦ħ à¦¢
à¦Ĺ à¦°à¦ķ
Ġà¦¯ à¦®à¦ľ
Ġà¦Ĺ à¦ļ
Ġà¦Ĺ à¦ŀ
Ġà¦Ĺ à§Łà¦¨
Ġà¦Ĺ à¦Łà¦Ĺ
à¦ļ à¦ķà¦°
à¦ļ à¦²à¦¨
à¦· à¦²à¦§
Ġà¦° à¦¨à¦ķ
Ġà¦° à¦Ĺà¦¡
Ġà¦¶ à¦²
à¦§ à¦°à¦¨
à¦§ à¦¸à¦¬
à¦§ à¦Ĺà¦®
à¦§ à¦¹à§Ł
Ġà¦Ń à¦£
à¦¥ à¦Ĺ
à¦¹ à¦ĸ
à¦¹ à¦¨à¦ķ
Ġà¦ıà¦ķ à¦ķà¦¥
à¦£ à¦¤à¦°
Ġà¦Ľ à¦²à¦ķ
à¦ł à¦®
Ġà¦Ĩà¦° à¦ıà¦ķ
Ġà¦« à¦¸à¦ķ
à§ĥ à§į
Ġà¦ħà¦¨ à¦¤
Ġà¦ħà¦¨ à¦Ń
Ġà¦ĺ à¦°à¦ķ
Ġà¦ªà¦° à¦Ľ
à¦°à¦¤ à¦¨
à¦« à¦°à¦ķ
à¦Ŀ à¦ŀ
Ġà¦Ł à¦®à¦Łà¦®
à¦ī à¦ªà¦°
à¦ªà¦¨ à¦Ł
Ġà¦ıà¦ĩ à¦¦
à¦®à¦¨ à¦ķ
Ġà¦Ĩà¦² à¦ĸ
Ġà¦Ĩà¦² à¦®à¦ķ
Ġà¦ķà¦¥ à¦¨
à¦¤à¦° à¦«
Ġà¦¡ à¦°
Ġà¦¡ à¦Ł
Ġà¦¡ à¦ľ
Ġà¦ĩ à¦£
Ġà¦¹à¦² à¦ĺà¦°
à¦°à¦£ à¦Ĺ
Ġà¦ıà¦¸ à¦¡
Ġà¦ķà¦°à¦² à¦¦
Ġà¦Ŀ à¦°à¦¬
à¦¬à¦° à¦ĵ
Ġà¦¢ à¦Ļ
à¦¬à¦² à¦Ł
Ġà¦ħà¦¬ à¦®
Ġà¦ıà¦² à¦¤
Ġà¦ıà¦² à¦ķ
Ġà¦ıà¦² à¦¸
Ġà¦Ĩà¦¬ à¦¶
Ġà¦īà¦łà¦² à¦¤
Ġà¦īà¦łà¦² à¦¦
à¦Ĩ à¦Ļ
à¦Ĩ à¦²à¦®
Ġà¦ħà¦¸ à§İ
Ġà¦ħà¦¸ à¦¹à¦¨
Ġà¦Ĩà¦ķ à¦£
à¦ķà¦² à¦¨
à¦Ĺà¦² à¦¨
Ġà¦ĺà¦° à¦Ľ
Ġà¦ĵà¦° à¦«
à¦²à¦¤ à¦²
Ġà¦ªà¦¥ à¦ĵ
Ġà¦ľà¦² à¦Ĺ
Ġà¦ľà¦² à¦ĵ
Ġà¦ľà¦² à¦Ľà¦¬
à¦®à¦¤ à¦²
à¦Łà¦ķ à¦ķ
à¦ĩà¦¨ à¦ķ
à¦¤à¦¬ à¦Ĺ
à¦²à¦¬ à¦¶à¦¤
à¦ħ à¦¶
Ġà¦¶à¦¹à¦° à¦ĵ
à¦¯à¦¬ à¦ĩ
Ġà¦¸à¦° à¦Ľ
Ġà¦¬à¦Ľà¦° à¦Ĺ
Ġà¦Ĩà¦¤ à¦¤
à¦¤à¦ķ à¦£
Ġà¦°à¦Ļ à¦Ł
Ġà¦ķà¦¬ à¦ļ
à¦®à¦¬ à¦Ļ
Ġà¦ķà¦· à¦²
à¦Łà¦¤ à¦ĩ
à¦Ŀà¦² à¦ıà¦ĩ
à¦ıà¦ĩ à¦¸à¦¬
Ġà¦ĩà¦¨ à¦ª
à¦¹à¦¨ à¦Ĺà¦ŀ
à¦²à¦® à¦§
à¦¦à¦® à§Ł
Ġà¦¸à¦¹à¦ľ à¦Ń
Ġà¦®à¦¤à¦¨ à¦ĩ
Ġà¦ľà¦¬ à¦ľà¦¬
à¦ķà¦ľà¦¨ à¦¦
Ġà¦¤à¦ªà¦¨ à¦¦
Ġà§§à§ ¬
à¦¯à¦® à¦£
à¦°à¦« à¦¤
Ġà¦Ĺà¦£ à¦ľ
Ġà¦¸à¦°à¦² à¦Ń
à¦®à¦ª à¦ŀ
à¦ĩà¦¶ à¦¤
Ġà§§à§¯ à§¦à§«
à§§à§ ©
Ġà¦ļà¦¨ à¦®à¦¨
à§ª à§«
Ġà¦°à¦® à¦°à¦®
Ġà¦Ĩà¦ĸ à¦¡
Ġà¦ľà¦²à¦° à¦Ļ
Ġà¦Łà¦¹à¦² à¦¦
Ġà¦¸à¦¬à¦¸à¦®à§Ł à¦ĩ
âĢ ¨
Ġà¦§à¦ª à¦§à¦ª
Ġà§§à§¯à§« à§¨
à¦°à¦Ĩ à¦ļà¦°à¦£
Ġà¦Ĩà¦Łà¦¨ à¦®
Ġà¦Ĺà¦Łà¦Ĺ à¦Ł
Ġ à§ģ
à¦° à¦ı
à¦° à¦²à¦ķ
à¦° à¦ıà¦ķ
à¦¨ à¦²à¦ķ
à¦¨ à¦°à¦ķà¦®
à¦¨ à¦ļà¦°
à¦¨ à¦ľà¦°
à¦¨ à¦®à¦£
à¦¨ à¦Ĩà¦®à¦°
à¦¨ à¦Ĩà¦ªà¦¨
à¦² à¦¹à¦²
à¦² à¦®à¦°
à¦² à¦ĺà¦°
à¦¤ à¦ªà¦¨
à¦¤ à¦ķà¦°
à¦¤ à¦¸à¦¬à¦ĩ
à¦ķ à¦ĺà¦°
à¦¯ à¦Łà¦ķ
à¦¬ à¦ıà¦ĩ
à¦¬ à¦ļà¦°
à¦¬ à¦īà¦¦
à¦¬ à§Łà¦¬
Ġà¦ķ à¦ķà¦Ł
à¦® à¦ı
à¦® à¦ªà¦ķ
Ġà¦¬ à¦ļà¦¨
Ġà¦¬ à¦ķà¦Ľ
Ġà¦Ĩ à¦¹à¦²
Ġà¦Ĩ à¦ĸà¦°
à¦Ł à¦Ĺà¦²
à¦¸ à¦ŀ
à¦¸ à¦ķà¦°
à¦¸ à¦ıà¦ķ
à¦¸ à¦ıà¦ĩ
Ġà¦ª à¦¹
à¦Ľ à¦¯
à¦Ľ à¦®
à¦Ľ à¦ĩ
Ġà¦¨ à¦¬à¦¨
à¦ĩ à¦§
à¦ĩ à¦ıà¦ķà¦Ł
à¦¦ à¦¡
à¦¦ à¦Ń
à¦¦ à¦«
à¦¦ à¦¬à¦ª
à¦¦ à¦ĺà¦¨
Ġà¦® à¦°à¦¨
Ġà¦® à¦ĩà¦¨
Ġà¦® à¦Ĺà¦ľà¦Ł
Ġà¦¦ à¦²à¦ķ
Ġà¦¤ à¦°à¦£
Ġà¦¤ à¦²à¦¬
Ġà¦¤ à¦ªà¦¸
Ġà¦¤ à¦®à¦¸
Ġà¦¹ à¦ĩà¦¨
à¦ª à¦²à¦ķ
à¦ª à¦ıà¦°
à¦ĸ à¦¯
à¦ĸ à¦§
à¦ĸ à¦²à¦ķ
à¦ĸ à¦®à§Ł
à¦ľ à¦ĵà¦¯
à¦¶ à¦ĸ
à¦¶ à¦°à¦¤
à¦¶ à¦ľà¦¨
Ġà¦ħ à¦ķà¦²
Ġà¦ħ à¦¤à¦¬à¦¡
Ġà¦Ĺ à¦ł
Ġà¦Ĺ à¦Ĺà¦²
à¦ļ à¦ªà¦¦à¦¸
Ġà¦ļ à¦ªà¦²
à¦· à¦«
à¦· à§Łà¦ķ
Ġà¦° à¦ª
Ġà¦° à¦£à¦ķ
Ġà¦° à¦¡à¦Ł
Ġà¦¶ à¦Łà¦Ĺ
à¦§ à¦¬à¦°
à¦§ à¦¶à¦¤
Ġà¦ľ à¦¹à¦°
Ġà¦ľ à¦Ĺà¦¨
à¦¥ à¦¦
à¦¥ à¦ªà¦¤
à¦¹ à¦Ļ
à¦¹ à¦¬à¦¨
Ġà¦ıà¦ķ à¦°à¦¤
à¦ĵ à¦®
à¦ĵ à¦¸
Ġà¦¥ à¦ĩ
à¦ł à¦«
à¦ł à¦ķà¦¦
Ġà¦« à§ľ
Ġà¦ī à¦¸
Ġà¦ī à¦¸à¦ķ
Ġà¦ĸ à¦ķ
Ġà¦ĵ à§ľ
Ġà¦ĺ à¦Łà¦ķ
Ġà¦®à¦¨ à¦Ń
à¦ī à¦ĩà¦¨
à¦ī à¦²à¦Ĺ
à¦ī à¦ĩà¦ļ
à¦ªà¦¨ à¦¦
à¦®à¦¨ à¦¨
Ġà¦Ĩà¦² à¦¨
à¦ľà¦¨ à¦ĵ
à¦¬à¦¨ à¦Ńà¦°
à¦°à¦¬ à¦®à¦¯
Ġà¦®à¦¤ à¦¬
Ġà¦ĩ à¦¬
Ġà¦ĩ à¦īà¦Ł
Ġà¦ĩ à¦īà¦ľ
Ġà¦ķà¦°à¦² à¦Ń
Ġà¦Ŀ à¦¨
Ġà¦Ŀ à¦°à¦²
Ġà¦¬à¦¸ à¦¤à¦¬
à¦ı à¦¨
à¦ı à¦®à¦¨à¦ĩ
à¦ı à¦¨à¦ı
à¦ķà¦Ł à¦°
à¦ķà¦Ł à¦¬à¦°
à¦¨à¦¤ à¦¨
Ġà¦¨à¦¤ à¦®
à¦Ĩ à¦°à¦ĵ
à¦Ĩ à§Łà¦¨
à¦²à¦ķ à¦ķ
à¦²à¦ķ à¦Ń
à¦ĩà¦² à¦Ĺ
Ġà¦ĺà¦° à¦¦
à¦ĸà¦² à¦¨
à¦°à¦ľ à¦Ĺà§İ
à¦°à¦² à¦ıà¦ĩ
à¦¸à¦¬ à¦¹
Ġà¦ľà¦² à¦Ľ
Ġà¦ľà¦² à¦ĸ
Ġà¦ľà¦² à¦¢
Ġà¦ħà¦ª à¦¶à¦¨
à¦ĩà¦¨ à¦«
à¦¦à¦¨ à¦ķ
Ġà¦ħà¦Ń à¦¯
Ġà¦ħà¦Ń à¦¦
à¦®à¦ķ à¦¥
à¦ħ à¦Ł
à¦¯à¦¬ à¦¶à¦¤
à¦¨à¦¬ à¦ķ
à¦¨à¦¬ à¦ķà¦²
Ġà¦¬à¦ĩ à¦¸
à¦²à¦¨ à¦¦
Ġà¦®à¦¹ à¦®
à¦°à¦ĵ à¦ªà¦°
à¦°à¦¹ à¦ĩ
à¦·à¦ķ à¦ķ
Ġà¦ĸà¦¬à¦° à¦ĩ
Ġà¦²à¦ķ à¦²à¦ķ
à¦Ŀà¦² à¦¸
Ġà¦Ĳ à¦¨
à¦ªà¦¥ à¦Ĺ
Ġà¦¬à¦ī à¦Ŀ
à¦·à¦¤ à¦ļ
Ġà¦ªà¦¤ à¦Ļ
à¦¦à¦® à¦Ĺ
Ġà¦¦à¦° à¦ĸ
Ġà¦¬à§ľ à¦ĩ
Ġà¦ĭ à¦ľ
Ġà¦Ĺà§ľ à¦Ĺà§ľ
à¦²à¦Ń à¦ª
à¦¨à¦Ń à¦¨
Ġà¦Ĺà¦£ à¦¹à¦¤
Ġà¦ļà¦Ł à¦ļà¦Ł
à§¦ à§§
Ġà¦īà§İ à¦ªà¦¨
Ġà¦īà§İ à¦ķà¦Ł
Ġà¦Ĩà§ľ à¦·
à¦®à¦¶ à¦¹à¦°
à¦ľà¦Ĺ à§İ
à¦ĸà¦ķ à¦·
Ġà¦ıà¦ķà¦¦à¦® à¦ĩ
ĠĠčĊ ĠĠĠĠ
Ġà¦Ĩà¦Ł à¦¶
Ġà§§à§¯ à§®
à¦¨à¦ľà¦¨ à¦ĩ
Ġà¦ķà¦Ł à¦®à¦Ł
Ġà¦Ĩà§Ł à¦¤
à¦ĩà¦« à¦¯
Ġà¦ĩà¦ī à¦®
Ġà¦ĩà¦ī à¦ıà¦¸
à§¬ à§¦
à¦Ĩà¦¶ à¦Ļ
à¦®à¦« à¦²à¦ķ
à¦Ĳ à¦¶
Ġà¦Ķ à¦·à¦§
Ġà¦īà¦ĩ à¦Ļ
Ġà¦īà¦ĩà¦¨ à¦ļ
Ġà§Ń à§«
Ġà¦ĸà¦² à¦ĸà¦²
à¦¤à¦°à¦¬ à¦Ļ
à§ĩ à§ĩ
à§ĩ à¦ĥ
à¦° à¦§à¦¨
à¦° à¦ħà¦¨
à¦¨ à¦°à¦®
à¦¨ à¦Ĩà¦°
à¦¨ à¦ĺà¦¨
à¦¨ à¦ľà¦Ł
à¦¨ à¦ıà¦ĸà¦¨
à¦² à¦Ńà¦°
à¦² à¦ıà¦ķà¦¦
à¦¤ à¦®à¦ķ
à¦¤ à¦¸à¦¨
à¦ķ à¦¤à¦°
à¦ķ à¦ľà¦¬
à¦¯ à¦ªà¦°
à¦¯ à¦¤à¦ķ
à¦¼ à§Ĥ
à¦¬ à¦ī
à¦® à¦Ļ
à¦® à¦¬à¦°
à¦® à¦ıà¦ĩ
Ġà¦¬ à¦ļà¦¸
Ġà¦¸ à¦ªà¦°
Ġà¦¸ à¦°à¦£
à¦Ł à¦°à¦¬
à¦¸ à¦°à¦¤
à¦¸ à¦ªà¦¨
à¦¸ à¦Ĩà¦®
Ġà¦ª à§Łà¦¸
à¦Ľ à¦ļ
à¦Ľ à¦ĵ
Ġà¦¨ à¦ļ
Ġà¦¨ à¦¬à¦¸
à¦ĩ à¦£
à¦ĩ à¦ī
à¦ĩ à¦¤à¦¬
à¦ĩ à¦īà¦¡
Ġà¦® à¦Ł
Ġà¦® à¦°à¦¸
Ġà¦® à¦Łà¦ķ
Ġà¦® à¦°à¦¦
Ġà¦® à§Łà¦¨
Ġà¦® à¦ĵà¦ķ
Ġà¦ı à¦Ļ
Ġà¦ı à¦ªà¦°
Ġà¦ı à¦¨à¦ĵ
Ġà¦ı à¦®à¦ª
Ġà¦ı à¦¶à¦°
Ġà¦¤ à¦ĸ
Ġà¦¤ à¦¹à¦¬
Ġà¦¹ à¦ĩà¦¯
Ġà¦¹ à¦Łà¦¤
à¦ª à¦¸à¦¬à¦ķ
à¦ª à¦īà¦ªà¦¨
à¦ľ à¦ľ
à¦¡ à¦¤
à¦¡ à¦īà¦ĩà¦ļ
à¦¶ à¦°à¦ķ
à¦¶ à¦ļà¦¨
à¦Ĺ à¦¶
à¦Ĺ à¦¸à¦¬à¦ĩ
Ġà¦¯ à¦ľ
à¦ļ à¦ĵà¦¡
à¦ļ à¦¦à¦¶
Ġà¦ļ à¦ĵà§ľ
à¦· à¦¦à¦°
à§Ł à¦ıà¦ķà¦Ł
Ġà¦¶ à¦Ł
Ġà¦¶ à¦ļ
Ġà¦¶ à¦°à¦®
Ġà¦¶ à¦¬à¦¨à¦®
à¦§ à¦ªà¦°
à¦§ à¦ªà¦¤
Ġà¦Ń à¦°à¦Ľ
Ġà¦Ń à¦¨à¦Ńà¦¨
Ġà¦ľ à¦Ĺà¦¦
à¦¥ à¦ĵ
à¦¹ à¦®à¦¨
Ġà¦ıà¦ķ à¦¤à¦°à¦«
à¦ĵ à¦ª
à¦£ à¦ĩ
à¦£ à¦¶
à¦£ à¦²à¦¤
Ġà¦Ľ à¦ª
Ġà¦¬à¦² à¦°
Ġà¦¬à¦² à¦¦
à¦ł à¦Ĺ
Ġà¦Ĩà¦° à¦ª
Ġà¦Ĩà¦° à¦¨à¦¬
à¦Ń à¦¡
à¦Ń à¦Ĺ
Ġà¦« à¦²à¦¨
Ġà¦ī à¦Łà¦ķ
Ġà¦ī à¦ĩà¦ķ
Ġà¦ī à¦ĩà¦¦
Ġà¦ĸ à§Ł
Ġà¦ĸ à¦¨à¦¨
Ġà¦ĵ à¦Ŀ
Ġà¦§ à¦ĩà¦°
Ġà¦ħà¦¨ à¦®
Ġà¦ĺ à¦¨à¦¤
à§ľ à¦®
Ġà¦®à¦¨ à¦ĩ
Ġà¦®à¦¨ à¦ĵ
Ġà¦®à¦¨ à¦®à¦°
Ġà¦®à¦¨ à¦¨à¦¶
à¦Ŀ à¦ª
à¦ī à¦¶
à¦ī à¦ŀ
à¦ī à¦Łà¦°
à¦ī à¦²à¦Ł
à¦ī à¦Ńà¦¯
à¦ī à¦Ńà§Ł
Ġà¦Ĩà¦Ľ à¦²
Ġà¦ıà¦ĩ à¦Ĺ
à¦®à¦¨ à¦¦
à¦®à¦¨ à¦Ń
à¦ľà¦¨ à¦¬
à¦ľà¦¨ à¦®
à¦¬à¦¨ à¦¸
à¦¬à¦¨ à¦Ĺ
à¦°à¦¬ à¦ķ
Ġà¦ĩ à¦Ľ
Ġà¦ĩ à§Ł
Ġà¦ĩ à¦°à¦¤
Ġà¦¹à¦² à¦®
à¦°à¦£ à¦®
à¦°à¦£ à¦ª
à¦°à¦£ à¦ªà¦¤
Ġà¦ıà¦¸ à¦Ľ
Ġà¦ķà¦°à¦² à¦ľ
Ġà¦ķà¦°à¦² à¦ı
à¦ĺ à¦Łà¦ķ
Ġà¦Ĩà¦Ĺ à¦¤
Ġà¦ķà¦°à¦¤ à¦²
à¦ı à¦ķà¦¤
à¦ı à¦ĩà¦Ł
à¦ı à¦¸à¦¸
Ġà¦ľà¦¨ à¦¬à¦¸à¦¤
Ġà¦Ĺà¦² à¦²
à¦ķà¦Ł à¦®à¦¯
à¦·à¦£ à¦¬
Ġà¦īà¦łà¦² à¦ıà¦ĩ
à¦Ĩ à¦ł
à¦²à¦ķ à¦¦
Ġà¦¬à¦¨ à¦¬
à¦ķà¦² à¦¬
à¦¶à¦¨ à¦ķ
à¦Ĺà¦² à¦Ĺ
à¦Ĺà¦² à¦¬à¦¨
Ġà¦¹à¦¤ à¦ļà¦ķ
Ġà¦ĺà¦° à¦¬à¦¨
à¦ĸà¦² à¦®
Ġà¦ªà¦¥ à¦ĺ
Ġà¦¹à¦ł à¦ķ
Ġà¦ĵà¦ł à¦Ľ
à¦ķà¦¤ à¦Ł
à¦¤à¦¨ à¦Ł
à¦¤à¦¨ à¦ĩ
à¦°à¦¸ à¦®
à¦°à¦¸ à¦Ń
Ġà¦Ĩà¦¨ à¦¸
Ġà¦ľà¦² à¦ĩ
Ġà¦ľà¦² à¦Ń
Ġà¦ľà¦² à¦ļà¦ķ
Ġà¦ľà¦² à¦®à¦Ĺ
Ġà¦ħà¦ª à¦¦
Ġà¦ĵà¦ªà¦° à¦¦
à¦ĩà¦¨ à¦°
à¦ĩà¦¨ à¦ĵà¦¯
à¦¤à¦¬ à¦¯
à¦²à¦¬ à¦ķ
à¦ħ à¦·
à¦ħ à¦¬à¦¨
à¦ħ à¦¬à¦¸
Ġà¦¸à¦° à¦·
Ġà¦ķà¦² à¦Ł
à¦²à¦¨ à¦ļ
à¦°à¦¦ à¦¯
à¦°à¦¹ à¦¨
à¦¤à¦ķ à§ľ
à¦¤à¦ķ à¦°à¦£
Ġà¦°à¦ĵà¦¶à¦¨ à¦ĵ
Ġà¦ıà¦ķà¦ľà¦¨ à¦ĵ
à¦¯à¦ķ à¦¥
à¦ļà¦ķ à¦£
à¦ļà¦² à¦ª
à¦ĩà¦Ł à¦Ĺ
à¦Łà¦² à¦®
Ġà¦ħà¦¥ à¦°
à¦¬à¦¸ à¦®
Ġà¦ħà¦ķ à¦¸
à¦Ĺà¦ľ à¦ĸ
à¦Ĺà¦ľ à¦Ĺ
Ġà¦¦à¦² à¦Ĺ
à¦¦à§Ł à¦¬
à¦Ŀà¦² à¦ª
à¦¸à¦® à¦£
à¦¬à¦ķ à¦¯
Ġà¦ķà¦¨ à¦Ń
à¦ķà¦ķ à¦¥
à¦²à¦® à¦£
Ġà¦ıà¦¨ à¦¸
Ġà¦Ĩà¦¦ à¦¤
Ġà¦Ĩà¦ª à¦²
Ġà¦¶à¦¤ à¦ķà¦°
à¦ĩà¦Ń à¦ĵà¦¯
Ġà¦Ĩà¦¹ à¦°à¦£
à¦¬à¦¶ à¦¤
à¦°à¦« à¦°
à¦Łà¦® à¦¸
à¦¨à¦Ń à¦Ļ
à¦Ŀà¦° à¦Ŀà¦°
à¦¨à¦ª à¦¤à¦¨
à¦°à¦®à¦£ à¦ķ
Ġà¦®à¦¶ à¦Ĺ
à§¨ à§Ń
Ġà¦Ĩà¦Ł à¦¦à¦¶
Ġà¦Ŀà¦ķ à¦®à¦ķ
Ġà¦¦à¦ĸà¦² à¦¦
à§§à§ ®
Ġà¦īà¦ªà¦ķ à¦°à¦£
à§ª à§Ń
à¦Ĺà¦Ń à¦Ļ
Ġà¦¶à¦ĵà¦ķà¦¤ à¦ķ
à§¬ à§®
à¦¬à§Ł à¦¸
Ġà¦¦à¦« à¦¤à¦°
Ġà¦ľà¦Ĺà§İ à¦Ł
Ġà¦Ĩà¦īà¦Ł à¦ª
Ġà¦Ŀà¦Ł à¦ªà¦Ł
Ġà§« à§¦
Ġà¦Ľà§Ł à¦Ł
à¦ĭ à¦¤
Ġà¦¹à¦ľ à¦°à¦¤
à¦ľà¦īà¦¦ à¦¦
à¦Ī à¦¶
à¦ķà¦¸à¦¬ à¦ľ
âĢ¨ čĊč
Ġà¦ıà¦¨à¦ĵ à¦¸
à¦° à¦²à¦¤
à¦° à¦ıà¦ķà¦Ł
à¦° à¦¸à¦¬à¦ķ
à¦¨ à¦°à¦¤
à¦¨ à¦®à¦²
à¦¨ à¦ļà¦¨
à¦¨ à¦ĺà¦°
à¦² à¦ł
à¦² à¦°à¦ķ
à¦² à¦Ĩ
à¦² à¦ľà¦¯
à¦² à¦ıà¦¬
à¦² à¦ıà¦ĸà¦¨
à¦² à¦ħà¦ľ
à¦¤ à¦§
à¦¤ à¦®à¦¯
à¦¤ à¦Ĺà¦¤
à¦¤ à¦ªà¦ķ
à¦¤ à¦ıà¦ĩ
à¦ķ à¦Ŀ
à¦ķ à¦¸à¦¨
à¦ķ à¦Ĩà¦®
à¦ķ à¦ıà¦ĩ
Ġà¦ķ à¦ªà¦°
à¦® à¦®à¦¯
à¦® à¦§à¦¨
à¦® à¦ªà¦¥
à¦® à¦ħà¦¨
Ġà¦¬ à¦°à¦¬
Ġà¦Ĩ à¦ĩà¦ķ
Ġà¦Ĩ à¦īà¦²
Ġà¦Ĩ à¦ĵà§ľ
Ġà¦¸ à§Ł
Ġà¦¸ à¦Łà¦ķ
Ġà¦¸ à¦ĩà¦¯
Ġà¦¸ à¦Ĺà¦°
à¦Ł à¦¥
à¦Ł à¦ĺ
à¦Ł à¦°à¦Ł
à¦¸ à¦ĺà¦°
Ġà¦ª à¦Łà¦ķ
à¦Ľ à§Ł
à¦Ľ à¦²à¦¤
Ġà¦¨ à¦Ĺà¦£
à¦ĩ à¦Ļ
à¦ĩ à¦¶à¦¨
à¦ĩ à¦Ĩà¦°
à¦¦ à¦¶à¦Ł
Ġà¦® à¦ĩ
Ġà¦® à¦ļ
Ġà¦¦ à¦ĸ
Ġà¦ı à¦¥
Ġà¦ı à¦£
Ġà¦ı à¦¤à¦°
Ġà¦¤ à¦°à¦¤
Ġà¦¤ à¦¨à¦¯
Ġà¦¤ à¦ķà¦¤à¦ķ
Ġà¦¹ à¦°à¦£
à¦ĸ à¦¶
à¦ľ à§İ
à¦ľ à¦¹à¦°
à¦ľ à§Łà¦¨
à¦ľ à¦ķà¦¸
à¦¡ à¦¡
à¦¡ à¦ĵà§Ł
à¦¶ à¦²à¦¯
Ġà¦ħ à¦°à¦ķ
Ġà¦ħ à¦¹à¦°
Ġà¦ħ à¦¹à¦¨
à¦Ĺ à¦ļ
à¦Ĺ à¦®à¦ķ
à¦Ĺ à¦Ńà¦°
à¦· à¦¡
à§Ł à¦ľ
à§Ł à¦ĵ
à§Ł à¦¤à¦¨
à§Ł à¦ıà¦ķ
Ġà¦° à¦¶à¦®
Ġà¦° à¦ĩà¦®
Ġà¦° à¦ĩà¦ļ
à¦§ à¦®à¦¯
à¦§ à¦ļà¦¨
à¦§ à¦¬à¦¦
Ġà¦ľ à¦¸
Ġà¦ľ à¦ª
à¦¥ à¦¡
à¦¹ à¦²à¦ķ
à¦¹ à¦ļà¦°
à¦¹ à§Łà¦¤
Ġà¦ıà¦ķ à¦®à¦¨
Ġà¦ıà¦ķ à¦ĺà¦°
Ġà¦ıà¦ķ à¦·à¦Ł
à¦ĵ à¦¬
à¦ĵ à¦Ń
à¦£ à§Ł
Ġà¦¬à¦² à¦¨
Ġà¦¬à¦² à¦Ł
Ġà¦² à¦Ľ
Ġà¦² à¦ĩà¦¯
à¦ł à¦ĸ
à¦ł à¦ľ
à¦ł à¦¨à¦Ł
à¦Ń à¦¶
Ġà¦« à§Ł
Ġà¦« à¦²à¦¤
Ġà¦« à¦ľà¦°
Ġà¦ī à¦«
Ġà¦ĸ à¦¶
Ġà¦ĸ à¦°à¦ĸà¦°
à¦Ļ à¦ķ
Ġà¦ĵ à¦ľ
Ġà¦ĵ à§ľà¦¨
Ġà¦ħà¦¨ à§ľ
à¦ĸà¦¨ à¦ĩ
à¦ĸà¦¨ à¦ĵ
Ġà¦ªà¦° à¦ª
à¦°à¦¤ à¦ķà¦°
à¦« à¦¦
à§ľ à¦¸
Ġà¦®à¦¨ à¦ľ
à¦ī à¦ĸ
à¦ī à¦·
à¦ī à¦ĺ
à¦ī à¦Łà¦¨
à¦ī à¦¬à¦¯
Ġà¦Ĩà¦Ľ à¦®
à¦ªà¦¨ à¦¬
Ġà¦¸à¦® à¦·
Ġà¦¸à¦¬ à¦ĸ
Ġà¦¸à¦¬ à¦°à¦ķà¦®
à¦ľà¦¨ à¦Ł
à¦¤à¦° à¦¹
à¦¤à¦° à¦ŀ
à¦¤à¦° à¦ªà¦¶
à§İ à¦°
à§İ à¦¸à¦¨
Ġà¦ĩ à¦¡
Ġà¦ĩ à¦·
Ġà¦ĩ à¦Ĺà¦¨
Ġà¦¹à¦² à¦¸
Ġà¦¹à¦² à¦Ĺ
à¦°à¦ķ à¦¯
Ġà¦ķà¦°à¦² à¦¶
Ġà¦Ĩà¦ľ à¦Ĺ
à¦¬à¦° à¦®
à¦ĺ à¦ª
à¦ı à¦¯
à¦ı à¦¨à¦ª
Ġà¦ľà¦¨ à¦Ĺ
Ġà¦Ĺà¦² à¦¨
à¦¬à¦² à¦Ĺ
à¦ķà¦Ł à¦¤à¦®
à¦·à¦£ à¦Ł
Ġà¦īà¦łà¦² à¦ª
Ġà¦īà¦łà¦² à¦ıà¦ķ
à¦Ĩ à¦°à¦¨
à¦Ĩ à¦®à¦¤
Ġà¦ħà¦¸ à¦Ļ
Ġà¦ħà¦¸ à¦¤à¦°
à¦²à¦ķ à¦¬
à¦²à¦ķ à¦ª
à¦²à¦ķ à¦ļ
à¦²à¦ķ à¦£
à¦°à¦® à¦¤
à¦ķà¦² à¦Ļ
à¦¶à¦¨ à¦ıà¦°
à¦Ĺà¦² à¦®
à¦Ĺà¦² à¦ĵ
à¦Ĺà¦² à¦®à¦¯
à¦Ĺà¦² à¦Ĺà¦ŀ
à¦ĩà¦² à¦ĸ
à¦ĩà¦² à¦¡
à¦²à¦¤ à¦¬
Ġà¦ĵà¦ł à¦¤
Ġà¦¸à¦¨ à¦¦
Ġà¦¸à¦¨ à¦¦à¦ªà¦¤
à¦¸à¦¬ à¦ļ
Ġà¦ıà¦¤ à¦¬
à¦¤à¦¨ à¦ķ
à¦°à¦¸ à¦¹
Ġà¦ľà¦² à¦¨
Ġà¦ľà¦² à¦Ľà¦Ł
à¦¹à¦¸ à¦ĵ
Ġà¦¬à¦° à¦ŀ
Ġà¦ıà¦®à¦¨ à¦¸à¦®à¦¯
Ġà¦ħà¦ª à¦Ł
Ġà¦ħà¦ª à¦¹à¦°à¦£
Ġà¦ĵà¦ªà¦° à¦¨
à¦¦à¦¨ à¦ĩ
à¦¦à¦¨ à¦Ĺ
à¦ħ à¦Ļ
Ġà¦¶à¦¹à¦° à¦ĩ
à¦¯à¦¬ à¦¤
à¦¯à¦¬ à¦ĩà¦¯
Ġà¦īà¦¦ à¦Ń
à¦¨à¦¬ à¦¸
à¦¨à¦¬ à¦¹
à¦¨à¦¬ à¦Ľà¦°
Ġà¦ķà¦® à¦ĩ
Ġà¦īà¦ª à¦®à¦¹
Ġà¦¶à¦° à§İà¦ķ
à¦²à¦¨ à¦ª
Ġà¦Ĩà¦¤ à¦¶à¦¬
Ġà¦®à¦¹ à¦¤
Ġà¦®à¦¹ à¦¡
à¦°à¦¦ à¦ķ
Ġà¦¸à¦¹ à¦ļà¦°
Ġà¦¸à¦¹ à¦¨à¦¶
Ġà¦¨à§Ł à¦¬
Ġà¦¨à§Ł à¦ıà¦ķ
Ġà¦ıà¦ķà¦ľà¦¨ à¦ĩ
à¦¯à¦¤ à¦ĩ
Ġà¦¯à¦¤ à¦Ĺ
à¦ĩà¦Ł à¦Ł
à¦ĩà¦Ł à¦Ń
à¦¨à¦¨ à¦¦
Ġà¦ķà¦¬ à¦Ľà¦°
Ġà¦ªà¦¦ à¦¸
Ġà¦²à¦ķ à¦ª
à¦¦à§Ł à¦ĵ
à¦ıà¦ĩ à¦ļà¦¡
à¦°à¦ļ à¦°
Ġà¦ħà¦² à¦°
Ġà¦ĩà¦¨ à¦¡
à¦¤à¦¤ à¦®
à¦¹à¦® à§Ł
Ġà¦¦à¦¶ à¦¦
Ġà¦¬à¦ī à¦Ń
à¦·à¦¤ à¦Ł
à¦²à¦¸ à¦ķ
à¦°à¦Ĺ à¦ŀ
Ġà¦ıà¦¨ à¦ľ
Ġà¦¨à¦°à¦® à¦Ń
à¦ķà¦¶ à¦Ł
Ġà¦Ĩà¦ª à¦Ĺ
à¦Ĺà¦® à¦ŀ
Ġà§§à§ §à§
Ġà¦Ĩà¦§ à¦ª
Ġà¦§à¦¨ à¦¸à¦®
Ġà¦¨à¦¬ à¦®
Ġà¦¨à¦¬ à¦¬à¦°
à§¦ à§©
Ġà¦īà§İ à¦ªà¦¤
à¦®à¦¸ à¦Ń
à¦Łà¦¸ à¦¸
à§Ŀ à¦ļ
Ġà¦²à§ľ à¦¬
à¦ļà§Ł à¦ªà¦¤
Ġà¦ªà¦²à¦ķ à¦¹
à§Ń à§®
à§¨ à§«
ĠĠĠĠ Ġ
ĠĠĠĠ ĠĠ
Ġà¦ıà¦¡ à¦®
à¦¬à¦Ł à¦Ĺ
Ġà¦Ĩà¦ĩ à¦ı
Ġà¦īà§İà¦¸à¦¬ à¦®
Ġà§§à§¯ à§¯
à¦¦à¦ª à¦¤à¦¨
à§° à¦¤
à¦®à¦Ŀ à¦®
à¦īà¦¡ à¦Ĺ
Ġà¦ħà¦¹ à¦Ļ
Ġà¦ķà¦¬à¦° à¦¸
Ġà¦ļà¦°à¦® à¦Ń
Ġà§ª à§¦
à¦·à§Ł à¦Ł
Ġà¦ķà¦¤à¦¬ à¦¡
Ġà§© à§§
à¦¤à¦ļ à¦°à¦¦
Ġà§¨à§¦ à§§à§Ń
Ġà§¨à§¦ à§¦à§¦
Ġà§¨à§¦ à§«à§¦
à¦Ĳ à¦ķ
Ġà¦ĺà¦· à¦Ľ
Ġà¦Ķ à¦ľ
Ġà¦ıà¦« à¦¬
Ġà§§à§¯à§Ń à§«
à¦ķà¦ĸà¦¨ à¦ĵ
Ġà¦¶à¦°à§İ à¦ļà¦¨
Ġà¦¹à¦°à¦« à¦Ĺ
Ġà¦«à¦¸à¦« à¦°
à¦Ĭ à¦°
à§» à¦¾
Ġà¦¬à¦°à¦ķ à¦¤
à¦° à¦ªà¦¨
à¦° à¦Ĺà¦²
à¦° à¦Ĩà¦°
à¦° à¦Ŀà¦°
à¦° à¦īà¦ĩà¦¨
à¦¨ à¦ªà¦°
à¦¨ à¦Ĩ
à¦¨ à¦¨à¦ķ
à¦¨ à¦ıà¦ĸ
à¦¨ à¦Ĩà¦Ĺ
à¦¨ à¦īà¦¦
à¦¨ à¦īà¦¤
à¦² à¦ŀ
à¦² à¦²à¦ķ
à¦² à¦ĵà§Ł
à¦² à¦¸à¦«
à¦² à¦¢
à¦² à¦¯à¦¦
à¦² à¦Ĩà¦²
à¦² à¦Ĩà¦Ĺ
à¦¤ à¦ľà¦¨
à¦¤ à§İà¦ķ
à¦¤ à¦ļà¦ķ
à¦¤ à¦ıà¦ķà¦Ł
à¦¤ à¦¸à¦Ļ
à¦ķ à¦ĵà¦¯
à¦ķ à¦¨à¦ķ
à¦ķ à¦ıà¦ķ
à¦ķ à¦ªà¦ķ
à¦ķ à¦¸à¦¬à¦ĩ
à¦ķ à¦Ĩà¦īà¦Ł
à¦¯ à¦¡
à¦¯ à¦£
à¦¯ à¦¬à¦¨
à¦¯ à¦°à¦ķ
à¦¯ à¦Ĺà¦¤
à¦¯ à¦ļà¦°
à¦¬ à¦¸à¦¬
à¦¬ à¦¦à¦°
à¦¬ à¦¸à¦¬à¦ĩ
Ġà¦ķ à¦ĩà¦²
à¦® à¦¦à¦°
à¦® à¦Ĺà¦¤
à¦® à¦®à¦°
à¦® à¦ıà¦ķà¦Ł
à¦® à¦¶à¦ķ
à¦® à¦«à¦²
Ġà¦¬ à¦ª
Ġà¦Ĩ à¦ĩà¦Ľ
Ġà¦Ĩ à¦ĵà¦¤
Ġà¦¸ à§ľ
Ġà¦¸ à¦ªà¦¨
Ġà¦¸ à¦ķà¦°
Ġà¦¸ à¦¸à¦ª
Ġà¦¸ à¦ĩà¦¬
à¦Ł à¦ı
à¦Ł à¦¸à¦¤
à¦Ł à¦¸à¦¬à¦ĩ
à¦Ł à¦Ĩà¦ª
à¦¸ à¦¨à¦¬
à¦¸ à¦¹à¦¯
Ġà¦ª à¦¸
Ġà¦ª à¦ĩ
Ġà¦ª à¦¦à¦¯
à¦Ľ à¦Ĩà¦®
Ġà¦¨ à¦¶
Ġà¦¨ à¦ĵà¦°
à¦ĩ à¦°à¦¨
à¦ĩ à¦®à¦²
à¦ĩ à¦®à¦°
à¦ĩ à¦¸à¦Ł
à¦ĩ à¦ľà¦¯
à¦ĩ à¦¶à¦Ł
à¦ĩ à¦ıà¦ķà¦ľà¦¨
à¦ĩ à¦ħà¦ķ
à¦¦ à¦ĸ
à¦¦ à¦ļ
à¦¦ à¦ªà¦¨
à¦¦ à¦°à¦¬
à¦¦ à¦ĸà¦²
à¦¦ à¦¸à¦¬à¦ĩ
Ġà¦® à§Ł
Ġà¦® à¦°à¦®
Ġà¦® à¦²à¦¤
Ġà¦¦ à¦¹
Ġà¦¦ à¦ĩà¦¯
Ġà¦ı à§Ł
Ġà¦ı à¦§
Ġà¦ı à¦®à¦¬
Ġà¦¤ à¦¯
Ġà¦¹ à¦ª
à¦ª à¦«
à¦ª à¦ıà¦ķ
à¦ª à¦®à§Ł
à¦ª à¦¸à¦¬à¦ĩ
à¦ĸ à¦¹
à¦ĸ à¦«
à¦ĸ à¦®à¦²
à¦ĸ à¦¸à¦¬
à¦ĸ à¦Ńà¦Ļ
à¦ľ à¦ķà¦¤
à¦ľ à¦®à¦¯
à¦ľ à¦ªà¦¤
à¦¡ à¦²à¦ķ
à¦¶ à¦°à¦®
à¦¶ à¦¸à¦¬à¦ĩ
Ġà¦ħ à¦ķà¦°
Ġà¦ħ à¦°à¦®
à¦Ĺ à¦§
à¦Ĺ à¦¤à¦°
à¦Ĺ à¦¸à¦¬
à¦Ĺ à¦®à¦¯
à¦Ĺ à¦ĺà¦¨
Ġà¦ķà¦° à¦¨
Ġà¦ķà¦° à¦¸
Ġà¦Ĺ à¦ĺ
Ġà¦Ĺ à¦£à¦¤
Ġà¦Ĺ à¦¦à¦Ĺ
à¦ļ à¦ĵ
à¦ļ à¦¤à¦°
à¦ļ à¦ľà¦¨à¦ķ
Ġà¦ļ à¦ļ
Ġà¦ļ à¦ĩà¦²
à¦· à¦²
à§Ł à¦ľà¦¨
Ġà¦° à¦Ĺà¦°
Ġà¦° à¦£à¦¬
à¦§ à¦¬à¦¨
à¦§ à¦Ĺà¦²
à¦§ à¦¨à¦ĵ
à¦§ à¦¨à¦ķ
à¦§ à¦¨à¦Ł
à¦§ à¦¸à¦®
à¦¹ à¦ĵà¦¯
à¦¹ à¦¨à¦¤
à¦¹ à¦®à¦¯
Ġà¦ıà¦ķ à¦ĺà¦¨
Ġà¦Ĩà¦® à¦¡
à¦ĵ à¦ł
à¦£ à¦²
à¦£ à¦ł
à¦£ à¦ªà¦¤
à¦£ à¦Ĺà¦¤
Ġà¦Ľ à¦¸
Ġà¦¬à¦² à¦ķ
Ġà¦² à¦¹
Ġà¦² à¦Łà¦ķ
à¦ł à¦ĩ
à¦ł à¦ļ
à¦ł à¦§
à¦ł à¦ķà¦ķ
Ġà¦Ĩà¦° à¦ªà¦¨
Ġà¦Ĩà¦° à¦ľà¦¨
à¦Ń à¦¸à¦¬
à¦Ń à¦°à¦¶
à¦Ń à¦°à¦¯
Ġà¦« à¦·
Ġà¦« à¦²à¦®
Ġà¦« à¦ķà¦«
Ġà¦ī à¦¦à¦°
Ġà¦ĸ à§ľà¦ķ
Ġà¦ĵ à¦ĵ
Ġà¦ħà¦¨ à¦Ĺ
Ġà¦ħà¦¨ à¦§
Ġà¦ªà¦° à¦¶à¦®à¦£
Ġà¦¬à¦²à¦² à¦Ĩà¦®
à¦°à¦¤ à¦Ń
à¦°à¦¤ à¦ªà¦ķ
à¦« à¦¹
à¦« à¦²à¦ķ
à§ľ à¦Ł
à§ľ à¦Ĺ
Ġà¦®à¦¨ à¦¯
Ġà¦®à¦¨ à¦ª
Ġà¦Ł à§Łà¦²
à¦ī à¦¹
à¦ī à§ľ
à¦ī à¦¨à¦²
à¦ī à¦ıà¦°
à¦ªà¦° à¦Ł
Ġà¦īà¦ł à¦¨
à¦®à¦¨ à¦¤
à¦®à¦¨ à¦ľ
Ġà¦¸à¦¬ à¦²
Ġà¦Ĩà¦¸ à¦¨à¦Ł
à¦¤à¦° à¦ľ
Ġà¦¡ à¦¨
à¦¬à¦¨ à¦ļ
à¦¬à¦¨ à¦ļà¦ķ
à¦°à¦¬ à¦¸
à¦°à¦¬ à¦Ń
à§İ à¦¶
Ġà¦ĩ à¦Ĺ
Ġà¦ĩ à¦Łà¦¸
Ġà¦¹à¦² à¦°
Ġà¦¹à¦² à¦¤
Ġà¦ł à¦ķà¦¬
Ġà¦ķà¦°à¦² à¦°
Ġà¦ķà¦°à¦² à¦¯
Ġà¦Ŀ à¦®à¦Ŀà¦®
Ġà¦Ĩà¦ľ à¦®
à¦¬à¦° à¦°
à¦¬à¦° à¦¦
à¦¬à¦° à¦Ĺ
Ġà¦§à¦° à¦¨à¦Ł
à¦ı à¦°à¦ķà¦®
Ġà¦ľà¦¨ à¦¬
Ġà¦ľà¦¨ à¦¶
Ġà¦Ĩà¦ªà¦¨ à¦®à¦¨
Ġà¦Ĩà¦ªà¦¨ à¦ľà¦¨
à¦¬à¦² à¦ª
à¦ķà¦Ł à¦¸
à¦¨à¦¤ à¦ıà¦ĩ
à¦·à¦£ à¦¶
à¦·à¦£ à¦ĵ
à¦·à¦£ à¦Ń
Ġà¦ıà¦² à¦®
Ġà¦ıà¦² à¦Ĺ
Ġà¦īà¦łà¦² à¦¬
Ġà¦īà¦łà¦² à¦¸
à¦Ĩ à¦·
à¦Ĩ à¦°à¦ķ
à¦Ĩ à¦®à¦²
à¦Ĩ à¦¦à¦°
à¦Ĩ à¦¸à¦®
à¦Ĩ à¦¸à¦Ľ
à¦Ĩ à¦«à¦¸
à¦Ĩ à¦ļà¦°à¦£
Ġà¦ħà¦¸ à¦®à§Ł
Ġà¦¬à¦¨ à¦ľ
Ġà¦¬à¦¨ à¦«
Ġà¦Ĩà¦ķ à¦¦
Ġà¦ħà¦¦ à¦ķ
à¦ķà¦² à¦¤
à¦ķà¦² à¦¸
à¦ķà¦² à¦¹
Ġà¦ıà¦¬ à¦Ľà¦°
Ġà¦ħà¦° à¦¸
à¦¶à¦¨ à¦ĩ
à¦¶à¦¨ à¦ĵ
à¦Ĺà¦² à¦¤
à¦Ĺà¦² à¦Ľ
à¦ĩà¦² à¦¨
Ġà¦ĺà¦° à¦ĸ
à¦°à¦¨ à¦®
à¦°à¦¨ à¦¦
Ġà¦ķà¦°à¦¬ à¦ĩ
à¦ĸà¦² à¦¸
à¦°à¦ľ à¦²
à¦°à¦ľ à¦Ĺà¦¤
Ġà¦ªà¦¥ à¦°
à¦¸à¦¬ à¦ĸ
à¦ķà¦¤ à¦¬
à¦°à¦¸ à¦¦
Ġà¦ħà¦® à¦¸
Ġà¦Ĩà¦¨ à¦ķ
Ġà¦Ĩà¦¨ à¦²à¦ķ
à¦°à¦¶ à¦®
Ġà¦¬à¦° à¦Ĺ
Ġà¦ħà¦ļ à¦²à¦¤
à¦ķà¦¬ à¦ķ
Ġà¦ħà¦ª à¦¸
Ġà¦ħà¦ª à¦ļà§Ł
à¦ĩà¦¨ à¦ĩ
à¦¦à¦¨ à¦ª
à¦®à¦ķ à¦¹
à¦¦à¦° à¦¦
à¦ħ à¦®à¦¨
à¦ħ à¦°à¦«
Ġà¦¸à¦° à¦Ĺà¦°à¦®
Ġà¦¬à¦Ľà¦° à¦ĵ
Ġà¦ªà§ľ à¦¨
Ġà¦ķà¦² à¦ª
Ġà¦ķà¦² à¦ľ
à¦¹à¦² à¦ĩ
à¦¹à¦² à¦¦
Ġà¦īà¦ª à¦®
Ġà¦ĵà¦ĩ à¦¦
Ġà¦ĵà¦ĩ à¦ĸ
Ġà¦ĵà¦ĩ à¦°à¦ķà¦®
Ġà¦¬à¦ĩ à¦ª
Ġà¦¬à¦ĩ à¦ĵ
Ġà¦¬à¦ĩ à¦ªà¦¡
à¦²à¦² à¦ıà¦ķ
Ġà¦Ńà¦° à¦¦
à¦°à¦Ł à¦²
à¦¨à¦ķ à¦ķ
à¦°à¦¹ à¦ķ
Ġà¦¨à§Ł à¦Ł
Ġà¦¨à§Ł à¦ıà¦Ł
à¦¸à¦¨ à¦¦
à¦¬à¦¤ à¦®
à¦ıà¦ķ à¦®
à¦ıà¦ķ à¦ª
à¦ıà¦ķ à¦¦à¦²
à¦ıà¦ķ à¦¦à¦®
Ġà¦°à¦Ļ à¦ª
à¦ļà¦² à¦Ł
à¦ļà¦² à¦Ń
Ġà§ ·
à¦²à¦Ľ à¦¬
à¦ľà¦¤ à¦¤
Ġà¦ĸà¦¬à¦° à¦ĵ
Ġà¦ķà¦· à¦¤
Ġà¦¦à¦² à¦Ĺà¦¤
Ġà¦ħà¦¬à¦¸ à¦°à¦ª
Ġà¦ķà¦²à¦ķ à¦¬
à¦ľà¦² à¦ª
Ġà¦ĩà¦¨ à¦¶
Ġà¦Ĳ à¦ĸ
à¦¹à¦¨ à¦ª
à¦§à¦¨ à¦¹
Ġà¦Ńà¦¬ à¦ĺ
à¦¢ à¦²
à¦·à¦¤ à¦®
à¦·à¦¤ à¦ĩ
à¦²à¦¸ à¦¦
à¦¸à¦ķ à¦¦à¦²
à¦°à¦Ĺ à¦£
Ġà¦¬à¦¹ à¦¨à¦ķ
à¦¨à¦¸ à¦Ń
Ġà¦ıà¦¸à¦¬ à¦ĩ
Ġà¦ħà¦®à¦² à¦ª
Ġà¦¶à¦¤ à¦Ń
à¦ĩà¦Ń à¦Ł
Ġà¦°à¦ľà¦¤ à¦ĵ
Ġà¦¬à¦Ł à¦ł
Ġà¦°à¦« à¦¤
à¦°à¦« à¦°à¦®
à¦¨à¦° à¦Ļ
à¦®à¦§ à¦°
à¦¡à¦² à¦«
à¦ĩà¦® à¦¸
à¦²à¦ª à§ľ
à¦®à¦¦ à¦ķ
Ġà¦¨à¦¬ à¦Ĺ
Ġà¦¨à¦¬ à¦ľà¦¨
à¦ĩà¦ª à¦²
à¦¬à¦¹ à¦¤
à¦īà¦² à¦¦
à¦°à¦¹à¦° à¦Ĺ
Ġà¦Ī à¦¸
à¦¨à¦ª à¦ŀ
à¦²à¦¦ à¦¹
Ġà¦ĸà¦°à¦ļ à¦ĵ
Ġà¦ĩà¦¶ à¦°
à§Ń à§«
à¦¨à¦® à¦Ĺ
à¦ľà¦Ĺ à¦£
Ġà¦ľà§Ł à¦§
ĠĠčĊ Ġ
Ġà¦Ĩà¦ĩà¦¨ à¦ķ
Ġà¦ĩà¦Ł à¦Ń
Ġà¦ıà¦¡ à¦®à¦¨
Ġà§§à§¯ à§¬
à§§à§ §
Ġà¦Ńà¦¬à¦¨ à¦Ł
Ġà¦īà¦ªà¦ķ à¦¥
Ġà¦ķà¦ĩ à¦¤à¦°
à¦īà¦¡ à¦¸
Ġà¦īà§ľ à¦Ľ
à¦¸à¦¹ à¦ľ
Ġà¦¶à¦ĵà¦ķà¦¤ à¦ĵ
Ġà¦ªà¦Ł à¦ļ
Ġà¦¨à§ľ à¦²
à§© à§ª
Ġà¦Ĩà¦¹à¦® à¦¦
à¦īà¦¬ à¦Ĺ
Ġà§© à§«
à¦¤à¦ļ à¦°à¦¬
Ġà¦ľà¦Ĺà§İ à¦¦
ĠĠĠ čĊ
Ġà¦¸à§İ à¦®
à¦°à¦¹à¦¸ à¦¨
Ġà¦ĩà¦¨à¦« à¦°à¦®
Ġà¦²à¦¬ à¦Ļ
Ġà§« à§§
Ġà¦§à¦ķ à¦§à¦ķ
Ġà¦ªà¦Ļ à¦ķ
à¦īà¦ł à¦¤
Ġà¦¬à¦Ĺà¦² à¦¦
à¦¯à¦ľà¦¨à¦ķ à¦Ń
Ġà¦¬à¦¶ à¦¬à¦°
Ġà¦īà¦Ńà§Ł à¦ĩ
Ġà§¯ à§¦
à¦¤à¦ļà¦° à¦°
à¦Ĩà¦ļ à¦®à¦ķ
à¦Ī à¦®
Ġà¦ĵà¦²à¦Ł à¦ª
Ġà¦ıà¦Ĩ à¦ĩà§Ł
Ġà§® à§¦
Ġà¦ļà¦Łà¦ķ à¦¦
à¦¶à¦ªà¦° à¦®
Ġà¦¶à¦¬à¦° à¦°
Ġà¦Ĺà¦¦à¦Ĺ à¦¦
Ġà¦°à¦Ĺà¦° à¦Ĺ
Ġà¦«à¦ķà¦« à¦ķ
Ġ čĊčĊ
à¦° à¦°à¦¶
à¦° à¦Ĩà¦²
à¦° à¦Ĩà¦ªà¦¨
à¦° à¦¡à¦ķ
à¦° à¦ıà¦¸à¦¬
à¦° à¦Ĩà¦ļ
à¦¨ à¦¤à¦°
à¦¨ à¦°à¦ķ
à¦¨ à¦ķà¦°
à¦¨ à¦¬à¦ª
à¦¨ à¦ĩà¦²
à¦¨ à¦ļà¦ķ
à¦¨ à¦¸à¦¤
à¦¨ à¦ľà¦²
à¦¨ à¦Ĩà¦ľ
à¦¨ à¦Ĩà¦²
à¦¨ à¦¸à¦¬à¦ķ
à¦¨ à¦Ĩà¦ķ
à¦¨ à¦ħà¦ļ
à¦² à¦¹à¦°
à¦² à¦®à¦¤
à¦² à¦¨à¦¬
à¦² à¦ļà¦¨
à¦² à¦ļà¦ķ
à¦² à¦¹à¦ł
à¦² à¦ļà¦°
à¦² à¦ıà¦°
à¦² à¦ħà¦°
à¦² à¦¶à¦¯
à¦² à¦ıà¦ķà¦ľà¦¨
à¦² à¦ħà¦¤
à¦¤ à¦¥
à¦¤ à¦ĵà¦¯
à¦¤ à¦ªà¦¤
à¦¤ à¦¤à¦²
à¦¤ à¦¸à¦°
à¦¤ à¦§à¦¨
à¦¤ à¦ıà¦ĸà¦¨
à¦ķ à¦Ļ
à¦ķ à¦·à¦£
à¦ķ à¦ķà¦²
à¦ķ à¦ĸà¦¤
à¦ķ à¦ļà¦¨
à¦ķ à¦¶à¦¬
à¦ķ à¦¸à¦®
à¦ķ à¦ıà¦°
à¦ķ à¦Ĩà¦¶
à¦¯ à¦¨à¦¤
à¦¯ à¦¸à¦¨
à¦¯ à¦ıà¦ĩ
à¦¯ à¦¸à¦¬à¦ĩ
à¦¯ à¦¸à¦¬à¦ķ
à¦¬ à¦ªà¦°
à¦¬ à¦Ĩà¦®
à¦¬ à¦ıà¦ķà¦Ł
à¦¬ à¦īà§Ł
à¦¬ à¦ľà¦Ĺà§İ
à§ĭ à§ĩ
Ġà¦ķ à¦¹
Ġà¦ķ à¦ŀ
Ġà¦ķ à¦ĩà¦¬
à¦® à¦¥
à¦® à¦¬à¦¨
à¦® à¦Ĩà¦°
à¦® à¦ıà¦ĸ
à¦® à¦Ĩà¦¬
Ġà¦¬ à¦Ľ
Ġà¦Ĩ à¦Łà¦¤
Ġà¦Ĩ à¦§à¦¬
Ġà¦¸ à¦°à¦®
Ġà¦¸ à¦¸à¦®
Ġà¦¸ à¦ĩà¦ľ
Ġà¦¸ à¦²à¦ľ
Ġà¦¸ à¦¶à¦°
à¦Ł à¦§
à¦Ł à¦ķà¦²
à¦Ł à¦¸à¦®
à¦Ł à¦¸à¦ķ
à¦Ł à¦Ńà¦°
à¦¸ à§ľ
à¦¸ à¦ı
à¦¸ à¦®à¦¤
à¦¸ à¦Łà¦¨
Ġà¦ª à¦²à¦¤
Ġà¦ª à¦¸à¦°
Ġà¦ª à¦¯à¦°
Ġà¦ª à¦¶à¦®
à¦Ľ à¦¸
à¦Ľ à¦Ń
Ġà¦¨ à¦¹
Ġà¦¨ à¦Łà¦¬
Ġà¦¨ à¦²à¦Ł
Ġà¦¨ à¦²à¦ª
à¦ĩ à¦¥
à¦ĩ à¦ªà¦°
à¦ĩ à¦ı
à¦ĩ à¦ĵà§Ł
à¦ĩ à¦¸à¦®
à¦ĩ à¦¢
à¦ĩ à¦ľà¦¨à¦ķ
à¦ĩ à¦ĵà¦°
à¦ĩ à¦īà¦Ń
à¦¦ à¦¨à¦ĵ
à¦¦ à¦ªà¦¦
à¦¦ à¦Ĩà¦®
à¦¦ à¦ĺà¦°
à¦¦ à¦ıà¦ķà¦Ł
Ġà¦® à¦°à¦¶
Ġà¦® à¦ľà¦²
Ġà¦® à¦ĸà¦®à¦²
Ġà¦® à¦¸à¦¨à¦¦
Ġà¦ı à¦°à¦¶
Ġà¦ı à¦¨à¦Ĺ
Ġà¦¤ à¦¸
Ġà¦¹ à¦°à¦®
Ġà¦¹ à¦°à¦¹
à¦ª à¦ķà¦Ł
à¦ª à¦¤à¦¨
à¦ĸ à¦Ŀ
à¦ĸ à¦®à¦¨
à¦ľ à¦ļ
à¦ľ à¦ªà¦°
à¦ľ à¦®à¦¨
à¦ľ à¦°à¦ķ
à¦ľ à¦¸à¦¬
à¦¡ à¦²à¦Ł
à¦¶ à¦·
à¦¶ à¦ĵà¦ķà¦¤
Ġà¦ħ à¦¹à¦®
Ġà¦ħ à¦£à¦¨
à¦Ĺ à¦°à¦ª
à¦Ĺ à¦°à¦¦
à¦Ĺ à¦ıà¦ķà¦Ł
Ġà¦ķà¦° à¦ª
Ġà¦ķà¦° à¦ľ
Ġà¦¯ à¦¤à¦¨
Ġà¦¯ à§İà¦¸
Ġà¦¯ à¦®à¦¦
Ġà¦Ĺ à¦Ł
Ġà¦Ĺ à¦ªà¦Ĺ
à¦ļ à¦ļ
à¦ļ à¦ŀ
à¦ļ à¦°à¦ķ
à¦ļ à¦ªà¦¦
Ġà¦ļ à¦¯
Ġà¦ļ à¦ĸ
Ġà¦ļ à¦°à¦ª
à¦· à¦ĸ
à¦· à¦ļ
à¦· à¦¬à¦¨
à¦· à¦¸à¦¬
à¦· à¦°à¦¹
à¦· à¦§à¦°
à§Ł à¦ĸ
à§Ł à¦¶
à§Ł à¦Ļ
à§Ł à¦¨à¦ķ
à§Ł à¦¤à¦®
à§Ł à¦ıà¦ĸ
Ġà¦° à¦¸à¦®
Ġà¦° à¦¬à¦ķ
Ġà¦° à¦ĩà¦¬
Ġà¦¶ à¦ĩà¦²
Ġà¦¶ à¦¤à¦¬
Ġà¦¶ à¦¶à¦¬
Ġà¦¶ à¦¨à¦¶à¦¨
Ġà¦¶ à§Łà¦¤
à¦§ à¦¯
à¦§ à¦®à¦ķ
à¦§ à¦¬à¦¤
à¦§ à¦®à§Ł
à¦§ à¦¸à¦¬à¦ĩ
à¦§ à¦¸à¦¬à¦ķ
Ġà¦Ń à¦°à¦¬
Ġà¦Ń à¦Ĺà¦®
à¦¥ à¦Ľ
à¦¥ à¦°à¦ķ
à¦¥ à¦¨à¦ķ
Ġà¦ıà¦ķ à¦ļà¦²
Ġà¦ıà¦ķ à¦ıà¦ķà¦¦
Ġà¦ıà¦ķ à¦ıà¦ķà¦¬
Ġà¦ıà¦ķ à¦Ĩà¦§à¦Ł
Ġà¦Ĩà¦® à¦ķ
Ġà¦Ĩà¦® à¦²à¦ķ
à¦£ à¦¬à¦°
à¦£ à¦®à¦¯
à¦£ à¦ªà¦ķ
à¦£ à¦¶à¦ķ
à¦£ à¦Ńà¦°
Ġà¦Ľ à¦«
Ġà¦² à¦ĸ
Ġà¦¥ à¦¬
à¦ł à¦ĺ
à¦ł à¦ªà¦¥
Ġà¦Ĩà¦° à¦«
Ġà¦Ĩà¦° à¦Ĩà¦°
Ġà¦Ĩà¦° à¦ıà¦¸
à¦¾à¦ģ à¦ģ
à¦Ń à¦ĩ
à¦Ń à¦ª
à¦Ń à¦ĵ
Ġà¦ī à¦¶à¦ķ
Ġà¦ī à¦ĩà¦¶
à¦Ļ à¦Ł
Ġà¦ĵ à¦¤à¦ª
Ġà¦ĵ à¦ľà¦¸
Ġà¦§ à¦¨à¦¬
Ġà¦ħà¦¨ à¦¸
Ġà¦ħà¦¨ à¦®à¦¨
Ġà¦ħà¦¨ à¦Łà¦¨
Ġà¦ĺ à¦°à¦ķà¦¨
Ġà¦ªà¦° à¦ļ
Ġà¦¬à¦²à¦² à¦®
à¦°à¦¤ à¦¤
à¦°à¦¤ à¦ĵ
à§ľ à¦¦
Ġà¦®à¦¨ à¦¬
Ġà¦®à¦¨ à¦°à¦ķ
à¦Ŀ à¦®
à¦Ŀ à¦Ł
à¦Ŀ à¦²à¦¬
Ġà¦Ł à¦¸
Ġà¦Ł à¦Ļ
Ġà¦Ł à¦¨à¦ķ
à¦ī à¦«
à¦ī à¦ĩà¦²
à¦ī à¦°à¦¨
à¦ī à¦¦à¦¯
à¦ī à¦¥à¦ª
à¦ªà¦¨ à¦®
Ġà¦¸à¦® à¦ķ
Ġà¦¸à¦® à¦¬à¦¯
à¦ªà¦° à¦¨
à¦ªà¦° à¦®
Ġà¦ıà¦ĩ à¦¡
à¦®à¦¨ à¦Ĺà¦°
Ġà¦Ĩà¦² à¦ª
Ġà¦¸à¦¬ à¦°
Ġà¦¸à¦¬ à¦®
à¦ľà¦¨ à¦¸à¦¬
à¦ľà¦¨ à¦¸à¦¬à¦ĩ
à¦¤à¦° à¦¨
à¦¤à¦° à¦®
Ġà¦¡ à¦Ĺà¦®
à¦¬à¦¨ à¦ª
à¦¬à¦¨ à¦ľ
à¦¬à¦¨ à¦§
à¦¬à¦¨ à¦ķà¦£
à§İ à¦Ł
à§İ à¦«
à§İ à¦Ĺà¦¤
à§İ à¦¹à¦ł
à§İ à¦«à¦¨
Ġà¦ĩ à¦¡à¦²
Ġà¦ĩ à¦īà¦¸
Ġà¦¹à¦² à¦¬
Ġà¦¹à¦² à¦«
Ġà¦¹à¦² à¦ı
Ġà¦ıà¦¸ à¦ª
Ġà¦ıà¦¸ à¦ıà¦®
Ġà¦ıà¦¸ à¦ıà¦¸à¦¸
Ġà¦ıà¦¸ à¦ĩà¦īà¦Ń
à¦°à¦ķ à¦Łà¦Ń
Ġà¦ķà¦°à¦² à¦¨
Ġà¦ķà¦°à¦² à¦Ĺ
Ġà¦ķà¦°à¦² à¦ļ
Ġà¦ķà¦°à¦² à¦¨à¦¤
Ġà¦ķà¦°à¦² à¦ıà¦Ł
Ġà¦ķà¦°à¦² à¦Ĩà¦ľà¦ķ
Ġà¦Ŀ à¦²
à¦¬à¦° à¦¸à¦¬
à¦ĺ à¦Ľ
à¦ĺ à¦ļ
à¦ĺ à¦·
à¦ĺ à¦¤à¦®
Ġà¦Ĩà¦Ĺ à¦®
Ġà¦Ĩà¦Ĺ à¦®à¦£
Ġà¦§à¦° à¦ª
à¦ı à¦ª
à¦ı à¦ķà¦°
à¦ı à¦¸à¦ª
à¦ı à¦¤à¦¦
à¦ı à¦Ĩà¦ĩ
Ġà¦¢ à¦ķ
Ġà¦Ĺà¦² à¦¸
Ġà¦Ĺà¦² à¦«
à§ģà¦ģ à¦ģ
à¦¬à¦² à§Ł
à¦¬à¦² à¦Ń
à¦ķà¦° à¦²
à¦ķà¦° à¦®
à¦ķà¦° à¦ļ
à¦ķà¦Ł à¦ľà¦¨à¦ķ
à¦¨à¦¤ à¦¬
à¦¨à¦¤ à¦ı
à¦·à¦£ à¦¤
à¦·à¦£ à¦Ĺ
Ġà¦ıà¦² à¦ļ
Ġà¦ıà¦² à¦Ĺà¦°
Ġà¦Ĩà¦¬ à¦¹à¦®
à¦¬à¦ª à¦ķ
Ġà¦īà¦łà¦² à¦°
Ġà¦īà¦łà¦² à¦¨
Ġà¦īà¦łà¦² à¦ľ
Ġà¦īà¦łà¦² à¦Ĩà¦®
à¦Ĩ à¦Ľ
à¦Ĩ à¦Ń
à¦Ĩ à§ľ
à¦Ĩ à¦²à¦¤
à¦Ĩ à¦¸à¦¨
à¦Ĩ à¦ĩà¦ª
à¦Ĩ à¦ĩà¦¶
Ġà¦ħà¦¸ à¦®à¦¤
Ġà¦ħà¦¸ à¦«à¦²
à¦²à¦ķ à¦ĩ
à¦²à¦ķ à¦ĵ
Ġà¦¬à¦¨ à¦¦
Ġà¦¬à¦¨ à¦Ĺ
Ġà¦¬à¦¨ à¦¬à¦¨
Ġà¦¬à¦¨ à¦²à¦¤
à¦°à¦® à¦ĩ
à¦°à¦® à§Ł
à¦°à¦® à¦¦à¦¤
à¦ķà¦² à¦Ł
à¦ķà¦² à¦¦
Ġà¦ħà¦° à¦¥
Ġà¦¹à§Ł à¦°
à¦Ĺà¦² à¦¯
à¦Ĺà¦² à¦¸
à¦Ĺà¦² à¦ĩ
à¦Ĺà¦² à¦ļ
à¦Ĺà¦² à¦ľà¦¨à¦ķ
à¦°à¦¥à¦® à¦ª
Ġà¦ĵà¦° à¦ĵ
à¦Ľà¦¨ à¦Ł
à¦ĸà¦² à¦¬
à¦ĸà¦² à¦Ľ
à¦ĸà¦² à¦¦
à¦ĸà¦² à¦ľ
à¦°à¦ľ à¦°
à¦ķà¦¤ à¦¦
Ġà¦ıà¦¤ à¦ľà¦¨
Ġà¦ıà¦¤ à¦¬à¦Ľà¦°
à¦¤à¦¨ à¦¬
à¦¤à¦¨ à¦¦
à¦¤à¦¨ à¦¶
à¦°à¦¸ à¦¤
Ġà¦ħà¦® à¦°à¦¤
Ġà¦Ĩà¦¨ à¦ļ
à¦°à¦ªà¦° à¦¨
Ġà¦ľà¦² à¦¸à¦¤
Ġà¦ľà¦² à¦ªà¦¥
Ġà¦ľà¦² à¦¦à¦¸
à¦¹à¦¸ à¦Ł
Ġà¦ħà¦ª à¦ļà¦¯
Ġà¦ħà¦ª à¦¦à¦¸
Ġà¦ĵà¦ªà¦° à¦Ł
à¦Łà¦ķ à¦ļ
à¦ĩà¦¨ à¦ľ
à¦ĩà¦¨ à¦¡
à¦¤à¦¬ à¦¬
à¦¤à¦¬ à¦¦
à¦¤à¦¬ à¦°à¦£
à¦¦à¦¨ à¦®
à¦¦à¦¨ à¦ļà¦ķ
à¦®à¦ķ à¦°à¦£
à¦¦à¦° à¦ĵ
Ġà¦ħà¦¤ à¦ķ
Ġà¦ħà¦¤ à¦²à¦¸
à¦ħ à¦®à¦°
à¦ħ à¦¸à¦®
à¦ħ à§Łà¦¨
à¦ħ à¦ªà¦®
à¦ħ à¦¥à¦¬
à¦¯à¦¬ à¦¦à¦²
Ġà¦ķà¦² à¦®à¦Ł
à¦¹à¦² à¦ª
à¦¹à¦² à¦¹
à¦°à¦ĩ à¦¯
à¦°à¦Ľ à¦¡
Ġà¦ıà¦Ĺ à¦ľ
à¦¨à¦¬ à¦®
à¦¨à¦¬ à¦Ł
à¦¨à¦¬ à¦ļ
Ġà¦ķà¦® à¦¸
Ġà¦īà¦ª à¦¬
à¦°à¦ª à¦Ļ
Ġà¦ķà¦¤ à¦ķà¦Ł
Ġà¦ĵà¦ĩ à¦Ń
Ġà¦¬à¦ĩ à¦ĩ
Ġà¦¬à¦ĩ à¦ıà¦°
Ġà¦¬à¦ĩ à¦ķà¦²à¦®
à¦¦à¦² à¦ĩ
à¦¦à¦² à¦ĵ
à¦²à¦² à¦®
à¦²à¦¨ à¦¨
à¦²à¦¨ à¦¸
à¦ļà¦¨ à¦ķ
à¦ļà¦¨ à¦ļ
à¦°à¦¦ à§Ł
à¦°à¦¦ à¦°à¦¬
à¦¨à¦ķ à¦¡
à¦¨à¦ķ à¦¶
à¦¸à¦« à¦²
à¦¸à¦« à¦°à¦®
à¦°à¦¹ à¦¬
à¦°à¦¹ à¦¹
à¦°à¦¹ à¦®à¦¤
à¦°à¦¹ à¦¨à¦ķ
à¦¤à¦ķ à¦°à¦¬
Ġà¦¨à§Ł à¦ķ
Ġà¦¨à§Ł à¦¸
Ġà¦¨à§Ł à¦¨à¦¤
Ġà¦ıà¦ķà¦¬ à¦Ľà¦°
à¦ıà¦ķ à¦¶
à¦ıà¦ķ à¦¸à¦®à§Ł
Ġà¦°à¦Ļ à¦ĵ
Ġà¦°à¦Ļ à¦ļà¦Ł
Ġà¦°à¦Ļ à¦ļà¦Ļ
Ġà¦ħà¦« à¦ķ
à¦·à¦ķ à¦ľ
à¦ªà¦¦ à¦¬
à¦¨à¦¦ à¦£
Ġà¦ªà¦¦ à¦¤à¦²
à¦Ĺà¦ľ à¦ª
à¦Ĺà¦ľ à¦ķà¦²à¦®
Ġà¦¦à¦² à¦ĵ
à¦Łà¦¬ à§ľ
à¦Łà¦¬ à¦ĩà¦¯
à¦¦à§Ł à¦¸
à¦¦à§Ł à¦ĩ
à¦ľà¦² à¦®
à¦ľà¦² à¦¸
Ġà¦ĩà¦¨ à¦¹
Ġà¦ķà¦¨ à¦ľ
Ġà¦ķà¦¨ à¦Ĺ
Ġà¦ķà¦¨ à¦Ńà¦¯
Ġà¦°à¦ķà¦® à¦ĵ
Ġà¦°à¦ķà¦® à¦Ń
Ġà¦Ĳ à¦¸à¦¬
à¦¹à¦¨ à¦ľà¦²
à¦§à¦¨ à¦ĩ
à¦ªà¦¥ à¦¯
à¦ªà¦¥ à¦ļ
à¦ķà¦ķ à¦®
à¦ķà¦¨ à¦¸
à¦ķà¦¨ à¦«
Ġà¦¦à¦¶ à¦ıà¦Ĺ
Ġà¦¬à¦ī à¦¬
Ġà¦¬à¦ī à¦ĩ
à¦¯à¦° à¦ļà¦¨
Ġà¦Ńà¦¦ à¦ķ
Ġà¦¸à¦®à§Ł à¦ķ
Ġà¦¸à¦®à§Ł à¦®à¦¤
à¦²à¦¸ à¦Ł
Ġà¦ıà¦¨ à¦Ń
Ġà¦ļà¦ķ à¦®à¦ķ
Ġà¦ıà¦ķà¦ĩ à¦¸à¦®à¦¯
à¦¤à¦® à§Ł
Ġà¦Ńà§Ł à¦¸à¦¬
à¦¨à¦¸ à¦ĩ
à¦¨à¦¸ à¦ķà¦²
à¦²à¦Ĺ à¦¡
à¦¬à¦ĩ à§Ł
Ġà¦®à¦² à¦¯
Ġà¦Ĺà¦°à¦® à¦Ĺà¦°à¦®
Ġà¦ļà¦®à¦ķ à¦¦
Ġà¦Ĩà¦§ à¦®à¦°
Ġà¦Ĩà¦§ à¦ĺà¦¨
à¦¬à¦¶ à¦°
Ġà¦¬à§ľ à¦²
Ġà¦¬à§ľ à¦¦
Ġà¦ĭ à¦·
Ġà¦ıà¦°à¦ķà¦® à¦Ń
à¦ķà¦¸ à¦¦
à¦ķà¦¸ à¦ľ
Ġà¦ķà¦ķ à¦ª
à¦ĩà¦ª à¦®
à§¦ à§¨
Ġà¦«à¦Ł à¦«à¦Ł
à¦¤à¦¦ à¦¶
Ġà¦Ī à¦®
à¦²à¦ľ à§Ł
Ġà¦ħà¦Ł à¦²à¦¤
à§Ń à§©
à¦¨à¦® à¦ľ
Ġà¦ľà§Ł à¦¦
Ġà¦ľà§Ł à¦ªà¦°
ĠĠčĊ čĊ
ĠĠčĊ ĠčĊč
à¦ķà¦Ń à¦ķ
à§¨ à§ª
Ġà¦ıà¦¡ à¦ĵà§Ł
Ġà¦Ĩà¦Ł à¦ĸ
Ġà¦ľà¦Ĺà¦¤ à¦Ł
Ġà§§à§¯ à§§à§Ń
à¦Ŀà¦ķ à¦Ŀà¦ķ
à§§à§ ª
Ġà¦ıà¦® à¦Ĩà¦°
à¦Ĩà¦Ĺ à¦¸
Ġà¦Ńà¦¬à¦¨ à¦Ĺ
Ġà¦Ĩà§Ł à¦¶
à§° à¦¥à¦®
à¦Ĩà¦ķ à¦¬à¦°
Ġà¦¬à¦°à¦« à¦¶
à§ª à§®
Ġà¦¢à¦² à¦¢à¦²
à¦ļà¦Ľ à¦¯
à¦ªà¦¬ à§Łà¦¸
à¦¤à¦¸ à¦®à¦°
Ġà¦īà¦²à¦Ł à¦ª
Ġà¦īà§ľ à¦¨
Ġà¦īà§ľ à¦¬
Ġà¦¨à¦ĸ à¦¦à¦°
Ġà¦¨à§ľ à¦Ľ
à§© à§¦
à§® à§«
Ġà¦ķà§ľ à¦ķà§ľ
à¦ıà¦¸ à¦ıà¦«
Ġà§¨à§¦ à§§à§«
Ġà§¨à§¦ à§§à§¬
à¦¯à¦ľ à¦Ĺà¦¤
à¦Ĺà¦ª à§İ
Ġà¦ķà¦¦à¦® à¦«
à¦ĩà¦ĵ à¦®
à¦¤à¦ĸ à¦°à¦ļ
Ġà§§à§¯à§Ń à§¬
Ġà§§à§¯à§Ń à§®
Ġà¦īà¦ĩ à¦ŀ
Ġà¦²à¦Ĺ à¦ĩà¦¨
Ġà§Ń à§§
Ġà§§à§Ń à§«à§Ń
Ġà¦ķà¦ªà¦Ł à¦¤
Ġà¦ıà¦ĩà¦°à¦ķà¦® à¦ĩ
Ġà¦ªà¦¥à¦ļ à¦²à¦¤
Ġà¦ıà¦ķà¦§ à¦°à¦£
à§§à§Ń à§«à§¬
Ġà¦§à§ľ à¦®à§ľ
à¦¶à¦§ à¦°à¦¦
Ġà§¬ à§«
Ġà§¬ à§¨
Ġà§¬ à§®
Ġà§§à§« à§¦
Ġà§§à§« à§Ń
Ġà§§à§¯à§« à§§
à¦¤à¦Ĩà¦Ł à¦ľà¦¨
Ġà§¦ à§§à§Ń
Ġà¦ĸà§ľ à¦ĸà§ľ
Ġà¦°à¦£ à¦ľ
Ġà¦¶à¦¬à¦° à¦¦
Ġà¦«à¦¸à¦« à¦¸
Ġà¦Ĩà¦īà¦Łà¦¬ à¦ķ
à¦ĵà¦ĵ à¦ĵ
Ġà§ªà§© à§¦
Ġà¦Ĺà¦Ĺà¦² à¦¸
Ġà¦¥à¦ĩ à¦¥à¦ĩ
ĠĠčĊĠĠĠĠ Ġč
Ġà¦®à¦Ł à¦®à¦Ł
Ġà¦ħà¦¹à¦° à¦¹
Ġà§§à§§à§ §
Ġà¦Ĺà¦ªà¦Ĺ à¦ª
Ġà¦¡à¦Ĺà¦® à¦Ĺ
Ġà¦ıà¦¸à¦ıà¦® à¦ıà¦¸
à¦ Ķ
à§ ±
à§ĩ à¦¿
à§ĩ à§į
à¦¾ à§į
à¦° à¦°à¦¤
à¦° à¦ļà¦ķ
à¦° à¦ıà¦Ł
à¦° à¦ıà¦¬
à¦° à¦ıà¦ĸà¦¨
à¦° à¦Ĩà¦Ĺ
à¦° à¦īà¦¦
à¦° à¦ħà¦²
à¦° à¦īà¦¤
à¦° à¦Ĩà¦¨
à¦° à¦ĭà¦£
à¦¿ à§ĩ
à¦¨ à¦ªà¦¨
à¦¨ à¦Ĺà¦²
à¦¨ à¦ĩà¦¨
à¦¨ à¦ħ
à¦¨ à¦¶à¦¬
à¦¨ à¦ĩà¦¤
à¦¨ à¦¯à¦¦
à¦¨ à¦ľà¦®
à¦¨ à¦Ĩà¦¶
à¦¨ à¦Ĩà¦ľà¦ķ
à¦¨ à¦Ĳ
à¦¨ à¦ªà¦°à¦¬à¦°
à¦² à¦£
à¦² à¦Ĺà¦²
à¦² à¦²à¦¤
à¦² à¦¨à¦ĵ
à¦² à¦ĩà¦¨
à¦² à¦Ńà¦¬
à¦² à¦¸à¦¤
à¦² à¦¶à¦¬
à¦² à¦ªà¦Ł
à¦² à¦ªà¦ķ
à¦² à¦«à¦²
à¦² à¦ľà¦®
à¦² à¦ĵà¦°
à¦² à¦¸à¦¬à¦ķ
à¦² à¦Ĩà¦ľà¦ķ
à¦² à¦Ĳ
à¦² à¦ħà¦¬
à¦¤ à¦£
à¦¤ à¦¬à¦¨
à¦¤ à¦ĺ
à¦¤ à¦²à¦ķ
à¦¤ à¦ķà¦²
à¦¤ à¦ĸà¦¤
à¦¤ à¦ķà¦¬
à¦¤ à¦ļà¦²
à¦¤ à¦ªà¦¦
à¦¤ à¦ľà¦²
à¦¤ à¦ıà¦°
à¦¤ à¦Ĩà¦ľ
à¦¤ à¦¹à¦¤
à¦¤ à¦ıà¦ĸ
à¦¤ à§°
à¦¤ à¦ħà¦®
à¦¤ à¦¸à¦®à¦¸
à¦ķ à¦®à¦²
à¦ķ à¦ħà¦¨
à¦ķ à¦Ĩà¦°
à¦ķ à¦Ĩà¦ľ
à¦ķ à¦ıà¦Ł
à¦ķ à¦ıà¦¬
à¦¯ à¦Ľ
à¦¯ à¦ĺ
à¦¯ à¦¯à¦¨
à¦¯ à§İà¦ķ
à¦¯ à¦¶à¦¬
à¦¯ à¦ªà¦ķ
à¦¯ à¦¸à¦®
à¦¯ à¦ªà¦¥
à¦¯ à§Łà¦¨
à¦¯ à¦ĩà¦¤
à¦¯ à¦Ĺà¦£
à¦¯ à¦ıà¦¸à¦¬
à§ģ à§ĩ
à¦¼ à¦ĥ
à¦¬ à¦ĵà¦¯
à¦¬ à¦¹à¦¸
à¦¬ à¦¤à¦²
à¦¬ à¦ıà¦°
à¦¬ à¦Łà¦Ł
à¦¬ à¦ľà¦¯
à¦¬ à§°
à¦¬ à¦Ĺà¦ŀ
à§ĭ à§į
à§ĭ à§ĭ
Ġà¦ķ à¦Ľ
Ġà¦ķ à¦ĸ
Ġà¦ķ à¦ĩà¦¤
Ġà¦ķ à¦ľà¦¨à¦ķ
à¦® à¦¸à¦¬
à¦® à¦ıà¦ķ
à¦® à¦¶à¦¬
à¦® à¦Ĺà¦¨
à¦® à¦Ĺà¦°
à¦® à¦ıà¦°
à¦® à¦ľà¦®
à¦® à¦¸à¦¬à¦ķ
à¦® à¦Ĩà¦ªà¦¨
Ġà¦¬ à¦ļ
Ġà¦¬ à¦Łà¦²
Ġà¦¬ à¦ľà¦°
Ġà¦¬ à¦ķà¦¶
Ġà¦Ĩ à¦£
Ġà¦Ĩ à¦§à¦ķ
Ġà¦Ĩ à¦ªà¦¦
Ġà¦Ĩ à¦īà¦¡
Ġà¦Ĩ à¦ĸà¦ĸ
Ġà¦¸ à¦¶
Ġà¦¸ à¦ĵà§Ł
Ġà¦¸ à¦¦à¦¨
Ġà¦¸ à§İà¦ķ
Ġà¦¸ à¦ªà¦ķ
Ġà¦¸ à¦ĩà¦Ľ
à¦Ł à¦Ŀ
à¦Ł à¦¸à¦¬
à¦Ł à¦¨à¦Ł
à¦Ł à¦®à¦°
à¦Ł à¦ªà¦¦
à¦Ł à¦ıà¦°
à¦Ł à¦¸à¦¬à¦ķ
à¦Ł à¦īà¦¡
à¦Ł à¦®à¦Łà¦®
à¦¸ à¦ł
à¦¸ à¦®à¦¨
à¦¸ à¦¬à¦²
à¦¸ à¦°à¦²
à¦¸ à¦¨à¦ĵ
à¦¸ à¦°à¦Ł
à¦¸ à¦ķà¦¦
à¦¸ à¦Ńà¦°
à¦¸ à¦ıà¦ĸà¦¨
à¦¸ à¦īà¦¦
à¦¸ à¦¯à¦ľ
à¦¸ à¦ıà¦Ĺ
à¦¸ à¦ĸà¦¨à¦ĵ
Ġà¦ª à¦¥à¦®
Ġà¦ª à¦²à¦²
Ġà¦ª à¦²à¦¸
Ġà¦ª à§Łà¦²
à¦Ľ à¦§à¦°
à¦Ľ à¦²à¦Ľà¦²
Ġà¦¨ à¦Ľ
Ġà¦¨ à¦ĵà¦¯
Ġà¦¨ à¦¬à¦ª
Ġà¦¨ à¦ĵà§Ł
Ġà¦¨ à¦²à¦Ľ
Ġà¦¨ à¦¨à¦¸
à¦ĩ à¦ł
à¦ĩ à¦¬à¦²
à¦ĩ à¦ķà¦°
à¦ĩ à¦ķà¦Ł
à¦ĩ à¦®à¦ķ
à¦ĩ à¦¤à¦²
à¦ĩ à¦¯à¦¨
à¦ĩ à¦ıà¦ķ
à¦ĩ à¦¬à¦¸
à¦ĩ à¦ªà¦¡
à¦ĩ à¦ļà¦¡
à¦ĩ à¦ħà¦¨
à¦ĩ à¦¸à¦¬à¦ĩ
à¦ĩ à¦Ĩà¦ľ
à¦ĩ à¦ļà¦¬
à¦ĩ à¦«à¦¸
à¦ĩ à¦ıà¦Ł
à¦ĩ à¦Ĩà¦²
à¦¦ à¦§
à¦¦ à¦ķà¦¤
à¦¦ à¦°à¦¶
à¦¦ à¦ıà¦ķ
à¦¦ à¦ªà¦Ł
à¦¦ à¦Ĺà¦¨
à¦¦ à¦¸à¦¬à¦ķ
Ġà¦® à¦¬
Ġà¦® à¦°à¦¹
Ġà¦® à¦Łà¦°
Ġà¦® à¦Ĺà¦¬
Ġà¦® à¦°à¦®à¦°
Ġà¦¦ à¦¨
Ġà¦¦ à¦Ļ
Ġà¦¦ à¦ĩà¦ļ
Ġà¦ı à¦ªà¦¥
Ġà¦ı à¦¶à¦¹à¦°
Ġà¦ı à¦¤à¦°à¦ķà¦®
Ġà¦ı à¦ħà¦ŀ
Ġà¦ı à¦§à¦°à¦¨
Ġà¦¤ à¦Łà¦°
Ġà¦¤ à¦¦à¦¬
Ġà¦¹ à¦°à¦ª
Ġà¦¹ à¦¦à¦¯
Ġà¦¹ à¦īà¦ķ
à¦ª à¦°à¦¤
à¦ª à¦ªà¦°
à¦ª à¦®à¦¯
à¦ª à¦Ĩà¦®
à¦ª à¦ıà¦ĩ
à¦ª à¦ıà¦ķà¦Ł
à¦ª à¦²à¦¸
à¦ª à¦£à¦¤
à¦ª à¦¬à¦¦
à¦ª à¦ħà¦°
à¦ª à¦§à¦°
à¦ª à§Łà¦¸
à¦ª à¦Ŀà¦²à¦®à¦²
à¦ĸ à¦¬à¦¨
à¦ĸ à¦°à¦ķ
à¦ĸ à¦ķà¦²
à¦ĸ à¦¸à¦¬à¦ĩ
à¦ĸ à¦ľà¦¨à¦ķ
à¦ĸ à¦ķà¦ĩ
à¦ľ à¦ŀ
à¦ľ à¦ĺ
à¦ľ à¦¤à¦¬
à¦ľ à¦²à¦¬
à¦ľ à¦®à¦°
à¦ľ à¦ıà¦ķ
à¦ľ à¦ĺà¦°
à¦ľ à¦¸à¦¬à¦ĩ
à¦ľ à¦ħà¦°
à¦¡ à¦ªà¦¤
à¦¡ à¦²à¦¸
à¦¡ à¦ıà¦°
à¦¡ à¦ĸà¦£
à¦¶ à¦¬à¦²
à¦¶ à¦¸à¦¬
à¦¶ à¦°à¦¸
à¦¶ à¦®à¦¤
à¦¶ à¦ªà¦Ł
à¦¶ à¦ľà¦²
à¦¶ à¦ķà¦ķ
à¦¶ à¦ıà¦ķà¦Ł
à¦¶ à¦ľà¦®
Ġà¦ħ à¦Ľ
Ġà¦ħ à¦ĸà¦¨
à¦Ĺ à¦«
à¦Ĺ à¦¸à¦®
à¦Ĺ à¦¹à¦¨
à¦Ĺ à¦ªà¦¥
à¦Ĺ à¦łà¦ķ
Ġà¦ķà¦° à¦¦
Ġà¦ķà¦° à¦ķà¦°
Ġà¦¯ à¦¬à¦¨
Ġà¦Ĺ à¦¸
Ġà¦Ĺ à¦Ĺ
Ġà¦Ĺ à¦®à¦¨
Ġà¦Ĺ à¦¬à¦°
Ġà¦Ĺ à¦ľà¦°
Ġà¦Ĺ à¦ľà¦¬
à¦ļ à¦ĸ
à¦ļ à¦ĵà¦¯
à¦ļ à¦²à¦¬
à¦ļ à¦ĺà¦°
à¦ļ à¦¤à¦®
à¦ļ à¦ıà¦°
Ġà¦ļ à¦ķà¦¦
Ġà¦ļ à§ľà¦¤
à¦· à¦Ľ
à¦· à¦°à¦¤
à¦· à¦°à¦ķ
à¦· à¦°à¦®
à¦· à¦°à¦ĩ
à¦· à¦¤à¦²
à¦· à¦°à¦Ł
à¦· à¦°à¦ĵ
à¦· à¦¤à¦ķ
à¦· à¦ıà¦ķ
à¦· à¦ľà¦¨à¦ķ
à§Ł à¦£
à§Ł à¦Ĩà¦®
à§Ł à¦¨à¦¦
à§Ł à¦ķà¦¨
Ġà¦° à¦¸à¦¨
Ġà¦° à¦ľà¦¬
Ġà¦° à¦¨à¦ľ
Ġà¦° à¦¸à¦ķà¦·
Ġà¦¶ à§Ł
Ġà¦¶ à¦¤à¦°à¦ŀ
à¦§ à¦ĸ
à¦§ à¦ľ
à¦§ à¦§
à¦§ à¦¨à¦¤
à¦§ à¦¨à¦¬
à¦§ à¦ľà¦¯
Ġà¦Ń à¦Ń
Ġà¦Ń à¦°à¦£à¦ª
Ġà¦Ń à¦ķà¦Ńà¦ķ
Ġà¦ľ à¦¤
Ġà¦ľ à¦¦
Ġà¦ľ à¦ĵà¦¹
à¦¥ à¦¯
à¦¥ à¦¬à¦¨
à¦¥ à¦°à¦ļ
à¦¥ à¦²à¦Ł
à¦¥ à¦²à¦¸
à¦¥ à¦²à¦Ń
à¦¥ à¦¬à¦¹
à¦¥ à¦²à¦ľ
à¦¹ à¦ļ
à¦¹ à¦ĵ
à¦¹ à¦ªà¦°
à¦¹ à¦¸à¦¬
à¦¹ à¦²à¦¬
à¦¹ à¦¨à¦²
à¦¹ à¦®à¦¬
à¦¹ à¦Ĺà¦¨
à¦¹ à¦¸à¦¬à¦ĩ
à¦¹ à¦Ńà¦°
à¦¹ à¦ľà¦®
Ġà¦ıà¦ķ à¦ªà¦°
Ġà¦ıà¦ķ à¦¶à¦¬
Ġà¦ıà¦ķ à¦ªà¦ķ
Ġà¦ıà¦ķ à¦ıà¦ķà¦ľà¦¨
Ġà¦Ĩà¦® à¦ļ
Ġà¦Ĩà¦® à§ľ
à¦ĵ à¦¶
à¦ĵ à¦¸à¦¬
à¦ĵ à¦¸à¦¬à¦ĩ
à¦ĵ à¦Ĩà¦°
à¦ĵ à¦Ĩà¦°à¦ķ
à¦£ à¦Ľ
à¦£ à¦ªà¦¨
à¦£ à¦°à¦ķ
à¦£ à¦ķà¦°
à¦£ à¦¬à¦¦
à¦£ à¦ķà¦£
à¦£ à¦Ĺà¦ŀ
Ġà¦Ľ à¦°
Ġà¦Ľ à¦ĩ
Ġà¦¬à¦² à¦¶
Ġà¦¬à¦² à¦Ĺ
Ġà¦¬à¦² à¦¬à¦¨
Ġà¦² à¦Ń
Ġà¦² à¦ĩà¦²
Ġà¦² à¦¬à¦¸
à¦ł à¦ķà¦°
à¦ł à¦®à¦¯
à¦ł à¦¤à¦®
à¦ł à¦ķà¦ª
Ġà¦Ĩà¦° à¦ı
Ġà¦Ĩà¦° à¦¬à¦¦
à¦¾à¦ģ à¦¾
à¦Ń à§İ
à¦Ń à¦²à¦ª
Ġà¦« à¦²à¦¬
Ġà¦« à¦°à¦¹
Ġà¦« à¦²à¦¸
Ġà¦« à§Łà¦¸
Ġà¦« à¦°à¦«à¦°
Ġà¦ī à¦Ľ
Ġà¦ī à¦Ń
Ġà¦ī à¦Ĺà¦°
Ġà¦ī à¦Ľà¦²
Ġà¦ĸ à¦°à¦¤
Ġà¦ĸ à¦°à¦¸
Ġà¦ĸ à¦°à¦Ĺ
à¦Ļ à¦¡
à¦Ļ à¦¨à¦ĩ
Ġà¦ĵ à¦¶
Ġà¦ĵ à¦§
Ġà¦§ à¦²à¦¤
Ġà¦§ à¦¨à¦ķ
à¦ĸà¦¨ à¦²
à¦ĸà¦¨ à¦ķ
à¦ĸà¦¨ à¦¶
Ġà¦ĺ à¦°à¦®à¦¯
Ġà¦ªà¦° à¦ľ
Ġà¦ªà¦° à¦Ĺà¦¨
Ġà¦ªà¦° à¦¶à¦ª
Ġà¦ªà¦° à¦Ĺà¦£
Ġà¦¬à¦²à¦² à¦ķ
Ġà¦¬à¦²à¦² à¦¬
Ġà¦¬à¦²à¦² à¦ª
à¦°à¦¤ à¦Ł
à¦« à¦¯
à¦« à¦¬
à¦« à¦ĩ
à¦« à¦ļ
à¦« à¦ĵ
à¦« à¦Ŀ
à§ľ à¦¶
à§ľ à¦Ń
à¦Ŀ à¦¸
à¦Ŀ à¦Ļ
à¦Ŀ à¦°à¦¨
Ġà¦Ł à¦²à¦Ľ
à¦ī à¦Ŀ
à¦ī à¦ī
à¦ī à¦¨à¦Ł
à¦ī à¦ªà¦ķ
à¦ī à¦¢
à¦ī à¦¡à¦¨
Ġà¦Ĩà¦Ľ à¦¨
à¦ªà¦¨ à¦ķ
à¦ªà¦¨ à¦ĩ
à¦ªà¦¨ à¦Ĺ
Ġà¦¸à¦® à¦Ń
à¦ªà¦° à¦¸
Ġà¦ıà¦ĩ à¦°
à¦®à¦¨ à¦²
Ġà¦Ĩà¦² à¦Ł
Ġà¦Ĩà¦² à¦¹
Ġà¦¸à¦¬ à¦¸
à¦ľà¦¨ à¦¨
à¦¤à¦° à¦¯
à¦¤à¦° à¦ļ
à¦¤à¦° à¦Ń
Ġà¦¡ à¦²à¦¤
Ġà¦¡ à¦Łà¦ª
à¦¬à¦¨ à¦²
à¦°à¦¬ à¦ĩ
à¦°à¦¬ à¦ª
à§İ à¦ľ
Ġà¦ĩ à¦¬à¦°
Ġà¦ĩ à¦ķà¦¨
Ġà¦ĩ à¦¸à¦ķ
Ġà¦ĩ à¦īà¦ķ
à¦ŀ à¦°
Ġà¦¹à¦² à¦¨
Ġà¦¹à¦² à¦ª
Ġà¦¹à¦² à¦ıà¦ķà¦Ł
Ġà¦ł à¦¨
à¦°à¦£ à¦¦
à¦°à¦£ à¦¹
à¦°à¦£ à¦ķà¦ķ
à¦°à¦ķ à¦¥
Ġà¦ķà¦°à¦² à¦®
Ġà¦ķà¦°à¦² à¦¸à¦¬
Ġà¦ķà¦°à¦² à¦ıà¦ķ
Ġà¦ķà¦°à¦² à¦Ĩà¦®
Ġà¦ķà¦°à¦² à¦ľà¦²
Ġà¦ķà¦°à¦² à¦ıà¦ĸà¦¨
Ġà¦Ŀ à¦®
Ġà¦Ŀ à¦Ĺà§ľ
à¦¬à¦° à¦Ŀ
à¦¬à¦° à¦Łà¦°
à¦¬à¦° à¦¦à¦¸
à¦¬à¦° à¦®à§Ł
à¦ĺ à¦ĵ
à¦ĺ à¦¬à¦¤
à¦ĺ à¦Ńà¦°
Ġà¦Ĩà¦Ĺ à¦°à¦¤à¦²
Ġà¦Ĩà¦Ĺ à¦°à¦ĵà¦¯
à¦ı à¦¤à¦ķ
à¦ı à¦®à¦¸
à¦ı à¦¸à¦¡
à¦ı à¦¨à¦ıà¦°
Ġà¦ľà¦¨ à¦°
Ġà¦ľà¦¨ à¦¹
Ġà¦ľà¦¨ à¦¸à¦¨
Ġà¦ļà¦² à¦ķ
Ġà¦Ĺà¦² à¦Ľ
Ġà¦Ĺà¦² à¦ĺ
à¦¬à¦² à¦¯
à¦¬à¦² à¦¦
à¦¬à¦² à¦¶
à¦¬à¦² à¦¹
à¦¬à¦² à¦Ŀà¦²
à¦ķà¦° à¦¦à¦°
à¦ķà¦Ł à¦¨
à¦ķà¦Ł à¦²
à¦ķà¦Ł à¦¤
à¦ķà¦Ł à¦¬
à¦¨à¦¤ à¦¤
à¦·à¦£ à¦®
à¦·à¦£ à¦¸à¦¬à¦ĩ
Ġà¦ħà¦¬ à§Ł
Ġà¦ıà¦² à¦ľ
Ġà¦ıà¦² à¦Ĩà¦Ĺ
Ġà¦ıà¦² à¦ıà¦¸à¦¡
Ġà¦Ĩà¦¬ à¦¡
Ġà¦Ĩà¦¬ à¦°à¦£à¦Ł
Ġà¦¨à¦¤ à¦®à¦¸
à¦¬à¦ª à¦¦
Ġà¦īà¦łà¦² à¦¶
Ġà¦īà¦łà¦² à¦ł
à¦Ĩ à¦ĸ
à¦Ĩ à¦Ĩ
à¦Ĩ à¦ĩà¦°
à¦Ĩ à¦¸à¦¤
à¦Ĩ à¦¹à¦°à¦£
à¦²à¦ķ à¦¤
à¦²à¦ķ à¦¡
à¦²à¦ķ à¦¥
à¦²à¦ķ à¦ĸà¦¨
Ġà¦¬à¦¨ à¦®
Ġà¦¬à¦¨ à¦Ł
à¦°à¦® à¦²
à¦°à¦® à¦ķ
à¦°à¦® à¦Ł
à¦°à¦® à¦¸
à¦°à¦® à¦ª
à¦ķà¦² à¦Ĺ
à¦ķà¦² à¦ıà¦ĩ
Ġà¦ıà¦¬ à¦¯
Ġà¦ħà¦° à¦¯
à¦¶à¦¨ à¦¸
Ġà¦¹à§Ł à¦ķ
à¦Ĺà¦² à¦§
à¦Ĺà¦² à¦¹
à¦Ĺà¦² à¦Ń
à¦Ĺà¦² à¦ıà¦ķà¦Ł
à¦Ĺà¦² à¦ıà¦Ł
à¦ĩà¦² à¦ª
Ġà¦¹à¦¤ à¦¦à¦°
Ġà¦ĺà¦° à¦ĵ
Ġà¦ĺà¦° à¦Ń
Ġà¦ĺà¦° à¦¦à¦°à¦ľ
à¦°à¦¨ à¦¬
à¦°à¦¨ à¦ľ
Ġà¦ķà¦°à¦¬ à¦¬
à¦ĸà¦² à¦ıà¦ķ
à¦ĸà¦² à¦ıà¦ķà¦Ł
à¦°à¦ľ à¦¯
à¦°à¦ľ à§Ł
à¦°à¦ľ à¦¬à¦°à¦¦à¦¸
à¦§à¦ķ à¦°à¦£
à¦°à¦² à¦¸
à¦°à¦² à¦¶
Ġà¦ªà¦¥ à¦ķ
Ġà¦ªà¦¥ à¦¯
Ġà¦ªà¦¥ à¦ľ
Ġà¦ªà¦¥ à¦¶
à¦°à¦¸ à¦¡
Ġà¦ħà¦® à¦¤
Ġà¦ħà¦® à¦¯
Ġà¦ħà¦® à¦²à¦ķ
Ġà¦Ĩà¦¨ à¦ĩà¦®
Ġà¦Ĩà¦¨ à¦ħà¦«
à¦°à¦¶ à¦°
à¦°à¦¶ à¦¬
à¦°à¦ªà¦° à¦ıà¦ķ
Ġà¦ľà¦² à¦¹
à¦®à¦¤ à¦®
à¦®à¦¤ à¦ĩ
à¦®à¦¤ à¦ĵ
Ġà¦¬à¦° à¦ĩ
Ġà¦¬à¦° à¦ĸ
Ġà¦¬à¦° à¦¦à¦¨
à¦ķà¦¬ à¦§
Ġà¦ħà¦ª à¦ĺ
Ġà¦ĵà¦ªà¦° à¦ĵ
à¦¨à¦ĵ à¦°
à¦¨à¦ĵ à¦Ń
à¦Łà¦ķ à¦ª
à¦Łà¦ķ à¦ĵ
à¦ĩà¦¨ à¦¦
à¦ĩà¦¨ à¦·
à¦ĩà¦¨ à¦¹
à¦¤à¦¬ à¦¦à¦²
à¦¦à¦¨ à¦®à¦²
à¦¦à¦¨ à¦ªà¦¤
Ġà¦ħà¦Ń à§Ł
à¦®à¦ķ à¦Ń
Ġà¦īà¦¤ à¦²
à¦¦à¦° à¦ŀ
à¦²à¦¬ à¦¸
à¦²à¦¬ à¦¦
à¦²à¦¬ à¦¦à¦²
Ġà¦ħà¦¤ à¦ªà¦°
à¦ħ à¦¯
à¦ħ à¦¹
à¦ħ à¦¥à¦°
à¦ħ à¦ľà§Ł
à¦¯à¦¬ à¦ĩà§Ł
Ġà¦¬à¦Ľà¦° à¦¦
Ġà¦ħà¦§ à¦®
Ġà¦ķà¦² à¦°
Ġà¦ķà¦² à¦ĵ
Ġà¦īà¦¦ à¦¬
à¦¹à¦² à¦®
à¦¹à¦² à¦ĵ
à¦¹à¦² à¦®à¦¯
à¦¹à¦² à¦®à§Ł
à¦¨à¦¬ à¦¬
à¦¨à¦¬ à¦¶
à¦¨à¦¬ à¦®à¦¨
à¦¨à¦¬ à¦¦à¦¨
à¦¨à¦¬ à¦¦à¦²
à¦¨à¦¬ à¦¯à¦¨
à¦¨à¦¬ à¦¸à¦¦
Ġà¦ķà¦® à¦¦
Ġà¦ķà¦® à¦ĵ
Ġà¦īà¦ª à¦ª
Ġà¦īà¦ª à§ľ
à¦°à¦ª à¦²
Ġà¦ķà¦¤ à¦¤
Ġà¦ĵà¦ĩ à¦°à¦ķà¦®à¦ĩ
Ġà¦¬à¦ĩ à¦Ńà¦°
à¦Ńà¦¬ à¦ĩ
à¦Ńà¦¬ à¦ªà¦°
à¦¦à¦² à¦Ł
à¦²à¦² à¦¨
à¦²à¦¨ à¦Ł
à¦²à¦¨ à¦ĩ
à¦°à¦¦ à¦¶
à¦¨à¦ķ à¦¥
à¦°à¦ĵ à¦ª
Ġà¦¸à¦¹ à¦¨
Ġà¦¸à¦¹ à¦¬
à¦°à¦¹ à¦ľ
à¦°à¦¹ à¦¶
à¦°à¦¹ à¦ĵ
à¦¤à¦ķ à¦ķ
Ġà¦¨à§Ł à¦®
Ġà¦¨à§Ł à¦ı
à¦¯à¦¤ à¦ĵ
à¦¯à¦ķ à¦£
à¦¸à¦¨ à¦ªà¦¤
Ġà¦¯à¦¤ à¦ĸ
à¦ıà¦ķ à¦ªà¦°
à¦ıà¦ķ à¦ľà¦¨à¦ķ
à¦ıà¦ķ à¦ĺà¦£
à¦ļà¦ķ à¦ļà¦ķ
Ġà¦ħà¦ªà¦° à¦Ł
Ġà¦ħà¦ªà¦° à¦¦
Ġà¦ħà¦ªà¦° à¦ª
Ġà¦°à¦Ļ à¦Ĺ
à¦ļà¦² à¦®
à¦ĩà¦Ł à¦°
à¦ĩà¦Ł à¦¨
à¦ĩà¦Ł à¦ª
Ġà¦¬à¦¦à¦² à¦Ł
à¦¸à¦° à¦°
à¦¸à¦° à¦ĺà¦°
à¦¶à¦¬ à¦¦
à¦¶à¦¬ à¦ļà¦°à¦£
Ġà¦ħà¦« à¦²
Ġà¦¬à¦²à¦¬ à§İ
Ġà¦°à¦ĩà¦² à¦ıà¦ķ
Ġà¦Ĩà¦Ļ à¦Ł
à¦®à¦¬ à¦¹
à¦®à¦¬ à¦°à¦£
à¦ªà¦¦ à¦ĩ
à¦ªà¦¦ à¦¸à¦Ļ
Ġà¦ªà¦¦ à¦¤
Ġà¦ªà¦¦ à¦¶à¦¬
à¦ªà¦Ł à¦ªà¦Ł
Ġà¦ķà¦· à¦Ľ
Ġà¦²à¦ķ à¦Ĺ
Ġà¦¦à¦² à¦ª
Ġà¦Ĺà¦¤ à¦®
à¦Łà¦¬ à¦ķ
à¦Łà¦¬ à¦¦
à¦Łà¦¬ à¦ĩà§Ł
à¦¦à§Ł à¦ļ
à¦Ŀà¦² à¦®
à¦Ŀà¦² à¦ıà¦ĸ
à¦ªà¦ķ à¦ķ
à¦¸à¦® à¦Ĺ
à¦ıà¦ĩ à¦ĩ
à¦ıà¦ĩ à¦°à¦ķà¦®
Ġà¦Ĩà¦ļ à¦®
à¦ĺà¦° à¦Ĺ
à¦¬à¦ķ à¦¸
Ġà¦ħà¦² à¦Ĺ
Ġà¦ħà¦² à¦¸à¦¤
Ġà¦ħà¦² à¦¸à¦Ń
Ġà¦ĺà¦¨ à¦ĺ
Ġà¦ĺà¦¨ à¦ĺà¦Ł
Ġà¦īà¦ªà¦° à¦¨
Ġà¦īà¦ªà¦° à¦ķ
Ġà¦īà¦ªà¦° à¦ĵà§Ł
à¦¹à¦¨ à¦Ń
à¦§à¦¨ à¦¶
à¦ªà¦¥ à¦ĩ
à¦Łà¦° à¦°
à¦ķà¦¦ à¦®
Ġà¦¦à¦¶ à¦Ĺ
à¦²à¦® à§Ł
Ġà¦ħà¦Ĺ à¦¸
Ġà¦¬à¦ī à¦Ĺ
Ġà¦¬à¦ī à¦ĵ
à¦¯à¦° à¦¹à¦¸
à¦²à¦Ł à¦¨
à¦ªà¦¸ à¦¹
à¦°à¦Ĺ à¦ª
à¦¦à¦¸ à¦ĩ
Ġà¦§à¦°à¦² à¦ıà¦ķ
Ġà¦Ńà§Ł à¦Ń
à¦®à§Ł à¦²
à¦®à§Ł à¦¦
Ġà¦Ĩà¦¦ à¦¬
Ġà¦Ĩà¦¦ à¦°à¦¬
Ġà¦Ĩà¦¦ à¦¬à¦ķ
Ġà¦Ĩà¦ª à§İà¦ķ
à¦¬à¦¦ à¦ķ
à¦¶à¦ķ à¦ĵ
Ġà¦ıà¦¸à¦¬ à¦ĵ
à¦²à¦Ĺ à¦Ĺà¦¨
Ġà¦¶à¦¤ à¦ĸ
Ġà¦¸à¦ķà¦² à¦ĩ
à¦ĩà¦Ń à¦°
Ġà¦°à¦ľà¦¤ à¦¦
Ġà¦Ĺà¦°à¦® à¦ķ
Ġà¦Ĺà¦°à¦® à¦ľà¦²
Ġà¦¦à¦® à¦ķà¦²
à¦Ĩà¦° à¦ı
Ġà§§à§ §
Ġà¦®à¦¸ à¦²à¦¨
Ġà¦ªà§ľà¦² à¦ľ
Ġà¦Ĩà¦§ à¦®
Ġà¦Ĩà¦§ à¦¶
à¦Łà¦® à¦¹à¦²à¦¬
Ġà¦ķà¦ĸà¦¨à¦ĵ à¦¸à¦ĸà¦¨à¦ĵ
Ġà¦īà§İà¦¸ à¦Ł
à¦«à¦Ł à¦Ł
à¦«à¦Ł à¦¹
à¦¤à¦ª à¦²
Ġà¦ĵà¦ª à¦°à¦¤à¦²
à¦ĩà¦¡ à¦¬
Ġà¦§à¦¨ à¦Ŀà¦°
à¦Ĩà¦ľ à¦ĩ
Ġà¦ĭ à§Ł
Ġà¦īà¦ªà¦¸ à¦ļ
à¦ķà¦¸ à¦®à¦¯
Ġà¦Ĺà¦£ à¦ª
Ġà¦Ĺà¦£ à¦ªà¦°
Ġà¦ļà¦Ł à¦ķà¦²
à¦®à¦£ à¦¬
à¦®à¦£ à¦¦
Ġà¦¨à¦¬ à¦¤à¦°
Ġà¦¨à¦¬ à¦Ĺà¦¡
à¦ĩà¦ª à¦Ĺ
Ġà¦īà§İ à¦ĸ
Ġà¦īà§İ à¦ªà¦²
Ġà¦¸à¦Ń à¦¯
à¦®à¦¸ à¦ļ
Ġà¦Ĩà§ľ à¦ļ
à¦®à¦¹ à¦¨à¦¨
à¦°à¦ľà¦¨ à¦¨à¦¶
à¦¦à¦ķ à¦ĵ
à¦Łà¦¸ à¦¹
Ġà¦ķà¦²à¦® à¦ĩ
à¦¤à¦Ń à¦°à¦¤
à¦²à¦¦ à¦°à¦ľ
à¦®à¦°à¦£ à¦ķ
à¦®à¦°à¦£ à¦¶à¦ķ
Ġà¦²à§ľ à¦¤
Ġà¦²à§ľ à¦Ľ
Ġà¦ĸà¦°à¦ļ à¦Ł
à¦īà¦ľ à¦ª
Ġà¦¨à¦ľà¦° à¦¬à¦¨
à§Ń à§§
Ġà¦°à¦¸ à¦¦
à¦ľà¦Ĺ à¦ŀ
Ġà¦ľà§Ł à¦²
à§¨ à§¦
à§¨ à§¨
à§¨ à§§
à§¨ à§©
ĠĠĠĠ ĠĠĠ
Ġà¦ıà¦¡ à¦Ń
Ġà¦ıà¦¡ à¦¹à¦ķ
Ġà¦°à¦¤à¦¨ à¦²
Ġà¦°à¦¤à¦¨ à¦¬
Ġà¦°à¦¤à¦¨ à¦ª
Ġà¦Ĩà¦Ł à¦ľà¦¨
à¦ļà§ľ à¦ķ
Ġà¦ıà¦°à¦ªà¦° à¦ĵ
Ġà§¨ à§Ń
Ġà§¨ à§¬
Ġà§¨ à§®
Ġà§¨ à§¯
à¦ľà¦¦ à¦°à¦¬
Ġà¦Ĩà¦ĩ à¦¨à¦¤
Ġà¦Ĩà¦ĩ à¦°à¦¨
Ġà¦Ŀà¦ķ à¦ľà¦ķ
à¦¶à¦ª à¦ŀ
Ġà¦ıà¦® à¦ıà¦Ł
Ġà¦ıà¦® à¦ıà¦¤
Ġà¦ıà¦® à¦ıà¦²
à¦ľà§Ł à¦¦
à¦®à¦® à¦Ń
à§° à¦²
à§° à¦¹
Ġà¦¶à¦ªà¦¥ à¦Ĺ
Ġà¦ĩà¦ī à¦ª
Ġà¦ĩà¦ī à¦Ĺ
Ġà¦ĩà¦ī à¦Ń
à¦¥à¦² à¦ªà¦¥
à§ª à§¦
à§ª à§¨
à¦²à¦ĸ à¦£
Ġà¦Ĩà¦« à¦Ĺ
Ġà¦Ĭ à¦¨
Ġà¦Ĭ à¦§
Ġà¦Ĭ à¦ł
Ġà¦Ĭ à¦¨à¦ªà¦ŀ
à¦¶à¦° à¦ŀ
à¦Łà¦« à¦°à¦®
à¦¬à¦ľà¦¨ à¦°
Ġà¦ĭà¦£ à¦®
Ġà¦ĭà¦£ à¦Ĺ
à¦¨à¦¶à¦¨ à¦Ł
à¦Ĺà¦¦ à¦ĸà¦²
à§© à§©
à§¬ à§«
à§¬ à§§
Ġà¦®à¦¦à¦¨ à¦Ĺ
Ġà¦ĸà¦¬à¦°à¦Ł à¦¬à¦°
à§® à§ª
à¦®à¦Ń à¦Ļ
Ġà¦ľà¦Ĺ à¦¹
Ġà§ª à§®
à¦²à¦° à¦Ļ
Ġà¦ķà§ľ à¦ļ
à¦ĸà¦¬à¦° à¦Ł
à¦ıà¦¸ à¦ıà¦¸
à¦ªà¦ķà¦¥ à¦¨à¦ĩ
Ġà§© à§¨
Ġà§© à§«à§Ń
à§¯ à§«
Ġà§¨à§¦ à§¦
Ġà§¨à§¦ à§ªà§«
Ġà§¨à§¦ à§¦à§§
à¦¶à¦Ń à¦ķ
Ġà¦ıà¦°à¦ĩ à¦®à¦§
Ġà¦īà¦ĩà¦² à¦Ł
Ġà¦īà¦ĩà¦² à¦¸à¦¨
Ġà¦¨à¦° à¦ĵà¦¯
Ġà¦¨à¦ĵ à¦¶
Ġà¦Ķ à¦°à¦¸
Ġà¦¥à¦² à¦¥à¦²
à¦ıà¦¤ à¦¸à¦¬
à¦Ĩà¦¸ à¦Ĺà¦°
Ġà¦¸à§İ à¦Ń
Ġà¦¨à¦Ĺ à¦°à¦¬
à¦ħà¦ª à¦¹à¦°à¦£
Ġà¦īà¦ĩ à¦Ĺ
Ġà¦īà¦ĩ à¦¥
Ġà¦īà¦ĩ à¦ł
Ġà§§à§¨ à§«
Ġà¦ıà¦Ĩà¦ĩ à¦ıà¦°
Ġà¦Ńà¦°à¦¤ à¦ª
à¦Ŀà¦Ľ à¦¸
Ġà§Ń à§¦
Ġà§Ń à§¨
à¦ľà¦ĸà¦¬à¦° à¦ĵ
à§§à§Ń à§«à§Ń
à¦¶à¦¹ à¦°à¦¤à¦²
Ġà¦§à§ľ à¦ķà¦¨
Ġà¦®à¦°à¦£ à¦ķ
à§¦à§¦ à§¦
à¦ĭ à§Ł
à¦Ĩà¦¤ à¦Ļ
Ġà§¬ à§¦
à¦Ī à¦¨
Ġà¦ķà¦¸ à¦°à¦¤
Ġà¦¸à¦°à¦²à¦¤ à¦®
Ġà¦¶à¦°à¦¤ à¦ļà¦¨
Ġà¦Ĩà¦ªà¦¸ à¦¹
Ġà¦ıà¦ķà¦ıà¦ķ à¦°à¦ķà¦®
Ġà¦ıà¦ķà¦ıà¦ķ à¦¸à¦®à¦¯
Ġà¦¸à¦®à¦Ŀ à¦¦
à¦°à¦ĵà¦¶à¦¨ à¦ķ
Ġà¦ıà¦®à¦ı à¦®
Ġà¦ıà¦Ĩ à¦ĩà¦°
Ġà¦ıà¦Ĩ à¦ĩà¦ķ
à¦¨à§Ł à¦ļà¦¨
Ġà¦Ĺà¦Ĺà¦¨ à¦ļ
à§§à§¯ à§ªà§Ń
Ġà¦Ĺà¦¤à¦¬ à¦Ľà¦°
Ġà¦¡à¦ľà¦¨ à¦ĸ
ĠĠĠĠĠĠĠĠĠĠĠĠĠĠĠĠ ĠĠĠĠĠĠĠĠĠĠĠĠĠĠĠĠ
Ġà¦ªà¦ª à¦Ĩà¦ª
Ġà¦ħà§Ł à¦¨à¦ķ
Ġà¦¬à¦ĸ à¦¶
à§» à§ĩ
à¦¦à¦« à¦¤à¦°
à¦ıà¦¨ à¦ıà¦¸
Ġà§§à§¯à§® à§«
Ġà¦Ĩà¦ĩà¦ķ à¦¨
Ġà¦®à¦ļ à¦®à¦ļ
Ġà¦¦à¦¹ à¦°à¦®
Ġà¦ľà¦ĵà¦¹ à¦°à¦²
à¦Ńà§İ à¦¸à¦¤
¨ à§¨
ĉ čĊč
Ġ à§ĭ
Ġ à§ĥ
Ġ à§İà¦¸
Ġà¦ ģ
Ġà¦ Ļ
à¦¾ à¦¾à¦ģ
à¦¾ à§ĩà¦ģ
à¦° à¦ł
à¦° à¦ĸà¦¨
à¦° à¦¨à¦¤
à¦° à¦°à¦®
à¦° à¦Ĺà¦ľ
à¦° à¦¢
à¦° à¦·à¦°
à¦° à¦«à¦²
à¦° à¦Ĩà¦ľ
à¦° à¦ĺà¦¨
à¦° à¦īà¦²
à¦° à¦·à¦¦
à¦° à¦Ĩà¦®à¦°
à¦° à¦ıà¦ĸ
à¦° à¦ıà¦ķà¦¦
à¦° à¦īà¦¡
à¦° à¦ıà¦®à¦¨
à¦° à¦ıà¦¤
à¦° à¦ħà¦¤
à¦° à¦ıà¦¸à¦¬à¦ĩ
à¦° à¦ıà¦ķà¦¸à¦®à¦¯
à§į à§į
à¦¨ à¦ł
à¦¨ à¦°à¦¬
à¦¨ à¦¬à¦²
à¦¨ à¦ķà¦¬
à¦¨ à¦¦à¦°
à¦¨ à¦Ńà¦¬
à¦¨ à¦²à¦²
à¦¨ à¦Ĺà¦¤
à¦¨ à¦°à¦Ł
à¦¨ à¦¯à¦¤
à¦¨ à¦®à¦°
à¦¨ à¦ªà¦¡
à¦¨ à¦ĩà¦¬
à¦¨ à¦ħà¦¨
à¦¨ à¦®à¦§
à¦¨ à¦īà¦²
à¦¨ à¦§à¦°
à¦¨ à¦ıà¦¬
à¦¨ à¦®à¦¶
à¦¨ à¦ĺà¦£
à¦¨ à¦ıà¦¸à¦¬
à¦¨ à¦Ĩà¦¬
à¦¨ à¦ıà¦®à¦¨
à¦¨ à¦¤à¦°à¦ķ
à¦¨ à§Łà¦¦
à¦¨ à¦Ĩà¦¨
à¦¨ à¦Ĩà¦¤
à¦¨ à¦Ĳà¦ķ
à¦² à¦ªà¦¨
à¦² à¦¤à¦°
à¦² à¦¬à¦ª
à¦² à¦ĩà¦²
à¦² à¦¦à¦°
à¦² à¦²à¦¬
à¦² à¦ħ
à¦² à¦¸à¦²
à¦² à¦ļà¦²
à¦² à¦ĩà¦Ł
à¦² à¦¸à¦°
à¦² à¦Ĺà¦¨
à¦² à¦Łà¦°
à¦² à¦«à¦Ł
à¦² à¦¹à¦¤
à¦² à¦Ĩà¦ªà¦¨
à¦² à¦īà¦¦
à¦² à¦¶à¦¹à¦°
à¦² à¦¸à¦®à§Ł
à¦² à¦Ĩà¦ĩà¦¨
à¦² à¦ħà¦ļ
à¦² à¦īà¦¤
à¦² à¦Ĩà¦¯
à¦² à¦Ĩà¦Ł
à¦² à¦Ĳà¦¤
à¦² à¦Ĩà¦§
à¦² à¦Ĳà¦¶
à¦¤ à¦Ŀ
à¦¤ à¦®à¦¨
à¦¤ à¦¬à¦²
à¦¤ à¦ķà¦Ł
à¦¤ à¦Ńà¦¬
à¦¤ à¦ļà¦¨
à¦¤ à¦®à¦°
à¦¤ à¦¸à¦¤
à¦¤ à¦¸à¦®
à¦¤ à¦¶à¦ķ
à¦¤ à¦·à¦Ł
à¦¤ à¦ıà¦Ł
à¦¤ à¦Ľà¦¬
à¦¤ à¦Ĩà¦®à¦°
à¦¤ à¦ħà¦ªà¦°
à¦¤ à¦¯à¦ĸà¦¨
à¦¤ à¦ħà¦ļ
à¦¤ à¦Ĩà¦¸
à¦¤ à¦ıà¦¸à¦¬à¦ĩ
à¦ķ à¦ī
à¦ķ à¦ªà¦°
à¦ķ à¦ĺ
à¦ķ à¦¬à¦²
à¦ķ à¦¦à¦°
à¦ķ à¦ĩà¦°
à¦ķ à¦ªà¦¤
à¦ķ à¦¦à¦²
à¦ķ à¦Ĺà¦¤
à¦ķ à¦ļà¦²
à¦ķ à¦¸à¦¤
à¦ķ à¦¸à¦°
à¦ķ à¦ªà¦¥
à¦ķ à¦ıà¦ķà¦Ł
à¦ķ à¦ĺà¦¨
à¦ķ à¦®à¦£
à¦ķ à¦ħà¦°
à¦ķ à¦Ĩà¦®à¦°
à¦ķ à¦Ĩà¦ķ
à¦ķ à¦ĺà§ľ
à¦ķ à¦Ŀà¦²à¦ķ
à¦¯ à¦°à¦¤
à¦¯ à¦«
à¦¯ à¦Ŀ
à¦¯ à¦ı
à¦¯ à¦¬à¦²
à¦¯ à¦Ĺà¦²
à¦¯ à¦²à¦¤
à¦¯ à¦®à¦¤
à¦¯ à¦ļà¦¨
à¦¯ à¦¦à¦¯
à¦¯ à¦ļà¦ķ
à¦¯ à¦ªà¦¦
à¦¯ à¦¦à§Ł
à¦¯ à¦ĺà¦°
à¦¯ à¦§à¦¨
à¦¯ à¦ıà¦ķà¦Ł
à¦¯ à¦¶à¦ķ
à¦¯ à¦ħà¦¨
à¦¯ à¦Ĩà¦°
à¦¯ à¦Ńà¦°
à¦¯ à¦Ĩà¦®à¦°
à¦¯ à¦Ŀà¦²à¦®à¦²
à¦¯ à¦īà¦ª
à§ģ à§ģ
à¦¬ à¦°à¦¬
à¦¬ à¦ŀ
à¦¬ à¦ķà¦¤
à¦¬ à¦®à¦¯
à¦¬ à§İà¦ķ
à¦¬ à¦¸à¦²
à¦¬ à¦īà¦¨
à¦¬ à¦Ĺà¦°
à¦¬ à¦Ńà¦°
à¦¬ à¦ľà¦¨à¦ķ
à¦¬ à¦īà¦¯
à¦¬ à¦®à¦¹
à¦¬ à¦§à¦°
à¦¬ à¦Ĩà¦ªà¦¨
à¦¬ à¦īà¦®
à¦¬ à¦Ĩà¦¬
à¦¬ à¦¤à¦°à¦£
à¦¬ à¦ıà¦Ĺ
à§ĭ à¦¾
à§ĭ à¦ĥ
Ġà¦ķ à¦Łà¦ķ
Ġà¦ķ à¦²à¦¬
Ġà¦ķ à¦·à¦ķ
Ġà¦ķ à¦īà¦ķ
Ġà¦ķ à¦ªà¦ļ
Ġà¦ķ à¦ĩà¦®
Ġà¦ķ à¦¹à¦ķ
à¦® à¦·
à¦® à¦®à¦¨
à¦® à¦°à¦¬
à¦® à¦¬à¦²
à¦® à¦Ĩ
à¦® à¦²à¦ķ
à¦® à¦¶à¦¨
à¦® à¦Ĺà¦²
à¦® à¦°à¦ľ
à¦® à¦°à¦¸
à¦® à¦¸à¦¤
à¦® à¦¹à¦ł
à¦® à¦¢
à¦® à¦®à§Ł
à¦® à¦¸à¦¬à¦ĩ
à¦® à¦Ńà¦°
à¦® à¦ļà¦Ł
à¦® à¦ħà¦°
à¦® à¦ıà¦¬
à¦® à¦Ĩà¦²
à¦® à¦®à¦Ĺ
à¦® à¦Ĩà¦®à¦°
à¦® à¦ħà¦²
à¦® à¦Ĩà¦¦
à¦® à¦Ĺà¦¤à¦Ń
Ġà¦¬ à¦ĵà¦¯
Ġà¦¬ à¦Łà¦ķ
Ġà¦¬ à¦ĩà¦¨
Ġà¦¬ à¦īà¦¨
Ġà¦¬ à¦°à¦¬à¦§
Ġà¦Ĩ à¦ĩà¦¯
Ġà¦Ĩ à¦ªà¦Ł
Ġà¦Ĩ à¦īà¦¨
Ġà¦Ĩ à¦Łà¦¬
Ġà¦Ĩ à¦ĩà¦¬
Ġà¦Ĩ à§°
Ġà¦¸ à¦ĩà¦²
Ġà¦¸ à¦°à¦¬à¦¤
Ġà¦¸ à§İà¦¸
Ġà¦¸ à¦²à¦«
Ġà¦¸ à¦ĵà¦Ĺ
à¦Ł à¦®à¦¨
à¦Ł à¦°à¦ķ
à¦Ł à¦¨à¦¤
à¦Ł à¦²à¦ķ
à¦Ł à¦²à¦¤
à¦Ł à¦°à¦ľ
à¦Ł à¦ķà¦¤
à¦Ł à¦°à¦¸
à¦Ł à¦ķà¦¬
à¦Ł à¦ħ
à¦Ł à¦°à¦¦
à¦Ł à¦ļà¦ķ
à¦Ł à¦¨à¦¦
à¦Ł à¦ªà¦ķ
à¦Ł à¦ĺà¦°
à¦Ł à¦ªà¦¥
à¦Ł à¦¨à¦Ĺ
à¦Ł à¦¢
à¦Ł à¦ĩà¦¤
à¦Ł à¦ıà¦¬
à¦Ł à¦ıà¦¸à¦¬
à¦Ł à¦ĺà¦¡
à¦¸ à¦·
à¦¸ à¦Ŀ
à¦¸ à¦¨à¦¤
à¦¸ à¦°à¦¶
à¦¸ à¦ĵà§Ł
à¦¸ à¦ĩà¦¨
à¦¸ à¦¦à¦¨
à¦¸ à¦¦à¦°
à¦¸ à¦ħ
à¦¸ à¦¤à¦²
à¦¸ à§İà¦ķ
à¦¸ à¦²à¦¨
à¦¸ à¦¨à¦ķ
à¦¸ à¦ļà¦²
à¦¸ à¦¶à¦¬
à¦¸ à¦Ĩà¦ľ
à¦¸ à¦Ŀà¦°
à¦¸ à¦¸à¦¬à¦ķ
à¦¸ à¦ıà¦ĸ
à¦¸ à¦ıà¦¸à¦¬
à¦¸ à¦ıà¦®à¦¨
à¦¸ à¦ħà¦«
à¦¸ à¦ħà¦¬
à¦¸ à¦Ĳà¦¤
Ġà¦ª à¦®
Ġà¦ª à¦Ľ
Ġà¦ª à¦ĸ
Ġà¦ª à¦ł
Ġà¦ª à¦Łà¦¨
Ġà¦ª à¦ļà¦¤
Ġà¦ª à¦ªà¦²
à¦Ľ à¦¶
à¦Ľ à¦¹
à¦Ľ à¦ĵà¦¯
à¦Ľ à¦ĩà¦¨
à¦Ľ à¦Ĩà¦°
à¦Ľ à¦ıà¦Ł
Ġà¦¨ à¦¬à¦°
Ġà¦¨ à¦°à¦¨
Ġà¦¨ à¦°à¦¹
Ġà¦¨ à¦¬à¦¤
Ġà¦¨ à¦ķà¦¸
Ġà¦¨ à¦°à¦¹à¦°
Ġà¦¨ à¦ĸà¦°
Ġà¦¨ à¦Ńà¦¨
Ġà¦¨ à¦¬à¦¤à¦®
à¦ĩ à§ľ
à¦ĩ à¦¬à¦°
à¦ĩ à¦ĺ
à¦ĩ à¦ķà¦²
à¦ĩ à¦¨à¦ĵ
à¦ĩ à¦Łà¦ķ
à¦ĩ à¦ħ
à¦ĩ à¦¸à¦¨
à¦ĩ à¦¸à¦²
à¦ĩ à¦ıà¦ĩ
à¦ĩ à¦¹à¦ł
à¦ĩ à¦īà¦°
à¦ĩ à¦¶à¦²
à¦ĩ à¦īà¦Ł
à¦ĩ à¦ľà¦®
à¦ĩ à¦īà¦ľ
à¦ĩ à¦ıà¦¬
à¦ĩ à¦ıà¦Ĺ
à¦ĩ à¦Ĩà¦¦
à¦ĩ à¦ħà¦®à¦¨
à¦¦ à§ľ
à¦¦ à¦Ŀ
à¦¦ à¦¬à¦¨
à¦¦ à¦¬à¦°
à¦¦ à¦ķà¦°
à¦¦ à¦²à¦¤
à¦¦ à¦°à¦¸
à¦¦ à¦®à¦ķ
à¦¦ à¦ıà¦ĩ
à¦¦ à¦¤à¦¤
à¦¦ à¦ķà¦ķ
à¦¦ à¦ķà¦¦
à¦¦ à¦¬à¦¦
à¦¦ à¦¶à¦ķ
à¦¦ à¦Ĩà¦ľ
à¦¦ à¦ķà¦®
à¦¦ à¦ıà¦¬
à¦¦ à¦Ńà¦Ļ
à¦¦ à¦ħà¦¨à¦¨
à¦¦ à¦°à¦¨à¦Ĺà¦°
Ġà¦® à¦ľà¦®
Ġà¦® à¦Ľà¦²
Ġà¦® à¦¦à¦¤
Ġà¦® à¦łà¦Ł
Ġà¦® à¦ķà¦°à¦®
Ġà¦¦ à¦ľ
Ġà¦¦ à¦ĸà¦¨
Ġà¦¦ à¦ĩà¦¤
Ġà¦¦ à¦ĩà¦Ń
Ġà¦ı à¦¬à¦²
Ġà¦ı à¦¨à¦¤
Ġà¦ı à¦®à¦¤
Ġà¦ı à¦®à¦ķ
Ġà¦ı à¦¨à¦Ł
Ġà¦ı à¦ıà¦ķ
Ġà¦ı à¦ªà¦¦
Ġà¦ı à¦Ĩà¦°
Ġà¦ı à¦®à¦¸
Ġà¦ı à¦Ĩà¦¬
Ġà¦ı à¦Ĩà¦ĩà¦¨
Ġà¦ı à¦ıà¦²
Ġà¦ı à¦ħà¦¬à¦¸
Ġà¦¤ à¦°à¦®
Ġà¦¤ à¦¹à¦®
Ġà¦¤ à¦²à¦¤à¦²
Ġà¦¹ à¦°à¦ķ
Ġà¦¹ à¦Łà¦ķ
Ġà¦¹ à¦°à¦¦
Ġà¦¹ à¦¸à¦ª
Ġà¦¹ à§°
Ġà¦¹ à¦ĵà¦¨
à¦ª à¦ĵà¦¯
à¦ª à¦¬à¦°
à¦ª à¦²à¦¤
à¦ª à¦®à¦²
à¦ª à¦ķà¦¤
à¦ª à¦®à¦¤
à¦ª à¦ķà¦¬
à¦ª à¦Łà¦ķ
à¦ª à¦ħ
à¦ª à¦¶à¦¬
à¦ª à¦Ĺà¦¨
à¦ª à¦¸à¦®
à¦ª à¦ĺà¦°
à¦ª à¦¢
à¦ª à¦²à¦Ł
à¦ª à¦ĺà¦¨
à¦ª à¦ľà¦Ł
à¦ª à¦ħà¦²
à¦ª à¦Ĩà¦¡
à¦ĸ à¦ł
à¦ĸ à¦ĸà¦¨
à¦ĸ à¦Ĩà¦®
à¦ĸ à¦ıà¦ĩ
à¦ĸ à¦ĺà¦£
à¦ĸ à¦Ĩà¦¨à¦¨
à¦ĸ à¦Ńà¦°à¦¤
à¦ĸ à¦ħà¦ªà¦®
à¦ľ à¦¬à¦¨
à¦ľ à¦°à¦¬
à¦ľ à¦°à¦£
à¦ľ à¦¬à¦°
à¦ľ à¦¬à¦ª
à¦ľ à¦²à¦¤
à¦ľ à¦¤à¦¨
à¦ľ à¦¦à¦°
à¦ľ à¦¤à¦²
à¦ľ à¦²à¦¨
à¦ľ à¦°à¦Ł
à¦ľ à¦Łà¦²
à¦ľ à¦ªà¦¡
à¦ľ à¦ıà¦°
à¦¡ à¦¯
à¦¡ à¦ľà¦¨
à¦¡ à¦°à¦Ł
à¦¡ à¦ĩà¦¯
à¦¡ à¦ıà¦ĩ
à¦¡ à¦¸à¦¬à¦ĩ
à¦¡ à¦¬à¦¡
à¦¶ à¦ĺ
à¦¶ à¦¨à¦¤
à¦¶ à¦ĩà¦¨
à¦¶ à¦®à¦¯
à¦¶ à¦ªà¦¤
à¦¶ à¦ļà¦²
à¦¶ à¦ıà¦°
à¦¶ à¦Ńà¦°
à¦¶ à¦ĺà¦£
à¦¶ à¦¦à¦°à¦¦
Ġà¦ħ à¦ľà¦¨
Ġà¦ħ à¦ĩà¦²
Ġà¦ħ à¦Łà¦ķ
Ġà¦ħ à¦ĩà¦¯
Ġà¦ħ à¦ĩà¦Ľ
à¦Ĺ à¦ĵà¦¯
à¦Ĺ à¦ı
à¦Ĺ à¦¹à¦°
à¦Ĺ à¦®à¦¤
à¦Ĺ à¦ªà¦¤
à¦Ĺ à¦°à¦¹
à¦Ĺ à¦¸à¦¨
à¦Ĺ à¦®à¦¬
à¦Ĺ à¦Ĺà¦¨
à¦Ĺ à¦Ĺà¦ľ
à¦Ĺ à¦īà¦¦
à¦Ĺ à¦¸à¦ĩ
à¦Ĺ à¦ıà¦¸à¦¬
à¦Ĺ à¦ĸà¦ļ
à¦Ĺ à¦°à¦¤à¦Ł
Ġà¦ķà¦° à¦®
Ġà¦ķà¦° à¦Ł
Ġà¦ķà¦° à¦ļ
Ġà¦ķà¦° à¦®à¦°
Ġà¦¯ à¦¬
Ġà¦¯ à¦£
Ġà¦¯ à¦ľà¦®
Ġà¦Ĺ à¦¥
Ġà¦Ĺ à¦°à¦¬
Ġà¦Ĺ à¦ľà¦²
à¦ļ à¦ľ
à¦ļ à¦¹
à¦ļ à¦£
à¦ļ à¦«
à¦ļ à¦¸à¦¬
à¦ļ à¦ĵà§Ł
à¦ļ à¦®à¦ķ
à¦ļ à¦°à¦ª
à¦ļ à¦°à¦Ł
à¦ļ à¦°à¦ķà¦®
à¦ļ à¦¶à¦¬
à¦ļ à¦ªà¦Ł
à¦ļ à¦ıà¦ĩ
à¦ļ à¦¬à¦ķ
à¦ļ à¦¢
à¦ļ à§Łà¦¨
à¦ļ à¦¶à¦®
à¦ļ à¦Ĩà¦ª
à¦ļ à¦°à¦¨à¦¦
à¦ģ à¦ģ
Ġà¦ļ à¦ªà¦Ł
Ġà¦ļ à¦·à¦¤
Ġà¦ļ à¦ªà¦ļ
Ġà¦ļ à§ľà¦ķ
Ġà¦ļ à¦°à¦ļà¦°
à¦· à¦°à¦¬
à¦· à¦°à¦ľ
à¦· à¦°à¦¸
à¦· à¦¨à¦ĵ
à¦· à¦ªà¦¤
à¦· à¦¯à¦¨
à¦· à§İà¦ķ
à¦· à¦ļà¦¨
à¦· à¦®à¦°
à¦· à¦°à¦¯
à¦· à¦Ĩà¦®
à¦· à¦°à¦°
à¦· à¦¸à¦Ļ
à¦· à¦ħà¦Ĺ
à¦· à¦ıà¦Ĩà¦ĩ
à§Ł à¦¸à¦¬
à§Ł à¦®à¦ķ
à§Ł à¦ħ
à§Ł à¦°à¦ķà¦®
à§Ł à¦¸à¦®
à§Ł à¦ıà¦ĩ
à§Ł à¦ķà¦ķ
à§Ł à¦ħà¦¨
à§Ł à¦Ĩà¦®à¦°
à§Ł à¦¤à¦ĩ
à§Ł à¦°à¦¨à¦®
Ġà¦° à¦¦
Ġà¦° à¦¨à¦¤
Ġà¦° à¦¸à¦ķ
Ġà¦° à¦¡à¦°
Ġà¦° à¦īà¦«
Ġà¦¶ à¦ľ
Ġà¦¶ à¦°à¦¬
Ġà¦¶ à¦¦à¦¶
Ġà¦¶ à¦¤à¦°à¦Ļ
à¦§ à§ľ
à¦§ à¦Ŀ
à¦§ à¦°à¦£
à¦§ à¦ĺ
à¦§ à¦¹à¦¸
à¦§ à¦°à¦ª
à¦§ à¦¯à¦¨
à¦§ à¦ıà¦ķ
à¦§ à¦¸à¦¤
à¦§ à¦¨à¦¦
à¦§ à¦ıà¦ĩ
à¦§ à¦ªà¦¥
à¦§ à¦¶à¦ķ
à¦§ à¦Ńà¦°
Ġà¦Ń à¦¨
Ġà¦Ń à¦®
Ġà¦Ń à¦ª
Ġà¦Ń à¦ľà¦¨
Ġà¦Ń à¦°à¦¨
Ġà¦ľ à¦ľ
Ġà¦ľ à¦²à¦¤
Ġà¦ľ à¦ĵà§Ł
Ġà¦ľ à¦°à¦¦
Ġà¦ľ à¦ªà¦®
à¦¥ à¦Ļ
à¦¥ à§ľ
à¦¥ à¦°à¦ĩ
à¦¥ à¦°à¦ª
à¦¥ à¦¸à¦¨
à¦¥ à¦ªà¦¥
à¦¥ à¦¨à¦¸
à¦¥ à¦ıà¦°
à¦¹ à¦ķà¦¤
à¦¹ à¦¨à¦¨
à¦¹ à¦¨à¦¦
à¦¹ à¦ķà¦ķ
à¦¹ à¦¤à¦¦
à¦¹ à¦£à¦¦
à¦¹ à¦Ńà¦Ļ
Ġà¦ıà¦ķ à¦ł
Ġà¦ıà¦ķ à¦ķà¦²
Ġà¦ıà¦ķ à¦ķà¦¤
Ġà¦ıà¦ķ à¦²à¦«
Ġà¦Ĩà¦® à¦¤à¦²
Ġà¦Ĩà¦® à¦²à¦¦
Ġà¦Ĩà¦® à¦ľà¦¨à¦¤
à¦ĵ à¦ļ
à¦ĵ à¦¥
à¦ĵ à¦°à¦ķ
à¦ĵ à¦ĺ
à¦ĵ à¦¶à¦¨
à¦ĵ à¦¸à¦¨
à¦ĵ à¦ħà¦°
à¦ĵ à¦ıà¦ĸà¦¨
à¦ĵ à¦ıà¦¸
à¦¼à¦¾ à§ĩ
à¦£ à¦ĸ
à¦£ à¦ľ
à¦£ à¦ªà¦°
à¦£ à¦ĺ
à¦£ à¦¶à¦¬
à¦£ à¦ıà¦ĩ
à¦£ à¦¬à¦ķ
à¦£ à¦ªà¦¶
à¦£ à¦°à¦Ļ
Ġà¦Ľ à¦ľà¦¨
Ġà¦Ľ à¦ĩà¦¯
Ġà¦Ľ à¦°à¦°
Ġà¦Ľ à¦²à¦ļ
Ġà¦Ľ à¦¦à¦ķ
Ġà¦¬à¦² à¦¸
Ġà¦¬à¦² à¦ª
Ġà¦¬à¦² à¦ı
Ġà¦² à¦ļ
Ġà¦² à¦¥
Ġà¦² à¦ĵ
Ġà¦² à¦¬à¦¨
Ġà¦² à¦Ĺà¦¬
Ġà¦² à¦¬à¦¡
à¦ł à¦¯
à¦ł à¦ĵ
à¦ł à¦Ń
à¦ł à¦¤à¦°
à¦ł à¦ļà¦ķ
à¦ł à¦¶à¦¬
à¦ł à¦¨à¦Ĺ
à¦ł à¦Ńà¦°
à¦ł à¦ķà¦®
Ġà¦Ĩà¦° à¦Ł
Ġà¦Ĩà¦° à¦¸
Ġà¦Ĩà¦° à¦ªà¦°
Ġà¦Ĩà¦° à¦¸à¦¬
à¦¾à¦ģ à§ģ
à¦Ń à¦Ľ
à¦Ń à¦§
à¦Ń à¦°à¦£
à¦Ń à¦¨à¦ĵ
à¦Ń à¦²à¦Ĺ
Ġà¦« à¦²à¦²
Ġà¦« à¦°à¦ļ
Ġà¦« à¦°à¦Ĺ
Ġà¦« à¦²à¦Ĺ
Ġà¦« à¦Ĺà¦¹à¦°
Ġà¦ī à¦¶
Ġà¦ī à¦¤à¦°
Ġà¦ī à¦ŀ
Ġà¦ī à¦ķà¦Ł
Ġà¦ī à¦ĩà¦®
Ġà¦ī à¦ĩà¦ª
Ġà¦ī à¦¶à¦ĸ
Ġà¦ĸ à¦ŀ
Ġà¦ĸ à¦¸à¦¬
Ġà¦ĸ à¦¸à¦²
Ġà¦ĸ à¦¬à¦°à¦¤
à¦Ļ à¦ĩ
à¦Ļ à§ľ
Ġà¦ĵ à¦ªà¦¨
Ġà¦ĵ à¦¨à¦²
Ġà¦ĵ à¦ľà¦°
Ġà¦ĵ à¦ħà¦°à¦«
à§Ĥ à¦¿
Ġà¦§ à¦²
Ġà¦§ à¦ĩ
Ġà¦§ à¦ĸ
Ġà¦§ à¦¬à¦²
Ġà¦§ à¦¨à¦¦
Ġà¦§ à¦®à¦§
Ġà¦ħà¦¨ à¦²à¦ª
Ġà¦ħà¦¨ à¦¬à¦¹
čĊ Ġč
à¦ĸà¦¨ à¦¤
à¦ĸà¦¨ à¦Ł
à¦ĸà¦¨ à¦¦
Ġà¦ĺ à¦ª
Ġà¦ĺ à¦°à¦®
Ġà¦ĺ à¦¨à¦¨
Ġà¦ªà¦° à¦¹
Ġà¦ªà¦° à¦¶à¦Ł
Ġà¦¬à¦²à¦² à¦¯
Ġà¦¬à¦²à¦² à¦¶
Ġà¦¬à¦²à¦² à¦ıà¦ĩ
Ġà¦¬à¦²à¦² à¦ıà¦ĸà¦¨
Ġà¦¬à¦²à¦² à¦Ĩà¦ªà¦¨
à¦°à¦¤ à¦ľ
à¦°à¦¤ à¦ĸà¦¨
à¦°à¦¤ à¦¨à¦¦
à¦« à¦¶
à¦« à¦«
à¦« à¦ĵà¦¯
à¦« à¦°à¦¸
à¦« à¦°à¦ĩ
à§ľ à¦ĩ
à§ľ à¦ª
à§ľ à¦ĸ
à§ľ à¦Ļ
à§ľ à¦ªà¦°
Ġà¦®à¦¨ à¦¦
Ġà¦®à¦¨ à¦Ĺ
Ġà¦®à¦¨ à¦®à¦¨
Ġà¦®à¦¨ à¦Łà¦¨
à¦Ŀ à¦¨
à¦Ŀ à¦¦
à¦Ŀ à¦²à¦¤
à¦Ŀ à¦²à¦¨
à¦Ŀ à¦¨à¦¦
Ġà¦Ł à¦Ł
Ġà¦Ł à¦Ĺ
Ġà¦Ł à¦²à¦ķ
Ġà¦Ł à¦Ĺà¦²
Ġà¦Ł à¦ĩà¦Ł
Ġà¦Ł à¦¸à¦Ł
Ġà¦Ł à¦®à¦¡
à¦ī à¦Ľ
à¦ī à¦ĵ
à¦ī à¦²à¦ķ
à¦ī à¦¸à¦¬
à¦ī à¦¦à§Ł
à¦ī à¦ªà¦¡
à¦ī à¦ªà¦Ĺ
à¦ī à§İà¦ª
à¦ī à§ľà¦Ľ
à¦ªà¦¨ à¦¤
à¦ªà¦¨ à¦¯
à¦ªà¦¨ à¦ļ
à¦ªà¦¨ à¦¸à¦¨
à¦ªà¦¨ à¦¸à¦°
à¦ªà¦¨ à¦¸à¦®
à¦ªà¦¨ à¦§à¦¨
à¦ªà¦¨ à¦ķà¦¥
Ġà¦¸à¦® à¦°à¦ķ
Ġà¦¸à¦® à¦¬à§Łà¦¸
à¦ªà¦° à¦ĩ
à¦ªà¦° à¦ª
à¦ªà¦° à¦¶
à¦ªà¦° à¦ªà¦°
Ġà¦ıà¦ĩ à¦ĵ
Ġà¦ıà¦ĩ à¦ıà¦ĩ
Ġà¦ıà¦ĩ à¦¸à¦®à¦¯
à¦®à¦¨ à¦¬
à¦®à¦¨ à¦®
Ġà¦Ĩà¦² à¦ľ
Ġà¦Ĩà¦² à¦Ĺà¦°
Ġà¦Ĩà¦² à¦¹à¦ľ
Ġà¦¸à¦¬ à¦ĵ
Ġà¦¸à¦¬ à¦ķà¦ľà¦¨
Ġà¦¸à¦¬ à¦§à¦°à¦¨
à¦ľà¦¨ à¦§
à¦ľà¦¨ à¦Ń
à¦ľà¦¨ à¦®à¦¤
à¦ľà¦¨ à¦ªà¦¦
à¦ľà¦¨ à¦Ĺà¦°
à¦ľà¦¨ à¦ıà¦¸à¦¬
à¦¤à¦° à¦¸à¦¬
à¦¤à¦° à¦ħà¦¨
à¦¤à¦° à¦£à¦ķ
Ġà¦¡ à¦¤
Ġà¦¡ à¦²à¦«
Ġà¦¡ à¦Łà¦Ĺ
Ġà¦¡ à¦ĵà¦¸à¦¨
à¦¬à¦¨ à¦¨
à¦¬à¦¨ à¦¹
à¦¬à¦¨ à¦Ń
à¦¬à¦¨ à¦ªà¦°
à¦¬à¦¨ à¦¨à¦¦
à¦¬à¦¨ à¦ªà¦¥
à¦¬à¦¨ à¦¸à¦Ļ
à¦¬à¦¨ à¦°à¦¹à¦¸
à¦°à¦¬ à¦¡
à¦°à¦¬ à¦¶
à¦°à¦¬ à¦Ĺ
à¦°à¦¬ à¦¹
à¦°à¦¬ à¦ŀ
à¦°à¦¬ à¦°à¦£
à¦°à¦¬ à¦¦à¦¨
à¦°à¦¬ à¦Ľà¦°
à¦°à¦¬ à¦¹à¦®
à¦°à¦¬ à¦²à¦Ń
à§İ à¦¨
à§İ à¦²
à§İ à¦¤
à§İ à¦®
à§İ à¦Ľ
à§İ à¦¡
à§İ à¦Ĺ
à§İ à¦®à¦¨
à§İ à¦ķà¦°
à§İ à¦ªà¦¤
à§İ à¦¸à¦²
à§İ à¦ıà¦°
à§İ à¦¦à¦°à¦ľ
Ġà¦®à¦¤ à¦Ĺà¦¸
Ġà¦ĩ à¦ĵ
Ġà¦ĩ à¦«
Ġà¦ĩ à¦¬à¦²
Ġà¦ĩ à¦¸à¦¬
Ġà¦ĩ à¦ľà¦®
Ġà¦ĩ à¦Łà¦ª
Ġà¦ĩ à¦·à§İ
Ġà¦ĩ à¦¨à¦¬à¦ķ
à¦ŀ à¦ĵ
Ġà¦¹à¦² à¦¯
Ġà¦¹à¦² à¦ĩ
Ġà¦¹à¦² à¦ĸ
Ġà¦¹à¦² à¦ĵ
Ġà¦¹à¦² à¦¸à¦¬
Ġà¦¹à¦² à¦Ĩà¦®
Ġà¦¹à¦² à¦ıà¦ĩ
Ġà¦¹à¦² à¦¹à¦ł
Ġà¦¹à¦² à¦ħà¦¨
Ġà¦¹à¦² à¦ıà¦ķà¦¦
Ġà¦¹à¦² à¦ıà¦¤
Ġà¦ł à¦¸
à¦°à¦£ à¦ıà¦Ł
à¦°à¦£ à¦¬à¦¶à¦¤
Ġà¦ıà¦¸ à¦¨
Ġà¦ıà¦¸ à¦®à¦¸
Ġà¦ıà¦¸ à¦ıà¦¨à¦ıà¦¸
Ġà¦ıà¦¸ à¦ĵà¦ıà¦¸
à¦°à¦ķ à¦ķ
à¦°à¦ķ à¦¬
à¦°à¦ķ à¦°à¦£
à¦°à¦ķ à¦°à¦°
Ġà¦ķà¦°à¦² à¦Ł
Ġà¦ķà¦°à¦² à¦ĸ
Ġà¦ķà¦°à¦² à¦ħ
Ġà¦ķà¦°à¦² à¦¨à¦¦
Ġà¦ķà¦°à¦² à¦¬à¦²à¦¤
Ġà¦ķà¦°à¦² à¦Ĩà¦ªà¦¨
Ġà¦Ŀ à¦Ŀ
Ġà¦Ŀ à¦°à¦£
Ġà¦Ŀ à¦¨à¦ķ
à¦¬à¦° à¦¨
à¦¬à¦° à¦¯
à¦¬à¦° à¦Ľ
à¦¬à¦° à¦ľ
à¦¬à¦° à¦¶
à¦¬à¦° à¦ļ
à¦¬à¦° à¦¸à¦¡
à¦ĺ à¦ĩ
à¦ĺ à¦¹
à¦ĺ à¦«
à¦ĺ à¦°à¦¬
à¦ĺ à¦°à¦ķ
à¦ĺ à¦®à¦²
à¦ĺ à¦°à¦¸
à¦ĺ à¦¢
à¦ĺ à¦ĺà¦¨
à¦ĺ à¦Ŀà¦¡
à¦ĺ à¦²à¦Ĺà¦¡
Ġà¦§à¦° à¦²à¦ķ
Ġà¦§à¦° à¦²à¦¸
Ġà¦§à¦° à¦®à¦¶
Ġà¦¬à¦¸ à¦ķ
Ġà¦¬à¦¸ à¦¬à¦ĩ
à¦ı à¦ľà¦¨
à¦ı à¦ķà¦²
à¦ı à¦¤à¦ĩ
à¦ı à¦¤à¦Ĺ
à¦ı à¦²à¦ĵ
à¦ı à¦°à¦ªà¦°à¦ĩ
à¦ı à¦ıà¦¸à¦ıà¦¸
Ġà¦ľà¦¨ à¦ĩ
Ġà¦ľà¦¨ à¦¬à¦¹
Ġà¦ľà¦¨ à¦®à¦ľ
Ġà¦ľà¦¨ à¦¸à¦Ń
Ġà¦ļà¦² à¦Ł
Ġà¦ļà¦² à¦¨à¦¸à¦ĩ
Ġà¦Ĺà¦² à¦Ł
Ġà¦Ĺà¦² à¦§
à¦¬à¦² à¦°
à¦¬à¦² à¦Ĩà¦®
à¦¬à¦² à¦¹à¦¯
à¦¬à¦² à¦Ŀà¦²à¦ķ
à¦ķà¦° à¦°
à¦ķà¦° à¦ĩ
à¦ķà¦° à¦ľ
à¦ķà¦° à¦¹à¦¸
à¦ķà¦Ł à¦®
à¦ķà¦Ł à¦Ł
à¦ķà¦Ł à¦ľà¦¨
Ġà¦ķà¦°à¦Ľ à¦¸
à¦¨à¦¤ à¦ķ
à¦¨à¦¤ à¦ıà¦Ł
à¦¨à¦¤ à¦ıà¦ĸ
à¦·à¦£ à¦ª
à¦·à¦£ à¦ľ
à¦·à¦£ à¦¹
à¦·à¦£ à¦ľà¦¨
à¦·à¦£ à¦¸à¦¬
à¦·à¦£ à¦ıà¦ĩ
à¦·à¦£ à¦¸à¦¬à¦ķ
Ġà¦ħà¦¬ à¦Ń
Ġà¦ħà¦¬ à¦Ĺà¦¤
Ġà¦ıà¦² à¦¬
Ġà¦ıà¦² à¦¦
Ġà¦ıà¦² à¦¡
Ġà¦ıà¦² à¦¶
Ġà¦ıà¦² à¦Ń
Ġà¦ıà¦² à¦Ĩà¦®
Ġà¦ıà¦² à¦ıà¦ĩ
Ġà¦ıà¦² à¦Ĩà¦ªà¦¨
Ġà¦Ĩà¦¬ à¦ķ
Ġà¦¨à¦¤ à¦¶
Ġà¦īà¦łà¦² à¦Ľ
Ġà¦īà¦łà¦² à¦ļ
Ġà¦īà¦łà¦² à¦¹
Ġà¦īà¦łà¦² à¦ı
Ġà¦īà¦łà¦² à¦¸à¦¬
Ġà¦īà¦łà¦² à¦Ĩà¦®à¦°
Ġà¦īà¦łà¦² à¦ıà¦ĸ
Ġà¦īà¦łà¦² à¦¦à¦°à¦ľ
Ġà¦īà¦łà¦² à¦īà¦¤
à§ĩà¦ģ à§Į
à¦Ĩ à¦«
à¦Ĩ à¦°à¦®
à¦Ĩ à¦Łà¦ķ
à¦Ĩ à¦ªà¦¦
à¦Ĩ à¦ªà¦Ł
à¦Ĩ à¦ªà¦¸
à¦Ĩ à¦¬à¦¦
à¦Ĩ à¦²à¦Ĺ
à¦Ĩ à¦Łà¦Ł
à¦Ĩ à¦ĩà¦¡
à¦Ĩ à¦ĩà¦ľ
Ġà¦ħà¦¸ à¦¦
Ġà¦ħà¦¸ à¦ļ
Ġà¦ħà¦¸ à¦®à¦°
à¦²à¦ķ à¦®
à¦²à¦ķ à¦Ĺ
à¦²à¦ķ à¦ł
Ġà¦¬à¦¨ à¦ķ
à¦°à¦® à¦¬
à¦°à¦® à¦¦
à¦°à¦® à¦ļ
à¦°à¦® à¦ĵ
à¦°à¦® à¦¬à¦°
à¦°à¦® à¦¤à¦¨
à¦°à¦® à¦£à¦¬
Ġà¦Ĩà¦ķ à¦¥
Ġà¦Ĩà¦ķ à¦¬à¦°à¦ķ
Ġà¦ħà¦¦ à¦°
Ġà¦ħà¦¦ à¦²à¦¬à¦¦à¦²
à¦ķà¦² à¦ª
à¦ķà¦² à¦ıà¦°
à¦¶à¦¨ à¦¯
à¦¶à¦¨ à¦¦
à¦¶à¦¨ à¦¡
à¦¶à¦¨ à¦Ĺà¦°
Ġà¦¹à§Ł à¦¯
à¦Ĺà¦² à¦°
à¦Ĺà¦² à¦ı
à¦Ĺà¦² à¦ıà¦ķ
à¦Ĺà¦² à¦ıà¦ĩ
à¦Ĺà¦² à¦ªà¦¥
à¦Ĺà¦² à¦ħà¦¨
à¦Ĺà¦² à¦¯à¦¦
à¦Ĺà¦² à¦Ĩà¦°
à¦Ĺà¦² à¦ľà¦®
à¦Ĺà¦² à¦Ĩà¦Ĺ
à¦Ĺà¦² à¦Ĩà¦ľà¦ķ
à¦°à¦¥à¦® à¦ĩ
à¦°à¦¥à¦® à¦ľà¦¨
à¦ĩà¦² à¦°
à¦ĩà¦² à¦¤
à¦ĩà¦² à¦¯
à¦ĩà¦² à¦ľ
à¦ĩà¦² à¦ļ
à¦ĩà¦² à¦ªà¦¨
à¦ĩà¦² à¦ªà¦¤
Ġà¦¹à¦¤ à¦ķ
Ġà¦¶à¦¬ à¦¦
Ġà¦ĺà¦° à¦ª
Ġà¦ĺà¦° à¦ĵà§Ł
à¦°à¦¨ à¦ķ
à¦°à¦¨ à¦ĩ
à¦°à¦¨ à¦ľà¦°
Ġà¦¤à¦ĸà¦¨ à¦ĩà¦ķ
à¦²à¦¤ à¦ĸà¦¨à¦ĩ
Ġà¦ķà¦°à¦¬ à¦®
Ġà¦ķà¦°à¦¬ à¦¸
Ġà¦ķà¦°à¦¬ à¦ıà¦ĩ
à¦®à¦² à¦®
à¦ĸà¦¤ à¦¨
à¦ĸà¦² à¦°
à¦ĸà¦² à¦ıà¦ĩ
à¦°à¦ľ à¦®
à¦°à¦ľ à¦Ł
à¦°à¦ľ à¦ª
à¦§à¦ķ à¦¥
à¦°à¦² à¦ıà¦¬
à¦¹à¦° à¦Ńà¦°
Ġà¦ªà¦¥ à¦¤
Ġà¦ªà¦¥ à¦¬
Ġà¦ªà¦¥ à¦ĸ
Ġà¦ªà¦¥ à¦Ń
Ġà¦ªà¦¥ à¦ıà¦ķà¦Ł
Ġà¦ªà¦¥ à¦ħà¦¨
à¦¸à¦¬ à¦Ł
à¦¸à¦¬ à¦¶
à¦¸à¦¬ à¦Ĺ
à¦¸à¦¬ à¦ĩà¦¯
à¦¸à¦¬ à¦¸à¦®à¦¯
à¦ķà¦¤ à¦ĸ
Ġà¦¨à¦¦ à¦¶
Ġà¦¨à¦¦ à¦¨à¦¦
à¦¤à¦¨ à¦¯
à¦¤à¦¨ à¦ª
à¦¤à¦¨ à¦ĸ
à¦¤à¦¨ à¦ľ
à¦¤à¦¨ à¦ĵ
à¦¤à¦¨ à¦®à¦£
Ġà¦ľà¦® à¦ľ
à¦°à¦¸ à¦«
à¦°à¦¸ à¦°à¦®
à¦°à¦¸ à¦®à§Ł
Ġà¦ħà¦® à¦°à¦¬
Ġà¦ħà¦® à¦²à¦¤
Ġà¦ħà¦® à¦°à¦ª
Ġà¦ķà¦£ à¦¤
Ġà¦ķà¦£ à¦łà¦¸
Ġà¦Ĩà¦¨ à¦°
Ġà¦Ĩà¦¨ à¦®
Ġà¦Ĩà¦¨ à¦ľ
Ġà¦Ĩà¦¨ à¦Ń
Ġà¦Ĩà¦¨ à¦«
à¦°à¦¶ à¦®à¦¨
à¦°à¦ªà¦° à¦ķ
à¦°à¦ªà¦° à¦¹à¦ł
Ġà¦ľà¦² à¦¶
Ġà¦ľà¦² à¦ĺ
Ġà¦ľà¦² à¦ļà¦°
à¦¹à¦¸ à¦ķ
à¦¹à¦¸ à¦¹
à¦¹à¦¸ à¦¸à¦¬
à¦®à¦¤ à¦ª
à¦®à¦¤ à¦Ń
Ġà¦¬à¦° à¦¦à¦²
Ġà¦¬à¦° à¦«à¦¸
à¦ķà¦¬ à¦ĩ
à¦ķà¦¬ à¦°à¦£
à¦ķà¦¬ à¦¦à¦²
Ġà¦ħà¦ª à¦²
Ġà¦ħà¦ª à¦¶à¦ķ
Ġà¦ĵà¦ªà¦° à¦Ĩà¦®
Ġà¦ĵà¦ªà¦° à¦Ĩà¦²
à¦¨à¦ĵ à¦¨
à¦¨à¦ĵ à§Ł
à¦¨à¦ĵ à¦®à¦¤
à¦Łà¦ķ à¦¸
à¦Łà¦ķ à¦Ĺ
à¦Łà¦ķ à¦¥
à¦Łà¦ķ à¦°à¦£
à¦¤à¦¬ à¦®
à¦¤à¦¬ à¦Ł
à¦¤à¦¬ à¦°à¦ķ
à¦¤à¦¬ à¦¦à¦¨
à¦¤à¦¬ à¦Ľà¦°
à¦¦à¦¨ à¦¸
à¦¦à¦¨ à¦¦
à¦¦à¦¨ à¦¹
à¦¦à¦¨ à¦Ń
à¦¦à¦¨ à¦ıà¦ĩ
à¦¦à¦¨ à¦Ĺà¦°
Ġà¦ħà¦Ń à¦ķ
à¦®à¦ķ à¦®
à¦¦à¦° à¦Ĺ
à¦¦à¦° à¦ĺ
Ġà¦¬à¦²à¦¤ à¦®
à¦²à¦¬ à¦¯
à¦²à¦¬ à¦¡
à¦²à¦¬ à¦ĵ
à¦²à¦¬ à¦Ľà¦°
à¦²à¦¬ à¦ıà¦ĩ
Ġà¦ħà¦¤ à¦ĩ
Ġà¦ħà¦¤ à¦ĸ
Ġà¦ħà¦¤ à¦¤à¦Ĺ
à¦ħ à§Ł
à¦ħ à¦£
à¦ħ à¦°à¦¨
à¦ħ à¦¤à¦¨
à¦ħ à¦Łà¦²
à¦ħ à¦¨à¦²
Ġà¦¶à¦¹à¦° à¦ª
à¦®à¦¯ à¦ľ
Ġà¦¬à¦Ľà¦° à¦Ł
Ġà¦¬à¦Ľà¦° à¦Ńà¦°
Ġà¦ªà§ľ à¦¶
Ġà¦ªà§ľ à¦²à¦¤
Ġà¦ªà§ľ à¦²à¦¨
Ġà¦ħà¦§ à¦¸
à¦ĩà¦° à¦Ł
à¦ĩà¦° à¦Ļ
à¦ĩà¦° à¦ĵà¦¶à¦¨
Ġà¦ķà¦² à¦²
Ġà¦ķà¦² à¦¡
Ġà¦ķà¦² à¦«
Ġà¦ķà¦² à¦®à¦ª
Ġà¦īà¦¦ à¦²
à¦°à¦ĩ à¦ŀ
Ġà¦ħà¦ľ à¦°
Ġà¦ħà¦ľ à¦Ĺà¦°
Ġà¦ıà¦Ĺ à¦¤
à¦¨à¦¬ à¦ľà¦¨
à¦¨à¦¬ à¦¬à¦¨
à¦¨à¦¬ à§İ
Ġà¦ķà¦® à¦«
Ġà¦ķà¦® à¦¬à¦¯
à¦¤à¦² à¦®
à¦¤à¦² à¦ľ
à¦¤à¦² à¦Ĺ
à¦¤à¦² à¦ĵ
à¦¤à¦² à¦ĵà¦¯
Ġà¦īà¦ª à¦Ľ
Ġà¦īà¦ª à¦¶
Ġà¦īà¦ª à¦ªà¦°
Ġà¦īà¦ª à¦¦à¦²
Ġà¦īà¦ª à¦¸à¦°
Ġà¦īà¦ª à¦°à¦¤à¦²
à¦°à¦ª à¦ķ
à¦°à¦ª à¦Ł
à¦°à¦ª à¦¡
à¦°à¦ª à§ľ
à¦°à¦ª à¦ŀ
à¦°à¦ª à¦Ĩà¦īà¦Ł
Ġà¦ķà¦¤ à¦Ń
Ġà¦ķà¦¤ à¦¤à¦¬
Ġà¦ķà¦¤ à¦ľà¦¨à¦ķ
Ġà¦ķà¦¤ à¦¶à¦¤
Ġà¦ķà¦¤ à¦¤à¦Ĺ
Ġà¦ķà¦¤ à¦¤à¦ĸ
Ġà¦¬à¦ĩ à¦ªà¦Ł
Ġà¦¬à¦ĩ à¦«à¦°
à¦Ńà¦¬ à¦ĵ
à¦¦à¦² à¦°
à¦¦à¦² à¦¬à¦²
à¦¦à¦² à¦®à¦£
à¦²à¦² à¦ıà¦ĩ
à¦¯à¦¨ à¦ķ
à¦Ĺà¦¤ à¦ĩ
à§İà¦ķ à¦£
à¦²à¦¨ à¦²
à¦²à¦¨ à¦ĸ
à¦²à¦¨ à¦Ĺ
à¦²à¦¨ à¦ıà¦ĩ
à¦²à¦¨ à¦ķà¦¶
à¦²à¦¨ à¦ĺà¦£
à¦²à¦¨ à¦°à¦¹à¦¸
Ġà¦ıà¦° à¦ĵ
à¦ļà¦¨ à¦Ł
à¦ļà¦¨ à¦ª
Ġà¦Ĩà¦¤ à¦¸à¦ķ
Ġà¦®à¦¹ à¦¦
à¦°à¦¦ à¦¤
à¦°à¦¦ à¦Ł
à¦°à¦¦ à¦¸
à¦¨à¦ķ à¦¯
à¦¨à¦ķ à¦ª
à¦¨à¦ķ à¦ĸà¦¨
à¦¨à¦ķ à¦°à¦£
à¦°à¦ĵ à¦ķ
Ġà¦¸à¦¹ à¦¬à¦¤
Ġà¦¸à¦¹ à¦§à¦°
à¦°à¦¹ à¦°à¦ķ
Ġà¦Ĺà¦¨ à§İà¦ķ
à¦¤à¦ķ à¦®
à¦¤à¦ķ à¦¦
à¦¤à¦ķ à¦ĸà¦¨
Ġà¦¨à§Ł à¦ª
Ġà¦¨à§Ł à¦¶
Ġà¦¨à§Ł à¦¸à¦¬
Ġà¦¨à§Ł à¦ıà¦ķà¦Ł
Ġà¦¨à§Ł à¦ıà¦¬
Ġà¦¨à§Ł à¦ıà¦ĸ
Ġà¦¨à§Ł à¦ıà¦Ĺ
à¦®à¦° à¦«
Ġà¦¶à¦ķ à¦ļ
à¦¸à¦¨ à¦®
Ġà¦Ľà¦¬ à¦Ľà¦°
Ġà¦Ĺà¦° à¦Ĺà¦°
à¦¸à¦² à¦Ł
à¦¸à¦² à¦¸
Ġà¦¯à¦¤ à¦¸à¦¬
Ġà¦¯à¦¤ à¦¤à¦¬
Ġà¦¯à¦¤ à¦¤à¦¦
Ġà¦ıà¦ķà¦¦ à¦Ļ
à¦ıà¦ķ à¦ĸ
à¦ļà¦ķ à¦¨
Ġà¦ħà¦ªà¦° à¦ľà¦¨
Ġà¦ħà¦ªà¦° à¦ªà¦ķ
à¦°à¦¬à¦¤ à¦®
à¦ļà¦² à¦Ĺ
à¦ĩà¦Ł à¦²
à¦ĩà¦Ł à¦¬
à¦ĩà¦Ł à¦ľ
à¦ĩà¦Ł à¦ĵà¦¯
à¦Łà¦² à¦Ł
à¦Łà¦² à¦¶
à¦¨à¦² à¦¯
à¦¨à¦² à¦ľ
Ġà¦Ĩà¦°à¦ĵ à¦ĩ
Ġà¦Ĩà¦¸à¦² à¦Ł
à¦¬à¦¸ à¦¹
à¦¬à¦¸ à¦Ļ
Ġà¦ħà¦« à¦¬
Ġà¦ħà¦« à¦¸
à¦ĩà¦ķ à¦ª
Ġà¦°à¦ĩà¦² à¦¤
Ġà¦°à¦ĩà¦² à¦¸
Ġà¦°à¦ĩà¦² à¦¦
Ġà¦°à¦ĩà¦² à¦ª
à¦®à¦¬ à¦ĸ
à¦·à¦ķ à¦¨
à¦ªà¦¦ à¦Ł
à¦ªà¦¦ à¦Ĺ
à¦ªà¦¦ à¦ĵ
à¦ªà¦¦ à¦£
à¦ªà¦¦ à¦ľà¦¨à¦ķ
à¦ªà¦¦ à¦Ĩà¦ªà¦¦
à¦ĸà¦¬ à¦ĩ
Ġà¦ıà¦ķà¦¸ à¦ª
à¦Ĩà¦® à¦¦
à¦¨à¦¦ à¦Ļ
à¦¨à¦¦ à¦¶à¦¦
Ġà¦ĸà¦¬à¦° à¦ª
Ġà¦ĸà¦¬à¦° à¦¢
Ġà¦ĸà¦¬à¦° à¦ĸà¦¬à¦°
Ġà¦ªà¦¦ à¦Ń
Ġà¦ªà¦¦ à¦®à¦°
Ġà¦ħà¦ķ à¦ĵà¦Ĩà¦°
à¦ªà¦Ł à¦°
à¦ªà¦Ł à¦ļ
à¦Ĺà¦¨ à¦ľà¦¯
à¦Łà¦¤ à¦®
à¦Ĺà¦ľ à¦¬
à¦Ĺà¦ľ à¦ĩ
à¦Ĺà¦ľ à¦ļ
à¦Ĺà¦ľ à¦ıà¦ķà¦Ł
à¦Ĺà¦ľ à¦ĸà¦£
Ġà¦¦à¦² à¦ĩ
Ġà¦¦à¦² à¦Ń
Ġà¦¦à¦² à¦¦à¦²
à¦¦à§Ł à¦Ĺ
à¦¦à§Ł à¦®à¦¨
Ġà¦ħà¦¬à¦¸ à¦°à¦¹
à¦Ŀà¦² à¦¶
à¦Ŀà¦² à¦Ń
à¦Ŀà¦² à¦ıà¦Ł
à¦¸à¦® à¦¶
Ġà¦ķà¦²à¦ķ à¦¤
Ġà¦ķà¦²à¦ķ à¦Ļ
à¦ıà¦ĩ à¦¬
à¦°à¦ļ à¦²à¦¨
à¦Ĺà¦° à¦°
à¦Ĺà¦° à¦ĸ
à¦¬à¦ķ à¦®
à¦¬à¦ķ à¦¶
à¦¬à¦ķ à¦Ĺ
à¦¬à¦ķ à¦£
à¦ľà¦² à¦°
à¦ľà¦² à¦¦
à¦ľà¦² à¦ľ
à¦ľà¦² à¦Ń
Ġà¦ĩà¦¨ à¦¸à¦Ł
Ġà¦ĩà¦¨ à¦«à¦°
Ġà¦ĩà¦¨ à¦Ńà¦¯
Ġà¦ķà¦¨ à¦¡
Ġà¦ķà¦¨ à¦ķà¦²à¦¤
Ġà¦ķà¦¨ à¦ķà¦¬à¦°à¦£
Ġà¦ĺà¦¨ à¦®
Ġà¦īà¦ªà¦° à¦ĩ
Ġà¦Ĩà¦¸à¦¤ à¦ĩ
Ġà¦ªà¦ķ à¦ªà¦ķ
à¦¤à¦¤ à§İà¦ķ
à¦§à¦¨ à¦¸
à¦§à¦¨ à¦Ĺ
à¦§à¦¨ à¦ıà¦¸à¦¬
à¦¯à¦¸ à¦ķ
à¦¯à¦¸ à¦®à¦¯
à¦¯à¦¸ à¦¹à¦¯
Ġà¦¦à¦°à¦ķ à¦·
à¦ķà¦ķ à¦·
à¦¹à¦® à¦£
à¦¹à¦® à¦®à¦¤
à¦ķà¦¨ à¦ĩ
à¦ķà¦¨ à¦ļ
Ġà¦¦à¦¶ à¦Ń
à¦²à¦® à¦¶à¦²
Ġà¦¬à¦ī à¦²
Ġà¦¬à¦ī à¦ł
à¦¢ à¦ª
à¦·à¦¤ à¦¸
à§Łà¦¨ à¦¯
à¦¥à¦° à¦«
Ġà¦ĵà¦ķ à¦ı
à¦²à¦Ł à¦¨à¦ķ
à¦°à¦Ń à¦ķ
à¦°à¦Ń à¦Ł
à¦¦à¦® à¦ĵ
Ġà¦¸à¦®à§Ł à¦Ĺà¦¤
à¦²à¦¸ à¦Ĺ
à¦²à¦¸ à¦¹
à¦²à¦¸ à¦ł
à¦ªà¦¸ à¦¦
à¦¸à¦ķ à¦ªà¦ķ
à¦°à¦Ĺ à¦Ń
à¦ĩà¦¬ à¦ĩ
Ġà¦ıà¦¨ à¦¡
Ġà¦ıà¦¨ à¦ľà¦¯
à¦Łà¦¨ à¦®
à¦Łà¦¨ à¦ĩ
à¦°à¦° à¦Ļ
à¦¤à¦® à¦®
à¦¤à¦® à¦īà¦¤
Ġà¦Ńà§Ł à¦ĩ
Ġà¦Ńà§Ł à¦¦
à¦¬à¦Ľ à¦¬
à¦¨à¦¸ à¦¹
à¦¨à¦¸ à¦Ļ
à¦¨à¦¸ à¦¹à¦ķ
à¦ķà¦¶ à¦ĵà¦¯
à¦®à§Ł à¦ķ
Ġà¦Ĩà¦¦ à¦²à¦¤
Ġà¦¸à¦¹à¦ľ à¦ª
à¦¯à¦¥ à¦Ń
à¦¬à¦¦ à¦ª
Ġà¦īà¦² à¦«
à¦¶à¦ķ à¦ĩ
à¦·à¦° à¦Ĩ
à¦ķà¦ľà¦¨ à¦ĩ
Ġà¦īà¦ľ à¦¬
à¦²à¦Ĺ à¦ŀ
à¦§à¦¬ à¦ļ
à¦Łà¦Ľ à¦¡
Ġà¦ħà¦®à¦² à¦¬
Ġà¦ħà¦®à¦² à¦¦
Ġà¦ĩà¦¸ à¦ķà¦¨
Ġà¦¶à¦¤ à¦¦
Ġà¦¶à¦¤ à¦¶à¦¤
à¦Ĺà¦® à¦ĩ
à¦Ĺà¦® à¦¦
Ġà¦°à¦ľà¦¤ à¦ĩ
Ġà¦®à¦² à¦ļà¦¤
Ġà¦ıà¦ķà¦® à¦ŀ
Ġà¦Ĺà¦°à¦® à¦Ł
Ġà¦¬à§Ł à¦²
Ġà¦¬à§Ł à¦«
à¦¯à¦¦ à¦¶
Ġà¦Ĩà¦¹ à¦¤à¦¦
Ġà¦ħà¦¸à¦® à¦¸
à¦ªà¦Ľ à¦¬
Ġà¦¦à¦® à¦ļ
à¦¶à¦® à¦¸
Ġà¦«à¦² à¦ª
Ġà¦«à¦² à¦¶
Ġà¦ªà§ľà¦² à¦¦
Ġà¦ªà§ľà¦² à¦¶
Ġà¦ªà§ľà¦² à¦ıà¦ķ
à¦¯à¦® à¦ĩ
à¦¯à¦® à¦¹
à¦ĩà¦¸ à¦ļ
à¦°à¦« à¦ķ
Ġà¦¬à§ľ à¦¬
Ġà¦¬à§ľ à¦ľ
Ġà¦¬à§ľ à¦Ń
Ġà¦¬à§ľ à¦¸à§ľ
à¦¨à¦° à¦ľà¦¨
à¦·à¦® à¦£
à¦¶à¦² à§Ł
à¦ĩà¦¡ à¦²
à¦Ĩà¦ľ à¦®à¦²
Ġà¦ıà¦Ń à¦ķ
Ġà¦ĭ à¦£à¦¬
Ġà¦Ĺà§ľ à¦¨
Ġà¦Ĺà§ľ à¦®
à¦ľà¦¨à¦ķ à¦ĵ
à¦ľà¦¨à¦ķ à¦Ń
à¦¨à¦Ń à¦¯
à¦¨à¦Ń à¦¦
à¦ķà¦¸ à¦Ļ
à¦®à¦Ľ à¦¬
à¦®à¦¦ à¦¦
à¦ľà¦® à¦¹à¦²à¦ķ
Ġà¦Ĺà¦£ à¦¹
Ġà¦Ĺà¦£ à¦Ĩà¦¨
Ġà¦ļà¦Ł à¦ľà¦²à¦¦
Ġà¦¤à¦¤ à¦ĸ
Ġà¦¨à¦¬ à¦¦à¦®
Ġà¦īà§İ à¦°
à¦ªà¦£ à¦ķ
Ġà¦«à¦Ł à¦ķà¦Ł
à¦®à¦¸ à¦ľ
à¦®à¦¸ à¦¹
Ġà¦¸à¦°à¦² à¦°
Ġà¦¸à¦°à¦² à¦¸
à¦ľà¦¸ à¦¦
à¦ľà¦¸ à¦Ń
à¦£à¦¬ à¦°à¦£
à¦°à¦ĸ à¦£
à¦īà¦² à¦ĩ
à¦°à¦¹à¦° à¦Ł
à¦°à¦ľà¦¨ à¦¨
à¦ªà¦® à¦²à¦¤
à¦ļà¦¬ à¦Ľà¦°
à§« à§¨
Ġà¦¨à¦¨ à¦«
Ġà¦¬à¦¸à¦¤ à¦ĺà¦°
Ġà¦Ī à¦Ļ
Ġà¦Ī à¦Ĺà¦²
Ġà¦Ľà¦¨ à¦®
Ġà¦Ľà¦¨ à¦Ľà¦¨
Ġà¦ķà¦²à¦® à¦ĸ
Ġà¦ķà¦²à¦® à¦ļ
Ġà¦ķà¦²à¦® à¦ĵ
Ġà¦ķà§Ł à¦¦
Ġà¦ķà¦¦ à¦®à¦¤à¦²
à¦²à¦ľ à¦«
à§Ŀ à¦¦
à§Ŀ à¦Ń
Ġà¦ħà¦Ł à¦²à¦ķ
à¦Ľà¦¬ à¦Ľà¦°
à¦īà¦ľ à¦ĩ
Ġà¦ļà¦® à¦ļà¦®
Ġà¦ªà¦²à¦ķ à¦¬
à§Ń à§Ń
à§Ń à§¨
à§Ń à§¯
Ġà¦Ĩà¦²à¦® à¦Ĺ
à¦ķà¦ª à§Ł
à¦¨à¦ļ à¦£
Ġà¦ľà§Ł à¦¯
Ġà¦ľà§Ł à¦®
Ġà¦ľà§Ł à¦ĩ
Ġà¦ľà§Ł à¦ª
à¦ĸà¦ķ à¦ĵ
à¦¯à§İ à¦ĩ
à¦¹à¦°à¦£ à¦¤
à¦¹à¦°à¦£ à¦¸
à¦¹à¦°à¦£ à¦ĩ
à¦¹à¦°à¦£ à¦ľ
à¦·à¦¬ à¦°à¦£
Ġà¦ħà¦¤à¦² à¦¶
à¦ĩà¦¶ à¦¹à¦°
à¦łà¦ķ à¦¯
Ġà¦¬à¦¦ à¦Ń
Ġà¦¬à¦¦ à¦ħà¦Ń
Ġà¦Ĩà¦ĩà¦¨ à¦ª
Ġà¦Ĩà¦ĩà¦¨ à¦Ĺà¦¤
Ġà¦Ĩà¦ĩà¦¨ à¦¸à¦Ļ
Ġà¦ĩà¦Ł à¦Ĺ
à§¨ à§§à§¨
ĠĠĠĠ ĠĠčĊč
ĠĠĠĠ Ġč
ĠĠĠĠ ĠĠĠčĊč
Ġà¦Ĩà¦Ł à¦¦
Ġà¦Ĩà¦Ł à¦ĺ
Ġà¦Ĩà¦Ł à¦·à¦Ł
Ġà¦ıà¦°à¦ªà¦° à¦ĩ
Ġà§¨ à§©
Ġà§¨ à§§à§ª
à¦ıà¦ĸà¦¨ à¦ĵ
Ġà¦ľà¦Ĺà¦¤ à¦ķ
Ġà¦Ĩà¦ĩ à¦ĵà¦Ł
à¦²à¦ĩ à¦¦
Ġà§§à§¯ à§¯à§®
à§§à§ §à§
Ġà¦¹à¦ĩ à¦¹à¦²
à¦ķà¦¶à¦¨ à¦ĵ
à¦ľà§Ł à¦ķ
à¦ľà§Ł à¦ª
à¦ľà§Ł à¦Ĺ
à¦®à¦® à¦ŀ
à¦¶à¦¦ à¦Ń
Ġà¦ķà¦Ł à¦ķà¦Ł
Ġà¦Ĩà§Ł à¦¤à¦¨
Ġà¦ıà¦ķà¦¶ à¦°
à¦ĸà¦¸ à¦ĸà¦¸
à§° à¦¯
à§° à¦®
à§° à¦¸
à§° à¦ĩ
à§° à¦¦
à§° à¦ª
à§° à¦¶
à§° à¦Ń
à§° à¦¬à¦²
à¦ĩà¦« à¦ķ
Ġà¦¶à¦ªà¦¥ à¦Ł
Ġà¦¶à¦ªà¦¥ à¦ĩ
Ġà¦¶à¦ªà¦¥ à¦ªà¦¤
Ġà¦¶à¦ªà¦¥ à¦Ĩà¦®
à¦¯à¦°à¦ķà¦® à¦Ń
Ġà¦¬à¦°à¦« à¦®
à¦ĩà¦¦ à¦¹
à§ª à§©
à§ª à§¯
Ġà¦«à¦¸à¦² à¦Ĺ
à¦īà¦¡ à¦¬
Ġà¦ħà¦®à¦° à¦ļà¦¨
à¦²à¦ĸ à¦¬à¦°
Ġà¦Ĩà¦« à¦¶
à¦£à¦¦ à¦£
Ġà¦Ĭ à¦¨à¦¬
Ġà¦ıà¦ķà¦° à¦Ļ
à¦¤à¦¸ à¦ĩ
à¦¸à¦¹ à¦¬
à¦¸à¦¹ à¦ª
Ġà¦ľà§ľ à¦¤
à¦īà¦ĩ à¦¥
à¦īà¦ĩ à¦ħà¦°
Ġà¦¨à¦ĸ à¦¶
Ġà¦¨à¦ĸ à¦ħà¦²
Ġà¦ĭà¦£ à¦ĸ
Ġà¦ªà¦Ł à¦ªà¦°
à¦¶à¦¹à¦° à¦Ł
à§© à§«
à§© à§¨
à§© à§®
à§© à§¯à§®
à§¬ à§©
à¦Ĺà¦£ à¦ľ
à§® à§Ń
à¦Ĺà¦°à¦£ à¦¯
à¦²à¦¶ à¦Ļ
Ġà§ª à§ª
Ġà§ª à§Ńà§©
à¦¸à¦®à§Ł à¦ĵ
à¦²à¦° à¦¹à¦¸
à¦¶à¦¸ à¦ļ
à¦īà¦¬ à¦ĵà¦¯
à¦ıà¦®à¦¨ à¦ķ
à¦ıà¦®à¦¨ à¦Ł
à¦¬à¦Ľà¦° à¦ĩ
à¦¶à¦Ĺ à¦Ļ
Ġà¦Ĩà¦ĸ à§ľ
Ġà¦Ńà¦Ĺ à¦¬à¦¤
Ġà¦¬à¦ĩà¦Ł à¦ĩ
Ġà¦ķà¦¤à¦¬ à§ľ
Ġà¦¤à¦°à¦² à¦¨
à¦¬à¦°à¦£ à¦²
à¦¬à¦°à¦£ à¦Ł
Ġà§© à§¬
Ġà§© à§¯à§®
Ġà§© à§¨à§Ń
à§¯ à§§
à§¯ à§¯
à¦ħà¦ªà¦° à¦£
Ġà¦¦à¦« à¦¤à¦°à¦¦
Ġà¦¹à¦ĩà¦² à¦¬à¦²à¦¤
Ġà§¨à§¦ à§¨à§«
Ġà§¨à§¦ à§Ńà§«
Ġà§¨à§¦ à§¨à§§
à¦¸à¦Ń à¦¬à¦¨
à¦¯à¦ĸà¦¨ à¦ĩ
à¦ıà¦ĩà¦ļ à¦ıà¦«
à¦°à¦¸à¦¬ à¦Ł
Ġà¦Ĩà¦īà¦Ł à¦¸
Ġà¦Ĩà¦īà¦Ł à¦¡
à¦ĩà¦ĵ à¦Ń
à¦¨à¦¬à¦ľ à¦Ĺà¦¤
Ġà¦¨à¦Ĺ à¦°à¦ķ
Ġà¦ĸà¦Ł à¦®à¦Ł
à¦ħà¦ª à¦Ľà¦¨
ĠĠĠĠĠĠĠĠ Ġ
ĠĠĠĠĠĠĠĠ ĠĠĠ
Ġà¦¦à¦®à¦¨ à¦¨
Ġà¦¦à¦®à¦¨ à¦¬
Ġà¦Ĩà¦¬à¦°à¦£ à¦ķ
Ġà§§à§¯à§Ń à§¦
Ġà§§à§¯à§Ń à§Ń
Ġà§§à§¯à§Ń à§¨
Ġà§§à§¯à§Ń à§©
Ġà§§à§¯à§Ń à§«à§Ń
à¦£à¦ļ à¦ŀ
Ġà¦²à¦¬à¦£ à¦ļ
Ġà¦īà¦ĩ à¦²à¦ķ
à¦ħà¦¤ à¦ıà¦¬
Ġà§§à§¨ à§©
Ġà§§à§¨ à§¦à§¦
Ġà§§à§¨ à§¦à§©
Ġà§« à§«
Ġà§« à§¨
Ġà§« à§ª
Ġà§« à§Ńà§¯
à¦¤à¦¯ à¦¶
à¦ķà¦ĸà¦¨ à¦ĩ
Ġà¦¸à¦¦à¦° à¦ĺ
Ġà¦ľà¦²à¦ķ à¦·
Ġà¦Ĺà¦²à¦¦ à¦ĺ
Ġà¦Ĺà¦²à¦¦ à¦ĺà¦°
Ġà§Ń à§©
Ġà§Ń à§¬
Ġà§§à§Ń à§¬à§¦
Ġà§§à§Ń à§¬à§©
Ġà¦ļà¦²à¦¨ à¦¬à¦²à¦¨
à¦®à¦¹à¦² à¦Ł
Ġà¦ªà¦¤à¦¨ à¦ķ
Ġà¦ļà§ľ à¦ķà¦Ĺ
à¦¶à¦ĵ à¦ª
Ġà§§à§¯à§ª à§¦
Ġà§§à§¯à§ª à§¬
à¦²à¦ıà¦ķ à¦¸
à¦²à¦ıà¦ķ à¦ĩ
à¦²à¦ıà¦ķ à¦¸à¦Ļ
Ġà¦ªà¦Łà¦² à¦Ĺ
Ġà¦¶à¦°à§İ à¦¬
à¦¡à¦Ń à¦£
Ġà§§à§¦ à§¬
Ġà§§à§¦ à§¦à§¦
à¦¬à¦¤à¦¨ à¦°
à¦ĭ à¦¦
à¦ĭ à¦ľ
Ġà¦¸à¦¯ à¦¤à¦¨
à¦¨à¦ı à¦¸à¦¬à¦ĩ
à¦¶à¦§ à¦°à¦°
Ġà¦ıà¦ķà¦¨ à¦ľà¦°
Ġà§¯ à§®
Ġà§¬ à§«à§Ń
Ġà§§à§« à§¦à§¦
Ġà§§à§« à§«à§¦
Ġà§¨à§¨ à§®à§Ń
à¦Ī à¦¦
à¦Ī à§Ł
à¦¨à¦ıà¦ķ à¦¸à¦Ļ
Ġà¦¶à¦°à¦¤ à¦¬
Ġà§§à§® à§¬à§¦
Ġà§§à§ª à§¦à§¨
Ġà§§à§ª à§¯à§«
Ġà§§à§¯à§« à§¦
Ġà§§à§¯à§« à§«
Ġà¦ıà¦Ĩ à¦Ļ
Ġà¦®à¦«à¦¸ à¦¸à¦²
à§§à§¨ à§§à§¯
Ġà¦ļà¦°à¦£ à¦§
Ġà¦ļà¦°à¦£ à¦¤à¦²
Ġà§¦ à§«
Ġà§¦ à§§
à¦²à¦Ĩà¦ľ à¦ĩ
à¦ĸà¦²à¦¤ à¦¬
Ġà¦ĸà§ľ à¦Ĺ
à§§à§¯ à§Ńà§§
à§§à§¯ à§«à§¨
à¦¬à§İ à¦¸à¦²
Ġà¦Ĩà¦ī à¦Łà¦²
à¦ıà¦® à¦ı
Ġà¦Ĩà¦ĩà¦ľ à¦ķ
Ġà¦Ĩà¦ĩà¦ľ à¦ĵ
Ġà¦ľà¦¬à¦° à¦¦à¦ĸà¦²
à¦¹à¦ľ à¦¸à¦¨
Ġà¦ľà¦¨à¦ªà¦¦ à¦Ł
Ġà§§à§© à§¨
Ġà§§à§© à§ªà§®
à§§à§¦ à§§
à¦°à¦ħ à¦®à¦°
Ġà¦Ĩà¦¦à¦® à¦¹
Ġà¦¦à¦®à¦¦à¦® à¦¹
Ġà§¨à§ª à§©
ĠĠĠĠĠĠĠĠĠĠĠĠĠĠĠĠ ĠĠĠĠĠĠĠ
à¦Ĭ à¦·
à¦²à¦ªà¦° à¦¶
Ġà¦ķà¦®à¦¨ à¦ĵà¦¯
Ġà¦ªà¦ļà¦¨ à¦¶
à§§à§© à§¨
Ġà¦ļà¦ªà¦² à¦®à¦¤
Ġà¦ĸà¦ķ à¦ĸà¦ķ
à¦ĩà¦¨à¦« à¦°à¦®
ĠĠčĊĠĠĠĠ ĠĠĠčĊč
Ġà§§à§¯à§® à§¦
Ġà¦ĩà¦īà¦ıà¦¸ à¦ı
à¦ĩà¦ī à¦¤à¦°
Ġà¦ľà¦¨à¦Ĺ à¦£à¦ķ
Ġà§§à§§à§ ¨à§¨
Ġà§§à§¯à§¯ à§«
Ġà§§à§¯à§¯ à§¨
Ġà§ªà§¦ à§ªà§«
à¦ķà¦¨à¦ķ à¦¨
à¦¯à¦°à¦ķ à¦®à¦ķ
Ġà¦ªà¦¦à¦¯ à¦ľ
ĠĠĠčĊ ĠĠč
Ġà¦¬à¦Ľ à¦°à¦ķ
Ġà¦Ĩà¦°à¦ıà¦¸ à¦ıà¦ıà¦¸à¦ıà¦¸
à¦Ķ à¦ªà¦¨
à¦¦à¦°à¦¶ à¦¹à¦°
Ġà¦Ĺà¦Ĺ à¦¨à¦¬
Ġà¦°à¦¸à¦ķà¦· à¦¹
Ġà¦ĩà¦ķà¦¨ à¦®
Ġà¦ķà¦¹à¦ķ à¦¹
Ġà¦¨à¦°à¦¹ à¦¤
à¦ªà¦²à¦Ł à¦ª
à¦ľà¦¬à¦ª à¦£
à¦¡à¦ıà¦ĩ à¦¡
Ġà¦ľà¦ĵà§Ł à¦¹à¦°
Ġà¦«à¦°à¦Ĺ à¦Ł
Ġà¦§à¦®à¦§ à¦®
Ġà¦Łà¦¸à¦Ł à¦¸
à§¨à§§à§¨ à§«
Ġà§§à§¯à§Ńà§«à§Ń à§¬
Ġà§§à§§à§¨à§¨ à§§à§¯
