{"[PAD]":0,"[UNK]":1,"[CLS]":2,"[SEP]":3,"!":4,"\"":5,"#":6,"$":7,"%":8,"&":9,"'":10,"(":11,")":12,"*":13,"+":14,",":15,"-":16,".":17,"/":18,"0":19,"1":20,"2":21,"3":22,"4":23,"5":24,"6":25,"7":26,"8":27,"9":28,":":29,";":30,"<":31,"=":32,">":33,"?":34,"@":35,"A":36,"B":37,"C":38,"D":39,"E":40,"F":41,"G":42,"H":43,"I":44,"J":45,"K":46,"L":47,"M":48,"N":49,"O":50,"P":51,"Q":52,"R":53,"S":54,"T":55,"U":56,"V":57,"W":58,"X":59,"Y":60,"Z":61,"[":62,"\\":63,"]":64,"^":65,"_":66,"`":67,"a":68,"b":69,"c":70,"d":71,"e":72,"f":73,"g":74,"h":75,"i":76,"j":77,"k":78,"l":79,"m":80,"n":81,"o":82,"p":83,"q":84,"r":85,"s":86,"t":87,"u":88,"v":89,"w":90,"x":91,"y":92,"z":93,"{":94,"|":95,"}":96,"~":97,"¡":98,"¢":99,"£":100,"¤":101,"¥":102,"¦":103,"§":104,"¨":105,"©":106,"ª":107,"«":108,"¬":109,"®":110,"¯":111,"°":112,"±":113,"²":114,"³":115,"´":116,"µ":117,"¶":118,"·":119,"¸":120,"¹":121,"º":122,"»":123,"¼":124,"½":125,"¾":126,"¿":127,"À":128,"Á":129,"Â":130,"Ã":131,"Ä":132,"Å":133,"Æ":134,"Ç":135,"È":136,"É":137,"Ê":138,"Ë":139,"Ì":140,"Í":141,"Î":142,"Ï":143,"Ð":144,"Ñ":145,"Ò":146,"Ó":147,"Ô":148,"Õ":149,"Ö":150,"×":151,"Ø":152,"Ù":153,"Ú":154,"Û":155,"Ü":156,"Ý":157,"Þ":158,"ß":159,"à":160,"á":161,"â":162,"ã":163,"ä":164,"å":165,"æ":166,"ç":167,"è":168,"é":169,"ê":170,"ë":171,"ì":172,"í":173,"î":174,"ï":175,"ð":176,"ñ":177,"ò":178,"ó":179,"ô":180,"õ":181,"ö":182,"÷":183,"ø":184,"ù":185,"ú":186,"û":187,"ü":188,"ý":189,"þ":190,"ÿ":191,"Ā":192,"ā":193,"Ă":194,"ă":195,"Ą":196,"ą":197,"Ć":198,"ć":199,"Ĉ":200,"ĉ":201,"Ċ":202,"ċ":203,"Č":204,"č":205,"Ď":206,"ď":207,"Đ":208,"đ":209,"Ē":210,"ē":211,"Ĕ":212,"ĕ":213,"Ė":214,"ė":215,"Ę":216,"ę":217,"Ě":218,"ě":219,"Ĝ":220,"ĝ":221,"Ğ":222,"ğ":223,"Ġ":224,"ġ":225,"Ģ":226,"ģ":227,"Ĥ":228,"ĥ":229,"Ħ":230,"ħ":231,"Ĩ":232,"ĩ":233,"Ī":234,"ī":235,"Ĭ":236,"ĭ":237,"Į":238,"į":239,"İ":240,"ı":241,"Ĳ":242,"ĳ":243,"Ĵ":244,"ĵ":245,"Ķ":246,"ķ":247,"ĸ":248,"Ĺ":249,"ĺ":250,"Ļ":251,"ļ":252,"Ľ":253,"ľ":254,"Ŀ":255,"ŀ":256,"Ł":257,"ł":258,"Ń":259,"à¦":260,"à§":261,"Ġà¦":262,"à§ĩ":263,"à¦¾":264,"à¦°":265,"à¦¿":266,"à§į":267,"à¦¨":268,"à¦²":269,"à¦¤":270,"à¦ķ":271,"à¦¯":272,"à§ģ":273,"à¦¼":274,"à¦¬":275,"à§ĭ":276,"Ġà¦ķ":277,"à¦®":278,"Ġà¦¬":279,"Ġà¦Ĩ":280,"Ġà¦¸":281,"à¦Ł":282,"à¦¸":283,"Ġà¦ª":284,"à¦Ľ":285,"Ġà¦¨":286,"à¦ĩ":287,"à¦¦":288,"Ġà¦®":289,"Ġà¦¦":290,"Ġà¦ı":291,"Ġà¦¤":292,"Ġà¦¹":293,"à¦¼à§ĩ":294,"à¦ª":295,"à¦ĸ":296,"à¦ľ":297,"à§Ģ":298,"à¦¡":299,"à¦¶":300,"Ġà¦ħ":301,"à¦Ĺ":302,"Ġà¦ķà¦°":303,"Ġà¦¯":304,"Ġà¦Ĺ":305,"à¦ļ":306,"à¦ģ":307,"Ġà¦ļ":308,"à¦·":309,"à§Ł":310,"Ġà¦°":311,"Ġà¦¶":312,"à¦§":313,"Ġà¦Ń":314,"Ġà¦ľ":315,"à¦¥":316,"à¦¹":317,"Ġà¦ıà¦ķ":318,"Ġà¦Ĩà¦®":319,"à¦ĵ":320,"à¦¼à¦¾":321,"à¦£":322,"Ġà¦Ľ":323,"Ġà¦¬à¦²":324,"Ġà¦²":325,"Ġà¦¥":326,"à¦ł":327,"Ġà¦Ĩà¦°":328,"à¦¾à¦ģ":329,"à¦Ń":330,"Ġà¦«":331,"Ġà¦ī":332,"Ġà¦ĸ":333,"à¦Ļ":334,"Ġà¦ĵ":335,"à§ĥ":336,"Ġà¦¹à¦¯":337,"à¦Ĥ":338,"à§Ĥ":339,"Ġà¦§":340,"à¦¼à¦¿":341,"Ġà¦ħà¦¨":342,"čĊ":343,"čĊč":344,"Ġà¦ıà¦ķà¦Ł":345,"à¦ĸà¦¨":346,"Ġà¦ĺ":347,"Ġà¦ªà¦°":348,"Ġà¦¬à¦²à¦²":349,"à¦°à¦¤":350,"à¦«":351,"à§ľ":352,"Ġà¦®à¦¨":353,"à¦Ŀ":354,"Ġà¦Ł":355,"à¦ī":356,"Ġà¦Ĩà¦Ľ":357,"à¦ªà¦¨":358,"Ġà¦¸à¦®":359,"à¦ªà¦°":360,"Ġà¦īà¦ł":361,"Ġà¦ıà¦ĩ":362,"à¦®à¦¨":363,"Ġà¦ªà¦¡":364,"Ġà¦Ĩà¦²":365,"Ġà¦¸à¦¬":366,"Ġà¦Ĩà¦¸":367,"à¦ľà¦¨":368,"Ġà¦ķà¦¥":369,"à¦¤à¦°":370,"Ġà¦¡":371,"à¦¬à¦¨":372,"à¦°à¦¬":373,"à§İ":374,"Ġà¦®à¦¤":375,"Ġà¦ĩ":376,"à¦ŀ":377,"Ġà¦¹à¦²":378,"Ġà¦ł":379,"à¦ĵà¦¯":380,"à¦°à¦£":381,"Ġà¦ıà¦¸":382,"à¦°à¦ķ":383,"Ġà¦¹à¦¬":384,"Ġà¦ķà¦°à¦²":385,"Ġà¦Ŀ":386,"Ġà¦Ĩà¦ľ":387,"à¦¬à¦°":388,"à¦ĺ":389,"Ġà¦Ĩà¦Ĺ":390,"Ġà¦§à¦°":391,"Ġà¦¬à¦¸":392,"Ġà¦ķà¦°à¦¤":393,"à¦ı":394,"Ġà¦ľà¦¨":395,"Ġà¦¸à¦Ļ":396,"Ġà¦¢":397,"Ġà¦ļà¦²":398,"Ġà¦Ĩà¦ªà¦¨":399,"Ġà¦Ĺà¦²":400,"à§ģà¦ģ":401,"Ġà¦ıà¦ĸà¦¨":402,"à¦¬à¦²":403,"à¦ķà¦°":404,"à¦ķà¦Ł":405,"Ġà¦ķà¦°à¦Ľ":406,"à§ĭà¦ģ":407,"à¦¨à¦¤":408,"à¦·à¦£":409,"Ġà¦ħà¦¬":410,"Ġà¦ıà¦²":411,"à§Į":412,"Ġà¦Ĩà¦¬":413,"Ġà¦¨à¦¤":414,"à¦¬à¦ª":415,"Ġà¦īà¦łà¦²":416,"à§ĩà¦ģ":417,"à¦Ĩ":418,"Ġà¦®à¦§":419,"Ġà¦ħà¦¸":420,"à¦²à¦ķ":421,"Ġà¦¬à¦¨":422,"ĠĠ":423,"à¦°à¦®":424,"Ġà¦Ĩà¦ķ":425,"à¦¥à¦®":426,"Ġà¦ħà¦¦":427,"à¦ķà¦²":428,"Ġà¦ıà¦¬":429,"Ġà¦ħà¦°":430,"à¦¶à¦¨":431,"Ġà¦¹à§Ł":432,"à¦Ĺà¦²":433,"à¦°à¦¥à¦®":434,"Ġà¦¸à¦®à¦¯":435,"à¦ĩà¦²":436,"Ġà¦¹à¦¤":437,"Ġà¦¤à¦¬":438,"Ġà¦¶à¦¬":439,"Ġà¦ĺà¦°":440,"Ġà¦ĵà¦°":441,"à¦°à¦¨":442,"Ġà¦¨à¦¯":443,"Ġà¦¤à¦ĸà¦¨":444,"à¦²à¦¤":445,"à¦Ľà¦¨":446,"Ġà¦Ĩà¦®à¦°":447,"à§Ī":448,"Ġà¦ķà¦°à¦¬":449,"à¦®à¦²":450,"à¦ĸà¦¤":451,"Ġà¦¹à¦ļ":452,"à¦ĸà¦²":453,"à¦ĥ":454,"à¦°à¦ľ":455,"à¦§à¦ķ":456,"Ġà¦¬à¦¡":457,"à¦°à¦²":458,"à¦¹à¦°":459,"à¦¿à¦Ĥ":460,"Ġà¦ªà¦¥":461,"Ġà¦¹à¦ł":462,"Ġà¦ĵà¦ł":463,"Ġà¦¸à¦¨":464,"à¦¸à¦¬":465,"Ġà¦ķà¦ĸà¦¨":466,"à¦ķà¦¤":467,"Ġà¦¨à¦¦":468,"Ġà¦ıà¦¤":469,"Ġà¦¸à¦¤":470,"à¦¤à¦¨":471,"Ġà¦°à¦ķ":472,"Ġà¦ľà¦®":473,"à¦°à¦¸":474,"Ġà¦ħà¦®":475,"Ġà¦ķà¦£":476,"Ġà¦Ĩà¦¨":477,"à¦¾à¦Ĥ":478,"à¦°à¦¶":479,"à¦°à¦ªà¦°":480,"Ġà¦ľà¦²":481,"à¦¹à¦¸":482,"Ġà¦¯à¦¦":483,"Ġà¦ıà¦ĸ":484,"à¦®à¦¤":485,"Ġà¦¬à¦°":486,"Ġà¦ħà¦ļ":487,"à¦ķà¦¬":488,"Ġà¦ıà¦®à¦¨":489,"Ġà¦ħà¦ª":490,"Ġà¦ĵà¦ªà¦°":491,"à¦¨à¦ĵ":492,"Ġà¦¦à¦°à¦ľ":493,"à¦Łà¦ķ":494,"Ġà¦Ĩà¦¶":495,"à¦ĵà§Ł":496,"à¦ĩà¦¨":497,"à¦¤à¦¬":498,"à¦¦à¦¨":499,"Ġà¦ħà¦Ń":500,"à¦®à¦ķ":501,"Ġà¦īà¦¤":502,"à¦¦à¦°":503,"Ġà¦¯à¦ĸà¦¨":504,"Ġà¦¬à¦²à¦¤":505,"Ġà¦Ńà¦¯":506,"à¦²à¦¬":507,"ĠĠčĊč":508,"Ġà¦ħà¦¤":509,"à¦Ľà¦°":510,"à¦ħ":511,"Ġà¦¶à¦¹à¦°":512,"à¦¯à¦¬":513,"Ġà¦¸à¦°":514,"à¦®à¦¯":515,"Ġà¦¬à¦Ľà¦°":516,"Ġà¦ªà§ľ":517,"Ġà¦ħà¦§":518,"à¦ĩà¦°":519,"Ġà¦ķà¦²":520,"Ġà¦īà¦¦":521,"à¦¹à¦²":522,"à¦°à¦ĩ":523,"à¦Ŀà¦¤":524,"à¦ªà¦¤":525,"Ġà¦ħà¦ľ":526,"à¦°à¦Ľ":527,"Ġà¦ıà¦Ĺ":528,"à¦¨à¦¬":529,"ĠčĊč":530,"à¦¼à§ĭ":531,"Ġà¦ķà¦®":532,"à¦¤à¦²":533,"Ġà¦īà¦ª":534,"à¦°à¦ª":535,"Ġà¦ķà¦¤":536,"Ġà¦ıà¦Ł":537,"Ġà¦ĵà¦ĩ":538,"à¦¿à¦ĥ":539,"Ġà¦¬à¦ĩ":540,"à¦Ńà¦¬":541,"à¦¦à¦²":542,"Ġà¦¬à¦²à¦Ľ":543,"à¦²à¦²":544,"à¦¯à¦¨":545,"Ġà¦ķà¦¯":546,"Ġà¦Ľà¦¡":547,"Ġà¦¶à¦°":548,"à¦Ĺà¦¤":549,"Ġà¦¸à¦ķ":550,"à§İà¦ķ":551,"à¦¿à¦ģ":552,"Ġà¦Ńà¦°":553,"à¦²à¦¨":554,"Ġà¦Ĩà¦¸à¦Ľ":555,"Ġà¦ĺà¦Ł":556,"Ġà¦ıà¦°":557,"à¦°à¦Ł":558,"à¦ļà¦¨":559,"Ġà¦Ĩà¦¤":560,"Ġà¦®à¦¹":561,"Ġà¦¬à¦¯":562,"à¦°à¦¦":563,"à¦¨à¦ķ":564,"à¦¨à¦Ł":565,"Ġà¦°à¦ĵ":566,"à¦°à¦ĵ":567,"Ġà¦ĩà¦ļ":568,"Ġà¦¸à¦¹":569,"à¦¸à¦«":570,"à¦°à¦¹":571,"Ġà¦Ĺà¦¨":572,"à¦¤à¦ķ":573,"Ġà¦¨à§Ł":574,"Ġà¦°à¦ĵà¦¶à¦¨":575,"Ġà¦¤à¦°":576,"Ġà¦ıà¦ķà¦¬":577,"Ġà¦ıà¦ķà¦ľà¦¨":578,"à¦¯à¦¤":579,"à¦®à¦°":580,"Ġà¦ĩà¦¤":581,"Ġà¦¶à¦ķ":582,"Ġà¦Ĺà¦Ń":583,"à¦¯à¦ķ":584,"à¦¸à¦¨":585,"Ġà¦Ľà¦¬":586,"Ġà¦°à¦¹à¦¸":587,"Ġà¦¸à¦®à¦¸":588,"à¦¦à¦¯":589,"Ġà¦Ĺà¦°":590,"à¦¸à¦²":591,"Ġà¦¯à¦¤":592,"Ġà¦īà¦ļ":593,"à¦¬à¦¤":594,"Ġà¦ıà¦ķà¦¦":595,"à¦ıà¦ķ":596,"Ġà¦īà¦¨":597,"Ġà¦ĵà¦¦":598,"à¦ļà¦ķ":599,"Ġà¦ħà¦ªà¦°":600,"à¦°à¦ķà¦®":601,"à¦°à¦¬à¦¤":602,"Ġà¦°à¦Ļ":603,"à¦ļà¦²":604,"à¦ĩà¦Ł":605,"à¦ĸà¦Ľ":606,"à¦Łà¦²":607,"Ġà¦Ĩà¦¡":608,"Ġà¦ħà¦¥":609,"à¦°à¦¯":610,"à¦¸à¦¤":611,"à¦¨à¦²":612,"Ġà¦¬à¦¦à¦²":613,"Ġà¦Ĩà¦ľà¦ķ":614,"à¦¸à¦°":615,"Ġà¦Ĩà¦°à¦ĵ":616,"Ġà¦Ĩà¦¸à¦²":617,"à¦¶à¦¬":618,"à¦¬à¦¸":619,"à¦ĩà¦¯":620,"à¦¨à¦¨":621,"Ġà§":622,"à¦ļà¦¯":623,"Ġà¦ķà¦¬":624,"Ġà¦ħà¦«":625,"à¦²à¦Ľ":626,"à¦ĩà¦ķ":627,"Ġà¦¬à¦²à¦¬":628,"à¦ľà¦¤":629,"Ġà¦°à¦ĩà¦²":630,"Ġà¦Ĩà¦Ļ":631,"à¦®à¦¬":632,"à¦·à¦ķ":633,"Ġà¦ħà¦¬à¦¶":634,"à¦ªà¦¦":635,"Ġà¦Ĩà¦Łà¦ķ":636,"à¦ĸà¦¬":637,"Ġà¦ıà¦ķà¦¸":638,"Ġà¦Ĩà¦¸à¦¬":639,"à¦Ĩà¦®":640,"à§Įà¦ģ":641,"à¦¨à¦¦":642,"Ġà¦ĸà¦¬à¦°":643,"Ġà¦ħà¦¥à¦ļ":644,"Ġà¦ªà¦¦":645,"Ġà¦ħà¦ķ":646,"à¦ªà¦Ł":647,"Ġà¦ķà¦·":648,"à¦Ĺà¦¨":649,"à¦Łà¦¤":650,"à¦īà¦¨":651,"à¦Ĺà¦ľ":652,"Ġà¦²à¦ķ":653,"Ġà¦¦à¦²":654,"Ġà¦Ĺà¦¤":655,"Ġà¦ħà¦¨à¦¨":656,"à¦Łà¦¬":657,"Ġà¦®à¦°":658,"à¦¦à§Ł":659,"Ġà¦ħà¦¬à¦¸":660,"à¦Ŀà¦²":661,"à¦ªà¦ķ":662,"à¦¸à¦®":663,"Ġà¦ķà¦²à¦ķ":664,"à¦ıà¦ĩ":665,"Ġà¦Ĺà¦¡":666,"à¦°à¦ļ":667,"à¦Ĺà¦°":668,"Ġà¦Ĩà¦ļ":669,"à§İà¦¸":670,"à¦ĺà¦°":671,"Ġà¦ħà¦¶":672,"à¦¬à¦ķ":673,"à¦ľà¦²":674,"Ġà¦ħà¦²":675,"Ġà¦ľà¦¡":676,"Ġà¦Ĩà¦¯":677,"Ġà¦ĩà¦¨":678,"Ġà¦ķà¦¨":679,"Ġà¦ĺà¦¨":680,"Ġà¦īà¦ªà¦°":681,"Ġà¦°à¦ķà¦®":682,"Ġà¦Ĳ":683,"à¦¼à§ģ":684,"à¦¹à¦¨":685,"Ġà¦Ĩà¦¸à¦¤":686,"Ġà¦ªà¦ķ":687,"à¦¤à¦¤":688,"à¦Ĺà¦Ľ":689,"à¦§à¦¨":690,"à¦ªà¦¥":691,"à¦¯à¦¸":692,"Ġà¦¦à¦°à¦ķ":693,"Ġà¦ıà¦¦":694,"Ġà¦ıà¦ĸà¦¨à¦ĵ":695,"à¦ķà¦ķ":696,"à§ģà¦ĥ":697,"à¦Łà¦°":698,"Ġà¦ĵà¦Ł":699,"à¦·à¦¯":700,"Ġà¦īà¦łà¦Ľ":701,"à¦¹à¦®":702,"à¦¨à¦Ĺ":703,"à¦ªà¦¡":704,"à¦ķà¦¨":705,"à¦ķà¦¦":706,"Ġà¦¤à¦²":707,"Ġà¦¦à¦¶":708,"à¦¹à¦ł":709,"à¦ıà¦ķà¦Ł":710,"à¦²à¦®":711,"Ġà¦ħà¦Ĺ":712,"Ġà¦Ńà¦¬":713,"Ġà¦¬à¦ī":714,"à¦¢":715,"à¦¯à¦°":716,"à¦·à¦¤":717,"Ġà¦Ĩà¦¨à¦¨":718,"Ġà¦Ĩà¦ĵà¦¯":719,"Ġà¦Ľà§ľ":720,"à§Łà¦¨":721,"à¦¥à¦°":722,"Ġà¦°à¦¬":723,"à¦¯à¦¬à¦¸":724,"Ġà¦ĵà¦ķ":725,"Ġà¦¨à¦®":726,"à¦²à¦Ł":727,"Ġà¦ªà¦¤":728,"ĠĠč":729,"à¦°à¦Ń":730,"à¦¦à¦®":731,"Ġà¦¹à¦ĵà¦¯":732,"Ġà¦ĺà¦Łà¦¨":733,"à¦ĩà¦¤":734,"Ġà¦Ńà¦¦":735,"Ġà¦¸à¦®à§Ł":736,"à¦§à¦¤":737,"à¦ĩà¦Ľ":738,"à¦ļà¦°":739,"Ġà¦°à¦¯":740,"Ġà¦īà¦łà¦¤":741,"à¦²à¦¸":742,"à¦ªà¦¸":743,"à¦ľà¦°":744,"à¦¸à¦ķ":745,"à¦¸à¦ª":746,"à¦¼à§Ģ":747,"Ġà¦ķà¦ł":748,"à¦°à¦Ĺ":749,"à¦ĩà¦¬":750,"à¦£à¦¤":751,"à¦®à¦Ł":752,"Ġà¦¬à¦¹":753,"Ġà¦ıà¦¨":754,"à¦Łà¦¨":755,"à¦¦à¦¸":756,"Ġà¦¤à¦ĸà¦¨à¦ĩ":757,"§à§":758,"Ġà¦ļà¦ķ":759,"Ġà¦²à¦¡":760,"Ġà¦§à¦°à¦²":761,"Ġà¦¨à¦°à¦®":762,"à¦°à¦°":763,"Ġà¦ıà¦ķà¦ĩ":764,"à¦¤à¦®":765,"Ġà¦¯à¦¨":766,"à¦ªà¦·":767,"Ġà¦Ńà§Ł":768,"à¦ļà¦¡":769,"à¦¬à¦Ľ":770,"à¦¨à¦¸":771,"à¦ķà¦¶":772,"à¦ķà¦¡":773,"à¦®à§Ł":774,"Ġà¦Ĩà¦¦":775,"Ġà¦¸à¦¹à¦ľ":776,"à¦īà¦ķ":777,"Ġà¦Ĩà¦ª":778,"Ġà¦®à¦¤à¦¨":779,"à¦¸à¦Ł":780,"Ġà¦Ĩà¦Ń":781,"à¦¤à¦Ł":782,"à¦¯à¦¥":783,"à¦¬à¦¦":784,"Ġà¦īà¦¡":785,"Ġà¦¥à¦®à¦ķ":786,"Ġà¦īà¦²":787,"Ġà¦¸à¦¬à¦ļ":788,"à¦Ĺà¦¬":789,"à¦¶à¦ķ":790,"Ġà¦ıà¦¸à¦¬":791,"Ġà¦ļà¦²à¦Ľ":792,"Ġà¦¬à¦¸à¦²":793,"à¦·à¦°":794,"Ġà¦ľà¦¬":795,"à¦ķà¦ľà¦¨":796,"Ġà¦ªà¦²":797,"Ġà¦ħà¦Ļ":798,"à¦ķà¦Ľ":799,"à¦ªà¦ļ":800,"à¦łà¦¸":801,"à¦¨à¦ĩ":802,"Ġà¦ķà¦ª":803,"à¦²à¦®à¦²":804,"Ġà¦īà¦ľ":805,"Ġà¦ıà¦ķà¦¸à¦Ļ":806,"Ġà¦ĩà¦¯":807,"à¦²à¦Ĺ":808,"Ġà¦Ŀà¦°":809,"à¦§à¦¬":810,"Ġà¦²à¦ľ":811,"à¦¬à¦¬":812,"Ġà¦Ńà¦Ļ":813,"Ġà¦¶à¦¹":814,"à¦Łà¦Ľ":815,"à¦ıà¦°":816,"à¦¯à¦¬à¦¹":817,"Ġà¦ħà¦®à¦²":818,"Ġà¦ĩà¦¸":819,"Ġà¦¶à¦¤":820,"à¦Ĺà¦®":821,"Ġà¦¸à¦ķà¦²":822,"à¦ĩà¦Ń":823,"Ġà¦°à¦ľà¦¤":824,"à¦¬à¦ĩ":825,"à¦ħà¦¨":826,"Ġà¦®à¦²":827,"Ġà¦ıà¦ķà¦®":828,"à¦¯à¦ĩ":829,"Ġà¦Ĺà¦®":830,"Ġà¦¸à¦¬à¦ĩ":831,"à¦ľà¦Ľ":832,"Ġà¦Ĺà¦°à¦®":833,"Ġà¦ļà¦®à¦ķ":834,"Ġà¦¬à§Ł":835,"à¦¯à¦¦":836,"Ġà¦Ĩà¦¹":837,"à¦¸à¦Ľ":838,"à¦¸à¦¬à¦ĩ":839,"Ġà¦ħà¦¸à¦®":840,"à¦ªà¦Ľ":841,"Ġà¦§à¦°à¦¨":842,"à¦¬à¦£":843,"Ġà¦¦à¦®":844,"Ġà¦¤à¦ªà¦¨":845,"Ġà¦¬à¦Ł":846,"Ġà¦Ŀà¦²à¦®à¦²":847,"à¦Ĩà¦°":848,"Ġà¦ĺà¦£":849,"à¦¶à¦®":850,"Ġà¦ĵà¦ĸ":851,"Ġà§§à§":852,"Ġà¦®à¦¸":853,"Ġà¦ħà¦ŀ":854,"Ġà¦²à¦®":855,"Ġà¦°à¦«":856,"Ġà¦«à¦²":857,"à¦·à¦®à¦¤":858,"à¦¹à¦¯":859,"Ġà¦ľà¦°":860,"Ġà¦¸à¦¬à¦ķ":861,"Ġà¦ªà§ľà¦²":862,"Ġà¦Ĩà¦§":863,"à¦ľà¦¬":864,"Ġà¦ªà¦Ľà¦¨":865,"à¦Ŀà¦ĸ":866,"à¦¬à¦¶":867,"Ġà¦ħà¦¬à¦¨":868,"à¦°à¦§":869,"à¦²à¦¯":870,"à¦«à¦²":871,"à¦Ńà¦°":872,"Ġà¦Ĩà¦ľà¦ĵ":873,"à¦¯à¦®":874,"à¦ĩà¦¸":875,"à¦°à¦«":876,"à¦Łà¦®":877,"Ġà¦¦à¦°":878,"Ġà¦ķà¦ĸà¦¨à¦ĵ":879,"Ġà¦īà§İà¦¸":880,"Ġà¦¬à¦ķ":881,"Ġà¦¬à§ľ":882,"Ġà¦ĵà¦¯":883,"à¦ĺà¦²":884,"à¦«à¦Ł":885,"à¦īà¦°":886,"à¦¨à¦°":887,"à¦¨à¦Ľ":888,"à¦¤à¦ª":889,"à¦·à¦®":890,"à¦²à¦ļ":891,"à¦Łà¦Ł":892,"à¦¥à¦¨":893,"Ġà¦¨à¦¡":894,"à¦¶à¦²":895,"à¦ļà¦¤":896,"Ġà¦ĵà¦ª":897,"à¦ĩà¦¡":898,"Ġà¦«à¦°":899,"Ġà¦§à¦¨":900,"Ġà¦īà¦łà¦¬":901,"à¦Ĩà¦ľ":902,"Ġà¦ıà¦Ń":903,"Ġà¦ľà¦Ļ":904,"Ġà¦ĭ":905,"à¦®à¦§":906,"Ġà¦Ĺà§ľ":907,"à¦ľà¦¨à¦ķ":908,"à¦²à¦Ń":909,"Ġà¦ıà¦°à¦ķà¦®":910,"à¦«à¦°":911,"à¦ĺà¦¨":912,"Ġà¦®à¦¯":913,"à¦¦à¦Ĺ":914,"à¦ľà¦Ł":915,"Ġà¦īà¦ªà¦¸":916,"à¦¨à¦Ń":917,"Ġà¦Ĺà¦¬":918,"à¦¡à¦²":919,"Ġà¦ľà¦Ł":920,"Ġà¦īà¦ªà¦¨":921,"Ġà¦·":922,"à¦ĩà¦®":923,"à¦ķà¦¸":924,"à¦®à¦¡":925,"à¦īà¦Ł":926,"Ġà¦ķà¦«":927,"Ġà¦ľà¦¯":928,"Ġà¦¹à¦°":929,"à¦·à¦Ł":930,"à¦²à¦ª":931,"à¦ķà¦Ĺ":932,"à¦Ŀà¦°":933,"à¦®à¦Ľ":934,"à¦ļà¦Ł":935,"à¦®à¦¦":936,"à¦ľà¦®":937,"Ġà¦Ĺà¦£":938,"à¦ķà¦ĩ":939,"à¦Łà¦ª":940,"Ġà¦®à¦ŀ":941,"Ġà¦ļà¦Ł":942,"Ġà¦°à¦¹à¦®":943,"Ġà¦¤à¦¥":944,"à¦īà¦¯":945,"Ġà¦Ĩà¦ĺ":946,"Ġà¦§à¦°à¦¤":947,"à¦¬à¦¡":948,"à¦¸à¦®à¦¯":949,"Ġà¦ªà¦¯":950,"Ġà¦®à¦ľ":951,"Ġà¦Łà¦°":952,"Ġà¦¸à¦°à¦ķ":953,"Ġà¦ħà¦¸à¦¹":954,"à¦¨à¦¯":955,"Ġà¦ķà¦ķ":956,"Ġà¦¤à¦¤":957,"à¦§à¦¹à¦¯":958,"à¦®à¦£":959,"Ġà¦¨à¦¬":960,"à¦ĩà¦ª":961,"à§¦":962,"Ġà¦īà§İ":963,"à¦ĸà¦Ł":964,"à¦ħà¦°":965,"à¦¬à¦¹":966,"à¦ªà¦£":967,"Ġà¦«à¦Ł":968,"Ġà¦ªà¦ŀ":969,"Ġà¦¯à¦¤à¦ĩ":970,"Ġà¦¸à¦Ń":971,"Ġà¦ªà¦¦à¦ķ":972,"à¦¸à¦Ļ":973,"Ġà¦¶à¦«":974,"Ġà¦ļà¦²à¦²":975,"à¦Ľà¦²":976,"à¦®à¦¸":977,"à¦ªà¦²":978,"à¦¨à¦¶":979,"Ġà¦¸à¦ª":980,"Ġà¦¸à¦°à¦²":981,"Ġà¦ħà¦¦à¦®":982,"à¦ĵà¦°":983,"à¦ľà¦¯":984,"Ġà¦¯à¦¥":985,"Ġà¦¬à¦ĩà¦¯":986,"Ġà¦Ŀà¦¡":987,"Ġà¦ĩà¦īà¦¨":988,"Ġà¦Ĩà§ľ":989,"à¦ľà¦¸":990,"à¦®à¦ª":991,"à¦ķà¦®":992,"à¦£à¦¬":993,"à¦°à¦ĸ":994,"à¦¦à¦Ł":995,"à¦īà¦²":996,"à¦°à¦¹à¦°":997,"à¦¤à¦¦":998,"à¦¬à¦¯":999,"à¦°à¦¥à¦®à¦¬":1000,"à§ĩà¦¾":1001,"Ġà¦ķà¦¡":1002,"à¦®à¦¹":1003,"Ġà¦¹à§Łà¦¤":1004,"à¦°à¦ľà¦¨":1005,"à¦ªà¦®":1006,"à¦ļà¦¬":1007,"à§«":1008,"Ġà¦¨à¦¨":1009,"Ġà¦ļà¦¡":1010,"Ġà¦¬à¦¸à¦¤":1011,"à¦¦à¦ķ":1012,"Ġà¦°à¦ŀ":1013,"Ġà¦Ī":1014,"Ġà¦¸à¦ŀ":1015,"Ġà¦Ĩà¦¨à¦¤":1016,"Ġà¦Ľà¦¨":1017,"à¦°à¦¬à¦²":1018,"à¦¬à¦²à¦ľ":1019,"Ġà¦¨à¦·":1020,"à¦«à¦¸":1021,"à¦Łà¦¸":1022,"Ġà¦ķà¦²à¦®":1023,"Ġà¦ķà§Ł":1024,"Ġà¦Ĩà¦ĵà§Ł":1025,"à¦¬à¦²à¦Ľ":1026,"à¦ĩà¦ļ":1027,"Ġà¦ļà¦¶à¦®":1028,"à¦¨à¦ª":1029,"à¦¯à¦¯":1030,"Ġà¦ķà¦¦":1031,"Ġà¦ªà¦¶":1032,"à¦ĩà¦ľ":1033,"Ġà¦Ĩà¦¤à¦Ļ":1034,"à¦²à¦ľ":1035,"à¦¤à¦Ń":1036,"à¦§à¦°":1037,"Ġà¦®à¦¨à¦Ł":1038,"à¦²à¦¦":1039,"à¦®à¦°à¦£":1040,"à¦¶à¦Ł":1041,"Ġà¦Ĩà¦°à¦ľ":1042,"à¦ıà¦Ł":1043,"à¦·à¦¦":1044,"à§Ŀ":1045,"Ġà¦ħà¦Ł":1046,"Ġà¦¤à¦°à¦Ļ":1047,"Ġà¦¦à¦ķ":1048,"Ġà¦ĸà¦¸":1049,"Ġà¦ļà¦²à¦¤":1050,"à¦ŀà¦¤":1051,"Ġà¦²à§ľ":1052,"Ġà¦ĸà¦°à¦ļ":1053,"à¦Ľà¦¬":1054,"Ġà¦®à¦£":1055,"Ġà¦ļà¦²à¦¬":1056,"Ġà¦Ĺà¦ľ":1057,"à¦īà¦ľ":1058,"Ġà¦ĩà¦²":1059,"à¦¬à¦§":1060,"Ġà¦Ĩà¦¦à¦°":1061,"Ġà¦Ľà¦Ł":1062,"Ġà¦¸à¦¤à¦°":1063,"Ġà¦ļà¦®":1064,"Ġà¦ĩà¦ŀ":1065,"à¦ıà¦¬":1066,"Ġà¦Ĩà¦°à¦£":1067,"Ġà¦¨à¦ľà¦°":1068,"à¦¡à¦°":1069,"à¦ļà§Ł":1070,"Ġà¦ĺà¦¡":1071,"Ġà¦ĩà¦¶":1072,"Ġà¦ķà¦¤à¦Ł":1073,"à¦®à¦¶":1074,"Ġà¦ªà¦°à¦¬à¦°":1075,"à¦ĸà¦°":1076,"Ġà¦ªà¦²à¦ķ":1077,"à¦¦à¦¤":1078,"à§Ń":1079,"à¦īà¦¸":1080,"Ġà¦Ĩà¦²à¦®":1081,"Ġà¦¬à¦¸à¦¬":1082,"à¦¨à¦®":1083,"à¦¯à¦Ł":1084,"Ġà¦°à¦¸":1085,"Ġà¦²à¦²":1086,"à¦°à¦¬à¦°":1087,"à¦Ĩà¦²":1088,"à¦ķà¦ª":1089,"à¦ľà¦Ĺ":1090,"Ġà¦Ĺà¦¹":1091,"Ġà¦ļà¦°":1092,"à¦¥à¦ķ":1093,"Ġà¦¤à¦°à¦«":1094,"à¦¨à¦ļ":1095,"à¦ķà§ľ":1096,"à¦ĩà§Ł":1097,"Ġà¦ľà§Ł":1098,"à¦¯à¦®à¦¯":1099,"à¦ĺà¦¶":1100,"à¦²à¦«":1101,"à¦ķà¦ļ":1102,"à¦®à¦ľ":1103,"Ġà¦¬à¦ľ":1104,"Ġà¦ªà¦¨":1105,"à¦Ľà¦¤":1106,"à¦ĸà¦ķ":1107,"à¦¯à§İ":1108,"à¦°à¦®à¦£":1109,"à¦¹à¦°à¦£":1110,"Ġà¦®à¦¨à¦¸":1111,"Ġà¦¬à¦ĩà§Ł":1112,"à¦·à¦¬":1113,"Ġà¦īà¦·":1114,"Ġà¦ħà¦¤à¦²":1115,"à¦¬à¦ļ":1116,"Ġà¦ıà¦¤à¦ķ":1117,"Ġà¦ıà¦®à¦¨à¦ķ":1118,"Ġà¦ıà¦ķà¦¦à¦®":1119,"Ġà¦®à¦¶":1120,"à¦Ŀà¦¬":1121,"Ġà¦Ŀà¦²à¦ķ":1122,"ĠĠčĊ":1123,"Ġà¦Ĩà¦¨à¦²":1124,"à¦ĩà¦¶":1125,"à¦Ĺà¦¡":1126,"à¦łà¦ķ":1127,"à¦ķà¦Ń":1128,"à¦ªà§ľ":1129,"à¦¡à¦¨":1130,"Ġà¦¬à¦¦":1131,"Ġà¦Ĩà¦ĩà¦¨":1132,"Ġà¦®à¦¡":1133,"Ġà¦ĩà¦Ł":1134,"Ġà¦ħà¦ľà¦¸":1135,"à¦¨à¦¬à¦¤":1136,"à§¨":1137,"ĠĠĠĠ":1138,"Ġà¦¨à¦ĩà¦²":1139,"Ġà¦ıà¦¡":1140,"Ġà¦°à¦¤à¦¨":1141,"Ġà¦Ĩà¦Ł":1142,"à¦®à¦Ĺ":1143,"Ġà¦Ĺà¦Ļ":1144,"à¦ļà§ľ":1145,"à¦¦à¦Ľ":1146,"Ġà¦ıà¦°à¦ªà¦°":1147,"Ġà¦¤à¦°à¦«à¦¦":1148,"à¦¬à¦²à¦¤":1149,"à¦Ĩà¦®à¦°":1150,"Ġà¦ıà¦¤à¦¦":1151,"Ġà§¨":1152,"Ġà¦Ĩà¦ķà¦°":1153,"à¦¬à¦Ł":1154,"Ġà¦®à¦¦":1155,"à¦ľà¦ķ":1156,"Ġà¦¶à¦Ļ":1157,"Ġà¦ĩà¦Ļ":1158,"Ġà¦ļà¦®à§İà¦ķ":1159,"à¦¼à¦Ĥ":1160,"à¦ľà¦¦":1161,"à¦ıà¦ĸà¦¨":1162,"Ġà¦ıà¦ķà¦ª":1163,"Ġà¦ľà¦Ĺà¦¤":1164,"à¦¸à¦¬à¦ķ":1165,"à¦°à§Ł":1166,"Ġà¦ħà¦Łà¦²":1167,"Ġà¦Ĩà¦ĩ":1168,"Ġà¦¹à¦ĵà§Ł":1169,"Ġà¦ħà¦°à¦£":1170,"Ġà¦ıà¦ķà¦²":1171,"Ġà¦Ŀà¦ķ":1172,"Ġà¦ıà¦¤à¦Ł":1173,"Ġà¦¸à¦ļ":1174,"Ġà¦¦à¦ĸà¦²":1175,"à¦²à¦ĩ":1176,"Ġà¦īà§İà¦¸à¦¬":1177,"Ġà¦¨à¦ķ":1178,"Ġà¦¨à¦ĩ":1179,"Ġà¦¥à¦®":1180,"Ġà§§à§¯":1181,"Ġà¦Ĩà¦ªà¦¤":1182,"Ġà¦¤à¦¨":1183,"à¦°à¦¹à¦£":1184,"à¦®à¦ļ":1185,"à¦ĩà¦ľà¦¨":1186,"Ġà¦ħà¦®à¦¨":1187,"Ġà¦ħà¦¬à¦§":1188,"à¦¤à¦ĩ":1189,"Ġà¦®à¦®à¦¤":1190,"à¦¹à¦¤":1191,"à¦łà¦¨":1192,"Ġà¦¸à¦¬à¦¸à¦®à¦¯":1193,"à¦°à¦ļà¦£":1194,"Ġà¦¸à¦ľ":1195,"Ġà¦Ĩà¦°à¦¤":1196,"Ġà¦Ĩà¦ľà¦ĩ":1197,"à¦Łà¦Ĺ":1198,"à¦¸à¦¸":1199,"à¦¶à¦ª":1200,"Ġà¦ĺà¦°à¦Ł":1201,"à¦¨à¦ľà¦¨":1202,"Ġà¦ıà¦ĸà¦¨à¦ĩ":1203,"à¦°à¦®à¦¶":1204,"à¦Ŀà¦ķ":1205,"Ġà¦Ĩà¦¬à¦¦":1206,"à§§à§":1207,"Ġà¦ıà¦®":1208,"Ġà¦¹à¦ĩ":1209,"à¦¯à¦ª":1210,"Ġà¦Ĩà¦°à¦®":1211,"à¦°à¦ķà¦²":1212,"à¦Ľà¦Ł":1213,"Ġà¦°à§Ł":1214,"à¦īà§Ł":1215,"à¦ıà¦ĸ":1216,"à¦ıà¦Ń":1217,"Ġà¦¤à¦ĸà¦¨à¦ĵ":1218,"Ġà¦ıà¦ķà¦¸à¦®à¦¯":1219,"à¦ķà¦¶à¦¨":1220,"à¦ľà§Ł":1221,"Ġč":1222,"à¦£à¦¨":1223,"Ġà¦§à¦®à¦ķ":1224,"à¦Ĩà¦Ĺ":1225,"à¦ıà¦ķà¦¦":1226,"Ġà¦¥à¦®à¦¥à¦®":1227,"à¦ķà¦ł":1228,"à¦®à¦®":1229,"Ġà¦ļà¦¨":1230,"Ġà¦ªà¦°à¦¸":1231,"à¦¶à¦¦":1232,"à¦°à¦¸à¦Ļ":1233,"Ġà¦ªà§ľà¦Ľ":1234,"Ġà¦¸à¦¦":1235,"Ġà¦Ńà¦¬à¦¨":1236,"Ġà¦īà¦ªà¦ķ":1237,"à¦¬à¦Ń":1238,"Ġà¦ķà¦Ł":1239,"Ġà¦Ĩà§Ł":1240,"à¦¦à¦ª":1241,"à¦¶à¦¤":1242,"à§Łà¦Ĺ":1243,"à¦ĵà¦¡":1244,"Ġà¦Ĩà¦ļà¦®à¦ķ":1245,"Ġà¦ıà¦ķà¦¶":1246,"à¦Ļà¦¤":1247,"Ġà¦¯à¦¤à¦Ł":1248,"à¦¨à¦¹":1249,"à¦ĸà¦¸":1250,"Ġà¦Ńà¦°à¦¸":1251,"Ġà¦Ĩà¦¨à¦¬":1252,"Ġà¦ļà¦ķà¦ļà¦ķ":1253,"à¦ªà¦¯":1254,"à¦°à¦¤à¦°":1255,"à¦Ńà¦¬à¦¤":1256,"à¦¤à¦Ĺ":1257,"Ġà¦¹à¦¨":1258,"Ġà¦ıà¦ĩà¦¸à¦¬":1259,"à§°":1260,"Ġà¦¨à¦¥":1261,"à¦ĩà¦«":1262,"à¦¦à¦¬":1263,"Ġà¦ıà¦ķà¦¤":1264,"Ġà¦ĩà¦®":1265,"Ġà¦ĭà¦¦":1266,"Ġà¦ķà¦ĩ":1267,"Ġà¦¸à¦ł":1268,"Ġà¦¶à¦ªà¦¥":1269,"Ġà¦²à¦¨":1270,"Ġà¦¬à¦Łà¦Ĺ":1271,"Ġà¦°à¦ļà¦¨":1272,"Ġà¦ĩà¦ī":1273,"à¦¤à¦ľ":1274,"à¦¯à¦°à¦ķà¦®":1275,"à¦Ĺà¦Ł":1276,"à¦¥à¦²":1277,"Ġà¦²à¦¤":1278,"à¦¾à¦ĥ":1279,"à§Łà¦®":1280,"Ġà¦ıà¦ĩà¦Ł":1281,"à¦Ĩà¦ķ":1282,"Ġà¦¬à¦°à¦«":1283,"à¦¶à¦¯":1284,"à¦Ńà¦¨":1285,"Ġà¦Ŀà¦²à¦¸":1286,"Ġà¦Ŀà¦ķà¦Ŀà¦ķ":1287,"à¦ĩà¦¦":1288,"Ġà¦ĵà¦Ĺ":1289,"à¦ķà¦¥":1290,"à¦®à¦Ŀ":1291,"Ġà¦¬à¦¹à¦¨":1292,"à¦Łà¦ĸ":1293,"à¦²à§Ł":1294,"Ġà¦ħà¦¬à¦²":1295,"à§ª":1296,"Ġà¦¤à¦¤à¦ķ":1297,"Ġà¦ĵà¦·":1298,"à¦ĺà¦Łà¦¨":1299,"Ġà¦¢à¦²":1300,"Ġà¦Ĩà¦¬à¦Ľ":1301,"à¦¥à¦¬":1302,"à§İà¦ĩ":1303,"Ġà¦¦à¦¶à¦Ł":1304,"à¦¦à¦¶":1305,"Ġà¦ļà¦¤":1306,"Ġà¦«à¦¸à¦²":1307,"à¦īà¦¡":1308,"Ġà¦ħà¦®à¦°":1309,"à¦²à¦ĸ":1310,"à¦ªà¦Ĺ":1311,"à¦ĸà¦ĸ":1312,"à¦ļà¦Ľ":1313,"à§§":1314,"Ġà¦Ĩà¦«":1315,"Ġà¦¦à¦¡":1316,"Ġà¦¤à¦¦à¦¨":1317,"à¦£à¦¦":1318,"à¦Ĩà¦ªà¦¨":1319,"à¦Ľà¦Ĺ":1320,"Ġà¦īà¦ªà¦²à¦¬":1321,"Ġà¦Ľà¦Łà¦«à¦Ł":1322,"Ġà¦Ĭ":1323,"Ġà¦ıà¦ķà¦°":1324,"à¦īà¦¦":1325,"à¦ķà¦®à¦¤":1326,"Ġà¦¥à¦°":1327,"Ġà¦ªà¦°à¦¦":1328,"à¦®à¦¨à¦ĩ":1329,"à¦ªà¦¬":1330,"à¦Ńà¦¯":1331,"Ġà¦ªà¦°à¦®":1332,"Ġà¦ķà¦¤à¦¦":1333,"à¦°à¦¦à¦°":1334,"à¦¤à¦¸":1335,"à¦ķà¦£":1336,"à¦¸à¦¦":1337,"Ġà¦Ĩà¦®à¦¨":1338,"à¦¬à¦²à¦¨":1339,"à¦¼à§į":1340,"Ġà¦°à¦®":1341,"Ġà¦īà¦²à¦Ł":1342,"à§İà¦ª":1343,"Ġà¦¨à¦ķà¦¶":1344,"à¦¶à¦°":1345,"Ġà¦ĸà¦¡":1346,"Ġà¦¹à§Łà¦¨":1347,"à¦¤à¦Ľ":1348,"Ġà¦¹à¦ķ":1349,"Ġà¦ħà¦¹":1350,"Ġà¦īà§ľ":1351,"Ġà¦¬à¦īà¦¦":1352,"à¦¸à¦¹":1353,"Ġà¦ıà¦¯":1354,"Ġà¦Ĩà¦®à¦²":1355,"à¦ĵà¦ķà¦¤":1356,"Ġà¦ªà¦°à¦¤":1357,"à¦īà¦®":1358,"Ġà¦Ĩà¦²à¦¤":1359,"Ġà¦ĩà¦¸à¦®à¦¤":1360,"Ġà¦ªà¦¬":1361,"Ġà¦¨à¦Ĺà¦°":1362,"à¦Ĺà¦Ń":1363,"Ġà¦Ĳà¦¤":1364,"à§·":1365,"à¦¨à¦ľ":1366,"à¦¯à¦Ń":1367,"à¦®à¦ĩ":1368,"Ġà¦¸à¦«à¦²":1369,"à¦Łà¦«":1370,"Ġà¦ıà¦ª":1371,"à¦ľà¦ª":1372,"à¦ĵà¦¨":1373,"Ġà¦ħà¦ªà¦®":1374,"à¦¤à¦¬à¦¤":1375,"Ġà¦ķà¦¨à¦°":1376,"à¦¤à¦¹":1377,"à¦¬à¦ľà¦¨":1378,"Ġà¦¦à¦¯":1379,"Ġà¦Ĺà¦¤à¦ķ":1380,"Ġà¦ľà§ľ":1381,"Ġà¦ıà¦ķà¦Ĺ":1382,"à¦Ļà¦²":1383,"à¦¤à¦°à¦Ł":1384,"à¦¬à¦¨à¦Ł":1385,"Ġà¦¸à¦¹à¦¯":1386,"Ġà¦·à¦¡":1387,"Ġà¦¶à¦ĵà¦ķà¦¤":1388,"Ġà¦§à¦°à¦¬":1389,"Ġà¦ªà¦°à¦¶":1390,"Ġà¦¬à¦¸à¦¨":1391,"Ġà¦¬à§Łà¦¸":1392,"à¦¬à¦°à¦¤":1393,"Ġà¦Ĩà§Łà¦¨":1394,"à¦¡à¦ķ":1395,"à§Ĥà¦ģ":1396,"à¦īà¦ĩ":1397,"Ġà¦ĩà¦ľ":1398,"à¦ĺà¦£":1399,"Ġà¦¸à¦¹à¦ķ":1400,"à¦ªà¦Łà¦ª":1401,"à¦ķà¦°à¦£":1402,"Ġà¦¨à¦ĸ":1403,"Ġà¦®à¦Ľ":1404,"à¦ľà¦Ļ":1405,"Ġà¦°à¦ľ":1406,"à¦Ńà¦¸":1407,"Ġà¦¸à¦®à¦°":1408,"Ġà¦¡à¦²":1409,"Ġà¦ĭà¦£":1410,"à¦¨à¦¶à¦¨":1411,"Ġà¦ķà¦¬à¦°":1412,"à¦¸à¦ĩ":1413,"Ġà¦ªà¦Ł":1414,"Ġà¦¨à¦²":1415,"à¦ªà¦ľ":1416,"à¦¶à¦¹à¦°":1417,"à¦Ĺà¦¦":1418,"Ġà¦ļà¦°à¦®":1419,"Ġà¦ıà¦ķà¦¦à¦²":1420,"Ġà¦Ľà¦¯":1421,"Ġà¦ªà¦°à¦¨":1422,"Ġà¦ħà¦¸à¦Ń":1423,"Ġà¦Ĩà¦ķà¦¸":1424,"à¦Łà¦«à¦°":1425,"Ġà¦¨à§ľ":1426,"à¦£à¦ķ":1427,"à¦¬à¦ľ":1428,"Ġà¦Ĩà¦¹à¦¤":1429,"à¦¯à§Ł":1430,"à§ĭà¦Ĥ":1431,"Ġà¦ĵà¦¸":1432,"Ġà¦Ĩà¦Ľà¦¡":1433,"Ġà¦Ĩà¦ķà¦¬à¦°":1434,"Ġà¦ħà¦ļà¦²":1435,"Ġà¦Ĩà¦¶à¦Ļ":1436,"à¦°à¦¥":1437,"Ġà¦¸à¦¹à¦¸":1438,"Ġà¦ĵà¦¸à¦¬":1439,"à¦¼à¦¿à¦Ĥ":1440,"Ġà¦§à¦°à¦Ľ":1441,"à¦ıà¦ķà¦ľà¦¨":1442,"à§©":1443,"à§¬":1444,"Ġà¦Ĩà¦«à¦¸":1445,"à¦Ĺà¦£":1446,"à¦ļà¦¸":1447,"à§Łà¦¬":1448,"Ġà¦ĵà¦¹":1449,"à¦ĺà¦¦":1450,"à¦°à¦ªà¦°à¦ĵ":1451,"à¦¤à¦ĸà¦¨":1452,"Ġà¦¬à¦ŀ":1453,"Ġà¦Ĩà¦¬à¦°":1454,"à¦ªà¦ķà¦¥à¦¨":1455,"à¦¯à¦®à§Ł":1456,"Ġà¦ķà¦®à¦²":1457,"à¦Ľà¦ª":1458,"Ġà¦®à¦¦à¦¨":1459,"Ġà¦¯à¦¤à¦ķ":1460,"à¦¥à¦¤":1461,"Ġà¦ªà¦°à¦ĩ":1462,"Ġà¦ħà¦¥à¦¬":1463,"à¦¯à¦ĵ":1464,"Ġà¦ķà¦ļ":1465,"Ġà¦¨à¦¬à¦ķ":1466,"Ġà¦ħà¦£":1467,"Ġà¦ļà¦ŀ":1468,"Ġà¦ĸà¦£":1469,"Ġà¦®à¦¨à¦ķ":1470,"Ġà¦ªà§ľà¦¤":1471,"à¦¤à¦ĵ":1472,"à¦ķà¦«":1473,"Ġà¦¦à¦¤":1474,"à¦ĸà¦Ĺ":1475,"Ġà¦°à¦¨":1476,"Ġà¦ķà¦¤à¦ķ":1477,"à¦ķà¦ĵ":1478,"à¦Łà¦¹":1479,"Ġà¦¤à¦ķ":1480,"à§Łà¦¤":1481,"à¦ĵà¦²":1482,"Ġà¦§à¦¡":1483,"à¦Ĩà¦¶":1484,"à¦Ńà¦®":1485,"Ġà¦°à¦ĵà¦¨":1486,"Ġà¦ĸà¦¬à¦°à¦Ł":1487,"à§®":1488,"à¦¤à¦¨à¦¤":1489,"à¦ķà¦ĸ":1490,"Ġà¦¬à¦Ļ":1491,"à¦¸à¦¡":1492,"à§Łà¦ķ":1493,"Ġà¦°à¦¶":1494,"Ġà¦¶à¦¨":1495,"Ġà¦īà§İà¦ķ":1496,"à¦¬à¦¨à¦ķ":1497,"à¦°à¦®à¦¹":1498,"Ġà¦¬à¦ĩà¦Ľ":1499,"Ġà¦ķà¦¨à¦¸":1500,"à¦²à¦¸à¦¬":1501,"à¦¯à¦Ĺ":1502,"Ġà¦¸à¦¸":1503,"à¦¦à¦¹":1504,"Ġà¦ıà¦ľ":1505,"à¦¹à¦¬":1506,"Ġà¦ıà¦ķà¦ĸ":1507,"à¦®à¦¨à¦¸":1508,"Ġà¦Ĩà¦ľà¦®à¦²":1509,"Ġà¦ıà¦®à¦¨à¦Ń":1510,"Ġà¦Ĩà¦Łà¦Ł":1511,"Ġà¦¸à¦¡":1512,"Ġà¦®à¦Ļ":1513,"à¦Ĺà¦°à¦£":1514,"à¦§à¦®":1515,"Ġà¦¶à¦¹à¦°à¦Ł":1516,"Ġà¦Īà¦¶":1517,"à¦®à¦²à¦¤":1518,"Ġà¦Ĩà¦ł":1519,"à¦¦à¦ĩ":1520,"Ġà¦ħà¦¬à¦°":1521,"Ġà¦Ĩà¦°à¦ķ":1522,"Ġà¦Ĩà¦¬à¦¹":1523,"Ġà¦°à¦ĵà¦¶à¦¨à¦ķ":1524,"à¦²à¦¶":1525,"à¦®à¦Ń":1526,"Ġà¦ľà¦Ĺ":1527,"Ġà¦¸à¦¬à¦Ł":1528,"Ġà¦Ĩà¦¸à¦¨":1529,"Ġà¦Ŀà§ľ":1530,"Ġà¦ħà¦¬à¦ļ":1531,"à¦Ĩà¦ĩ":1532,"Ġà§ª":1533,"Ġà¦ªà¦¦à¦ļ":1534,"à¦¸à¦®à§Ł":1535,"Ġà¦Ĩà¦ļà¦°à¦£":1536,"Ġà¦¤à¦¤à¦ĩ":1537,"à¦²à¦°":1538,"Ġà¦Ĩà¦¹à¦®":1539,"Ġà¦¨à¦Ł":1540,"Ġà¦¶à¦¯":1541,"à¦Ļà¦¨":1542,"Ġà¦ħà¦¨à¦¬à¦°à¦¤":1543,"Ġà¦Ĩà¦Ĺà¦®à¦¨":1544,"Ġà¦ıà¦¤à¦ĩ":1545,"à¦¡à¦¬":1546,"à¦¡à¦Ĺ":1547,"à¦¶à¦¸":1548,"Ġà¦¸à¦®à¦¨":1549,"Ġà¦¸à¦¹à¦ķà¦°":1550,"Ġà¦ķà§ľ":1551,"à¦ĸà¦®":1552,"Ġà¦ıà¦ķà¦ķ":1553,"à¦īà¦¬":1554,"Ġà¦Ŀà¦°à¦Ľ":1555,"Ġà¦Ŀà¦Ĺà¦¡":1556,"à¦ıà¦¸à¦¬":1557,"à¦Ĩà¦¬":1558,"à¦Ĩà¦ª":1559,"Ġà¦īà¦ªà¦¹":1560,"ĠĠčĊĠč":1561,"Ġà¦¥à¦°à¦¥à¦°":1562,"à¦¬à¦®":1563,"Ġà¦¸à¦¦à¦¸":1564,"à¦ĩà¦ĩ":1565,"à¦ªà¦ĩ":1566,"à¦¹à¦ķ":1567,"à¦łà¦¶":1568,"Ġà¦ĵà¦Ń":1569,"Ġà¦ªà¦°à¦ªà¦°":1570,"à¦ıà¦®à¦¨":1571,"Ġà¦Ĩà¦¨à¦Ľ":1572,"Ġà¦ĺà¦Łà¦²":1573,"à¦ªà¦ķà¦¦":1574,"Ġà¦¦à¦¶à¦ķ":1575,"Ġà¦ķà¦¦à¦¬":1576,"à¦°à¦Ĺà¦¤":1577,"Ġà¦ªà¦£":1578,"à¦ªà¦Ļ":1579,"à¦ľà¦ĩ":1580,"à¦¡à¦Ł":1581,"à¦¶à¦Ŀ":1582,"Ġà¦Ľà¦¦":1583,"Ġà¦¡à¦Ĺ":1584,"Ġà¦ıà¦®à¦¨à¦ĩ":1585,"à¦ħà¦²":1586,"à¦Ĺà¦ľà¦Ł":1587,"Ġà¦¬à¦īà¦¯":1588,"Ġà¦īà§İà¦ķà¦£":1589,"à¦¤à¦²à¦¤":1590,"à¦¬à¦Ľà¦°":1591,"à¦¦à¦ĵ":1592,"à¦¶à¦ĩ":1593,"à¦¶à¦Ĺ":1594,"Ġà¦ħà¦¯":1595,"Ġà¦ĵà¦®":1596,"Ġà¦ĵà¦ľà¦¨":1597,"Ġà¦ĺà§ľ":1598,"Ġà¦ªà¦°à¦ĵ":1599,"Ġà¦ĩà¦¦":1600,"Ġà¦ľà¦¨à¦¤":1601,"Ġà¦ħà¦¬à¦¹":1602,"Ġà¦Ĩà¦ĸ":1603,"à¦ĸà¦¬à¦°":1604,"à¦ļà¦°à¦£":1605,"à¦·à¦°à¦Ĺ":1606,"Ġà¦ĵà¦¡":1607,"à¦ľà¦¨à¦ĩ":1608,"à¦°à¦£à¦¤":1609,"à¦ĺà¦¡":1610,"Ġà¦Ĭà¦°":1611,"à¦²à¦ĵ":1612,"à¦¬à§Ł":1613,"à¦¸à¦ĵ":1614,"à¦¸à¦°à¦£":1615,"à¦¦à¦°à¦ľ":1616,"Ġà¦®à¦Ĺ":1617,"Ġà¦¹à¦Ł":1618,"à¦¡à¦¸":1619,"à¦Ĺà¦Ĺ":1620,"à¦§à¦Ł":1621,"à¦Ńà§Ł":1622,"Ġà¦¹à¦²à¦¦":1623,"à¦Ĺà¦ľà¦ªà¦¤":1624,"Ġà¦®à¦¸à¦ľ":1625,"Ġà¦ħà¦°à¦¬":1626,"Ġà¦Ńà¦Ĺ":1627,"à¦ĵà¦¤":1628,"Ġà¦Ŀà¦°à¦¨":1629,"à¦ıà¦¸":1630,"Ġà¦ľà¦²à¦°":1631,"à¦ķà¦°à¦ķ":1632,"à¦·à§Ł":1633,"Ġà¦²à¦°":1634,"Ġà¦¡à¦¯":1635,"Ġà¦¹à¦¤à¦Ńà¦®":1636,"à¦Ĩà¦ľà¦ķ":1637,"Ġà¦ļà¦ĵà¦¡":1638,"Ġà¦īà¦ķ":1639,"Ġà¦īà¦§":1640,"à¦¤à¦°à¦ķ":1641,"Ġà¦ħà¦°à¦¨":1642,"Ġà¦¬à¦ĩà¦Ł":1643,"Ġà¦ķà¦¤à¦¬":1644,"Ġà¦¤à¦°à¦²":1645,"à¦¡à¦®":1646,"à¦Ĺà¦ŀ":1647,"à¦·à¦ĩ":1648,"à¦Ńà¦Ļ":1649,"à¦¤à¦°à¦£":1650,"Ġà¦¡à¦ķ":1651,"à¦¬à¦°à¦Ł":1652,"Ġà¦ªà§ľà¦¬":1653,"à¦ªà¦ķà¦¥":1654,"à¦ļà§Łà¦¤":1655,"à¦¬à¦°à¦£":1656,"à¦¬à¦ķà¦Ł":1657,"à¦Łà¦ĵà§Ł":1658,"Ġà¦¶à¦¸":1659,"Ġà¦¶à¦ĸ":1660,"Ġà¦łà¦ķ":1661,"Ġà¦ªà¦¥à¦ļà¦²":1662,"Ġà§©":1663,"à¦²à¦Ĺà¦°":1664,"à¦¯à¦ķà¦°":1665,"Ġà¦¦à¦Ĺ":1666,"Ġà¦¤à§İà¦ķ":1667,"à¦·à¦Ĺ":1668,"à¦¹à¦¨à¦¬":1669,"Ġà¦§à¦¸":1670,"Ġà¦¬à¦ĩà¦¤":1671,"Ġà¦ĭà¦¤":1672,"à§¯":1673,"à¦¨à¦Ŀ":1674,"à¦¤à¦ļ":1675,"à¦Łà¦ĵà¦¯":1676,"Ġà¦¨à¦Ń":1677,"à¦¦à¦¦":1678,"à¦ĵà¦ĩ":1679,"à§ľà¦¤":1680,"à¦ľà¦¨à¦¤":1681,"à¦°à¦¸à¦°":1682,"à¦ħà¦ªà¦°":1683,"à¦²à¦Ľà¦²":1684,"Ġà¦Ĳà¦ķ":1685,"à¦°à¦¡":1686,"à¦²à¦¡":1687,"à¦®à¦ĵ":1688,"à¦Łà¦¦":1689,"à¦¸à¦ªà¦¤":1690,"Ġà¦¦à¦«":1691,"Ġà¦¹à¦ĩà¦²":1692,"à¦ªà¦¶":1693,"Ġà¦ħà§Łà¦¨":1694,"Ġà¦ªà¦°à¦ķ":1695,"Ġà¦®à¦¤à¦ĩ":1696,"à¦°à¦£à¦®à¦¯":1697,"Ġà¦Ĳà¦¶":1698,"Ġà¦¬à¦īà¦Ł":1699,"Ġà¦Ŀà¦°à¦Ŀà¦°":1700,"Ġà¦ªà¦ļ":1701,"Ġà¦Ńà¦ķ":1702,"Ġà¦ıà¦ķà¦¥":1703,"Ġà¦Ĩà¦°à¦¬":1704,"Ġà¦ĵà§Ł":1705,"Ġà¦®à¦¨à¦¤":1706,"à¦Ĩà¦ĩà¦¨":1707,"Ġà¦ĺà¦Łà¦¬":1708,"Ġà§¨à§¦":1709,"à¦°à¦·":1710,"à¦¸à¦Ĺ":1711,"à¦¸à¦Ń":1712,"à¦¶à¦Ń":1713,"Ġà¦ħà¦·":1714,"à¦ļà¦®":1715,"Ġà¦°à¦ľà¦¨":1716,"Ġà¦Ľà¦²à¦Ľà¦²":1717,"à¦Ńà¦²à¦Ń":1718,"à¦°à¦¤à¦²":1719,"à¦«à¦¤":1720,"Ġà¦Łà¦²à¦®à¦²":1721,"Ġà¦Ĩà¦¶à¦ª":1722,"Ġà¦īà¦¦à¦¯":1723,"Ġà¦¯à¦¤à¦¦":1724,"Ġà¦Īà¦°":1725,"Ġà¦ľà¦Ĺà§İ":1726,"à¦ķà¦¯":1727,"Ġà¦¬à¦Łà¦¬":1728,"Ġà¦Ĩà¦ĩà¦¡":1729,"Ġà¦¦à¦¸":1730,"Ġà¦ıà¦°à¦ĩ":1731,"Ġà¦Ĺà¦¯":1732,"Ġà¦²à¦¸":1733,"Ġà¦īà¦ĩà¦²":1734,"Ġà¦ªà¦°à¦²":1735,"à§ľà¦Ľ":1736,"Ġà¦Ĩà¦¸à¦Ĺà¦°":1737,"ĠĠĠ":1738,"à¦ħà¦®":1739,"à¦¨à¦®à¦¨":1740,"à¦¯à¦ĸà¦¨":1741,"à¦¸à¦ĺ":1742,"Ġà¦ıà¦Ľ":1743,"à¦ĸà¦¦":1744,"à¦§à¦²":1745,"Ġà¦²à¦£":1746,"à¦«à¦¡":1747,"Ġà¦¸à¦®à¦Ĺ":1748,"à¦ħà¦ļ":1749,"à¦¸à¦²à¦®":1750,"à¦¯à¦®à¦¨à¦¸":1751,"Ġà¦¬à¦®":1752,"Ġà¦¸à¦²":1753,"Ġà¦¹à¦ĵ":1754,"à¦ªà¦¶à¦¨":1755,"Ġà¦ħà¦¡":1756,"à¦·à¦¨":1757,"à§Łà¦¸":1758,"Ġà¦°à¦¹":1759,"Ġà¦īà¦°":1760,"Ġà¦Ĩà¦²à¦Ĺ":1761,"à¦ıà¦ĩà¦ļ":1762,"à¦¯à¦ľ":1763,"à§ģà¦Ĥ":1764,"à¦®à¦«":1765,"Ġà¦¬à¦ªà¦¨":1766,"à¦Łà¦Ń":1767,"Ġà¦®à¦°à¦¤":1768,"Ġà¦®à¦¹à¦²":1769,"à¦ĸà¦ļ":1770,"à¦ĸà¦£":1771,"à¦ĺà¦ķ":1772,"Ġà¦ľà¦®à¦¶":1773,"à¦Ĳ":1774,"à¦°à¦¸à¦¬":1775,"à¦¨à¦ĸ":1776,"Ġà¦Ĩà¦¹à¦¸":1777,"Ġà¦Ĩà¦īà¦Ł":1778,"Ġà¦¨à¦°":1779,"Ġà¦°à¦¥":1780,"Ġà¦¶à¦®":1781,"à¦Ńà¦ķ":1782,"Ġà¦ĺà¦·":1783,"à¦ıà¦Ĺ":1784,"Ġà¦ķà¦Ļ":1785,"à¦Łà¦ĵ":1786,"Ġà¦¨à¦ĵ":1787,"à¦ĩà¦¸à¦¬":1788,"Ġà¦¦à¦®à¦ķ":1789,"à¦Ĺà¦ª":1790,"Ġà¦ıà¦ķà¦ľ":1791,"à¦łà¦°":1792,"Ġà¦«à¦¯":1793,"Ġà¦Łà¦²":1794,"à¦īà¦¶à¦¨":1795,"Ġà¦Ķ":1796,"Ġà¦ķà¦¦à¦®":1797,"à¦ĩà¦ĸ":1798,"à¦ĩà¦ĵ":1799,"Ġà¦ıà¦·":1800,"à¦§à¦¸":1801,"à¦¹à¦Ł":1802,"Ġà¦¥à¦²":1803,"Ġà¦«à¦Łà¦ķ":1804,"Ġà¦«à¦ľà¦²":1805,"à§ľà¦ķ":1806,"à¦°à¦£à¦Ł":1807,"Ġà¦Ŀà¦¨à¦Ŀ":1808,"à¦ıà¦¤":1809,"à¦Ĩà¦¸":1810,"à¦ħà¦Ń":1811,"Ġà¦Ĩà¦«à¦ľ":1812,"à¦¤à¦ĸà¦¨à¦ĩ":1813,"à§ĩà¦¾à¦ģ":1814,"à¦¯à¦¹":1815,"Ġà¦¸à§İ":1816,"Ġà¦ıà¦ŀ":1817,"à¦Ĺà¦ĩ":1818,"à¦·à¦ª":1819,"Ġà¦ĵà¦¸à¦®":1820,"Ġà¦§à¦¬":1821,"à¦¨à¦¬à¦ľ":1822,"Ġà¦Ŀà¦¨à¦Ŀà¦¨":1823,"à¦²à¦¹":1824,"à¦¤à¦ĸ":1825,"à¦¤à¦¡":1826,"Ġà¦ıà¦«":1827,"Ġà¦Ĺà¦¦":1828,"Ġà¦Ĺà¦¹à¦¨":1829,"à¦ļà¦¶":1830,"Ġà¦°à¦¡":1831,"Ġà¦ıà¦ķà¦°à¦ķà¦®":1832,"à¦Ļà¦Ľ":1833,"à§ľà¦²":1834,"à¦ķà¦Łà¦ķ":1835,"à¦ĩà¦²à¦Ł":1836,"Ġà¦ķà¦ĸà¦¨à¦ĩ":1837,"Ġà¦¦à¦®à¦¬à¦¨":1838,"à¦°à¦Ļ":1839,"à¦®à¦ŀ":1840,"à¦®à¦ķà¦°":1841,"à¦¸à¦¯":1842,"Ġà¦¨à¦Ĺ":1843,"Ġà¦®à¦°à¦¬":1844,"Ġà¦¹à¦ĩà¦Ľ":1845,"à¦ªà¦Ŀ":1846,"à¦·à§İ":1847,"Ġà¦²à¦Ļ":1848,"Ġà¦ĸà¦Ł":1849,"à¦°à¦¤à¦®":1850,"à¦¬à¦¨à¦¯":1851,"Ġà¦Ŀà¦Ł":1852,"à¦ıà¦ķà¦¬":1853,"à¦ķà¦²à¦®":1854,"Ġà¦¹à¦¤à¦¬":1855,"à¦ĩà¦¨à¦Ĺ":1856,"à¦ħà¦ª":1857,"Ġà¦īà¦ªà¦¦":1858,"Ġà¦ĺà¦Łà¦¤":1859,"Ġà¦ıà¦ķà¦¸à¦®à§Ł":1860,"ĠĠĠĠĠĠĠĠ":1861,"à¦ķà¦Ĩà¦ª":1862,"à¦Łà¦¬à¦²":1863,"à¦ĸà¦®à¦¯":1864,"à¦¶à¦«":1865,"à§Łà¦¦":1866,"à§ľà¦¨":1867,"à¦¬à¦²à¦²":1868,"à¦ĩà¦¨à¦Ł":1869,"Ġà¦¯à¦ĸà¦¨à¦ĩ":1870,"Ġà¦ħà¦ªà¦°à¦ķ":1871,"Ġà¦ķà¦¨à¦«":1872,"Ġà¦§à¦¬à¦§à¦¬":1873,"à¦¨à¦¡":1874,"à¦²à¦¬à¦¨":1875,"Ġà¦¦à¦®à¦¨":1876,"Ġà¦¤à¦¤à¦Ł":1877,"à¦§à¦Ľ":1878,"Ġà¦Ĩà¦®à¦Ĺ":1879,"à¦Ńà¦Ł":1880,"à¦Ļà¦¬":1881,"Ġà¦ĵà¦°à¦ķà¦®":1882,"Ġà¦ħà¦¬à¦ķ":1883,"Ġà¦Ĩà¦¬à¦°à¦£":1884,"Ġà¦ľà¦®à¦¤":1885,"Ġà¦ķà¦²à¦°à¦¬":1886,"Ġà¦¬à¦ĩà¦Ĺ":1887,"Ġà¦ıà¦ķà¦ľà¦¨à¦ķ":1888,"Ġà¦ħà¦Ĺà¦£":1889,"Ġà§§à§¯à§Ń":1890,"à¦¨à¦«":1891,"Ġà¦ıà¦ĵ":1892,"Ġà¦¤à¦«":1893,"Ġà¦¤à¦°à¦ķ":1894,"à§Ģà¦Ĥ":1895,"Ġà¦ħà¦Ŀ":1896,"à¦¹à¦ķà¦°":1897,"Ġà¦ıà¦ķà¦ıà¦ķà¦Ł":1898,"à¦£à¦ļ":1899,"à¦£à¦ªà¦£":1900,"Ġà¦²à¦¬à¦£":1901,"Ġà¦ıà¦ĩà¦ĸ":1902,"à¦ıà¦¦":1903,"à¦¨à¦ĵà¦¦":1904,"Ġà¦ħà¦¤à¦ıà¦¬":1905,"à¦ħà¦§":1906,"Ġà¦¨à¦¬à¦ľ":1907,"Ġà¦Īà¦·à§İ":1908,"à¦°à¦¹à¦¸":1909,"à¦²à¦ıà¦ĩ":1910,"à¦¯à¦°à¦¸":1911,"à¦®à¦ĺ":1912,"à¦Ľà¦ķ":1913,"à¦¡à¦ª":1914,"à¦¡à¦¶":1915,"Ġà¦¶à¦¤à¦ķ":1916,"à¦£à¦Ń":1917,"Ġà¦īà¦ĩ":1918,"à¦ħà¦¤":1919,"à¦ħà¦¦":1920,"à¦ħà¦¨à¦¨":1921,"Ġà¦ĩà¦¤à¦¸":1922,"Ġà¦ĩà¦¨à¦«":1923,"Ġà§§à§¨":1924,"Ġà¦ĸà¦¸à¦ĸà¦¸":1925,"à¦°à¦Ŀ":1926,"à¦°à¦ĺ":1927,"Ġà¦ıà¦Ĩà¦ĩ":1928,"à¦Ĺà¦łà¦¨":1929,"Ġà¦Ńà¦Ĺà¦¬":1930,"Ġà¦ıà¦ķà¦¤à¦²":1931,"Ġà¦²à¦¬":1932,"à¦łà¦Ł":1933,"Ġà¦ĸà¦°":1934,"à¦°à¦¤à¦¬à¦°":1935,"Ġà¦®à¦¨à¦¨":1936,"Ġà¦Łà¦ķà¦Łà¦ķ":1937,"à¦īà¦Ĺ":1938,"Ġà¦Ĩà¦Ľà§ľ":1939,"Ġà¦ıà¦ĩà¦ľà¦¨":1940,"à¦Ĩà¦¨à¦¨":1941,"à¦°à¦ªà¦°à¦ĩ":1942,"Ġà§§":1943,"Ġà§«":1944,"Ġà¦ĩà¦¨à¦ľ":1945,"à¦°à¦ªà¦¤":1946,"à¦¤à¦¯":1947,"à¦¤à¦ķà¦¤":1948,"à¦¸à¦ĸ":1949,"à¦ĩà¦°à¦ķà¦®":1950,"à¦¦à¦£":1951,"Ġà¦¹à¦¸":1952,"Ġà¦Ńà¦Ł":1953,"Ġà¦Ńà¦°à¦¤":1954,"Ġà¦ıà¦ķà¦Ŀ":1955,"à¦£à¦®":1956,"Ġà¦Ľà¦¤":1957,"Ġà¦Ľà¦ķ":1958,"Ġà¦īà¦Ńà¦¯":1959,"Ġà¦§à¦ķ":1960,"à¦īà¦¤":1961,"à¦īà¦ļ":1962,"Ġà¦ıà¦ĩà¦¬":1963,"Ġà¦ĩà¦¸à¦²":1964,"Ġà¦ĩà¦ĵà¦°":1965,"à¦°à¦¸à¦¨":1966,"Ġà¦Ĩà¦¨à¦®à¦¨":1967,"à¦¦à¦°à¦Ł":1968,"à¦ħà¦¬à¦¶":1969,"Ġà¦¨à¦®à¦¸":1970,"à¦®à¦Ľà¦®":1971,"à¦¤à¦¶":1972,"à¦ķà¦ĸà¦¨":1973,"Ġà¦¸à¦°à¦¸":1974,"Ġà¦¸à¦¦à¦°":1975,"Ġà¦°à¦¤":1976,"à¦§à¦¦":1977,"Ġà¦ľà¦²à¦ķ":1978,"Ġà¦ľà¦®à¦²":1979,"Ġà¦Ľà¦®à¦Ľà¦®":1980,"Ġà¦ĵà¦²":1981,"à¦Ŀà¦Ľ":1982,"ĠĠĠč":1983,"Ġà¦ªà¦¥à¦Ł":1984,"Ġà¦ľà¦®à¦Ľ":1985,"Ġà¦ľà¦²à¦ª":1986,"Ġà¦ľà¦²à¦ľ":1987,"à¦ħà¦«":1988,"Ġà¦īà¦ªà¦Ń":1989,"Ġà¦ªà¦¦à¦§":1990,"à¦ķà¦ľ":1991,"à¦¬à¦ĵ":1992,"à¦®à¦ĸ":1993,"Ġà¦¸à¦ĩ":1994,"Ġà¦¨à¦ķà¦²":1995,"Ġà¦ıà¦¨à¦ķ":1996,"Ġà¦¤à¦ª":1997,"à¦Ĺà¦¸":1998,"Ġà¦Ĺà¦łà¦¨":1999,"à¦ļà¦¦":2000,"à¦ļà¦ľà¦¨":2001,"à§Łà¦²":2002,"Ġà¦¶à¦ª":2003,"à¦ĵà¦¦":2004,"à¦£à¦°":2005,"Ġà¦²à¦Ĺ":2006,"Ġà¦īà¦ĩà¦¨":2007,"Ġà¦Łà¦ª":2008,"à¦ªà¦°à¦ķ":2009,"Ġà¦ıà¦ĩà¦®":2010,"Ġà¦Ĺà¦²à¦¦":2011,"Ġà¦ķà¦²à¦Ļ":2012,"Ġà§Ń":2013,"Ġà¦¬à¦īà¦ķ":2014,"Ġà§§à§Ń":2015,"à¦²à¦Ļ":2016,"à¦¬à§ľ":2017,"Ġà¦ķà¦²à¦¤":2018,"Ġà¦ķà¦ĩà¦°":2019,"Ġà¦¬à¦¦à¦°":2020,"Ġà¦¸à¦«":2021,"Ġà¦¸à¦¶à¦¸":2022,"à¦£à¦ª":2023,"Ġà¦īà¦¹":2024,"à¦Ŀà¦ªà¦¥":2025,"à¦¤à¦°à¦Ļ":2026,"Ġà¦ļà¦²à¦¨":2027,"à¦¬à¦²à¦®":2028,"Ġà¦ħà¦¬à¦ľ":2029,"à¦Ĩà¦¨":2030,"à¦Ĩà¦¡":2031,"à¦°à¦®à¦¹à¦²":2032,"Ġà¦ķà¦¤à¦Ĺ":2033,"à¦·à¦ķà¦¦":2034,"Ġà¦Ńà§Łà¦Ļ":2035,"à¦ķà¦ľà¦¨à¦ķ":2036,"à¦°à¦®à¦¶à¦ĩ":2037,"Ġà¦ķà¦ªà¦Ł":2038,"à¦®à¦¹à¦²":2039,"Ġà¦ªà¦Ļ":2040,"à¦ªà¦ĵ":2041,"à¦ľà¦Ĺà¦¤":2042,"à¦¶à¦ªà¦¥":2043,"Ġà¦¯à¦®":2044,"à§Łà¦°":2045,"à¦¹à¦Ń":2046,"à¦£à¦Ł":2047,"Ġà¦«à¦¡":2048,"Ġà¦§à¦°à¦£":2049,"à¦«à¦ķ":2050,"à¦«à¦²à¦¨":2051,"à§ľà¦¬":2052,"Ġà¦Łà¦¹à¦²":2053,"Ġà¦ıà¦ĩà¦°à¦ķà¦®":2054,"Ġà¦ĩà¦¨à¦²":2055,"à¦¬à¦²à¦ĩ":2056,"Ġà¦ªà¦¥à¦ļ":2057,"Ġà¦ħà¦ľà¦¯":2058,"Ġà¦ħà¦¶à¦°":2059,"Ġà¦īà§İà¦ª":2060,"ĠĠčĊĠĠĠč":2061,"à¦°à¦¬à¦¨":2062,"à¦°à¦ŀ":2063,"à¦Łà¦ĩ":2064,"à¦¸à¦¶":2065,"Ġà¦ªà¦¤à¦¨":2066,"à¦¦à¦ªà¦¤":2067,"à¦¦à¦°à¦®à¦¹à¦²":2068,"Ġà¦®à¦Ĺà¦ľ":2069,"Ġà¦®à¦ĵà¦²":2070,"Ġà¦¹à¦¦":2071,"à¦ªà¦ª":2072,"à¦ľà¦ªà¦¥":2073,"à¦ľà¦ĸà¦¬à¦°":2074,"à¦¶à¦Ľ":2075,"Ġà¦ļà§ľ":2076,"Ġà¦¶à¦¶":2077,"Ġà¦ıà¦ķà¦§":2078,"Ġà¦Ľà§Ł":2079,"Ġà¦«à¦°à¦¸":2080,"Ġà¦ĵà¦¨":2081,"à¦«à¦¨":2082,"à¦īà¦£":2083,"Ġà¦¸à¦¬à¦¸à¦®à§Ł":2084,"Ġà¦Ĩà¦¶à¦«":2085,"à¦ħà¦ľ":2086,"à¦®à¦¹à¦¤":2087,"à§§à§Ń":2088,"Ġà¦¹à¦ķà¦ļà¦ķ":2089,"à¦¨à¦Ńà¦°":2090,"à¦¤à¦Ńà¦°":2091,"Ġà¦¬à¦¦à¦®":2092,"Ġà¦¸à¦«à¦Ł":2093,"à¦ĩà¦Ĺ":2094,"à¦ľà¦ķà¦°":2095,"à¦¶à¦¹":2096,"à¦¶à¦ĵ":2097,"à¦¶à¦Ļ":2098,"à¦Ĺà¦ķ":2099,"à¦Ĺà§ľ":2100,"Ġà¦°à¦ļ":2101,"à¦Ńà¦¦":2102,"à¦Ļà¦°":2103,"Ġà¦Łà¦ªà¦ķ":2104,"Ġà¦¸à¦®à¦¬":2105,"à¦ªà¦°à¦¬à¦°":2106,"Ġà¦ıà¦ĩà¦Ń":2107,"Ġà¦Ĩà¦¸à¦®":2108,"à¦¬à¦¨à¦¬":2109,"à¦¬à¦°à¦ĩ":2110,"Ġà¦¸à¦¤à¦¤":2111,"Ġà¦ľà¦²à¦¬":2112,"Ġà¦īà¦ªà¦¯":2113,"Ġà¦ĺà¦Łà¦Ľ":2114,"Ġà¦ĩà¦¨à¦¸":2115,"Ġà§§à§¯à§ª":2116,"âĢ":2117,"à¦°à¦ĵà¦¯":2118,"à¦²à¦ıà¦ķ":2119,"à¦ķà¦·":2120,"à¦ķà¦°à¦¬":2121,"à¦¯à¦ľà¦¨":2122,"Ġà¦ķà¦ľà¦¨":2123,"à¦®à§ľ":2124,"à¦®à¦¸à¦®":2125,"Ġà¦Ĩà¦·":2126,"à¦¸à¦°à¦ķ":2127,"Ġà¦ªà¦Łà¦²":2128,"Ġà¦¨à¦¸":2129,"Ġà¦¤à¦®":2130,"à¦ªà¦¬à¦¯":2131,"à¦¶à¦¬à¦¨":2132,"Ġà¦ħà¦ĩ":2133,"Ġà¦¯à¦¤à¦¬":2134,"à¦·à¦ľ":2135,"à¦·à¦ľà¦¨":2136,"à¦§à¦¶":2137,"Ġà¦Ńà¦ľ":2138,"Ġà¦ıà¦ķà¦«":2139,"à¦ĵà§ľ":2140,"Ġà¦Ľà¦²":2141,"Ġà¦ĸà¦¨":2142,"Ġà¦§à§ľ":2143,"Ġà¦ªà¦°à¦¬":2144,"Ġà¦¸à¦®à¦¤":2145,"à¦¬à¦¨à¦®":2146,"à¦¬à¦°à¦¹":2147,"Ġà¦ľà¦¨à¦¸":2148,"à¦ķà¦°à¦¦":2149,"Ġà¦ħà¦¬à§Łà¦¬":2150,"à¦§à¦ķà¦¤":2151,"à¦°à¦¶à¦¸":2152,"à¦ħà¦¸":2153,"Ġà¦ħà¦ľà§Ł":2154,"Ġà¦¶à¦°à§İ":2155,"Ġà¦®à¦¹à§İ":2156,"à¦¨à¦Łà¦¨":2157,"Ġà¦°à¦ĵà¦¶à¦¨à¦¦":2158,"Ġà¦°à¦ķà¦®à¦ĩ":2159,"à¦¨à¦Ĺà¦°":2160,"à¦ķà¦¬à¦°":2161,"Ġà¦ķà¦¬à¦²":2162,"Ġà¦ķà¦¨à¦ķ":2163,"Ġà¦¸à¦ļà¦²":2164,"Ġà¦®à¦¶à¦²":2165,"Ġà¦¦à¦ª":2166,"Ġà¦¦à¦²à¦¬":2167,"à¦¡à¦Ń":2168,"à¦¶à§Ł":2169,"à¦ļà¦¤à¦²":2170,"Ġà¦ıà¦ķà¦ļ":2171,"Ġà¦²à¦ŀ":2172,"Ġà¦ĸà¦¤":2173,"Ġà¦ħà¦¨à¦¡":2174,"Ġà¦Łà¦¨à¦Łà¦¨":2175,"à¦īà¦ł":2176,"Ġà¦Ĩà¦¸à¦°":2177,"à¦°à¦ķà¦¨":2178,"Ġà¦ħà¦¬à¦¸à¦°":2179,"à¦Ĩà¦¦":2180,"à¦Ĺà¦²à¦Ł":2181,"à§Īà¦ĥ":2182,"Ġà¦ľà¦®à¦ľà¦®":2183,"à¦¤à¦ķà¦¡":2184,"à¦Łà¦¬à¦ĩ":2185,"Ġà¦ħà¦²à¦¸":2186,"Ġà§§à§¦":2187,"à¦Łà¦®à¦¹à¦²":2188,"à§Ŀà¦¤":2189,"Ġà¦ªà¦Łà¦Ń":2190,"à¦²à¦ªà¦¤":2191,"à¦¬à¦ļà¦¨":2192,"Ġà¦¬à¦Ĺà¦²":2193,"Ġà¦¸à¦ĸ":2194,"à¦Ľà¦¤à¦²":2195,"Ġà¦®à¦°à¦£":2196,"Ġà¦ıà¦ľà¦¨":2197,"à¦ĸà¦¡":2198,"à¦ľà¦§":2199,"à¦·à¦ĵ":2200,"à¦·à¦ķà¦°":2201,"Ġà¦°à¦®à¦£":2202,"à¦¥à¦¸":2203,"Ġà¦ĩà¦¸à¦°":2204,"Ġà¦ĩà¦®à¦ª":2205,"Ġà¦Ŀà¦Łà¦ķ":2206,"à¦Ĩà¦¸à¦²":2207,"Ġà¦ĺà¦°à¦Ĺ":2208,"Ġà¦ħà¦ªà¦²à¦ķ":2209,"Ġà¦ħà¦§à¦°":2210,"Ġà¦ķà¦®à¦¬":2211,"Ġà¦Ĺà¦Ńà¦°":2212,"Ġà¦ķà¦¬à¦ľ":2213,"à§¦à§¦":2214,"à§«à§Ń":2215,"Ġà¦¦à¦Ĺà¦¦à¦Ĺ":2216,"à¦¤à¦«":2217,"à¦ķà¦§":2218,"à¦¯à¦¶":2219,"à¦¯à¦ľà¦¨à¦ķ":2220,"à¦¬à¦Ĺ":2221,"à¦¬à¦¤à¦¨":2222,"Ġà¦¬à¦¶":2223,"Ġà¦Ĩà¦ªà¦¡":2224,"Ġà¦Ĩà¦ĩà¦¸":2225,"Ġà¦¸à¦ľà¦²":2226,"Ġà¦®à¦ķà¦¬":2227,"Ġà¦¦à¦£":2228,"à¦ľà¦¡":2229,"à¦ľà¦ĵ":2230,"Ġà¦ħà¦¯à¦¥":2231,"Ġà¦Ĺà¦«":2232,"à¦·à¦ªà¦°":2233,"Ġà¦Ńà¦°à¦ª":2234,"à¦¥à¦¹":2235,"à¦¹à¦ĩ":2236,"Ġà¦ĸà¦¦":2237,"Ġà¦¸à¦¬à¦ľ":2238,"à§İà¦¸à¦¬":2239,"à¦¬à¦°à¦²":2240,"Ġà¦Ĩà¦Ĺà¦²":2241,"Ġà¦ļà¦²à¦®":2242,"à¦Ĩà¦¯":2243,"Ġà¦ıà¦¤à¦Ĺ":2244,"à¦ħà¦¬":2245,"Ġà¦ķà¦®à¦°":2246,"Ġà¦īà¦ªà¦ªà¦¤":2247,"à¦ıà¦ķà¦ĩ":2248,"Ġà¦ķà¦²à¦ķà¦²":2249,"Ġà¦¬à¦īà¦®":2250,"Ġà¦¤à¦ªà¦¨à¦¬":2251,"à¦ĭ":2252,"à¦°à¦ļà¦²":2253,"à¦¨à§Łà¦¨":2254,"à¦²à¦®à¦¨":2255,"à¦²à¦ķà¦Ł":2256,"Ġà¦Ĩà¦¦à¦²":2257,"Ġà¦¸à¦¯":2258,"Ġà¦¨à¦°à¦ķ":2259,"à¦ĩà¦ŀ":2260,"à¦¦à¦®à¦¯":2261,"à¦ļà¦Ĺ":2262,"Ġà¦ıà¦ķà¦¯":2263,"Ġà¦²à¦¯":2264,"à¦Ńà§İà¦¸":2265,"Ġà¦«à¦£":2266,"Ġà¦īà¦¯":2267,"Ġà¦§à¦ª":2268,"à¦¬à¦¨à¦ĩ":2269,"Ġà¦Ŀà¦°à¦¤":2270,"à¦ķà¦°à¦¶":2271,"à¦Ĩà¦¤":2272,"Ġà¦ĵà¦łà¦²":2273,"à¦¯à¦¬à¦¯":2274,"Ġà¦¸à¦¹à¦ª":2275,"Ġà¦¶à¦¹à¦°à¦¤à¦²":2276,"Ġà¦Ĩà¦§à¦ĺà¦£":2277,"à¦ķà¦¸à¦ĩ":2278,"Ġà§ĩ":2279,"à¦¨à¦¬à¦¨":2280,"à¦¨à¦ı":2281,"à¦¨à¦Ĩà¦®":2282,"à¦ķà§Ł":2283,"à¦ķà¦¹":2284,"à¦¯à¦ļ":2285,"à¦¯à¦Ļ":2286,"Ġà¦¬à¦£":2287,"Ġà¦¬à¦°à¦£":2288,"Ġà¦¬à¦¹à¦®":2289,"à¦¸à¦ķà¦²":2290,"Ġà¦®à¦ľà¦¬":2291,"Ġà¦¦à¦ĩ":2292,"Ġà¦¹à¦ľ":2293,"Ġà¦¹à¦ĩà¦ļ":2294,"à¦ĸà¦ľ":2295,"à¦ĸà¦®à¦£":2296,"à¦ľà¦Ń":2297,"à¦¡à¦¹":2298,"à¦¶à¦§":2299,"Ġà¦ļà¦¬":2300,"à§Łà¦Ń":2301,"à¦§à¦ĵ":2302,"Ġà¦ıà¦ķà¦¨":2303,"Ġà¦²à¦ĺ":2304,"à¦Ńà¦°à¦¤":2305,"Ġà¦«à¦ĸà¦°":2306,"Ġà¦īà¦Ńà§Ł":2307,"Ġà¦ĸà¦ļ":2308,"Ġà¦ħà¦¨à¦²":2309,"à§İà¦¸à¦°":2310,"Ġà¦ĩà¦īà¦°":2311,"à¦°à¦£à¦¨":2312,"à¦ıà¦²":2313,"Ġà¦ľà¦¨à¦®":2314,"Ġà¦ľà¦¨à¦Ĺà¦£":2315,"Ġà¦ħà¦¬à¦¤":2316,"à¦²à¦ķà¦²":2317,"à¦¤à¦¬à¦¡":2318,"à¦¯à¦¬à¦§":2319,"Ġà¦ķà¦®à¦ª":2320,"à¦¯à¦¤à¦®":2321,"Ġà§¯":2322,"à¦Ŀà¦²à¦®à¦²":2323,"Ġà¦ĺà¦¨à¦ĺà¦¨":2324,"Ġà¦ħà¦¬à¦²à¦®":2325,"Ġà¦Łà¦²à¦Łà¦²":2326,"à¦¨à¦¸à¦¬":2327,"à¦¨à¦ıà¦ĩ":2328,"à¦¤à¦ļà¦°":2329,"à¦ķà¦²à¦ķ":2330,"à¦®à¦ĵà¦¯":2331,"Ġà¦¸à¦«à¦°":2332,"à¦¸à¦ļ":2333,"à¦Ľà¦¡":2334,"Ġà¦®à¦ľà¦¨":2335,"Ġà¦¹à¦°à¦«":2336,"Ġà¦ľà§Łà¦¨":2337,"à¦£à¦Ĺ":2338,"Ġà¦Ĩà¦°à¦¨":2339,"à¦Ńà¦²":2340,"Ġà¦ĸà¦²":2341,"Ġà¦ĺà¦°à¦¬":2342,"à¦°à¦¬à¦£":2343,"Ġà¦ķà¦°à¦²à¦ķ":2344,"Ġà¦Ĩà¦ľà¦¬":2345,"Ġà¦Ĩà¦Ĺà¦¨":2346,"Ġà¦¬à¦¸à¦Ľ":2347,"Ġà¦ľà¦¨à¦ª":2348,"à¦Ĩà¦Ł":2349,"à¦Ĩà¦ļ":2350,"à¦Ĩà¦°à¦ľ":2351,"à¦°à¦®à¦§":2352,"à¦¶à¦¨à¦Ł":2353,"Ġà¦ľà¦²à¦¸":2354,"Ġà¦īà¦ªà¦²à¦ķ":2355,"à¦Ĺà¦¤à¦®":2356,"Ġà§¬":2357,"Ġà¦ªà¦¦à¦¬":2358,"Ġà¦ĸà¦¸à¦¡":2359,"Ġà¦®à¦¦à¦¨à¦ķ":2360,"à¦²à¦ıà¦ķà¦Ł":2361,"à¦ķà¦¢":2362,"Ġà¦¸à¦°à¦¤":2363,"à¦Łà¦ļ":2364,"Ġà¦¨à¦ľ":2365,"Ġà¦¦à¦²à¦¨":2366,"Ġà¦¦à¦°à¦¦":2367,"Ġà¦¤à¦¡":2368,"à¦ĸà¦ķà¦¦":2369,"à¦ľà¦īà¦¦":2370,"à¦ļà¦ĩ":2371,"à¦¹à¦°à¦¨":2372,"à¦¹à¦ľà¦¨à¦ķ":2373,"Ġà¦ıà¦ķà¦ĺ":2374,"à¦£à¦¸":2375,"Ġà¦²à¦Ł":2376,"Ġà¦²à§Ł":2377,"Ġà¦«à¦ķ":2378,"Ġà¦ĸà¦ª":2379,"à¦īà¦Ń":2380,"Ġà¦ıà¦ĩà¦¤":2381,"à¦ĺà¦Ł":2382,"à¦ıà¦¸à¦¬à¦ĩ":2383,"à¦ĩà¦²à¦¸":2384,"à¦¤à¦¨à¦Ń":2385,"Ġà¦ħà¦ªà¦¬":2386,"à¦ħà¦ķ":2387,"Ġà¦īà¦ªà¦ļ":2388,"Ġà¦¦à¦²à¦Ł":2389,"Ġà§§à§«":2390,"à¦°à¦ĸà¦°":2391,"Ġà§¨à§¨":2392,"Ġà¦ıà¦ķà¦ªà¦²à¦ķ":2393,"Ġà¦¸à¦«à¦²à¦¤":2394,"à¦Ī":2395,"à¦¨à¦ıà¦ķ":2396,"à¦¨à¦ıà¦ķà¦Ł":2397,"à¦²à¦ĵà¦¯":2398,"à¦¬à¦¦à¦²":2399,"Ġà¦ķà¦¸":2400,"Ġà¦ķà¦¦à¦°":2401,"Ġà¦ķà¦¨à¦Ł":2402,"Ġà¦¬à¦§":2403,"Ġà¦¬à¦ķà¦¬":2404,"Ġà¦¸à¦¯à¦¤":2405,"à¦ĩà¦ĵà¦¯":2406,"Ġà¦ħà¦²à¦ķ":2407,"à¦ļà¦ª":2408,"à¦·à¦Ń":2409,"à¦¥à¦ª":2410,"Ġà¦Ĩà¦®à¦¤":2411,"à¦łà¦¤":2412,"Ġà¦īà¦¬":2413,"Ġà¦īà¦Ĺ":2414,"Ġà¦ħà¦¨à¦°":2415,"Ġà¦ĺà¦·à¦¤":2416,"à§ľà¦¯à¦¨":2417,"Ġà¦¸à¦¬à¦¥":2418,"à¦ľà¦¨à¦¶":2419,"à¦¤à¦°à¦¬":2420,"à¦¤à¦°à¦ķà¦®":2421,"Ġà¦ĩà¦°":2422,"Ġà¦ĩà¦ķ":2423,"Ġà¦ĩà¦¨à¦Ł":2424,"à¦°à¦ķà¦°":2425,"à¦°à¦ķà¦Ł":2426,"Ġà¦ľà¦¨à¦¨":2427,"Ġà¦ħà¦¬à¦¸à¦¨":2428,"Ġà¦ıà¦®à¦¨à¦Ł":2429,"Ġà¦ħà¦ªà¦Ľà¦¨":2430,"Ġà¦¸à¦°à¦²à¦¤":2431,"à¦Ĺà¦¤à¦ķ":2432,"Ġà¦¸à¦¹à¦®à¦°":2433,"Ġà¦¦à¦²à¦¬à¦²":2434,"à¦¸à¦®à¦¸":2435,"Ġà¦ĩà¦¨à¦Ń":2436,"Ġà¦¶à¦¤à¦¬à¦°":2437,"Ġà¦·à§ľà¦¯à¦¨":2438,"Ġà¦Ĺà¦£à¦¤à¦¨":2439,"Ġà¦ļà¦Łà¦ªà¦Ł":2440,"à¦ĩà¦ļà¦°à¦£":2441,"à¦²à¦ªà¦¦":2442,"à¦¬à¦°à¦ķ":2443,"à¦¬à¦Ĺà¦¤":2444,"Ġà¦¦à¦¹à¦¨":2445,"à¦¡à¦ļ":2446,"à¦¡à¦«":2447,"à¦Ĺà¦ĵ":2448,"Ġà¦¯à¦¶":2449,"Ġà¦¶à¦°à¦¤":2450,"Ġà¦ľà¦ĺà¦¨":2451,"à¦¹à§Ł":2452,"à¦ĵà¦ķ":2453,"à¦£à¦¹":2454,"Ġà¦²à¦¹à¦°":2455,"à¦łà¦ª":2456,"Ġà¦«à¦¤":2457,"Ġà¦īà¦ĩà¦¸":2458,"à¦«à§ľ":2459,"à¦ªà¦°à¦¦":2460,"à¦ľà¦¨à¦¦":2461,"Ġà¦ĩà¦¸à¦®":2462,"Ġà¦Ŀà¦ª":2463,"à¦ĺà¦®":2464,"à¦ĺà§ľ":2465,"à¦·à¦£à¦ĩ":2466,"Ġà¦ħà¦¸à¦¨":2467,"à¦Ĺà¦²à¦ª":2468,"à¦Ľà¦¨à¦¦":2469,"à¦ĩà¦¨à¦¬":2470,"à¦ĩà¦¨à¦®":2471,"à¦ĩà¦¨à¦¸":2472,"Ġà¦¸à¦°à¦ŀ":2473,"Ġà¦ķà¦®à¦Ľ":2474,"Ġà¦ķà¦¤à¦ĸ":2475,"Ġà¦¬à¦ĩà¦ĸ":2476,"Ġà§§à§®":2477,"Ġà¦¤à¦¤à¦¦":2478,"Ġà¦īà§İà¦¸à¦°":2479,"à§«à§¬":2480,"Ġà¦Īà¦¦":2481,"Ġà¦°à¦ľà¦¤à¦ķ":2482,"Ġà¦ķà¦¨à¦ķà¦¨":2483,"à§ĩà¦Ĥ":2484,"à¦ķà¦°à¦¤":2485,"à¦¯à¦ªà¦Ł":2486,"Ġà¦ķà¦Ń":2487,"à¦®à¦°à¦ķ":2488,"à¦®à¦ļà¦¨":2489,"Ġà¦¬à¦¬":2490,"Ġà¦Ĩà¦ªà¦¸":2491,"à¦Łà¦ľ":2492,"à¦Łà¦¡":2493,"à¦ĩà¦ľà¦²":2494,"à¦¦à¦¯à¦¨":2495,"à¦ĸà¦Ń":2496,"à¦ĸà¦ķà¦°":2497,"à¦¶à¦¡":2498,"à¦Ĺà¦°à¦®":2499,"Ġà¦ļà¦ķà¦²":2500,"à¦·à¦¸":2501,"à§Łà¦ĩ":2502,"à¦§à¦ķà¦°":2503,"Ġà¦ıà¦ķà¦ıà¦ķ":2504,"Ġà¦²à¦¹à¦®":2505,"Ġà¦¥à¦¤":2506,"à¦Ńà¦¨à¦²":2507,"Ġà¦ĵà¦¤":2508,"Ġà¦Łà¦²à¦¤":2509,"Ġà¦¸à¦®à¦Ŀ":2510,"Ġà¦Ĩà¦²à¦«":2511,"Ġà¦¸à¦¬à¦Ĺ":2512,"Ġà¦¸à¦¬à¦ķà¦Ł":2513,"à¦¤à¦°à¦¸":2514,"Ġà¦®à¦¤à¦²à¦¬":2515,"Ġà¦ĩà¦¹":2516,"à¦°à¦£à¦ķ":2517,"Ġà¦ıà¦¸à¦®à¦¯":2518,"à¦·à¦£à¦ķ":2519,"Ġà¦ıà¦¤à¦¬à¦¡":2520,"Ġà¦ľà¦²à¦¦":2521,"à¦ħà¦®à¦²":2522,"Ġà¦ĵà¦ĩà¦Ł":2523,"Ġà¦ĸà¦¬à¦°à¦¦":2524,"Ġà¦¬à¦īà¦°":2525,"à¦·à¦¤à¦Ĺ":2526,"Ġà¦īà¦²à¦Ļ":2527,"Ġà§§à§ª":2528,"Ġà¦ľà§Łà¦Ĺ":2529,"Ġà¦¨à§ľà¦¬à§ľ":2530,"à¦Ĳà¦¤":2531,"âĢī":2532,"à¦ķà¦¥à¦ķ":2533,"à¦¬à¦ķà¦°":2534,"à¦®à¦¸à¦¨":2535,"à¦Łà¦¶":2536,"à¦Łà¦ķà¦Ł":2537,"à¦¸à¦ľ":2538,"à¦Ľà¦Ľ":2539,"Ġà¦¨à¦Ĺà¦¦":2540,"Ġà¦¦à§Ł":2541,"à¦ľà¦¹":2542,"Ġà¦ļà¦£":2543,"à¦·à¦ªà¦¥":2544,"Ġà¦°à¦ĺ":2545,"Ġà¦Ńà¦²":2546,"à¦¹à¦¦":2547,"à¦ĵà¦ľ":2548,"à¦£à¦ĵ":2549,"Ġà¦«à¦°à¦®":2550,"Ġà¦ĸà¦Łà¦ķ":2551,"Ġà¦ĵà¦²à¦Ł":2552,"Ġà¦ªà¦°à¦ĸ":2553,"à¦Ŀà¦¡":2554,"Ġà¦Łà¦ķ":2555,"à¦īà¦ªà¦¨":2556,"Ġà¦¡à¦¬à¦²":2557,"à¦°à¦£à¦¯":2558,"à¦¬à¦°à¦ª":2559,"Ġà¦ļà¦²à¦ļ":2560,"Ġà¦ıà¦ĸà¦¨à¦ķ":2561,"ĠĠĠĠčĊč":2562,"Ġà¦ħà¦°à¦«":2563,"Ġà¦ľà¦²à¦§":2564,"Ġà¦īà¦ªà¦ľ":2565,"Ġà¦ķà¦¤à¦ľà¦¨":2566,"Ġà¦¸à¦ķà¦²à¦ķ":2567,"à¦°à¦ĵà¦¶à¦¨":2568,"Ġà¦ħà¦²à¦Ļ":2569,"Ġà¦¦à¦¶à¦®":2570,"Ġà¦Ĺà¦®à¦Ĺà¦®":2571,"Ġà¦Ĩà§ľà¦®":2572,"Ġà§§à§¯à§«":2573,"à¦°à¦¹à¦£à¦¯":2574,"Ġà¦ıà¦®à¦ı":2575,"Ġà¦Ĭà¦·":2576,"à¦ķà¦ĵà¦¦":2577,"Ġà¦§à§ľà¦«à§ľ":2578,"Ġà¦¹à¦ĩà¦ļà¦ĩ":2579,"à¦¾à§ĩ":2580,"à¦°à¦®à¦¨":2581,"à¦¨à¦¸à¦¬à¦ĩ":2582,"à¦²à¦§":2583,"à¦²à¦Ĩà¦®":2584,"à¦¤à¦¬à¦°":2585,"à¦¬à¦¬à¦°":2586,"à¦¬à¦¦à¦¨":2587,"Ġà¦ķà¦®à¦¤":2588,"à¦®à¦¹à¦°":2589,"Ġà¦¬à¦¦à¦¨":2590,"Ġà¦Ĩà¦ĩà¦°":2591,"Ġà¦¦à¦¶à¦¬":2592,"Ġà¦ıà¦Ĩ":2593,"Ġà¦¹à¦°à¦¤":2594,"Ġà¦¹à¦ĩà¦¤":2595,"Ġà¦¹à¦ľà¦®":2596,"à¦ªà¦¬à¦¤":2597,"à¦ĸà¦ĩ":2598,"à¦¶à¦ľ":2599,"à¦¶à¦ļ":2600,"Ġà¦ħà¦Ĺà¦¤":2601,"à¦·à¦¤à¦¬":2602,"Ġà¦°à¦Ĺ":2603,"à¦§à¦ª":2604,"Ġà¦Ńà¦°à¦²":2605,"Ġà¦ľà¦ĸà¦®":2606,"à¦¹à¦ª":2607,"Ġà¦Ĩà¦°à¦¶":2608,"à¦Ļà¦ļ":2609,"Ġà¦¸à¦®à¦¤à¦²":2610,"Ġà¦Ĩà¦²à¦ªà¦¨":2611,"Ġà¦¸à¦¬à¦¶":2612,"Ġà¦¹à¦²à¦ķ":2613,"à¦ĺà¦Ĺ":2614,"Ġà¦Ĺà¦²à¦Ĺà¦²":2615,"à¦¬à¦²à¦¬":2616,"à¦ķà¦°à¦Ł":2617,"Ġà¦ħà¦¬à¦¯":2618,"à¦Ĩà¦§":2619,"à¦Ĩà¦īà¦Ł":2620,"Ġà¦ĵà¦łà¦¬":2621,"Ġà¦ħà¦¤à¦Ł":2622,"Ġà¦¬à¦Ľà¦°à¦ĸ":2623,"à¦¤à¦²à¦Ł":2624,"Ġà¦ķà¦¤à¦ĩ":2625,"Ġà¦ķà¦¤à¦ķà¦Ĺ":2626,"Ġà¦¬à¦ĩà¦ªà¦¤":2627,"Ġà¦¨à§Łà¦¤":2628,"Ġà§®":2629,"Ġà¦ħà¦ķà¦ªà¦Ł":2630,"Ġà¦¸à¦¹à¦ľà¦¸":2631,"Ġà¦¶à¦¹à¦°à¦ķ":2632,"Ġà¦Ĩà¦¹à¦¬":2633,"Ġà¦ĸà¦¸à§ľ":2634,"Ġà¦°à¦¸à¦Ĺ":2635,"Ġà§ªà§¨":2636,"Ġà¦ľà¦²à¦ķà¦£":2637,"à§Ĺ":2638,"à§ĩà§Ĺ":2639,"à¦°à¦¸à¦¬à¦ĩ":2640,"à¦¨à¦ĺ":2641,"à¦¨à¦ªà¦¤":2642,"à¦¨à¦ľà¦¨à¦ķ":2643,"à¦²à¦¥":2644,"à¦²à¦ĺ":2645,"à¦¤à¦Ĩà¦Ł":2646,"à¦ķà¦¸à¦¬":2647,"Ġà¦ķà¦¤à¦°à¦ķà¦®":2648,"à¦®à¦ł":2649,"à¦®à¦ªà¦°":2650,"à¦®à¦¤à¦¨":2651,"à¦®à¦®à¦¤":2652,"Ġà¦Ĩà¦ĩà¦Ł":2653,"Ġà¦Ĩà¦ĩà¦¶":2654,"à¦Łà¦¯":2655,"Ġà¦®à¦«à¦¸":2656,"Ġà¦¦à¦°à¦¬":2657,"Ġà¦ıà¦°à¦®à¦§":2658,"Ġà¦¤à¦°à¦¬":2659,"à¦ĸà¦ĵ":2660,"à¦¡à¦ľ":2661,"à¦¶à¦¶":2662,"Ġà¦ħà¦ĺ":2663,"à¦Ĺà¦¹":2664,"à¦·à¦°à¦£":2665,"à¦§à¦¡":2666,"Ġà¦ıà¦ķà¦Ń":2667,"Ġà¦Ľà¦®":2668,"Ġà¦īà¦¥":2669,"Ġà¦®à¦¨à¦ĸ":2670,"à¦¤à¦°à¦ĩ":2671,"à¦¤à¦°à¦ª":2672,"à¦¬à¦¨à¦¡":2673,"à¦°à¦¬à¦§":2674,"Ġà¦Ĩà¦Ĺà¦¸":2675,"à¦ıà¦¨à¦ľ":2676,"à¦®à¦²à¦¬":2677,"Ġà¦ľà¦®à¦ķ":2678,"Ġà¦ıà¦®à¦¨à¦ĵ":2679,"à¦¨à¦ĵà¦Ł":2680,"à¦¯à¦¬à¦¦":2681,"Ġà¦ķà¦²à¦¸":2682,"Ġà¦īà¦¦à¦Ĺ":2683,"Ġà¦īà¦¦à¦ĺ":2684,"Ġà¦ħà¦ľà¦ª":2685,"à¦°à¦ªà¦¥":2686,"à¦°à¦ĵà¦°":2687,"Ġà¦ħà¦ªà¦°à¦£":2688,"à¦ªà¦¦à¦¸":2689,"Ġà¦¤à¦²à¦¦":2690,"Ġà¦¦à¦¶à¦ľà¦¨":2691,"Ġà¦¸à¦®à§Łà¦ĩ":2692,"à¦¸à¦ķà¦·":2693,"à¦Ĺà¦¬à¦Ĺ":2694,"à¦ľà¦®à¦¹à¦²":2695,"ĠĠčĊĠĠč":2696,"à¦łà¦ķà¦ĸ":2697,"Ġà¦°à¦¤à¦¨à¦ķ":2698,"à§§à§¨":2699,"à§§à§«":2700,"Ġà¦Ĩà¦«à¦¨":2701,"Ġà¦¹à¦ľà¦¸à¦¨":2702,"Ġà§į":2703,"à¦°à¦Ĩ":2704,"à¦¨à§Ł":2705,"à¦¨à¦§":2706,"à¦¤à§ľ":2707,"à¦ķà¦Ńà¦°":2708,"à§ģà§į":2709,"Ġà¦¬à§İà¦¸à¦°":2710,"à¦Łà¦ķà¦°":2711,"Ġà¦¨à¦²à¦ķ":2712,"Ġà¦¨à¦¬à¦¬":2713,"à¦ĩà¦ıà¦°":2714,"Ġà¦®à¦°à¦²":2715,"Ġà¦®à¦¸à¦²":2716,"Ġà¦®à¦Ĺà¦Ł":2717,"Ġà¦®à§Łà¦¦":2718,"Ġà¦ıà¦¹":2719,"Ġà¦¤à¦¬à¦²":2720,"à¦ľà¦¶":2721,"Ġà¦ħà¦¤à¦°":2722,"à¦Ĺà¦¬à¦¨":2723,"Ġà¦Ĺà¦¤à¦°":2724,"Ġà¦Ĺà¦Ĺà¦¨":2725,"Ġà¦ļà¦°à¦£":2726,"Ġà¦ļà¦Łà¦ķ":2727,"Ġà¦°à¦Ł":2728,"à¦¹à¦£":2729,"à¦¹à¦°à¦ķ":2730,"Ġà¦Ľà¦²à¦¨":2731,"à¦Ńà¦²à¦¬":2732,"Ġà¦«à¦¨":2733,"Ġà¦«à¦¸":2734,"Ġà¦ĸà¦²à¦¨":2735,"Ġà¦ħà¦¨à¦¬à¦¦":2736,"čĊčĊ":2737,"Ġà¦®à¦¨à¦®":2738,"Ġà¦Łà¦¨":2739,"Ġà¦Łà¦Ĺà¦¬à¦Ĺ":2740,"à¦īà¦ĩà¦¯":2741,"à¦®à¦¨à¦Ł":2742,"Ġà¦Ĩà¦²à¦¬":2743,"Ġà¦Ĩà¦²à¦¸":2744,"à§İà¦¬":2745,"à§İà¦ªà¦°":2746,"à¦ŀà¦ª":2747,"à¦ķà¦°à¦Ń":2748,"à¦¬à¦ªà¦¤":2749,"à¦Ĩà¦¹":2750,"à¦Ĩà¦°à¦£":2751,"Ġà¦¬à¦¨à¦Ń":2752,"Ġà¦ıà¦¬à¦¡":2753,"à¦Ĺà¦²à¦¦":2754,"à¦°à¦ľà¦¤":2755,"à¦¹à¦¸à¦ĩ":2756,"à§İà¦ķà¦®":2757,"à¦ıà¦ķà¦¸à¦®à¦¯":2758,"Ġà§¦":2759,"à¦Łà¦°à¦Ĺ":2760,"Ġà¦¸à¦®à§Łà¦Ł":2761,"à¦ķà¦Ľà¦Ł":2762,"Ġà¦¶à¦¹à¦°à¦ľ":2763,"Ġà¦¦à¦°à¦¦à¦°":2764,"à¦¬à¦Ńà¦Ļ":2765,"Ġà¦°à¦ľà¦¤à¦¬":2766,"Ġà¦ıà¦ķà¦§à¦°à¦¨":2767,"Ġà¦¾":2768,"à¦¨à¦ķà¦²":2769,"à¦¨à¦®à¦¤":2770,"à¦¨à¦¸à¦®":2771,"à¦²à¦Ŀ":2772,"à¦²à¦Ĩà¦ľ":2773,"à¦²à¦Ŀà¦°":2774,"à¦¯à¦°à¦¶":2775,"Ġà¦Ĩà¦ŀ":2776,"Ġà¦Ĩà¦ĩà¦²":2777,"Ġà¦¸à¦Ł":2778,"Ġà¦¦à§ľ":2779,"Ġà¦¤à§ľ":2780,"Ġà¦¹à¦¨à¦¨":2781,"à¦ªà¦ŀ":2782,"à¦ªà¦¸à¦¬":2783,"à¦ĸà¦²à¦¤":2784,"Ġà¦ħà¦ĸ":2785,"à¦Ĺà¦ł":2786,"Ġà¦Ĺà¦°à¦ľ":2787,"à¦ļà¦²à¦¤":2788,"Ġà¦ļà¦·":2789,"à¦·à¦ķà¦¤":2790,"à¦§à¦Ĺ":2791,"à¦§à¦ļ":2792,"Ġà¦ľà¦Łà¦²":2793,"à¦¹à¦¶":2794,"à¦¹à§İ":2795,"Ġà¦ıà¦ķà¦¹":2796,"à¦£à¦«":2797,"à¦£à¦¬à¦¨":2798,"Ġà¦¬à¦²à¦¯":2799,"Ġà¦¥à¦ķà¦¥à¦ķ":2800,"Ġà¦ĸà§ľ":2801,"Ġà¦ĸà¦¤à¦®":2802,"à¦°à¦¤à¦ķ":2803,"Ġà¦Łà¦¬":2804,"Ġà¦Łà¦®":2805,"Ġà¦Łà¦ªà¦Łà¦ª":2806,"à¦ıà¦°à¦ªà¦°":2807,"à¦¨à¦¤à¦²":2808,"Ġà¦ħà¦¸à¦®à¦¯":2809,"à¦²à¦ķà¦¨":2810,"à¦Ĺà¦²à¦¬":2811,"Ġà¦¹à¦¤à¦Ń":2812,"Ġà¦ľà¦®à¦¬":2813,"à¦¦à¦¨à¦¶":2814,"Ġà¦īà¦¦à§Ł":2815,"Ġà¦¬à¦ĩà¦ķ":2816,"à¦²à¦¨à¦ķ":2817,"à¦²à¦¨à¦®":2818,"Ġà¦¨à§Łà¦¨":2819,"à¦¬à¦¤à¦ĩ":2820,"à¦ıà¦ķà¦¸à¦Ļ":2821,"à¦Łà¦¬à¦¡":2822,"à§İà¦¸à¦ķ":2823,"à¦¬à¦ķà¦ķ":2824,"Ġà¦Ĳà¦Ł":2825,"à¦°à¦Ĺà¦®":2826,"Ġà¦ıà¦ķà¦ĩà¦Ń":2827,"à¦¬à¦¬à¦Ļ":2828,"Ġà¦·à¦·":2829,"Ġà¦·à¦£":2830,"à¦ĩà¦ľà¦¡":2831,"Ġà¦Ĩà¦ĩà¦¸à¦ķ":2832,"à§§à§¯":2833,"à¦¬à¦ľà¦¨à¦¦":2834,"Ġà¦®à¦¦à¦¨à¦¦":2835,"Ġà¦ĸà¦Łà¦ĸà¦Ł":2836,"Ġà¦¦à¦²à¦¬à¦¦":2837,"Ġà¦¬à¦ķà¦¬à¦ķ":2838,"Ġà¦¨à¦¬à¦¬à¦§":2839,"à¦¨à¦®à¦¯":2840,"à¦¨à¦¸à¦¨":2841,"à¦¨à¦®à§Ł":2842,"à¦¯à¦ĸ":2843,"à¦¯à¦¦à¦²":2844,"à¦¬à¦ªà¦¨":2845,"à¦¬à§İ":2846,"Ġà¦Ĩà¦ī":2847,"Ġà¦Ĩà¦«à¦Ł":2848,"Ġà¦¸à¦ļà¦ķ":2849,"Ġà¦¸à§ľà¦ķ":2850,"à¦Ľà§ľ":2851,"Ġà¦®à¦ķ":2852,"Ġà¦®à¦²à¦®":2853,"Ġà¦¦à¦ªà¦¦":2854,"Ġà¦ıà§ľ":2855,"Ġà¦ıà¦ĺà¦°":2856,"Ġà¦¤à¦Ľà¦¨":2857,"Ġà¦¹à¦¡":2858,"à¦ªà¦¹":2859,"à¦ªà¦ķà¦²":2860,"à¦ľà¦ĸ":2861,"Ġà¦Ĺà¦¤à¦¬":2862,"à¦§à¦Ń":2863,"Ġà¦Ńà¦¸":2864,"Ġà¦ľà¦ŀ":2865,"à¦¥à¦ķà¦¤":2866,"Ġà¦ıà¦ķà¦ĺà¦£":2867,"à¦ĵà¦Ł":2868,"à¦£à¦¯":2869,"Ġà¦ĸà¦¯":2870,"Ġà¦§à¦ķà¦²":2871,"à¦Ŀà¦¬à¦¯":2872,"à¦īà¦¥":2873,"à¦īà§İà¦¸à¦¬":2874,"à¦¤à¦°à¦¦":2875,"à¦¤à¦°à¦Ĺ":2876,"Ġà¦ĩà¦°à¦Ĺ":2877,"Ġà¦ķà¦°à¦²à¦ª":2878,"à¦ĺà¦¸à¦®à¦¯":2879,"à¦ıà¦®":2880,"à¦ķà¦°à¦ĵ":2881,"à¦¨à¦¤à¦®":2882,"Ġà¦ħà¦¬à¦¦":2883,"à¦²à¦ķà¦®à¦²":2884,"ĠĠĠčĊč":2885,"à¦°à¦¥à¦®à¦Ł":2886,"Ġà¦¤à¦ĸà¦¨à¦ķ":2887,"à¦®à¦²à¦Ń":2888,"Ġà¦ªà¦¥à¦ª":2889,"Ġà¦ĵà¦ªà¦°à¦ĩ":2890,"à¦¤à¦¬à¦ķ":2891,"à¦ħà¦ŀ":2892,"Ġà¦¬à¦ĩà¦®":2893,"Ġà¦ıà¦°à¦ļ":2894,"Ġà¦°à¦ĵà¦¶à¦¨à¦ĩ":2895,"à¦ĩà¦Łà¦¸":2896,"Ġà¦²à¦ķà¦¡":2897,"à¦¦à§Łà¦Ł":2898,"à¦¬à¦ķà¦¦":2899,"à¦¦à¦®à¦¸":2900,"Ġà¦Ńà§Łà¦ķ":2901,"à¦ķà¦¶à¦ª":2902,"à¦¶à¦®à¦£":2903,"Ġà¦Ĩà¦§à¦ĸ":2904,"à¦®à¦¸à¦®à¦°":2905,"à¦ľà¦¸à¦ľ":2906,"à¦ļà§Łà¦ĩ":2907,"Ġà§§à§¯à§Ńà§§":2908,"à¦®à¦ĺà¦Ł":2909,"Ġà¦¦à¦ªà¦¦à¦ª":2910,"Ġà¦¤à¦Ľà¦¨à¦Ľ":2911,"Ġà¦¿":2912,"à¦°à§İ":2913,"à¦°à¦ıà¦ĩ":2914,"à¦¨à¦¥":2915,"à¦¨à¦ªà¦¥":2916,"à¦²à¦ľà¦²":2917,"à¦²à¦ªà¦¥":2918,"à¦²à¦¸à¦¬à¦ĩ":2919,"à¦¤à¦Ŀà¦°":2920,"à¦¤à¦ĺà¦¡":2921,"à¦¯à¦¬à¦°":2922,"à¦¬à¦¸à¦¤":2923,"Ġà¦ķà¦ļà¦ķ":2924,"Ġà¦¬à¦¤":2925,"Ġà¦Ĩà¦Łà¦²":2926,"Ġà¦Ĩà¦Łà¦¨":2927,"Ġà¦Ĩà¦Łà¦ª":2928,"Ġà¦Ĩà¦ĩà¦ļ":2929,"Ġà¦Ĩà¦ĩà¦ľ":2930,"à¦¸à¦ĵà¦¯":2931,"à¦¸à¦¸à¦¬":2932,"Ġà¦ªà§Ł":2933,"à¦Ľà¦¦":2934,"à¦ĩà¦¹":2935,"à¦ĩà¦Ŀ":2936,"Ġà¦®à¦°à¦Ľ":2937,"Ġà¦®à§İà¦¸":2938,"Ġà¦¤à¦Ł":2939,"à¦ªà¦ªà¦¤":2940,"à¦¡à¦ĵà¦¯":2941,"à¦¶à¦ķà¦°":2942,"à¦¶à¦¤à¦²":2943,"à¦¶à¦ķà¦¦":2944,"à¦¶à¦§à¦°":2945,"Ġà¦Ĺà¦ª":2946,"Ġà¦°à¦®à¦¨":2947,"Ġà¦ľà¦¬à¦°":2948,"à¦¥à¦ĩ":2949,"à¦¥à¦Ń":2950,"à¦¹à¦ľ":2951,"Ġà¦Ĩà¦®à¦¬":2952,"Ġà¦Ĩà¦®à¦¸":2953,"à¦ĵà¦ĸ":2954,"à¦Ńà¦¬à¦¨":2955,"Ġà¦«à¦²à¦ķ":2956,"Ġà¦īà¦Ł":2957,"Ġà¦ĵà¦ħà¦°":2958,"à¦«à¦ª":2959,"à§ľà¦Ŀ":2960,"Ġà¦ıà¦ĩà¦¯":2961,"Ġà¦¡à¦ľà¦¨":2962,"à§İà¦ļ":2963,"Ġà¦ĩà¦Ń":2964,"Ġà¦ĩà¦®à¦¨":2965,"Ġà¦Ŀà¦Ļ":2966,"Ġà¦Ŀà¦ŀ":2967,"à¦ĺà¦¬":2968,"à¦ıà¦°à¦ĩ":2969,"à¦ıà¦®à¦ľ":2970,"Ġà¦ľà¦¨à¦ªà¦¦":2971,"à¦·à¦£à¦¸":2972,"à¦Ĩà¦°à¦¤":2973,"Ġà¦Ĩà¦ķà¦¨":2974,"Ġà¦ħà¦ļà¦ŀ":2975,"à¦¨à¦ĵà¦°à¦ķà¦®":2976,"à¦¦à¦°à¦¬à¦¨":2977,"à¦ħà¦¥":2978,"à¦ħà¦°à¦£":2979,"à¦¨à¦¬à¦¸à¦Ń":2980,"Ġà¦ĵà¦ĩà¦¸à¦¬":2981,"Ġà¦¶à¦°à¦¦":2982,"Ġà¦®à¦¹à¦ķ":2983,"à¦·à¦ķà¦¶":2984,"Ġà¦ħà¦ķà¦¥":2985,"Ġà¦¬à¦īà§Ł":2986,"Ġà§§à§©":2987,"Ġà¦§à¦¨à¦ŀ":2988,"à¦Ĩà¦ľà¦ĵ":2989,"Ġà¦Ĺà§ľà¦¬":2990,"Ġà¦Ĺà¦£à¦¨":2991,"Ġà¦ķà§Łà¦²":2992,"à§§à§¦":2993,"Ġà¦¹à¦ĩà¦¹à¦ĩ":2994,"Ġà¦īà¦ªà¦ķà¦£":2995,"Ġà¦Ķà¦ªà¦¨":2996,"Ġà§§à§Ńà§«à§¬":2997,"Ġà§§à§¯à§ªà§Ń":2998,"Ġà¦¨à¦ľà¦°à¦¦":2999,"à¦°à¦ħ":3000,"à¦¨à¦¨à¦¤":3001,"à¦¨à¦ıà¦°":3002,"à¦²à¦ı":3003,"à¦²à¦ķà¦°":3004,"à¦²à¦¨à¦¤":3005,"à¦²à¦ıà¦Ł":3006,"à¦¯à¦²":3007,"à¦¬à¦Ļ":3008,"à¦¬à¦¸à¦¨":3009,"à¦¬à¦ĩà¦¯":3010,"Ġà¦ķà¦ļà¦²":3011,"à¦®à¦ªà¦¨":3012,"à¦®à¦ĵà§Ł":3013,"Ġà¦¬à¦Ĺ":3014,"Ġà¦¬à¦¹à¦°":3015,"Ġà¦Ĩà¦¦à¦®":3016,"Ġà¦Ĩà¦ĵà¦¡":3017,"Ġà¦¸à¦ĩà¦¤":3018,"à¦¦à¦°à¦ķ":3019,"à¦¦à¦ĺ":3020,"à¦¦à¦¸à¦¬":3021,"Ġà¦®à¦®":3022,"Ġà¦®à¦¥":3023,"Ġà¦®à¦ł":3024,"Ġà¦®à¦«":3025,"Ġà¦ıà¦¶":3026,"Ġà¦¤à¦¤à¦¬":3027,"Ġà¦¤à§İà¦ª":3028,"Ġà¦¹à¦ĩà¦¬":3029,"à¦ªà¦ĸ":3030,"à¦ªà¦Ĩà¦²":3031,"à¦ĸà¦ª":3032,"à¦¡à¦ĩ":3033,"à¦¡à¦ĵ":3034,"à¦¶à¦ªà¦°":3035,"Ġà¦ħà¦¯à¦¤":3036,"à¦Ĺà¦Ļ":3037,"à¦Ĺà¦®à¦¨":3038,"Ġà¦ķà¦°à¦£":3039,"à¦·à¦¶":3040,"à¦·à¦¹":3041,"à¦·à¦Ļ":3042,"à§Łà¦Ł":3043,"à§Łà¦ļ":3044,"Ġà¦°à¦£":3045,"Ġà¦°à¦ĵà¦¯":3046,"Ġà¦¶à¦¬à¦°":3047,"Ġà¦¶à¦°à¦¬à¦¤":3048,"Ġà¦¶à¦®à¦¶":3049,"à¦§à¦ĩ":3050,"à¦¥à¦ªà¦°":3051,"à¦¹à¦¹":3052,"à¦¹à¦¬à¦§":3053,"Ġà¦Ĩà¦®à¦¦":3054,"à¦łà¦¬":3055,"à¦łà¦¦":3056,"à¦łà¦¹":3057,"Ġà¦ĵà¦¬":3058,"Ġà¦ĵà¦®à¦°":3059,"Ġà¦§à¦®":3060,"Ġà¦§à¦®à¦¨":3061,"Ġà¦ıà¦ĩà¦ĩ":3062,"Ġà¦ıà¦ĩà¦ļ":3063,"Ġà¦Ĩà¦¸à¦ķ":3064,"à¦¤à¦°à¦ĵ":3065,"à¦¬à¦¨à¦ĵ":3066,"Ġà¦ĩà¦¥":3067,"à¦°à¦£à¦¬":3068,"à¦°à¦£à¦ĩ":3069,"à¦°à¦£à¦ĵ":3070,"à¦ĺà¦°à¦Ł":3071,"à¦ıà¦«":3072,"Ġà¦ľà¦¨à¦¸à¦®":3073,"Ġà¦īà¦łà¦²à¦ķ":3074,"à¦Ĩà¦§à¦Ł":3075,"à¦°à¦¥à¦®à¦¤":3076,"à¦°à¦¥à¦®à¦¦":3077,"à¦ĸà¦²à¦ª":3078,"Ġà¦ªà¦¥à¦ĩ":3079,"à¦ķà¦¤à¦ķ":3080,"Ġà¦ľà¦²à¦Ł":3081,"à¦ĩà¦¨à¦²":3082,"Ġà¦¸à¦°à¦¦":3083,"à¦ªà¦¤à¦Ļ":3084,"à¦¨à¦¬à¦¦":3085,"Ġà¦īà¦ªà¦¡":3086,"Ġà¦¬à¦ĩà¦¬":3087,"à¦°à¦¹à¦Ł":3088,"Ġà¦Ĺà¦¨à¦Ĺà¦¨":3089,"à¦ıà¦ķà¦¸":3090,"Ġà¦°à¦Ļà¦²":3091,"Ġà¦®à¦°à¦ļ":3092,"à¦ıà¦ĩà¦Ń":3093,"Ġà¦Ĳà¦¦":3094,"Ġà¦¤à¦²à¦¸":3095,"à¦®à¦Łà¦®":3096,"Ġà¦ıà¦ķà¦ĩà¦¸à¦Ļ":3097,"Ġà¦¶à¦¹à¦°à¦¬":3098,"Ġà¦¦à¦®à¦¦à¦®":3099,"Ġà¦ħà¦¬à¦¨à¦¤":3100,"à¦ĩà¦¸à¦Ļ":3101,"Ġà¦¨à¦¬à¦¯":3102,"Ġà¦ĩà¦¶à¦¤":3103,"à¦®à¦Ĺà¦ŀ":3104,"Ġà§¨à§«":3105,"Ġà§¨à§ª":3106,"Ġà§¨à§§":3107,"Ġà¦ĩà¦īà¦ıà¦¸à¦¬":3108,"Ġà¦ĩà¦¸à¦®à¦¤à¦ķ":3109,"Ġà¦łà¦ķà¦łà¦ķ":3110,"Ġà¦Ķà¦¦":3111,"ĠĠĠĠĠĠĠĠĠĠĠĠĠĠĠĠ":3112,"Ġà¦¸à¦«à¦Łà¦ĵà¦¯":3113,"Ġà¦¸à¦«à¦Łà¦ĵà§Ł":3114,"à¦ĭà¦£":3115,"Ġà¦¸à¦¹à¦ľà¦¸à¦°à¦²":3116,"Ġà¦ķà¦ļà¦ķà¦ļ":3117,"à¦ħà¦¥à¦ļ":3118,"Ġà¦¤à§İà¦ªà¦°à¦¤":3119,"à¦°à¦ĵà§Ł":3120,"à¦°à¦Ĩà¦®":3121,"à¦°à¦Ĺà¦°":3122,"à¦°à¦ıà¦°":3123,"à¦¨à¦¸à¦°":3124,"à¦¨à¦ıà¦Ł":3125,"à¦²à¦¬à¦°":3126,"à¦²à¦¸à¦¨":3127,"à¦²à¦ıà¦ĸ":3128,"à¦¤à¦°à¦¤":3129,"à¦¤à¦¸à¦¬":3130,"à¦¤à¦¦à¦¨":3131,"à¦¯à¦®à¦¨":3132,"à¦¯à¦¸à¦¬":3133,"à¦¬à¦¶à¦ķ":3134,"Ġà¦Ĩà¦£à¦¬":3135,"Ġà¦¸à¦ĵà¦¯":3136,"à¦¸à¦ıà¦°":3137,"à¦¸à¦¸à¦¬à¦ĩ":3138,"Ġà¦ªà¦ª":3139,"à¦ĩà¦²à¦ķ":3140,"Ġà¦®à§Łà¦²":3141,"Ġà¦¦à¦¬":3142,"Ġà¦¤à§İà¦ªà¦°":3143,"Ġà¦¹à¦Łà¦²":3144,"Ġà¦¹à¦Łà¦¬":3145,"à¦ªà¦Łà¦²":3146,"à¦ľà§ľ":3147,"à¦¡à¦¦":3148,"Ġà¦ħà§Ł":3149,"Ġà¦ħà¦ĺà¦Łà¦¨":3150,"à¦Ĺà¦²à¦ķ":3151,"à¦ļà¦Ļ":3152,"Ġà¦ļà¦°à¦ķ":3153,"à¦·à¦§":3154,"à§Łà¦ª":3155,"à§Łà¦¬à¦¦":3156,"à¦¥à¦Ł":3157,"à¦¹à¦Ĺ":3158,"Ġà¦ıà¦ķà¦®à¦¤":3159,"à¦ĵà¦¹":3160,"à¦ĵà¦«":3161,"à¦£à¦§":3162,"à¦łà¦Ĺà¦¡":3163,"Ġà¦«à¦¸à¦«":3164,"Ġà¦īà¦®":3165,"Ġà¦īà¦ªà¦¤":3166,"à¦°à¦¤à¦¬":3167,"Ġà¦¸à¦¬à¦¦":3168,"à§İà¦¦":3169,"Ġà¦ĩà¦®à¦¤":3170,"à¦°à¦£à§Ł":3171,"à¦°à¦ķà¦£":3172,"Ġà¦ķà¦°à¦²à¦¬":3173,"Ġà¦ķà¦°à¦²à¦¸":3174,"à¦ĺà¦¸":3175,"Ġà¦ľà¦¨à¦ķ":3176,"Ġà¦¢à¦ķà¦¢":3177,"Ġà¦ıà¦ĸà¦¨à¦¤":3178,"Ġà¦ħà¦¬à¦Ĺ":3179,"Ġà¦¨à¦¤à¦ľ":3180,"Ġà¦īà¦łà¦²à¦®":3181,"Ġà¦īà¦łà¦²à¦ıà¦ķà¦Ł":3182,"à¦Ĩà§Ł":3183,"Ġà¦ħà¦¸à¦¹à¦¯":3184,"à¦°à¦®à¦°":3185,"à¦°à¦®à¦¯":3186,"à¦°à¦®à¦ľ":3187,"Ġà¦ĺà¦°à¦ľ":3188,"Ġà¦ĵà¦°à¦ĩ":3189,"à¦°à¦¨à¦Ĺà¦°":3190,"à¦°à¦²à¦®":3191,"Ġà¦ħà¦®à¦Ļ":3192,"Ġà¦¬à¦°à¦¦":3193,"à¦¨à¦ĵà¦ķ":3194,"à¦ħà¦Ĺ":3195,"Ġà¦¶à¦¹à¦°à¦Ĺ":3196,"Ġà¦ķà¦²à¦¹":3197,"à¦Ĺà¦¤à¦Ń":3198,"à¦°à¦ķà¦®à¦ĩ":3199,"Ġà¦¦à¦¶à¦ªà¦¨":3200,"Ġà¦ħà¦Ĺà¦Ń":3201,"Ġà¦ıà¦ķà¦ĩà¦°à¦ķà¦®":3202,"à¦¬à¦¦à¦¤":3203,"Ġà¦¤à¦ªà¦¨à¦ķ":3204,"Ġà¦¬à¦Łà¦¤à¦²":3205,"Ġà¦ķà¦ĸà¦¨à¦ĵà¦ĩ":3206,"à¦²à¦ļà¦²à¦¨":3207,"Ġà¦Ĺà§ľà¦¤":3208,"à§¦à§«":3209,"Ġà¦Ĺà¦ľà¦Ĺà¦ľ":3210,"Ġà¦ĩà¦®à¦ªà¦¸":3211,"Ġà¦īà§ľà¦¤":3212,"Ġà¦¸à¦«à¦²à¦Ń":3213,"Ġà§ªà§«":3214,"Ġà§©à§¦":3215,"à¦°à¦¡à¦ĵà¦¯":3216,"Ġà§§à§¯à§ªà§¨":3217,"Ġà§§à§¦à§¦":3218,"Ġà¦Ĩà¦īà¦Łà¦¬":3219,"Ġà¦¢à¦ķà¦¢à¦ķ":3220,"à¦Ĭ":3221,"à¦°à¦ļà¦¨":3222,"à¦°à¦ĺà¦°":3223,"à¦¿à¦¾":3224,"à¦¨à¦¬à¦°":3225,"à¦²à¦ªà¦°":3226,"à¦¤à¦Ĩà¦®":3227,"à¦ķà¦ļà¦ķ":3228,"à¦ķà¦°à¦ķà¦®":3229,"à¦¯à¦§":3230,"à¦¯à¦ŀ":3231,"à¦¯à¦ªà¦¤":3232,"à¦¬à¦ĸ":3233,"Ġà¦ķà¦®à¦¨":3234,"Ġà¦ķà¦¸à¦®":3235,"Ġà¦ķà¦Łà¦¨":3236,"à¦®à¦°à¦¤":3237,"à¦®à¦ªà¦¤":3238,"à¦®à¦Ĩà¦®":3239,"à¦®à¦ĺà¦°":3240,"Ġà¦¬à¦ĸ":3241,"Ġà¦Ĩà¦ľà¦¨":3242,"Ġà¦¸à¦¶à¦¬":3243,"Ġà¦¸à¦°à¦¬à¦°":3244,"à¦Łà¦ªà¦¤à¦Ļ":3245,"Ġà¦ªà¦ľ":3246,"Ġà¦¨à¦®à¦¨":3247,"à¦¦à¦°à¦²":3248,"à¦¦à¦®à¦¤":3249,"Ġà¦®à¦ļà¦ķ":3250,"Ġà¦¤à¦®à¦²":3251,"Ġà¦¤à¦Łà¦¸":3252,"Ġà¦¤à¦°à¦¤à¦°":3253,"à¦ªà¦§":3254,"à¦ªà¦ķà¦°":3255,"à¦ĸà¦Ńà¦°":3256,"à¦ľà¦ķà¦¨":3257,"à¦¶à¦Ĺà¦¤":3258,"Ġà¦ħà¦¶à¦¨":3259,"Ġà¦ħà¦¤à¦¨":3260,"Ġà¦ħà¦ĸà¦£":3261,"à¦Ĺà¦¯":3262,"à¦Ĺà§İ":3263,"Ġà¦¯à¦ķ":3264,"Ġà¦ļà¦ª":3265,"à§Łà¦¯":3266,"à§Łà¦¹":3267,"Ġà¦¶à¦°à¦£":3268,"à¦§à¦¹":3269,"Ġà¦Ńà¦¡":3270,"Ġà¦ľà¦¹":3271,"à¦¥à¦°à¦Ł":3272,"à¦ĵà¦Ľ":3273,"à¦ĵà¦Ĺ":3274,"à¦ĵà¦ĵ":3275,"à¦¼à¦¾à¦ģ":3276,"à¦¼à¦¾à¦Ĥ":3277,"Ġà¦¬à¦²à¦ªà¦¯":3278,"Ġà¦Ĩà¦°à¦ıà¦ķà¦Ł":3279,"à¦Ńà¦¤":3280,"Ġà¦īà¦¥à¦²":3281,"Ġà¦ħà¦¨à¦¶à¦¨":3282,"à¦Ŀà§ľ":3283,"à¦Ŀà¦²à¦ķ":3284,"Ġà¦Łà¦¯":3285,"à¦īà¦ª":3286,"à¦īà¦¬à¦²":3287,"à¦īà§İà¦¸":3288,"à¦īà¦ľà¦Ł":3289,"Ġà¦ķà¦¥à¦ķ":3290,"à¦¬à¦¨à¦¦":3291,"à¦°à¦¬à¦ļ":3292,"à¦°à¦¬à¦£à¦¤":3293,"Ġà¦ĩà¦¤à¦°":3294,"Ġà¦ĩà¦¨à¦ķ":3295,"Ġà¦ĩà¦®à¦°":3296,"Ġà¦¹à¦²à¦ĵà¦¯":3297,"à¦°à¦£à¦Ń":3298,"Ġà¦ķà¦°à¦²à¦¤":3299,"Ġà¦ķà¦°à¦²à¦ıà¦ĩ":3300,"Ġà¦ķà¦°à¦²à¦ıà¦ķà¦Ł":3301,"à¦ĺà¦¬à¦¦":3302,"Ġà¦Ĺà¦²à¦¤":3303,"à¦¬à¦²à¦ķ":3304,"Ġà¦ħà¦¬à¦¤à¦°à¦£":3305,"Ġà¦ıà¦²à¦ĩà¦¡":3306,"à¦²à¦ķà¦§":3307,"à¦¶à¦¨à¦Ĺ":3308,"à¦ĩà¦²à¦¹":3309,"Ġà¦ĺà¦°à¦¸":3310,"à¦®à¦²à¦¦":3311,"à¦°à¦²à¦¯":3312,"Ġà¦ªà¦¥à¦Ĺ":3313,"Ġà¦ıà¦¤à¦ĸ":3314,"Ġà¦ıà¦¤à¦¸à¦¬":3315,"Ġà¦ħà¦®à¦°à¦¦":3316,"à¦°à¦¶à¦ķ":3317,"Ġà¦ľà¦²à¦®":3318,"Ġà¦ľà¦²à¦Ńà¦°":3319,"Ġà¦¬à¦°à¦¯":3320,"Ġà¦¬à¦°à¦ªà¦ķ":3321,"Ġà¦Ĩà¦¶à¦°":3322,"Ġà¦Ĩà¦¶à¦¯":3323,"Ġà¦¯à¦ĸà¦¨à¦¤à¦ĸà¦¨":3324,"Ġà¦¬à¦Ľà¦°à¦ĩ":3325,"Ġà¦ķà¦®à¦ªà¦ķ":3326,"Ġà¦īà¦ªà¦Ĺ":3327,"à¦Ńà¦¬à¦ķ":3328,"à¦Łà¦²à¦Ĺ":3329,"à¦¸à¦°à¦Ĺ":3330,"à¦ªà¦¦à¦ķ":3331,"à¦Ĺà¦¨à¦¸":3332,"à¦¦à§Łà¦ķ":3333,"Ġà¦¤à¦²à¦ª":3334,"Ġà¦¦à¦¶à¦¤à¦²":3335,"à¦¥à¦°à¦Ĺ":3336,"à¦°à¦Ńà¦°":3337,"à¦°à¦Ńà¦Ļ":3338,"Ġà¦¸à¦®à§Łà¦¸":3339,"à¦¨à¦¸à¦ªà¦Ł":3340,"à¦®à§Łà¦ķà¦°":3341,"Ġà¦ļà¦®à¦ķà¦ª":3342,"Ġà¦Ĩà¦§à¦Ł":3343,"à¦°à¦§à¦°":3344,"Ġà¦ıà¦°à¦ķà¦®à¦ĩ":3345,"Ġà¦Ĺà¦£à¦®":3346,"Ġà¦īà§İà¦«":3347,"à¦ªà¦²à¦ĵà¦¯":3348,"à§«à§¦":3349,"Ġà¦Ĩà¦ĩà¦¨à¦ľ":3350,"Ġà¦Ĩà¦ĩà¦¨à¦¶":3351,"Ġà¦°à¦¤à¦¨à¦¦":3352,"Ġà¦Ĩà¦Łà¦ļ":3353,"Ġà¦Ĩà¦Łà¦ļà¦²":3354,"à¦ıà¦ĸà¦¨à¦ĩ":3355,"à¦ĩà¦ľà¦¨à¦ĩ":3356,"à§§à§¬":3357,"Ġà¦¹à¦¨à¦¹à¦¨":3358,"à¦¬à¦ľà¦Ĺà¦¤":3359,"Ġà¦ıà¦ķà¦ĸà¦£":3360,"Ġà§ªà§©":3361,"Ġà¦ªà¦°à¦ªà¦°à¦ĩ":3362,"à§¯à§®":3363,"Ġà¦°à¦¹à¦®à¦¤":3364,"à¦ĩà¦°à¦ķà¦®à¦ĩ":3365,"Ġà¦ıà¦ķà¦Ŀà¦²à¦ķ":3366,"à¦ķà¦ľà¦®à¦ķ":3367,"Ġà¦ĸà¦ļà¦ĸà¦ļ":3368,"Ġà§§à§®à§«à§Ń":3369,"Ġà¦¥à¦¤à¦®à¦¤":3370,"à§ĩà§Ĺà¦ģ":3371,"Ġà¦ľà¦¬à¦°à¦¦à¦¸":3372,"Ġà§Ł":3373,"à§»":3374,"à¦¾à¦¾":3375,"à¦°à¦¦à¦²":3376,"à¦°à¦ľà¦¨à¦ķ":3377,"à¦¨à¦·":3378,"à¦¨à¦ĵà¦¯":3379,"à¦²à¦¸à¦®":3380,"à¦²à¦ħà¦¨":3381,"à¦²à¦Ĩà¦°":3382,"à¦²à¦Ĩà¦®à¦°":3383,"à¦¤à¦Ļ":3384,"à¦¤à¦¤à¦°":3385,"à¦¤à¦¤à¦ķ":3386,"à¦ķà¦®à¦¯":3387,"à¦¯à¦ķà¦²":3388,"à¦¬à¦ļà¦ķ":3389,"à¦¬à¦¹à¦¨":3390,"Ġà¦ķà¦ľ":3391,"à¦®à¦ľà¦¨":3392,"Ġà¦¬à¦°à¦ķ":3393,"Ġà¦¬à¦ĩà¦²":3394,"Ġà¦Ĩà¦¦à¦¨":3395,"Ġà¦Ĩà¦ĩà¦ª":3396,"Ġà¦¸à¦°à¦¬":3397,"Ġà¦¸à¦ļà¦°":3398,"Ġà¦¸à¦°à¦¸à¦°":3399,"Ġà¦¸à¦ĵà¦¦":3400,"à¦Łà¦ªà¦°":3401,"Ġà¦ªà¦ļà¦¨":3402,"Ġà¦ªà¦¶à¦²":3403,"Ġà¦¨à¦¨à¦¦":3404,"Ġà¦¨à¦¬à¦¦":3405,"à¦ĩà¦®à¦¨":3406,"à¦ĩà¦Ĩà¦®":3407,"à¦¦à¦ľ":3408,"à¦¦à¦®à¦¨":3409,"à¦¦à¦²à¦ķ":3410,"à¦¦à¦Ĩà¦¶":3411,"Ġà¦¤à¦¦":3412,"Ġà¦¤à¦ķà¦®":3413,"à¦ªà¦Ń":3414,"à¦ĸà§ľ":3415,"à¦ĸà¦ķà¦ķ":3416,"à¦ĸà¦¢":3417,"à¦¶à¦¬à¦¤":3418,"Ġà¦ħà¦¢":3419,"à¦Ĺà¦°à¦ķ":3420,"Ġà¦¯à¦®à¦ľ":3421,"Ġà¦Ĺà¦ļ":3422,"Ġà¦Ĺà¦ŀ":3423,"Ġà¦Ĺà§Łà¦¨":3424,"Ġà¦Ĺà¦Łà¦Ĺ":3425,"à¦ļà¦ķà¦°":3426,"à¦ļà¦²à¦¨":3427,"à¦·à¦²à¦§":3428,"Ġà¦°à¦¨à¦ķ":3429,"Ġà¦°à¦Ĺà¦¡":3430,"Ġà¦¶à¦²":3431,"à¦§à¦°à¦¨":3432,"à¦§à¦¸à¦¬":3433,"à¦§à¦Ĺà¦®":3434,"à¦§à¦¹à§Ł":3435,"Ġà¦Ńà¦£":3436,"à¦¥à¦Ĺ":3437,"à¦¹à¦ĸ":3438,"à¦¹à¦¨à¦ķ":3439,"Ġà¦ıà¦ķà¦ķà¦¥":3440,"à¦£à¦¤à¦°":3441,"Ġà¦Ľà¦²à¦ķ":3442,"à¦łà¦®":3443,"Ġà¦Ĩà¦°à¦ıà¦ķ":3444,"Ġà¦«à¦¸à¦ķ":3445,"à§ĥà§į":3446,"Ġà¦ħà¦¨à¦¤":3447,"Ġà¦ħà¦¨à¦Ń":3448,"Ġà¦ĺà¦°à¦ķ":3449,"Ġà¦ªà¦°à¦Ľ":3450,"à¦°à¦¤à¦¨":3451,"à¦«à¦°à¦ķ":3452,"à¦Ŀà¦ŀ":3453,"Ġà¦Łà¦®à¦Łà¦®":3454,"à¦īà¦ªà¦°":3455,"à¦ªà¦¨à¦Ł":3456,"Ġà¦ıà¦ĩà¦¦":3457,"à¦®à¦¨à¦ķ":3458,"Ġà¦Ĩà¦²à¦ĸ":3459,"Ġà¦Ĩà¦²à¦®à¦ķ":3460,"Ġà¦ķà¦¥à¦¨":3461,"à¦¤à¦°à¦«":3462,"Ġà¦¡à¦°":3463,"Ġà¦¡à¦Ł":3464,"Ġà¦¡à¦ľ":3465,"Ġà¦ĩà¦£":3466,"Ġà¦¹à¦²à¦ĺà¦°":3467,"à¦°à¦£à¦Ĺ":3468,"Ġà¦ıà¦¸à¦¡":3469,"Ġà¦ķà¦°à¦²à¦¦":3470,"Ġà¦Ŀà¦°à¦¬":3471,"à¦¬à¦°à¦ĵ":3472,"Ġà¦¢à¦Ļ":3473,"à¦¬à¦²à¦Ł":3474,"Ġà¦ħà¦¬à¦®":3475,"Ġà¦ıà¦²à¦¤":3476,"Ġà¦ıà¦²à¦ķ":3477,"Ġà¦ıà¦²à¦¸":3478,"Ġà¦Ĩà¦¬à¦¶":3479,"Ġà¦īà¦łà¦²à¦¤":3480,"Ġà¦īà¦łà¦²à¦¦":3481,"à¦Ĩà¦Ļ":3482,"à¦Ĩà¦²à¦®":3483,"Ġà¦ħà¦¸à§İ":3484,"Ġà¦ħà¦¸à¦¹à¦¨":3485,"Ġà¦Ĩà¦ķà¦£":3486,"à¦ķà¦²à¦¨":3487,"à¦Ĺà¦²à¦¨":3488,"Ġà¦ĺà¦°à¦Ľ":3489,"Ġà¦ĵà¦°à¦«":3490,"à¦²à¦¤à¦²":3491,"Ġà¦ªà¦¥à¦ĵ":3492,"Ġà¦ľà¦²à¦Ĺ":3493,"Ġà¦ľà¦²à¦ĵ":3494,"Ġà¦ľà¦²à¦Ľà¦¬":3495,"à¦®à¦¤à¦²":3496,"à¦Łà¦ķà¦ķ":3497,"à¦ĩà¦¨à¦ķ":3498,"à¦¤à¦¬à¦Ĺ":3499,"à¦²à¦¬à¦¶à¦¤":3500,"à¦ħà¦¶":3501,"Ġà¦¶à¦¹à¦°à¦ĵ":3502,"à¦¯à¦¬à¦ĩ":3503,"Ġà¦¸à¦°à¦Ľ":3504,"Ġà¦¬à¦Ľà¦°à¦Ĺ":3505,"Ġà¦Ĩà¦¤à¦¤":3506,"à¦¤à¦ķà¦£":3507,"Ġà¦°à¦Ļà¦Ł":3508,"Ġà¦ķà¦¬à¦ļ":3509,"à¦®à¦¬à¦Ļ":3510,"Ġà¦ķà¦·à¦²":3511,"à¦Łà¦¤à¦ĩ":3512,"à¦Ŀà¦²à¦ıà¦ĩ":3513,"à¦ıà¦ĩà¦¸à¦¬":3514,"Ġà¦ĩà¦¨à¦ª":3515,"à¦¹à¦¨à¦Ĺà¦ŀ":3516,"à¦²à¦®à¦§":3517,"à¦¦à¦®à§Ł":3518,"Ġà¦¸à¦¹à¦ľà¦Ń":3519,"Ġà¦®à¦¤à¦¨à¦ĩ":3520,"Ġà¦ľà¦¬à¦ľà¦¬":3521,"à¦ķà¦ľà¦¨à¦¦":3522,"Ġà¦¤à¦ªà¦¨à¦¦":3523,"Ġà§§à§¬":3524,"à¦¯à¦®à¦£":3525,"à¦°à¦«à¦¤":3526,"Ġà¦Ĺà¦£à¦ľ":3527,"Ġà¦¸à¦°à¦²à¦Ń":3528,"à¦®à¦ªà¦ŀ":3529,"à¦ĩà¦¶à¦¤":3530,"Ġà§§à§¯à§¦à§«":3531,"à§§à§©":3532,"Ġà¦ļà¦¨à¦®à¦¨":3533,"à§ªà§«":3534,"Ġà¦°à¦®à¦°à¦®":3535,"Ġà¦Ĩà¦ĸà¦¡":3536,"Ġà¦ľà¦²à¦°à¦Ļ":3537,"Ġà¦Łà¦¹à¦²à¦¦":3538,"Ġà¦¸à¦¬à¦¸à¦®à§Łà¦ĩ":3539,"âĢ¨":3540,"Ġà¦§à¦ªà¦§à¦ª":3541,"Ġà§§à§¯à§«à§¨":3542,"à¦°à¦Ĩà¦ļà¦°à¦£":3543,"Ġà¦Ĩà¦Łà¦¨à¦®":3544,"Ġà¦Ĺà¦Łà¦Ĺà¦Ł":3545,"Ġà§ģ":3546,"à¦°à¦ı":3547,"à¦°à¦²à¦ķ":3548,"à¦°à¦ıà¦ķ":3549,"à¦¨à¦²à¦ķ":3550,"à¦¨à¦°à¦ķà¦®":3551,"à¦¨à¦ļà¦°":3552,"à¦¨à¦ľà¦°":3553,"à¦¨à¦®à¦£":3554,"à¦¨à¦Ĩà¦®à¦°":3555,"à¦¨à¦Ĩà¦ªà¦¨":3556,"à¦²à¦¹à¦²":3557,"à¦²à¦®à¦°":3558,"à¦²à¦ĺà¦°":3559,"à¦¤à¦ªà¦¨":3560,"à¦¤à¦ķà¦°":3561,"à¦¤à¦¸à¦¬à¦ĩ":3562,"à¦ķà¦ĺà¦°":3563,"à¦¯à¦Łà¦ķ":3564,"à¦¬à¦ıà¦ĩ":3565,"à¦¬à¦ļà¦°":3566,"à¦¬à¦īà¦¦":3567,"à¦¬à§Łà¦¬":3568,"Ġà¦ķà¦ķà¦Ł":3569,"à¦®à¦ı":3570,"à¦®à¦ªà¦ķ":3571,"Ġà¦¬à¦ļà¦¨":3572,"Ġà¦¬à¦ķà¦Ľ":3573,"Ġà¦Ĩà¦¹à¦²":3574,"Ġà¦Ĩà¦ĸà¦°":3575,"à¦Łà¦Ĺà¦²":3576,"à¦¸à¦ŀ":3577,"à¦¸à¦ķà¦°":3578,"à¦¸à¦ıà¦ķ":3579,"à¦¸à¦ıà¦ĩ":3580,"Ġà¦ªà¦¹":3581,"à¦Ľà¦¯":3582,"à¦Ľà¦®":3583,"à¦Ľà¦ĩ":3584,"Ġà¦¨à¦¬à¦¨":3585,"à¦ĩà¦§":3586,"à¦ĩà¦ıà¦ķà¦Ł":3587,"à¦¦à¦¡":3588,"à¦¦à¦Ń":3589,"à¦¦à¦«":3590,"à¦¦à¦¬à¦ª":3591,"à¦¦à¦ĺà¦¨":3592,"Ġà¦®à¦°à¦¨":3593,"Ġà¦®à¦ĩà¦¨":3594,"Ġà¦®à¦Ĺà¦ľà¦Ł":3595,"Ġà¦¦à¦²à¦ķ":3596,"Ġà¦¤à¦°à¦£":3597,"Ġà¦¤à¦²à¦¬":3598,"Ġà¦¤à¦ªà¦¸":3599,"Ġà¦¤à¦®à¦¸":3600,"Ġà¦¹à¦ĩà¦¨":3601,"à¦ªà¦²à¦ķ":3602,"à¦ªà¦ıà¦°":3603,"à¦ĸà¦¯":3604,"à¦ĸà¦§":3605,"à¦ĸà¦²à¦ķ":3606,"à¦ĸà¦®à§Ł":3607,"à¦ľà¦ĵà¦¯":3608,"à¦¶à¦ĸ":3609,"à¦¶à¦°à¦¤":3610,"à¦¶à¦ľà¦¨":3611,"Ġà¦ħà¦ķà¦²":3612,"Ġà¦ħà¦¤à¦¬à¦¡":3613,"Ġà¦Ĺà¦ł":3614,"Ġà¦Ĺà¦Ĺà¦²":3615,"à¦ļà¦ªà¦¦à¦¸":3616,"Ġà¦ļà¦ªà¦²":3617,"à¦·à¦«":3618,"à¦·à§Łà¦ķ":3619,"Ġà¦°à¦ª":3620,"Ġà¦°à¦£à¦ķ":3621,"Ġà¦°à¦¡à¦Ł":3622,"Ġà¦¶à¦Łà¦Ĺ":3623,"à¦§à¦¬à¦°":3624,"à¦§à¦¶à¦¤":3625,"Ġà¦ľà¦¹à¦°":3626,"Ġà¦ľà¦Ĺà¦¨":3627,"à¦¥à¦¦":3628,"à¦¥à¦ªà¦¤":3629,"à¦¹à¦Ļ":3630,"à¦¹à¦¬à¦¨":3631,"Ġà¦ıà¦ķà¦°à¦¤":3632,"à¦ĵà¦®":3633,"à¦ĵà¦¸":3634,"Ġà¦¥à¦ĩ":3635,"à¦łà¦«":3636,"à¦łà¦ķà¦¦":3637,"Ġà¦«à§ľ":3638,"Ġà¦īà¦¸":3639,"Ġà¦īà¦¸à¦ķ":3640,"Ġà¦ĸà¦ķ":3641,"Ġà¦ĵà§ľ":3642,"Ġà¦ĺà¦Łà¦ķ":3643,"Ġà¦®à¦¨à¦Ń":3644,"à¦īà¦ĩà¦¨":3645,"à¦īà¦²à¦Ĺ":3646,"à¦īà¦ĩà¦ļ":3647,"à¦ªà¦¨à¦¦":3648,"à¦®à¦¨à¦¨":3649,"Ġà¦Ĩà¦²à¦¨":3650,"à¦ľà¦¨à¦ĵ":3651,"à¦¬à¦¨à¦Ńà¦°":3652,"à¦°à¦¬à¦®à¦¯":3653,"Ġà¦®à¦¤à¦¬":3654,"Ġà¦ĩà¦¬":3655,"Ġà¦ĩà¦īà¦Ł":3656,"Ġà¦ĩà¦īà¦ľ":3657,"Ġà¦ķà¦°à¦²à¦Ń":3658,"Ġà¦Ŀà¦¨":3659,"Ġà¦Ŀà¦°à¦²":3660,"Ġà¦¬à¦¸à¦¤à¦¬":3661,"à¦ıà¦¨":3662,"à¦ıà¦®à¦¨à¦ĩ":3663,"à¦ıà¦¨à¦ı":3664,"à¦ķà¦Łà¦°":3665,"à¦ķà¦Łà¦¬à¦°":3666,"à¦¨à¦¤à¦¨":3667,"Ġà¦¨à¦¤à¦®":3668,"à¦Ĩà¦°à¦ĵ":3669,"à¦Ĩà§Łà¦¨":3670,"à¦²à¦ķà¦ķ":3671,"à¦²à¦ķà¦Ń":3672,"à¦ĩà¦²à¦Ĺ":3673,"Ġà¦ĺà¦°à¦¦":3674,"à¦ĸà¦²à¦¨":3675,"à¦°à¦ľà¦Ĺà§İ":3676,"à¦°à¦²à¦ıà¦ĩ":3677,"à¦¸à¦¬à¦¹":3678,"Ġà¦ľà¦²à¦Ľ":3679,"Ġà¦ľà¦²à¦ĸ":3680,"Ġà¦ľà¦²à¦¢":3681,"Ġà¦ħà¦ªà¦¶à¦¨":3682,"à¦ĩà¦¨à¦«":3683,"à¦¦à¦¨à¦ķ":3684,"Ġà¦ħà¦Ńà¦¯":3685,"Ġà¦ħà¦Ńà¦¦":3686,"à¦®à¦ķà¦¥":3687,"à¦ħà¦Ł":3688,"à¦¯à¦¬à¦¶à¦¤":3689,"à¦¨à¦¬à¦ķ":3690,"à¦¨à¦¬à¦ķà¦²":3691,"Ġà¦¬à¦ĩà¦¸":3692,"à¦²à¦¨à¦¦":3693,"Ġà¦®à¦¹à¦®":3694,"à¦°à¦ĵà¦ªà¦°":3695,"à¦°à¦¹à¦ĩ":3696,"à¦·à¦ķà¦ķ":3697,"Ġà¦ĸà¦¬à¦°à¦ĩ":3698,"Ġà¦²à¦ķà¦²à¦ķ":3699,"à¦Ŀà¦²à¦¸":3700,"Ġà¦Ĳà¦¨":3701,"à¦ªà¦¥à¦Ĺ":3702,"Ġà¦¬à¦īà¦Ŀ":3703,"à¦·à¦¤à¦ļ":3704,"Ġà¦ªà¦¤à¦Ļ":3705,"à¦¦à¦®à¦Ĺ":3706,"Ġà¦¦à¦°à¦ĸ":3707,"Ġà¦¬à§ľà¦ĩ":3708,"Ġà¦ĭà¦ľ":3709,"Ġà¦Ĺà§ľà¦Ĺà§ľ":3710,"à¦²à¦Ńà¦ª":3711,"à¦¨à¦Ńà¦¨":3712,"Ġà¦Ĺà¦£à¦¹à¦¤":3713,"Ġà¦ļà¦Łà¦ļà¦Ł":3714,"à§¦à§§":3715,"Ġà¦īà§İà¦ªà¦¨":3716,"Ġà¦īà§İà¦ķà¦Ł":3717,"Ġà¦Ĩà§ľà¦·":3718,"à¦®à¦¶à¦¹à¦°":3719,"à¦ľà¦Ĺà§İ":3720,"à¦ĸà¦ķà¦·":3721,"Ġà¦ıà¦ķà¦¦à¦®à¦ĩ":3722,"ĠĠčĊĠĠĠĠ":3723,"Ġà¦Ĩà¦Łà¦¶":3724,"Ġà§§à§¯à§®":3725,"à¦¨à¦ľà¦¨à¦ĩ":3726,"Ġà¦ķà¦Łà¦®à¦Ł":3727,"Ġà¦Ĩà§Łà¦¤":3728,"à¦ĩà¦«à¦¯":3729,"Ġà¦ĩà¦īà¦®":3730,"Ġà¦ĩà¦īà¦ıà¦¸":3731,"à§¬à§¦":3732,"à¦Ĩà¦¶à¦Ļ":3733,"à¦®à¦«à¦²à¦ķ":3734,"à¦Ĳà¦¶":3735,"Ġà¦Ķà¦·à¦§":3736,"Ġà¦īà¦ĩà¦Ļ":3737,"Ġà¦īà¦ĩà¦¨à¦ļ":3738,"Ġà§Ńà§«":3739,"Ġà¦ĸà¦²à¦ĸà¦²":3740,"à¦¤à¦°à¦¬à¦Ļ":3741,"à§ĩà§ĩ":3742,"à§ĩà¦ĥ":3743,"à¦°à¦§à¦¨":3744,"à¦°à¦ħà¦¨":3745,"à¦¨à¦°à¦®":3746,"à¦¨à¦Ĩà¦°":3747,"à¦¨à¦ĺà¦¨":3748,"à¦¨à¦ľà¦Ł":3749,"à¦¨à¦ıà¦ĸà¦¨":3750,"à¦²à¦Ńà¦°":3751,"à¦²à¦ıà¦ķà¦¦":3752,"à¦¤à¦®à¦ķ":3753,"à¦¤à¦¸à¦¨":3754,"à¦ķà¦¤à¦°":3755,"à¦ķà¦ľà¦¬":3756,"à¦¯à¦ªà¦°":3757,"à¦¯à¦¤à¦ķ":3758,"à¦¼à§Ĥ":3759,"à¦¬à¦ī":3760,"à¦®à¦Ļ":3761,"à¦®à¦¬à¦°":3762,"à¦®à¦ıà¦ĩ":3763,"Ġà¦¬à¦ļà¦¸":3764,"Ġà¦¸à¦ªà¦°":3765,"Ġà¦¸à¦°à¦£":3766,"à¦Łà¦°à¦¬":3767,"à¦¸à¦°à¦¤":3768,"à¦¸à¦ªà¦¨":3769,"à¦¸à¦Ĩà¦®":3770,"Ġà¦ªà§Łà¦¸":3771,"à¦Ľà¦ļ":3772,"à¦Ľà¦ĵ":3773,"Ġà¦¨à¦ļ":3774,"Ġà¦¨à¦¬à¦¸":3775,"à¦ĩà¦£":3776,"à¦ĩà¦ī":3777,"à¦ĩà¦¤à¦¬":3778,"à¦ĩà¦īà¦¡":3779,"Ġà¦®à¦Ł":3780,"Ġà¦®à¦°à¦¸":3781,"Ġà¦®à¦Łà¦ķ":3782,"Ġà¦®à¦°à¦¦":3783,"Ġà¦®à§Łà¦¨":3784,"Ġà¦®à¦ĵà¦ķ":3785,"Ġà¦ıà¦Ļ":3786,"Ġà¦ıà¦ªà¦°":3787,"Ġà¦ıà¦¨à¦ĵ":3788,"Ġà¦ıà¦®à¦ª":3789,"Ġà¦ıà¦¶à¦°":3790,"Ġà¦¤à¦ĸ":3791,"Ġà¦¤à¦¹à¦¬":3792,"Ġà¦¹à¦ĩà¦¯":3793,"Ġà¦¹à¦Łà¦¤":3794,"à¦ªà¦¸à¦¬à¦ķ":3795,"à¦ªà¦īà¦ªà¦¨":3796,"à¦ľà¦ľ":3797,"à¦¡à¦¤":3798,"à¦¡à¦īà¦ĩà¦ļ":3799,"à¦¶à¦°à¦ķ":3800,"à¦¶à¦ļà¦¨":3801,"à¦Ĺà¦¶":3802,"à¦Ĺà¦¸à¦¬à¦ĩ":3803,"Ġà¦¯à¦ľ":3804,"à¦ļà¦ĵà¦¡":3805,"à¦ļà¦¦à¦¶":3806,"Ġà¦ļà¦ĵà§ľ":3807,"à¦·à¦¦à¦°":3808,"à§Łà¦ıà¦ķà¦Ł":3809,"Ġà¦¶à¦Ł":3810,"Ġà¦¶à¦ļ":3811,"Ġà¦¶à¦°à¦®":3812,"Ġà¦¶à¦¬à¦¨à¦®":3813,"à¦§à¦ªà¦°":3814,"à¦§à¦ªà¦¤":3815,"Ġà¦Ńà¦°à¦Ľ":3816,"Ġà¦Ńà¦¨à¦Ńà¦¨":3817,"Ġà¦ľà¦Ĺà¦¦":3818,"à¦¥à¦ĵ":3819,"à¦¹à¦®à¦¨":3820,"Ġà¦ıà¦ķà¦¤à¦°à¦«":3821,"à¦ĵà¦ª":3822,"à¦£à¦ĩ":3823,"à¦£à¦¶":3824,"à¦£à¦²à¦¤":3825,"Ġà¦Ľà¦ª":3826,"Ġà¦¬à¦²à¦°":3827,"Ġà¦¬à¦²à¦¦":3828,"à¦łà¦Ĺ":3829,"Ġà¦Ĩà¦°à¦ª":3830,"Ġà¦Ĩà¦°à¦¨à¦¬":3831,"à¦Ńà¦¡":3832,"à¦Ńà¦Ĺ":3833,"Ġà¦«à¦²à¦¨":3834,"Ġà¦īà¦Łà¦ķ":3835,"Ġà¦īà¦ĩà¦ķ":3836,"Ġà¦īà¦ĩà¦¦":3837,"Ġà¦ĸà§Ł":3838,"Ġà¦ĸà¦¨à¦¨":3839,"Ġà¦ĵà¦Ŀ":3840,"Ġà¦§à¦ĩà¦°":3841,"Ġà¦ħà¦¨à¦®":3842,"Ġà¦ĺà¦¨à¦¤":3843,"à§ľà¦®":3844,"Ġà¦®à¦¨à¦ĩ":3845,"Ġà¦®à¦¨à¦ĵ":3846,"Ġà¦®à¦¨à¦®à¦°":3847,"Ġà¦®à¦¨à¦¨à¦¶":3848,"à¦Ŀà¦ª":3849,"à¦īà¦¶":3850,"à¦īà¦ŀ":3851,"à¦īà¦Łà¦°":3852,"à¦īà¦²à¦Ł":3853,"à¦īà¦Ńà¦¯":3854,"à¦īà¦Ńà§Ł":3855,"Ġà¦Ĩà¦Ľà¦²":3856,"Ġà¦ıà¦ĩà¦Ĺ":3857,"à¦®à¦¨à¦¦":3858,"à¦®à¦¨à¦Ń":3859,"à¦ľà¦¨à¦¬":3860,"à¦ľà¦¨à¦®":3861,"à¦¬à¦¨à¦¸":3862,"à¦¬à¦¨à¦Ĺ":3863,"à¦°à¦¬à¦ķ":3864,"Ġà¦ĩà¦Ľ":3865,"Ġà¦ĩà§Ł":3866,"Ġà¦ĩà¦°à¦¤":3867,"Ġà¦¹à¦²à¦®":3868,"à¦°à¦£à¦®":3869,"à¦°à¦£à¦ª":3870,"à¦°à¦£à¦ªà¦¤":3871,"Ġà¦ıà¦¸à¦Ľ":3872,"Ġà¦ķà¦°à¦²à¦ľ":3873,"Ġà¦ķà¦°à¦²à¦ı":3874,"à¦ĺà¦Łà¦ķ":3875,"Ġà¦Ĩà¦Ĺà¦¤":3876,"Ġà¦ķà¦°à¦¤à¦²":3877,"à¦ıà¦ķà¦¤":3878,"à¦ıà¦ĩà¦Ł":3879,"à¦ıà¦¸à¦¸":3880,"Ġà¦ľà¦¨à¦¬à¦¸à¦¤":3881,"Ġà¦Ĺà¦²à¦²":3882,"à¦ķà¦Łà¦®à¦¯":3883,"à¦·à¦£à¦¬":3884,"Ġà¦īà¦łà¦²à¦ıà¦ĩ":3885,"à¦Ĩà¦ł":3886,"à¦²à¦ķà¦¦":3887,"Ġà¦¬à¦¨à¦¬":3888,"à¦ķà¦²à¦¬":3889,"à¦¶à¦¨à¦ķ":3890,"à¦Ĺà¦²à¦Ĺ":3891,"à¦Ĺà¦²à¦¬à¦¨":3892,"Ġà¦¹à¦¤à¦ļà¦ķ":3893,"Ġà¦ĺà¦°à¦¬à¦¨":3894,"à¦ĸà¦²à¦®":3895,"Ġà¦ªà¦¥à¦ĺ":3896,"Ġà¦¹à¦łà¦ķ":3897,"Ġà¦ĵà¦łà¦Ľ":3898,"à¦ķà¦¤à¦Ł":3899,"à¦¤à¦¨à¦Ł":3900,"à¦¤à¦¨à¦ĩ":3901,"à¦°à¦¸à¦®":3902,"à¦°à¦¸à¦Ń":3903,"Ġà¦Ĩà¦¨à¦¸":3904,"Ġà¦ľà¦²à¦ĩ":3905,"Ġà¦ľà¦²à¦Ń":3906,"Ġà¦ľà¦²à¦ļà¦ķ":3907,"Ġà¦ľà¦²à¦®à¦Ĺ":3908,"Ġà¦ħà¦ªà¦¦":3909,"Ġà¦ĵà¦ªà¦°à¦¦":3910,"à¦ĩà¦¨à¦°":3911,"à¦ĩà¦¨à¦ĵà¦¯":3912,"à¦¤à¦¬à¦¯":3913,"à¦²à¦¬à¦ķ":3914,"à¦ħà¦·":3915,"à¦ħà¦¬à¦¨":3916,"à¦ħà¦¬à¦¸":3917,"Ġà¦¸à¦°à¦·":3918,"Ġà¦ķà¦²à¦Ł":3919,"à¦²à¦¨à¦ļ":3920,"à¦°à¦¦à¦¯":3921,"à¦°à¦¹à¦¨":3922,"à¦¤à¦ķà§ľ":3923,"à¦¤à¦ķà¦°à¦£":3924,"Ġà¦°à¦ĵà¦¶à¦¨à¦ĵ":3925,"Ġà¦ıà¦ķà¦ľà¦¨à¦ĵ":3926,"à¦¯à¦ķà¦¥":3927,"à¦ļà¦ķà¦£":3928,"à¦ļà¦²à¦ª":3929,"à¦ĩà¦Łà¦Ĺ":3930,"à¦Łà¦²à¦®":3931,"Ġà¦ħà¦¥à¦°":3932,"à¦¬à¦¸à¦®":3933,"Ġà¦ħà¦ķà¦¸":3934,"à¦Ĺà¦ľà¦ĸ":3935,"à¦Ĺà¦ľà¦Ĺ":3936,"Ġà¦¦à¦²à¦Ĺ":3937,"à¦¦à§Łà¦¬":3938,"à¦Ŀà¦²à¦ª":3939,"à¦¸à¦®à¦£":3940,"à¦¬à¦ķà¦¯":3941,"Ġà¦ķà¦¨à¦Ń":3942,"à¦ķà¦ķà¦¥":3943,"à¦²à¦®à¦£":3944,"Ġà¦ıà¦¨à¦¸":3945,"Ġà¦Ĩà¦¦à¦¤":3946,"Ġà¦Ĩà¦ªà¦²":3947,"Ġà¦¶à¦¤à¦ķà¦°":3948,"à¦ĩà¦Ńà¦ĵà¦¯":3949,"Ġà¦Ĩà¦¹à¦°à¦£":3950,"à¦¬à¦¶à¦¤":3951,"à¦°à¦«à¦°":3952,"à¦Łà¦®à¦¸":3953,"à¦¨à¦Ńà¦Ļ":3954,"à¦Ŀà¦°à¦Ŀà¦°":3955,"à¦¨à¦ªà¦¤à¦¨":3956,"à¦°à¦®à¦£à¦ķ":3957,"Ġà¦®à¦¶à¦Ĺ":3958,"à§¨à§Ń":3959,"Ġà¦Ĩà¦Łà¦¦à¦¶":3960,"Ġà¦Ŀà¦ķà¦®à¦ķ":3961,"Ġà¦¦à¦ĸà¦²à¦¦":3962,"à§§à§®":3963,"Ġà¦īà¦ªà¦ķà¦°à¦£":3964,"à§ªà§Ń":3965,"à¦Ĺà¦Ńà¦Ļ":3966,"Ġà¦¶à¦ĵà¦ķà¦¤à¦ķ":3967,"à§¬à§®":3968,"à¦¬à§Łà¦¸":3969,"Ġà¦¦à¦«à¦¤à¦°":3970,"Ġà¦ľà¦Ĺà§İà¦Ł":3971,"Ġà¦Ĩà¦īà¦Łà¦ª":3972,"Ġà¦Ŀà¦Łà¦ªà¦Ł":3973,"Ġà§«à§¦":3974,"Ġà¦Ľà§Łà¦Ł":3975,"à¦ĭà¦¤":3976,"Ġà¦¹à¦ľà¦°à¦¤":3977,"à¦ľà¦īà¦¦à¦¦":3978,"à¦Īà¦¶":3979,"à¦ķà¦¸à¦¬à¦ľ":3980,"âĢ¨čĊč":3981,"Ġà¦ıà¦¨à¦ĵà¦¸":3982,"à¦°à¦²à¦¤":3983,"à¦°à¦ıà¦ķà¦Ł":3984,"à¦°à¦¸à¦¬à¦ķ":3985,"à¦¨à¦°à¦¤":3986,"à¦¨à¦®à¦²":3987,"à¦¨à¦ļà¦¨":3988,"à¦¨à¦ĺà¦°":3989,"à¦²à¦ł":3990,"à¦²à¦°à¦ķ":3991,"à¦²à¦Ĩ":3992,"à¦²à¦ľà¦¯":3993,"à¦²à¦ıà¦¬":3994,"à¦²à¦ıà¦ĸà¦¨":3995,"à¦²à¦ħà¦ľ":3996,"à¦¤à¦§":3997,"à¦¤à¦®à¦¯":3998,"à¦¤à¦Ĺà¦¤":3999,"à¦¤à¦ªà¦ķ":4000,"à¦¤à¦ıà¦ĩ":4001,"à¦ķà¦Ŀ":4002,"à¦ķà¦¸à¦¨":4003,"à¦ķà¦Ĩà¦®":4004,"à¦ķà¦ıà¦ĩ":4005,"Ġà¦ķà¦ªà¦°":4006,"à¦®à¦®à¦¯":4007,"à¦®à¦§à¦¨":4008,"à¦®à¦ªà¦¥":4009,"à¦®à¦ħà¦¨":4010,"Ġà¦¬à¦°à¦¬":4011,"Ġà¦Ĩà¦ĩà¦ķ":4012,"Ġà¦Ĩà¦īà¦²":4013,"Ġà¦Ĩà¦ĵà§ľ":4014,"Ġà¦¸à§Ł":4015,"Ġà¦¸à¦Łà¦ķ":4016,"Ġà¦¸à¦ĩà¦¯":4017,"Ġà¦¸à¦Ĺà¦°":4018,"à¦Łà¦¥":4019,"à¦Łà¦ĺ":4020,"à¦Łà¦°à¦Ł":4021,"à¦¸à¦ĺà¦°":4022,"Ġà¦ªà¦Łà¦ķ":4023,"à¦Ľà§Ł":4024,"à¦Ľà¦²à¦¤":4025,"Ġà¦¨à¦Ĺà¦£":4026,"à¦ĩà¦Ļ":4027,"à¦ĩà¦¶à¦¨":4028,"à¦ĩà¦Ĩà¦°":4029,"à¦¦à¦¶à¦Ł":4030,"Ġà¦®à¦ĩ":4031,"Ġà¦®à¦ļ":4032,"Ġà¦¦à¦ĸ":4033,"Ġà¦ıà¦¥":4034,"Ġà¦ıà¦£":4035,"Ġà¦ıà¦¤à¦°":4036,"Ġà¦¤à¦°à¦¤":4037,"Ġà¦¤à¦¨à¦¯":4038,"Ġà¦¤à¦ķà¦¤à¦ķ":4039,"Ġà¦¹à¦°à¦£":4040,"à¦ĸà¦¶":4041,"à¦ľà§İ":4042,"à¦ľà¦¹à¦°":4043,"à¦ľà§Łà¦¨":4044,"à¦ľà¦ķà¦¸":4045,"à¦¡à¦¡":4046,"à¦¡à¦ĵà§Ł":4047,"à¦¶à¦²à¦¯":4048,"Ġà¦ħà¦°à¦ķ":4049,"Ġà¦ħà¦¹à¦°":4050,"Ġà¦ħà¦¹à¦¨":4051,"à¦Ĺà¦ļ":4052,"à¦Ĺà¦®à¦ķ":4053,"à¦Ĺà¦Ńà¦°":4054,"à¦·à¦¡":4055,"à§Łà¦ľ":4056,"à§Łà¦ĵ":4057,"à§Łà¦¤à¦¨":4058,"à§Łà¦ıà¦ķ":4059,"Ġà¦°à¦¶à¦®":4060,"Ġà¦°à¦ĩà¦®":4061,"Ġà¦°à¦ĩà¦ļ":4062,"à¦§à¦®à¦¯":4063,"à¦§à¦ļà¦¨":4064,"à¦§à¦¬à¦¦":4065,"Ġà¦ľà¦¸":4066,"Ġà¦ľà¦ª":4067,"à¦¥à¦¡":4068,"à¦¹à¦²à¦ķ":4069,"à¦¹à¦ļà¦°":4070,"à¦¹à§Łà¦¤":4071,"Ġà¦ıà¦ķà¦®à¦¨":4072,"Ġà¦ıà¦ķà¦ĺà¦°":4073,"Ġà¦ıà¦ķà¦·à¦Ł":4074,"à¦ĵà¦¬":4075,"à¦ĵà¦Ń":4076,"à¦£à§Ł":4077,"Ġà¦¬à¦²à¦¨":4078,"Ġà¦¬à¦²à¦Ł":4079,"Ġà¦²à¦Ľ":4080,"Ġà¦²à¦ĩà¦¯":4081,"à¦łà¦ĸ":4082,"à¦łà¦ľ":4083,"à¦łà¦¨à¦Ł":4084,"à¦Ńà¦¶":4085,"Ġà¦«à§Ł":4086,"Ġà¦«à¦²à¦¤":4087,"Ġà¦«à¦ľà¦°":4088,"Ġà¦īà¦«":4089,"Ġà¦ĸà¦¶":4090,"Ġà¦ĸà¦°à¦ĸà¦°":4091,"à¦Ļà¦ķ":4092,"Ġà¦ĵà¦ľ":4093,"Ġà¦ĵà§ľà¦¨":4094,"Ġà¦ħà¦¨à§ľ":4095,"à¦ĸà¦¨à¦ĩ":4096,"à¦ĸà¦¨à¦ĵ":4097,"Ġà¦ªà¦°à¦ª":4098,"à¦°à¦¤à¦ķà¦°":4099,"à¦«à¦¦":4100,"à§ľà¦¸":4101,"Ġà¦®à¦¨à¦ľ":4102,"à¦īà¦ĸ":4103,"à¦īà¦·":4104,"à¦īà¦ĺ":4105,"à¦īà¦Łà¦¨":4106,"à¦īà¦¬à¦¯":4107,"Ġà¦Ĩà¦Ľà¦®":4108,"à¦ªà¦¨à¦¬":4109,"Ġà¦¸à¦®à¦·":4110,"Ġà¦¸à¦¬à¦ĸ":4111,"Ġà¦¸à¦¬à¦°à¦ķà¦®":4112,"à¦ľà¦¨à¦Ł":4113,"à¦¤à¦°à¦¹":4114,"à¦¤à¦°à¦ŀ":4115,"à¦¤à¦°à¦ªà¦¶":4116,"à§İà¦°":4117,"à§İà¦¸à¦¨":4118,"Ġà¦ĩà¦¡":4119,"Ġà¦ĩà¦·":4120,"Ġà¦ĩà¦Ĺà¦¨":4121,"Ġà¦¹à¦²à¦¸":4122,"Ġà¦¹à¦²à¦Ĺ":4123,"à¦°à¦ķà¦¯":4124,"Ġà¦ķà¦°à¦²à¦¶":4125,"Ġà¦Ĩà¦ľà¦Ĺ":4126,"à¦¬à¦°à¦®":4127,"à¦ĺà¦ª":4128,"à¦ıà¦¯":4129,"à¦ıà¦¨à¦ª":4130,"Ġà¦ľà¦¨à¦Ĺ":4131,"Ġà¦Ĺà¦²à¦¨":4132,"à¦¬à¦²à¦Ĺ":4133,"à¦ķà¦Łà¦¤à¦®":4134,"à¦·à¦£à¦Ł":4135,"Ġà¦īà¦łà¦²à¦ª":4136,"Ġà¦īà¦łà¦²à¦ıà¦ķ":4137,"à¦Ĩà¦°à¦¨":4138,"à¦Ĩà¦®à¦¤":4139,"Ġà¦ħà¦¸à¦Ļ":4140,"Ġà¦ħà¦¸à¦¤à¦°":4141,"à¦²à¦ķà¦¬":4142,"à¦²à¦ķà¦ª":4143,"à¦²à¦ķà¦ļ":4144,"à¦²à¦ķà¦£":4145,"à¦°à¦®à¦¤":4146,"à¦ķà¦²à¦Ļ":4147,"à¦¶à¦¨à¦ıà¦°":4148,"à¦Ĺà¦²à¦®":4149,"à¦Ĺà¦²à¦ĵ":4150,"à¦Ĺà¦²à¦®à¦¯":4151,"à¦Ĺà¦²à¦Ĺà¦ŀ":4152,"à¦ĩà¦²à¦ĸ":4153,"à¦ĩà¦²à¦¡":4154,"à¦²à¦¤à¦¬":4155,"Ġà¦ĵà¦łà¦¤":4156,"Ġà¦¸à¦¨à¦¦":4157,"Ġà¦¸à¦¨à¦¦à¦ªà¦¤":4158,"à¦¸à¦¬à¦ļ":4159,"Ġà¦ıà¦¤à¦¬":4160,"à¦¤à¦¨à¦ķ":4161,"à¦°à¦¸à¦¹":4162,"Ġà¦ľà¦²à¦¨":4163,"Ġà¦ľà¦²à¦Ľà¦Ł":4164,"à¦¹à¦¸à¦ĵ":4165,"Ġà¦¬à¦°à¦ŀ":4166,"Ġà¦ıà¦®à¦¨à¦¸à¦®à¦¯":4167,"Ġà¦ħà¦ªà¦Ł":4168,"Ġà¦ħà¦ªà¦¹à¦°à¦£":4169,"Ġà¦ĵà¦ªà¦°à¦¨":4170,"à¦¦à¦¨à¦ĩ":4171,"à¦¦à¦¨à¦Ĺ":4172,"à¦ħà¦Ļ":4173,"Ġà¦¶à¦¹à¦°à¦ĩ":4174,"à¦¯à¦¬à¦¤":4175,"à¦¯à¦¬à¦ĩà¦¯":4176,"Ġà¦īà¦¦à¦Ń":4177,"à¦¨à¦¬à¦¸":4178,"à¦¨à¦¬à¦¹":4179,"à¦¨à¦¬à¦Ľà¦°":4180,"Ġà¦ķà¦®à¦ĩ":4181,"Ġà¦īà¦ªà¦®à¦¹":4182,"Ġà¦¶à¦°à§İà¦ķ":4183,"à¦²à¦¨à¦ª":4184,"Ġà¦Ĩà¦¤à¦¶à¦¬":4185,"Ġà¦®à¦¹à¦¤":4186,"Ġà¦®à¦¹à¦¡":4187,"à¦°à¦¦à¦ķ":4188,"Ġà¦¸à¦¹à¦ļà¦°":4189,"Ġà¦¸à¦¹à¦¨à¦¶":4190,"Ġà¦¨à§Łà¦¬":4191,"Ġà¦¨à§Łà¦ıà¦ķ":4192,"Ġà¦ıà¦ķà¦ľà¦¨à¦ĩ":4193,"à¦¯à¦¤à¦ĩ":4194,"Ġà¦¯à¦¤à¦Ĺ":4195,"à¦ĩà¦Łà¦Ł":4196,"à¦ĩà¦Łà¦Ń":4197,"à¦¨à¦¨à¦¦":4198,"Ġà¦ķà¦¬à¦Ľà¦°":4199,"Ġà¦ªà¦¦à¦¸":4200,"Ġà¦²à¦ķà¦ª":4201,"à¦¦à§Łà¦ĵ":4202,"à¦ıà¦ĩà¦ļà¦¡":4203,"à¦°à¦ļà¦°":4204,"Ġà¦ħà¦²à¦°":4205,"Ġà¦ĩà¦¨à¦¡":4206,"à¦¤à¦¤à¦®":4207,"à¦¹à¦®à§Ł":4208,"Ġà¦¦à¦¶à¦¦":4209,"Ġà¦¬à¦īà¦Ń":4210,"à¦·à¦¤à¦Ł":4211,"à¦²à¦¸à¦ķ":4212,"à¦°à¦Ĺà¦ŀ":4213,"Ġà¦ıà¦¨à¦ľ":4214,"Ġà¦¨à¦°à¦®à¦Ń":4215,"à¦ķà¦¶à¦Ł":4216,"Ġà¦Ĩà¦ªà¦Ĺ":4217,"à¦Ĺà¦®à¦ŀ":4218,"Ġà§§à§§à§":4219,"Ġà¦Ĩà¦§à¦ª":4220,"Ġà¦§à¦¨à¦¸à¦®":4221,"Ġà¦¨à¦¬à¦®":4222,"Ġà¦¨à¦¬à¦¬à¦°":4223,"à§¦à§©":4224,"Ġà¦īà§İà¦ªà¦¤":4225,"à¦®à¦¸à¦Ń":4226,"à¦Łà¦¸à¦¸":4227,"à§Ŀà¦ļ":4228,"Ġà¦²à§ľà¦¬":4229,"à¦ļà§Łà¦ªà¦¤":4230,"Ġà¦ªà¦²à¦ķà¦¹":4231,"à§Ńà§®":4232,"à§¨à§«":4233,"ĠĠĠĠĠ":4234,"ĠĠĠĠĠĠ":4235,"Ġà¦ıà¦¡à¦®":4236,"à¦¬à¦Łà¦Ĺ":4237,"Ġà¦Ĩà¦ĩà¦ı":4238,"Ġà¦īà§İà¦¸à¦¬à¦®":4239,"Ġà§§à§¯à§¯":4240,"à¦¦à¦ªà¦¤à¦¨":4241,"à§°à¦¤":4242,"à¦®à¦Ŀà¦®":4243,"à¦īà¦¡à¦Ĺ":4244,"Ġà¦ħà¦¹à¦Ļ":4245,"Ġà¦ķà¦¬à¦°à¦¸":4246,"Ġà¦ļà¦°à¦®à¦Ń":4247,"Ġà§ªà§¦":4248,"à¦·à§Łà¦Ł":4249,"Ġà¦ķà¦¤à¦¬à¦¡":4250,"Ġà§©à§§":4251,"à¦¤à¦ļà¦°à¦¦":4252,"Ġà§¨à§¦à§§à§Ń":4253,"Ġà§¨à§¦à§¦à§¦":4254,"Ġà§¨à§¦à§«à§¦":4255,"à¦Ĳà¦ķ":4256,"Ġà¦ĺà¦·à¦Ľ":4257,"Ġà¦Ķà¦ľ":4258,"Ġà¦ıà¦«à¦¬":4259,"Ġà§§à§¯à§Ńà§«":4260,"à¦ķà¦ĸà¦¨à¦ĵ":4261,"Ġà¦¶à¦°à§İà¦ļà¦¨":4262,"Ġà¦¹à¦°à¦«à¦Ĺ":4263,"Ġà¦«à¦¸à¦«à¦°":4264,"à¦Ĭà¦°":4265,"à§»à¦¾":4266,"Ġà¦¬à¦°à¦ķà¦¤":4267,"à¦°à¦ªà¦¨":4268,"à¦°à¦Ĺà¦²":4269,"à¦°à¦Ĩà¦°":4270,"à¦°à¦Ŀà¦°":4271,"à¦°à¦īà¦ĩà¦¨":4272,"à¦¨à¦ªà¦°":4273,"à¦¨à¦Ĩ":4274,"à¦¨à¦¨à¦ķ":4275,"à¦¨à¦ıà¦ĸ":4276,"à¦¨à¦Ĩà¦Ĺ":4277,"à¦¨à¦īà¦¦":4278,"à¦¨à¦īà¦¤":4279,"à¦²à¦ŀ":4280,"à¦²à¦²à¦ķ":4281,"à¦²à¦ĵà§Ł":4282,"à¦²à¦¸à¦«":4283,"à¦²à¦¢":4284,"à¦²à¦¯à¦¦":4285,"à¦²à¦Ĩà¦²":4286,"à¦²à¦Ĩà¦Ĺ":4287,"à¦¤à¦ľà¦¨":4288,"à¦¤à§İà¦ķ":4289,"à¦¤à¦ļà¦ķ":4290,"à¦¤à¦ıà¦ķà¦Ł":4291,"à¦¤à¦¸à¦Ļ":4292,"à¦ķà¦ĵà¦¯":4293,"à¦ķà¦¨à¦ķ":4294,"à¦ķà¦ıà¦ķ":4295,"à¦ķà¦ªà¦ķ":4296,"à¦ķà¦¸à¦¬à¦ĩ":4297,"à¦ķà¦Ĩà¦īà¦Ł":4298,"à¦¯à¦¡":4299,"à¦¯à¦£":4300,"à¦¯à¦¬à¦¨":4301,"à¦¯à¦°à¦ķ":4302,"à¦¯à¦Ĺà¦¤":4303,"à¦¯à¦ļà¦°":4304,"à¦¬à¦¸à¦¬":4305,"à¦¬à¦¦à¦°":4306,"à¦¬à¦¸à¦¬à¦ĩ":4307,"Ġà¦ķà¦ĩà¦²":4308,"à¦®à¦¦à¦°":4309,"à¦®à¦Ĺà¦¤":4310,"à¦®à¦®à¦°":4311,"à¦®à¦ıà¦ķà¦Ł":4312,"à¦®à¦¶à¦ķ":4313,"à¦®à¦«à¦²":4314,"Ġà¦¬à¦ª":4315,"Ġà¦Ĩà¦ĩà¦Ľ":4316,"Ġà¦Ĩà¦ĵà¦¤":4317,"Ġà¦¸à§ľ":4318,"Ġà¦¸à¦ªà¦¨":4319,"Ġà¦¸à¦ķà¦°":4320,"Ġà¦¸à¦¸à¦ª":4321,"Ġà¦¸à¦ĩà¦¬":4322,"à¦Łà¦ı":4323,"à¦Łà¦¸à¦¤":4324,"à¦Łà¦¸à¦¬à¦ĩ":4325,"à¦Łà¦Ĩà¦ª":4326,"à¦¸à¦¨à¦¬":4327,"à¦¸à¦¹à¦¯":4328,"Ġà¦ªà¦¸":4329,"Ġà¦ªà¦ĩ":4330,"Ġà¦ªà¦¦à¦¯":4331,"à¦Ľà¦Ĩà¦®":4332,"Ġà¦¨à¦¶":4333,"Ġà¦¨à¦ĵà¦°":4334,"à¦ĩà¦°à¦¨":4335,"à¦ĩà¦®à¦²":4336,"à¦ĩà¦®à¦°":4337,"à¦ĩà¦¸à¦Ł":4338,"à¦ĩà¦ľà¦¯":4339,"à¦ĩà¦¶à¦Ł":4340,"à¦ĩà¦ıà¦ķà¦ľà¦¨":4341,"à¦ĩà¦ħà¦ķ":4342,"à¦¦à¦ĸ":4343,"à¦¦à¦ļ":4344,"à¦¦à¦ªà¦¨":4345,"à¦¦à¦°à¦¬":4346,"à¦¦à¦ĸà¦²":4347,"à¦¦à¦¸à¦¬à¦ĩ":4348,"Ġà¦®à§Ł":4349,"Ġà¦®à¦°à¦®":4350,"Ġà¦®à¦²à¦¤":4351,"Ġà¦¦à¦¹":4352,"Ġà¦¦à¦ĩà¦¯":4353,"Ġà¦ıà§Ł":4354,"Ġà¦ıà¦§":4355,"Ġà¦ıà¦®à¦¬":4356,"Ġà¦¤à¦¯":4357,"Ġà¦¹à¦ª":4358,"à¦ªà¦«":4359,"à¦ªà¦ıà¦ķ":4360,"à¦ªà¦®à§Ł":4361,"à¦ªà¦¸à¦¬à¦ĩ":4362,"à¦ĸà¦¹":4363,"à¦ĸà¦«":4364,"à¦ĸà¦®à¦²":4365,"à¦ĸà¦¸à¦¬":4366,"à¦ĸà¦Ńà¦Ļ":4367,"à¦ľà¦ķà¦¤":4368,"à¦ľà¦®à¦¯":4369,"à¦ľà¦ªà¦¤":4370,"à¦¡à¦²à¦ķ":4371,"à¦¶à¦°à¦®":4372,"à¦¶à¦¸à¦¬à¦ĩ":4373,"Ġà¦ħà¦ķà¦°":4374,"Ġà¦ħà¦°à¦®":4375,"à¦Ĺà¦§":4376,"à¦Ĺà¦¤à¦°":4377,"à¦Ĺà¦¸à¦¬":4378,"à¦Ĺà¦®à¦¯":4379,"à¦Ĺà¦ĺà¦¨":4380,"Ġà¦ķà¦°à¦¨":4381,"Ġà¦ķà¦°à¦¸":4382,"Ġà¦Ĺà¦ĺ":4383,"Ġà¦Ĺà¦£à¦¤":4384,"Ġà¦Ĺà¦¦à¦Ĺ":4385,"à¦ļà¦ĵ":4386,"à¦ļà¦¤à¦°":4387,"à¦ļà¦ľà¦¨à¦ķ":4388,"Ġà¦ļà¦ļ":4389,"Ġà¦ļà¦ĩà¦²":4390,"à¦·à¦²":4391,"à§Łà¦ľà¦¨":4392,"Ġà¦°à¦Ĺà¦°":4393,"Ġà¦°à¦£à¦¬":4394,"à¦§à¦¬à¦¨":4395,"à¦§à¦Ĺà¦²":4396,"à¦§à¦¨à¦ĵ":4397,"à¦§à¦¨à¦ķ":4398,"à¦§à¦¨à¦Ł":4399,"à¦§à¦¸à¦®":4400,"à¦¹à¦ĵà¦¯":4401,"à¦¹à¦¨à¦¤":4402,"à¦¹à¦®à¦¯":4403,"Ġà¦ıà¦ķà¦ĺà¦¨":4404,"Ġà¦Ĩà¦®à¦¡":4405,"à¦ĵà¦ł":4406,"à¦£à¦²":4407,"à¦£à¦ł":4408,"à¦£à¦ªà¦¤":4409,"à¦£à¦Ĺà¦¤":4410,"Ġà¦Ľà¦¸":4411,"Ġà¦¬à¦²à¦ķ":4412,"Ġà¦²à¦¹":4413,"Ġà¦²à¦Łà¦ķ":4414,"à¦łà¦ĩ":4415,"à¦łà¦ļ":4416,"à¦łà¦§":4417,"à¦łà¦ķà¦ķ":4418,"Ġà¦Ĩà¦°à¦ªà¦¨":4419,"Ġà¦Ĩà¦°à¦ľà¦¨":4420,"à¦Ńà¦¸à¦¬":4421,"à¦Ńà¦°à¦¶":4422,"à¦Ńà¦°à¦¯":4423,"Ġà¦«à¦·":4424,"Ġà¦«à¦²à¦®":4425,"Ġà¦«à¦ķà¦«":4426,"Ġà¦īà¦¦à¦°":4427,"Ġà¦ĸà§ľà¦ķ":4428,"Ġà¦ĵà¦ĵ":4429,"Ġà¦ħà¦¨à¦Ĺ":4430,"Ġà¦ħà¦¨à¦§":4431,"Ġà¦ªà¦°à¦¶à¦®à¦£":4432,"Ġà¦¬à¦²à¦²à¦Ĩà¦®":4433,"à¦°à¦¤à¦Ń":4434,"à¦°à¦¤à¦ªà¦ķ":4435,"à¦«à¦¹":4436,"à¦«à¦²à¦ķ":4437,"à§ľà¦Ł":4438,"à§ľà¦Ĺ":4439,"Ġà¦®à¦¨à¦¯":4440,"Ġà¦®à¦¨à¦ª":4441,"Ġà¦Łà§Łà¦²":4442,"à¦īà¦¹":4443,"à¦īà§ľ":4444,"à¦īà¦¨à¦²":4445,"à¦īà¦ıà¦°":4446,"à¦ªà¦°à¦Ł":4447,"Ġà¦īà¦łà¦¨":4448,"à¦®à¦¨à¦¤":4449,"à¦®à¦¨à¦ľ":4450,"Ġà¦¸à¦¬à¦²":4451,"Ġà¦Ĩà¦¸à¦¨à¦Ł":4452,"à¦¤à¦°à¦ľ":4453,"Ġà¦¡à¦¨":4454,"à¦¬à¦¨à¦ļ":4455,"à¦¬à¦¨à¦ļà¦ķ":4456,"à¦°à¦¬à¦¸":4457,"à¦°à¦¬à¦Ń":4458,"à§İà¦¶":4459,"Ġà¦ĩà¦Ĺ":4460,"Ġà¦ĩà¦Łà¦¸":4461,"Ġà¦¹à¦²à¦°":4462,"Ġà¦¹à¦²à¦¤":4463,"Ġà¦łà¦ķà¦¬":4464,"Ġà¦ķà¦°à¦²à¦°":4465,"Ġà¦ķà¦°à¦²à¦¯":4466,"Ġà¦Ŀà¦®à¦Ŀà¦®":4467,"Ġà¦Ĩà¦ľà¦®":4468,"à¦¬à¦°à¦°":4469,"à¦¬à¦°à¦¦":4470,"à¦¬à¦°à¦Ĺ":4471,"Ġà¦§à¦°à¦¨à¦Ł":4472,"à¦ıà¦°à¦ķà¦®":4473,"Ġà¦ľà¦¨à¦¬":4474,"Ġà¦ľà¦¨à¦¶":4475,"Ġà¦Ĩà¦ªà¦¨à¦®à¦¨":4476,"Ġà¦Ĩà¦ªà¦¨à¦ľà¦¨":4477,"à¦¬à¦²à¦ª":4478,"à¦ķà¦Łà¦¸":4479,"à¦¨à¦¤à¦ıà¦ĩ":4480,"à¦·à¦£à¦¶":4481,"à¦·à¦£à¦ĵ":4482,"à¦·à¦£à¦Ń":4483,"Ġà¦ıà¦²à¦®":4484,"Ġà¦ıà¦²à¦Ĺ":4485,"Ġà¦īà¦łà¦²à¦¬":4486,"Ġà¦īà¦łà¦²à¦¸":4487,"à¦Ĩà¦·":4488,"à¦Ĩà¦°à¦ķ":4489,"à¦Ĩà¦®à¦²":4490,"à¦Ĩà¦¦à¦°":4491,"à¦Ĩà¦¸à¦®":4492,"à¦Ĩà¦¸à¦Ľ":4493,"à¦Ĩà¦«à¦¸":4494,"à¦Ĩà¦ļà¦°à¦£":4495,"Ġà¦ħà¦¸à¦®à§Ł":4496,"Ġà¦¬à¦¨à¦ľ":4497,"Ġà¦¬à¦¨à¦«":4498,"Ġà¦Ĩà¦ķà¦¦":4499,"Ġà¦ħà¦¦à¦ķ":4500,"à¦ķà¦²à¦¤":4501,"à¦ķà¦²à¦¸":4502,"à¦ķà¦²à¦¹":4503,"Ġà¦ıà¦¬à¦Ľà¦°":4504,"Ġà¦ħà¦°à¦¸":4505,"à¦¶à¦¨à¦ĩ":4506,"à¦¶à¦¨à¦ĵ":4507,"à¦Ĺà¦²à¦¤":4508,"à¦Ĺà¦²à¦Ľ":4509,"à¦ĩà¦²à¦¨":4510,"Ġà¦ĺà¦°à¦ĸ":4511,"à¦°à¦¨à¦®":4512,"à¦°à¦¨à¦¦":4513,"Ġà¦ķà¦°à¦¬à¦ĩ":4514,"à¦ĸà¦²à¦¸":4515,"à¦°à¦ľà¦²":4516,"à¦°à¦ľà¦Ĺà¦¤":4517,"Ġà¦ªà¦¥à¦°":4518,"à¦¸à¦¬à¦ĸ":4519,"à¦ķà¦¤à¦¬":4520,"à¦°à¦¸à¦¦":4521,"Ġà¦ħà¦®à¦¸":4522,"Ġà¦Ĩà¦¨à¦ķ":4523,"Ġà¦Ĩà¦¨à¦²à¦ķ":4524,"à¦°à¦¶à¦®":4525,"Ġà¦¬à¦°à¦Ĺ":4526,"Ġà¦ħà¦ļà¦²à¦¤":4527,"à¦ķà¦¬à¦ķ":4528,"Ġà¦ħà¦ªà¦¸":4529,"Ġà¦ħà¦ªà¦ļà§Ł":4530,"à¦ĩà¦¨à¦ĩ":4531,"à¦¦à¦¨à¦ª":4532,"à¦®à¦ķà¦¹":4533,"à¦¦à¦°à¦¦":4534,"à¦ħà¦®à¦¨":4535,"à¦ħà¦°à¦«":4536,"Ġà¦¸à¦°à¦Ĺà¦°à¦®":4537,"Ġà¦¬à¦Ľà¦°à¦ĵ":4538,"Ġà¦ªà§ľà¦¨":4539,"Ġà¦ķà¦²à¦ª":4540,"Ġà¦ķà¦²à¦ľ":4541,"à¦¹à¦²à¦ĩ":4542,"à¦¹à¦²à¦¦":4543,"Ġà¦īà¦ªà¦®":4544,"Ġà¦ĵà¦ĩà¦¦":4545,"Ġà¦ĵà¦ĩà¦ĸ":4546,"Ġà¦ĵà¦ĩà¦°à¦ķà¦®":4547,"Ġà¦¬à¦ĩà¦ª":4548,"Ġà¦¬à¦ĩà¦ĵ":4549,"Ġà¦¬à¦ĩà¦ªà¦¡":4550,"à¦²à¦²à¦ıà¦ķ":4551,"Ġà¦Ńà¦°à¦¦":4552,"à¦°à¦Łà¦²":4553,"à¦¨à¦ķà¦ķ":4554,"à¦°à¦¹à¦ķ":4555,"Ġà¦¨à§Łà¦Ł":4556,"Ġà¦¨à§Łà¦ıà¦Ł":4557,"à¦¸à¦¨à¦¦":4558,"à¦¬à¦¤à¦®":4559,"à¦ıà¦ķà¦®":4560,"à¦ıà¦ķà¦ª":4561,"à¦ıà¦ķà¦¦à¦²":4562,"à¦ıà¦ķà¦¦à¦®":4563,"Ġà¦°à¦Ļà¦ª":4564,"à¦ļà¦²à¦Ł":4565,"à¦ļà¦²à¦Ń":4566,"Ġà§·":4567,"à¦²à¦Ľà¦¬":4568,"à¦ľà¦¤à¦¤":4569,"Ġà¦ĸà¦¬à¦°à¦ĵ":4570,"Ġà¦ķà¦·à¦¤":4571,"Ġà¦¦à¦²à¦Ĺà¦¤":4572,"Ġà¦ħà¦¬à¦¸à¦°à¦ª":4573,"Ġà¦ķà¦²à¦ķà¦¬":4574,"à¦ľà¦²à¦ª":4575,"Ġà¦ĩà¦¨à¦¶":4576,"Ġà¦Ĳà¦ĸ":4577,"à¦¹à¦¨à¦ª":4578,"à¦§à¦¨à¦¹":4579,"Ġà¦Ńà¦¬à¦ĺ":4580,"à¦¢à¦²":4581,"à¦·à¦¤à¦®":4582,"à¦·à¦¤à¦ĩ":4583,"à¦²à¦¸à¦¦":4584,"à¦¸à¦ķà¦¦à¦²":4585,"à¦°à¦Ĺà¦£":4586,"Ġà¦¬à¦¹à¦¨à¦ķ":4587,"à¦¨à¦¸à¦Ń":4588,"Ġà¦ıà¦¸à¦¬à¦ĩ":4589,"Ġà¦ħà¦®à¦²à¦ª":4590,"Ġà¦¶à¦¤à¦Ń":4591,"à¦ĩà¦Ńà¦Ł":4592,"Ġà¦°à¦ľà¦¤à¦ĵ":4593,"Ġà¦¬à¦Łà¦ł":4594,"Ġà¦°à¦«à¦¤":4595,"à¦°à¦«à¦°à¦®":4596,"à¦¨à¦°à¦Ļ":4597,"à¦®à¦§à¦°":4598,"à¦¡à¦²à¦«":4599,"à¦ĩà¦®à¦¸":4600,"à¦²à¦ªà§ľ":4601,"à¦®à¦¦à¦ķ":4602,"Ġà¦¨à¦¬à¦Ĺ":4603,"Ġà¦¨à¦¬à¦ľà¦¨":4604,"à¦ĩà¦ªà¦²":4605,"à¦¬à¦¹à¦¤":4606,"à¦īà¦²à¦¦":4607,"à¦°à¦¹à¦°à¦Ĺ":4608,"Ġà¦Īà¦¸":4609,"à¦¨à¦ªà¦ŀ":4610,"à¦²à¦¦à¦¹":4611,"Ġà¦ĸà¦°à¦ļà¦ĵ":4612,"Ġà¦ĩà¦¶à¦°":4613,"à§Ńà§«":4614,"à¦¨à¦®à¦Ĺ":4615,"à¦ľà¦Ĺà¦£":4616,"Ġà¦ľà§Łà¦§":4617,"ĠĠčĊĠ":4618,"Ġà¦Ĩà¦ĩà¦¨à¦ķ":4619,"Ġà¦ĩà¦Łà¦Ń":4620,"Ġà¦ıà¦¡à¦®à¦¨":4621,"Ġà§§à§¯à§¬":4622,"à§§à§§":4623,"Ġà¦Ńà¦¬à¦¨à¦Ł":4624,"Ġà¦īà¦ªà¦ķà¦¥":4625,"Ġà¦ķà¦ĩà¦¤à¦°":4626,"à¦īà¦¡à¦¸":4627,"Ġà¦īà§ľà¦Ľ":4628,"à¦¸à¦¹à¦ľ":4629,"Ġà¦¶à¦ĵà¦ķà¦¤à¦ĵ":4630,"Ġà¦ªà¦Łà¦ļ":4631,"Ġà¦¨à§ľà¦²":4632,"à§©à§ª":4633,"Ġà¦Ĩà¦¹à¦®à¦¦":4634,"à¦īà¦¬à¦Ĺ":4635,"Ġà§©à§«":4636,"à¦¤à¦ļà¦°à¦¬":4637,"Ġà¦ľà¦Ĺà§İà¦¦":4638,"ĠĠĠčĊ":4639,"Ġà¦¸à§İà¦®":4640,"à¦°à¦¹à¦¸à¦¨":4641,"Ġà¦ĩà¦¨à¦«à¦°à¦®":4642,"Ġà¦²à¦¬à¦Ļ":4643,"Ġà§«à§§":4644,"Ġà¦§à¦ķà¦§à¦ķ":4645,"Ġà¦ªà¦Ļà¦ķ":4646,"à¦īà¦łà¦¤":4647,"Ġà¦¬à¦Ĺà¦²à¦¦":4648,"à¦¯à¦ľà¦¨à¦ķà¦Ń":4649,"Ġà¦¬à¦¶à¦¬à¦°":4650,"Ġà¦īà¦Ńà§Łà¦ĩ":4651,"Ġà§¯à§¦":4652,"à¦¤à¦ļà¦°à¦°":4653,"à¦Ĩà¦ļà¦®à¦ķ":4654,"à¦Īà¦®":4655,"Ġà¦ĵà¦²à¦Łà¦ª":4656,"Ġà¦ıà¦Ĩà¦ĩà§Ł":4657,"Ġà§®à§¦":4658,"Ġà¦ļà¦Łà¦ķà¦¦":4659,"à¦¶à¦ªà¦°à¦®":4660,"Ġà¦¶à¦¬à¦°à¦°":4661,"Ġà¦Ĺà¦¦à¦Ĺà¦¦":4662,"Ġà¦°à¦Ĺà¦°à¦Ĺ":4663,"Ġà¦«à¦ķà¦«à¦ķ":4664,"ĠčĊčĊ":4665,"à¦°à¦°à¦¶":4666,"à¦°à¦Ĩà¦²":4667,"à¦°à¦Ĩà¦ªà¦¨":4668,"à¦°à¦¡à¦ķ":4669,"à¦°à¦ıà¦¸à¦¬":4670,"à¦°à¦Ĩà¦ļ":4671,"à¦¨à¦¤à¦°":4672,"à¦¨à¦°à¦ķ":4673,"à¦¨à¦ķà¦°":4674,"à¦¨à¦¬à¦ª":4675,"à¦¨à¦ĩà¦²":4676,"à¦¨à¦ļà¦ķ":4677,"à¦¨à¦¸à¦¤":4678,"à¦¨à¦ľà¦²":4679,"à¦¨à¦Ĩà¦ľ":4680,"à¦¨à¦Ĩà¦²":4681,"à¦¨à¦¸à¦¬à¦ķ":4682,"à¦¨à¦Ĩà¦ķ":4683,"à¦¨à¦ħà¦ļ":4684,"à¦²à¦¹à¦°":4685,"à¦²à¦®à¦¤":4686,"à¦²à¦¨à¦¬":4687,"à¦²à¦ļà¦¨":4688,"à¦²à¦ļà¦ķ":4689,"à¦²à¦¹à¦ł":4690,"à¦²à¦ļà¦°":4691,"à¦²à¦ıà¦°":4692,"à¦²à¦ħà¦°":4693,"à¦²à¦¶à¦¯":4694,"à¦²à¦ıà¦ķà¦ľà¦¨":4695,"à¦²à¦ħà¦¤":4696,"à¦¤à¦¥":4697,"à¦¤à¦ĵà¦¯":4698,"à¦¤à¦ªà¦¤":4699,"à¦¤à¦¤à¦²":4700,"à¦¤à¦¸à¦°":4701,"à¦¤à¦§à¦¨":4702,"à¦¤à¦ıà¦ĸà¦¨":4703,"à¦ķà¦Ļ":4704,"à¦ķà¦·à¦£":4705,"à¦ķà¦ķà¦²":4706,"à¦ķà¦ĸà¦¤":4707,"à¦ķà¦ļà¦¨":4708,"à¦ķà¦¶à¦¬":4709,"à¦ķà¦¸à¦®":4710,"à¦ķà¦ıà¦°":4711,"à¦ķà¦Ĩà¦¶":4712,"à¦¯à¦¨à¦¤":4713,"à¦¯à¦¸à¦¨":4714,"à¦¯à¦ıà¦ĩ":4715,"à¦¯à¦¸à¦¬à¦ĩ":4716,"à¦¯à¦¸à¦¬à¦ķ":4717,"à¦¬à¦ªà¦°":4718,"à¦¬à¦Ĩà¦®":4719,"à¦¬à¦ıà¦ķà¦Ł":4720,"à¦¬à¦īà§Ł":4721,"à¦¬à¦ľà¦Ĺà§İ":4722,"à§ĭà§ĩ":4723,"Ġà¦ķà¦¹":4724,"Ġà¦ķà¦ŀ":4725,"Ġà¦ķà¦ĩà¦¬":4726,"à¦®à¦¥":4727,"à¦®à¦¬à¦¨":4728,"à¦®à¦Ĩà¦°":4729,"à¦®à¦ıà¦ĸ":4730,"à¦®à¦Ĩà¦¬":4731,"Ġà¦¬à¦Ľ":4732,"Ġà¦Ĩà¦Łà¦¤":4733,"Ġà¦Ĩà¦§à¦¬":4734,"Ġà¦¸à¦°à¦®":4735,"Ġà¦¸à¦¸à¦®":4736,"Ġà¦¸à¦ĩà¦ľ":4737,"Ġà¦¸à¦²à¦ľ":4738,"Ġà¦¸à¦¶à¦°":4739,"à¦Łà¦§":4740,"à¦Łà¦ķà¦²":4741,"à¦Łà¦¸à¦®":4742,"à¦Łà¦¸à¦ķ":4743,"à¦Łà¦Ńà¦°":4744,"à¦¸à§ľ":4745,"à¦¸à¦ı":4746,"à¦¸à¦®à¦¤":4747,"à¦¸à¦Łà¦¨":4748,"Ġà¦ªà¦²à¦¤":4749,"Ġà¦ªà¦¸à¦°":4750,"Ġà¦ªà¦¯à¦°":4751,"Ġà¦ªà¦¶à¦®":4752,"à¦Ľà¦¸":4753,"à¦Ľà¦Ń":4754,"Ġà¦¨à¦¹":4755,"Ġà¦¨à¦Łà¦¬":4756,"Ġà¦¨à¦²à¦Ł":4757,"Ġà¦¨à¦²à¦ª":4758,"à¦ĩà¦¥":4759,"à¦ĩà¦ªà¦°":4760,"à¦ĩà¦ı":4761,"à¦ĩà¦ĵà§Ł":4762,"à¦ĩà¦¸à¦®":4763,"à¦ĩà¦¢":4764,"à¦ĩà¦ľà¦¨à¦ķ":4765,"à¦ĩà¦ĵà¦°":4766,"à¦ĩà¦īà¦Ń":4767,"à¦¦à¦¨à¦ĵ":4768,"à¦¦à¦ªà¦¦":4769,"à¦¦à¦Ĩà¦®":4770,"à¦¦à¦ĺà¦°":4771,"à¦¦à¦ıà¦ķà¦Ł":4772,"Ġà¦®à¦°à¦¶":4773,"Ġà¦®à¦ľà¦²":4774,"Ġà¦®à¦ĸà¦®à¦²":4775,"Ġà¦®à¦¸à¦¨à¦¦":4776,"Ġà¦ıà¦°à¦¶":4777,"Ġà¦ıà¦¨à¦Ĺ":4778,"Ġà¦¤à¦¸":4779,"Ġà¦¹à¦°à¦®":4780,"Ġà¦¹à¦°à¦¹":4781,"à¦ªà¦ķà¦Ł":4782,"à¦ªà¦¤à¦¨":4783,"à¦ĸà¦Ŀ":4784,"à¦ĸà¦®à¦¨":4785,"à¦ľà¦ļ":4786,"à¦ľà¦ªà¦°":4787,"à¦ľà¦®à¦¨":4788,"à¦ľà¦°à¦ķ":4789,"à¦ľà¦¸à¦¬":4790,"à¦¡à¦²à¦Ł":4791,"à¦¶à¦·":4792,"à¦¶à¦ĵà¦ķà¦¤":4793,"Ġà¦ħà¦¹à¦®":4794,"Ġà¦ħà¦£à¦¨":4795,"à¦Ĺà¦°à¦ª":4796,"à¦Ĺà¦°à¦¦":4797,"à¦Ĺà¦ıà¦ķà¦Ł":4798,"Ġà¦ķà¦°à¦ª":4799,"Ġà¦ķà¦°à¦ľ":4800,"Ġà¦¯à¦¤à¦¨":4801,"Ġà¦¯à§İà¦¸":4802,"Ġà¦¯à¦®à¦¦":4803,"Ġà¦Ĺà¦Ł":4804,"Ġà¦Ĺà¦ªà¦Ĺ":4805,"à¦ļà¦ļ":4806,"à¦ļà¦ŀ":4807,"à¦ļà¦°à¦ķ":4808,"à¦ļà¦ªà¦¦":4809,"Ġà¦ļà¦¯":4810,"Ġà¦ļà¦ĸ":4811,"Ġà¦ļà¦°à¦ª":4812,"à¦·à¦ĸ":4813,"à¦·à¦ļ":4814,"à¦·à¦¬à¦¨":4815,"à¦·à¦¸à¦¬":4816,"à¦·à¦°à¦¹":4817,"à¦·à¦§à¦°":4818,"à§Łà¦ĸ":4819,"à§Łà¦¶":4820,"à§Łà¦Ļ":4821,"à§Łà¦¨à¦ķ":4822,"à§Łà¦¤à¦®":4823,"à§Łà¦ıà¦ĸ":4824,"Ġà¦°à¦¸à¦®":4825,"Ġà¦°à¦¬à¦ķ":4826,"Ġà¦°à¦ĩà¦¬":4827,"Ġà¦¶à¦ĩà¦²":4828,"Ġà¦¶à¦¤à¦¬":4829,"Ġà¦¶à¦¶à¦¬":4830,"Ġà¦¶à¦¨à¦¶à¦¨":4831,"Ġà¦¶à§Łà¦¤":4832,"à¦§à¦¯":4833,"à¦§à¦®à¦ķ":4834,"à¦§à¦¬à¦¤":4835,"à¦§à¦®à§Ł":4836,"à¦§à¦¸à¦¬à¦ĩ":4837,"à¦§à¦¸à¦¬à¦ķ":4838,"Ġà¦Ńà¦°à¦¬":4839,"Ġà¦Ńà¦Ĺà¦®":4840,"à¦¥à¦Ľ":4841,"à¦¥à¦°à¦ķ":4842,"à¦¥à¦¨à¦ķ":4843,"Ġà¦ıà¦ķà¦ļà¦²":4844,"Ġà¦ıà¦ķà¦ıà¦ķà¦¦":4845,"Ġà¦ıà¦ķà¦ıà¦ķà¦¬":4846,"Ġà¦ıà¦ķà¦Ĩà¦§à¦Ł":4847,"Ġà¦Ĩà¦®à¦ķ":4848,"Ġà¦Ĩà¦®à¦²à¦ķ":4849,"à¦£à¦¬à¦°":4850,"à¦£à¦®à¦¯":4851,"à¦£à¦ªà¦ķ":4852,"à¦£à¦¶à¦ķ":4853,"à¦£à¦Ńà¦°":4854,"Ġà¦Ľà¦«":4855,"Ġà¦²à¦ĸ":4856,"Ġà¦¥à¦¬":4857,"à¦łà¦ĺ":4858,"à¦łà¦ªà¦¥":4859,"Ġà¦Ĩà¦°à¦«":4860,"Ġà¦Ĩà¦°à¦Ĩà¦°":4861,"Ġà¦Ĩà¦°à¦ıà¦¸":4862,"à¦¾à¦ģà¦ģ":4863,"à¦Ńà¦ĩ":4864,"à¦Ńà¦ª":4865,"à¦Ńà¦ĵ":4866,"Ġà¦īà¦¶à¦ķ":4867,"Ġà¦īà¦ĩà¦¶":4868,"à¦Ļà¦Ł":4869,"Ġà¦ĵà¦¤à¦ª":4870,"Ġà¦ĵà¦ľà¦¸":4871,"Ġà¦§à¦¨à¦¬":4872,"Ġà¦ħà¦¨à¦¸":4873,"Ġà¦ħà¦¨à¦®à¦¨":4874,"Ġà¦ħà¦¨à¦Łà¦¨":4875,"Ġà¦ĺà¦°à¦ķà¦¨":4876,"Ġà¦ªà¦°à¦ļ":4877,"Ġà¦¬à¦²à¦²à¦®":4878,"à¦°à¦¤à¦¤":4879,"à¦°à¦¤à¦ĵ":4880,"à§ľà¦¦":4881,"Ġà¦®à¦¨à¦¬":4882,"Ġà¦®à¦¨à¦°à¦ķ":4883,"à¦Ŀà¦®":4884,"à¦Ŀà¦Ł":4885,"à¦Ŀà¦²à¦¬":4886,"Ġà¦Łà¦¸":4887,"Ġà¦Łà¦Ļ":4888,"Ġà¦Łà¦¨à¦ķ":4889,"à¦īà¦«":4890,"à¦īà¦ĩà¦²":4891,"à¦īà¦°à¦¨":4892,"à¦īà¦¦à¦¯":4893,"à¦īà¦¥à¦ª":4894,"à¦ªà¦¨à¦®":4895,"Ġà¦¸à¦®à¦ķ":4896,"Ġà¦¸à¦®à¦¬à¦¯":4897,"à¦ªà¦°à¦¨":4898,"à¦ªà¦°à¦®":4899,"Ġà¦ıà¦ĩà¦¡":4900,"à¦®à¦¨à¦Ĺà¦°":4901,"Ġà¦Ĩà¦²à¦ª":4902,"Ġà¦¸à¦¬à¦°":4903,"Ġà¦¸à¦¬à¦®":4904,"à¦ľà¦¨à¦¸à¦¬":4905,"à¦ľà¦¨à¦¸à¦¬à¦ĩ":4906,"à¦¤à¦°à¦¨":4907,"à¦¤à¦°à¦®":4908,"Ġà¦¡à¦Ĺà¦®":4909,"à¦¬à¦¨à¦ª":4910,"à¦¬à¦¨à¦ľ":4911,"à¦¬à¦¨à¦§":4912,"à¦¬à¦¨à¦ķà¦£":4913,"à§İà¦Ł":4914,"à§İà¦«":4915,"à§İà¦Ĺà¦¤":4916,"à§İà¦¹à¦ł":4917,"à§İà¦«à¦¨":4918,"Ġà¦ĩà¦¡à¦²":4919,"Ġà¦ĩà¦īà¦¸":4920,"Ġà¦¹à¦²à¦¬":4921,"Ġà¦¹à¦²à¦«":4922,"Ġà¦¹à¦²à¦ı":4923,"Ġà¦ıà¦¸à¦ª":4924,"Ġà¦ıà¦¸à¦ıà¦®":4925,"Ġà¦ıà¦¸à¦ıà¦¸à¦¸":4926,"Ġà¦ıà¦¸à¦ĩà¦īà¦Ń":4927,"à¦°à¦ķà¦Łà¦Ń":4928,"Ġà¦ķà¦°à¦²à¦¨":4929,"Ġà¦ķà¦°à¦²à¦Ĺ":4930,"Ġà¦ķà¦°à¦²à¦ļ":4931,"Ġà¦ķà¦°à¦²à¦¨à¦¤":4932,"Ġà¦ķà¦°à¦²à¦ıà¦Ł":4933,"Ġà¦ķà¦°à¦²à¦Ĩà¦ľà¦ķ":4934,"Ġà¦Ŀà¦²":4935,"à¦¬à¦°à¦¸à¦¬":4936,"à¦ĺà¦Ľ":4937,"à¦ĺà¦ļ":4938,"à¦ĺà¦·":4939,"à¦ĺà¦¤à¦®":4940,"Ġà¦Ĩà¦Ĺà¦®":4941,"Ġà¦Ĩà¦Ĺà¦®à¦£":4942,"Ġà¦§à¦°à¦ª":4943,"à¦ıà¦ª":4944,"à¦ıà¦ķà¦°":4945,"à¦ıà¦¸à¦ª":4946,"à¦ıà¦¤à¦¦":4947,"à¦ıà¦Ĩà¦ĩ":4948,"Ġà¦¢à¦ķ":4949,"Ġà¦Ĺà¦²à¦¸":4950,"Ġà¦Ĺà¦²à¦«":4951,"à§ģà¦ģà¦ģ":4952,"à¦¬à¦²à§Ł":4953,"à¦¬à¦²à¦Ń":4954,"à¦ķà¦°à¦²":4955,"à¦ķà¦°à¦®":4956,"à¦ķà¦°à¦ļ":4957,"à¦ķà¦Łà¦ľà¦¨à¦ķ":4958,"à¦¨à¦¤à¦¬":4959,"à¦¨à¦¤à¦ı":4960,"à¦·à¦£à¦¤":4961,"à¦·à¦£à¦Ĺ":4962,"Ġà¦ıà¦²à¦ļ":4963,"Ġà¦ıà¦²à¦Ĺà¦°":4964,"Ġà¦Ĩà¦¬à¦¹à¦®":4965,"à¦¬à¦ªà¦ķ":4966,"Ġà¦īà¦łà¦²à¦°":4967,"Ġà¦īà¦łà¦²à¦¨":4968,"Ġà¦īà¦łà¦²à¦ľ":4969,"Ġà¦īà¦łà¦²à¦Ĩà¦®":4970,"à¦Ĩà¦Ľ":4971,"à¦Ĩà¦Ń":4972,"à¦Ĩà§ľ":4973,"à¦Ĩà¦²à¦¤":4974,"à¦Ĩà¦¸à¦¨":4975,"à¦Ĩà¦ĩà¦ª":4976,"à¦Ĩà¦ĩà¦¶":4977,"Ġà¦ħà¦¸à¦®à¦¤":4978,"Ġà¦ħà¦¸à¦«à¦²":4979,"à¦²à¦ķà¦ĩ":4980,"à¦²à¦ķà¦ĵ":4981,"Ġà¦¬à¦¨à¦¦":4982,"Ġà¦¬à¦¨à¦Ĺ":4983,"Ġà¦¬à¦¨à¦¬à¦¨":4984,"Ġà¦¬à¦¨à¦²à¦¤":4985,"à¦°à¦®à¦ĩ":4986,"à¦°à¦®à§Ł":4987,"à¦°à¦®à¦¦à¦¤":4988,"à¦ķà¦²à¦Ł":4989,"à¦ķà¦²à¦¦":4990,"Ġà¦ħà¦°à¦¥":4991,"Ġà¦¹à§Łà¦°":4992,"à¦Ĺà¦²à¦¯":4993,"à¦Ĺà¦²à¦¸":4994,"à¦Ĺà¦²à¦ĩ":4995,"à¦Ĺà¦²à¦ļ":4996,"à¦Ĺà¦²à¦ľà¦¨à¦ķ":4997,"à¦°à¦¥à¦®à¦ª":4998,"Ġà¦ĵà¦°à¦ĵ":4999,"à¦Ľà¦¨à¦Ł":5000,"à¦ĸà¦²à¦¬":5001,"à¦ĸà¦²à¦Ľ":5002,"à¦ĸà¦²à¦¦":5003,"à¦ĸà¦²à¦ľ":5004,"à¦°à¦ľà¦°":5005,"à¦ķà¦¤à¦¦":5006,"Ġà¦ıà¦¤à¦ľà¦¨":5007,"Ġà¦ıà¦¤à¦¬à¦Ľà¦°":5008,"à¦¤à¦¨à¦¬":5009,"à¦¤à¦¨à¦¦":5010,"à¦¤à¦¨à¦¶":5011,"à¦°à¦¸à¦¤":5012,"Ġà¦ħà¦®à¦°à¦¤":5013,"Ġà¦Ĩà¦¨à¦ļ":5014,"à¦°à¦ªà¦°à¦¨":5015,"Ġà¦ľà¦²à¦¸à¦¤":5016,"Ġà¦ľà¦²à¦ªà¦¥":5017,"Ġà¦ľà¦²à¦¦à¦¸":5018,"à¦¹à¦¸à¦Ł":5019,"Ġà¦ħà¦ªà¦ļà¦¯":5020,"Ġà¦ħà¦ªà¦¦à¦¸":5021,"Ġà¦ĵà¦ªà¦°à¦Ł":5022,"à¦Łà¦ķà¦ļ":5023,"à¦ĩà¦¨à¦ľ":5024,"à¦ĩà¦¨à¦¡":5025,"à¦¤à¦¬à¦¬":5026,"à¦¤à¦¬à¦¦":5027,"à¦¤à¦¬à¦°à¦£":5028,"à¦¦à¦¨à¦®":5029,"à¦¦à¦¨à¦ļà¦ķ":5030,"à¦®à¦ķà¦°à¦£":5031,"à¦¦à¦°à¦ĵ":5032,"Ġà¦ħà¦¤à¦ķ":5033,"Ġà¦ħà¦¤à¦²à¦¸":5034,"à¦ħà¦®à¦°":5035,"à¦ħà¦¸à¦®":5036,"à¦ħà§Łà¦¨":5037,"à¦ħà¦ªà¦®":5038,"à¦ħà¦¥à¦¬":5039,"à¦¯à¦¬à¦¦à¦²":5040,"Ġà¦ķà¦²à¦®à¦Ł":5041,"à¦¹à¦²à¦ª":5042,"à¦¹à¦²à¦¹":5043,"à¦°à¦ĩà¦¯":5044,"à¦°à¦Ľà¦¡":5045,"Ġà¦ıà¦Ĺà¦ľ":5046,"à¦¨à¦¬à¦®":5047,"à¦¨à¦¬à¦Ł":5048,"à¦¨à¦¬à¦ļ":5049,"Ġà¦ķà¦®à¦¸":5050,"Ġà¦īà¦ªà¦¬":5051,"à¦°à¦ªà¦Ļ":5052,"Ġà¦ķà¦¤à¦ķà¦Ł":5053,"Ġà¦ĵà¦ĩà¦Ń":5054,"Ġà¦¬à¦ĩà¦ĩ":5055,"Ġà¦¬à¦ĩà¦ıà¦°":5056,"Ġà¦¬à¦ĩà¦ķà¦²à¦®":5057,"à¦¦à¦²à¦ĩ":5058,"à¦¦à¦²à¦ĵ":5059,"à¦²à¦²à¦®":5060,"à¦²à¦¨à¦¨":5061,"à¦²à¦¨à¦¸":5062,"à¦ļà¦¨à¦ķ":5063,"à¦ļà¦¨à¦ļ":5064,"à¦°à¦¦à§Ł":5065,"à¦°à¦¦à¦°à¦¬":5066,"à¦¨à¦ķà¦¡":5067,"à¦¨à¦ķà¦¶":5068,"à¦¸à¦«à¦²":5069,"à¦¸à¦«à¦°à¦®":5070,"à¦°à¦¹à¦¬":5071,"à¦°à¦¹à¦¹":5072,"à¦°à¦¹à¦®à¦¤":5073,"à¦°à¦¹à¦¨à¦ķ":5074,"à¦¤à¦ķà¦°à¦¬":5075,"Ġà¦¨à§Łà¦ķ":5076,"Ġà¦¨à§Łà¦¸":5077,"Ġà¦¨à§Łà¦¨à¦¤":5078,"Ġà¦ıà¦ķà¦¬à¦Ľà¦°":5079,"à¦ıà¦ķà¦¶":5080,"à¦ıà¦ķà¦¸à¦®à§Ł":5081,"Ġà¦°à¦Ļà¦ĵ":5082,"Ġà¦°à¦Ļà¦ļà¦Ł":5083,"Ġà¦°à¦Ļà¦ļà¦Ļ":5084,"Ġà¦ħà¦«à¦ķ":5085,"à¦·à¦ķà¦ľ":5086,"à¦ªà¦¦à¦¬":5087,"à¦¨à¦¦à¦£":5088,"Ġà¦ªà¦¦à¦¤à¦²":5089,"à¦Ĺà¦ľà¦ª":5090,"à¦Ĺà¦ľà¦ķà¦²à¦®":5091,"Ġà¦¦à¦²à¦ĵ":5092,"à¦Łà¦¬à§ľ":5093,"à¦Łà¦¬à¦ĩà¦¯":5094,"à¦¦à§Łà¦¸":5095,"à¦¦à§Łà¦ĩ":5096,"à¦ľà¦²à¦®":5097,"à¦ľà¦²à¦¸":5098,"Ġà¦ĩà¦¨à¦¹":5099,"Ġà¦ķà¦¨à¦ľ":5100,"Ġà¦ķà¦¨à¦Ĺ":5101,"Ġà¦ķà¦¨à¦Ńà¦¯":5102,"Ġà¦°à¦ķà¦®à¦ĵ":5103,"Ġà¦°à¦ķà¦®à¦Ń":5104,"Ġà¦Ĳà¦¸à¦¬":5105,"à¦¹à¦¨à¦ľà¦²":5106,"à¦§à¦¨à¦ĩ":5107,"à¦ªà¦¥à¦¯":5108,"à¦ªà¦¥à¦ļ":5109,"à¦ķà¦ķà¦®":5110,"à¦ķà¦¨à¦¸":5111,"à¦ķà¦¨à¦«":5112,"Ġà¦¦à¦¶à¦ıà¦Ĺ":5113,"Ġà¦¬à¦īà¦¬":5114,"Ġà¦¬à¦īà¦ĩ":5115,"à¦¯à¦°à¦ļà¦¨":5116,"Ġà¦Ńà¦¦à¦ķ":5117,"Ġà¦¸à¦®à§Łà¦ķ":5118,"Ġà¦¸à¦®à§Łà¦®à¦¤":5119,"à¦²à¦¸à¦Ł":5120,"Ġà¦ıà¦¨à¦Ń":5121,"Ġà¦ļà¦ķà¦®à¦ķ":5122,"Ġà¦ıà¦ķà¦ĩà¦¸à¦®à¦¯":5123,"à¦¤à¦®à§Ł":5124,"Ġà¦Ńà§Łà¦¸à¦¬":5125,"à¦¨à¦¸à¦ĩ":5126,"à¦¨à¦¸à¦ķà¦²":5127,"à¦²à¦Ĺà¦¡":5128,"à¦¬à¦ĩà§Ł":5129,"Ġà¦®à¦²à¦¯":5130,"Ġà¦Ĺà¦°à¦®à¦Ĺà¦°à¦®":5131,"Ġà¦ļà¦®à¦ķà¦¦":5132,"Ġà¦Ĩà¦§à¦®à¦°":5133,"Ġà¦Ĩà¦§à¦ĺà¦¨":5134,"à¦¬à¦¶à¦°":5135,"Ġà¦¬à§ľà¦²":5136,"Ġà¦¬à§ľà¦¦":5137,"Ġà¦ĭà¦·":5138,"Ġà¦ıà¦°à¦ķà¦®à¦Ń":5139,"à¦ķà¦¸à¦¦":5140,"à¦ķà¦¸à¦ľ":5141,"Ġà¦ķà¦ķà¦ª":5142,"à¦ĩà¦ªà¦®":5143,"à§¦à§¨":5144,"Ġà¦«à¦Łà¦«à¦Ł":5145,"à¦¤à¦¦à¦¶":5146,"Ġà¦Īà¦®":5147,"à¦²à¦ľà§Ł":5148,"Ġà¦ħà¦Łà¦²à¦¤":5149,"à§Ńà§©":5150,"à¦¨à¦®à¦ľ":5151,"Ġà¦ľà§Łà¦¦":5152,"Ġà¦ľà§Łà¦ªà¦°":5153,"ĠĠčĊčĊ":5154,"ĠĠčĊĠčĊč":5155,"à¦ķà¦Ńà¦ķ":5156,"à§¨à§ª":5157,"Ġà¦ıà¦¡à¦ĵà§Ł":5158,"Ġà¦Ĩà¦Łà¦ĸ":5159,"Ġà¦ľà¦Ĺà¦¤à¦Ł":5160,"Ġà§§à§¯à§§à§Ń":5161,"à¦Ŀà¦ķà¦Ŀà¦ķ":5162,"à§§à§ª":5163,"Ġà¦ıà¦®à¦Ĩà¦°":5164,"à¦Ĩà¦Ĺà¦¸":5165,"Ġà¦Ńà¦¬à¦¨à¦Ĺ":5166,"Ġà¦Ĩà§Łà¦¶":5167,"à§°à¦¥à¦®":5168,"à¦Ĩà¦ķà¦¬à¦°":5169,"Ġà¦¬à¦°à¦«à¦¶":5170,"à§ªà§®":5171,"Ġà¦¢à¦²à¦¢à¦²":5172,"à¦ļà¦Ľà¦¯":5173,"à¦ªà¦¬à§Łà¦¸":5174,"à¦¤à¦¸à¦®à¦°":5175,"Ġà¦īà¦²à¦Łà¦ª":5176,"Ġà¦īà§ľà¦¨":5177,"Ġà¦īà§ľà¦¬":5178,"Ġà¦¨à¦ĸà¦¦à¦°":5179,"Ġà¦¨à§ľà¦Ľ":5180,"à§©à§¦":5181,"à§®à§«":5182,"Ġà¦ķà§ľà¦ķà§ľ":5183,"à¦ıà¦¸à¦ıà¦«":5184,"Ġà§¨à§¦à§§à§«":5185,"Ġà§¨à§¦à§§à§¬":5186,"à¦¯à¦ľà¦Ĺà¦¤":5187,"à¦Ĺà¦ªà§İ":5188,"Ġà¦ķà¦¦à¦®à¦«":5189,"à¦ĩà¦ĵà¦®":5190,"à¦¤à¦ĸà¦°à¦ļ":5191,"Ġà§§à§¯à§Ńà§¬":5192,"Ġà§§à§¯à§Ńà§®":5193,"Ġà¦īà¦ĩà¦ŀ":5194,"Ġà¦²à¦Ĺà¦ĩà¦¨":5195,"Ġà§Ńà§§":5196,"Ġà§§à§Ńà§«à§Ń":5197,"Ġà¦ķà¦ªà¦Łà¦¤":5198,"Ġà¦ıà¦ĩà¦°à¦ķà¦®à¦ĩ":5199,"Ġà¦ªà¦¥à¦ļà¦²à¦¤":5200,"Ġà¦ıà¦ķà¦§à¦°à¦£":5201,"à§§à§Ńà§«à§¬":5202,"Ġà¦§à§ľà¦®à§ľ":5203,"à¦¶à¦§à¦°à¦¦":5204,"Ġà§¬à§«":5205,"Ġà§¬à§¨":5206,"Ġà§¬à§®":5207,"Ġà§§à§«à§¦":5208,"Ġà§§à§«à§Ń":5209,"Ġà§§à§¯à§«à§§":5210,"à¦¤à¦Ĩà¦Łà¦ľà¦¨":5211,"Ġà§¦à§§à§Ń":5212,"Ġà¦ĸà§ľà¦ĸà§ľ":5213,"Ġà¦°à¦£à¦ľ":5214,"Ġà¦¶à¦¬à¦°à¦¦":5215,"Ġà¦«à¦¸à¦«à¦¸":5216,"Ġà¦Ĩà¦īà¦Łà¦¬à¦ķ":5217,"à¦ĵà¦ĵà¦ĵ":5218,"Ġà§ªà§©à§¦":5219,"Ġà¦Ĺà¦Ĺà¦²à¦¸":5220,"Ġà¦¥à¦ĩà¦¥à¦ĩ":5221,"ĠĠčĊĠĠĠĠĠč":5222,"Ġà¦®à¦Łà¦®à¦Ł":5223,"Ġà¦ħà¦¹à¦°à¦¹":5224,"Ġà§§à§§à§§":5225,"Ġà¦Ĺà¦ªà¦Ĺà¦ª":5226,"Ġà¦¡à¦Ĺà¦®à¦Ĺ":5227,"Ġà¦ıà¦¸à¦ıà¦®à¦ıà¦¸":5228,"à¦Ķ":5229,"à§±":5230,"à§ĩà¦¿":5231,"à§ĩà§į":5232,"à¦¾à§į":5233,"à¦°à¦°à¦¤":5234,"à¦°à¦ļà¦ķ":5235,"à¦°à¦ıà¦Ł":5236,"à¦°à¦ıà¦¬":5237,"à¦°à¦ıà¦ĸà¦¨":5238,"à¦°à¦Ĩà¦Ĺ":5239,"à¦°à¦īà¦¦":5240,"à¦°à¦ħà¦²":5241,"à¦°à¦īà¦¤":5242,"à¦°à¦Ĩà¦¨":5243,"à¦°à¦ĭà¦£":5244,"à¦¿à§ĩ":5245,"à¦¨à¦ªà¦¨":5246,"à¦¨à¦Ĺà¦²":5247,"à¦¨à¦ĩà¦¨":5248,"à¦¨à¦ħ":5249,"à¦¨à¦¶à¦¬":5250,"à¦¨à¦ĩà¦¤":5251,"à¦¨à¦¯à¦¦":5252,"à¦¨à¦ľà¦®":5253,"à¦¨à¦Ĩà¦¶":5254,"à¦¨à¦Ĩà¦ľà¦ķ":5255,"à¦¨à¦Ĳ":5256,"à¦¨à¦ªà¦°à¦¬à¦°":5257,"à¦²à¦£":5258,"à¦²à¦Ĺà¦²":5259,"à¦²à¦²à¦¤":5260,"à¦²à¦¨à¦ĵ":5261,"à¦²à¦ĩà¦¨":5262,"à¦²à¦Ńà¦¬":5263,"à¦²à¦¸à¦¤":5264,"à¦²à¦¶à¦¬":5265,"à¦²à¦ªà¦Ł":5266,"à¦²à¦ªà¦ķ":5267,"à¦²à¦«à¦²":5268,"à¦²à¦ľà¦®":5269,"à¦²à¦ĵà¦°":5270,"à¦²à¦¸à¦¬à¦ķ":5271,"à¦²à¦Ĩà¦ľà¦ķ":5272,"à¦²à¦Ĳ":5273,"à¦²à¦ħà¦¬":5274,"à¦¤à¦£":5275,"à¦¤à¦¬à¦¨":5276,"à¦¤à¦ĺ":5277,"à¦¤à¦²à¦ķ":5278,"à¦¤à¦ķà¦²":5279,"à¦¤à¦ĸà¦¤":5280,"à¦¤à¦ķà¦¬":5281,"à¦¤à¦ļà¦²":5282,"à¦¤à¦ªà¦¦":5283,"à¦¤à¦ľà¦²":5284,"à¦¤à¦ıà¦°":5285,"à¦¤à¦Ĩà¦ľ":5286,"à¦¤à¦¹à¦¤":5287,"à¦¤à¦ıà¦ĸ":5288,"à¦¤à§°":5289,"à¦¤à¦ħà¦®":5290,"à¦¤à¦¸à¦®à¦¸":5291,"à¦ķà¦®à¦²":5292,"à¦ķà¦ħà¦¨":5293,"à¦ķà¦Ĩà¦°":5294,"à¦ķà¦Ĩà¦ľ":5295,"à¦ķà¦ıà¦Ł":5296,"à¦ķà¦ıà¦¬":5297,"à¦¯à¦Ľ":5298,"à¦¯à¦ĺ":5299,"à¦¯à¦¯à¦¨":5300,"à¦¯à§İà¦ķ":5301,"à¦¯à¦¶à¦¬":5302,"à¦¯à¦ªà¦ķ":5303,"à¦¯à¦¸à¦®":5304,"à¦¯à¦ªà¦¥":5305,"à¦¯à§Łà¦¨":5306,"à¦¯à¦ĩà¦¤":5307,"à¦¯à¦Ĺà¦£":5308,"à¦¯à¦ıà¦¸à¦¬":5309,"à§ģà§ĩ":5310,"à¦¼à¦ĥ":5311,"à¦¬à¦ĵà¦¯":5312,"à¦¬à¦¹à¦¸":5313,"à¦¬à¦¤à¦²":5314,"à¦¬à¦ıà¦°":5315,"à¦¬à¦Łà¦Ł":5316,"à¦¬à¦ľà¦¯":5317,"à¦¬à§°":5318,"à¦¬à¦Ĺà¦ŀ":5319,"à§ĭà§į":5320,"à§ĭà§ĭ":5321,"Ġà¦ķà¦Ľ":5322,"Ġà¦ķà¦ĸ":5323,"Ġà¦ķà¦ĩà¦¤":5324,"Ġà¦ķà¦ľà¦¨à¦ķ":5325,"à¦®à¦¸à¦¬":5326,"à¦®à¦ıà¦ķ":5327,"à¦®à¦¶à¦¬":5328,"à¦®à¦Ĺà¦¨":5329,"à¦®à¦Ĺà¦°":5330,"à¦®à¦ıà¦°":5331,"à¦®à¦ľà¦®":5332,"à¦®à¦¸à¦¬à¦ķ":5333,"à¦®à¦Ĩà¦ªà¦¨":5334,"Ġà¦¬à¦ļ":5335,"Ġà¦¬à¦Łà¦²":5336,"Ġà¦¬à¦ľà¦°":5337,"Ġà¦¬à¦ķà¦¶":5338,"Ġà¦Ĩà¦£":5339,"Ġà¦Ĩà¦§à¦ķ":5340,"Ġà¦Ĩà¦ªà¦¦":5341,"Ġà¦Ĩà¦īà¦¡":5342,"Ġà¦Ĩà¦ĸà¦ĸ":5343,"Ġà¦¸à¦¶":5344,"Ġà¦¸à¦ĵà§Ł":5345,"Ġà¦¸à¦¦à¦¨":5346,"Ġà¦¸à§İà¦ķ":5347,"Ġà¦¸à¦ªà¦ķ":5348,"Ġà¦¸à¦ĩà¦Ľ":5349,"à¦Łà¦Ŀ":5350,"à¦Łà¦¸à¦¬":5351,"à¦Łà¦¨à¦Ł":5352,"à¦Łà¦®à¦°":5353,"à¦Łà¦ªà¦¦":5354,"à¦Łà¦ıà¦°":5355,"à¦Łà¦¸à¦¬à¦ķ":5356,"à¦Łà¦īà¦¡":5357,"à¦Łà¦®à¦Łà¦®":5358,"à¦¸à¦ł":5359,"à¦¸à¦®à¦¨":5360,"à¦¸à¦¬à¦²":5361,"à¦¸à¦°à¦²":5362,"à¦¸à¦¨à¦ĵ":5363,"à¦¸à¦°à¦Ł":5364,"à¦¸à¦ķà¦¦":5365,"à¦¸à¦Ńà¦°":5366,"à¦¸à¦ıà¦ĸà¦¨":5367,"à¦¸à¦īà¦¦":5368,"à¦¸à¦¯à¦ľ":5369,"à¦¸à¦ıà¦Ĺ":5370,"à¦¸à¦ĸà¦¨à¦ĵ":5371,"Ġà¦ªà¦¥à¦®":5372,"Ġà¦ªà¦²à¦²":5373,"Ġà¦ªà¦²à¦¸":5374,"Ġà¦ªà§Łà¦²":5375,"à¦Ľà¦§à¦°":5376,"à¦Ľà¦²à¦Ľà¦²":5377,"Ġà¦¨à¦Ľ":5378,"Ġà¦¨à¦ĵà¦¯":5379,"Ġà¦¨à¦¬à¦ª":5380,"Ġà¦¨à¦ĵà§Ł":5381,"Ġà¦¨à¦²à¦Ľ":5382,"Ġà¦¨à¦¨à¦¸":5383,"à¦ĩà¦ł":5384,"à¦ĩà¦¬à¦²":5385,"à¦ĩà¦ķà¦°":5386,"à¦ĩà¦ķà¦Ł":5387,"à¦ĩà¦®à¦ķ":5388,"à¦ĩà¦¤à¦²":5389,"à¦ĩà¦¯à¦¨":5390,"à¦ĩà¦ıà¦ķ":5391,"à¦ĩà¦¬à¦¸":5392,"à¦ĩà¦ªà¦¡":5393,"à¦ĩà¦ļà¦¡":5394,"à¦ĩà¦ħà¦¨":5395,"à¦ĩà¦¸à¦¬à¦ĩ":5396,"à¦ĩà¦Ĩà¦ľ":5397,"à¦ĩà¦ļà¦¬":5398,"à¦ĩà¦«à¦¸":5399,"à¦ĩà¦ıà¦Ł":5400,"à¦ĩà¦Ĩà¦²":5401,"à¦¦à¦§":5402,"à¦¦à¦ķà¦¤":5403,"à¦¦à¦°à¦¶":5404,"à¦¦à¦ıà¦ķ":5405,"à¦¦à¦ªà¦Ł":5406,"à¦¦à¦Ĺà¦¨":5407,"à¦¦à¦¸à¦¬à¦ķ":5408,"Ġà¦®à¦¬":5409,"Ġà¦®à¦°à¦¹":5410,"Ġà¦®à¦Łà¦°":5411,"Ġà¦®à¦Ĺà¦¬":5412,"Ġà¦®à¦°à¦®à¦°":5413,"Ġà¦¦à¦¨":5414,"Ġà¦¦à¦Ļ":5415,"Ġà¦¦à¦ĩà¦ļ":5416,"Ġà¦ıà¦ªà¦¥":5417,"Ġà¦ıà¦¶à¦¹à¦°":5418,"Ġà¦ıà¦¤à¦°à¦ķà¦®":5419,"Ġà¦ıà¦ħà¦ŀ":5420,"Ġà¦ıà¦§à¦°à¦¨":5421,"Ġà¦¤à¦Łà¦°":5422,"Ġà¦¤à¦¦à¦¬":5423,"Ġà¦¹à¦°à¦ª":5424,"Ġà¦¹à¦¦à¦¯":5425,"Ġà¦¹à¦īà¦ķ":5426,"à¦ªà¦°à¦¤":5427,"à¦ªà¦ªà¦°":5428,"à¦ªà¦®à¦¯":5429,"à¦ªà¦Ĩà¦®":5430,"à¦ªà¦ıà¦ĩ":5431,"à¦ªà¦ıà¦ķà¦Ł":5432,"à¦ªà¦²à¦¸":5433,"à¦ªà¦£à¦¤":5434,"à¦ªà¦¬à¦¦":5435,"à¦ªà¦ħà¦°":5436,"à¦ªà¦§à¦°":5437,"à¦ªà§Łà¦¸":5438,"à¦ªà¦Ŀà¦²à¦®à¦²":5439,"à¦ĸà¦¬à¦¨":5440,"à¦ĸà¦°à¦ķ":5441,"à¦ĸà¦ķà¦²":5442,"à¦ĸà¦¸à¦¬à¦ĩ":5443,"à¦ĸà¦ľà¦¨à¦ķ":5444,"à¦ĸà¦ķà¦ĩ":5445,"à¦ľà¦ŀ":5446,"à¦ľà¦ĺ":5447,"à¦ľà¦¤à¦¬":5448,"à¦ľà¦²à¦¬":5449,"à¦ľà¦®à¦°":5450,"à¦ľà¦ıà¦ķ":5451,"à¦ľà¦ĺà¦°":5452,"à¦ľà¦¸à¦¬à¦ĩ":5453,"à¦ľà¦ħà¦°":5454,"à¦¡à¦ªà¦¤":5455,"à¦¡à¦²à¦¸":5456,"à¦¡à¦ıà¦°":5457,"à¦¡à¦ĸà¦£":5458,"à¦¶à¦¬à¦²":5459,"à¦¶à¦¸à¦¬":5460,"à¦¶à¦°à¦¸":5461,"à¦¶à¦®à¦¤":5462,"à¦¶à¦ªà¦Ł":5463,"à¦¶à¦ľà¦²":5464,"à¦¶à¦ķà¦ķ":5465,"à¦¶à¦ıà¦ķà¦Ł":5466,"à¦¶à¦ľà¦®":5467,"Ġà¦ħà¦Ľ":5468,"Ġà¦ħà¦ĸà¦¨":5469,"à¦Ĺà¦«":5470,"à¦Ĺà¦¸à¦®":5471,"à¦Ĺà¦¹à¦¨":5472,"à¦Ĺà¦ªà¦¥":5473,"à¦Ĺà¦łà¦ķ":5474,"Ġà¦ķà¦°à¦¦":5475,"Ġà¦ķà¦°à¦ķà¦°":5476,"Ġà¦¯à¦¬à¦¨":5477,"Ġà¦Ĺà¦¸":5478,"Ġà¦Ĺà¦Ĺ":5479,"Ġà¦Ĺà¦®à¦¨":5480,"Ġà¦Ĺà¦¬à¦°":5481,"Ġà¦Ĺà¦ľà¦°":5482,"Ġà¦Ĺà¦ľà¦¬":5483,"à¦ļà¦ĸ":5484,"à¦ļà¦ĵà¦¯":5485,"à¦ļà¦²à¦¬":5486,"à¦ļà¦ĺà¦°":5487,"à¦ļà¦¤à¦®":5488,"à¦ļà¦ıà¦°":5489,"Ġà¦ļà¦ķà¦¦":5490,"Ġà¦ļà§ľà¦¤":5491,"à¦·à¦Ľ":5492,"à¦·à¦°à¦¤":5493,"à¦·à¦°à¦ķ":5494,"à¦·à¦°à¦®":5495,"à¦·à¦°à¦ĩ":5496,"à¦·à¦¤à¦²":5497,"à¦·à¦°à¦Ł":5498,"à¦·à¦°à¦ĵ":5499,"à¦·à¦¤à¦ķ":5500,"à¦·à¦ıà¦ķ":5501,"à¦·à¦ľà¦¨à¦ķ":5502,"à§Łà¦£":5503,"à§Łà¦Ĩà¦®":5504,"à§Łà¦¨à¦¦":5505,"à§Łà¦ķà¦¨":5506,"Ġà¦°à¦¸à¦¨":5507,"Ġà¦°à¦ľà¦¬":5508,"Ġà¦°à¦¨à¦ľ":5509,"Ġà¦°à¦¸à¦ķà¦·":5510,"Ġà¦¶à§Ł":5511,"Ġà¦¶à¦¤à¦°à¦ŀ":5512,"à¦§à¦ĸ":5513,"à¦§à¦ľ":5514,"à¦§à¦§":5515,"à¦§à¦¨à¦¤":5516,"à¦§à¦¨à¦¬":5517,"à¦§à¦ľà¦¯":5518,"Ġà¦Ńà¦Ń":5519,"Ġà¦Ńà¦°à¦£à¦ª":5520,"Ġà¦Ńà¦ķà¦Ńà¦ķ":5521,"Ġà¦ľà¦¤":5522,"Ġà¦ľà¦¦":5523,"Ġà¦ľà¦ĵà¦¹":5524,"à¦¥à¦¯":5525,"à¦¥à¦¬à¦¨":5526,"à¦¥à¦°à¦ļ":5527,"à¦¥à¦²à¦Ł":5528,"à¦¥à¦²à¦¸":5529,"à¦¥à¦²à¦Ń":5530,"à¦¥à¦¬à¦¹":5531,"à¦¥à¦²à¦ľ":5532,"à¦¹à¦ļ":5533,"à¦¹à¦ĵ":5534,"à¦¹à¦ªà¦°":5535,"à¦¹à¦¸à¦¬":5536,"à¦¹à¦²à¦¬":5537,"à¦¹à¦¨à¦²":5538,"à¦¹à¦®à¦¬":5539,"à¦¹à¦Ĺà¦¨":5540,"à¦¹à¦¸à¦¬à¦ĩ":5541,"à¦¹à¦Ńà¦°":5542,"à¦¹à¦ľà¦®":5543,"Ġà¦ıà¦ķà¦ªà¦°":5544,"Ġà¦ıà¦ķà¦¶à¦¬":5545,"Ġà¦ıà¦ķà¦ªà¦ķ":5546,"Ġà¦ıà¦ķà¦ıà¦ķà¦ľà¦¨":5547,"Ġà¦Ĩà¦®à¦ļ":5548,"Ġà¦Ĩà¦®à§ľ":5549,"à¦ĵà¦¶":5550,"à¦ĵà¦¸à¦¬":5551,"à¦ĵà¦¸à¦¬à¦ĩ":5552,"à¦ĵà¦Ĩà¦°":5553,"à¦ĵà¦Ĩà¦°à¦ķ":5554,"à¦£à¦Ľ":5555,"à¦£à¦ªà¦¨":5556,"à¦£à¦°à¦ķ":5557,"à¦£à¦ķà¦°":5558,"à¦£à¦¬à¦¦":5559,"à¦£à¦ķà¦£":5560,"à¦£à¦Ĺà¦ŀ":5561,"Ġà¦Ľà¦°":5562,"Ġà¦Ľà¦ĩ":5563,"Ġà¦¬à¦²à¦¶":5564,"Ġà¦¬à¦²à¦Ĺ":5565,"Ġà¦¬à¦²à¦¬à¦¨":5566,"Ġà¦²à¦Ń":5567,"Ġà¦²à¦ĩà¦²":5568,"Ġà¦²à¦¬à¦¸":5569,"à¦łà¦ķà¦°":5570,"à¦łà¦®à¦¯":5571,"à¦łà¦¤à¦®":5572,"à¦łà¦ķà¦ª":5573,"Ġà¦Ĩà¦°à¦ı":5574,"Ġà¦Ĩà¦°à¦¬à¦¦":5575,"à¦¾à¦ģà¦¾":5576,"à¦Ńà§İ":5577,"à¦Ńà¦²à¦ª":5578,"Ġà¦«à¦²à¦¬":5579,"Ġà¦«à¦°à¦¹":5580,"Ġà¦«à¦²à¦¸":5581,"Ġà¦«à§Łà¦¸":5582,"Ġà¦«à¦°à¦«à¦°":5583,"Ġà¦īà¦Ľ":5584,"Ġà¦īà¦Ń":5585,"Ġà¦īà¦Ĺà¦°":5586,"Ġà¦īà¦Ľà¦²":5587,"Ġà¦ĸà¦°à¦¤":5588,"Ġà¦ĸà¦°à¦¸":5589,"Ġà¦ĸà¦°à¦Ĺ":5590,"à¦Ļà¦¡":5591,"à¦Ļà¦¨à¦ĩ":5592,"Ġà¦ĵà¦¶":5593,"Ġà¦ĵà¦§":5594,"Ġà¦§à¦²à¦¤":5595,"Ġà¦§à¦¨à¦ķ":5596,"à¦ĸà¦¨à¦²":5597,"à¦ĸà¦¨à¦ķ":5598,"à¦ĸà¦¨à¦¶":5599,"Ġà¦ĺà¦°à¦®à¦¯":5600,"Ġà¦ªà¦°à¦ľ":5601,"Ġà¦ªà¦°à¦Ĺà¦¨":5602,"Ġà¦ªà¦°à¦¶à¦ª":5603,"Ġà¦ªà¦°à¦Ĺà¦£":5604,"Ġà¦¬à¦²à¦²à¦ķ":5605,"Ġà¦¬à¦²à¦²à¦¬":5606,"Ġà¦¬à¦²à¦²à¦ª":5607,"à¦°à¦¤à¦Ł":5608,"à¦«à¦¯":5609,"à¦«à¦¬":5610,"à¦«à¦ĩ":5611,"à¦«à¦ļ":5612,"à¦«à¦ĵ":5613,"à¦«à¦Ŀ":5614,"à§ľà¦¶":5615,"à§ľà¦Ń":5616,"à¦Ŀà¦¸":5617,"à¦Ŀà¦Ļ":5618,"à¦Ŀà¦°à¦¨":5619,"Ġà¦Łà¦²à¦Ľ":5620,"à¦īà¦Ŀ":5621,"à¦īà¦ī":5622,"à¦īà¦¨à¦Ł":5623,"à¦īà¦ªà¦ķ":5624,"à¦īà¦¢":5625,"à¦īà¦¡à¦¨":5626,"Ġà¦Ĩà¦Ľà¦¨":5627,"à¦ªà¦¨à¦ķ":5628,"à¦ªà¦¨à¦ĩ":5629,"à¦ªà¦¨à¦Ĺ":5630,"Ġà¦¸à¦®à¦Ń":5631,"à¦ªà¦°à¦¸":5632,"Ġà¦ıà¦ĩà¦°":5633,"à¦®à¦¨à¦²":5634,"Ġà¦Ĩà¦²à¦Ł":5635,"Ġà¦Ĩà¦²à¦¹":5636,"Ġà¦¸à¦¬à¦¸":5637,"à¦ľà¦¨à¦¨":5638,"à¦¤à¦°à¦¯":5639,"à¦¤à¦°à¦ļ":5640,"à¦¤à¦°à¦Ń":5641,"Ġà¦¡à¦²à¦¤":5642,"Ġà¦¡à¦Łà¦ª":5643,"à¦¬à¦¨à¦²":5644,"à¦°à¦¬à¦ĩ":5645,"à¦°à¦¬à¦ª":5646,"à§İà¦ľ":5647,"Ġà¦ĩà¦¬à¦°":5648,"Ġà¦ĩà¦ķà¦¨":5649,"Ġà¦ĩà¦¸à¦ķ":5650,"Ġà¦ĩà¦īà¦ķ":5651,"à¦ŀà¦°":5652,"Ġà¦¹à¦²à¦¨":5653,"Ġà¦¹à¦²à¦ª":5654,"Ġà¦¹à¦²à¦ıà¦ķà¦Ł":5655,"Ġà¦łà¦¨":5656,"à¦°à¦£à¦¦":5657,"à¦°à¦£à¦¹":5658,"à¦°à¦£à¦ķà¦ķ":5659,"à¦°à¦ķà¦¥":5660,"Ġà¦ķà¦°à¦²à¦®":5661,"Ġà¦ķà¦°à¦²à¦¸à¦¬":5662,"Ġà¦ķà¦°à¦²à¦ıà¦ķ":5663,"Ġà¦ķà¦°à¦²à¦Ĩà¦®":5664,"Ġà¦ķà¦°à¦²à¦ľà¦²":5665,"Ġà¦ķà¦°à¦²à¦ıà¦ĸà¦¨":5666,"Ġà¦Ŀà¦®":5667,"Ġà¦Ŀà¦Ĺà§ľ":5668,"à¦¬à¦°à¦Ŀ":5669,"à¦¬à¦°à¦Łà¦°":5670,"à¦¬à¦°à¦¦à¦¸":5671,"à¦¬à¦°à¦®à§Ł":5672,"à¦ĺà¦ĵ":5673,"à¦ĺà¦¬à¦¤":5674,"à¦ĺà¦Ńà¦°":5675,"Ġà¦Ĩà¦Ĺà¦°à¦¤à¦²":5676,"Ġà¦Ĩà¦Ĺà¦°à¦ĵà¦¯":5677,"à¦ıà¦¤à¦ķ":5678,"à¦ıà¦®à¦¸":5679,"à¦ıà¦¸à¦¡":5680,"à¦ıà¦¨à¦ıà¦°":5681,"Ġà¦ľà¦¨à¦°":5682,"Ġà¦ľà¦¨à¦¹":5683,"Ġà¦ľà¦¨à¦¸à¦¨":5684,"Ġà¦ļà¦²à¦ķ":5685,"Ġà¦Ĺà¦²à¦Ľ":5686,"Ġà¦Ĺà¦²à¦ĺ":5687,"à¦¬à¦²à¦¯":5688,"à¦¬à¦²à¦¦":5689,"à¦¬à¦²à¦¶":5690,"à¦¬à¦²à¦¹":5691,"à¦¬à¦²à¦Ŀà¦²":5692,"à¦ķà¦°à¦¦à¦°":5693,"à¦ķà¦Łà¦¨":5694,"à¦ķà¦Łà¦²":5695,"à¦ķà¦Łà¦¤":5696,"à¦ķà¦Łà¦¬":5697,"à¦¨à¦¤à¦¤":5698,"à¦·à¦£à¦®":5699,"à¦·à¦£à¦¸à¦¬à¦ĩ":5700,"Ġà¦ħà¦¬à§Ł":5701,"Ġà¦ıà¦²à¦ľ":5702,"Ġà¦ıà¦²à¦Ĩà¦Ĺ":5703,"Ġà¦ıà¦²à¦ıà¦¸à¦¡":5704,"Ġà¦Ĩà¦¬à¦¡":5705,"Ġà¦Ĩà¦¬à¦°à¦£à¦Ł":5706,"Ġà¦¨à¦¤à¦®à¦¸":5707,"à¦¬à¦ªà¦¦":5708,"Ġà¦īà¦łà¦²à¦¶":5709,"Ġà¦īà¦łà¦²à¦ł":5710,"à¦Ĩà¦ĸ":5711,"à¦Ĩà¦Ĩ":5712,"à¦Ĩà¦ĩà¦°":5713,"à¦Ĩà¦¸à¦¤":5714,"à¦Ĩà¦¹à¦°à¦£":5715,"à¦²à¦ķà¦¤":5716,"à¦²à¦ķà¦¡":5717,"à¦²à¦ķà¦¥":5718,"à¦²à¦ķà¦ĸà¦¨":5719,"Ġà¦¬à¦¨à¦®":5720,"Ġà¦¬à¦¨à¦Ł":5721,"à¦°à¦®à¦²":5722,"à¦°à¦®à¦ķ":5723,"à¦°à¦®à¦Ł":5724,"à¦°à¦®à¦¸":5725,"à¦°à¦®à¦ª":5726,"à¦ķà¦²à¦Ĺ":5727,"à¦ķà¦²à¦ıà¦ĩ":5728,"Ġà¦ıà¦¬à¦¯":5729,"Ġà¦ħà¦°à¦¯":5730,"à¦¶à¦¨à¦¸":5731,"Ġà¦¹à§Łà¦ķ":5732,"à¦Ĺà¦²à¦§":5733,"à¦Ĺà¦²à¦¹":5734,"à¦Ĺà¦²à¦Ń":5735,"à¦Ĺà¦²à¦ıà¦ķà¦Ł":5736,"à¦Ĺà¦²à¦ıà¦Ł":5737,"à¦ĩà¦²à¦ª":5738,"Ġà¦¹à¦¤à¦¦à¦°":5739,"Ġà¦ĺà¦°à¦ĵ":5740,"Ġà¦ĺà¦°à¦Ń":5741,"Ġà¦ĺà¦°à¦¦à¦°à¦ľ":5742,"à¦°à¦¨à¦¬":5743,"à¦°à¦¨à¦ľ":5744,"Ġà¦ķà¦°à¦¬à¦¬":5745,"à¦ĸà¦²à¦ıà¦ķ":5746,"à¦ĸà¦²à¦ıà¦ķà¦Ł":5747,"à¦°à¦ľà¦¯":5748,"à¦°à¦ľà§Ł":5749,"à¦°à¦ľà¦¬à¦°à¦¦à¦¸":5750,"à¦§à¦ķà¦°à¦£":5751,"à¦°à¦²à¦¸":5752,"à¦°à¦²à¦¶":5753,"Ġà¦ªà¦¥à¦ķ":5754,"Ġà¦ªà¦¥à¦¯":5755,"Ġà¦ªà¦¥à¦ľ":5756,"Ġà¦ªà¦¥à¦¶":5757,"à¦°à¦¸à¦¡":5758,"Ġà¦ħà¦®à¦¤":5759,"Ġà¦ħà¦®à¦¯":5760,"Ġà¦ħà¦®à¦²à¦ķ":5761,"Ġà¦Ĩà¦¨à¦ĩà¦®":5762,"Ġà¦Ĩà¦¨à¦ħà¦«":5763,"à¦°à¦¶à¦°":5764,"à¦°à¦¶à¦¬":5765,"à¦°à¦ªà¦°à¦ıà¦ķ":5766,"Ġà¦ľà¦²à¦¹":5767,"à¦®à¦¤à¦®":5768,"à¦®à¦¤à¦ĩ":5769,"à¦®à¦¤à¦ĵ":5770,"Ġà¦¬à¦°à¦ĩ":5771,"Ġà¦¬à¦°à¦ĸ":5772,"Ġà¦¬à¦°à¦¦à¦¨":5773,"à¦ķà¦¬à¦§":5774,"Ġà¦ħà¦ªà¦ĺ":5775,"Ġà¦ĵà¦ªà¦°à¦ĵ":5776,"à¦¨à¦ĵà¦°":5777,"à¦¨à¦ĵà¦Ń":5778,"à¦Łà¦ķà¦ª":5779,"à¦Łà¦ķà¦ĵ":5780,"à¦ĩà¦¨à¦¦":5781,"à¦ĩà¦¨à¦·":5782,"à¦ĩà¦¨à¦¹":5783,"à¦¤à¦¬à¦¦à¦²":5784,"à¦¦à¦¨à¦®à¦²":5785,"à¦¦à¦¨à¦ªà¦¤":5786,"Ġà¦ħà¦Ńà§Ł":5787,"à¦®à¦ķà¦Ń":5788,"Ġà¦īà¦¤à¦²":5789,"à¦¦à¦°à¦ŀ":5790,"à¦²à¦¬à¦¸":5791,"à¦²à¦¬à¦¦":5792,"à¦²à¦¬à¦¦à¦²":5793,"Ġà¦ħà¦¤à¦ªà¦°":5794,"à¦ħà¦¯":5795,"à¦ħà¦¹":5796,"à¦ħà¦¥à¦°":5797,"à¦ħà¦ľà§Ł":5798,"à¦¯à¦¬à¦ĩà§Ł":5799,"Ġà¦¬à¦Ľà¦°à¦¦":5800,"Ġà¦ħà¦§à¦®":5801,"Ġà¦ķà¦²à¦°":5802,"Ġà¦ķà¦²à¦ĵ":5803,"Ġà¦īà¦¦à¦¬":5804,"à¦¹à¦²à¦®":5805,"à¦¹à¦²à¦ĵ":5806,"à¦¹à¦²à¦®à¦¯":5807,"à¦¹à¦²à¦®à§Ł":5808,"à¦¨à¦¬à¦¬":5809,"à¦¨à¦¬à¦¶":5810,"à¦¨à¦¬à¦®à¦¨":5811,"à¦¨à¦¬à¦¦à¦¨":5812,"à¦¨à¦¬à¦¦à¦²":5813,"à¦¨à¦¬à¦¯à¦¨":5814,"à¦¨à¦¬à¦¸à¦¦":5815,"Ġà¦ķà¦®à¦¦":5816,"Ġà¦ķà¦®à¦ĵ":5817,"Ġà¦īà¦ªà¦ª":5818,"Ġà¦īà¦ªà§ľ":5819,"à¦°à¦ªà¦²":5820,"Ġà¦ķà¦¤à¦¤":5821,"Ġà¦ĵà¦ĩà¦°à¦ķà¦®à¦ĩ":5822,"Ġà¦¬à¦ĩà¦Ńà¦°":5823,"à¦Ńà¦¬à¦ĩ":5824,"à¦Ńà¦¬à¦ªà¦°":5825,"à¦¦à¦²à¦Ł":5826,"à¦²à¦²à¦¨":5827,"à¦²à¦¨à¦Ł":5828,"à¦²à¦¨à¦ĩ":5829,"à¦°à¦¦à¦¶":5830,"à¦¨à¦ķà¦¥":5831,"à¦°à¦ĵà¦ª":5832,"Ġà¦¸à¦¹à¦¨":5833,"Ġà¦¸à¦¹à¦¬":5834,"à¦°à¦¹à¦ľ":5835,"à¦°à¦¹à¦¶":5836,"à¦°à¦¹à¦ĵ":5837,"à¦¤à¦ķà¦ķ":5838,"Ġà¦¨à§Łà¦®":5839,"Ġà¦¨à§Łà¦ı":5840,"à¦¯à¦¤à¦ĵ":5841,"à¦¯à¦ķà¦£":5842,"à¦¸à¦¨à¦ªà¦¤":5843,"Ġà¦¯à¦¤à¦ĸ":5844,"à¦ıà¦ķà¦ªà¦°":5845,"à¦ıà¦ķà¦ľà¦¨à¦ķ":5846,"à¦ıà¦ķà¦ĺà¦£":5847,"à¦ļà¦ķà¦ļà¦ķ":5848,"Ġà¦ħà¦ªà¦°à¦Ł":5849,"Ġà¦ħà¦ªà¦°à¦¦":5850,"Ġà¦ħà¦ªà¦°à¦ª":5851,"Ġà¦°à¦Ļà¦Ĺ":5852,"à¦ļà¦²à¦®":5853,"à¦ĩà¦Łà¦°":5854,"à¦ĩà¦Łà¦¨":5855,"à¦ĩà¦Łà¦ª":5856,"Ġà¦¬à¦¦à¦²à¦Ł":5857,"à¦¸à¦°à¦°":5858,"à¦¸à¦°à¦ĺà¦°":5859,"à¦¶à¦¬à¦¦":5860,"à¦¶à¦¬à¦ļà¦°à¦£":5861,"Ġà¦ħà¦«à¦²":5862,"Ġà¦¬à¦²à¦¬à§İ":5863,"Ġà¦°à¦ĩà¦²à¦ıà¦ķ":5864,"Ġà¦Ĩà¦Ļà¦Ł":5865,"à¦®à¦¬à¦¹":5866,"à¦®à¦¬à¦°à¦£":5867,"à¦ªà¦¦à¦ĩ":5868,"à¦ªà¦¦à¦¸à¦Ļ":5869,"Ġà¦ªà¦¦à¦¤":5870,"Ġà¦ªà¦¦à¦¶à¦¬":5871,"à¦ªà¦Łà¦ªà¦Ł":5872,"Ġà¦ķà¦·à¦Ľ":5873,"Ġà¦²à¦ķà¦Ĺ":5874,"Ġà¦¦à¦²à¦ª":5875,"Ġà¦Ĺà¦¤à¦®":5876,"à¦Łà¦¬à¦ķ":5877,"à¦Łà¦¬à¦¦":5878,"à¦Łà¦¬à¦ĩà§Ł":5879,"à¦¦à§Łà¦ļ":5880,"à¦Ŀà¦²à¦®":5881,"à¦Ŀà¦²à¦ıà¦ĸ":5882,"à¦ªà¦ķà¦ķ":5883,"à¦¸à¦®à¦Ĺ":5884,"à¦ıà¦ĩà¦ĩ":5885,"à¦ıà¦ĩà¦°à¦ķà¦®":5886,"Ġà¦Ĩà¦ļà¦®":5887,"à¦ĺà¦°à¦Ĺ":5888,"à¦¬à¦ķà¦¸":5889,"Ġà¦ħà¦²à¦Ĺ":5890,"Ġà¦ħà¦²à¦¸à¦¤":5891,"Ġà¦ħà¦²à¦¸à¦Ń":5892,"Ġà¦ĺà¦¨à¦ĺ":5893,"Ġà¦ĺà¦¨à¦ĺà¦Ł":5894,"Ġà¦īà¦ªà¦°à¦¨":5895,"Ġà¦īà¦ªà¦°à¦ķ":5896,"Ġà¦īà¦ªà¦°à¦ĵà§Ł":5897,"à¦¹à¦¨à¦Ń":5898,"à¦§à¦¨à¦¶":5899,"à¦ªà¦¥à¦ĩ":5900,"à¦Łà¦°à¦°":5901,"à¦ķà¦¦à¦®":5902,"Ġà¦¦à¦¶à¦Ĺ":5903,"à¦²à¦®à§Ł":5904,"Ġà¦ħà¦Ĺà¦¸":5905,"Ġà¦¬à¦īà¦Ĺ":5906,"Ġà¦¬à¦īà¦ĵ":5907,"à¦¯à¦°à¦¹à¦¸":5908,"à¦²à¦Łà¦¨":5909,"à¦ªà¦¸à¦¹":5910,"à¦°à¦Ĺà¦ª":5911,"à¦¦à¦¸à¦ĩ":5912,"Ġà¦§à¦°à¦²à¦ıà¦ķ":5913,"Ġà¦Ńà§Łà¦Ń":5914,"à¦®à§Łà¦²":5915,"à¦®à§Łà¦¦":5916,"Ġà¦Ĩà¦¦à¦¬":5917,"Ġà¦Ĩà¦¦à¦°à¦¬":5918,"Ġà¦Ĩà¦¦à¦¬à¦ķ":5919,"Ġà¦Ĩà¦ªà§İà¦ķ":5920,"à¦¬à¦¦à¦ķ":5921,"à¦¶à¦ķà¦ĵ":5922,"Ġà¦ıà¦¸à¦¬à¦ĵ":5923,"à¦²à¦Ĺà¦Ĺà¦¨":5924,"Ġà¦¶à¦¤à¦ĸ":5925,"Ġà¦¸à¦ķà¦²à¦ĩ":5926,"à¦ĩà¦Ńà¦°":5927,"Ġà¦°à¦ľà¦¤à¦¦":5928,"Ġà¦Ĺà¦°à¦®à¦ķ":5929,"Ġà¦Ĺà¦°à¦®à¦ľà¦²":5930,"Ġà¦¦à¦®à¦ķà¦²":5931,"à¦Ĩà¦°à¦ı":5932,"Ġà§§à§§":5933,"Ġà¦®à¦¸à¦²à¦¨":5934,"Ġà¦ªà§ľà¦²à¦ľ":5935,"Ġà¦Ĩà¦§à¦®":5936,"Ġà¦Ĩà¦§à¦¶":5937,"à¦Łà¦®à¦¹à¦²à¦¬":5938,"Ġà¦ķà¦ĸà¦¨à¦ĵà¦¸à¦ĸà¦¨à¦ĵ":5939,"Ġà¦īà§İà¦¸à¦Ł":5940,"à¦«à¦Łà¦Ł":5941,"à¦«à¦Łà¦¹":5942,"à¦¤à¦ªà¦²":5943,"Ġà¦ĵà¦ªà¦°à¦¤à¦²":5944,"à¦ĩà¦¡à¦¬":5945,"Ġà¦§à¦¨à¦Ŀà¦°":5946,"à¦Ĩà¦ľà¦ĩ":5947,"Ġà¦ĭà§Ł":5948,"Ġà¦īà¦ªà¦¸à¦ļ":5949,"à¦ķà¦¸à¦®à¦¯":5950,"Ġà¦Ĺà¦£à¦ª":5951,"Ġà¦Ĺà¦£à¦ªà¦°":5952,"Ġà¦ļà¦Łà¦ķà¦²":5953,"à¦®à¦£à¦¬":5954,"à¦®à¦£à¦¦":5955,"Ġà¦¨à¦¬à¦¤à¦°":5956,"Ġà¦¨à¦¬à¦Ĺà¦¡":5957,"à¦ĩà¦ªà¦Ĺ":5958,"Ġà¦īà§İà¦ĸ":5959,"Ġà¦īà§İà¦ªà¦²":5960,"Ġà¦¸à¦Ńà¦¯":5961,"à¦®à¦¸à¦ļ":5962,"Ġà¦Ĩà§ľà¦ļ":5963,"à¦®à¦¹à¦¨à¦¨":5964,"à¦°à¦ľà¦¨à¦¨à¦¶":5965,"à¦¦à¦ķà¦ĵ":5966,"à¦Łà¦¸à¦¹":5967,"Ġà¦ķà¦²à¦®à¦ĩ":5968,"à¦¤à¦Ńà¦°à¦¤":5969,"à¦²à¦¦à¦°à¦ľ":5970,"à¦®à¦°à¦£à¦ķ":5971,"à¦®à¦°à¦£à¦¶à¦ķ":5972,"Ġà¦²à§ľà¦¤":5973,"Ġà¦²à§ľà¦Ľ":5974,"Ġà¦ĸà¦°à¦ļà¦Ł":5975,"à¦īà¦ľà¦ª":5976,"Ġà¦¨à¦ľà¦°à¦¬à¦¨":5977,"à§Ńà§§":5978,"Ġà¦°à¦¸à¦¦":5979,"à¦ľà¦Ĺà¦ŀ":5980,"Ġà¦ľà§Łà¦²":5981,"à§¨à§¦":5982,"à§¨à§¨":5983,"à§¨à§§":5984,"à§¨à§©":5985,"ĠĠĠĠĠĠĠ":5986,"Ġà¦ıà¦¡à¦Ń":5987,"Ġà¦ıà¦¡à¦¹à¦ķ":5988,"Ġà¦°à¦¤à¦¨à¦²":5989,"Ġà¦°à¦¤à¦¨à¦¬":5990,"Ġà¦°à¦¤à¦¨à¦ª":5991,"Ġà¦Ĩà¦Łà¦ľà¦¨":5992,"à¦ļà§ľà¦ķ":5993,"Ġà¦ıà¦°à¦ªà¦°à¦ĵ":5994,"Ġà§¨à§Ń":5995,"Ġà§¨à§¬":5996,"Ġà§¨à§®":5997,"Ġà§¨à§¯":5998,"à¦ľà¦¦à¦°à¦¬":5999,"Ġà¦Ĩà¦ĩà¦¨à¦¤":6000,"Ġà¦Ĩà¦ĩà¦°à¦¨":6001,"Ġà¦Ŀà¦ķà¦ľà¦ķ":6002,"à¦¶à¦ªà¦ŀ":6003,"Ġà¦ıà¦®à¦ıà¦Ł":6004,"Ġà¦ıà¦®à¦ıà¦¤":6005,"Ġà¦ıà¦®à¦ıà¦²":6006,"à¦ľà§Łà¦¦":6007,"à¦®à¦®à¦Ń":6008,"à§°à¦²":6009,"à§°à¦¹":6010,"Ġà¦¶à¦ªà¦¥à¦Ĺ":6011,"Ġà¦ĩà¦īà¦ª":6012,"Ġà¦ĩà¦īà¦Ĺ":6013,"Ġà¦ĩà¦īà¦Ń":6014,"à¦¥à¦²à¦ªà¦¥":6015,"à§ªà§¦":6016,"à§ªà§¨":6017,"à¦²à¦ĸà¦£":6018,"Ġà¦Ĩà¦«à¦Ĺ":6019,"Ġà¦Ĭà¦¨":6020,"Ġà¦Ĭà¦§":6021,"Ġà¦Ĭà¦ł":6022,"Ġà¦Ĭà¦¨à¦ªà¦ŀ":6023,"à¦¶à¦°à¦ŀ":6024,"à¦Łà¦«à¦°à¦®":6025,"à¦¬à¦ľà¦¨à¦°":6026,"Ġà¦ĭà¦£à¦®":6027,"Ġà¦ĭà¦£à¦Ĺ":6028,"à¦¨à¦¶à¦¨à¦Ł":6029,"à¦Ĺà¦¦à¦ĸà¦²":6030,"à§©à§©":6031,"à§¬à§«":6032,"à§¬à§§":6033,"Ġà¦®à¦¦à¦¨à¦Ĺ":6034,"Ġà¦ĸà¦¬à¦°à¦Łà¦¬à¦°":6035,"à§®à§ª":6036,"à¦®à¦Ńà¦Ļ":6037,"Ġà¦ľà¦Ĺà¦¹":6038,"Ġà§ªà§®":6039,"à¦²à¦°à¦Ļ":6040,"Ġà¦ķà§ľà¦ļ":6041,"à¦ĸà¦¬à¦°à¦Ł":6042,"à¦ıà¦¸à¦ıà¦¸":6043,"à¦ªà¦ķà¦¥à¦¨à¦ĩ":6044,"Ġà§©à§¨":6045,"Ġà§©à§«à§Ń":6046,"à§¯à§«":6047,"Ġà§¨à§¦à§¦":6048,"Ġà§¨à§¦à§ªà§«":6049,"Ġà§¨à§¦à§¦à§§":6050,"à¦¶à¦Ńà¦ķ":6051,"Ġà¦ıà¦°à¦ĩà¦®à¦§":6052,"Ġà¦īà¦ĩà¦²à¦Ł":6053,"Ġà¦īà¦ĩà¦²à¦¸à¦¨":6054,"Ġà¦¨à¦°à¦ĵà¦¯":6055,"Ġà¦¨à¦ĵà¦¶":6056,"Ġà¦Ķà¦°à¦¸":6057,"Ġà¦¥à¦²à¦¥à¦²":6058,"à¦ıà¦¤à¦¸à¦¬":6059,"à¦Ĩà¦¸à¦Ĺà¦°":6060,"Ġà¦¸à§İà¦Ń":6061,"Ġà¦¨à¦Ĺà¦°à¦¬":6062,"à¦ħà¦ªà¦¹à¦°à¦£":6063,"Ġà¦īà¦ĩà¦Ĺ":6064,"Ġà¦īà¦ĩà¦¥":6065,"Ġà¦īà¦ĩà¦ł":6066,"Ġà§§à§¨à§«":6067,"Ġà¦ıà¦Ĩà¦ĩà¦ıà¦°":6068,"Ġà¦Ńà¦°à¦¤à¦ª":6069,"à¦Ŀà¦Ľà¦¸":6070,"Ġà§Ńà§¦":6071,"Ġà§Ńà§¨":6072,"à¦ľà¦ĸà¦¬à¦°à¦ĵ":6073,"à§§à§Ńà§«à§Ń":6074,"à¦¶à¦¹à¦°à¦¤à¦²":6075,"Ġà¦§à§ľà¦ķà¦¨":6076,"Ġà¦®à¦°à¦£à¦ķ":6077,"à§¦à§¦à§¦":6078,"à¦ĭà§Ł":6079,"à¦Ĩà¦¤à¦Ļ":6080,"Ġà§¬à§¦":6081,"à¦Īà¦¨":6082,"Ġà¦ķà¦¸à¦°à¦¤":6083,"Ġà¦¸à¦°à¦²à¦¤à¦®":6084,"Ġà¦¶à¦°à¦¤à¦ļà¦¨":6085,"Ġà¦Ĩà¦ªà¦¸à¦¹":6086,"Ġà¦ıà¦ķà¦ıà¦ķà¦°à¦ķà¦®":6087,"Ġà¦ıà¦ķà¦ıà¦ķà¦¸à¦®à¦¯":6088,"Ġà¦¸à¦®à¦Ŀà¦¦":6089,"à¦°à¦ĵà¦¶à¦¨à¦ķ":6090,"Ġà¦ıà¦®à¦ıà¦®":6091,"Ġà¦ıà¦Ĩà¦ĩà¦°":6092,"Ġà¦ıà¦Ĩà¦ĩà¦ķ":6093,"à¦¨à§Łà¦ļà¦¨":6094,"Ġà¦Ĺà¦Ĺà¦¨à¦ļ":6095,"à§§à§¯à§ªà§Ń":6096,"Ġà¦Ĺà¦¤à¦¬à¦Ľà¦°":6097,"Ġà¦¡à¦ľà¦¨à¦ĸ":6098,"ĠĠĠĠĠĠĠĠĠĠĠĠĠĠĠĠĠĠĠĠĠĠĠĠĠĠĠĠĠĠĠĠ":6099,"Ġà¦ªà¦ªà¦Ĩà¦ª":6100,"Ġà¦ħà§Łà¦¨à¦ķ":6101,"Ġà¦¬à¦ĸà¦¶":6102,"à§»à§ĩ":6103,"à¦¦à¦«à¦¤à¦°":6104,"à¦ıà¦¨à¦ıà¦¸":6105,"Ġà§§à§¯à§®à§«":6106,"Ġà¦Ĩà¦ĩà¦ķà¦¨":6107,"Ġà¦®à¦ļà¦®à¦ļ":6108,"Ġà¦¦à¦¹à¦°à¦®":6109,"Ġà¦ľà¦ĵà¦¹à¦°à¦²":6110,"à¦Ńà§İà¦¸à¦¤":6111,"¨à§¨":6112,"ĉčĊč":6113,"Ġà§ĭ":6114,"Ġà§ĥ":6115,"Ġà§İà¦¸":6116,"Ġà¦ģ":6117,"Ġà¦Ļ":6118,"à¦¾à¦¾à¦ģ":6119,"à¦¾à§ĩà¦ģ":6120,"à¦°à¦ł":6121,"à¦°à¦ĸà¦¨":6122,"à¦°à¦¨à¦¤":6123,"à¦°à¦°à¦®":6124,"à¦°à¦Ĺà¦ľ":6125,"à¦°à¦¢":6126,"à¦°à¦·à¦°":6127,"à¦°à¦«à¦²":6128,"à¦°à¦Ĩà¦ľ":6129,"à¦°à¦ĺà¦¨":6130,"à¦°à¦īà¦²":6131,"à¦°à¦·à¦¦":6132,"à¦°à¦Ĩà¦®à¦°":6133,"à¦°à¦ıà¦ĸ":6134,"à¦°à¦ıà¦ķà¦¦":6135,"à¦°à¦īà¦¡":6136,"à¦°à¦ıà¦®à¦¨":6137,"à¦°à¦ıà¦¤":6138,"à¦°à¦ħà¦¤":6139,"à¦°à¦ıà¦¸à¦¬à¦ĩ":6140,"à¦°à¦ıà¦ķà¦¸à¦®à¦¯":6141,"à§įà§į":6142,"à¦¨à¦ł":6143,"à¦¨à¦°à¦¬":6144,"à¦¨à¦¬à¦²":6145,"à¦¨à¦ķà¦¬":6146,"à¦¨à¦¦à¦°":6147,"à¦¨à¦Ńà¦¬":6148,"à¦¨à¦²à¦²":6149,"à¦¨à¦Ĺà¦¤":6150,"à¦¨à¦°à¦Ł":6151,"à¦¨à¦¯à¦¤":6152,"à¦¨à¦®à¦°":6153,"à¦¨à¦ªà¦¡":6154,"à¦¨à¦ĩà¦¬":6155,"à¦¨à¦ħà¦¨":6156,"à¦¨à¦®à¦§":6157,"à¦¨à¦īà¦²":6158,"à¦¨à¦§à¦°":6159,"à¦¨à¦ıà¦¬":6160,"à¦¨à¦®à¦¶":6161,"à¦¨à¦ĺà¦£":6162,"à¦¨à¦ıà¦¸à¦¬":6163,"à¦¨à¦Ĩà¦¬":6164,"à¦¨à¦ıà¦®à¦¨":6165,"à¦¨à¦¤à¦°à¦ķ":6166,"à¦¨à§Łà¦¦":6167,"à¦¨à¦Ĩà¦¨":6168,"à¦¨à¦Ĩà¦¤":6169,"à¦¨à¦Ĳà¦ķ":6170,"à¦²à¦ªà¦¨":6171,"à¦²à¦¤à¦°":6172,"à¦²à¦¬à¦ª":6173,"à¦²à¦ĩà¦²":6174,"à¦²à¦¦à¦°":6175,"à¦²à¦²à¦¬":6176,"à¦²à¦ħ":6177,"à¦²à¦¸à¦²":6178,"à¦²à¦ļà¦²":6179,"à¦²à¦ĩà¦Ł":6180,"à¦²à¦¸à¦°":6181,"à¦²à¦Ĺà¦¨":6182,"à¦²à¦Łà¦°":6183,"à¦²à¦«à¦Ł":6184,"à¦²à¦¹à¦¤":6185,"à¦²à¦Ĩà¦ªà¦¨":6186,"à¦²à¦īà¦¦":6187,"à¦²à¦¶à¦¹à¦°":6188,"à¦²à¦¸à¦®à§Ł":6189,"à¦²à¦Ĩà¦ĩà¦¨":6190,"à¦²à¦ħà¦ļ":6191,"à¦²à¦īà¦¤":6192,"à¦²à¦Ĩà¦¯":6193,"à¦²à¦Ĩà¦Ł":6194,"à¦²à¦Ĳà¦¤":6195,"à¦²à¦Ĩà¦§":6196,"à¦²à¦Ĳà¦¶":6197,"à¦¤à¦Ŀ":6198,"à¦¤à¦®à¦¨":6199,"à¦¤à¦¬à¦²":6200,"à¦¤à¦ķà¦Ł":6201,"à¦¤à¦Ńà¦¬":6202,"à¦¤à¦ļà¦¨":6203,"à¦¤à¦®à¦°":6204,"à¦¤à¦¸à¦¤":6205,"à¦¤à¦¸à¦®":6206,"à¦¤à¦¶à¦ķ":6207,"à¦¤à¦·à¦Ł":6208,"à¦¤à¦ıà¦Ł":6209,"à¦¤à¦Ľà¦¬":6210,"à¦¤à¦Ĩà¦®à¦°":6211,"à¦¤à¦ħà¦ªà¦°":6212,"à¦¤à¦¯à¦ĸà¦¨":6213,"à¦¤à¦ħà¦ļ":6214,"à¦¤à¦Ĩà¦¸":6215,"à¦¤à¦ıà¦¸à¦¬à¦ĩ":6216,"à¦ķà¦ī":6217,"à¦ķà¦ªà¦°":6218,"à¦ķà¦ĺ":6219,"à¦ķà¦¬à¦²":6220,"à¦ķà¦¦à¦°":6221,"à¦ķà¦ĩà¦°":6222,"à¦ķà¦ªà¦¤":6223,"à¦ķà¦¦à¦²":6224,"à¦ķà¦Ĺà¦¤":6225,"à¦ķà¦ļà¦²":6226,"à¦ķà¦¸à¦¤":6227,"à¦ķà¦¸à¦°":6228,"à¦ķà¦ªà¦¥":6229,"à¦ķà¦ıà¦ķà¦Ł":6230,"à¦ķà¦ĺà¦¨":6231,"à¦ķà¦®à¦£":6232,"à¦ķà¦ħà¦°":6233,"à¦ķà¦Ĩà¦®à¦°":6234,"à¦ķà¦Ĩà¦ķ":6235,"à¦ķà¦ĺà§ľ":6236,"à¦ķà¦Ŀà¦²à¦ķ":6237,"à¦¯à¦°à¦¤":6238,"à¦¯à¦«":6239,"à¦¯à¦Ŀ":6240,"à¦¯à¦ı":6241,"à¦¯à¦¬à¦²":6242,"à¦¯à¦Ĺà¦²":6243,"à¦¯à¦²à¦¤":6244,"à¦¯à¦®à¦¤":6245,"à¦¯à¦ļà¦¨":6246,"à¦¯à¦¦à¦¯":6247,"à¦¯à¦ļà¦ķ":6248,"à¦¯à¦ªà¦¦":6249,"à¦¯à¦¦à§Ł":6250,"à¦¯à¦ĺà¦°":6251,"à¦¯à¦§à¦¨":6252,"à¦¯à¦ıà¦ķà¦Ł":6253,"à¦¯à¦¶à¦ķ":6254,"à¦¯à¦ħà¦¨":6255,"à¦¯à¦Ĩà¦°":6256,"à¦¯à¦Ńà¦°":6257,"à¦¯à¦Ĩà¦®à¦°":6258,"à¦¯à¦Ŀà¦²à¦®à¦²":6259,"à¦¯à¦īà¦ª":6260,"à§ģà§ģ":6261,"à¦¬à¦°à¦¬":6262,"à¦¬à¦ŀ":6263,"à¦¬à¦ķà¦¤":6264,"à¦¬à¦®à¦¯":6265,"à¦¬à§İà¦ķ":6266,"à¦¬à¦¸à¦²":6267,"à¦¬à¦īà¦¨":6268,"à¦¬à¦Ĺà¦°":6269,"à¦¬à¦Ńà¦°":6270,"à¦¬à¦ľà¦¨à¦ķ":6271,"à¦¬à¦īà¦¯":6272,"à¦¬à¦®à¦¹":6273,"à¦¬à¦§à¦°":6274,"à¦¬à¦Ĩà¦ªà¦¨":6275,"à¦¬à¦īà¦®":6276,"à¦¬à¦Ĩà¦¬":6277,"à¦¬à¦¤à¦°à¦£":6278,"à¦¬à¦ıà¦Ĺ":6279,"à§ĭà¦¾":6280,"à§ĭà¦ĥ":6281,"Ġà¦ķà¦Łà¦ķ":6282,"Ġà¦ķà¦²à¦¬":6283,"Ġà¦ķà¦·à¦ķ":6284,"Ġà¦ķà¦īà¦ķ":6285,"Ġà¦ķà¦ªà¦ļ":6286,"Ġà¦ķà¦ĩà¦®":6287,"Ġà¦ķà¦¹à¦ķ":6288,"à¦®à¦·":6289,"à¦®à¦®à¦¨":6290,"à¦®à¦°à¦¬":6291,"à¦®à¦¬à¦²":6292,"à¦®à¦Ĩ":6293,"à¦®à¦²à¦ķ":6294,"à¦®à¦¶à¦¨":6295,"à¦®à¦Ĺà¦²":6296,"à¦®à¦°à¦ľ":6297,"à¦®à¦°à¦¸":6298,"à¦®à¦¸à¦¤":6299,"à¦®à¦¹à¦ł":6300,"à¦®à¦¢":6301,"à¦®à¦®à§Ł":6302,"à¦®à¦¸à¦¬à¦ĩ":6303,"à¦®à¦Ńà¦°":6304,"à¦®à¦ļà¦Ł":6305,"à¦®à¦ħà¦°":6306,"à¦®à¦ıà¦¬":6307,"à¦®à¦Ĩà¦²":6308,"à¦®à¦®à¦Ĺ":6309,"à¦®à¦Ĩà¦®à¦°":6310,"à¦®à¦ħà¦²":6311,"à¦®à¦Ĩà¦¦":6312,"à¦®à¦Ĺà¦¤à¦Ń":6313,"Ġà¦¬à¦ĵà¦¯":6314,"Ġà¦¬à¦Łà¦ķ":6315,"Ġà¦¬à¦ĩà¦¨":6316,"Ġà¦¬à¦īà¦¨":6317,"Ġà¦¬à¦°à¦¬à¦§":6318,"Ġà¦Ĩà¦ĩà¦¯":6319,"Ġà¦Ĩà¦ªà¦Ł":6320,"Ġà¦Ĩà¦īà¦¨":6321,"Ġà¦Ĩà¦Łà¦¬":6322,"Ġà¦Ĩà¦ĩà¦¬":6323,"Ġà¦Ĩà§°":6324,"Ġà¦¸à¦ĩà¦²":6325,"Ġà¦¸à¦°à¦¬à¦¤":6326,"Ġà¦¸à§İà¦¸":6327,"Ġà¦¸à¦²à¦«":6328,"Ġà¦¸à¦ĵà¦Ĺ":6329,"à¦Łà¦®à¦¨":6330,"à¦Łà¦°à¦ķ":6331,"à¦Łà¦¨à¦¤":6332,"à¦Łà¦²à¦ķ":6333,"à¦Łà¦²à¦¤":6334,"à¦Łà¦°à¦ľ":6335,"à¦Łà¦ķà¦¤":6336,"à¦Łà¦°à¦¸":6337,"à¦Łà¦ķà¦¬":6338,"à¦Łà¦ħ":6339,"à¦Łà¦°à¦¦":6340,"à¦Łà¦ļà¦ķ":6341,"à¦Łà¦¨à¦¦":6342,"à¦Łà¦ªà¦ķ":6343,"à¦Łà¦ĺà¦°":6344,"à¦Łà¦ªà¦¥":6345,"à¦Łà¦¨à¦Ĺ":6346,"à¦Łà¦¢":6347,"à¦Łà¦ĩà¦¤":6348,"à¦Łà¦ıà¦¬":6349,"à¦Łà¦ıà¦¸à¦¬":6350,"à¦Łà¦ĺà¦¡":6351,"à¦¸à¦·":6352,"à¦¸à¦Ŀ":6353,"à¦¸à¦¨à¦¤":6354,"à¦¸à¦°à¦¶":6355,"à¦¸à¦ĵà§Ł":6356,"à¦¸à¦ĩà¦¨":6357,"à¦¸à¦¦à¦¨":6358,"à¦¸à¦¦à¦°":6359,"à¦¸à¦ħ":6360,"à¦¸à¦¤à¦²":6361,"à¦¸à§İà¦ķ":6362,"à¦¸à¦²à¦¨":6363,"à¦¸à¦¨à¦ķ":6364,"à¦¸à¦ļà¦²":6365,"à¦¸à¦¶à¦¬":6366,"à¦¸à¦Ĩà¦ľ":6367,"à¦¸à¦Ŀà¦°":6368,"à¦¸à¦¸à¦¬à¦ķ":6369,"à¦¸à¦ıà¦ĸ":6370,"à¦¸à¦ıà¦¸à¦¬":6371,"à¦¸à¦ıà¦®à¦¨":6372,"à¦¸à¦ħà¦«":6373,"à¦¸à¦ħà¦¬":6374,"à¦¸à¦Ĳà¦¤":6375,"Ġà¦ªà¦®":6376,"Ġà¦ªà¦Ľ":6377,"Ġà¦ªà¦ĸ":6378,"Ġà¦ªà¦ł":6379,"Ġà¦ªà¦Łà¦¨":6380,"Ġà¦ªà¦ļà¦¤":6381,"Ġà¦ªà¦ªà¦²":6382,"à¦Ľà¦¶":6383,"à¦Ľà¦¹":6384,"à¦Ľà¦ĵà¦¯":6385,"à¦Ľà¦ĩà¦¨":6386,"à¦Ľà¦Ĩà¦°":6387,"à¦Ľà¦ıà¦Ł":6388,"Ġà¦¨à¦¬à¦°":6389,"Ġà¦¨à¦°à¦¨":6390,"Ġà¦¨à¦°à¦¹":6391,"Ġà¦¨à¦¬à¦¤":6392,"Ġà¦¨à¦ķà¦¸":6393,"Ġà¦¨à¦°à¦¹à¦°":6394,"Ġà¦¨à¦ĸà¦°":6395,"Ġà¦¨à¦Ńà¦¨":6396,"Ġà¦¨à¦¬à¦¤à¦®":6397,"à¦ĩà§ľ":6398,"à¦ĩà¦¬à¦°":6399,"à¦ĩà¦ĺ":6400,"à¦ĩà¦ķà¦²":6401,"à¦ĩà¦¨à¦ĵ":6402,"à¦ĩà¦Łà¦ķ":6403,"à¦ĩà¦ħ":6404,"à¦ĩà¦¸à¦¨":6405,"à¦ĩà¦¸à¦²":6406,"à¦ĩà¦ıà¦ĩ":6407,"à¦ĩà¦¹à¦ł":6408,"à¦ĩà¦īà¦°":6409,"à¦ĩà¦¶à¦²":6410,"à¦ĩà¦īà¦Ł":6411,"à¦ĩà¦ľà¦®":6412,"à¦ĩà¦īà¦ľ":6413,"à¦ĩà¦ıà¦¬":6414,"à¦ĩà¦ıà¦Ĺ":6415,"à¦ĩà¦Ĩà¦¦":6416,"à¦ĩà¦ħà¦®à¦¨":6417,"à¦¦à§ľ":6418,"à¦¦à¦Ŀ":6419,"à¦¦à¦¬à¦¨":6420,"à¦¦à¦¬à¦°":6421,"à¦¦à¦ķà¦°":6422,"à¦¦à¦²à¦¤":6423,"à¦¦à¦°à¦¸":6424,"à¦¦à¦®à¦ķ":6425,"à¦¦à¦ıà¦ĩ":6426,"à¦¦à¦¤à¦¤":6427,"à¦¦à¦ķà¦ķ":6428,"à¦¦à¦ķà¦¦":6429,"à¦¦à¦¬à¦¦":6430,"à¦¦à¦¶à¦ķ":6431,"à¦¦à¦Ĩà¦ľ":6432,"à¦¦à¦ķà¦®":6433,"à¦¦à¦ıà¦¬":6434,"à¦¦à¦Ńà¦Ļ":6435,"à¦¦à¦ħà¦¨à¦¨":6436,"à¦¦à¦°à¦¨à¦Ĺà¦°":6437,"Ġà¦®à¦ľà¦®":6438,"Ġà¦®à¦Ľà¦²":6439,"Ġà¦®à¦¦à¦¤":6440,"Ġà¦®à¦łà¦Ł":6441,"Ġà¦®à¦ķà¦°à¦®":6442,"Ġà¦¦à¦ľ":6443,"Ġà¦¦à¦ĸà¦¨":6444,"Ġà¦¦à¦ĩà¦¤":6445,"Ġà¦¦à¦ĩà¦Ń":6446,"Ġà¦ıà¦¬à¦²":6447,"Ġà¦ıà¦¨à¦¤":6448,"Ġà¦ıà¦®à¦¤":6449,"Ġà¦ıà¦®à¦ķ":6450,"Ġà¦ıà¦¨à¦Ł":6451,"Ġà¦ıà¦ıà¦ķ":6452,"Ġà¦ıà¦ªà¦¦":6453,"Ġà¦ıà¦Ĩà¦°":6454,"Ġà¦ıà¦®à¦¸":6455,"Ġà¦ıà¦Ĩà¦¬":6456,"Ġà¦ıà¦Ĩà¦ĩà¦¨":6457,"Ġà¦ıà¦ıà¦²":6458,"Ġà¦ıà¦ħà¦¬à¦¸":6459,"Ġà¦¤à¦°à¦®":6460,"Ġà¦¤à¦¹à¦®":6461,"Ġà¦¤à¦²à¦¤à¦²":6462,"Ġà¦¹à¦°à¦ķ":6463,"Ġà¦¹à¦Łà¦ķ":6464,"Ġà¦¹à¦°à¦¦":6465,"Ġà¦¹à¦¸à¦ª":6466,"Ġà¦¹à§°":6467,"Ġà¦¹à¦ĵà¦¨":6468,"à¦ªà¦ĵà¦¯":6469,"à¦ªà¦¬à¦°":6470,"à¦ªà¦²à¦¤":6471,"à¦ªà¦®à¦²":6472,"à¦ªà¦ķà¦¤":6473,"à¦ªà¦®à¦¤":6474,"à¦ªà¦ķà¦¬":6475,"à¦ªà¦Łà¦ķ":6476,"à¦ªà¦ħ":6477,"à¦ªà¦¶à¦¬":6478,"à¦ªà¦Ĺà¦¨":6479,"à¦ªà¦¸à¦®":6480,"à¦ªà¦ĺà¦°":6481,"à¦ªà¦¢":6482,"à¦ªà¦²à¦Ł":6483,"à¦ªà¦ĺà¦¨":6484,"à¦ªà¦ľà¦Ł":6485,"à¦ªà¦ħà¦²":6486,"à¦ªà¦Ĩà¦¡":6487,"à¦ĸà¦ł":6488,"à¦ĸà¦ĸà¦¨":6489,"à¦ĸà¦Ĩà¦®":6490,"à¦ĸà¦ıà¦ĩ":6491,"à¦ĸà¦ĺà¦£":6492,"à¦ĸà¦Ĩà¦¨à¦¨":6493,"à¦ĸà¦Ńà¦°à¦¤":6494,"à¦ĸà¦ħà¦ªà¦®":6495,"à¦ľà¦¬à¦¨":6496,"à¦ľà¦°à¦¬":6497,"à¦ľà¦°à¦£":6498,"à¦ľà¦¬à¦°":6499,"à¦ľà¦¬à¦ª":6500,"à¦ľà¦²à¦¤":6501,"à¦ľà¦¤à¦¨":6502,"à¦ľà¦¦à¦°":6503,"à¦ľà¦¤à¦²":6504,"à¦ľà¦²à¦¨":6505,"à¦ľà¦°à¦Ł":6506,"à¦ľà¦Łà¦²":6507,"à¦ľà¦ªà¦¡":6508,"à¦ľà¦ıà¦°":6509,"à¦¡à¦¯":6510,"à¦¡à¦ľà¦¨":6511,"à¦¡à¦°à¦Ł":6512,"à¦¡à¦ĩà¦¯":6513,"à¦¡à¦ıà¦ĩ":6514,"à¦¡à¦¸à¦¬à¦ĩ":6515,"à¦¡à¦¬à¦¡":6516,"à¦¶à¦ĺ":6517,"à¦¶à¦¨à¦¤":6518,"à¦¶à¦ĩà¦¨":6519,"à¦¶à¦®à¦¯":6520,"à¦¶à¦ªà¦¤":6521,"à¦¶à¦ļà¦²":6522,"à¦¶à¦ıà¦°":6523,"à¦¶à¦Ńà¦°":6524,"à¦¶à¦ĺà¦£":6525,"à¦¶à¦¦à¦°à¦¦":6526,"Ġà¦ħà¦ľà¦¨":6527,"Ġà¦ħà¦ĩà¦²":6528,"Ġà¦ħà¦Łà¦ķ":6529,"Ġà¦ħà¦ĩà¦¯":6530,"Ġà¦ħà¦ĩà¦Ľ":6531,"à¦Ĺà¦ĵà¦¯":6532,"à¦Ĺà¦ı":6533,"à¦Ĺà¦¹à¦°":6534,"à¦Ĺà¦®à¦¤":6535,"à¦Ĺà¦ªà¦¤":6536,"à¦Ĺà¦°à¦¹":6537,"à¦Ĺà¦¸à¦¨":6538,"à¦Ĺà¦®à¦¬":6539,"à¦Ĺà¦Ĺà¦¨":6540,"à¦Ĺà¦Ĺà¦ľ":6541,"à¦Ĺà¦īà¦¦":6542,"à¦Ĺà¦¸à¦ĩ":6543,"à¦Ĺà¦ıà¦¸à¦¬":6544,"à¦Ĺà¦ĸà¦ļ":6545,"à¦Ĺà¦°à¦¤à¦Ł":6546,"Ġà¦ķà¦°à¦®":6547,"Ġà¦ķà¦°à¦Ł":6548,"Ġà¦ķà¦°à¦ļ":6549,"Ġà¦ķà¦°à¦®à¦°":6550,"Ġà¦¯à¦¬":6551,"Ġà¦¯à¦£":6552,"Ġà¦¯à¦ľà¦®":6553,"Ġà¦Ĺà¦¥":6554,"Ġà¦Ĺà¦°à¦¬":6555,"Ġà¦Ĺà¦ľà¦²":6556,"à¦ļà¦ľ":6557,"à¦ļà¦¹":6558,"à¦ļà¦£":6559,"à¦ļà¦«":6560,"à¦ļà¦¸à¦¬":6561,"à¦ļà¦ĵà§Ł":6562,"à¦ļà¦®à¦ķ":6563,"à¦ļà¦°à¦ª":6564,"à¦ļà¦°à¦Ł":6565,"à¦ļà¦°à¦ķà¦®":6566,"à¦ļà¦¶à¦¬":6567,"à¦ļà¦ªà¦Ł":6568,"à¦ļà¦ıà¦ĩ":6569,"à¦ļà¦¬à¦ķ":6570,"à¦ļà¦¢":6571,"à¦ļà§Łà¦¨":6572,"à¦ļà¦¶à¦®":6573,"à¦ļà¦Ĩà¦ª":6574,"à¦ļà¦°à¦¨à¦¦":6575,"à¦ģà¦ģ":6576,"Ġà¦ļà¦ªà¦Ł":6577,"Ġà¦ļà¦·à¦¤":6578,"Ġà¦ļà¦ªà¦ļ":6579,"Ġà¦ļà§ľà¦ķ":6580,"Ġà¦ļà¦°à¦ļà¦°":6581,"à¦·à¦°à¦¬":6582,"à¦·à¦°à¦ľ":6583,"à¦·à¦°à¦¸":6584,"à¦·à¦¨à¦ĵ":6585,"à¦·à¦ªà¦¤":6586,"à¦·à¦¯à¦¨":6587,"à¦·à§İà¦ķ":6588,"à¦·à¦ļà¦¨":6589,"à¦·à¦®à¦°":6590,"à¦·à¦°à¦¯":6591,"à¦·à¦Ĩà¦®":6592,"à¦·à¦°à¦°":6593,"à¦·à¦¸à¦Ļ":6594,"à¦·à¦ħà¦Ĺ":6595,"à¦·à¦ıà¦Ĩà¦ĩ":6596,"à§Łà¦¸à¦¬":6597,"à§Łà¦®à¦ķ":6598,"à§Łà¦ħ":6599,"à§Łà¦°à¦ķà¦®":6600,"à§Łà¦¸à¦®":6601,"à§Łà¦ıà¦ĩ":6602,"à§Łà¦ķà¦ķ":6603,"à§Łà¦ħà¦¨":6604,"à§Łà¦Ĩà¦®à¦°":6605,"à§Łà¦¤à¦ĩ":6606,"à§Łà¦°à¦¨à¦®":6607,"Ġà¦°à¦¦":6608,"Ġà¦°à¦¨à¦¤":6609,"Ġà¦°à¦¸à¦ķ":6610,"Ġà¦°à¦¡à¦°":6611,"Ġà¦°à¦īà¦«":6612,"Ġà¦¶à¦ľ":6613,"Ġà¦¶à¦°à¦¬":6614,"Ġà¦¶à¦¦à¦¶":6615,"Ġà¦¶à¦¤à¦°à¦Ļ":6616,"à¦§à§ľ":6617,"à¦§à¦Ŀ":6618,"à¦§à¦°à¦£":6619,"à¦§à¦ĺ":6620,"à¦§à¦¹à¦¸":6621,"à¦§à¦°à¦ª":6622,"à¦§à¦¯à¦¨":6623,"à¦§à¦ıà¦ķ":6624,"à¦§à¦¸à¦¤":6625,"à¦§à¦¨à¦¦":6626,"à¦§à¦ıà¦ĩ":6627,"à¦§à¦ªà¦¥":6628,"à¦§à¦¶à¦ķ":6629,"à¦§à¦Ńà¦°":6630,"Ġà¦Ńà¦¨":6631,"Ġà¦Ńà¦®":6632,"Ġà¦Ńà¦ª":6633,"Ġà¦Ńà¦ľà¦¨":6634,"Ġà¦Ńà¦°à¦¨":6635,"Ġà¦ľà¦ľ":6636,"Ġà¦ľà¦²à¦¤":6637,"Ġà¦ľà¦ĵà§Ł":6638,"Ġà¦ľà¦°à¦¦":6639,"Ġà¦ľà¦ªà¦®":6640,"à¦¥à¦Ļ":6641,"à¦¥à§ľ":6642,"à¦¥à¦°à¦ĩ":6643,"à¦¥à¦°à¦ª":6644,"à¦¥à¦¸à¦¨":6645,"à¦¥à¦ªà¦¥":6646,"à¦¥à¦¨à¦¸":6647,"à¦¥à¦ıà¦°":6648,"à¦¹à¦ķà¦¤":6649,"à¦¹à¦¨à¦¨":6650,"à¦¹à¦¨à¦¦":6651,"à¦¹à¦ķà¦ķ":6652,"à¦¹à¦¤à¦¦":6653,"à¦¹à¦£à¦¦":6654,"à¦¹à¦Ńà¦Ļ":6655,"Ġà¦ıà¦ķà¦ł":6656,"Ġà¦ıà¦ķà¦ķà¦²":6657,"Ġà¦ıà¦ķà¦ķà¦¤":6658,"Ġà¦ıà¦ķà¦²à¦«":6659,"Ġà¦Ĩà¦®à¦¤à¦²":6660,"Ġà¦Ĩà¦®à¦²à¦¦":6661,"Ġà¦Ĩà¦®à¦ľà¦¨à¦¤":6662,"à¦ĵà¦ļ":6663,"à¦ĵà¦¥":6664,"à¦ĵà¦°à¦ķ":6665,"à¦ĵà¦ĺ":6666,"à¦ĵà¦¶à¦¨":6667,"à¦ĵà¦¸à¦¨":6668,"à¦ĵà¦ħà¦°":6669,"à¦ĵà¦ıà¦ĸà¦¨":6670,"à¦ĵà¦ıà¦¸":6671,"à¦¼à¦¾à§ĩ":6672,"à¦£à¦ĸ":6673,"à¦£à¦ľ":6674,"à¦£à¦ªà¦°":6675,"à¦£à¦ĺ":6676,"à¦£à¦¶à¦¬":6677,"à¦£à¦ıà¦ĩ":6678,"à¦£à¦¬à¦ķ":6679,"à¦£à¦ªà¦¶":6680,"à¦£à¦°à¦Ļ":6681,"Ġà¦Ľà¦ľà¦¨":6682,"Ġà¦Ľà¦ĩà¦¯":6683,"Ġà¦Ľà¦°à¦°":6684,"Ġà¦Ľà¦²à¦ļ":6685,"Ġà¦Ľà¦¦à¦ķ":6686,"Ġà¦¬à¦²à¦¸":6687,"Ġà¦¬à¦²à¦ª":6688,"Ġà¦¬à¦²à¦ı":6689,"Ġà¦²à¦ļ":6690,"Ġà¦²à¦¥":6691,"Ġà¦²à¦ĵ":6692,"Ġà¦²à¦¬à¦¨":6693,"Ġà¦²à¦Ĺà¦¬":6694,"Ġà¦²à¦¬à¦¡":6695,"à¦łà¦¯":6696,"à¦łà¦ĵ":6697,"à¦łà¦Ń":6698,"à¦łà¦¤à¦°":6699,"à¦łà¦ļà¦ķ":6700,"à¦łà¦¶à¦¬":6701,"à¦łà¦¨à¦Ĺ":6702,"à¦łà¦Ńà¦°":6703,"à¦łà¦ķà¦®":6704,"Ġà¦Ĩà¦°à¦Ł":6705,"Ġà¦Ĩà¦°à¦¸":6706,"Ġà¦Ĩà¦°à¦ªà¦°":6707,"Ġà¦Ĩà¦°à¦¸à¦¬":6708,"à¦¾à¦ģà§ģ":6709,"à¦Ńà¦Ľ":6710,"à¦Ńà¦§":6711,"à¦Ńà¦°à¦£":6712,"à¦Ńà¦¨à¦ĵ":6713,"à¦Ńà¦²à¦Ĺ":6714,"Ġà¦«à¦²à¦²":6715,"Ġà¦«à¦°à¦ļ":6716,"Ġà¦«à¦°à¦Ĺ":6717,"Ġà¦«à¦²à¦Ĺ":6718,"Ġà¦«à¦Ĺà¦¹à¦°":6719,"Ġà¦īà¦¶":6720,"Ġà¦īà¦¤à¦°":6721,"Ġà¦īà¦ŀ":6722,"Ġà¦īà¦ķà¦Ł":6723,"Ġà¦īà¦ĩà¦®":6724,"Ġà¦īà¦ĩà¦ª":6725,"Ġà¦īà¦¶à¦ĸ":6726,"Ġà¦ĸà¦ŀ":6727,"Ġà¦ĸà¦¸à¦¬":6728,"Ġà¦ĸà¦¸à¦²":6729,"Ġà¦ĸà¦¬à¦°à¦¤":6730,"à¦Ļà¦ĩ":6731,"à¦Ļà§ľ":6732,"Ġà¦ĵà¦ªà¦¨":6733,"Ġà¦ĵà¦¨à¦²":6734,"Ġà¦ĵà¦ľà¦°":6735,"Ġà¦ĵà¦ħà¦°à¦«":6736,"à§Ĥà¦¿":6737,"Ġà¦§à¦²":6738,"Ġà¦§à¦ĩ":6739,"Ġà¦§à¦ĸ":6740,"Ġà¦§à¦¬à¦²":6741,"Ġà¦§à¦¨à¦¦":6742,"Ġà¦§à¦®à¦§":6743,"Ġà¦ħà¦¨à¦²à¦ª":6744,"Ġà¦ħà¦¨à¦¬à¦¹":6745,"čĊĠč":6746,"à¦ĸà¦¨à¦¤":6747,"à¦ĸà¦¨à¦Ł":6748,"à¦ĸà¦¨à¦¦":6749,"Ġà¦ĺà¦ª":6750,"Ġà¦ĺà¦°à¦®":6751,"Ġà¦ĺà¦¨à¦¨":6752,"Ġà¦ªà¦°à¦¹":6753,"Ġà¦ªà¦°à¦¶à¦Ł":6754,"Ġà¦¬à¦²à¦²à¦¯":6755,"Ġà¦¬à¦²à¦²à¦¶":6756,"Ġà¦¬à¦²à¦²à¦ıà¦ĩ":6757,"Ġà¦¬à¦²à¦²à¦ıà¦ĸà¦¨":6758,"Ġà¦¬à¦²à¦²à¦Ĩà¦ªà¦¨":6759,"à¦°à¦¤à¦ľ":6760,"à¦°à¦¤à¦ĸà¦¨":6761,"à¦°à¦¤à¦¨à¦¦":6762,"à¦«à¦¶":6763,"à¦«à¦«":6764,"à¦«à¦ĵà¦¯":6765,"à¦«à¦°à¦¸":6766,"à¦«à¦°à¦ĩ":6767,"à§ľà¦ĩ":6768,"à§ľà¦ª":6769,"à§ľà¦ĸ":6770,"à§ľà¦Ļ":6771,"à§ľà¦ªà¦°":6772,"Ġà¦®à¦¨à¦¦":6773,"Ġà¦®à¦¨à¦Ĺ":6774,"Ġà¦®à¦¨à¦®à¦¨":6775,"Ġà¦®à¦¨à¦Łà¦¨":6776,"à¦Ŀà¦¨":6777,"à¦Ŀà¦¦":6778,"à¦Ŀà¦²à¦¤":6779,"à¦Ŀà¦²à¦¨":6780,"à¦Ŀà¦¨à¦¦":6781,"Ġà¦Łà¦Ł":6782,"Ġà¦Łà¦Ĺ":6783,"Ġà¦Łà¦²à¦ķ":6784,"Ġà¦Łà¦Ĺà¦²":6785,"Ġà¦Łà¦ĩà¦Ł":6786,"Ġà¦Łà¦¸à¦Ł":6787,"Ġà¦Łà¦®à¦¡":6788,"à¦īà¦Ľ":6789,"à¦īà¦ĵ":6790,"à¦īà¦²à¦ķ":6791,"à¦īà¦¸à¦¬":6792,"à¦īà¦¦à§Ł":6793,"à¦īà¦ªà¦¡":6794,"à¦īà¦ªà¦Ĺ":6795,"à¦īà§İà¦ª":6796,"à¦īà§ľà¦Ľ":6797,"à¦ªà¦¨à¦¤":6798,"à¦ªà¦¨à¦¯":6799,"à¦ªà¦¨à¦ļ":6800,"à¦ªà¦¨à¦¸à¦¨":6801,"à¦ªà¦¨à¦¸à¦°":6802,"à¦ªà¦¨à¦¸à¦®":6803,"à¦ªà¦¨à¦§à¦¨":6804,"à¦ªà¦¨à¦ķà¦¥":6805,"Ġà¦¸à¦®à¦°à¦ķ":6806,"Ġà¦¸à¦®à¦¬à§Łà¦¸":6807,"à¦ªà¦°à¦ĩ":6808,"à¦ªà¦°à¦ª":6809,"à¦ªà¦°à¦¶":6810,"à¦ªà¦°à¦ªà¦°":6811,"Ġà¦ıà¦ĩà¦ĵ":6812,"Ġà¦ıà¦ĩà¦ıà¦ĩ":6813,"Ġà¦ıà¦ĩà¦¸à¦®à¦¯":6814,"à¦®à¦¨à¦¬":6815,"à¦®à¦¨à¦®":6816,"Ġà¦Ĩà¦²à¦ľ":6817,"Ġà¦Ĩà¦²à¦Ĺà¦°":6818,"Ġà¦Ĩà¦²à¦¹à¦ľ":6819,"Ġà¦¸à¦¬à¦ĵ":6820,"Ġà¦¸à¦¬à¦ķà¦ľà¦¨":6821,"Ġà¦¸à¦¬à¦§à¦°à¦¨":6822,"à¦ľà¦¨à¦§":6823,"à¦ľà¦¨à¦Ń":6824,"à¦ľà¦¨à¦®à¦¤":6825,"à¦ľà¦¨à¦ªà¦¦":6826,"à¦ľà¦¨à¦Ĺà¦°":6827,"à¦ľà¦¨à¦ıà¦¸à¦¬":6828,"à¦¤à¦°à¦¸à¦¬":6829,"à¦¤à¦°à¦ħà¦¨":6830,"à¦¤à¦°à¦£à¦ķ":6831,"Ġà¦¡à¦¤":6832,"Ġà¦¡à¦²à¦«":6833,"Ġà¦¡à¦Łà¦Ĺ":6834,"Ġà¦¡à¦ĵà¦¸à¦¨":6835,"à¦¬à¦¨à¦¨":6836,"à¦¬à¦¨à¦¹":6837,"à¦¬à¦¨à¦Ń":6838,"à¦¬à¦¨à¦ªà¦°":6839,"à¦¬à¦¨à¦¨à¦¦":6840,"à¦¬à¦¨à¦ªà¦¥":6841,"à¦¬à¦¨à¦¸à¦Ļ":6842,"à¦¬à¦¨à¦°à¦¹à¦¸":6843,"à¦°à¦¬à¦¡":6844,"à¦°à¦¬à¦¶":6845,"à¦°à¦¬à¦Ĺ":6846,"à¦°à¦¬à¦¹":6847,"à¦°à¦¬à¦ŀ":6848,"à¦°à¦¬à¦°à¦£":6849,"à¦°à¦¬à¦¦à¦¨":6850,"à¦°à¦¬à¦Ľà¦°":6851,"à¦°à¦¬à¦¹à¦®":6852,"à¦°à¦¬à¦²à¦Ń":6853,"à§İà¦¨":6854,"à§İà¦²":6855,"à§İà¦¤":6856,"à§İà¦®":6857,"à§İà¦Ľ":6858,"à§İà¦¡":6859,"à§İà¦Ĺ":6860,"à§İà¦®à¦¨":6861,"à§İà¦ķà¦°":6862,"à§İà¦ªà¦¤":6863,"à§İà¦¸à¦²":6864,"à§İà¦ıà¦°":6865,"à§İà¦¦à¦°à¦ľ":6866,"Ġà¦®à¦¤à¦Ĺà¦¸":6867,"Ġà¦ĩà¦ĵ":6868,"Ġà¦ĩà¦«":6869,"Ġà¦ĩà¦¬à¦²":6870,"Ġà¦ĩà¦¸à¦¬":6871,"Ġà¦ĩà¦ľà¦®":6872,"Ġà¦ĩà¦Łà¦ª":6873,"Ġà¦ĩà¦·à§İ":6874,"Ġà¦ĩà¦¨à¦¬à¦ķ":6875,"à¦ŀà¦ĵ":6876,"Ġà¦¹à¦²à¦¯":6877,"Ġà¦¹à¦²à¦ĩ":6878,"Ġà¦¹à¦²à¦ĸ":6879,"Ġà¦¹à¦²à¦ĵ":6880,"Ġà¦¹à¦²à¦¸à¦¬":6881,"Ġà¦¹à¦²à¦Ĩà¦®":6882,"Ġà¦¹à¦²à¦ıà¦ĩ":6883,"Ġà¦¹à¦²à¦¹à¦ł":6884,"Ġà¦¹à¦²à¦ħà¦¨":6885,"Ġà¦¹à¦²à¦ıà¦ķà¦¦":6886,"Ġà¦¹à¦²à¦ıà¦¤":6887,"Ġà¦łà¦¸":6888,"à¦°à¦£à¦ıà¦Ł":6889,"à¦°à¦£à¦¬à¦¶à¦¤":6890,"Ġà¦ıà¦¸à¦¨":6891,"Ġà¦ıà¦¸à¦®à¦¸":6892,"Ġà¦ıà¦¸à¦ıà¦¨à¦ıà¦¸":6893,"Ġà¦ıà¦¸à¦ĵà¦ıà¦¸":6894,"à¦°à¦ķà¦ķ":6895,"à¦°à¦ķà¦¬":6896,"à¦°à¦ķà¦°à¦£":6897,"à¦°à¦ķà¦°à¦°":6898,"Ġà¦ķà¦°à¦²à¦Ł":6899,"Ġà¦ķà¦°à¦²à¦ĸ":6900,"Ġà¦ķà¦°à¦²à¦ħ":6901,"Ġà¦ķà¦°à¦²à¦¨à¦¦":6902,"Ġà¦ķà¦°à¦²à¦¬à¦²à¦¤":6903,"Ġà¦ķà¦°à¦²à¦Ĩà¦ªà¦¨":6904,"Ġà¦Ŀà¦Ŀ":6905,"Ġà¦Ŀà¦°à¦£":6906,"Ġà¦Ŀà¦¨à¦ķ":6907,"à¦¬à¦°à¦¨":6908,"à¦¬à¦°à¦¯":6909,"à¦¬à¦°à¦Ľ":6910,"à¦¬à¦°à¦ľ":6911,"à¦¬à¦°à¦¶":6912,"à¦¬à¦°à¦ļ":6913,"à¦¬à¦°à¦¸à¦¡":6914,"à¦ĺà¦ĩ":6915,"à¦ĺà¦¹":6916,"à¦ĺà¦«":6917,"à¦ĺà¦°à¦¬":6918,"à¦ĺà¦°à¦ķ":6919,"à¦ĺà¦®à¦²":6920,"à¦ĺà¦°à¦¸":6921,"à¦ĺà¦¢":6922,"à¦ĺà¦ĺà¦¨":6923,"à¦ĺà¦Ŀà¦¡":6924,"à¦ĺà¦²à¦Ĺà¦¡":6925,"Ġà¦§à¦°à¦²à¦ķ":6926,"Ġà¦§à¦°à¦²à¦¸":6927,"Ġà¦§à¦°à¦®à¦¶":6928,"Ġà¦¬à¦¸à¦ķ":6929,"Ġà¦¬à¦¸à¦¬à¦ĩ":6930,"à¦ıà¦ľà¦¨":6931,"à¦ıà¦ķà¦²":6932,"à¦ıà¦¤à¦ĩ":6933,"à¦ıà¦¤à¦Ĺ":6934,"à¦ıà¦²à¦ĵ":6935,"à¦ıà¦°à¦ªà¦°à¦ĩ":6936,"à¦ıà¦ıà¦¸à¦ıà¦¸":6937,"Ġà¦ľà¦¨à¦ĩ":6938,"Ġà¦ľà¦¨à¦¬à¦¹":6939,"Ġà¦ľà¦¨à¦®à¦ľ":6940,"Ġà¦ľà¦¨à¦¸à¦Ń":6941,"Ġà¦ļà¦²à¦Ł":6942,"Ġà¦ļà¦²à¦¨à¦¸à¦ĩ":6943,"Ġà¦Ĺà¦²à¦Ł":6944,"Ġà¦Ĺà¦²à¦§":6945,"à¦¬à¦²à¦°":6946,"à¦¬à¦²à¦Ĩà¦®":6947,"à¦¬à¦²à¦¹à¦¯":6948,"à¦¬à¦²à¦Ŀà¦²à¦ķ":6949,"à¦ķà¦°à¦°":6950,"à¦ķà¦°à¦ĩ":6951,"à¦ķà¦°à¦ľ":6952,"à¦ķà¦°à¦¹à¦¸":6953,"à¦ķà¦Łà¦®":6954,"à¦ķà¦Łà¦Ł":6955,"à¦ķà¦Łà¦ľà¦¨":6956,"Ġà¦ķà¦°à¦Ľà¦¸":6957,"à¦¨à¦¤à¦ķ":6958,"à¦¨à¦¤à¦ıà¦Ł":6959,"à¦¨à¦¤à¦ıà¦ĸ":6960,"à¦·à¦£à¦ª":6961,"à¦·à¦£à¦ľ":6962,"à¦·à¦£à¦¹":6963,"à¦·à¦£à¦ľà¦¨":6964,"à¦·à¦£à¦¸à¦¬":6965,"à¦·à¦£à¦ıà¦ĩ":6966,"à¦·à¦£à¦¸à¦¬à¦ķ":6967,"Ġà¦ħà¦¬à¦Ń":6968,"Ġà¦ħà¦¬à¦Ĺà¦¤":6969,"Ġà¦ıà¦²à¦¬":6970,"Ġà¦ıà¦²à¦¦":6971,"Ġà¦ıà¦²à¦¡":6972,"Ġà¦ıà¦²à¦¶":6973,"Ġà¦ıà¦²à¦Ń":6974,"Ġà¦ıà¦²à¦Ĩà¦®":6975,"Ġà¦ıà¦²à¦ıà¦ĩ":6976,"Ġà¦ıà¦²à¦Ĩà¦ªà¦¨":6977,"Ġà¦Ĩà¦¬à¦ķ":6978,"Ġà¦¨à¦¤à¦¶":6979,"Ġà¦īà¦łà¦²à¦Ľ":6980,"Ġà¦īà¦łà¦²à¦ļ":6981,"Ġà¦īà¦łà¦²à¦¹":6982,"Ġà¦īà¦łà¦²à¦ı":6983,"Ġà¦īà¦łà¦²à¦¸à¦¬":6984,"Ġà¦īà¦łà¦²à¦Ĩà¦®à¦°":6985,"Ġà¦īà¦łà¦²à¦ıà¦ĸ":6986,"Ġà¦īà¦łà¦²à¦¦à¦°à¦ľ":6987,"Ġà¦īà¦łà¦²à¦īà¦¤":6988,"à§ĩà¦ģà§Į":6989,"à¦Ĩà¦«":6990,"à¦Ĩà¦°à¦®":6991,"à¦Ĩà¦Łà¦ķ":6992,"à¦Ĩà¦ªà¦¦":6993,"à¦Ĩà¦ªà¦Ł":6994,"à¦Ĩà¦ªà¦¸":6995,"à¦Ĩà¦¬à¦¦":6996,"à¦Ĩà¦²à¦Ĺ":6997,"à¦Ĩà¦Łà¦Ł":6998,"à¦Ĩà¦ĩà¦¡":6999,"à¦Ĩà¦ĩà¦ľ":7000,"Ġà¦ħà¦¸à¦¦":7001,"Ġà¦ħà¦¸à¦ļ":7002,"Ġà¦ħà¦¸à¦®à¦°":7003,"à¦²à¦ķà¦®":7004,"à¦²à¦ķà¦Ĺ":7005,"à¦²à¦ķà¦ł":7006,"Ġà¦¬à¦¨à¦ķ":7007,"à¦°à¦®à¦¬":7008,"à¦°à¦®à¦¦":7009,"à¦°à¦®à¦ļ":7010,"à¦°à¦®à¦ĵ":7011,"à¦°à¦®à¦¬à¦°":7012,"à¦°à¦®à¦¤à¦¨":7013,"à¦°à¦®à¦£à¦¬":7014,"Ġà¦Ĩà¦ķà¦¥":7015,"Ġà¦Ĩà¦ķà¦¬à¦°à¦ķ":7016,"Ġà¦ħà¦¦à¦°":7017,"Ġà¦ħà¦¦à¦²à¦¬à¦¦à¦²":7018,"à¦ķà¦²à¦ª":7019,"à¦ķà¦²à¦ıà¦°":7020,"à¦¶à¦¨à¦¯":7021,"à¦¶à¦¨à¦¦":7022,"à¦¶à¦¨à¦¡":7023,"à¦¶à¦¨à¦Ĺà¦°":7024,"Ġà¦¹à§Łà¦¯":7025,"à¦Ĺà¦²à¦°":7026,"à¦Ĺà¦²à¦ı":7027,"à¦Ĺà¦²à¦ıà¦ķ":7028,"à¦Ĺà¦²à¦ıà¦ĩ":7029,"à¦Ĺà¦²à¦ªà¦¥":7030,"à¦Ĺà¦²à¦ħà¦¨":7031,"à¦Ĺà¦²à¦¯à¦¦":7032,"à¦Ĺà¦²à¦Ĩà¦°":7033,"à¦Ĺà¦²à¦ľà¦®":7034,"à¦Ĺà¦²à¦Ĩà¦Ĺ":7035,"à¦Ĺà¦²à¦Ĩà¦ľà¦ķ":7036,"à¦°à¦¥à¦®à¦ĩ":7037,"à¦°à¦¥à¦®à¦ľà¦¨":7038,"à¦ĩà¦²à¦°":7039,"à¦ĩà¦²à¦¤":7040,"à¦ĩà¦²à¦¯":7041,"à¦ĩà¦²à¦ľ":7042,"à¦ĩà¦²à¦ļ":7043,"à¦ĩà¦²à¦ªà¦¨":7044,"à¦ĩà¦²à¦ªà¦¤":7045,"Ġà¦¹à¦¤à¦ķ":7046,"Ġà¦¶à¦¬à¦¦":7047,"Ġà¦ĺà¦°à¦ª":7048,"Ġà¦ĺà¦°à¦ĵà§Ł":7049,"à¦°à¦¨à¦ķ":7050,"à¦°à¦¨à¦ĩ":7051,"à¦°à¦¨à¦ľà¦°":7052,"Ġà¦¤à¦ĸà¦¨à¦ĩà¦ķ":7053,"à¦²à¦¤à¦ĸà¦¨à¦ĩ":7054,"Ġà¦ķà¦°à¦¬à¦®":7055,"Ġà¦ķà¦°à¦¬à¦¸":7056,"Ġà¦ķà¦°à¦¬à¦ıà¦ĩ":7057,"à¦®à¦²à¦®":7058,"à¦ĸà¦¤à¦¨":7059,"à¦ĸà¦²à¦°":7060,"à¦ĸà¦²à¦ıà¦ĩ":7061,"à¦°à¦ľà¦®":7062,"à¦°à¦ľà¦Ł":7063,"à¦°à¦ľà¦ª":7064,"à¦§à¦ķà¦¥":7065,"à¦°à¦²à¦ıà¦¬":7066,"à¦¹à¦°à¦Ńà¦°":7067,"Ġà¦ªà¦¥à¦¤":7068,"Ġà¦ªà¦¥à¦¬":7069,"Ġà¦ªà¦¥à¦ĸ":7070,"Ġà¦ªà¦¥à¦Ń":7071,"Ġà¦ªà¦¥à¦ıà¦ķà¦Ł":7072,"Ġà¦ªà¦¥à¦ħà¦¨":7073,"à¦¸à¦¬à¦Ł":7074,"à¦¸à¦¬à¦¶":7075,"à¦¸à¦¬à¦Ĺ":7076,"à¦¸à¦¬à¦ĩà¦¯":7077,"à¦¸à¦¬à¦¸à¦®à¦¯":7078,"à¦ķà¦¤à¦ĸ":7079,"Ġà¦¨à¦¦à¦¶":7080,"Ġà¦¨à¦¦à¦¨à¦¦":7081,"à¦¤à¦¨à¦¯":7082,"à¦¤à¦¨à¦ª":7083,"à¦¤à¦¨à¦ĸ":7084,"à¦¤à¦¨à¦ľ":7085,"à¦¤à¦¨à¦ĵ":7086,"à¦¤à¦¨à¦®à¦£":7087,"Ġà¦ľà¦®à¦ľ":7088,"à¦°à¦¸à¦«":7089,"à¦°à¦¸à¦°à¦®":7090,"à¦°à¦¸à¦®à§Ł":7091,"Ġà¦ħà¦®à¦°à¦¬":7092,"Ġà¦ħà¦®à¦²à¦¤":7093,"Ġà¦ħà¦®à¦°à¦ª":7094,"Ġà¦ķà¦£à¦¤":7095,"Ġà¦ķà¦£à¦łà¦¸":7096,"Ġà¦Ĩà¦¨à¦°":7097,"Ġà¦Ĩà¦¨à¦®":7098,"Ġà¦Ĩà¦¨à¦ľ":7099,"Ġà¦Ĩà¦¨à¦Ń":7100,"Ġà¦Ĩà¦¨à¦«":7101,"à¦°à¦¶à¦®à¦¨":7102,"à¦°à¦ªà¦°à¦ķ":7103,"à¦°à¦ªà¦°à¦¹à¦ł":7104,"Ġà¦ľà¦²à¦¶":7105,"Ġà¦ľà¦²à¦ĺ":7106,"Ġà¦ľà¦²à¦ļà¦°":7107,"à¦¹à¦¸à¦ķ":7108,"à¦¹à¦¸à¦¹":7109,"à¦¹à¦¸à¦¸à¦¬":7110,"à¦®à¦¤à¦ª":7111,"à¦®à¦¤à¦Ń":7112,"Ġà¦¬à¦°à¦¦à¦²":7113,"Ġà¦¬à¦°à¦«à¦¸":7114,"à¦ķà¦¬à¦ĩ":7115,"à¦ķà¦¬à¦°à¦£":7116,"à¦ķà¦¬à¦¦à¦²":7117,"Ġà¦ħà¦ªà¦²":7118,"Ġà¦ħà¦ªà¦¶à¦ķ":7119,"Ġà¦ĵà¦ªà¦°à¦Ĩà¦®":7120,"Ġà¦ĵà¦ªà¦°à¦Ĩà¦²":7121,"à¦¨à¦ĵà¦¨":7122,"à¦¨à¦ĵà§Ł":7123,"à¦¨à¦ĵà¦®à¦¤":7124,"à¦Łà¦ķà¦¸":7125,"à¦Łà¦ķà¦Ĺ":7126,"à¦Łà¦ķà¦¥":7127,"à¦Łà¦ķà¦°à¦£":7128,"à¦¤à¦¬à¦®":7129,"à¦¤à¦¬à¦Ł":7130,"à¦¤à¦¬à¦°à¦ķ":7131,"à¦¤à¦¬à¦¦à¦¨":7132,"à¦¤à¦¬à¦Ľà¦°":7133,"à¦¦à¦¨à¦¸":7134,"à¦¦à¦¨à¦¦":7135,"à¦¦à¦¨à¦¹":7136,"à¦¦à¦¨à¦Ń":7137,"à¦¦à¦¨à¦ıà¦ĩ":7138,"à¦¦à¦¨à¦Ĺà¦°":7139,"Ġà¦ħà¦Ńà¦ķ":7140,"à¦®à¦ķà¦®":7141,"à¦¦à¦°à¦Ĺ":7142,"à¦¦à¦°à¦ĺ":7143,"Ġà¦¬à¦²à¦¤à¦®":7144,"à¦²à¦¬à¦¯":7145,"à¦²à¦¬à¦¡":7146,"à¦²à¦¬à¦ĵ":7147,"à¦²à¦¬à¦Ľà¦°":7148,"à¦²à¦¬à¦ıà¦ĩ":7149,"Ġà¦ħà¦¤à¦ĩ":7150,"Ġà¦ħà¦¤à¦ĸ":7151,"Ġà¦ħà¦¤à¦¤à¦Ĺ":7152,"à¦ħà§Ł":7153,"à¦ħà¦£":7154,"à¦ħà¦°à¦¨":7155,"à¦ħà¦¤à¦¨":7156,"à¦ħà¦Łà¦²":7157,"à¦ħà¦¨à¦²":7158,"Ġà¦¶à¦¹à¦°à¦ª":7159,"à¦®à¦¯à¦ľ":7160,"Ġà¦¬à¦Ľà¦°à¦Ł":7161,"Ġà¦¬à¦Ľà¦°à¦Ńà¦°":7162,"Ġà¦ªà§ľà¦¶":7163,"Ġà¦ªà§ľà¦²à¦¤":7164,"Ġà¦ªà§ľà¦²à¦¨":7165,"Ġà¦ħà¦§à¦¸":7166,"à¦ĩà¦°à¦Ł":7167,"à¦ĩà¦°à¦Ļ":7168,"à¦ĩà¦°à¦ĵà¦¶à¦¨":7169,"Ġà¦ķà¦²à¦²":7170,"Ġà¦ķà¦²à¦¡":7171,"Ġà¦ķà¦²à¦«":7172,"Ġà¦ķà¦²à¦®à¦ª":7173,"Ġà¦īà¦¦à¦²":7174,"à¦°à¦ĩà¦ŀ":7175,"Ġà¦ħà¦ľà¦°":7176,"Ġà¦ħà¦ľà¦Ĺà¦°":7177,"Ġà¦ıà¦Ĺà¦¤":7178,"à¦¨à¦¬à¦ľà¦¨":7179,"à¦¨à¦¬à¦¬à¦¨":7180,"à¦¨à¦¬à§İ":7181,"Ġà¦ķà¦®à¦«":7182,"Ġà¦ķà¦®à¦¬à¦¯":7183,"à¦¤à¦²à¦®":7184,"à¦¤à¦²à¦ľ":7185,"à¦¤à¦²à¦Ĺ":7186,"à¦¤à¦²à¦ĵ":7187,"à¦¤à¦²à¦ĵà¦¯":7188,"Ġà¦īà¦ªà¦Ľ":7189,"Ġà¦īà¦ªà¦¶":7190,"Ġà¦īà¦ªà¦ªà¦°":7191,"Ġà¦īà¦ªà¦¦à¦²":7192,"Ġà¦īà¦ªà¦¸à¦°":7193,"Ġà¦īà¦ªà¦°à¦¤à¦²":7194,"à¦°à¦ªà¦ķ":7195,"à¦°à¦ªà¦Ł":7196,"à¦°à¦ªà¦¡":7197,"à¦°à¦ªà§ľ":7198,"à¦°à¦ªà¦ŀ":7199,"à¦°à¦ªà¦Ĩà¦īà¦Ł":7200,"Ġà¦ķà¦¤à¦Ń":7201,"Ġà¦ķà¦¤à¦¤à¦¬":7202,"Ġà¦ķà¦¤à¦ľà¦¨à¦ķ":7203,"Ġà¦ķà¦¤à¦¶à¦¤":7204,"Ġà¦ķà¦¤à¦¤à¦Ĺ":7205,"Ġà¦ķà¦¤à¦¤à¦ĸ":7206,"Ġà¦¬à¦ĩà¦ªà¦Ł":7207,"Ġà¦¬à¦ĩà¦«à¦°":7208,"à¦Ńà¦¬à¦ĵ":7209,"à¦¦à¦²à¦°":7210,"à¦¦à¦²à¦¬à¦²":7211,"à¦¦à¦²à¦®à¦£":7212,"à¦²à¦²à¦ıà¦ĩ":7213,"à¦¯à¦¨à¦ķ":7214,"à¦Ĺà¦¤à¦ĩ":7215,"à§İà¦ķà¦£":7216,"à¦²à¦¨à¦²":7217,"à¦²à¦¨à¦ĸ":7218,"à¦²à¦¨à¦Ĺ":7219,"à¦²à¦¨à¦ıà¦ĩ":7220,"à¦²à¦¨à¦ķà¦¶":7221,"à¦²à¦¨à¦ĺà¦£":7222,"à¦²à¦¨à¦°à¦¹à¦¸":7223,"Ġà¦ıà¦°à¦ĵ":7224,"à¦ļà¦¨à¦Ł":7225,"à¦ļà¦¨à¦ª":7226,"Ġà¦Ĩà¦¤à¦¸à¦ķ":7227,"Ġà¦®à¦¹à¦¦":7228,"à¦°à¦¦à¦¤":7229,"à¦°à¦¦à¦Ł":7230,"à¦°à¦¦à¦¸":7231,"à¦¨à¦ķà¦¯":7232,"à¦¨à¦ķà¦ª":7233,"à¦¨à¦ķà¦ĸà¦¨":7234,"à¦¨à¦ķà¦°à¦£":7235,"à¦°à¦ĵà¦ķ":7236,"Ġà¦¸à¦¹à¦¬à¦¤":7237,"Ġà¦¸à¦¹à¦§à¦°":7238,"à¦°à¦¹à¦°à¦ķ":7239,"Ġà¦Ĺà¦¨à§İà¦ķ":7240,"à¦¤à¦ķà¦®":7241,"à¦¤à¦ķà¦¦":7242,"à¦¤à¦ķà¦ĸà¦¨":7243,"Ġà¦¨à§Łà¦ª":7244,"Ġà¦¨à§Łà¦¶":7245,"Ġà¦¨à§Łà¦¸à¦¬":7246,"Ġà¦¨à§Łà¦ıà¦ķà¦Ł":7247,"Ġà¦¨à§Łà¦ıà¦¬":7248,"Ġà¦¨à§Łà¦ıà¦ĸ":7249,"Ġà¦¨à§Łà¦ıà¦Ĺ":7250,"à¦®à¦°à¦«":7251,"Ġà¦¶à¦ķà¦ļ":7252,"à¦¸à¦¨à¦®":7253,"Ġà¦Ľà¦¬à¦Ľà¦°":7254,"Ġà¦Ĺà¦°à¦Ĺà¦°":7255,"à¦¸à¦²à¦Ł":7256,"à¦¸à¦²à¦¸":7257,"Ġà¦¯à¦¤à¦¸à¦¬":7258,"Ġà¦¯à¦¤à¦¤à¦¬":7259,"Ġà¦¯à¦¤à¦¤à¦¦":7260,"Ġà¦ıà¦ķà¦¦à¦Ļ":7261,"à¦ıà¦ķà¦ĸ":7262,"à¦ļà¦ķà¦¨":7263,"Ġà¦ħà¦ªà¦°à¦ľà¦¨":7264,"Ġà¦ħà¦ªà¦°à¦ªà¦ķ":7265,"à¦°à¦¬à¦¤à¦®":7266,"à¦ļà¦²à¦Ĺ":7267,"à¦ĩà¦Łà¦²":7268,"à¦ĩà¦Łà¦¬":7269,"à¦ĩà¦Łà¦ľ":7270,"à¦ĩà¦Łà¦ĵà¦¯":7271,"à¦Łà¦²à¦Ł":7272,"à¦Łà¦²à¦¶":7273,"à¦¨à¦²à¦¯":7274,"à¦¨à¦²à¦ľ":7275,"Ġà¦Ĩà¦°à¦ĵà¦ĩ":7276,"Ġà¦Ĩà¦¸à¦²à¦Ł":7277,"à¦¬à¦¸à¦¹":7278,"à¦¬à¦¸à¦Ļ":7279,"Ġà¦ħà¦«à¦¬":7280,"Ġà¦ħà¦«à¦¸":7281,"à¦ĩà¦ķà¦ª":7282,"Ġà¦°à¦ĩà¦²à¦¤":7283,"Ġà¦°à¦ĩà¦²à¦¸":7284,"Ġà¦°à¦ĩà¦²à¦¦":7285,"Ġà¦°à¦ĩà¦²à¦ª":7286,"à¦®à¦¬à¦ĸ":7287,"à¦·à¦ķà¦¨":7288,"à¦ªà¦¦à¦Ł":7289,"à¦ªà¦¦à¦Ĺ":7290,"à¦ªà¦¦à¦ĵ":7291,"à¦ªà¦¦à¦£":7292,"à¦ªà¦¦à¦ľà¦¨à¦ķ":7293,"à¦ªà¦¦à¦Ĩà¦ªà¦¦":7294,"à¦ĸà¦¬à¦ĩ":7295,"Ġà¦ıà¦ķà¦¸à¦ª":7296,"à¦Ĩà¦®à¦¦":7297,"à¦¨à¦¦à¦Ļ":7298,"à¦¨à¦¦à¦¶à¦¦":7299,"Ġà¦ĸà¦¬à¦°à¦ª":7300,"Ġà¦ĸà¦¬à¦°à¦¢":7301,"Ġà¦ĸà¦¬à¦°à¦ĸà¦¬à¦°":7302,"Ġà¦ªà¦¦à¦Ń":7303,"Ġà¦ªà¦¦à¦®à¦°":7304,"Ġà¦ħà¦ķà¦ĵà¦Ĩà¦°":7305,"à¦ªà¦Łà¦°":7306,"à¦ªà¦Łà¦ļ":7307,"à¦Ĺà¦¨à¦ľà¦¯":7308,"à¦Łà¦¤à¦®":7309,"à¦Ĺà¦ľà¦¬":7310,"à¦Ĺà¦ľà¦ĩ":7311,"à¦Ĺà¦ľà¦ļ":7312,"à¦Ĺà¦ľà¦ıà¦ķà¦Ł":7313,"à¦Ĺà¦ľà¦ĸà¦£":7314,"Ġà¦¦à¦²à¦ĩ":7315,"Ġà¦¦à¦²à¦Ń":7316,"Ġà¦¦à¦²à¦¦à¦²":7317,"à¦¦à§Łà¦Ĺ":7318,"à¦¦à§Łà¦®à¦¨":7319,"Ġà¦ħà¦¬à¦¸à¦°à¦¹":7320,"à¦Ŀà¦²à¦¶":7321,"à¦Ŀà¦²à¦Ń":7322,"à¦Ŀà¦²à¦ıà¦Ł":7323,"à¦¸à¦®à¦¶":7324,"Ġà¦ķà¦²à¦ķà¦¤":7325,"Ġà¦ķà¦²à¦ķà¦Ļ":7326,"à¦ıà¦ĩà¦¬":7327,"à¦°à¦ļà¦²à¦¨":7328,"à¦Ĺà¦°à¦°":7329,"à¦Ĺà¦°à¦ĸ":7330,"à¦¬à¦ķà¦®":7331,"à¦¬à¦ķà¦¶":7332,"à¦¬à¦ķà¦Ĺ":7333,"à¦¬à¦ķà¦£":7334,"à¦ľà¦²à¦°":7335,"à¦ľà¦²à¦¦":7336,"à¦ľà¦²à¦ľ":7337,"à¦ľà¦²à¦Ń":7338,"Ġà¦ĩà¦¨à¦¸à¦Ł":7339,"Ġà¦ĩà¦¨à¦«à¦°":7340,"Ġà¦ĩà¦¨à¦Ńà¦¯":7341,"Ġà¦ķà¦¨à¦¡":7342,"Ġà¦ķà¦¨à¦ķà¦²à¦¤":7343,"Ġà¦ķà¦¨à¦ķà¦¬à¦°à¦£":7344,"Ġà¦ĺà¦¨à¦®":7345,"Ġà¦īà¦ªà¦°à¦ĩ":7346,"Ġà¦Ĩà¦¸à¦¤à¦ĩ":7347,"Ġà¦ªà¦ķà¦ªà¦ķ":7348,"à¦¤à¦¤à§İà¦ķ":7349,"à¦§à¦¨à¦¸":7350,"à¦§à¦¨à¦Ĺ":7351,"à¦§à¦¨à¦ıà¦¸à¦¬":7352,"à¦¯à¦¸à¦ķ":7353,"à¦¯à¦¸à¦®à¦¯":7354,"à¦¯à¦¸à¦¹à¦¯":7355,"Ġà¦¦à¦°à¦ķà¦·":7356,"à¦ķà¦ķà¦·":7357,"à¦¹à¦®à¦£":7358,"à¦¹à¦®à¦®à¦¤":7359,"à¦ķà¦¨à¦ĩ":7360,"à¦ķà¦¨à¦ļ":7361,"Ġà¦¦à¦¶à¦Ń":7362,"à¦²à¦®à¦¶à¦²":7363,"Ġà¦¬à¦īà¦²":7364,"Ġà¦¬à¦īà¦ł":7365,"à¦¢à¦ª":7366,"à¦·à¦¤à¦¸":7367,"à§Łà¦¨à¦¯":7368,"à¦¥à¦°à¦«":7369,"Ġà¦ĵà¦ķà¦ı":7370,"à¦²à¦Łà¦¨à¦ķ":7371,"à¦°à¦Ńà¦ķ":7372,"à¦°à¦Ńà¦Ł":7373,"à¦¦à¦®à¦ĵ":7374,"Ġà¦¸à¦®à§Łà¦Ĺà¦¤":7375,"à¦²à¦¸à¦Ĺ":7376,"à¦²à¦¸à¦¹":7377,"à¦²à¦¸à¦ł":7378,"à¦ªà¦¸à¦¦":7379,"à¦¸à¦ķà¦ªà¦ķ":7380,"à¦°à¦Ĺà¦Ń":7381,"à¦ĩà¦¬à¦ĩ":7382,"Ġà¦ıà¦¨à¦¡":7383,"Ġà¦ıà¦¨à¦ľà¦¯":7384,"à¦Łà¦¨à¦®":7385,"à¦Łà¦¨à¦ĩ":7386,"à¦°à¦°à¦Ļ":7387,"à¦¤à¦®à¦®":7388,"à¦¤à¦®à¦īà¦¤":7389,"Ġà¦Ńà§Łà¦ĩ":7390,"Ġà¦Ńà§Łà¦¦":7391,"à¦¬à¦Ľà¦¬":7392,"à¦¨à¦¸à¦¹":7393,"à¦¨à¦¸à¦Ļ":7394,"à¦¨à¦¸à¦¹à¦ķ":7395,"à¦ķà¦¶à¦ĵà¦¯":7396,"à¦®à§Łà¦ķ":7397,"Ġà¦Ĩà¦¦à¦²à¦¤":7398,"Ġà¦¸à¦¹à¦ľà¦ª":7399,"à¦¯à¦¥à¦Ń":7400,"à¦¬à¦¦à¦ª":7401,"Ġà¦īà¦²à¦«":7402,"à¦¶à¦ķà¦ĩ":7403,"à¦·à¦°à¦Ĩ":7404,"à¦ķà¦ľà¦¨à¦ĩ":7405,"Ġà¦īà¦ľà¦¬":7406,"à¦²à¦Ĺà¦ŀ":7407,"à¦§à¦¬à¦ļ":7408,"à¦Łà¦Ľà¦¡":7409,"Ġà¦ħà¦®à¦²à¦¬":7410,"Ġà¦ħà¦®à¦²à¦¦":7411,"Ġà¦ĩà¦¸à¦ķà¦¨":7412,"Ġà¦¶à¦¤à¦¦":7413,"Ġà¦¶à¦¤à¦¶à¦¤":7414,"à¦Ĺà¦®à¦ĩ":7415,"à¦Ĺà¦®à¦¦":7416,"Ġà¦°à¦ľà¦¤à¦ĩ":7417,"Ġà¦®à¦²à¦ļà¦¤":7418,"Ġà¦ıà¦ķà¦®à¦ŀ":7419,"Ġà¦Ĺà¦°à¦®à¦Ł":7420,"Ġà¦¬à§Łà¦²":7421,"Ġà¦¬à§Łà¦«":7422,"à¦¯à¦¦à¦¶":7423,"Ġà¦Ĩà¦¹à¦¤à¦¦":7424,"Ġà¦ħà¦¸à¦®à¦¸":7425,"à¦ªà¦Ľà¦¬":7426,"Ġà¦¦à¦®à¦ļ":7427,"à¦¶à¦®à¦¸":7428,"Ġà¦«à¦²à¦ª":7429,"Ġà¦«à¦²à¦¶":7430,"Ġà¦ªà§ľà¦²à¦¦":7431,"Ġà¦ªà§ľà¦²à¦¶":7432,"Ġà¦ªà§ľà¦²à¦ıà¦ķ":7433,"à¦¯à¦®à¦ĩ":7434,"à¦¯à¦®à¦¹":7435,"à¦ĩà¦¸à¦ļ":7436,"à¦°à¦«à¦ķ":7437,"Ġà¦¬à§ľà¦¬":7438,"Ġà¦¬à§ľà¦ľ":7439,"Ġà¦¬à§ľà¦Ń":7440,"Ġà¦¬à§ľà¦¸à§ľ":7441,"à¦¨à¦°à¦ľà¦¨":7442,"à¦·à¦®à¦£":7443,"à¦¶à¦²à§Ł":7444,"à¦ĩà¦¡à¦²":7445,"à¦Ĩà¦ľà¦®à¦²":7446,"Ġà¦ıà¦Ńà¦ķ":7447,"Ġà¦ĭà¦£à¦¬":7448,"Ġà¦Ĺà§ľà¦¨":7449,"Ġà¦Ĺà§ľà¦®":7450,"à¦ľà¦¨à¦ķà¦ĵ":7451,"à¦ľà¦¨à¦ķà¦Ń":7452,"à¦¨à¦Ńà¦¯":7453,"à¦¨à¦Ńà¦¦":7454,"à¦ķà¦¸à¦Ļ":7455,"à¦®à¦Ľà¦¬":7456,"à¦®à¦¦à¦¦":7457,"à¦ľà¦®à¦¹à¦²à¦ķ":7458,"Ġà¦Ĺà¦£à¦¹":7459,"Ġà¦Ĺà¦£à¦Ĩà¦¨":7460,"Ġà¦ļà¦Łà¦ľà¦²à¦¦":7461,"Ġà¦¤à¦¤à¦ĸ":7462,"Ġà¦¨à¦¬à¦¦à¦®":7463,"Ġà¦īà§İà¦°":7464,"à¦ªà¦£à¦ķ":7465,"Ġà¦«à¦Łà¦ķà¦Ł":7466,"à¦®à¦¸à¦ľ":7467,"à¦®à¦¸à¦¹":7468,"Ġà¦¸à¦°à¦²à¦°":7469,"Ġà¦¸à¦°à¦²à¦¸":7470,"à¦ľà¦¸à¦¦":7471,"à¦ľà¦¸à¦Ń":7472,"à¦£à¦¬à¦°à¦£":7473,"à¦°à¦ĸà¦£":7474,"à¦īà¦²à¦ĩ":7475,"à¦°à¦¹à¦°à¦Ł":7476,"à¦°à¦ľà¦¨à¦¨":7477,"à¦ªà¦®à¦²à¦¤":7478,"à¦ļà¦¬à¦Ľà¦°":7479,"à§«à§¨":7480,"Ġà¦¨à¦¨à¦«":7481,"Ġà¦¬à¦¸à¦¤à¦ĺà¦°":7482,"Ġà¦Īà¦Ļ":7483,"Ġà¦Īà¦Ĺà¦²":7484,"Ġà¦Ľà¦¨à¦®":7485,"Ġà¦Ľà¦¨à¦Ľà¦¨":7486,"Ġà¦ķà¦²à¦®à¦ĸ":7487,"Ġà¦ķà¦²à¦®à¦ļ":7488,"Ġà¦ķà¦²à¦®à¦ĵ":7489,"Ġà¦ķà§Łà¦¦":7490,"Ġà¦ķà¦¦à¦®à¦¤à¦²":7491,"à¦²à¦ľà¦«":7492,"à§Ŀà¦¦":7493,"à§Ŀà¦Ń":7494,"Ġà¦ħà¦Łà¦²à¦ķ":7495,"à¦Ľà¦¬à¦Ľà¦°":7496,"à¦īà¦ľà¦ĩ":7497,"Ġà¦ļà¦®à¦ļà¦®":7498,"Ġà¦ªà¦²à¦ķà¦¬":7499,"à§Ńà§Ń":7500,"à§Ńà§¨":7501,"à§Ńà§¯":7502,"Ġà¦Ĩà¦²à¦®à¦Ĺ":7503,"à¦ķà¦ªà§Ł":7504,"à¦¨à¦ļà¦£":7505,"Ġà¦ľà§Łà¦¯":7506,"Ġà¦ľà§Łà¦®":7507,"Ġà¦ľà§Łà¦ĩ":7508,"Ġà¦ľà§Łà¦ª":7509,"à¦ĸà¦ķà¦ĵ":7510,"à¦¯à§İà¦ĩ":7511,"à¦¹à¦°à¦£à¦¤":7512,"à¦¹à¦°à¦£à¦¸":7513,"à¦¹à¦°à¦£à¦ĩ":7514,"à¦¹à¦°à¦£à¦ľ":7515,"à¦·à¦¬à¦°à¦£":7516,"Ġà¦ħà¦¤à¦²à¦¶":7517,"à¦ĩà¦¶à¦¹à¦°":7518,"à¦łà¦ķà¦¯":7519,"Ġà¦¬à¦¦à¦Ń":7520,"Ġà¦¬à¦¦à¦ħà¦Ń":7521,"Ġà¦Ĩà¦ĩà¦¨à¦ª":7522,"Ġà¦Ĩà¦ĩà¦¨à¦Ĺà¦¤":7523,"Ġà¦Ĩà¦ĩà¦¨à¦¸à¦Ļ":7524,"Ġà¦ĩà¦Łà¦Ĺ":7525,"à§¨à§§à§¨":7526,"ĠĠĠĠĠĠčĊč":7527,"ĠĠĠĠĠč":7528,"ĠĠĠĠĠĠĠčĊč":7529,"Ġà¦Ĩà¦Łà¦¦":7530,"Ġà¦Ĩà¦Łà¦ĺ":7531,"Ġà¦Ĩà¦Łà¦·à¦Ł":7532,"Ġà¦ıà¦°à¦ªà¦°à¦ĩ":7533,"Ġà§¨à§©":7534,"Ġà§¨à§§à§ª":7535,"à¦ıà¦ĸà¦¨à¦ĵ":7536,"Ġà¦ľà¦Ĺà¦¤à¦ķ":7537,"Ġà¦Ĩà¦ĩà¦ĵà¦Ł":7538,"à¦²à¦ĩà¦¦":7539,"Ġà§§à§¯à§¯à§®":7540,"à§§à§§à§":7541,"Ġà¦¹à¦ĩà¦¹à¦²":7542,"à¦ķà¦¶à¦¨à¦ĵ":7543,"à¦ľà§Łà¦ķ":7544,"à¦ľà§Łà¦ª":7545,"à¦ľà§Łà¦Ĺ":7546,"à¦®à¦®à¦ŀ":7547,"à¦¶à¦¦à¦Ń":7548,"Ġà¦ķà¦Łà¦ķà¦Ł":7549,"Ġà¦Ĩà§Łà¦¤à¦¨":7550,"Ġà¦ıà¦ķà¦¶à¦°":7551,"à¦ĸà¦¸à¦ĸà¦¸":7552,"à§°à¦¯":7553,"à§°à¦®":7554,"à§°à¦¸":7555,"à§°à¦ĩ":7556,"à§°à¦¦":7557,"à§°à¦ª":7558,"à§°à¦¶":7559,"à§°à¦Ń":7560,"à§°à¦¬à¦²":7561,"à¦ĩà¦«à¦ķ":7562,"Ġà¦¶à¦ªà¦¥à¦Ł":7563,"Ġà¦¶à¦ªà¦¥à¦ĩ":7564,"Ġà¦¶à¦ªà¦¥à¦ªà¦¤":7565,"Ġà¦¶à¦ªà¦¥à¦Ĩà¦®":7566,"à¦¯à¦°à¦ķà¦®à¦Ń":7567,"Ġà¦¬à¦°à¦«à¦®":7568,"à¦ĩà¦¦à¦¹":7569,"à§ªà§©":7570,"à§ªà§¯":7571,"Ġà¦«à¦¸à¦²à¦Ĺ":7572,"à¦īà¦¡à¦¬":7573,"Ġà¦ħà¦®à¦°à¦ļà¦¨":7574,"à¦²à¦ĸà¦¬à¦°":7575,"Ġà¦Ĩà¦«à¦¶":7576,"à¦£à¦¦à¦£":7577,"Ġà¦Ĭà¦¨à¦¬":7578,"Ġà¦ıà¦ķà¦°à¦Ļ":7579,"à¦¤à¦¸à¦ĩ":7580,"à¦¸à¦¹à¦¬":7581,"à¦¸à¦¹à¦ª":7582,"Ġà¦ľà§ľà¦¤":7583,"à¦īà¦ĩà¦¥":7584,"à¦īà¦ĩà¦ħà¦°":7585,"Ġà¦¨à¦ĸà¦¶":7586,"Ġà¦¨à¦ĸà¦ħà¦²":7587,"Ġà¦ĭà¦£à¦ĸ":7588,"Ġà¦ªà¦Łà¦ªà¦°":7589,"à¦¶à¦¹à¦°à¦Ł":7590,"à§©à§«":7591,"à§©à§¨":7592,"à§©à§®":7593,"à§©à§¯à§®":7594,"à§¬à§©":7595,"à¦Ĺà¦£à¦ľ":7596,"à§®à§Ń":7597,"à¦Ĺà¦°à¦£à¦¯":7598,"à¦²à¦¶à¦Ļ":7599,"Ġà§ªà§ª":7600,"Ġà§ªà§Ńà§©":7601,"à¦¸à¦®à§Łà¦ĵ":7602,"à¦²à¦°à¦¹à¦¸":7603,"à¦¶à¦¸à¦ļ":7604,"à¦īà¦¬à¦ĵà¦¯":7605,"à¦ıà¦®à¦¨à¦ķ":7606,"à¦ıà¦®à¦¨à¦Ł":7607,"à¦¬à¦Ľà¦°à¦ĩ":7608,"à¦¶à¦Ĺà¦Ļ":7609,"Ġà¦Ĩà¦ĸà§ľ":7610,"Ġà¦Ńà¦Ĺà¦¬à¦¤":7611,"Ġà¦¬à¦ĩà¦Łà¦ĩ":7612,"Ġà¦ķà¦¤à¦¬à§ľ":7613,"Ġà¦¤à¦°à¦²à¦¨":7614,"à¦¬à¦°à¦£à¦²":7615,"à¦¬à¦°à¦£à¦Ł":7616,"Ġà§©à§¬":7617,"Ġà§©à§¯à§®":7618,"Ġà§©à§¨à§Ń":7619,"à§¯à§§":7620,"à§¯à§¯":7621,"à¦ħà¦ªà¦°à¦£":7622,"Ġà¦¦à¦«à¦¤à¦°à¦¦":7623,"Ġà¦¹à¦ĩà¦²à¦¬à¦²à¦¤":7624,"Ġà§¨à§¦à§¨à§«":7625,"Ġà§¨à§¦à§Ńà§«":7626,"Ġà§¨à§¦à§¨à§§":7627,"à¦¸à¦Ńà¦¬à¦¨":7628,"à¦¯à¦ĸà¦¨à¦ĩ":7629,"à¦ıà¦ĩà¦ļà¦ıà¦«":7630,"à¦°à¦¸à¦¬à¦Ł":7631,"Ġà¦Ĩà¦īà¦Łà¦¸":7632,"Ġà¦Ĩà¦īà¦Łà¦¡":7633,"à¦ĩà¦ĵà¦Ń":7634,"à¦¨à¦¬à¦ľà¦Ĺà¦¤":7635,"Ġà¦¨à¦Ĺà¦°à¦ķ":7636,"Ġà¦ĸà¦Łà¦®à¦Ł":7637,"à¦ħà¦ªà¦Ľà¦¨":7638,"ĠĠĠĠĠĠĠĠĠ":7639,"ĠĠĠĠĠĠĠĠĠĠĠ":7640,"Ġà¦¦à¦®à¦¨à¦¨":7641,"Ġà¦¦à¦®à¦¨à¦¬":7642,"Ġà¦Ĩà¦¬à¦°à¦£à¦ķ":7643,"Ġà§§à§¯à§Ńà§¦":7644,"Ġà§§à§¯à§Ńà§Ń":7645,"Ġà§§à§¯à§Ńà§¨":7646,"Ġà§§à§¯à§Ńà§©":7647,"Ġà§§à§¯à§Ńà§«à§Ń":7648,"à¦£à¦ļà¦ŀ":7649,"Ġà¦²à¦¬à¦£à¦ļ":7650,"Ġà¦īà¦ĩà¦²à¦ķ":7651,"à¦ħà¦¤à¦ıà¦¬":7652,"Ġà§§à§¨à§©":7653,"Ġà§§à§¨à§¦à§¦":7654,"Ġà§§à§¨à§¦à§©":7655,"Ġà§«à§«":7656,"Ġà§«à§¨":7657,"Ġà§«à§ª":7658,"Ġà§«à§Ńà§¯":7659,"à¦¤à¦¯à¦¶":7660,"à¦ķà¦ĸà¦¨à¦ĩ":7661,"Ġà¦¸à¦¦à¦°à¦ĺ":7662,"Ġà¦ľà¦²à¦ķà¦·":7663,"Ġà¦Ĺà¦²à¦¦à¦ĺ":7664,"Ġà¦Ĺà¦²à¦¦à¦ĺà¦°":7665,"Ġà§Ńà§©":7666,"Ġà§Ńà§¬":7667,"Ġà§§à§Ńà§¬à§¦":7668,"Ġà§§à§Ńà§¬à§©":7669,"Ġà¦ļà¦²à¦¨à¦¬à¦²à¦¨":7670,"à¦®à¦¹à¦²à¦Ł":7671,"Ġà¦ªà¦¤à¦¨à¦ķ":7672,"Ġà¦ļà§ľà¦ķà¦Ĺ":7673,"à¦¶à¦ĵà¦ª":7674,"Ġà§§à§¯à§ªà§¦":7675,"Ġà§§à§¯à§ªà§¬":7676,"à¦²à¦ıà¦ķà¦¸":7677,"à¦²à¦ıà¦ķà¦ĩ":7678,"à¦²à¦ıà¦ķà¦¸à¦Ļ":7679,"Ġà¦ªà¦Łà¦²à¦Ĺ":7680,"Ġà¦¶à¦°à§İà¦¬":7681,"à¦¡à¦Ńà¦£":7682,"Ġà§§à§¦à§¬":7683,"Ġà§§à§¦à§¦à§¦":7684,"à¦¬à¦¤à¦¨à¦°":7685,"à¦ĭà¦¦":7686,"à¦ĭà¦ľ":7687,"Ġà¦¸à¦¯à¦¤à¦¨":7688,"à¦¨à¦ıà¦¸à¦¬à¦ĩ":7689,"à¦¶à¦§à¦°à¦°":7690,"Ġà¦ıà¦ķà¦¨à¦ľà¦°":7691,"Ġà§¯à§®":7692,"Ġà§¬à§«à§Ń":7693,"Ġà§§à§«à§¦à§¦":7694,"Ġà§§à§«à§«à§¦":7695,"Ġà§¨à§¨à§®à§Ń":7696,"à¦Īà¦¦":7697,"à¦Īà§Ł":7698,"à¦¨à¦ıà¦ķà¦¸à¦Ļ":7699,"Ġà¦¶à¦°à¦¤à¦¬":7700,"Ġà§§à§®à§¬à§¦":7701,"Ġà§§à§ªà§¦à§¨":7702,"Ġà§§à§ªà§¯à§«":7703,"Ġà§§à§¯à§«à§¦":7704,"Ġà§§à§¯à§«à§«":7705,"Ġà¦ıà¦Ĩà¦Ļ":7706,"Ġà¦®à¦«à¦¸à¦¸à¦²":7707,"à§§à§¨à§§à§¯":7708,"Ġà¦ļà¦°à¦£à¦§":7709,"Ġà¦ļà¦°à¦£à¦¤à¦²":7710,"Ġà§¦à§«":7711,"Ġà§¦à§§":7712,"à¦²à¦Ĩà¦ľà¦ĩ":7713,"à¦ĸà¦²à¦¤à¦¬":7714,"Ġà¦ĸà§ľà¦Ĺ":7715,"à§§à§¯à§Ńà§§":7716,"à§§à§¯à§«à§¨":7717,"à¦¬à§İà¦¸à¦²":7718,"Ġà¦Ĩà¦īà¦Łà¦²":7719,"à¦ıà¦®à¦ı":7720,"Ġà¦Ĩà¦ĩà¦ľà¦ķ":7721,"Ġà¦Ĩà¦ĩà¦ľà¦ĵ":7722,"Ġà¦ľà¦¬à¦°à¦¦à¦ĸà¦²":7723,"à¦¹à¦ľà¦¸à¦¨":7724,"Ġà¦ľà¦¨à¦ªà¦¦à¦Ł":7725,"Ġà§§à§©à§¨":7726,"Ġà§§à§©à§ªà§®":7727,"à§§à§¦à§§":7728,"à¦°à¦ħà¦®à¦°":7729,"Ġà¦Ĩà¦¦à¦®à¦¹":7730,"Ġà¦¦à¦®à¦¦à¦®à¦¹":7731,"Ġà§¨à§ªà§©":7732,"ĠĠĠĠĠĠĠĠĠĠĠĠĠĠĠĠĠĠĠĠĠĠĠ":7733,"à¦Ĭà¦·":7734,"à¦²à¦ªà¦°à¦¶":7735,"Ġà¦ķà¦®à¦¨à¦ĵà¦¯":7736,"Ġà¦ªà¦ļà¦¨à¦¶":7737,"à§§à§©à§¨":7738,"Ġà¦ļà¦ªà¦²à¦®à¦¤":7739,"Ġà¦ĸà¦ķà¦ĸà¦ķ":7740,"à¦ĩà¦¨à¦«à¦°à¦®":7741,"ĠĠčĊĠĠĠĠĠĠĠčĊč":7742,"Ġà§§à§¯à§®à§¦":7743,"Ġà¦ĩà¦īà¦ıà¦¸à¦ı":7744,"à¦ĩà¦īà¦¤à¦°":7745,"Ġà¦ľà¦¨à¦Ĺà¦£à¦ķ":7746,"Ġà§§à§§à§¨à§¨":7747,"Ġà§§à§¯à§¯à§«":7748,"Ġà§§à§¯à§¯à§¨":7749,"Ġà§ªà§¦à§ªà§«":7750,"à¦ķà¦¨à¦ķà¦¨":7751,"à¦¯à¦°à¦ķà¦®à¦ķ":7752,"Ġà¦ªà¦¦à¦¯à¦ľ":7753,"ĠĠĠčĊĠĠč":7754,"Ġà¦¬à¦Ľà¦°à¦ķ":7755,"Ġà¦Ĩà¦°à¦ıà¦¸à¦ıà¦ıà¦¸à¦ıà¦¸":7756,"à¦Ķà¦ªà¦¨":7757,"à¦¦à¦°à¦¶à¦¹à¦°":7758,"Ġà¦Ĺà¦Ĺà¦¨à¦¬":7759,"Ġà¦°à¦¸à¦ķà¦·à¦¹":7760,"Ġà¦ĩà¦ķà¦¨à¦®":7761,"Ġà¦ķà¦¹à¦ķà¦¹":7762,"Ġà¦¨à¦°à¦¹à¦¤":7763,"à¦ªà¦²à¦Łà¦ª":7764,"à¦ľà¦¬à¦ªà¦£":7765,"à¦¡à¦ıà¦ĩà¦¡":7766,"Ġà¦ľà¦ĵà§Łà¦¹à¦°":7767,"Ġà¦«à¦°à¦Ĺà¦Ł":7768,"Ġà¦§à¦®à¦§à¦®":7769,"Ġà¦Łà¦¸à¦Łà¦¸":7770,"à§¨à§§à§¨à§«":7771,"Ġà§§à§¯à§Ńà§«à§Ńà§¬":7772,"Ġà§§à§§à§¨à§¨à§§à§¯":7773}