#version: 0.2
à ¦
à §
Ġ à¦
à¦ ¾
à§ ĩ
à¦ °
à§ į
à¦ ¿
à¦ ¨
à¦ ¤
à¦ ²
à¦ ķ
à§ ģ
à¦ ¯
à¦ ¬
à¦ ®
à¦ ¼
Ġà¦ ķ
à§ ĭ
Ġà¦ ¬
Ġà¦ ¸
à ¥
à¥ ¤
Ġà¦ ª
à¦ ¸
Ġà¦ Ĩ
à¦ ¦
à¦ Ł
Ġà¦ ¨
Ġà¦ ®
à¦ ĩ
à¦ ª
à§ Ģ
Ġà¦ ¦
à¦ Ľ
Ġà¦ ¤
Ġà¦ ı
Ġà¦ ¹
à¦ ľ
à¦ ¶
à¦ ĸ
à¦¼ à§ĩ
â Ģ
Ġà¦ ħ
à¦ Ĺ
à§ Ł
à¦ ·
Ġà¦ ¯
à¦ §
à¦ ¡
à¦ ļ
Ġà¦ķ à¦°
à¦ ¹
Ġà¦ Ĺ
à¦ ģ
à¦ £
à¦ ¥
Ġà¦ ¶
Ġà¦ ľ
Ġà¦ ļ
Ġà¦ Ń
Ġà¦ °
à¦ ĵ
à§ĩ à¥¤
à¦ Ń
Ġà¦ı à¦ķ
Ġà¦ Ľ
Ġà¦Ĩ à¦®
à§ ĥ
à¦ ł
Ġ Ġ
à¦¼ à¦¾
Ġà¦ ī
à¦¾ à¦ģ
à¦ Ĥ
à¦ Ļ
à§ Ĥ
à§ĩ ,
Ġà¦ ¥
Ġà¦¬ à¦²
Ġà¦Ĩ à¦°
Ġà¦ ²
Ġà¦ ĵ
Ġà¦ «
Ġà¦ ĸ
âĢ Ķ
à§ ľ
à¦° à¦¤
Ġà¦ħ à¦¨
à¦¾ à¥¤
Ġà¦ §
Ġà¦¹ à¦¯
Ġ âĢ
Ġà¦ª à¦°
à¦¾ ,
à¦ĸ à¦¨
Ġà¦¸ à¦®
Ġà¦ ĺ
à¦¬ à¦¨
âĢ Ļ
à¦¼ à¦¿
Ġà¦® à¦¨
à¦® à¦¨
Ġà¦ıà¦ķ à¦Ł
à¦ª à¦°
à¦° à¦£
à¦¿ à¥¤
à¦ Ŀ
Ġà¦ı à¦ĩ
à¦ ŀ
à§ İ
à¦ ī
à¦¿ ,
à¦ľ à¦¨
à¦ «
à¦° à¦¬
à¦¤ à¦°
à¦ª à¦¨
à¦ ı
Ġà¦Ĩ à¦²
Ġà¦¸ à¦¬
à¦¬ à¦°
à¦° à¦ķ
Ġà¦¬à¦² à¦²
Ġà¦Ĩ à¦¸
Ġà¦ Ł
âĢ Ŀ
à¦ Ĩ
Ġà¦ķ à¦¥
ĠâĢ ĺ
à§ Į
Ġà¦® à¦¤
Ġà¦Ĩ à¦Ľ
Ġà¦ ¡
Ġà¦¹ à¦²
Ġà¦ī à¦ł
à¦ ĺ
ĠâĢ ľ
Ġà¦ ĩ
Ġà¦ľ à¦¨
Ġà¦ Ŀ
à§ Ī
à¦¼ à¥¤
Ġà¦ª à¦¡
Ġà¦¸ à¦Ļ
Ġà¦¹ à¦¬
Ġà¦ı à¦¬
Ġà¦§ à¦°
à¦¬ à¦²
à¦ĵ à¦¯
Ġà¦ķà¦° à¦¤
à§ģ à¦ģ
âĢ ĵ
ĠĠ Ċ
Ġà¦ħ à¦¬
Ġà¦ ł
Ġà¦¹ à§Ł
à¦¬ à¦ª
à¦· à¦£
Ġà¦ı à¦¸
Ġà¦® à¦§
Ġà¦ķà¦° à¦²
Ġà¦ļ à¦²
à¦¼ ,
à¦° à¦®
à¦ ĥ
Ġà¦¬ à¦¸
à¦¨ à¦¤
Ġà¦¬ à¦¨
Ġà¦ ¢
à§ĭ à¦ģ
Ġà¦Ĩ à¦ľ
Ġà¦Ĩ à¦¬
Ġà¦Ĩ à¦Ĺ
à¦ķ à¦²
Ġà¦ª à¦¥
Ġà¦¨ à¦¤
Ġà¦ħ à¦¸
Ġà¦ĵ à¦ł
Ġà¦Ĺ à¦²
à¦¤ à¦¨
à§ĩ à¦ģ
à¦ķ à¦Ł
à¦ķ à¦°
à§ĭ ,
à¦ ħ
à§ĩ ?
Ġà¦Ĩà¦® à¦°
à¦¸ à¦¬
Ġà¦¨ à¦¯
à§ĭ à¥¤
Ġà¦¤ à¦¬
Ġà¦ı à¦ĸà¦¨
à¦° à¦¥
Ġà¦ħ à¦®
à¦² à¦ķ
à¦¬ à¦¤
à¦° à¦¨
Ġà¦Ĩ à¦¨
Ġà¦¤ à¦ĸà¦¨
Ġà¦¸ à¦¤
Ġà¦Ĩ à¦ķ
à¦¾ -
à¦° à¦¸
à¦¤ à¦¬
Ġà¦ħ à¦°
Ġà¦ı à¦²
Ġà¦Ĩ à¦¶
Ġà¦Ĩ à¦ªà¦¨
Ġà¦ī à¦¦
à¦¾ à¦Ĥ
Ġà¦¹ à¦¤
à¦ķ à¦¤
Ġà¦¶ à¦¬
à¦°à¦¥ à¦®
Ġà¦ħ à¦¦
à¦¦ à¦¨
Ġà¦¬ à¦°
Ġà¦ķà¦° à¦Ľ
à¦¨ à¦ĵ
Ġà¦ĺ à¦°
à¦¿ à¦Ĥ
à§ĩ âĢĶ
à¦¯ à¦¬
à¦¦ à¦°
à¦Ĺ à¦²
Ġà¦ľ à¦²
Ġà¦¯ à¦¦
Ġà¦¸ à¦¨
Ġà¦° à¦ķ
à¦Ĩ à¦®
Ġà¦ħ à¦Ń
Ġà¦ķ à¦ĸà¦¨
Ġà¦¸ à¦°
Ġà¦® à¦¹
Ġà¦ħ à¦¤
Ġà¦īà¦ł à¦²
Ġà¦¸à¦® à¦¯
Ġà¦¯ à¦ĸà¦¨
à¦Ĺ à¦¤
à¦² à¦¤
à¦° à¦¹
à¦§ à¦ķ
à¦ĵ à§Ł
Ġà¦ı à¦®à¦¨
à¦® à¦¤
Ġà¦ķà¦° à¦¬
à¦¹ à¦¸
à¦ĸ à¦¤
à¦¦ à¦¯
Ġà¦ķ à¦¬
Ġà¦ī à¦ª
à¦Ľ à¦¨
à¦° à¦ľ
à¦¨ à¦¬
à¦° à¦¶
à¦ĸ à¦²
Ġà¦ª à§ľ
à¦¯ à¦ķ
à¦° à¦²
Ġà¦ķ à¦²
Ġà¦¬ à¦¡
à¦² à¦¬
à¦² à¦¨
à§ĩ -
à¦§ à¦¨
à¦ļ à¦¨
à¦® à¦ķ
à¦ĩ à¦²
à¦¯ à¦¤
Ġà¦¨ à¦¦
à¦° à¦¦
Ġà¦ħ à¦ª
à¦® à¦²
à¦¶ à¦¨
Ġà¦ı à¦¤
à¦® à¦¯
Ġà¦Ĩ à¦¤
Ġà¦¹ à¦ł
à¦° à¦ĩ
à¦¿ à¦ĥ
à¦° à¦ªà¦°
Ġà¦¸ à¦¹
âĢ ¦
Ġà¦¹ à¦ļ
à¦¹ à¦°
à¦ª à¦¤
à¦ļ à¦²
Ġà¦ķ à¦£
Ġà¦ĵ à¦°
Ġà¦ħ à¦§
à¦ķ à¦¬
Ġà¦¬à¦² à¦¤
Ġà¦ī à¦¤
à¦° à¦¯
Ġà¦¶ à¦ķ
à¦ª à¦¦
à¦¸ à¦¨
Ġà¦ķ à¦¤
Ġà¦ĵ à¦ªà¦°
à¦¨ à¦¨
à¦ĩ à¦¨
Ġà¦Ń à¦°
Ġà¦ı à¦ĸ
Ġà¦ľ à¦®
à¦¾ âĢĶ
Ġà¦ħ à¦ļ
à¦ı à¦ĩ
Ġà¦ĺ à¦Ł
à§Ģ ,
Ġà¦ħ à¦ľ
à¦¹ à¦²
à¦¯ à¦¨
à¦¼ à§ĭ
Ġ âĢĶ
à¦¿ -
à¦Ł à¦ķ
Ġà¦ĩ à¦¤
à§İ à¦¸
Ġà¦ħ à¦ķ
à¦¿ ?
Ġà¦¬ à¦¹
Ġà¦ī à¦¨
Ġà¦¨ à§Ł
Ġ à§
Ġà¦° à¦Ļ
à¦¾ ?
Ġà¦ħ à¦¥
à¦Ń à¦¬
à¦Ľ à¦°
Ġà¦Ĺ à¦¡
Ġà¦¦ à¦°à¦ľ
à¦¦ à§Ł
à¦Ĺ à¦¨
Ġà¦ķ à¦®
à¦¤ à¦²
Ġà¦ı à¦Ĺ
Ġà¦¯ à¦¤
à¦® à¦°
Ġà¦¬ à¦ĩ
à¦° à¦ĵ
à¦· à¦¤
à¦¨ à¦ķ
Ġà¦Ľ à¦¡
Ġà¦ª à¦¦
Ġà¦ĵ à¦ĩ
à¦¬ à¦¦
à¦¸ à¦®
Ġà¦¬ à¦Ľà¦°
Ġà¦¸ à¦ķ
Ġà¦Ń à¦¯
Ġà¦ī à¦ļ
Ġà¦Ĩà¦° à¦ĵ
Ġà¦¶ à¦°
à¦¿ à¦ģ
à§ģ âĢĻ
à¦¶ à¦¬
Ġà¦¤ à¦°
Ġà¦¸à¦® à¦¸
Ġà¦ı à¦Ł
Ġà¦¬ à¦¯
Ġà¦¶ à¦¹à¦°
à§Ģ à¥¤
âĢ ľ
à§İ à¦ķ
à¦¤ à¦ķ
Ġà¦® à¦°
à¦® à¦£
Ġà¦ħ à¦Ĺ
à¦Ĺ à¦°
à¦¿ âĢĶ
Ġà¦Ĺ à¦°
Ġà¦Ĺ à¦Ń
à¦ĩ à¦°
âĢ Į
à¦° à¦ª
à§ģ ,
à§ģ à¦ĥ
Ġà¦Ĺ à¦¨
à¦· à¦ķ
à¥¤ âĢĿ
à¦Ŀ à¦¤
Ġà¦Ľ à¦¬
Ġà¦ħ à¦ªà¦°
à¦¸ à¦°
à¦¦ à¦²
à¦¯ à¦®
à¦ª à¦¥
à¦ļ à¦¯
à§į âĢĮ
à¦¤ à¦¤
à¦ı à¦ķ
à¦¼à§ĩ à¥¤
Ġà¦ı à¦°
à§ĩ !
à¦¬ à¦¸
à¦Ł à¦²
Ġà¦ħà¦® à¦²
à¦¤ à¦®
Ġà¦« à¦²
à¦ļ à¦ķ
Ġà¦ħ à¦²
à¦¼à§ĩ ,
à¦° à¦Ł
à¦° à¦Ń
Ġà¦ħ à¦¶
Ġà¦ Ĳ
à¦ª à¦ķ
Ġà¦¬à¦² à¦Ľ
à¦ļ à¦°
Ġà¦ıà¦ķ à¦ľà¦¨
Ġà¦ıà¦ķ à¦¦
§ à§
Ġà¦² à¦ķ
à¦² à¦²
à¦® à¦¬
à¥¤ âĢĻ
à¦¶ à¦ķ
Ġ Ċ
à¦ ¢
à¦¨ à¦Ł
à¦¸ à¦²
Ġà¦Ĩà¦¨ à¦¨
à¦¸ à¦Ļ
à§Ł à¦¨
Ġà¦ĩ à¦¨
à¦° à¦ļ
à¦¸ à¦¤
à¦°à¦¬ à¦¤
à¦°à¦ķ à¦®
à¦° à¦Ľ
Ġà¦ıà¦ķ à¦¬
à¦¬ à¦ķ
Ġà¦ħà¦¥ à¦ļ
à§ °
à§ĩ ;
Ġà¦ĩ à¦ļ
à¦ľ à¦²
Ġà¦ħà¦¬ à¦¸
Ġà¦ª à¦¤
Ġà¦ħà¦¨ à¦¨
à¦ĩ à¦ķ
à¦ħ à¦¨
Ġà¦° à¦¹à¦¸
? âĢĻ
! âĢĿ
à¦£ à¦¤
Ġà¦Ĩà¦¸ à¦Ľ
à§ģ -
à¦ª à¦Ł
Ġà¦Ĩà¦¸ à¦²
à§ģ à¥¤
à¦¯à¦¬ à¦¹
Ġà¦¸ à¦ķà¦²
à¦§ à¦¤
Ġà¦Ŀ à¦°
à§Į à¦ģ
Ġà¦Ĩ à¦§
à¦¯à¦¬ à¦¸
à¦¹ à¦¨
Ġà¦¸à¦® à§Ł
à¦· à¦¯
à¦ľ à¦°
à¦¨ à¦¦
Ġà¦Ń à¦¬
Ġà¦° à¦¬
à¦¸ à¦«
à¦® à§Ł
Ġà¦Ĩà¦ľ à¦ķ
à¦¨ à¦²
à¦· à¦°
à¦ĸ à¦¬
à¦¬ à¦¬
Ġà¦¶ à¦¤
Ġà¦ª à¦ķ
Ġà¦¬ à¦¦à¦²
Ġà¦Ĩ à¦ļ
Ġà¦ī à¦ľ
Ġà¦Ĩ à¦¡
à¦ķ à¦¨
à¦ĸ à¦Ľ
à¦¯ à¦¸
à§ĩà¥¤ âĢĿ
Ġà¦ Ī
Ġà¦¬à¦² à¦¬
Ġà¦Ĩ à¦¦
à¦¯ à¦°
à¦Ĺ à¦ľ
Ġà¦ķ à¦¯
à¦¬ à¦¯
Ġà¦ī à¦ªà¦°
à¦¯ à¦¦
Ġà¦ħ à¦Ļ
Ġ (
à¦ī à¦¨
à¦¾ !
Ġà¦Ĩ à¦Ļ
Ġà¦ħà¦¬ à¦¶
à¦Ł à¦¤
Ġà¦ī à¦²
Ġà¦Ľ à§ľ
à§ĩ âĢĵ
Ġà¦Ĺ à§ľ
à¦ĺ à¦°
à¦¥ à¦°
Ġà¦Ĺ à¦¤
Ġà¦ī à§İ
à¦¨ à¦¸
à§ĭ ?
Ġà§ §à§
à¦¨ à¦Ĺ
Ġà¦Ĩ à¦¹
Ġà¦¨ à¦¬
Ġà¦Ĩà¦¸ à¦¬
à¦¨ à¦°
Ġà¦ĵ à¦¦
Ġà¦¤ à¦²
Ġà¦¦ à¦²
Ġà¦ĸ à¦¬à¦°
Ġà¦ķà¦ĸà¦¨ à¦ĵ
à¦¸ à¦ķ
à¦ª à¦¸
à¦¨ à¦¬à¦¤
à¦§ à¦°
Ġà¦ĺà¦Ł à¦¨
Ġà¦° à¦ĩà¦²
Ġà¦°à¦ķ à¦®
âĢ ĺ
Ġà¦ī à¦¡
à¦Ł à¦¬
à¦¼ à§ģ
à¦¬ à¦¶
Ġà¦Ĩ à¦ª
Ġà¦¬ à§ľ
Ġà¦ļ à¦ķ
à¦ĩ à¦¯
à¦Ŀ à¦²
à¦° à¦Ĺ
à¦° à¦ľà¦¨
à¦¼ à§Ģ
à¦Ļ à¦²
Ġà¦ĺ à¦¨
à¦² à¦Ľ
à¦ĩ à¦Ł
Ġà¦Ĩ à¦¯
Ġà¦¹ à¦ĵà¦¯
à¦« à¦²
¯ à§
à¦ı à¦°
à¦¼à¦¾ ,
à¦¥ à¦¨
à¦¯ à¦¥
Ġà¦ıà¦ķ à¦ĩ
Ġà¦ī à§İà¦¸
Ġà¦Ń à§Ł
Ġà¦¸à¦¹ à¦ľ
Ġà¦ı à¦¨
Ġà¦¬ à§Ł
à§ĭ âĢĶ
à¦Ł à¦°
Ġà¦Ĩ à¦Łà¦ķ
Ġà¦¦ à¦°à¦ķ
Ġà¦ķ à¦·
Ġà¦ ĭ
à¦ĩ à¦¤
Ġà¦ıà¦ĸà¦¨ à¦ĵ
à¦® à¦¸
à¦ķ à¦ķ
à¦ı à¦ķà¦Ł
à¦ª à¦¡
à¦Ń à¦°
Ġà¦Ľ à¦¨
Ġà¦Ĩà¦¸ à¦¤
Ġà¦¬ à¦Ł
à¦ª à¦·
Ġà¦° à¦¯
Ġà¦ķ à¦ł
à¦Ĩ à¦°
à¦Ĩ à¦ľ
à¦°à¦¹ à¦°
à§Ģ -
à¦°à¦® à¦£
Ġà¦¬ à¦ķ
à¦· à¦®
à¦ı à¦¬
Ġà¦¹ à¦°
ĠâĢ ĵ
à¦¾ âĢĻ
? âĢĿ
Ġà¦Ń à¦¦
Ġà¦ª à¦²
Ġà¦¦ à¦°
à¦¾ ;
Ġà¦ħà¦¥ à¦¬
à¦ľ à¦¸
Ġà¦ļ à¦°
à§ ¦
à¦¾ âĢĵ
Ġà¦ħ à¦«
à¦¯ à¦ĩ
à¦Ĺ à¦¬
à¦ľ à¦¯
à¦ĩ à¦¬
à¦§ à¦¬
Ġà¦¤ à¦¥
à¦¦ à¦®
Ġà¦ķ à¦¨
Ġà¦ľ à¦¡
à¦¹ à¦¤
à¦Ł à¦¨
à§ĭ -
Ġà¦¨ à¦ķ
Ġà¦ı à¦¦
à¦°à¦¹ à¦£
Ġà¦¤ à¦¤
Ġà¦ľ à¦¯
à¦¼à¦¾ à¥¤
Ġà¦¤à¦ĸà¦¨ à¦ĩ
à¦ķ à¦¡
Ġà¦¸à¦¬ à¦ļ
Ġà¦Ĩ à¦Ń
à¦ľ à¦¬
Ġà¦ħà¦¦ à¦®
Ġà¦¦ à¦¶
à¦¼ âĢĶ
à¦° à¦§
à¦² à¦¸
à¦¯ à¦¯
à¦® à¦§
Ġà¦ľ à¦°
Ġà¦Ī à¦¶
Ġà¦ķ à¦²à¦ķ
Ġà¦¯ à¦¨
à¦¿ !
à¦ľ à¦¤
à¦ª à¦£
à¦® à¦Ł
Ġà¦¸ à¦ļ
à¦² à¦®
à¦¸à¦¬ à¦ĩ
Ġà¦¸ à¦°à¦ķ
Ġà¦¨ à¦°à¦®
Ġà¦§à¦° à¦¨
à¦ķ à¦¦
à¦Ĩà¦® à¦°
Ġà¦¯ à¦¥
à¦² à¦Ĺ
à¦Ĺ à¦®
Ġà¦īà¦ł à¦¤
Ġà¦² à¦ľ
Ġà¦ľ à¦¬
à§ Ŀ
Ġà¦¸ à¦¦
à¦· à¦®à¦¤
Ġà¦¸ à¦Ń
âĢĶ âĢľ
Ġà¦īà§İ à¦¸à¦¬
à¦Ĩ à¦ªà¦¨
à¦¶ à¦ª
à¦® à¦°à¦£
Ġà¦ĵ à¦ķ
âĢĻ ,
à¦¼ ?
Ġà¦Ĳ à¦¤
à¦¨ à¦ĩ
Ġà¦§ à¦¨
à§ ¨
Ġà¦Ĩà¦ľ à¦ĵ
Ġà¦Ĺ à¦£
à¦® à¦Ĺ
à¦ī à¦ķ
Ġà¦ıà¦¸ à¦¬
Ġà¦ħ à¦Łà¦²
à¦¾à¥¤ âĢĿ
à¦ĩ à¦Ľ
à¦¨ à¦¯
à¦ł à¦ķ
Ġà¦¸ à¦ŀ
Ġà¦ķ à¦ª
à§Ł à¦¤
à¦° à§Ł
à¦® à¦¹
à¦ł à¦¸
Ġà¦¸à¦¤ à¦¤
à¦² à¦Ł
Ġà¦¨ à¦¨
à§Ģ ?
à¦Ĩ à¦²
à¦¹ à¦°à¦£
Ġà¦ī à§ľ
à¦ŀ à¦¤
Ġà¦Ĩ à¦¦à¦°
à¦Ł à¦«
Ġà¦® à¦ľ
à¦¾à¦ģ ,
Ġà¦ı à¦Ń
Ġà¦¨ à¦®
à¦ĸ à¦°
Ġà¦ªà¦° à¦¬à¦°
Ġà¦īà¦ª à¦¸
à¦¹ à¦ł
Ġà¦§à¦° à¦²
à¦¨ à¦Ń
Ġà¦ª à¦¶
à¦ľ à¦®
à¦ķ à¦¥
à¦ª à¦ļ
à¦¹ à¦¯
Ġà¦īà¦ł à¦Ľ
à§ĩà¥¤ âĢĻ
à¦£ à¦ķ
Ġà¦² à¦¡
à¦¾à¥¤ âĢĻ
à¦¶ à¦²
Ġ :
à¦¡ à¦²
à¦¸ à¦ª
âĢĻ à¥¤
à¦¼ -
Ġà¦ļ à¦®à¦ķ
à¦² à¦¯
Ġà¦ªà¦° à¦®
Ġà¦ıà¦ķ à¦¸à¦Ļ
à¦¯ à¦ª
à¦¿ âĢĵ
Ġà¦¨ à¦ľà¦°
Ġà¦® à¦£
à¦¼ à¦Ĥ
Ġà¦¸à¦¬ à¦ĩ
Ġà¦ħà¦¸ à¦®
à¦¸ à¦®à¦¯
Ġà¦¥ à¦®à¦ķ
Ġà¦¬ à¦ī
à§ĩ âĢ¦
à¦¸ à¦Ł
Ġà¦® à¦¸
à¦® à¦¶
à¦ļ à¦¡
à¦¬ à¦ĩ
à¦¬ à¦ļ
Ġà¦Ń à¦Ļ
Ġà¦ıà¦ķ à¦®
à¦ĥ à¥¤
à¦² à¦®à¦²
à¦ı à¦Ł
Ġà¦¬à¦¸ à¦²
Ġà¦® à¦ŀ
Ġà¦ªà¦¦ à¦ķ
Ġà¦° à§Ł
à¦ķ à¦¶
à¦¤ à¦Ł
à¦¬ à¦Ľ
Ġà¦° à¦ļà¦¨
à§ĩ? âĢĻ
à ¤
Ġà¦¶ à¦¹
à¦Ŀ à¦°
à¦¦ à¦Ĺ
Ġà¦ªà§ľ à¦²
Ġà¦Ĩà¦° à¦®
à¦ī à¦²
Ġà¦Ĺ à¦Ļ
à¦ķ à¦¸
Ġà¦ļà¦² à¦Ľ
à¦ķ à¦Ľ
à¦ķ à¦°à¦£
à¦® à¦ľ
à¦¦ à¦¸
Ġà¦Ĺ à¦¹
Ġà¦ī à¦·
à¦¿ ;
Ġà¦¦ à¦ķ
Ġà¦īà¦ł à¦¬
Ġà¦® à¦²
à¦ľ à¦ķ
à¦¤ à¦¦
Ġà¦Ĩ à¦ĵà¦¯
Ġà¦° à¦®à¦£
Ġà¦ļà¦² à¦¤
à¦¯ à¦Ń
à¦Ľ à¦¬
Ġà¦¤à¦° à¦Ļ
Ġà§§à§ ¯à§
Ġà¦¯à¦¤ à¦ĩ
à¦® à¦¦
à¦° à¦°
Ġà¦¦ à¦®
Ġà¦ħ à¦°à¦£
Ġà¦ķ à§Ł
Ġà¦Ĺ à¦¬
à¦¶ à¦®
Ġà¦ĺ à¦£
à¦ļ à¦°à¦£
à§ĩ? âĢĿ
à¦° à¦«
Ġà¦Ĺ à¦°à¦®
Ġà¦Ŀ à¦²à¦®à¦²
à¦¤ à¦ª
Ġà¦² à¦²
Ġà¦Ĺ à¦®
à¦ķ à¦Ĺ
Ġà¦ħ à¦ŀ
Ġà¦¸à¦° à¦²
Ġà¦ıà¦®à¦¨ à¦ķ
à¦°à¦¬ à¦²
à¦ĩ à¦Ń
à¦¥ à¦ķ
à¦ķ à¦ľà¦¨
à§ §à§
à¦Ŀ à¦ĸ
à¦° à¦ĸ
à¦ļ à¦¤
à¦¥ à¦²
Ġà¦® à¦¶
Ġà¦ª à¦ŀ
à¦ı à¦ĸ
Ġà¦ħà¦ľ à¦¸
à¦ı à¦¸à¦¬
Ġà¦ª à¦£
à¦Ĺ à¦Ľ
Ġà¦ħ à¦Ł
à¦® à¦ª
à¦Ł à¦Ľ
à¦ł à¦¨
Ġà¦° à¦¸
à¦· à§Ł
à¦Ł à¦ª
à¦ĩ à¦¡
Ġà¦² à¦®
à¦Ń à¦¯
à¦¬ à¦¹
à¦ķ à¦ĩ
à¦· à¦Ł
Ġà¦¹à§Ł à¦¤
à¦¸ à¦¹
à¦£ à¦¨
à¦ª à¦²
à¦ķ à§ľ
Ġà¦¹ à¦¸
Ġà¦ľ à§Ł
à¦¬ à¦Ń
à¦¸ à¦Ľ
Ġà¦ļ à¦¤
à¦° à¦¬à¦¨
à¦Ľ à¦²
à¦¿à¥¤ âĢĿ
à¦ħ à¦°
Ġà¦ļ à¦¡
Ġà¦Ĩ à§ľ
Ġà¦Ĩ à¦ĺ
à¦ĩ à§Ł
Ġà¦¸ à¦ª
à¦£ à¦¬
à¦ķ à¦Ń
Ġà§ ¨
à¦· à¦¦
à§ĭ !
à¦ª à¦®
à¦ļ à¦Ł
à¦¨ à¦¶
à¦¦ à¦Ł
à¦¡ à¦¬
à¦¦ à¦ķ
à¦¤ à¦¹
à¦ı à¦ĸà¦¨
à¦¿à¥¤ âĢĻ
Ġ t
Ġà¦®à¦¤ à¦¨
à¦° à¦Ĺà¦¤
Ġà¦¸à¦® à¦¨
Ġà¦ħà¦¸ à¦¹
à¦ľ à¦Ľ
à¦ī à¦¯
Ġà¦ıà¦ķ à¦¤
Ġà¦ª à¦Ľà¦¨
à¦ĺ à¦¨
à¦ª à§ľ
Ġà¦¸à¦¬ à¦ķ
à¦¤ à¦¨à¦¤
à§ §
Ġà¦¬à¦¸ à¦¨
Ġà¦ļ à¦¨
Ġà¦¹ à¦¨
à¦ļ à§Ł
à¦Ĺ à¦£
Ġà¦ķà¦² à¦®
à¦¤ à¦Ń
à¦ī à¦°
, âĢĿ
Ġà¦ī à¦°
âĢĶ âĢĺ
à¦¼ ;
à¦° à¦¦à¦°
Ġà¦ļ à¦Ł
Ġà¦ªà¦° à¦¶
à¦¯ à§İ
à¦¨ à¦Ľ
Ġà¦ľ à¦Ĺà¦¤
à¦¬à¦² à¦ľ
Ġà¦¬ à¦ľ
à¦¨ à¦ª
à¦¬ à¦§
Ġà¦¬à¦ĩ à¦¯
à¦¬ à¦¡
Ġà¦® à¦¦
à¦Ĺ à¦¡
à¦¿ âĢĻ
à¦¤ à¦¸
Ġà¦¨ à¦·
Ġà¦¸ à¦ł
h e
Ġà¦¸ à¦ľ
à¦Ĩ à¦ķ
à§ ©
Ġà¦ ·
à¦§ à¦¹à¦¯
Ġà¦Ŀ à¦¡
à¦¶ à¦¯
à¦ĸ à¦ķ
Ġà¦ļà¦² à¦²
à¦² à¦Ń
Ġà¦® à¦®à¦¤
à¦® à¦ļ
Ġà¦Ĩ à¦¨à¦¤
à¦ĩ à¦¸
. .
Ġà¦ Ĭ
Ġà¦¹ à¦ĩ
Ġà¦ħ à¦®à¦¨
à¦¬ à¦Ł
à¦¹ à¦®
Ġà¦ĵ à¦·
à¦ĺ à¦²
Ġà¦ħà¦¤ à¦ıà¦¬
à¦ľ à¦Ł
à¦® à¦¡
Ġà¦ı à¦°à¦ķà¦®
Ġà¦Ĩ à¦ĩà¦¨
Ġà¦ıà¦¤ à¦ķ
à¦² à¦ª
Ġà¦¨ à¦°
à¦° à¦Ļ
à¦ľà¦¨ à¦ķ
Ġà¦Ŀ à¦¨
à§ «
à¦¨ à¦ļ
Ġà¦ľ à¦Ł
à§ĩ :
à¦¬à¦² à¦¤
à¦°à¦¸ à¦Ļ
a n
Ġà¦ª à¦¯
à¦°à¦¬ à¦°
Ġà¦ķà¦¤ à¦Ł
Ġà¦¨ à¦¡
à¦ī à¦Ł
à¦Ľ à¦¤
Ġà¦¤ à¦¨
Ġ .
à§ ª
à¦¤ à¦ĩ
Ġà¦ĵ à¦¯
Ġà¦Ĳ à¦ķ
Ġà¦ħà¦¤ à¦²
à¦¾ à¦ĥ
Ġà¦ķ à¦Ł
à¦¾ âĢ¦
à¦¥ à¦®
Ġà¦ĵ à¦Ł
à¦Ĩ à¦Ĺ
Ġà¦ľ à§ľ
à¦² à¦ļ
à¦ª à¦Ľ
Ġà¦¹ à¦ĵà§Ł
i n
à¦¥ à¦¤
à¦ķ à¦ļ
à¦ķ à¦®
à¦ľ à§Ł
Ġà¦ĸ à¦¸
à§ĩ! âĢĿ
Ġà¦¸à¦® à¦°
Ġà¦ħ à¦¹
Ġà¦Ĩ à¦ķà¦°
Ġà¦ĵ à¦ª
à¦Ł à¦Ł
à¦¦ à¦¬
Ġà¦ĵ à¦ĸ
à¦¦ à¦¶
à¦¶ à¦¤
Ġà¦ħà¦® à¦°
à¦² à¦ĩ
à¦¯ à¦®à¦¯
Ġà¦¸ à§İ
à¦ĩ à¦ľ
Ġà¦¶ à¦Ļ
à¦ĵ à¦°
à¦®à¦¨ à¦ĩ
à¦ī à¦¦
à¦¾? âĢĻ
Ġà¦ķ à¦Ļ
à¦ľ à¦Ĺ
Ġà¦¨ à¦Ĺà¦°
Ġà¦¶ à¦ªà¦¥
Ġà¦ĩ à¦²
Ġà¦ļà¦² à¦¬
Ġà¦ª à¦²à¦ķ
à¦² à¦ľ
Ġà¦§ à¦°à¦¤
Ġà¦ī à¦ªà¦¨
à¦¶ à¦°
à¦¬ à¦£
Ġà¦¬à¦¸ à¦¤
à¦² à§Ł
Ġà¦Ĩà¦ļ à¦°à¦£
Ġà¦®à¦¨ à¦¨
Ġà¦ħà¦ª à¦®
à¦¬ à¦®
à¦¼ âĢĵ
à¦ķ à¦£
Ġà¦² à¦¤
Ġà¦Ĩ à§Ł
à¦¶ à¦Ł
Ġà¦ıà¦ķ à¦¨
à§ĩ à¦¾
Ġà¦ľ à¦Ļ
à¦¼à¦¿ ,
à¦¼à¦¿ à¥¤
à¦ī à§Ł
à¦ļ à§ľ
Ġà¦ıà¦¤ à¦Ł
à¦¼à¦¾ -
à¦ĩ à¦®
à¦¬à¦² à¦Ľ
à§Ł à¦®
à¦¿? âĢĻ
à§ ¯à§
à¦¸à¦¬ à¦ķ
Ġà¦ħà¦¨ à¦²
Ġà¦ħà¦ķ à¦¸
à¦ Ī
Ġà¦īà¦ª à¦²à¦¬
à¦¨ à§Łà¦¨
à¦¬ à¦ľ
à¦¬ à¦ľà¦¨
à¦ĵ à¦¨
r e
à¦°à¦® à¦¶
à¦ħ à¦¤
à¦°à¦ķ à¦²
à¦¤ à¦Ĺ
à¦® à¦ªà¦°
Ġà¦« à¦¸à¦²
à§¦ à§¦
à¦® à¦®
Ġà¦ĭ à¦·
Ġà¦° à¦ŀ
é Ł
Ġà¦¬à¦¸ à¦¬
éŁ ¿
! âĢĻ
à¦¯ à¦¹
à¦¥ à¦¬
à¦Ĺ à¦°à¦£
à¦¡ à¦¬à¦¦
à¦¿ âĢ¦
à¦Ł à¦®
à¦¬à¦² à¦¨
Ġà¦ĩ à¦¸
éŁ¿ éŁ¿
Ġà¦ħà¦¬ à¦§
à¦¬ à¦°à¦£
à¦® à¦Ľ
Ġà¦Ĩ à¦ĵà§Ł
Ġà¦ħ à¦¬à¦²
Ġà¦¤à¦ĸà¦¨ à¦ĵ
Ġà¦¬à¦ĩ à§Ł
à¦¯ à¦Ł
Ġà¦ķ à¦«
Ġà¦ª à¦Ł
Ġà¦® à¦¯
à§ĩ âĢĻ
Ġà¦ļ à¦®
Ġà¦Ĩà¦² à¦®
Ġà¦Ĩ à¦«
à¦¾ :
à¦Ľ à¦Ł
à§Ł à¦Ĺ
Ġà¦ıà¦ķ à¦¸
Ġà¦ıà¦¤ à¦¦
à¦¬ à§Ł
à¦¼ !
Ġà¦® à¦Ļ
Ġà¦ļ à¦°à¦®
Ġà¦ĩ à¦¯
à¦¬ à¦°à¦¤
Ġà¦ĺ à¦¡
Ġà¦Ĺ à¦¦
à§ Ń
à¦¤ à¦ľ
à¦¦ à¦¤
Ġà¦Ń à¦ķ
Ġà¦Ĭ à¦°
Ġà¦¨ à¦ĩ
à¦¨ à¦®
Ġà¦Ŀ à¦²à¦ķ
à¦¯ à¦ķà¦°
à¦ķ à¦ª
à¦¤ à¦ĸà¦¨
Ġà¦ľ à¦Ĺ
Ġà¦ıà¦ķ à¦²
à¦ľ à¦ª
à¦ı à¦®à¦¨
à§į à¥¤
à¦¸ à¦¸
à§Ģ âĢĶ
Ġà¦ı à¦°à¦ªà¦°
Ġà¦¸à¦¹ à¦¯
à¦¹ à¦ķ
à§ĭà¥¤ âĢĿ
à¦Ń à¦Ļ
Ġà¦¸à¦¹ à¦®à¦°
à¦¾ âĢĿ
à¦¶ à¦Ĺ
Ġà¦ĩ à¦Ļ
Ġà¦¬ à¦Ļ
à¦ħ à¦ļ
à¦¯à¦¤ à¦®
à¦Ľ à¦ª
Ġà¦ļ à¦ŀ
Ġà¦ªà¦¦ à¦ļ
à¦ĩ à¦ª
Ġà¦¬à§Ł à¦¸
Ġà¦¶ à¦¸
o n
Ġà¦ķ à¦®à¦²
Ġà¦®à¦¨ à¦¸
à¦ĸ à¦Ł
Ġà¦ķ à¦ļ
Ġà¦¸ à¦«
Ġà¦® à¦¡
à¦¾à¦ģ à¥¤
Ġà¦ªà¦° à¦¸
à¦°à¦ļ à¦£
Ġà¦¸ à¦¹à¦¸
à¦ļ à¦¬
à¦ķ à¦ĸà¦¨
à§Ģ !
Ġà¦ĸ à¦°à¦ļ
à¦ī à¦ľ
Ġà¦Ń à¦°à¦¸
à¦¬à¦¨ à¦ķ
à¦¸à¦® à§Ł
à¦ĸ à¦£
Ġà¦¨ à¦ĩà¦²
à¦ħ à¦¬
à¦¸ à¦Ń
Ġà¦² à§ľ
Ġà¦ĩ à¦¦
Ġà¦« à¦°
Ġà¦Ĩà¦¬ à¦¦
à¦¿? âĢĿ
Ġà¦ª à¦¨
à¦Ń à¦ķ
à¦¨à¦¬ à¦ľ
à¦¦ à¦¹
Ġà¦° à¦ļ
Ġà¦Ĩà¦® à¦¨
à¦ı à¦Ń
Ġà¦ķ à¦ķ
Ġà¦¸ à¦¤à¦°
Ġà¦ıà¦ĩ à¦¸à¦¬
Ġà¦Ĩà¦¸ à¦¨
Ġà¦¢ à¦²
Ġà¦īà§İ à¦ª
à¦ħ à¦¸
Ġà¦Ń à¦Ĺ
Ġà¦¯ à¦ľ
à¦Ĩ à¦¶
à¦°à¦¥à¦® à¦¬
Ġà¦ı à¦¡
à¦ľ à¦Ĺà¦¤
e n
à¦¯ à¦Ĺ
ĠâĢĶ âĢĺ
Ġ -
à¦ľà¦¨ à¦¶
à§ĩâĢĶ âĢľ
Ġà¦Ĩ à¦¬à¦°
Ġà¦° à¦¥
à¦ĺ à¦¶
a l
Ġà¦¬ à¦ŀ
à¦Ł à¦¸
Ġà¦¨à¦ķ à¦¶
a t
e r
Ġà¦Ł à¦°
Ġà¦īà¦ª à¦¹
à¦¯ à¦ĸà¦¨
Ġà¦¦ à¦ĸà¦²
Ġà¦Ĩà¦¤ à¦Ļ
Ġà¦¬à¦¹ à¦¨
Ġà¦ķ à¦¬à¦°
à¦¯ à§Ł
à¦Łà¦« à¦°
à§ ¬
à¦° à¦·
à¦¦ à¦¦
Ġà¦ĩ à¦¶
Ġà¦ª à¦¬
Ġà¦ķ à¦¡
Ġà¦¦ à¦¤
Ġà¦Ń à¦Ĺà¦¬
à¦¨ à¦ľà¦¨
Ġà¦Ĩ à¦Ł
Ġà¦ľà¦¨ à¦¨
à¦¸ à¦¤à¦¤
Ġà¦¶ à¦¯
à¦ĸ à¦¸
à¦¤ à¦Ľ
à¦Ĩ à¦¬
Ġà¦ħà¦¬ à¦¹
à¦Ŀ à¦¬
à¦ª à¦¬
Ġà¦ªà§ľ à¦Ľ
à§ ®
Ġà¦®à¦¨ à¦ķ
âĢ¦ âĢĿ
à§ģ âĢĶ
Ġà¦Ĩà¦¬ à¦Ľ
à¦ĩ à¦¦
Ġà¦ļ à¦¶à¦®
âĢĻ -
Ġà¦®à¦¨ à¦Ł
à¦® à¦ĩ
à¦¿à¦Ĥ -
Ġà¦īà¦ª à¦ķ
à¦Ĩà¦ľ à¦ķ
à¦² à¦«
à¦¸ à¦¦
Ġà¦ĭ à¦¤
à¦² à¦¦
Ġà¦Ŀ à¦²à¦¸
Ġà¦Ĩà¦ļ à¦®à¦ķ
Ġà¦ Ķ
à¦ª à¦Ĺ
Ġt he
à¦¯ à¦ľ
à¦¤à¦° à¦Ļ
à¦¬à¦¨ à¦¯
Ġà¦Ŀ à§ľ
à¦Ł à¦¦
à¦Ń à§Ł
Ġà¦¯à¦¤ à¦Ł
Ġà¦ĸ à¦£
à¦¶ à¦¦
à¦Ĺ à¦Ń
Ġà¦ĩ à¦Ł
à¦ī à¦¡
Ġà¦ıà¦ķ à¦ķ
Ġà¦¸à¦® à¦Ĺ
i t
à¦§ à¦®
à¦ªà¦ķ à¦¥
Ġà¦¬à¦Ł à¦Ĺ
à¦ª à¦¯
à¦¶ à¦¹à¦°
à¦¯ à¦ĵ
Ġà¦¬à¦¨ à¦¹
Ġà¦ļà¦® à§İà¦ķ
Ġà¦Ĩ à¦ĩ
à¦Ĩ à¦¸
Ġà¦Ŀ à¦ķ
à¦£ à¦¦
à¦ĺ à¦®
à¦Ł à¦Ĺ
à¦¼à¥¤ âĢĿ
Ġà¦Ĩà¦¨ à¦²
Ġà¦Ŀ à¦°à¦¨
i s
Ġà¦ıà¦ķ à¦ĸ
à¦ī à¦ĩ
à§Ł à¦ķ
à§ĭ ;
à¦ı à¦¸à¦¬à¦ĩ
Ġà¦ħ à¦¬à¦¨
Ġà¦ĩ à¦ŀ
à§ĭ? âĢĿ
à¦¾ !âĢĿ
à¦Ń à¦¬à¦¤
o r
Ġà¦ªà¦¥ à¦ļà¦²
à¦¯à¦® à§Ł
Ġà¦¸ à¦ĸ
Ġà¦ıà¦ĸà¦¨ à¦ĩ
à¦Ł à¦ĸ
Ġà¦¨ à§ľ
) ,
Ġà¦Ĩ à¦ªà¦¤
Ġà¦¨ à¦Ĺ
a r
Ġà¦Ĩ à¦ĸ
à¦¨ à¦¹
Ġà¦® à¦Ĺ
à¦ĵ à¦ĩ
Ġà¦ļà¦ķ à¦ļà¦ķ
Ġà¦ª à¦Ļ
Ġà¦° à¦«
à§İ à¦ª
à¦¸ à¦°à¦£
à§ľ à¦ķ
à¦Ŀ à¦ķ
Ġà¦Ĩà¦° à¦ľ
à¦Ĩ à¦ļ
Ġà¦¹à§Ł à¦¨
Ġà¦ıà¦®à¦¨ à¦ĩ
Ġà¦Ĺ à¦¹à¦¨
Ġà¦ıà¦ķ à¦°
Ġà¦¯ à¦®
à§ĩ, âĢĿ
à¦¤ à¦°à¦£
à¦°à¦¤ à¦°
à¦ħ à¦¬à¦¶
Ġà¦¬ à¦¶
Ġà¦ħà¦¬ à¦¦
à¦ Ĳ
Ġà¦¬ à¦ªà¦¨
à¦¶ à§Ł
Ġà¦īà¦¦ à¦¯
Ġ w
Ġà¦ĵ à§ľ
à¦Ń à¦¨
âĢĿ à¥¤
à¦ıà¦ķ à¦¦
à¦¦ à¦ª
à¦ħ à¦²
Ġà§ ©
à¦² à¦¬à¦¨
Ġà¦ķ à¦¦
Ġà¦¤ à¦ªà¦¸
Ġà¦Ĺ à¦ľ
Ġà¦¦ à¦¯
à¦ı à¦¸
Ġà¦īà¦ª à¦Ń
Ġà¦ıà¦ķà¦¦ à¦®
Ġà¦¬ à¦§
à¦ī à¦¸
Ġà¦Ń à¦°à¦¤
à¦¿ .
à§ģ ?
Ġà¦¬ à¦¦
à¦Ĩ à¦¤
à¦Ľ à¦Ĺ
à¦ķ à¦ł
à¦ħ à¦®
à¦¶ à¦ĩ
Ġà¦ķà¦¤ à¦ķ
Ġ a
à¦ª à¦¶
Ġà¦ıà¦ķ à¦¶
Ġà¦Ŀ à¦Ĺà¦¡
Ġà¦¤ à¦ķ
à¦« à¦°
Ġà¦ķà¦¤ à¦¦
à§ĭ âĢĵ
à¦ļ à¦®
Ġà¦Ń à¦¬à¦¨
Ġà¦ĸ à¦°
à¦°à¦¤ à¦¬à¦°
Ġà¦ªà§ľ à¦¤
à§İ à¦ĩ
Ġà¦Ĩà¦ľ à¦ĩ
à¦¯ à¦¶
à¦· à¦¬
à¦¯ à¦¬à¦¤
Ġà¦ħ à¦¯
à¦ħ à¦¦
Ġà¦¤ à¦¤à¦ķ
à¦¼à§ĩ -
Ġà¦ħà¦¬ à¦ķ
à¦¨à¦ĵ à¦¦
Ġà¦Ĩ à§Łà¦¨
Ġà¦ħ à¦ļà¦²
à¦Ĩ à¦¨
Ġà¦ıà¦ĩ à¦Ł
à¦¯ à¦°à¦ķà¦®
Ġà¦¸ à¦«à¦²
Ġà¦ªà¦° à¦¦
Ġà¦ĺà¦° à¦Ł
à¦· à§İ
Ġà¦¶ à¦¤à¦ķ
Ġ s
à¦°à¦¥à¦® à¦¤
Ġà¦īà¦ª à¦¦
Ġà¦ĭ à¦¦
à§Ł à¦°
Ġà¦ķà¦² à¦°à¦¬
à¦¾? âĢĿ
Ġà¦¯à¦¤ à¦¦
à¦¸ à¦°à¦ķ
à¦ĵ à¦¡
à¦ı à¦¤
Ġà¦Ĩà¦¸ à¦°
à§ ¯
à§ĭ âĢĻ
à§Ł à¦¬
Ġà¦¸à¦® à¦¤
Ġà¦° à¦¶
Ġà¦ĩ à¦¸à¦²
Ġà¦ĩ à¦īà¦¨
à§ĭ ?âĢĻ
Ġà¦¹ à¦ĵ
Ġà¦Ĩà¦¬ à¦¹
Ġà¦ļ à§ľ
à¦ī à¦¬
Ġ c
à¦¿ !âĢĿ
âĢ į
à¦« à¦Ł
Ġà¦ľà¦² à¦°
Ġà¦¨ à¦°à¦ķ
à§İ à¦¸à¦¬
Ġà¦¸ à¦°à¦¸
à¦Ĺ à¦¸
Ġà¦Ĩà¦¨ à¦¬
à¦°à¦¤ à¦¤
à¦®à¦¨ à¦¸
Ġà¦Ĩà¦¶ à¦Ļ
Ġà¦¬à¦ĩ à¦Ł
Ġà¦Ĳ à¦¶
à¦¬ à§ľ
à¦ ĭ
à¦· à¦¸
Ġà¦Ĩà¦® à¦²
Ġà¦¡ à¦ķ
à¦ĺ à¦Łà¦¨
Ġà¦Ŀà¦ķ à¦Ŀà¦ķ
à¦¿ :
à¦ķ à¦¶à¦¨
à¦® à§ľ
à¦¸ à¦ķà¦²
Ġà¦° à¦¤
Ġà¦° à¦®
Ġà¦Ī à¦·à§İ
à¦Łà¦« à¦Ł
à¦ı à¦Ĺ
à§ģ à¦Ĥ
Ġà¦¯ à¦¯
à§Ī à¦ĥ
Ġà¦ľà¦² à¦¬
Ġà¦ľà¦Ĺ à§İ
e s
à¦¬ à¦Ĺ
à¦¦ à¦£
à§Ģ à¦Ĥ
Ġà¦Ĺ à¦łà¦¨
Ġà¦īà¦² à¦Ł
Ġà¦ķ à¦ĩ
Ġà¦¦ à¦Ĺ
à¦· à¦ª
à¦¼à¥¤ âĢĻ
e d
Ġ b
à¦® à¦ĵ
à¦Ĺ à¦Ĺ
Ġà¦ıà¦ķ à¦ª
Ġà¦īà¦ª à¦¯
à¦¸à¦² à¦®
Ġà¦¦ à¦£
Ġà¦Ľ à¦Łà¦«à¦Ł
Ġà¦« à¦Ł
à¦² à¦°
à¦ľà¦¨ à¦¤
à§ģ !
Ġà¦¨ à¦¹
Ġà¦¦ à¦¡
à¦Ĺ à¦ŀ
o u
Ġà¦ĵ à¦¡
Ġà¦Ĩà¦² à¦¤
Ġà¦ĭ à¦£
Ġà¦ĺà¦Ł à¦²
à§Ł à¦¸
Ġà¦¥ à¦®
à¦ħ à¦¶
à¦¤ à¦¬à¦¤
à§ĭ à¦Ĥ
à¦¼à§ĩ âĢĶ
Ġà¦§ à¦®à¦ķ
Ġà¦ıà¦ĩ à¦Ń
à¦ľ à¦ķà¦°
Ġà¦ħ à¦¬à¦°
à¦Ĺ à¦¦
à¦Ĩ à¦¹
à¦ĩ à¦ļ
à§ĭà¥¤ âĢĻ
Ġà¦ħà¦Ĺ à¦£
à¦ľ à¦Ļ
à¦ĸ à¦ļ
à¦ļ à¦¸
à¦ĩ à¦ľà¦¨
Ġà¦¤ à¦¦
à¦Ĺ à¦Ł
à¦£ à¦®
à¦¨ à¦ľ
Ġà¦§ à¦°à¦¬
Ġ m
à¦¸ à¦ĩ
Ġà¦® à§İà¦¸
à¦¾, âĢĿ
à§İ à¦ªà¦°
à¦Ĩ à¦§
à¦² à¦ĸ
à¦¬ à¦¤à¦¨
Ġà¦ī à¦ķ
Ġà¦¬ à¦°à¦£
Ġà¦Ľ à¦²
Ġà¦¨à¦¬ à¦ľ
à¦Ļ à¦¤
Ġà¦ľà¦¨ à¦¸
Ġà¦¹ à¦ķ
Ġà¦° à¦¤à¦¨
Ġà¦¯à¦¤ à¦ķ
Ġà¦ªà§ľ à¦¬
an d
à¦ĩ à¦«
à¦ī à¦¤
à§¨ à§¦à§¦
Ġà¦® à¦°à¦£
à¦ĩ à¦¶
Ġà¦¦ à¦¸
Ġà¦Ĩà¦¹ à¦¤
à¦ľ à¦¦
à¦ĺ à¦¦
Ġà¦Ĩà¦Ĺ à¦®à¦¨
à¦¼à¦¾ âĢĶ
à¦ªà¦ķ à¦¥à¦¨
à¦ķ à¦·
à¦Ĩ à¦ª
Ġà¦¹ à¦Ł
âĢĻ âĢĶ
Ġà¦¬à¦¨ à¦¬
à¦°à¦¸ à¦°
Ġà¦¤à¦¤ à¦ĩ
à¦¬ à¦Ľà¦°
Ġà¦® à¦Ĺà¦ľ
Ġà¦Ĩà¦° à¦¬
à¦ħ à¦Ń
Ġà¦¬à¦° à¦«
à¦ľ à¦ĩ
à¦« à¦²à¦¨
âĢĿ -
âĢĿ âĢĶ
à¦ıà¦ķ à¦ľà¦¨
éŁ¿éŁ¿ éŁ¿éŁ¿
à¦¸ à¦ĵ
Ġà¦ħ à¦²à¦ķ
à¦· à¦¨
Ġà¦¦à¦¶ à¦Ł
à¦® à¦Ŀ
Ġà¦ıà¦¤ à¦ĩ
Ġà¦® à§Ł
à¦¶ à¦¸
Ġà¦ī à¦Ńà¦¯
à§ľ à¦¤
Ġà¦ħà¦¨ à¦¬à¦¦
Ġà¦ĩ à¦®
à¦¼ à§į
à¦Ĺ à¦ķ
à¦Ń à¦¦
Ġà¦Ĩà¦° à¦£
à§ľ à¦Ľ
Ġà¦¹à¦¤ à¦Ń
.. .
Ġ f
à¦¾ à¦ĥà¥¤
à¦² à¦ĵ
Ġà¦ķ à¦¸
à¦Ł à¦ĵà¦¯
Ġà¦¬ à§İà¦¸
à¦· à¦ĩ
à¦£ à¦Ĺ
Ġà¦¶ à¦«
Ġà¦¬à¦² à¦°
à¦°à¦£ à¦¯
Ġà¦ıà¦ĩ à¦°à¦ķà¦®
Ġà¦ľà¦¨ à¦®
Ġà¦ķ à§ľ
Ġà¦¸ à¦¸
Ġà¦¸à¦® à¦¬
Ġà¦ªà¦¥ à¦ļ
Ġà¦¥à¦® à¦¥à¦®
Ġ o
à¦¶ à¦¹
à¦· à¦Ĺ
Ġà¦ĵ à§Ł
à¦¼à¦¿ -
à§ ·
Ġà¦ī à§İà¦ķ
à¦« à¦¸
Ġà¦ħ à¦·
Ġà¦Ĺ à¦¤à¦ķ
Ġà¦ħà¦¨ à¦Ļ
i l
Ġ *
à¦¦ à¦ĩ
à¦ª à¦ĩ
à¦Ĺ à¦łà¦¨
à¦ħ à¦ª
à¦°à¦¸ à¦¨
Â ·
à§Ģ âĢĻ
à¦ĺ à¦ķ
à¦ª à¦ľ
à§ľ à¦¨
Ġà¦ĩ à¦ľ
Ġà¦ķà¦² à¦Ļ
Ġà§§à§¯à§ Ń
à§ĭ âĢ¦
à¦ļ à¦Ľ
Ġà¦ļ à¦°à¦£
Ġà¦Ľ à¦¦
à¦ķà¦¸ à¦ĩ
à¦£ à¦¬à¦¨
Ġà¦ī à¦§
à¦¿à¦Ĥ ,
à¦¯à¦¬ à¦¦
à¦® à¦Ń
à¦¦ à¦Ľ
Ġà¦° à¦ľ
Ġà¦ıà¦ķ à¦¥
à¦ħ à¦ľ
Ġà¦Ĩ à¦ł
Ġà¦ıà¦ķ à¦¸à¦®à¦¯
à¦°à¦¤ à¦®
à¦°à¦¬ à¦£
Ġà¦ľà¦¨ à¦¤
à¦°à¦¥ à¦°
Ġà¦ħà¦§ à¦°
à§Ģ âĢĵ
Ġà¦¶ à¦¨
à¦° à¦ŀ
Ġà¦Ĩà¦ķ à¦¸
à¦ķ à¦«
à¦¯ à¦Ļ
à¦ĵ à¦¤
à¦ĵ à¦²
Ġà¦ıà¦ķ à¦Ĺ
à¦ł à¦¶
Ġà¦ħà¦¨ à¦¬à¦°à¦¤
à¦¤ à¦ĵ
Ġà¦¨ à¦®à¦¸
Ġà¦¥ à¦°à¦¥à¦°
Ġà¦ħà¦¬à¦² à¦®
Ġà¦¦ à¦¶à¦ķ
Ġà¦Ľ à¦¯
à¦ī à¦®
à¦¤à¦° à¦Ł
Ġ O
à¦¤ à¦ļ
à¦¯ à¦ŀ
Ġ n
à¦¿ âĢĿ
Ġà¦¤ à¦ª
à¦Ĺ à¦ĩ
Ġà¦¥ à¦°
à¦ª à¦ķà¦²
Ġà¦Ł à¦²
Ġà¦Ĩà¦Ľ à¦¡
Ġà¦ħà¦¬ à¦¤
à¦¹ à¦¬
Ġà¦ĺ à¦·
Ġà¦° à¦¹
à¦¤à¦° à¦ķ
Ġà¦¸à¦¬ à¦¸à¦®à¦¯
Ġà¦¡ à¦Ĺ
à¦Ń à¦¸
Ġà¦ľà¦² à¦§
à¦¬ à¦ļà¦¨
Ġà¦ĵ à¦¸à¦¬
âĢį à§į
Ġà§ §
à¦ķ à¦ľ
Ġà¦ĵ à¦Ĺ
Ġà¦® à¦¥
Ġà¦¤ à§İà¦ķ
Ġà¦Ľ à¦Ł
Ġ p
à¦ķ à¦ĵ
à¦¬ à¦ĵ
Ġà¦ī à¦Ĺ
Ġà¦° à¦ĵà¦¨
Ġà¦Ĩà¦¸ à¦®
Ġà¦Ĩà¦¶ à¦ª
o m
Ġ S
Ġà¦ª à¦¹
) à¥¤
Ġà¦¦ à§Ł
Ġà¦ħà¦¬ à¦ļ
Ġà¦®à¦¹ à¦°
Ġà¦¨ à¦ĸ
à¦ľ à¦§
à¦Ĺ à§ľ
à¦¡ à¦°
a s
i c
à¦¸ à¦Ĺ
Ġà¦¨ à¦Ł
Ġà§ ª
à¦ĵ à¦¦
âĢĶ âĢĻ
Ġà¦¸à¦¦ à¦¸
Ġo f
à¦£ à¦°
à¦ł à¦¤
Ġà¦² à¦¹à¦°
Ġà¦ĸ à¦¨
Ġà¦ĺ à§ľ
Ġà¦ł à¦ķ
à¦ħ à¦ķ
Ġà¦ľà¦² à¦ľ
à¦·à¦° à¦Ĺ
Ġà¦ª à¦°à¦¤
à§Ģ ;
Ġà¦² à¦¯
ĠâĢ ¦
Ġà¦ĩ à¦¹
à¦ħ à¦Ĺ
à¦¤ à¦¶
à¦® à¦ŀ
Ġà¦ı à¦°à¦ĩ
à¦Ĺ à¦ª
Ġà¦² à¦£
à¦°à¦® à¦¹
à¦¡ à¦¨
Ġà¦ħà¦¬ à¦¸à¦°
à¦§à¦¨ à¦ķ
Ġà¦Ī à¦¦
Ġ I
Ġà¦ħ à¦£
Ġà¦ĸ à¦¡
ĠĠĊ ĠĠ
Ġà¦ıà¦®à¦¨ à¦Ń
à¦²à¦Ľ à¦²
Ġà¦Ĩà¦« à¦¸
à¦¬ à§İ
Ġà¦¦ à¦®à¦¨
Ġà¦« à¦£
Ġà¦ĩà¦¤ à¦¸
Ġà¦ı à¦®
Ġà¦Ľ à¦¤
Ġà¦§ à¦°à¦£
à¦¿, âĢĿ
Ġà¦ªà¦¥ à¦ª
Ġà¦Ĩà¦¹ à¦®
l e
à¦® à¦²à¦¤
Ġà¦¨ à¦ĵ
Ġà¦ľà¦¨ à¦Ĺà¦£
à¦ķ à¦¬à¦°
Ġà¦¬à¦¨ à¦®
à¦¤à¦ĸà¦¨ à¦ĩ
à¦ĸ à¦Ĺ
à¦¡ à¦Ĺ
à§° à¦¸
à¦ķ à¦ĸ
à¦® à¦¹à¦¤
à¦§ à¦²
Ġà¦ĺà¦Ł à¦¬
à¦£ à¦ļ
Ġà¦Ĩà¦¶ à¦«
in g
à¦¥ à¦ª
Ġà¦īà§İà¦¸ à¦°
Ġà¦®à¦¸ à¦ľ
Ġ à¤
à¦¦à¦° à¦ľ
Ġà¦¯à¦ĸà¦¨ à¦ĩ
Ġ d
à¦° à¦¸à¦¬
à¦ĩ à¦ĸ
à¦ĸ à¦®
Ġà¦ķ à¦¦à¦®
Ġà¦Ńà¦° à¦ª
Ġ h
à¦¨ à¦Ĺà¦°
Ġà¦¤ à¦°à¦²
Ġà¦ı à¦ª
Ġà¦Ľ à¦²à¦Ľà¦²
à¦Ĩ à¦ĩ
à¦Ĩ à¦¨à¦¨
à¦ħ à¦ªà¦°
Ġà§ «
Ġà¦Ī à¦°
à¦¸ à¦¡
Ġà¦° à¦ľà¦¨
à¦¼à¦¿ à¦Ĥ
à¦°à¦£ à¦¤
Ġà¦¬à§İà¦¸ à¦°
à§ĭ !âĢĿ
Ġà¦¸ à¦¯à¦¤
à¥ ¥
Ġà¦¬à¦ĩ à¦¤
à¦¸à¦® à¦¸
Ġà¦ħà¦² à¦¸
à¦ħà¦¤ à¦ıà¦¬
Ġà¦® à¦®
Ġà¦¦ à¦ª
Ġà¦ĵ à¦ľà¦¨
à¦Ŀ à¦¨
Ġà¦ĸà¦¬à¦° à¦Ł
Ġ A
à¦Ļ à¦¨
à¦¬à¦° à¦²
à¦ķà¦² à¦®
Ġà¦ķà¦¤ à¦Ĺ
à¦Ń à¦°à¦¤
à¦¬à¦¨ à¦Ł
à¦ı à¦ķà¦¬
Ġà¦ľà¦² à¦ª
à¦Ł à¦ĩ
à¦ª à¦ª
à¦ª à§Ł
Ġà¦¦ à¦ĩ
Ġà¦Ĺ à¦Ĺà¦¨
à¦ħ à¦§
à¦¤ à¦²à¦¤
Ġà¦ı à¦ĵ
à¦ľ à¦Ń
i on
Ġ P
à¦¦ à¦ĵ
Ġà¦¯ à¦¶
à¦¡ à¦ķ
à¦£ à¦ª
Ġà¦² à¦Ļ
à¦ī à¦ªà¦¸
Ġà¦¸à¦¬ à¦Ł
Ġà¦Ĩà¦¨ à¦Ľ
Ġà§§à§ ¦
Ġà§§à§¯à§Ń à§§
v e
à¦° à¦ļà¦²
Ġà¦ª à¦ļ
à¦ĸ à¦ĸ
à¦ł à¦°
à§ľ à¦²
à¦¾âĢĻ à¥¤
Ġà¦ĵ à¦¸
ĠĠĊ Ġ
à¦¹à¦°à¦£ à¦¸
Ġà¦· à¦¡
Ġà¦Ĺ à¦¯
Ġà¦ļà¦² à¦®
à¦°à¦ªà¦° à¦ĵ
Ġà¦¶à¦° à§İ
Ġà¦¸à¦« à¦²à¦¤
Ġà¦ķ à¦²à¦¤
à¦§ à¦Ł
à¦°à¦£ à¦¨
Ġà¦Ĩà¦¬ à¦°à¦£
Ġ and
à¦ľ à¦ĵ
à¦ļ à¦ľà¦¨
Ġà¦Ľ à¦ķ
à§ľ à¦¬
à¦Ī à¦¶
Ġà¦¹à¦¤à¦Ń à¦®
à¦¼ :
à¦ª à¦Ŀ
à¦Ľ à¦¡
à¦ľ à¦ªà¦¥
à¦ĸ à¦¬à¦°
Ġà¦ıà¦ķ à¦ľ
Ġà¦ıà¦ķ à¦°à¦ķà¦®
Ġà¦² à¦¹à¦®
Ġà¦ªà¦° à¦¨
Ġà¦ªà¦° à¦ĵ
à¦°à¦¬ à¦¦
à¦¬ à¦ªà¦¨
Ġà¦° à¦£
Ġà¦ªà¦Ł à¦Ń
Ġà¦¦ à¦¹à¦¨
à§Ł à¦£
à¦¹ à¦¦
Ġà¦ĩ à¦ī
à¦¾âĢĶ âĢľ
Ġà§§à§ ®
à¦¼ ?âĢĻ
à¦ļ à¦¶
à¦Ŀ à¦¡
Ġà¦¬à¦¨ à¦Ń
Ġà¦¦ à¦«
à¦Ĺ à¦®à¦¨
Ġà¦ļ à¦£
à¦Ĥ ,
à¦®à¦¨ à¦Ł
à¦ķà¦Ł à¦ķ
Ġà¦¤ à¦¦à¦¨
à¦¡ à¦Ł
à§ĩ âĢĿ
à¦¯ à¦°à¦¸
à¦§ à¦¦
à¦¡ à¦ª
Ġà¦ľ à¦²à¦ķ
Ġà¦° à¦¨
à¦Ń à¦Ł
à¦ī à§İà¦¸à¦¬
à¦ľà¦¨ à¦ĩ
Ġà¦Ĩà¦² à¦Ĺ
Ġà¦§à¦° à¦Ľ
Ġà¦¤à¦¤ à¦Ł
Ġ B
Ġ [
à¦¶ à¦Ŀ
à¦¥ à¦ķà¦¤
à¦Ĩ à¦¸à¦²
Ġà¦īà¦ª à¦®
Ġà¦ħà¦ª à¦¬
à§ĭ :
à§Ł à¦¬à¦¦
Ġà¦§ à¦¡
Ġà¦ħà¦® à¦°à¦¤
Ġà¦ķà¦ĸà¦¨ à¦ĩ
Ġà¦ĩà¦¨ à¦¸
à¦¾âĢĻ ,
Ġ in
à¦¾ à§ĩ
à¦¨ à¦ĸ
à¦ī à¦ļ
à¦ĺ à¦£
Ġà¦ıà¦ĸà¦¨ à¦ķ
âĢ¦ à¥¤
Ġà¦Ŀà¦° à¦Ŀà¦°
Ġà§§à§¯à§ «
à¦¹ à¦Ł
Ġà¦ıà¦ķ à¦¦à¦²
Ġà¦² à¦Ĺ
à¦¬à¦² à¦²
Ġà¦®à¦¹ à§İ
Ġà¦¶ à¦ĸ
Ġà¦Ŀ à¦°à¦Ľ
Ġà¦®à¦¹ à¦²
à§§à§ ¨
Ġà¦ķ à¦¤à¦¬
Ġà¦ª à¦¤à¦¨
à§Ģ ?âĢĻ
à¦ı à¦¦
Ġà¦ľà¦¨ à¦ª
Ġà§§à§ ¨
à§§à§ ¯à§
à¦Ĳ à¦¤
Â· Â·
à¦¸ à¦¯
Ġà¦Ń à¦¸
Ġà¦ĵ à¦¹
Ġà¦ıà¦ĩ à¦ĸ
à¦¿à¦Ĥ à¥¤
Ġà¦¸à¦° à¦²à¦¤
Ġà¦¬à¦ĩ à¦Ĺ
Ġà¦ªà¦¦ à¦§
à¦¾à¦ĥ ,
r o
Ġà¦¨ à¦²
Ġà¦® à¦ľà¦¬
Ġà¦¤ à¦«
à¦¶ à¦ĵ
Ġà¦ķà¦° à¦£
Ġ C
Ġ à¥¤
à¦¡ à¦¸
Ġà¦Ľ à¦²à¦¨
Ġà¦¬à¦ĩ à¦Ľ
à¦° à¦ĸà¦°
à¦¿ âĢĻà¥¤
Ġà¦¨ à¦¥
Ġà¦® à¦Ľ
Ġà¦® à¦Ī
à§Ł à¦¦
à¦· à¦ĵ
à¦°à¦¬ à¦£à¦¤
à¦Ĩ à¦¦
Ġà¦ĺà¦Ł à¦¤
Ġà¦ħà¦² à¦Ļ
Ġà¦Ńà§Ł à¦Ļ
à§ģ âĢĵ
à¦¬ à§°
à¦¼à§ĩ ?
Ġà¦ªà¦° à¦²
à¦Ĩ à¦¯
à¦¨ à§Ł
à¦¤ à¦§
à¦¡ à¦Ń
Ġà¦Ń à¦Ł
e l
à¦Ľ à¦ķ
à¦¶ à¦Ĺà¦¤
à¦ĺ à¦Ł
en t
à¦ļ à§Łà¦¤
Ġà¦ĵ à¦Ń
Ġà¦ľà¦¨ à¦Ĺ
o l
Â Ń
à¦¯ à¦ľà¦¨
à¦£ à¦ĵ
à§ģ ;
à¦§ à¦¸
à¦ł à¦ķà¦ķ
Ġà¦Ĩà¦Ĺ à¦²
Ġ M
à¦¸ à¦ªà¦¤
à¦¹ à§İ
Ġà¦° à¦Ł
ĠĠ ĠĠ
à¦ħ à¦®à¦²
Ġà¦¸à¦¹ à¦ķà¦°
u t
Ġ l
à¦Ł à¦ĵà§Ł
Ġà¦¨ à¦ķà¦²
Ġà¦¹ à¦¦
à¦¡ à¦¬à¦°
Ġà¦¬à¦° à¦ŀ
à¦°à¦¶ à¦¸
Ġà§ ¬
Ġà§ Ń
à¦¯ à¦²
à¦® à¦ļà¦¨
Ġà¦¸ à¦¡
à¦ľ à¦¡
à¦£ à¦Ń
Ġà¦¥ à¦°à¦¹à¦°
Ġà¦ªà¦° à¦ĩ
à¦Ĩ à¦Ļ
à¦¦à¦° à¦¬à¦¨
à¦®à¦£ à¦¦
à¦ľà¦¸ à¦Ń
à§ĩ âĢĻ,
Ġà¦¬ à¦Łà¦¬
à¦· à¦Ń
Ġà¦¥ à¦²
Ġà¦¬à¦¹ à¦®
à§ĩ! âĢĻ
à¦ªà¦Ł à¦ª
à¦¿ âĢĻ,
à¦¤ à¦¥
à¦ķ à¦¯
à¦Ł à¦Ń
à¦Ĺ à¦¯
à¦Ĺ à¦ł
à¦ªà¦° à¦®
à¦« à¦¨
à§įâĢĮ à¥¤
à¦ıà¦ķ à¦ĩ
Ġà¦ī à¦ĩà¦²
à¦°à¦® à¦°
à§§à§ ¦
Ġ e
à¦® à¦ĸ
Ġà¦ı à¦Ľ
Ġà¦² à¦¬à¦£
Ġà¦ħà¦¬ à§Łà¦¬
Ġà¦ıà¦ķà¦ľà¦¨ à¦ķ
Ġ T
à¦² à¦Ļ
à¦£ à¦¸
Ġà¦¶ à¦®
à¦ĵ à§ľ
Ġà¦ľà¦¨ à¦ªà¦¦
à¦ħ à¦¨à¦¨
à¦¤ à¦Ļ
Ġà¦Ĩ à¦Łà¦Ł
à¦£ à¦Ł
à§Ŀ à¦¤
Ġà¦ķ à¦¨à¦¸
à¦ª à¦¹
à¦¶ à¦¶
à¦§ à¦¶
à¦£ à¦ªà¦£
à¦°à¦ķ à¦°
à¦ĺ à¦¡
à¦¸à¦ķ à¦·
Ġà¦¤à¦¤ à¦¦
à¦ĩ à¦¸à¦¬
à¦ī à¦ł
Ġà¦ªà¦¥ à¦Ł
à¦¨ à¦¶à¦¨
à¦¨ à¦®à§Ł
Ġà¦® à¦°à¦¤
Ġà¦¹ à¦¤à¦¬
à¦¹ à¦¨à¦¬
à¦°à¦¤ à¦²
à¦ħ à¦¥
Ġà¦¸à¦¹ à¦¦
Ġà¦¬à¦ī à¦¯
Ġà¦¬à¦ī à¦¦
Ġà¦īà§İà¦ķ à¦£
u s
à¦¬ à¦¹à¦¨
à¦® à¦ķà¦°
à¦¼ âĢ¦
Ġà¦¬ à¦®
Ġà¦¸ à¦¦à¦°
Ġà¦Ĩ à¦·
à¦¶ à¦ķà¦°
à¦°à¦ķ à¦Ł
à§ĩâĢĶ âĢĺ
Ġà¦¹ à¦¨à¦¨
Ġà¦ľ à¦Ĺà¦¨
Ġà¦ıà¦ĩ à¦¬
à¦°à¦¬ à¦§
à¦¬à¦° à¦ķ
Ġà¦Ŀ à¦Ł
al l
u r
à¦® à¦«
à¦ª à¦Ļ
Ġà¦ıà¦ķ à¦¯
Ġà¦ľà¦¨ à¦ķ
Ġà¦ķà¦¤ à¦ķà¦Ĺ
Ġà¦®à¦Ī à¦¨
o t
à¦¯ à¦®à¦¨à¦¸
à¦¸ à¦ļ
à¦¦ à¦®à¦¯
Ġà¦ķà¦² à¦ķà¦²
Ġà¦¸à¦¹ à¦ķ
a m
e t
à§ĩ )
à¦¨ à¦®à¦¯
à¦¯ à¦¬à¦°
à¦Ĺ à¦Ļ
à¦§ à¦Ń
Ġà¦¹à¦² à¦¦
Ġà¦ħà¦ªà¦° à¦ķ
Ġà§§à§¯à§ ª
Ġ R
à¦ķ à¦®à¦¤
à¦¸ à¦ĸ
Ġà¦ı à¦¯
à¦ı à¦²
à§ĭ, âĢĿ
à¦Ĺà¦¤ à¦Ń
Ġà¦Ĺà¦£ à¦¤à¦¨
Ġà§§à§¯à§« à§¨
à¦¤ à¦ĸ
Ġà¦¬ à¦£
Ġà¦® à¦°à¦¬
à¦ľ à¦¹
à¦¶ à¦Ļ
à¦· à¦ķà¦°
Ġà¦¸à¦¬ à¦ĸ
Ġà¦®à¦¤ à¦ĩ
à¦¬à¦² à¦ĩ
Ġà¦ķà¦¤ à¦ĸ
Ġà¦ĺà¦Ł à¦Ľ
à§§à§ §
Ġt h
à¦¤ à¦Ńà¦°
à¦¸ à¦ľ
Ġà¦¨ à¦¸
Ġà¦¦ à¦°à¦¬
à¦¡ à¦®
Ġà¦ĺ à¦°à¦¬
à¦¦à¦¨ à¦ķ
Ġà¦ķà¦² à¦¸
æ Ń
Ġ D
à¦ª à¦¶à¦¨
Ġà¦¤ à¦¸
Ġà¦¹ à¦°à¦£
Ġà¦Ł à¦²à¦®à¦²
à¦°à¦¹ à¦¸
Ġà§§à§¯à§ ¯à§
æŃ ĵ
à¦° à¦ªà¦¤
à¦¯ à¦ļ
à¦® à¦¸à¦®
Ġà¦¬ à¦¦à¦®
Ġà¦ª à§Łà¦¸
à¦¦ à¦ªà¦¤
Ġà¦ĵ à¦²
à¦°à¦ķ à¦¦
Ġà¦ľà¦¨ à¦ľ
à¦·à¦£ à¦ķ
à¦·à¦ķ à¦¦
æŃĵ æŃĵ
Ġà¦Ĩ à¦ŀ
Ġà¦ĸ à¦Ł
à¦ķà¦² à¦ķ
Ġà¦¸à¦¹ à¦ª
à¦² à¦¹
à¦¬ à¦¸à¦¨
Ġà¦ķ à¦¨à¦ķ
à¦¹ à¦£
à¦¥ à¦¹
à¦¬à¦¦ à¦²
à¦Ĺà¦ľ à¦ªà¦¤
à§ĩâĢ¦ âĢĿ
c t
à¦Ł à¦ĵ
à¦Ĺ à¦ĵ
Ġà¦®à¦¤ à¦²à¦¬
Ġà¦ĩ à¦īà¦°
à¦¬à¦² à¦¬
à¦¾! âĢĻ
Ġà§§à§ ©
à¦ĭ à¦·
à¦² à¦¡
à¦¬ à¦¬à¦°
Ġà¦ķ à¦ªà¦Ł
à¦ĩ à¦Ĺ
Ġà¦° à¦ĺ
à¦¬à¦² à¦®
Ġà¦īà¦ª à¦²à¦ķ
Ġà¦¹à¦° à¦«
Ġà¦¶à¦°à§İ à¦ļà¦¨
à¦¨ à¦·
Ġà¦ı à¦«
à¦¶ à¦ªà¦¥
à¦Ĺ à¦¹
Ġà¦¶ à¦ļ
Ġà¦ī à¦Ńà§Ł
Ġà¦ªà¦° à¦ķ
à¦¬à¦¨ à¦¬
à¦¬à¦¨ à¦§
Ġà¦ľà¦² à¦¦
Ġà¦®à¦¹ à¦¤
à¦²à¦¨ à¦®
âĢ¦ âĢĻ
à¦¾âĢ¦ âĢĿ
éŁ¿éŁ¿éŁ¿éŁ¿ éŁ¿éŁ¿éŁ¿éŁ¿
à§ĩ âĢĻà¥¤
Ġà¦Ĩ à¦¦à¦²
Ġà¦¨ à¦Ń
à¦ĩ à¦ĩ
Ġà¦ı à¦ľ
à¦· à¦ľ
Ġà¦« à¦¡
à¦ī à¦¶à¦¨
à¦²à¦¨ à¦ķ
Ġà§ ¦
Ġà¦® à¦¶à¦²
Ġà¦¦ à¦®à¦ķ
à¦¶ à¦Ľ
Ġà¦ħ à¦¡
à¦· à¦Ļ
Ġà¦Ĩà¦° à¦ķ
Ġà¦² à¦ĺ
Ġà¦¯à¦¤ à¦ĸ
Ġà¦Ŀà¦¨ à¦Ŀà¦¨
Ġà¦°à¦¤à¦¨ à¦¬
à¦² à¦¶
à¦ĸ à¦¡
Ġà¦ħ à¦Ŀ
à¦§ à¦¹
à¦£ à¦¯
à¦£ à¦ĩ
à¦ĵ à¦Ł
Ġà¦ĸ à§ľ
à¦¦à¦¨ à¦¶
à§ĩ à¦¾à¦ģ
à¦¯ à¦®à¦¨
à¦® à¦®à¦¤
Ġà¦¸ à¦Ł
à¦ª à¦ŀ
Ġà¦¤ à¦ªà¦¨
à¦§ à¦ķà¦¤
Ġà¦ĸ à¦²
Ġà¦Ł à¦ķ
Ġà¦Ĩà¦Ĺ à¦¨
Ġà¦ľà¦² à¦¸
Ġà§¨ à§¦
i g
à§ĩ .
à¦¨ à¦Ńà¦°
à¦® à¦¹à¦°
à¦ĸ à¦®à¦¯
Ġà¦¯ à¦ķ
à¦£ à¦Ĺà¦¤
Ġà¦Ń à¦°à¦¦
à¦Ļ à¦¬
Ġà¦² à§Ł
à¦Ĩ à¦ĩà¦¨
Ġà¦Ŀ à¦Łà¦ķ
à¦®à¦¬ à¦Ļ
Ġà¦ľà§Ł à¦Ĺ
u n
Ġà¦¤ à¦Ł
Ġà¦ı à§ľ
à¦¼à§ĩ âĢĵ
à¦§ à¦ĩ
à¦« à¦¡
Ġà¦ļà¦² à¦¨
à¦¬à¦¤ à¦ĩ
à¦Ĺà¦ľ à¦Ł
Ġà§§à§ Ń
Ġà¦¸à¦« à¦°
Ġb e
Ġà¦¹à¦ķ à¦ļà¦ķ
i m
Ġà¦¸ à¦¯
à¦¥ à¦¸
Ġà¦¸à¦® à¦ķ
Ġà¦®à¦¨ à¦¨à¦¶
à¦ī à¦Ĺ
Ġà¦Ŀ à¦Ļ
à¦ĥ ,
Ġà¦ıà¦®à¦¨ à¦Ł
Ġà¦ıà¦ķà¦ĩ à¦Ń
à¦¿! âĢĻ
à¦¨ à¦®à¦¨
à¦¨ à¦¸à¦®
Ġà¦Ĩ à¦ĩà¦¡
à¦Ł à¦¬à¦²
Ġà¦ıà¦ķ à¦ļ
à¦°à¦® à§Ł
à¦¨à¦ĵ à¦°à¦ķà¦®
Ġà¦¸à¦¹ à¦ļà¦°
Ġà¦¸à¦ķà¦² à¦ķ
Ġà¦īà¦ªà¦° à¦¨
à¦®à¦Ľ à¦®
a y
à¦¤ à¦¯
à¦¤ à¦¡
à¦² à¦Ĺà¦°
Ġà¦¸ à¦²
Ġà¦¦ à§ľ
à§Ł à¦¤à¦®
Ġà¦° à¦ĵ
Ġà¦Ķ à¦°à¦¸
à¦ħà¦¥ à¦ļ
a d
à¦¼ ?âĢĿ
Ġà¦¦ à¦°à¦¦
à¦§ à¦Ľ
à¦¾à¦ģ -
Ġà¦« à¦ķ
Ġà¦¸à¦¬ à¦ľ
Ġà¦¤à¦ĸà¦¨ à¦ķ
Ġà¦īà¦ª à¦ļ
à¦°à¦ªà¦° à¦ĩ
à§İà¦¸ à¦ķ
à§ĭâĢĶ âĢľ
Ġà¦Ĺà¦£ à¦®
Ġt o
à§ģ à¥¤âĢĿ
à¦¦ à¦¬à¦¦
à¦ª à¦ĵ
à¦Ĺ à¦¬à¦¤
à¦· à¦ªà¦°
Ġà¦ľ à¦®à¦¤
à¦Ĥ -
Ġà¦ĸ à¦¦
à¦ī à§ľ
á ĥ
à¦ĸ à¦¯
à¦ļ à¦²à¦¤
à¦ĵ à¦ł
Ġà¦ĵ à¦°à¦ķà¦®
Ġà¦« à¦ľà¦²
à¦ī à¦ª
Ġà¦ħà¦ª à¦²à¦ķ
à¦¿à¦ĥ à¥¤
Ġà§ ®
Ġà¦ĸà¦¸ à¦ĸà¦¸
Ġà¦ħà¦¹ à¦Ļ
c h
à¦¨ à¦¡
Ġà¦Ĩà¦° à¦¶
à¦ªà¦° à¦¦
à¦Ŀ à¦ªà¦¥
à¦ľà¦¨ à¦¬
à¦²à¦ķ à¦£
à¦¨à¦ĵ à¦Ń
à¦°à¦¶ à¦ķ
Ġà¦¦à¦® à¦¬à¦¨
, âĢĻ
i d
ç ľ
à¦¼ à§ĭà¥¤
à§ĭ âĢ¦âĢĿ
âĢ ķ
à¦Ĺ à¦ļ
à§Ł à¦²
à¦£ à¦¹
Ġà¦ī à¦®
à¦Ŀ à§ľ
à¦Ŀ à¦°à¦¨
Ġà¦¸à¦° à¦ŀ
Ġà¦īà¦ª à¦¤
à¦ıà¦ĩ à¦¸à¦¬
à¤ ¾
Ġà¦Łà¦² à¦Łà¦²
à¦ĩ à¦ĵ
Ġà¦ľ à¦ª
âĢĶ âĢĶ
à¦ķà¦° à¦¶
à¦¤à¦¬ à¦ķ
à§° à¦¹
Ġ N
à¦¨ à¦¬à¦°
à§ģ âĢ¦
Ġà¦ª à¦¦à¦¯
à¦¼à§ĩ !
à¦§ à¦ĵ
Ġà¦ĸ à¦ļ
Ġà¦Ł à¦ķà¦Łà¦ķ
à¦ĺ à§ľ
à¦Ĺà¦² à¦Ł
Ġ g
à¦° à¦Ŀ
à§ģ à¥¤âĢĻ
à¥ į
à¦¸ à§İ
à¦ª à¦²à¦ķ
Ġà¦¹ à¦ĩà¦²
Ġà¦ħ à§Łà¦¨
Ġà¦¨ à¦ľ
à¦ĩ à¦°à¦ķà¦®
Ġà¦¤ à¦®
Ġà¦« à¦¨
à¦°à¦ľ à¦¬
à¦¬ à¦Ļ
Ġà¦¸ à§ľà¦ķ
à¦Ľ à¦¤à¦²
à¦¶ à¦Ń
à¦¶ à¦«
à¦¶ à¦ĵà¦¯
à¦· à¦§
à¦Ń à§İà¦¸
Ġà¦Ľ à¦®à¦Ľà¦®
Ġà¦¸à¦® à¦¤à¦²
à¦ı à¦ķà¦¤
Ġà¦ķà¦°à¦¤ à¦²
Ġà¦ħà¦¬ à¦¸à¦¨
à¦·à¦£ à¦¸
Ġà¦īà¦¦ à¦Ĺ
Ġà¦ľà¦® à¦ľà¦®
Ġà§§à§ «
Ġà¦¨à¦¬ à¦¬à¦°
à¦¤ à¦¬à¦°
Ġà¦ķ à¦¹
à¥¤ âĢ¦
Ġà¦ļ à¦ĵà¦¡
Ġà¦Ń à¦£
Ġà¦ĵ à¦¨
Ġà¦§ à¦ķ
Ġà¦Ĩà¦² à¦¸
Ġà¦Ł à¦®
Ġà¦ħà¦¬ à¦ľ
à¦¨à¦¤ à¦®
Ġà¦ķà¦¨ à¦«
à¦° à¦ĺ
à¦¼ à§Ģ,
Ġà¦ķ à¦¬à¦²
Ġà¦¤ à¦¡
à¦¶ à¦¬à¦¨
à¦¥ à¦Ĺ
Ġà¦¬à¦² à¦ļ
Ġà¦ªà¦° à¦¬
Ġà¦¸à¦® à¦·
à¦ľà¦¨ à¦¨
Ġà¦Ĩà¦¨ à¦®à¦¨
Ġà¦īà¦ª à¦¬
Ġà¦Ĩà¦¹ à¦¬
i r
Ġ ?
à¦ķ à¦°à¦¬
à¦¯ à¦ªà¦Ł
à¦Ĺ à¦¬à¦¨
Ġà¦° à¦¹à¦®
à¦ĵ à¦ķ
à¦ł à¦Ł
à¦Ĥ à¥¤
Ġà¦ªà¦° à¦ªà¦°
à¦°à¦£ à§Ł
Ġà¦ıà¦ĩ à¦®
Ġà¦¸à¦¬ à¦¸à¦®à§Ł
âĢĿ âĢĵ
à¦°à¦² à¦¯
à§įâĢĮ -
à§° à¦¤
o w
à¦¡ à¦¶
Ġà¦ĵ à¦¤
Ġà¦« à¦Łà¦ķ
Ġà¦¸à¦¬ à¦Ĺ
à¦ħ à¦«
à¦¿âĢĶ âĢľ
Ġà¦Ī à¦Ĺà¦²
Ġà¦Ĩà¦ª à¦¡
Ġà§¨ à§§
Ġà¦Ĭ à¦·
Ġà¦°à¦ĵ à¦¶
à¦¾ )
à¦¯ à¦§
Ġà¦ķ à¦Ń
Ġà¦¤ à¦°à¦ķ
à§Ł à¦ĩ
à¦Ļ à¦°
à¦¬à¦¨ à¦®
à¦ªà¦° à¦¬à¦°
à¦Ĩ à¦¡
à¦¤à¦¬ à¦¡
Ġà¦¤à¦° à¦«
à¦¿ )
à¦¼ à§ģ,
Ġà¦¸ à¦ĩ
à¦¸ à¦ĺ
à¦Ł à¦¹
à¦ª à¦ķà¦°
à¦¶ à¦ľ
à¦ļ à¦ª
Ġà¦Ĺ à¦ļ
Ġà¦¶ à¦¶
à¦¬à¦° à¦Ł
Ġà¦ĩ à¦°
Ġà¦Ĺà¦² à¦¦
à¦ħ à¦°à¦£
à¦ħ à¦ľà¦¸
à¦ľà¦Ĺ à§İ
Ġ H
à¦¤ à¦ļà¦°
Ġà¦¸ à¦ļà¦²
à¦Ľ à¦¦
à¦¹ à¦ļà¦°
Ġà¦ħà¦¨ à¦°
Ġà¦§ à¦¬
à¦¬à¦° à¦ĩ
Ġà¦Ĩà¦Ľ à§ľ
à¦ĩà¦² à¦Ł
Ġà¦¸à¦¹ à¦¨à¦¶
Ġà¦¬à¦ī à¦®
à¦¿âĢ¦ âĢĿ
Ġà¦ħà¦¬à¦¨ à¦¤
ÂŃ ÂŃ
Ġà¦ķ à¦¦à¦°
Ġà¦¶ à¦°à¦£
à¦¬à¦° à¦¹
Ġà§ ¯
à¦² à¦ªà¦¤
Ġà¦¸ à¦ľà¦²
à¦¦ à¦®à¦¸
Ġà¦¯ à¦®à¦ľ
à¦ĵ à¦Ĺ
à¦°à¦£ à¦Ł
à¦ıà¦ķ à¦¸à¦Ļ
m a
Ġ L
à§ Ĺ
à¦® à¦§à¦¨
Ġà¦¬ à¦īà¦ķ
Ġà¦ħ à¦ĸà¦£
Ġà¦° à¦ľà¦¤
Ġà¦ī à¦¬
à§Ĥ -
Ġà¦² à¦ŀ
Ġà¦« à¦²à¦¤
à§Ī -
Ġà¦Ĩà¦ķ à¦¬à¦°
à¦¨à¦¬ à¦¦
Ġà¦īà§İ à¦ķà¦°
Ġà¦¦à¦¶ à¦¦
Ġà¦Ķ à¦ªà¦¨
âĢķ âĢķ
h a
r a
à¦¬ à¦¦à¦¨
à¦¼ à§Ģà¥¤
à¥¤ âĢĵ
à¦¸ à¦°à¦²
à¦ĸ à¦ķà¦¦
à¦· à¦¹
à¦¹ à¦Ń
Ġà¦Ĩà¦® à¦Ĺ
Ġà¦« à¦°à¦¸
à¦°à¦¬ à¦ķ
Ġà¦ĩ à§Ł
à¦·à¦£ à¦ĩ
à¦ħ à¦¹
à¦Ĩà¦ľ à¦ĵ
à¦¬à¦® à¦ŀ
à§¯à§ ¬
à¦¥à¦ª à¦°à¦¤
à¦¤ à¦Ĺà¦¤
à§ģ :
à¦¶ à¦§
Ġà¦¶ à¦²
Ġà¦ļ à¦ķà¦²
Ġà¦ļ à¦Łà¦ķ
Ġà¦ī à¦ĩ
Ġà¦² à¦¨
Ġà¦« à¦¤
à¦°à¦£ à¦Ń
Ġà¦ħà¦ª à¦¦
à¦·à§Ł à¦ķ
Ġ re
à¦² à¦®à¦¨
à¦² à¦®à¦£
à¦¬ à¦ŀ
Ġà¦ª à¦¬à¦¨
à¦¦ à¦Ń
à¦ª à¦¬à¦¯
Ġà¦¹ à¦ĩà¦¬
à¦ľ à¦¶
Ġà¦ıà¦¤ à¦Ĺ
à¦ªà¦¦ à¦ķ
à¦ıà¦ķ à¦¸
Ġà¦«à¦² à¦¶
à¦ļà§Ł à¦ĩ
ĠĠĊĠĠ Ġ
o s
à¦¹ à¦ĩ
à¦ł à¦ª
Ġà¦ıà¦ĩ à¦ľà¦¨
à¦Ĩ à¦°à¦ĵ
Ġà¦§à¦¬ à¦§à¦¬
Ġ ;
à§ĩ à¦Ĥ
Ġà¦¬ à¦°à¦ķ
à¦¸ à¦ŀ
Ġà¦® à¦ķ
Ġà¦¦ à¦¹
Ġà¦Ľ à§Ł
Ġà¦ĸ à¦°à¦Ĺ
à¦ľà¦¨ à¦¦
Ġà¦ħà¦¶ à¦°
Ġà¦¨à§ľ à¦¬à§ľ
Ġf or
1 9
à¦¤ à¦°à¦¬
à¦¯ à¦ªà¦°
à¦¬ à¦°à¦¬
Ġà¦¬ à¦ķà¦¬
à¦ª à¦¤à¦¨
à§Ģ ?âĢĿ
Ġà¦¹ à¦ĩà¦¤
Ġà¦¯ à¦¤à¦¬
Ġà¦ľ à¦¸
Ġà¦ľ à¦®à¦²
à¦°à¦£ à¦ĵ
à¦°à¦¬ à¦®à¦¯
Ġà¦Ĩà¦² à¦ªà¦¨
Ġà¦Ł à¦ªà¦ķ
à¦ķà¦² à¦¨
à¦¯à¦¬ à¦§
Ġà¦Ĩà¦¤ à¦°à¦¬
Ġà¦īà§İ à¦ªà¦¤
à§¯à§ «
à§į ,
Ġà¦¬ à¦Ľ
à¦ļ à¦ĩ
Ġà¦ıà¦ķ à¦Ŀ
Ġà¦ļà¦² à¦ļ
Ġà¦īà¦¤ à¦Ļ
Ġà¦ķà¦® à¦ª
à¦¬à¦ľ à¦Ĺà¦¤
Ġà¦®à§Ł à¦²
... âĢĿ
o d
à¦¯ à¦ķà¦²
à¦¯ à¦Łà¦ķ
à¦¼ !âĢĿ
Ġà¦¬ à¦ļà¦¨
Ġà¦¸ à¦ĩà¦¤
à¦¼à§ĩ ;
à¦Ń à¦°à¦¶
Ġà¦§ à¦¸
Ġà¦¸à¦® à¦Ŀ
Ġà¦ĩ à¦ķ
Ġà¦Ĩà¦¬ à¦¶
Ġà¦¨à¦¤ à¦ľ
Ġà¦īà¦ª à¦ķà¦°à¦£
Ġà¦ħà¦ķ à¦ªà¦Ł
à¦Ĺà¦¬ à¦Ĺ
m ent
à¦ķ à¦§
à¦¬ à¦¶à¦ķ
à¦¼ à§Ĥ
à¦¼ à§ĭ,
Ġà¦¸ à¦°à¦¬à¦°
à¦¶ à¦ļ
à§Ł à¦¶à¦ĩ
à¦¹ à¦Ļ
à¦ł à¦¬
à¦¼à¦¾ âĢĵ
à¦¾à¦ģ ?
à¦Ļ à¦ļ
à¦¬à¦¨ à¦ĩ
à¦ī à¦ªà¦°
Ġà¦ħà¦¬ à¦Ĺ
Ġà¦¬à¦¨ à¦¸
Ġà¦ĺà¦° à¦Ĺ
Ġà¦ĵà¦ĩ à¦Ł
Ġà¦Ĺà§ľ à¦¤
à§ĭ! âĢĻ
u l
à§ĩ à§Ĺ
à¦¯ à¦ļà¦°
à¦® à¦¹à¦²
Ġà¦¬ à¦¦à¦¨
Ġà¦¸ à¦Ĺ
Ġà¦Ĩ à¦ľà¦¨
à¦¦ à¦®à¦¨
à¦Ł à¦Ĺà¦²
Ġà¦¤ à¦°à¦¬
à¦· à¦¶
à¦· à¦ľà¦¨
à¦§ à¦ª
à¦§ à¦ķà¦°
à¦ĵ à¦ª
à¦¼à¦¾ ?
Ġà¦ªà¦° à¦ĸ
à¦Ŀ à¦ŀ
à¦ī à¦¹
à¦¤à¦¨ à¦Ń
à¦ħ à¦¦à¦®
Ġà¦ķà¦² à¦¹
à¤ °
at ion
à¦¶à¦¶ à¦¤à¦ķ
Ġà¦¬ à¦Ĺà¦²
Ġà¦¬ à¦¹à¦°
à§Ģ âĢĻ,
Ġà¦¦ à¦²à¦¬
à¦· à¦²
à¦¹ à§Łà¦¤
Ġà¦¶ à¦°à¦¤
Ġà¦ļ à¦ª
à¦ł à¦¦
à¦ªà¦° à¦ķ
Ġà¦¸à¦¬ à¦²
Ġà¦°à¦ķà¦® à¦ĩ
Ġà¦Ĺà¦£ à¦¨
à§¯à§ Ń
Ġà¦ªà¦Ł à¦ļ
Ġ is
à¦ķ à¦¸à¦Ļ
à¦® à¦ĺ
à¦ĩ à¦¨à¦¬
Ġà¦¤ à§ľ
à¦ĸ à¦®à¦£
Ġà¦ħ à¦ĸ
à§Ł à¦¶
Ġà¦Ń à¦ľ
Ġà¦ıà¦ķ à¦¸à¦®à§Ł
à¦Ĩ à¦Ľ
âĢ¦ .
à¦ıà¦ĩ à¦ļ
à¦°à¦¹à¦£ à¦¯
Ġà¦°à¦¸ à¦Ĺ
Ġà¦Ĩà¦« à¦ľ
» ¿
ï »¿
à¦¨ à¦ªà¦¥
à¦¤ à§ľ
à¦¤ à¦ķà¦°
à¦² à¦Ŀ
à¦® à¦°à¦ķ
à¦¼ à¦ĥ
Ġà¦® à¦¦à¦¨
Ġà¦® à¦«à¦¸
à¦ľ à¦ķà¦¨
Ġà¦ħ à¦¯à¦¥
à¦§ à¦°à¦¨
Ġà¦Ĺ à¦ł
Ġà¦¶ à§Łà¦¤
Ġà¦ľ à¦¹
à¦ĵ à¦¹
Ġà¦« à¦°à¦®
à¦Ĩ à¦¦à¦°
Ġà¦¢ à¦Ļ
Ġà¦īà¦¦ à§Ł
à¦°à¦¥à¦® à¦Ł
Ġà¦īà¦² à¦Ļ
Ġà§§à§ ª
Ġà§§à§ ¬
Ġà¦ĭ à¦Ĺà¦¬
Ġà¦Ķ à¦¦
ma il
à¦¤ à¦°à¦¤
à§ģ à§į
Ġà¦¤ à¦Ľà¦¨
Ġà¦¹ à¦ľà¦®
à¦¶ à¦§à¦°
à¦£ à¦§
Ġà¦ıà¦ķ à¦ĺ
Ġà¦ī à¦¥
Ġà¦² à¦Ł
Ġà¦Ĩà¦¨ à¦Ĺ
Ġà¦ıà¦®à¦¨ à¦ĵ
Ġà¦īà¦ª à¦ľ
Ġà¦ªà¦¦ à¦¬
Ġà¦¶à¦¹à¦° à¦Ł
à§Ģà¥¤ âĢĿ
à¦¨à¦¦ à¦£
Ġà¦Ĩà¦¦ à¦®
Ġà¦¶à¦¹ à¦°à¦¤à¦²
Ġà§¨ à§¨
Ġà¦¤à¦Ľà¦¨ à¦Ľ
Ġ G
à¦° à¦¦à¦¯
à¦¦ à¦°à¦®
Ġà¦ı à¦¶
Ġà¦ħ à¦°à¦¨
Ġà¦ĵ à¦²à¦Ł
Ġà¦§ à§ľ
Ġà¦Ł à¦ª
à¦Ĩ à¦Ł
à¦¤à¦¨ à¦¦
Ġà¦¸à¦®à§Ł à¦ĩ
Ġà¦Ĩà¦¹ à¦°à¦£
Ġà¦¦à¦¶ à¦®
Ġà¦īà§ľ à¦Ľ
Ġà¦¨ à¦°à¦¨
à¦Ľ à¦¯
Ġà¦ı à¦ľà¦¨
à¦ĸ à¦ĩ
Ġà¦ħ à¦ĺ
Ġà¦ķà¦° à¦ļ
à¦Ń à¦ľ
Ġà¦ī à¦Ł
Ġà¦¥ à¦¤
Ġà¦Ł à¦Ĺà¦¬à¦Ĺ
à¦ĺ à¦¸
à¦¬à¦ª à¦¤
à§ĩâĢĶ âĢĻ
Ġà¦ķà¦¤ à¦ĩ
à¦ĩà¦¨ à¦Ł
à¦ĩà¦¨ à¦Ĺ
Ġà¦ħà¦ļ à¦ŀ
à§Ģà¥¤ âĢĻ
à¦¤à¦® à¦¶
Ġà§§à§ §
Ġà¦¬à§ľ à¦ĩ
à¦łà¦ķ à¦ĸ
Ġà¦¬à¦ī à¦Ł
à§¯à§ ¦
à¦° à¦ĺà¦°
à§į -
à¦¬ à¦Ĺà¦¤
à¦¼ âĢĻ
Ġà¦® à¦¸à¦²
à¦ĸ à¦ĵ
à¦§ à¦Ĺ
à¦¥ à¦ĩ
Ġà¦ıà¦ķ à¦²à¦¬
Ġà¦Ĩà¦° à¦¤
Ġà¦§ à¦ª
Ġà¦ħà¦¸ à¦®à¦¯
à¦¨à¦ĵ à¦Ł
Ġà¦¦à¦¶ à¦ľà¦¨
à§ĩâĢ¦ à¥¤
Ġà¦ľà§Ł à¦§
à§¯à§ ª
Ġ !
Ġ y
à¦ Ĭ
à¦° à¦®à¦¨
à¦® à¦®à¦°
Ġà¦ķ à¦®à¦¤
Ġà¦¨ à¦®à¦¨
à§Ģ âĢĿ
Ġà¦Ĺ à¦£à¦¤
Ġà¦° à¦ª
à¦Ń à¦®
Ġà¦² à¦¬
à¦°à¦£ à¦ķ
à¦°à¦£ à¦®à¦¯
à¦ı à¦¨
à¦ĺ à¦¬
Ġà¦ħà¦¸ à§İ
à¦¸à¦¬ à¦¶
Ġà¦ķà¦® à¦¬
à§° à¦¬
à¦®à¦¸ à¦®à¦°
Ġà§§à§¯à§ ®
Ġà¦· à§ľ
Â·Â· Â·
à¦¦à¦°à¦® à¦¹à¦²
a g
à¦² à¦¥
à¦ķ à¦¹
à¦¯ à¦ªà¦¥
à¦® à¦Ļ
à¦ĸ à¦ķà¦°
à¦ĸ à¦¬à¦¤
à¦¹ à¦ª
Ġà¦ľ à¦ĸà¦®
à¦¼à¦¾ à¦Ĥ
à¦Ļ à¦Ľ
à¦®à¦¨ à¦¨
Ġà¦Ł à¦¹à¦²
à¦Ĩ à¦ļà¦°à¦£
Ġà¦ħà¦ª à¦Ľà¦¨
à¦ıà¦ĩ à¦Ń
Ġà¦īà§ľ à¦¤
à¦Ĩà¦§ à¦Ł
, -
l y
à¦¬ à¦ķà¦°
Ġà¦Ĩ à¦ªà¦¸
Ġà¦ħ à¦¯à¦¤
à¦Ĺ à¦²à¦ķ
à§Ł à¦Ń
Ġà¦¯ à¦¬à¦¨
à¦¹ à¦°à¦¨
à§ľ à¦®
âĢĿ ,
à§Į à¥¤
à¦ĺ à¦¤à¦®
Ġà¦ħà¦§ à¦®
Ġà¦ħà¦ķ à¦¥
Ġà¦ķà¦® à¦Ľ
à¦¨à¦Ł à¦¨
Ġà¦¶à¦¤ à¦¬à¦°
Ġà¦Ĺà§ľ à¦¬
Ġà¦®à§Ł à¦¦
il l
Ġn e
Ġà¦¬à¦°à¦ķ à¦¤
a ve
n d
t er
Ø §
Ġ E
Ġ à¥¥
à§ģ ?âĢĻ
Ġà¦ķ à¦®à¦¨
à¦ĩ à¦¹
Ġà¦ı à¦Ĩà¦ĩ
à¦§ à¦¨à¦¬
à¦¥ à¦ªà¦°
Ġà¦ľ à¦¤
Ġà¦ıà¦ķ à¦¤à¦²
à¦°à¦¤ à¦¨
Ġà¦Ŀ à¦ŀ
Ġà¦¬à¦¸ à¦Ľ
Ġà¦ªà¦¥ à¦ĩ
à¦¾à¦Ĥ ,
à¦¼à§ĭ -
à¦®à¦£ à¦ķ
Ġà¦«à¦² à¦¸
à¦Ŀà¦² à¦®à¦²
à§§à§ ®
Ġà§¨ à§ª
re s
it y
à¦ĭ à¦¤
Ġà¦¦à¦Ĺ à¦¦à¦Ĺ
Ġà¦¬à¦ķà¦¬ à¦ķ
c e
v er
Ġà¦¸ à§Ł
Ġà¦¸ à¦ĸà¦¨
Ġà¦¨ à¦¬à¦¬
à¦ĸ à¦¦
à¦· à¦°à¦£
à¦· à¦¬à¦°
à¦· à¦¤à¦¬
à¦§ à¦¯
Ġà¦ļ à¦¬
Ġà¦Ń à¦²
à§ĩà¥¤ âĢ¦
à¦Ń à¦Ĺ
Ġà¦² à¦°
Ġà¦« à¦¸à¦ķ
Ġà¦ĸ à¦Łà¦ķ
Ġà¦ħà¦¨ à¦¸
à¦¬à¦¨ à¦¦
à¦°à¦£ à¦¬
Ġà¦Ĩà¦¸ à¦ķ
Ġà¦Ł à¦²à¦¤
Ġà¦ħà¦¸ à¦¤
à¦¸à¦¬ à¦ĸ
à¦ķà¦¤ à¦ķ
à¦®à¦ķ à¦°à¦£
Ġà¦ĩà¦¨ à¦«
Ġà¦īà§ľ à¦¨
Ġà¦ĸà¦¸ à¦¡
o p
à¦¸ à¦ł
à¦¹ à¦®à¦¯
Ġà¦ľ à¦ŀ
Ġà¦ľ à¦ĺà¦¨
à¦Ń à¦²
Ġà¦ıà¦ķ à¦Ń
à¦¼à¦¾ âĢĻ
à¦ī à¦·
à¦¤à¦° à¦¸
à¦°à¦® à¦¤
à¦°à¦¸ à¦®
à¦Ĺà¦¤ à¦ķ
Ġà¦¨à§Ł à¦¨
Ġà¦ķà¦ĸà¦¨à¦ĵ à¦ĩ
Ġà¦ļà¦Ł à¦ªà¦Ł
à§¯à§ ¯
Ġ ,
à¦¤ à¦ľà¦¨
à¦¤ à¦ªà¦ķ
à¦ķ à§Ł
à¦¯ à¦¸à¦®
Ġà¦ķ à¦ļà¦ķ
Ġà¦¶ à¦Ł
Ġà¦« à¦¸
à¦ı à¦°à¦ªà¦°
Ġà¦¸à¦¬ à¦¥
Ġà¦ħà¦¸ à¦Ń
Ġà¦ħà¦¤ à¦Ł
Ġà¦ħà¦ª à¦¸
à¦¤à¦² à¦Ł
à¦¬à¦ķ à¦¦
à¦Łà¦¬ à¦ĩ
ou r
à¦¬ à¦ĸ
Ġà¦ķ à¦¨à¦Ł
Ġà¦¸ à¦Ĺà¦°
Ġà¦Ĩ à§Łà¦¤
à¦¦ à¦®à§Ł
Ġà¦¨ à¦¬à¦¯
Ġà¦® à¦ĸ
à¦ª à¦Ń
à¦£ à¦¶
à¦¥ à¦¯
à§Ĥ à¦ģ
Ġà¦ĸ à¦¤
ĠâĢ Ļ
à¦°à¦¬ à¦ļ
à¦¤à¦° à¦ª
Ġà¦Ĩà¦² à¦ĸ
à¦¦à§Ł à¦ķ
à§įâĢĮ ,
Ġà¦ĩà¦¨ à¦ľ
Ġà¦¶à¦¤ à¦§à¦¨
à¤ ¤
à¦ıà¦ĸà¦¨ à¦ĵ
Ġà¦· à¦·
Ġà¦Ĩà¦ĩ à¦¸à¦ķ
Ġw e
æŃĵæŃĵ æŃĵæŃĵ
e m
i ve
l a
à¦¯ à¦¬à¦¨
Ġà¦¸ à¦²à¦ľ
à¦¸ à¦®à¦¤
Ġà¦Ĩ à¦ªà¦¦
Ġà¦® à¦°à¦®
à¦Ľ à§ľ
à¦Ń à¦¬à¦¨
Ġà¦ī à¦ĩà¦¨
à¦¾à¦ģ à¥¤âĢĻ
à¦« à¦¤
Ġà¦Ł à¦¬
Ġà¦Ł à¦¨à¦Łà¦¨
Ġà¦ķà¦¥ à¦ķ
à¦¨à¦¤ à¦²
Ġà¦ĵà¦ł à¦²
à¦ħ à¦Ļ
à¦¨à¦¬ à¦¸
à§İà¦¸ à¦°
Ġà§ ¯à§
Ġà¦ĵà¦ĩ à¦¸à¦¬
à¦°à¦ª à¦¥
Ġà¦īà§İ à¦ªà¦¨
à¦ķà¦ĸà¦¨ à¦ĵ
à¦Ĳ à¦ķ
à§¨à§¦à§¦ à§©
* *
à¦¤ à¦Ŀà¦°
à¦² à¦ĺ
à¦® à¦īà¦¦
à§ĭ âĢĻ,
Ġà¦¸ à¦ļà¦ķ
Ġà¦ª à¦Łà¦²
Ġà¦ĵ à¦®
Ġà¦ħà¦¨ à¦¡
à¦°à¦£ à¦Ĺ
à¦ī à¦ªà¦¨
à¦¨à¦ĵ à¦®à¦¤
Ġà¦īà§İà¦¸à¦¬ à¦®
à¦¸à¦¹ à¦ľ
à¦°à¦®à¦¶ à¦ĩ
Ġà¦ľà¦²à¦ķ à¦£
Ġà¦®à¦ĸ à¦®à¦²
Ġ k
à§ĩ à¦ĥ
à¦¨ à¦ªà¦¤
à§ģ !âĢĿ
Ġà¦¬ à¦¤
Ġà¦® à¦°à¦²
Ġà¦® à¦°à¦¦
Ġà¦ı à¦¨à¦ķ
à¦ľ à¦ĸ
à§Ł à¦ļ
à¦¹ à¦ķà¦°
Ġà¦ıà¦ķ à¦«
Ġà¦Ĩà¦® à¦¦
Ġà¦ĸ à¦ª
Ġà¦ĸ à¦¨à¦¨
Ġà¦ıà¦ĩ à¦¸à¦®à¦¯
à¦ĺ à¦Ĺ
Ġà¦ħà¦¬ à¦¯
à¦Ĺà¦² à¦¬
Ġà¦ħà¦Ń à¦¯
à¦¨à¦¬ à¦¸à¦®
à§° à¦®
Ġà¦ªà¦¤ à¦Ļ
à§¨à§¦à§¦ à§¦
am e
à¦° à¦ļà¦¨
à¦¨ à¦¬à¦¨
à¦¨ à¦ľà¦°
à¦¯ à¦Ĺà¦¤
à¦¬ à¦ķà¦Ł
Ġà¦¸ à¦¶à¦¬
à¦ľ à§ľ
à¦ľ à¦¤à¦¨
à¦¹ à§Ł
Ġà¦¶ à¦ª
Ġà¦ľ à¦®à¦ķ
à¦¼à¦¾ !
à¦¼à¦¿ âĢĶ
à§İ à¦¬
Ġà¦ľà¦¨ à¦¹
à¦°à¦® à¦¬à¦°
Ġà¦ķà¦¬ à¦ļ
Ġà¦°à¦Ļ à¦§à¦¨
Ġà¦ĵà¦ĩ à¦ĸ
Ġà¦¤à¦² à¦¦
Ġà¦Ĺà¦£ à¦ªà¦°
ar t
Ġà¦Ńà¦°à¦¤ à¦¬
Ġn ot
Ġà¦°à¦£ à¦ľ
Ġà¦¥à¦¤ à¦®à¦¤
Ġ 19
à¦¦ à¦§
à¦¦ à¦¬à¦¤
Ġà¦¤ à§İà¦ªà¦°
à¦¼à§ĩ à¥¤âĢĿ
Ġà¦ħ à¦ķà¦²
Ġà¦¶ à¦°à¦¬à¦¤
Ġà¦ľ à¦Łà¦²
Ġà¦ľ à§Łà¦¨
Ġà¦ī à¦¥à¦²
Ġà¦ĸ à¦¤à¦®
à¦°à¦¬ à¦¸
à¦¼, âĢĿ
Ġà¦Ĩà¦ľ à¦¬
Ġà¦ħà¦¸ à¦¨
Ġà¦ħà¦¸ à¦Ļ
Ġà¦īà¦ª à§ľ
à¦®à§Ł à¦ķà¦°
Ġà¦ĸà¦¬à¦° à¦¦
à¦¬à¦¶ à¦¤
à¦°à¦®à¦£ à¦ķ
à¦¾âĢĻ âĢĶ
Ġà¦ħà¦¸à¦® à¦ŀ
Ġà¦ķà¦¨à¦ķ à¦¨
Ġ "
Ġ he
à¦¤ à¦¦à¦¨
à¦¤ à¦ľà¦¬
à¦® à¦ļà¦°
Ġà¦¸ à¦ĵà§Ł
à¦¸ à¦°à¦¤
Ġà¦Ĩ à¦īà¦Ł
Ġà¦Ĩ à¦ĵà¦¤
Ġà¦Ĩ à¦ĵà§ľ
Ġà¦¦ à¦¨
à¦¶ à¦Ńà¦ķ
à¦Ĺ à¦Ńà¦Ļ
âĢĶ -
à¦¬à¦¨ à¦¸à¦Ļ
Ġà¦®à¦¨ à¦ĸ
à¦« à¦ķ
à¦ı à¦®
Ġà¦ħà¦® à¦Ļ
Ġà¦ľà¦² à¦ĸ
à¦²à¦¤ à¦²
à¦¸à¦¨ à¦ķ
Ġà¦ľà¦® à¦Ľ
Ġà¦¬à¦ĩ à¦ĸ
à¦¤à¦ķ à¦£
Ġà¦®à¦° à¦Ľ
à¦®à¦£ à¦°
Ġà¦¦à¦² à¦Ł
Ġà¦®à¦¶ à¦Ĺ
Ġà¦¹à¦ĩ à¦ļà¦ĩ
à¦¬à§Ł à¦¸
à¦ıà¦®à¦¨ à¦ķ
Ġa re
à§¨à§¦à§¦ à§¨
Ġà§§à§¯à§¯à§ ¦
u b
Ġ W
à¦¯ à¦¤à¦°
à¦¯ à¦°à¦¶
Ġà¦¸ à¦¶à¦¸
à¦Ł à¦ļ
Ġà¦® à¦ľà¦²
à¦ª à¦ĸ
Ġà¦¹ à¦ĩà¦¨
Ġà¦¹ à¦ĩà¦¯
à¦¶ à¦°à¦¤
à¦ļ à¦Ĺ
à¦ļ à¦¤à¦²
Ġà¦° à¦£à¦ķ
Ġà¦ıà¦ķ à¦®à¦¤
Ġà¦¬à¦² à¦¯
Ġà¦ĵ à¦§
Ġà¦§ à¦®à¦¨
Ġà¦ĩ à¦¡
Ġà¦ħà¦¬ à¦®
Ġà¦ħà¦¬ à¦¤à¦°à¦£
à¦°à¦® à¦¯
à¦ħ à¦ŀ
à¦°à¦¥ à¦ķ
Ġà¦īà¦ª à¦¡
à¦®à¦ķ à¦¥
à¦ıà¦ĩ à¦Ł
!âĢĿ âĢĶ
Ġà¦Ĩà¦§ à¦ĺà¦£
à¦®à§Ł à¦¤
à¦¨à¦¸ à¦ªà¦Ł
Ġà§§à§ ¯
à¤ ¿
à¦ķà¦ľà¦¨ à¦ķ
Ġà¦Ĩà§ľ à¦®
à¦ıà¦ĸà¦¨ à¦ĩ
Ġà¦ªà¦Ļ à¦ķ
Ġà¦¨à¦¬à¦¬ à¦§
i f
à¦® à¦ªà¦¤
Ġà¦ķ à¦ĩà¦°
à¦¦ à¦ľ
Ġà¦¨ à¦¬à¦°
Ġà¦® à¦ł
Ġà¦® à¦Ļà¦²
à¦ľ à¦°à¦£
à¦ľ à¦ĸà¦¬à¦°
à¦Ĺ à¦°à¦®
à¦¥ à¦Ń
Ġà¦ıà¦ķ à¦°à¦¤
Ġà¦¥ à¦ĩ
à¦°à¦ķ à¦¨
Ġà¦ĵà¦ł à¦¬
à¦ħ à¦¬à¦¸
à¦²à¦ķ à¦§
Ġà¦¬à¦° à¦¦
à¦¨à¦ĵ à¦ķ
à¦¶à¦¨ à¦Ł
Ġà¦¬à¦ĩ à¦ªà¦¤
Ġà¦ħà¦ªà¦° à¦¦
à¦¤à¦® à§Ł
Ġà¦¦à¦²à¦¬ à¦¦
Ġ K
à¦¤ à¦«
à¦¤ à¦ļà¦ķ
à¦¯ à¦¸à¦¨
à¦¬ à¦®à¦¯
à¦¬ à¦¸à¦®
Ġà¦ķ à¦ľà¦¨
Ġà¦¸ à§İà¦ķ
à¥¤ à¥¤
à¦ĸ à§ľ
Ġà¦¯ à¦¬
à¦¹ à¦Ĺ
à¦ĵ à¦ľ
Ġà¦« à¦²à¦¨
Ġà¦ıà¦ĩ à¦¤
à¦¬à¦ª à¦ķ
à¦ħ à¦Ł
à¦ıà¦ĩ à¦¬
Ġà¦ªà¦¦ à¦®à¦ķ
à§° à¦ľ
Ġà¦īà§İ à¦«
Ġà¦¨à¦¬ à¦ľà¦¨
à§§à§ Ń
à¦¸à¦¹ à¦¦
Ġà§¨ à§«
Ġs t
à¦¯ à¦ĸ
à§ĭ âĢĻà¥¤
Ġà¦ª à¦ª
Ġà¦Ĩ à¦¤à¦°
Ġà¦Ĩ à¦ĩà¦¸
Ġà¦ı à¦¹
à¦ĸ à¦Ń
Ġà¦ħ à¦Ĺà¦¤
à¦· à¦ªà¦¥
à¦¡ à¦īà¦ĩ
Ġà¦Ń à¦¨
Ġà¦Ń à¦¬à¦¤
à¦Ń à¦°à¦¯
à¦°à¦¤ à¦ķ
Ġà¦§ à¦ķà¦²
à¦·à¦£ à¦®
à§İà¦¸ à¦²
Ġà¦Ĩà¦§ à¦ĸ
Ġà¦ıà¦¨ à¦ľ
Ġà¦ĭ à¦ľ
à¦¼âĢĶ âĢľ
à¤ ķ
Ġà§§à§¯à§ ©
re d
à¦¾âĢĿ à¥¤
Ġm y
à§¨à§¦à§¦ à§ª
ĠĠĠĠ ĠĠĠĠ
éŁ¿éŁ¿éŁ¿éŁ¿éŁ¿éŁ¿éŁ¿éŁ¿ éŁ¿éŁ¿éŁ¿éŁ¿éŁ¿éŁ¿éŁ¿éŁ¿
q u
º çľ
à¦¼ à¦ĥà¥¤
à¦Ł à¦¶
à¦ª à¦¬à¦¤
Ġà¦ħ à¦¹à¦°
à¦¡ à¦«
à¦¹ à¦¹
à¦¥ à¦Ł
Ġà¦ī à¦¸
Ġà¦ªà¦° à¦ª
âĢĻ ;
Ġà¦Ĩà¦² à¦¨
Ġà¦Ł à¦¯
Ġà¦ĩ à¦¤à¦°
Ġà¦ĩ à¦īà¦Ł
Ġà¦ľà¦¨ à¦¶
à§ģà¦ģ à¥¤
à¦¦à¦¯ à¦¨
à¦°à¦² à§Ł
à¦²à¦¬ à¦§
à¦§à¦¨ à¦¹
Ġà¦ħà¦ª à¦ļà¦¯
Ġà¦¬à¦ĩ à¦ķ
Ġà¦Ĺà¦Ń à¦°
Ġà¦Ĳ à¦¨
à¦°à¦ľà¦¨ à¦¨
Ġà§§à§¯à§ ¬
Ġà¦Ĩà¦ĩà¦¨ à¦¸
Ġà§© à§¦
à¦ĭ à¦£
om ment
Ġe mail
Ġà¦¨à¦ľ à¦°à¦¦
Ġà¦·à§ľ à¦¯à¦¨
e ct
i p
· çľ
à¦° à¦Ĩà¦¨
à¦¨ à¦¤à¦°
à¦¤ à¦§à¦¨
à¦ķ à¦®à¦²
à¦¯ à¦ľà¦¨à¦ķ
à¦¬ à¦īà¦¦
à¦¼ à§ģ-
à¦Ł à¦°à¦ķ
à¦ª à¦ªà¦¤
à¦ĸ à¦¶
âĢ ¢
Ġà¦ħ à¦ķà¦°
à¦¡ à¦ľ
à¦ļ à¦ķà¦°
à¦£ à¦«
à¦£ à¦Ńà¦°
à¦ĵ à¦®
à¦ĵ à¦¸à¦¬
à§ĥ -
Ġà¦ī à¦¸à¦ķ
à§ľ à¦Ĺ
à¦Ŀ à¦Ľ
à¦ŀ à¦ª
à¦°à¦ķ à¦£
à¦°à¦¸ à¦Ń
à¦¿à¦Ĥ âĢĻ
Ġà¦ıà¦¤ à¦ĸ
Ġà¦ħà¦ľ à§Ł
Ġà¦¬à¦ĩ à¦¬
à¦¤à¦ķ à¦°à¦£
à¦Ŀà¦² à¦¸
Ġà¦¶à¦¹ à¦°à¦ķ
it h
Ġw h
es s
ºçľ ºçľ
Ġ Ø
à¦¤ à¦ķà¦¤
à¦² à¦ķà¦Ł
à¦® à¦¥
Ġà¦ķ à¦¶
Ġà¦¬ à¦ļ
à¦¸ à¦®à¦²
Ġà¦ı à¦¤à¦¬à¦¡
à¦· à¦°à¦¤
Ġà¦Ĺ à¦«
à¦£ à¦®à¦¯
à¦¥ à¦¶
Ġà¦° à¦Ĺ
à§ľ à¦¸
âĢĻ âĢĵ
à¦®à¦¨ à¦ķ
Ġà¦Ł à¦¨
Ġà¦Ŀ à¦°à¦¤
Ġà¦Ĩà¦Ĺ à¦¸
à¦ķà¦° à¦¦
Ġà¦īà¦¦ à¦°
Ġà¦ľà¦² à¦Ľà¦¬
à¦Ĺà¦¤ à¦®
à¦®à¦¤ à¦²
à¦¿âĢĶ âĢĻ
à¦ľà¦² à¦Ń
à¦Łà¦¤ à¦ĩ
Ġà¦Ńà§Ł à¦ķ
à¦¾âĢĿ âĢĶ
Ġà¦Ńà¦Ł à¦ļ
·çľ ·çľ
d s
n t
s t
à¦° à¦ĵà¦¯
à¦¯ à¦®à¦£
à¦® à¦«à¦²
Ġà¦¸ à¦ªà¦¨
à¥ ĩ
à¥¤ âĢĺ
Ġà¦Ĩ à¦ĩà¦²
à¦Ł à¦ķà¦°
Ġà¦¨ à¦¶
à¦ĸ à¦ª
Ġà¦ħ à¦ĺà¦Łà¦¨
à¦· à¦ķà¦¤
à¦¡ à¦ĩ
à¦¹ à¦ľà¦¨à¦ķ
Ġà¦ī à¦¹
Ġà¦ĸ à§ľà¦ķ
à¦ľà¦¨ à¦ĵ
à¦« à§ľ
à¦ı à¦ķà¦²
à¦ĺ à¦°à¦Ł
à¦ĥ âĢĵ
à¦¤à¦¨ à¦¶
à¦¯à¦¤ à¦ķ
à¦¾âĢĶ âĢĺ
à¦·à¦¤ à¦Ĺ
à§ģâĢĻ -
à¦¤à¦ķ à¦¡
à¦¯à¦® à¦Ĺ
à¦ľà¦² à¦¦
Ġà¦¬à¦ķ à¦¶
à¦ķà¦¸ à¦ľ
à¦ķà¦Ľ à¦Ł
Ġà¦ķà§Ł à¦²
Ġt r
à§¦à§¦ à§¦
u m
Ġ on
à¦° à¦¡
à¦ķ à¦¸à¦¬
à¦ķ à¦Ĩà¦ª
à¦® à§İ
à§ĭ âĢĿ
Ġà¦¸ à¦°à¦¬
Ġà¦ª à§Ł
à¦Ł à¦°à¦Ĺ
Ġà¦ħ à¦¤à¦°
à¦Ń à¦§
Ġà¦§ à¦¬à¦²
à¦°à¦£ à¦ĩ
à¦ī à¦£
à¦°à¦¬ à¦®à§Ł
Ġà¦Ĩà¦¸ à¦ļ
à¦Ĩ à¦īà¦Ł
à¦·à¦£ à¦Ĺ
à¦°à¦® à¦ľ
Ġà¦ªà¦¥ à¦ĺ
à¦ħ à¦Łà¦²
à¦²à¦ķ à¦¨
Ġà¦īà¦¦ à¦ĺ
Ġà¦ľà¦² à¦°à¦Ļ
à¦®à¦² à¦Ĺ
Ġà¦ħà¦ľ à¦ª
Ġà¦¶à¦° à§İà¦ķ
à¦¥à¦° à¦Ĺ
an t
Ġà¦Ķ à¦·à¦§
Ġà¦®à¦Ĺ à¦§
à§İà¦ª à¦°à¦¤
Ġy ou
Ġ Ð
Ġ it
à¦® à¦®à¦¯
Ġà¦ª à¦ļà¦¨
à¦¸ à¦¹à¦¸
à¦¦ à¦ļ
à¦¶ à¦®à¦£
à¦¼à§ĩ âĢ¦
à¦ļ à¦Ń
Ġà¦ľ à¦¬à¦°
Ġà¦Ĩà¦® à¦¬
Ġà¦Ĩà¦® à¦ľ
à§ĩ, -
à¦¾, âĢĻ
à¦°à¦£ à§Łà¦¨
à¦ı à¦Ľ
à¦Ĩ à§Ł
Ġà¦¡ à¦°
Ġà¦ĩ à¦¬
à¦°à¦® à¦¬
à¦¬à¦¤ à¦®
à¦°à¦¹ à¦¸à¦¨
Ġà¦ħà¦ľ à¦¯
à¦¤à¦¤ à¦®
à¦¶à¦ķ à¦¦
Ġà¦Ĩà¦§ à¦ª
à¦Ĺà¦® à¦ŀ
à¤ ¨
à¤ ²
Ġà§§à§¯à§ ¦
in d
à§¯à§ §
Ġà¦ľà¦Ĺ à¦¦
à¦¡à¦Ń à¦£
à¦¨ à¦ĺ
à¦¨ à¦¸à¦¨
à¦ķ à¦ļà¦ķ
à¦¯ à¦Ŀ
à¦¯ à¦Łà¦¨
Ġà¦¬ à¦Ĺ
Ġà¦ª à¦łà¦¨
Ġà¦Ĩ à¦¹à¦¸
à¦¦ à¦°à¦¬
à¦¦ à¦ĺ
Ġà¦¨ à¦¬à¦¦
Ġà¦® à¦Łà¦ķ
à¦ĩ à¦ħà¦ķ
à¦¶ à¦¤à¦²
à¦ļ à¦®à¦ķ
à¦£ à¦¶à¦ķ
à¦Ń à¦²à¦Ń
à§ĩ, âĢĻ
Ġà¦¬à¦² à¦¦
Ġà¦ĵ à¦Ŀ
à¦°à¦¬ à¦Ĺ
à¦¤à¦° à¦ĵ
à¦ı à¦¤à¦ķ
à¦ĺ à¦Ľ
Ġà¦ĩ à¦¨à¦ķ
à§Ī à¦ĥà¥¤
à¦ħ à¦¤à¦²
Ġà¦ħà¦Ń à§Ł
à¦¨à¦¬ à¦¸à¦Ń
Ġà¦ªà§ľ à¦¨
à¦¶à¦¨ à¦ķ
à¦ªà¦¦ à¦¬
Ġà¦ķà¦® à¦ĩ
Ġà¦ķà¦® à¦ªà¦ķ
à¦¬à¦¬ à¦Ļ
Ġà¦¶à¦¤ à¦ªà¦¥
à¦Ŀà¦° à¦Ŀà¦°
à§§à§ «
Ġà§¨ à§¯
Ġà¦ĸà¦¸ à§ľ
Ġà¦¸à¦« à¦Łà¦ĵà¦¯
Ġw ith
à¦ķà¦ľ à¦®à¦ķ
Ġà¦ľà¦¨à¦Ĺ à¦£à¦ķ
Ġà¦Ŀà¦Ł à¦ªà¦Ł
r om
Ġ ï»¿
à§ĩ âĢĿâĢĶ
à¦° à¦§à¦°
à¦¤ à¦ªà¦¸
à¦® à¦·
Ġà¦¸ à¦¶à¦°
à¦¸ à¦ĵà¦¯
à¦ĩ à¦®à¦¨
à¦ĩ à¦ŀ
à§Ģ âĢĻà¥¤
Ġà¦¤ à¦ĸ
Ġà¦¤ à¦¬à¦²
Ġà¦¹ à¦ª
à¦ļ à¦¤à¦°
Ġà¦ķà¦° à¦¨
Ġà¦Ĺ à¦ª
Ġà¦Ĺ à¦ŀ
Ġà¦Ĺ à¦¤à¦°
Ġà¦« à¦²à¦ķ
Ġà¦ĸ à¦¯
Ġà¦ħà¦¨ à¦Ń
Ġà¦ħà¦¨ à§ľ
Ġà¦ĺ à¦°à¦®à§Ł
à¦ľà¦¨ à¦®
à¦Ĩ à¦°à¦ľ
Ġà¦¡ à¦²
Ġà¦Ĩà¦ªà¦¨ à¦ľà¦¨
à¦¨à¦¬ à¦ķ
à¦¯à¦¤ à¦ĩ
Ġà¦¸à¦¹ à¦ľà¦²à¦Ń
Ġà¦īà¦¤ à¦²
à¦ĩà¦¨ à¦¸
Ġà¦«à¦² à¦ª
à¦ªà¦ķ à¦Ń
à¦°à¦ļ à¦²à¦¨
Ġà¦¬à§ľ à¦¦
à¦°à¦Ĺ à¦£
Ġà¦¸à¦¹à¦ľ à¦Ń
?âĢĿ âĢĶ
Ġà¦Ńà¦Ĺ à¦¬à¦¦
Ġà¦¨à¦Ĺ à¦¦
Ġà¦¸à¦°à¦¸ à¦¤
a p
r i
Ġ U
à¦¯ à¦¯à¦¨
à¦® à¦°à¦¤
à¦Ł à¦§à¦°
à¦ĩ à¦ªà¦°
à§Ģ !âĢĻ
à¦Ľ à¦¸
à¦ľ à¦¬à¦¨
à¦¶ à¦¤à¦ķ
à¦ļ à¦ŀ
à¦¹ à¦®à¦¨
à¦ł à¦¹
Ġà¦¬à¦² à¦Ł
Ġà¦¬à¦² à§Ł
Ġà¦ªà¦° à¦°
Ġà¦¸à¦® à¦¬à¦¯
ĠâĢĺ âĢĺ
à¦·à¦£ à¦¶
Ġà¦ªà¦¥ à¦°
Ġà¦ªà¦¥ à¦Ĺ
à¦ħ à¦¥à¦¬
à¦°à¦¸ à¦¤
à¦°à¦ľ à¦²
à¦ªà¦¤ à¦Ļ
Ġà¦¬à¦ĩ à¦®
Ġà¦ªà¦¦ à¦¸
Ġà¦ĵà¦ĩ à¦Ń
Ġà¦ıà¦ķà¦ĩ à¦¸à¦Ļ
Ġà¦¬à¦Ł à¦¤à¦²
à¦®à¦Ł à¦®
à¦¦à¦Ĺ à¦¦
he r
ĠR e
à¦§à¦¹ à§Ł
Ġà¦¤à¦°à¦« à¦¦
âĢķâĢķ âĢķâĢķ
à¦ĵà¦ľ à¦«
à¦¡à¦īà¦ĩ à¦ļ
! )
! âĢĶ
a b
k e
Ð ¾
à¦¿ âĢĿà¥¤
à¦¨ à¦ľà¦¨à¦ķ
à¦ķ à¦°à¦ķ
Ġà¦¬ à¦ĩà¦²
Ġà¦¸ à¦ĵà¦¯
Ġà¦¸ à¦ļà¦°
Ġà¦ª à¦ľ
à¦Ł à¦ľ
Ġà¦¨ à¦ļ
Ġà¦® à¦°à¦¶
à§Ģ :
Ġà¦¤ à¦¤à¦¬
à¦ľ à¦ľ
à¦§ à¦Ĺà¦®
à¦¡ à¦ļ
Ġà¦Ĺ à¦®à¦¨
Ġà¦Ĺ à¦ľà¦²
à¦¥ à¦°à¦Ł
Ġà¦ļ à¦°à¦ķ
à¦ł à¦Ń
Ġà¦Ĩà¦° à¦¨
Ġà¦² à¦¸
Ġà¦« à§ľ
Ġà¦ħà¦¨ à¦¤
à¦¼à¦¿ ?
à¦« à¦ª
à¦ı à¦°à¦ķà¦®
à¦¬à¦° à¦Ĺ
Ġà¦ķà¦¥ à¦ŀ
Ġà¦Ŀ à¦°à¦¬
à¦°à¦® à¦ķ
Ġà¦Ĩà¦Ĺ à¦¤
Ġà¦Ĺà¦² à¦¤
à¦ķà¦° à¦Ł
à¦ħ à¦®à¦°
à¦ħ à¦¸à¦®
à¦²à¦ķ à¦¦
Ġà¦ķà¦¬ à¦ľ
à§ģà¦ĥ à¥¤
à¦ıà¦ķ à¦¦à¦®
Ġà¦Ķ à¦ľ
is t
Ġ* **
. âĢĿ
h t
Ġ Y
Ġ v
à¦¨ à¦°à¦®
à¦¯ à¦¨à¦¤
à¦¬ à¦ī
à¦¼ )
Ġà¦ķ à¦ļà¦²
Ġà¦¸ à¦¦à¦¯
Ġà¦¤ à§İà¦ªà¦°à¦¤
Ġà¦¹ à¦¡
à¦¶ à¦ĸ
à¦§ à¦ªà¦°
Ġà¦ļ à¦·
Ġà¦Ń à¦°à¦£
Ġà¦° à¦¸à¦¬
à¦Ń à¦¤
à¦ł à¦Ĺà¦¡
à¦¤à¦° à¦ŀ
à¦ĺ à¦¬à¦¦
Ġà¦Ĺà¦² à¦Ĺà¦²
à¦²à¦ķ à¦ļ
Ġà¦Ĩà¦ķ à¦£
à¦°à¦¥à¦® à¦¦
Ġà¦ħà¦Ń à¦¦
à¦¯à¦¤ à¦¦
à¦°à¦¦ à¦ķ
à¦·à¦ķ à¦ķ
Ġà¦«à¦² à¦®
à¦¢ à¦²
à§° à¦ķ
à¦®à¦Ĺ à¦ŀ
Ġà§§à§¯à§ ¨
à¦°à¦« à¦¤
à§§à§ ©
à§§à§ ª
Ġà§¨ à§®
Ġà¦¹à¦¨ à¦¹à¦¨
Ġà¦Ĭ à¦¨
à¦¾à¦ĥ !
es t
Ġà¦ľà¦¨à¦¸ à¦ļ
ĠT he
s e
u p
Ø ±
à ¸
à§ĩ ...
à¦° à¦Ĺà¦²
à¦¨ à¦®à¦¸
à¦¨ à¦ľà¦Ł
à¦¤ à¦®à¦¨
à¦² à¦ªà¦¥
à¦¯ à¦¸à¦Ļ
Ġà¦¬ à¦¦à¦°
à¥ Ģ
Ġà¦Ĩ à¦ĵà¦¡
à¦¦ à¦°à¦ķ
Ġà¦¨ à¦ª
Ġà¦¤ à§İ
Ġà¦ħ à¦¤à¦¨
à¦§ à¦ļ
à¦ļ à¦²à¦¬
à¦£ à¦®à§Ł
à¦ĵ à¦ĸ
Ġà¦ıà¦ķ à¦ķà¦¥
à¦ł à¦®
Ġà¦² à¦ĩà¦¯
âĢĻ !
à¦¤à¦° à¦Ĺ
à¦ı à¦¸à¦¸
Ġà¦¬à¦¸ à¦¤à¦¬
Ġà¦¢ à¦ķ
à¦°à¦¸ à¦¹
à¦Ĺà¦² à¦Ĺà¦ŀ
à¦§à¦¨ à¦Ĺ
Ġà¦Ĩà¦¤ à¦¤
Ġà¦¸à¦¹ à¦¬
Ġà¦ħà¦ľ à¦Ĺà¦°
Ġà¦Ńà¦¬ à¦ĺ
à§¨ à§¨
à§ĩâĢ¦ âĢĻ
Ġà§¨ à§Ń
à§« à§¦
Ġà¦ħà¦¹ à¦°à¦¹
à¦ĩà¦ľ à¦¡
à¦¯à¦ĸà¦¨ à¦ĩ
Ġw as
Ġs e
Ġc on
à¦Ĺà¦ª à§İ
Ġth is
ÂŃÂŃ ÂŃÂŃ
Ġà¦§à§ľ à¦«à§ľ
) -
o re
à¦¾ ),
à¦¨ à¦°à¦ķ
à¦¤ à¦®à¦¯
à¦² à¦ļà¦°
à¦² à¦ľà¦²
à¦ķ à¦ĺà¦°
à¦¯ à¦¦à¦²
à¦¬ à¦ĩà¦¯
Ġà¦¸ à¦°à¦¤
Ġà¦¸ à¦°à¦£
Ġà¦Ĩ à¦ĩà¦Ł
Ġà¦ħ à¦¢
à§Ł à¦Ł
à§Ł à¦ĵ
à¦¹ à¦¶
Ġà¦Ĺ à¦¦à¦Ĺà¦¦
Ġà¦Ń à¦ľà¦¨
Ġà¦° à¦¸à¦¨
à¦Ń à¦Ĺà¦¬
à¦ł à¦ľ
Ġà¦² à¦ķà¦²à¦ķ
à¦¬à¦¨ à¦¬à¦¤
à¦¬à¦¨ à¦Ńà¦°
à§İ à¦ķà¦°
à¦« à¦²à¦ķ
Ġà¦Ĩà¦² à¦¬
Ġà¦¡ à¦ľà¦¨
Ġà¦ľà¦¨ à¦¸à¦®
Ġà¦īà¦ª à¦Ĺ
Ġà¦ķà¦² à¦®à¦Ł
à¦²à¦¬ à¦¶à¦¤
à¦¬à¦¸ à¦¤
à§¨ à§¦
Ġà§¨ à§¬
on g
Ġà¦Ĩà¦ĸ à¦¡
ro w
Ġth at
ay a
, âĢĶ
a c
g e
i v
l is
à¦° à§İ
à¦¨ à¦ĺà¦°
à¦¤ à¦ªà¦¦
à¦² à¦ľà¦¯
à¦ķ à¦®à¦¯
à¦¬ à¦ļà¦ķ
Ġà¦ķ à¦ŀ
Ġà¦¬ à¦°à¦¬
Ġà¦¸ à¦ĩà¦¬
Ġà¦ª à¦¸
à¦¸ à¦ĸà¦¨
à¦¶ à¦®à¦¨
Ġà¦ħ à¦Ľ
Ġà¦ħ à¦°à¦¬
à¦· à¦¡
à¦ļ à¦²à¦¨
à¦¹ à¦®à§Ł
à¦¥ à¦ĵ
à¦¥ à¦¬à¦¹
Ġà¦¶ à¦°à¦®
Ġà¦ľ à¦ľ
Ġà¦ļ à¦ªà¦²
Ġà¦° à¦¡
Ġà¦° à¦ļà¦¯
Ġà¦Ĩà¦® à¦¤
à¦ł à¦Ĺ
Ġà¦§ à¦¨à¦ķ
à¦¬à¦¨ à¦¦à¦°
à¦ī à¦¥
à¦ī à§İà¦¸
à¦°à¦¬ à¦ŀ
à¦¤à¦° à¦®
à¦¤à¦° à¦ĩ
à¦ı à¦¤à¦¦
Ġà¦Ŀ à¦ª
à¦ĥ âĢĶ
à¦ķà¦² à¦Ļ
à¦°à¦¹ à¦°à¦£
Ġà¦ħà¦ª à¦ķ
Ġà¦ħà¦§ à¦¸
à¦ªà¦¦ à¦¸
Ġà¦¨à§Ł à¦¤
Ġà¦ħà¦¥ à¦°
Ġà¦ªà¦¦ à¦¤à¦²
à¦Ĩà¦ľ à¦ĩ
à¦°à¦®à¦£ à¦¬
à¦¾à¦ģ, âĢĿ
Ġà¦ªà¦°à¦® à¦¸à¦¤
à¦·à§Ł à¦Ł
Ġà§¨ à§©
he d
Ġà¦ĵà¦· à¦§
en d
Ġà¦Ĺà¦ľ à¦Ĺà¦ľ
Ġa d
le ct
us t
à¦Ĭ à¦°
c i
u re
x t
Ð °
Ġ V
Ġ j
Ġ or
à§ĩ ),
à¦° à¦§à¦¨
à§į âĢį
à¦¨ à¦«
à¦¨ à¦ĵà¦¯
à¦¨ à¦ķà¦°
à¦¤ à¦¤à¦°
à¦² à¦ĵà¦¯
à¦ķ à¦Ńà¦°
à¦® à¦¶à¦ķ
à¦¼ âĢĿ
à¥¤ )
à¦¦ à¦ĸ
Ġà¦¨ à¦Ĺà¦£
Ġà¦® à¦Ł
Ġà¦¦ à¦¦
à¦Ľ à¦ĩ
Ġà¦¤ à¦°à¦£
à¦ľ à¦²à¦¬
à¦ĸ à¦ľ
à¦Ĺ à¦§
à§Ł à¦ªà¦°
à¦· à¦¤à¦²
à¦· à¦§à¦°
à¦§ à¦ļà¦¨
à¦¡ à¦¹
à¦¡ à¦ĵ
à¦ļ à¦£
Ġà¦° à¦Łà¦¨
Ġà¦Ľ à¦®
Ġà¦² à¦Ń
Ġà¦ĺ à¦·à¦¤
à¦¬à¦¨ à¦¸
Ġà¦®à¦¨ à¦®
à¦ªà¦° à¦¬
à¦ŀ à¦¸
à§İ à¦ªà¦¤
à¦¤à¦° à¦ķà¦®
Ġà¦¸à¦¬ à¦¶
à¦ĺ à¦Łà¦ķ
Ġà¦ĩ à¦£
Ġà¦ĩ à¦Ń
Ġà¦ĩ à¦®à¦¨
à¦·à¦£ à¦ĵ
Ġà¦¬à¦¨ à¦ľ
Ġà¦Ĺà¦² à¦Ľ
à¦ķà¦Ł à¦¬à¦°
à¦¤à¦¬ à¦¬
à¦¾à¦Ĥ -
à¦¯à¦¬ à¦¯
à¦¯à¦¬ à¦ĩ
à¦¦à§Ł à¦¸
âĢĮ à§į
à§įâĢĮ âĢĶ
Ġà¦¸à¦®à§Ł à¦ķ
Ġà¦¦à¦² à¦Ĺà¦¤
à¦·à§Ł à¦Ĺ
Ġà¦ķà¦Ł à¦®à¦Ł
à¦¬à¦® à¦Ļ
Ġw ill
Ġà¦ķà¦ªà¦Ł à¦¤
Ġà¦Ķà¦°à¦¸ à¦ľ
1 0
Ġ F
Ġ Ù
à¦¨ à¦ĩà¦²
à¦¨ à¦ļà¦°
à¦¯ à¦Ńà¦°
à¦® à¦®à§Ł
Ġà¦ķ à¦¬à¦¨
Ġà¦¸ à¦¸à¦®
Ġà¦Ĩ à¦ĵ
à¦Ł à¦°à¦¬
Ġà¦® à¦ĩ
à¦ĩ à¦¸à¦²
à¦Ľ à¦²à¦¤
à¦¡ à¦¬à¦Ń
à¦¥ à¦ªà¦¤
Ġà¦ľ à¦łà¦°
Ġà¦° à¦®à¦¨
à§ľ à¦Ļ
à¦ªà¦° à¦¶
à¦¬à¦° à¦¦
Ġà¦¡ à¦¬à¦²
à¦ĺ à¦¦à¦²
âĢĵ âĢĵ
à¦ĥ !
à¦¤à¦¨ à¦ķ
à¦ħ à¦¸à¦¹
à¦²à¦ķ à¦ķ
à¦²à¦ķ à¦Ń
à¦¨à¦¬ à¦ķà¦²
à¦ļà¦¨ à¦ľà¦Ļ
Ġà¦ħà¦ª à¦ļà§Ł
Ġà¦Ĩà¦¤ à¦¶à¦¬
à¦ªà¦¦ à¦ª
ĠâĢĶ âĢĶâĢĶ
à¦¦à§Ł à¦Ł
à§Łà¦¨ à¦¯
à¦¬à¦ķ à¦ķ
à¦ħà¦¨ à¦²
Ġà¦¶à¦¤ à¦ķà¦°
Ġà¦ļà¦®à¦ķ à¦ª
à¤ ¹
Ġà¦¶à¦¹ à¦°à¦¬
Ġt im
à¦¿âĢĻ âĢĶ
à§© à§©
à§« à§Ń
à§¯à§ ®
Ġà¦ķà¦¬à¦° à¦¸
Ġa s
as t
Ġà¦¦à¦« à¦¤à¦°
Ġà¦¤à¦ªà¦¨ à¦ķ
res s
a v
h ar
à§į !
à§į âĢĻ
à¦¤ à¦¬à¦¨
à¦² à¦ŀ
à¦ķ à¦¶à¦ª
à§ģ à§ģ
à§ģ ?âĢĿ
à¦¬ à¦¦à¦°
à¦® à¦¸à¦¨
Ġà¦ķ à¦ĩà¦²
Ġà¦ķ à¦¸à¦®
Ġà¦¸ à¦¶
Ġà¦¸ à¦ĵà¦¦
à¦¸ à¦ĺà¦°
Ġà¦Ĩ à¦ĩà¦°
à¦Ł à¦¯
à¦Ł à¦Ĩà¦ª
Ġà¦® à¦²à¦®
à§Ģ âĢ¦
Ġà¦ı à¦ŀ
à¦ľ à¦ļ
à¦ľ à¦§à¦°
Ġà¦¯ à¦¶à¦¸
à¦§ à¦®à§Ł
à¦¹ à¦ľ
à¦¹ à¦ĵ
Ġà¦Ĺ à¦¤à¦¬
à¦£ à¦¬à¦°
Ġà¦¶ à¦¶à¦¬
Ġà¦° à¦®à¦²
Ġà¦ıà¦ķ à¦§à¦°à¦¨
à¦ł à¦ķà¦¦
Ġà¦« à¦¸à¦«
Ġà¦ĸ à¦¨à¦ª
Ġà¦§ à§°
Ġà¦®à¦¨ à¦ĵ
à¦Ŀ à¦²à¦ķ
à¦ī à¦Ńà¦¯
à¦¤à¦° à¦«
Ġà¦Ł à¦®à¦Łà¦®
Ġà¦ĩ à¦¨à¦Ł
Ġà¦Ŀ à¦²
Ġà¦Ŀ à¦°à¦£
à¦·à¦£ à¦ľà¦¨
Ġà¦ªà¦¥ à¦ĵ
à¦¦à¦¨ à¦Ĺ
à¦¯à¦¬ à¦¶à¦¤
à¦¦à¦° à¦Ł
à¦²à¦¨ à¦ĩ
à¦²à¦¨ à¦ļ
à¦§à¦¨ à¦ĩ
Ġà¦ħà¦ľ à¦°
ĠâĢĶ âĢĿ
Ġà¦ĵà¦ĩ à¦°à¦ķà¦®
Ġà¦®à¦° à¦ļ
à¦°à¦ª à¦Ļ
Ġà¦¦à¦² à¦ªà¦¤
à¦ķà¦ķ à¦¥
à§¨ à§«
Ġà§§à§¯à§ §à§
à¦°à¦¬à¦² à¦Ń
à¦²à¦ļ à¦²à¦¨
à§ĩâĢĻ âĢĶ
Ġà¦¸à¦« à¦Łà¦ĵà§Ł
it e
Ġb y
Ġd e
Ġh ave
ĠM aya
à¦Ĺà¦ł à¦¨à¦Ĺ
Ġà¦¸à¦ĸà¦¨ à¦ĵ
? âĢĶ
r y
t h
Ġ an
à¦¿ ...
à¦¨ à¦§
à¦¨ à¦®à¦¤
à¦¤ à¦¤à¦²
Ġà¦ķ à§°
Ġà¦¬ à¦°à¦®
à¦¦ à¦¬à¦°
Ġà¦¨ à¦²à¦ķ
Ġà¦® à¦ļ
à¦ª à¦®à§Ł
Ġà¦¦ à¦Ļ
Ġà¦¤ à¦®à¦¸
Ġà¦¤ à¦°à¦¤à¦°
à¦ĸ à¦§
à¦¡ à¦ĵà¦¯
à¦¹ à¦¨à¦ķ
à¦¹ à¦¬à¦§
à§ĩà¥¤ à¥¤
à¦Ń à¦°à¦¸
Ġà¦ī à¦Ĺà¦°
Ġà¦ĸ à§Ł
à§ľ à¦Ŀ
Ġà¦¸à¦® à¦Ń
à¦¬à¦¨ à¦ľ
à¦®à¦¨ à¦Ń
à¦ªà¦° à¦¸
à¦ı à¦«
à¦ı à¦°à¦ĩ
Ġà¦Ĩà¦² à¦«
à¦¬à¦° à¦ļ
à¦Ĩ à¦Ń
Ġà¦ķà¦¥ à¦ķà¦¤
Ġà¦®à¦¤ à¦¬
Ġà¦Ŀ à¦°à¦²
à¦¬à¦² à§Ł
à¦°à¦® à¦ª
à¦ħ à¦®à¦¨
à¦¿à¦Ĥ âĢĶ
Ġà¦ľà¦² à¦Ł
Ġà¦ľà¦² à¦Ńà¦°
à¦¨à¦¬ à¦®à¦¨
Ġà¦ªà§ľ à¦¶
à¦°à¦¦ à§Ł
Ġà¦ħà¦ª à¦Ł
Ġà¦¹à¦ł à¦ķ
à¦ıà¦ĩ à¦°à¦ķà¦®
à¦·à¦¤ à¦ļ
Ġà¦Ĺà¦¨ à¦Ĺà¦¨
à¦ıà¦ķ à¦¸à¦®à¦¯
Ġà¦Ĩà¦¦ à¦¤
à¦Ĺà¦ľ à¦ĸ
Ġà¦ĸà¦¬à¦° à¦ĵ
à¦ľà¦¬ à¦īà¦¦
Ġà¦Ĺà¦® à¦Ĺà¦®
à§« à§¬
à¦¦à¦¶ à¦Ł
at h
at ed
Ġc ou
Ġà¦ľà¦Ĺà§İ à¦Ł
el f
ut h
Ġà§§à§¯à§ª à§Ń
Ġtim e
a k
b s
i es
l d
à¦¤ à¦®à¦£
à¦² à¦§
à¦² à¦ķà¦°
à¦² à¦ļà¦¨
à§ģ )
à§ģ âĢĿ
à¦® à¦¶à¦²
Ġà¦¸ à¦ľà¦¨
Ġà¦Ĩ à¦Łà¦ª
à¦Ľ à¦ĵ
Ġà¦¤ à¦°à¦¤
Ġà¦¤ à¦ªà¦¤
Ġà¦¤ à¦Łà¦¸
à¦¶ à¦°à¦ķ
à¦¶ à¦ļà¦¨
âĢ ī
à§Ł à¦£à¦¤
à¦· à¦¸à¦¦
à¦£ à¦ľ
à¦£ à¦ķà¦°
Ġà¦ĸ à¦ŀ
à¦¾à¥¤ âĢ¦
à¦¬à¦¨ à¦ĵ
à§İ à¦¸à¦¨
à¦ī à¦¨à¦²
à¦ī à¦Ńà§Ł
à¦¿, âĢĻ
à¦ı à¦®à¦¨à¦ĩ
Ġà¦¹à¦² à¦«
Ġà¦Ĩà¦¬ à¦¹à¦®
Ġà¦ªà¦¥ à¦ķ
Ġà¦ªà¦¥ à¦¹
à¦¸à¦¬ à¦ļ
Ġà¦ľà¦² à¦Ľ
à¦°à¦¶ à¦®
à¦°à¦² à¦¸
à¦¶à¦¨ à¦²
à¦ļà¦² à¦Ł
Ġà¦ķà¦¤ à¦ľà¦¨
à¦¤à¦ķ à§ľ
à¦°à¦Ń à¦Ļ
à¦Ĺà¦ľ à¦Ĺ
Ġà¦¨à¦¬ à¦®
Ġà¦¦à¦² à¦Ĺ
à¦¸à¦ķ à¦¦
Ġà¦Ĩà¦ª à¦²
à¦ľà¦¸ à¦ľ
à¦ľà¦¬ à¦§
Ġà¦§à¦¨ à¦ŀ
Ġà¦§à¦¨ à¦¸à¦®
à¦ļà¦°à¦£ à¦ķ
Ġà¦¸à¦°à¦² à¦Ń
Ġà¦°à¦¸ à¦¦
Ġà¦Ĩà¦« à¦Ł
Ġm an
Ġà¦ıà¦ĩà¦°à¦ķà¦® à¦ĩ
Ġà¦ĸà¦Ł à¦ĸà¦Ł
ha k
k ed
o g
Ð µ
à¦¾ âĢĮ
à¦² à¦§à¦¨
à¦ķ à¦¤à¦°
à¦¯ à¦Ĺà¦¨
à¦® à¦¬à¦¨
à¦® à¦Ĺà¦¤
à¦¼ âĢĻ,
Ġà¦¬ à¦ķà¦¤
à¦¸ à§ľ
à¦Ł à¦¡
Ġà¦® à§ľ
Ġà¦® à§Łà¦¨
Ġà¦® à¦²à¦¯
Ġà¦¦ à¦ªà¦¦à¦ª
Ġà¦ı à¦§
Ġà¦¹ à¦°à¦ª
à¦Ĺ à¦°à¦ķ
à§Ł à¦¹
Ġà¦Ĺ à§Łà¦¨
à¦£ à¦ªà¦ķ
à¦¥ à¦¦
Ġà¦¶ à¦°à¦¦
Ġà¦ľ à¦°à¦Ĺ
à¦ĵ à¦¬
à¦ł à¦¤à¦®
à¦¼à¦¾ ;
Ġà¦ĵ à¦ľ
à¦¬à¦¨ à¦ª
à¦¬à¦¨ à¦ªà¦¥
à¦ı à¦ĵ
à¦Ĩ à¦¸à¦¬
à§Į ,
à¦¬à¦² à¦ķ
Ġà¦Ĩà¦ľ à¦Ĺ
Ġà¦Ĺà¦² à¦¨
à¦¸à¦¬ à¦®
à¦¸à¦¬ à¦ľ
à¦ķà¦¤ à¦¦
à¦°à¦ľ à¦°
Ġà¦ĵà¦° à¦«
Ġà¦°à¦Ļ à¦¬
Ġà¦ıà¦ķà¦¦ à¦®à¦ĩ
Ġà¦īà§İ à¦ķà¦Ł
Ġà¦ĺà¦¨ à¦ĺà¦¨
à¦°à¦®à¦£ à¦ª
Ġà¦¤à¦¤ à¦ĸ
à¦¨à¦Ń à¦Ļ
à¦¬à¦ĩ à§Ł
à¤ ¯
à§§à§ ¯
à§© à§ª
in t
à¦ıà¦®à¦¨ à¦Ł
à¦¾âĢĿ âĢĵ
Ġc ol
ou t
Ġà¦ľà¦²à¦ķ à¦¨
Ġà¦ļà¦Łà¦ķ à¦¦
Ġne xt
æŃĵæŃĵæŃĵæŃĵ æŃĵæŃĵæŃĵæŃĵ
Ð¾ Ð
a ut
s er
ã ģ
à¦ Ķ
à¦¿ âĢĿâĢĶ
à¦² à¦¬à¦°
à¦ķ à¦ªà¦ķ
à¦¯ à¦®à¦¤
à¦¬ à§İà¦¸
à¦¬ à¦ľà¦Ĺà§İ
à¦® à¦ĺà¦Ł
Ġà¦ķ à¦ĩà¦Ľ
à¥¤ âĢĶ
Ġà¦¨ à¦¬à¦¨
Ġà¦¨ à¦ĸà¦°
Ġà¦® à§ľà¦ķ
Ġà¦¤ à¦¨à¦¯
Ġà¦¹ à¦®
Ġà¦¹ à¦ľ
à¦ľ à¦¶à¦ķ
Ġà¦ħ à¦¹à¦®
à¦Ĺ à¦°à¦¦
à¦§ à¦¶à¦¤
Ġà¦Ĺ à¦ľà¦°
à¦£ à¦ł
à¦£ à¦¸à¦®
Ġà¦ıà¦ķ à¦¹
à§ĥ à¦Ĥ
ĠĠ ĠĠĊ
à¦Ļ à¦ķ
Ġà¦ĵ à¦¬
Ġà¦« à¦²à¦¬
à§ľ à¦Ł
Ġà¦ªà¦° à¦Ĺà¦¨
à¦°à¦£ à¦ªà¦¤
à¦¿à¥¤ âĢ¦
à¦Ŀ à¦®
Ġà¦ıà¦ĩ à¦ļ
à¦°à¦¬ à¦ªà¦ķ
Ġà¦¸à¦¬ à¦¦
Ġà¦Ĩà¦¸ à¦¸
Ġà¦ķà¦¥ à¦¨
Ġà¦ĩ à¦®à¦ª
Ġà¦¬à¦¨ à¦²à¦¤
Ġà¦ħà¦¸ à¦¤à¦¤
à¦¤à¦¨ à¦ĩ
Ġà¦Ĩà¦¨ à¦¸
à¦¾à¦Ĥ à¥¤
Ġà¦ĺà¦° à¦¦
Ġà¦ĺà¦° à¦Ľ
Ġà¦ľà¦² à¦Ń
à¦®à¦¤ à¦¤
Ġà¦ķà¦¤ à¦ķà¦Ł
à¦ĩà¦¨ à¦«
à¦¾âĢĶ âĢĻ
à¦¸à¦® à¦Ĺ
à¦ªà¦¥ à¦Ĺ
à¦¬à¦ķ à¦¥
Ġà¦Ĩà¦§ à¦Ł
Ġà¦¶à¦¤ à¦¦
Ġà¦¦à¦¶ à¦°à¦¥
à¦ľà¦® à¦¹à¦²
Ġà¦¦à¦® à¦¦à¦®
à¦¬à¦Ń à¦Ļ
à¦Ī à¦¯
à¦¬à§Ł à¦¬
or y
Ġà¦®à¦Ĺ à¦§à¦°
Ġà¦ıà¦ķà¦ª à¦²à¦ķ
ĠI nd
Ġà§§à§¦ à§¦
à§§à§¯à§ Ń
Ġà¦ķà¦ļà¦ķ à¦ļ
ub lis
i el
Ñ Ģ
Ñ ģ
à¦¿ à¦¾
à¦¨ à¦¥
à¦¨ à¦°à¦¤
à¦¨ à¦¬à¦ª
à¦¨ à¦ķà¦²
à¦ķ à¦¦à¦®
à¦® à¦ł
à¦® à¦ĵà¦¯
à¦® à¦¦à¦°
à¦® à¦ļà¦ķ
à§ĭ à§ĩ
Ġà¦¬ à¦ĸ
Ġà¦¬ à¦®à¦¬
Ġà¦¬ à¦ļà¦¸
à¥¤ [
à¦ĩ à¦ĵà¦¯
Ġà¦¦ à¦ĸ
Ġà¦¹ à¦īà¦ķ
Ġà¦ħ à§°
à¦§ à¦°à¦£
à¦¡ à¦¦
Ġà¦Ĺ à¦°à¦ľ
Ġà¦¶ à¦¤à¦¬
Ġà¦Ń à¦°à¦¬
Ġà¦° à¦ĩà¦¬
Ġà¦Ĩà¦® à§ľ
Ġà¦Ĩà¦® à¦²à¦ķ
à¦¼à¦¾ à¥¤âĢĿ
Ġà¦ī à¦Łà¦ķ
à¦¾à¦ģ âĢĻ
Ġà¦ĵ à¦¤à¦ª
Ġà¦ĸ à¦ĩ
à¦°à¦¤ à¦¬
à¦¬à¦¨ à¦°
à¦Ĩ à¦°à¦¬
à¦Ĩ à§Łà¦¨
Ġà¦¹à¦² à¦ĺà¦°
Ġà¦ĩ à¦Ĺ
Ġà¦ľà¦¨ à¦®à¦¤
à¦¬à¦² à¦°
Ġà¦ıà¦¸ à¦®
à¦°à¦® à¦²
à¦ķà¦Ł à¦°
à¦ħ à¦¯
à¦Ĺà¦² à¦Ľ
à¦Ĺà¦² à¦¬à¦¨
à¦°à¦¹ à¦¶
à¦°à¦¶ à¦¬
à¦ĩà¦² à¦¸
âĢ¦ à¥¤âĢĻ
Ġà¦¶à¦¹à¦° à¦Ĺ
à§İà¦ķ à¦®
à¦¿âĢĶ âĢĺ
à¦ļà¦ķ à¦£
à¦ľà¦² à¦°
Ġà¦Ī à¦ª
Ġà¦Ĩà¦¦ à¦ª
Ġà¦¦à¦² à¦¬à¦²
à¦¬à¦¶ à¦Ļ
à§ĭâĢĶ âĢĺ
Ġà¦Ĺà¦£ à¦ľ
Ġà¦ıà¦¸à¦¬ à¦ĩ
à¤ Ĥ
à§ĩ?âĢĿ âĢĶ
à¦¥à¦² à¦ľ
à¦ķà§ľ à¦¸
,âĢĿ âĢĶ
Ġà¦ļà¦Ł à¦ķà¦²
à¦¬à¦Ł à¦Ĺ
à§ª à§©
à§® à§®
Ġà¦Ŀà¦ķ à¦®à¦ķ
Ġà¦°à¦® à¦°à¦®
ou s
Ġm ar
Ġn ame
ĠB o
à¦¤à¦°à¦¬ à¦Ļ
p e
Ġ =
Ġ ì
Ġ à§ľ
à¦¨ à¦®à¦¨à¦¸
à¦¬ à¦ªà¦°
à¦¬ à¦ķà¦¤
à¦® à¦²à¦ķ
à¦® à§İà¦¸
à¦® à¦ªà¦¥
Ġà¦¸ à¦ªà¦¤
à¦¸ à¦¶
Ġà¦Ĩ à¦ī
Ġà¦Ĩ à¦ĩà¦Ľ
à¦¦ à¦ĺà¦¨
à¦ª à¦§
Ġà¦¹ à¦Łà¦¤
à¦ľ à¦ķà¦¤
Ġà¦ķà¦° à¦®
à¦¹ à¦ĸ
Ġà¦ļ à¦ĵà§ľ
Ġà¦Ń à¦°à¦²
Ġà¦Ń à§ľà¦ķ
à¦ĵ à¦Ń
Ġà¦¬à¦² à¦ª
Ġà¦ĵ à¦°à¦ĩ
Ġà¦« à¦¯
à¦¾à¥¤ )
Ġà¦®à¦¨ à¦ĩ
Ġà¦®à¦¨ à¦¨à¦ķ
à¦ī à¦¨à¦ķ
à¦°à¦¬ à¦¬
à¦¤à¦° à¦¹
à¦ı à¦Ĩà¦ĩ
à¦°à¦ķ à¦¯
Ġà¦Ł à¦Ļ
Ġà¦ľà¦¨ à¦¸à¦Ń
à¦¨à¦¤ à¦¨
Ġà¦Ĩà¦ľ à¦®
Ġà¦ħà¦¸ à¦¹à¦¨
à¦²à¦ķ à¦¬
Ġà¦¶à¦¬ à¦¬
Ġà¦¬à¦° à¦¯
à¦°à¦¹ à¦Ł
à¦¹à¦¸ à¦ĩ
à¦Ľà¦¨ à¦¦
à¦²à¦¨ à¦¸
Ġà¦¬à¦Ľà¦° à¦ĸ
Ġà¦ħà¦² à¦°
Ġà¦ĩà¦¨ à¦Ń
Ġà¦¶à¦¤ à¦¶
Ġà¦¬à¦ķ à¦Ľ
à§¦ à§§
à¦°à¦¹à¦£ à¦ķ
à§¨ à§§
Ġà¦ªà¦¶ à¦®
à§§à§ ¬
à¦ĩà§Ł à¦°
Ġà¦Ĭ à¦¨à¦¬
an g
Ġà¦¸à§İ à¦¤
à¦Ī à¦¦
er s
Ġà¦¨à§ľ à¦Ľ
Ġà¦ĵà§ľ à¦¨
Ġà¦°à¦¹ à¦®à¦¤
Ġp H
ic h
Ġà§« à§¦
à§§à§¯à§ ª
Ġà¦ķà¦¨à¦ķ à¦¦
id e
Ġà¦¬à¦Ľ à¦°à¦ĩ
qu i
T he
i an
o y
r it
s elf
Ù Ħ
à ª
Ġ ..
à¦¾ .
à§ĩ /
à¦° à¦ļà¦°
à¦¨ à¦ªà¦ķ
à¦² à¦ĺà¦°
à¦² à¦Ńà¦°
à¦² à¦ľà§Ł
à¦ķ à¦°à¦¤
à¦® à¦¬à¦°
à¦® à¦¤à¦¨
à¦® à¦²à¦¬
à¦® à¦Ĺà¦°
à¦® à¦ĺà¦°
à§ĭ à¦ĥ
Ġà¦¬ à¦¬
à¦ª à¦®à¦¯
Ġà¦¦ à¦ĩà§Ł
à¦Ľ à¦Ľ
Ġà¦¤ à§İà¦¸
à¦¶ à¦ľà¦¨
à¦¶ à¦²à¦¤
à¦¼à§ĩ ?âĢĻ
âĢ ¨
Ġà¦ħ à¦ĩ
à¦· à¦«
à¦· à¦°à¦¬
à¦§ à¦¡
à¦ļ à¦Ļ
à¦¹ à¦ļ
à¦¥ à¦°à¦ķ
Ġà¦° à¦¦
à§ĩà¥¤ âĢĵ
Ġà¦ıà¦ķ à¦¤à¦°à¦«
à¦¼à¦¾ à¥¤âĢĻ
à§ĩ, âĢĶ
Ġà¦² à¦Łà¦ķ
à¦°à¦¬ à¦Ń
à¦¤à¦° à¦¦
à¦¤à¦° à¦ľ
Ġà¦¸à¦¬ à¦°à¦ķà¦®
Ġà¦Ł à¦ªà¦Łà¦ª
à¦Ĩ à¦¬à¦°
à¦Ĩ à¦²à¦®
à¦ĺ à¦ľ
à¦ĺ à¦¸à¦®à¦¯
Ġà¦ĩ à¦·
à§Ī à¥¤
à¦°à¦® à¦ĩ
à¦²à¦ķ à¦°à¦¤
Ġà¦Ĩà¦¨ à¦ķ
Ġà¦Ĩà¦ªà¦¨ à¦ķ
à¦Ĺà¦² à¦®à¦¯
Ġà¦īà¦ª à¦¸à¦°
Ġà¦ķà¦² à¦Ł
Ġà¦ķà¦® à¦°
à¦°à¦ª à¦Ł
à¦ıà¦ķ à¦ķ
à§° à¦Ń
Ġà¦ĭ à¦Ĺ
Ġà¦ķà¦¨ à¦Ń
Ġà¦ļà¦Ł à¦ľà¦²à¦¦
Ġà¦ıà¦°à¦ķà¦® à¦ĩ
à§¯à§ ©
Ġà¦Ńà¦Ĺ à¦¬à¦¤
à¦ľà¦Ĺà¦¤ à¦ķ
à¦¨à¦ľà¦¨ à¦ĩ
it er
Ġà¦Ĩà¦ĩ à¦¶
Ġb row
Ġf iel
ĠS ave
ĠI n
à§§à§¯à§ «
ĠC omment
ig ht
Ġà¦ĸà¦ļ à¦ĸà¦ļ
à§ĩà§Ĺ à¦ģ
Ġà¦ľà¦¬à¦° à¦¦à¦¸
Ġad d
aut y
Ġfiel ds
a in
e p
i ke
o k
u g
Ġ r
à¦° à¦Ĺà¦°
à¦¤ à¦¤à¦ķ
à¦¯ à¦ļà¦ķ
à¦¬ à¦§à¦°
Ġà¦¸ à¦ªà¦ķ
à¥ ģ
à¥ ĭ
à¥¤ âĢĶâĢĻ
à¦¸ à¦¬à¦¨
à¦¸ à¦®à¦°
à¦¦ à¦¹à¦¨
Ġà¦® à¦°à¦¸
à¦ĩ à¦Ļ
Ġà¦ħ à§Ł
Ġà¦ħ à¦°à¦ķ
à¦· à¦ļ
à¦· à¦°à¦¹
à¦§ à¦¨à¦ĵ
à¦¡ à¦¬à¦ķ
à¦ģ -
à¦£ à¦£
à¦£ à¦¤à¦°
Ġà¦¶ à¦ķà¦Ł
Ġà¦ļ à¦ļ
à¦¾à¦ģ âĢĶ
Ġà¦ĸ à¦ķ
à¦¾à¥¤ à¥¤
Ġà¦¸à¦® à¦¦
Ġà¦ĺ à¦°à¦ķ
à¦¬à¦¨ à¦Ĺ
à¦¬à¦¨ à¦Ń
à¦¬à¦¨ à¦ļà¦ķ
à§İ à¦¶
à¦ī à¦Łà¦¨
à¦ī à¦ĩà§Łà¦°
Ġà¦¸à¦¬ à¦ķà¦Ł
à¦¬à¦° à¦ª
âĢĿ !
à¦Ĩ à¦°à¦£
à¦Ĩ à¦¸à¦¨
à¦Ĩ à¦¸à¦Ľ
à¦°à¦® à¦¸
à¦°à¦® à¦§
Ġà¦ħà¦¸ à¦ļ
Ġà¦Ĺà¦² à¦¸
à¦ħ à¦·
à¦¦à¦° à¦¦
Ġà¦ľà¦² à¦¹
Ġà¦¸à¦° à¦·
Ġà¦ħà¦¤ à¦²à¦¸
à¦°à¦¹ à¦¨
à¦°à¦¹ à¦°à¦Ĺ
Ġà¦ıà¦®à¦¨ à¦¤à¦°
Ġà¦ħà¦ª à¦ķà¦°
âĢ¦ âĢ¦
Ġà¦«à¦² à¦ĵ
Ġà¦ħà¦² à¦¸à¦¤
Ġà¦Ĳ à¦°
Ġà¦ıà¦ķà¦ľà¦¨ à¦ĩ
à§° à¦ľà¦°
Ġà¦¤à¦² à¦ª
Ġà¦ĭ à¦ķ
à¦Ĺà¦® à¦Ĺ
à§¨ à§ª
à¦®à¦¦ à¦ķ
à¦°à¦« à¦°
à¦¾âĢ¦ à¥¤
à§¬ à§¦
is hak
Ġc omment
à¦ĭ à¦¦
Ġm e
à§¨à§¦à§¦ à§«
Ġp ublis
Ġà¦łà¦ķ à¦łà¦ķ
Ġà§§à§¯à§ª à§ª
Ġà¦ĸà¦² à¦ĸà¦²
ĠN ame
Ġà¦¸à¦¬à¦¸à¦®à§Ł à¦ĩ
ĠE mail
Ġwe bs
à§ľà¦¸ à¦ĵà§Ł
Ġtr uth
ĠU n
ĠY our
Ġmar ked
qui red
Ġbrow ser
Ġadd ress
ishak h
Ġpublis hed
Ġwebs ite
! !
- âĢĺ
T E
a h
h y
i b
i z
o he
t e
Ð ¸
Û Į
Ġ +
Ġ ×
Ġ at
Ġ un
à¦¾ à¦¾
à§į ?
à¦¨ à¦Ŀ
à¦² à¦¸à¦¨
à¦¬ à¦ľà¦¯
à¦¬ à¦¹à¦¤
à¦® à¦¬à¦²
à¦¼ à§ģà¥¤
Ġà¦¬ à¦Ń
Ġà¦¸ à¦ªà¦°
à¦¸ à¦®à¦¨
à¦¸ à¦¹à¦¯
Ġà¦Ĩ à¦ĩà¦¬
à¦¦ à¦ĸà¦²
à¦Ł à¦°à¦¸
à¦ĩ à¦¸à¦Ļ
à¦ĩ à¦īà¦¨
Ġà¦ı à¦Ńà¦°
Ġà¦¹ à¦°à¦¤
à¦ľ à§Łà¦¨
Ġà¦ħ à¦¶à¦¨
à¦Ĺ à¦®à¦ķ
à¦· à¦°à¦ķ
Ġà¦¯ à¦ľà¦¨
à¦§ à¦¬à¦¦
à¦ļ à¦¦
à¦ļ à¦ķà¦²
à¦ļ à¦ĵà¦¡
Ġà¦ķà¦° à¦ľ
à¦¹ à¦Ńà¦°
Ġà¦Ĺ à¦°à¦²
à§ĩà¥¤ âĢĺ
à¦Ń à¦ĩ
à¦Ń à¦²à¦¬
ĠĠ ĠĊ
âĢĶ âĢĿ
à§ľ à¦Ń
à¦¾à¥¤ âĢĺ
Ġà¦ĺ à¦¨à¦¤
âĢĻ !âĢĿ
à¦¼à¦¿ !
à¦Ŀ à¦¬à¦¯
à¦ŀ à¦ķ
à§İ à¦²
à§İ à¦ľ
à¦ī à§İà¦ª
à¦« à¦¸à¦²
à¦¤à¦° à¦Ń
Ġà¦Ĩà¦² à¦ª
à¦¬à¦° à¦§
à¦°à¦ķ à¦¥
à¦Ĩ à¦ł
à¦Ĩ à¦¬à¦Ľ
Ġà¦®à¦¤ à¦Ń
Ġà¦ĩ à¦¥
Ġà¦ĩ à¦ķà¦¬
Ġà¦ĩ à¦¹à¦²
Ġà¦Ŀ à¦Ĺà§ľ
à§ģà¦ģ ,
âĢĵ âĢľ
à¦·à¦£ à¦Ń
Ġà¦¬à¦¨ à¦«
Ġà¦ªà¦¥ à¦¨
Ġà¦ªà¦¥ à¦Ń
à¦¤à¦¨ à¦¬
à¦°à¦¨ à¦Ĺà¦°
Ġà¦Ĩà¦ªà¦¨ à¦®à¦¨
Ġà¦¸à¦¨ à¦¦
Ġà¦®à¦¹ à¦¡
à¦®à¦¤ à¦®
Ġà¦ħà¦ª à¦Ń
âĢ¦ ..
Ġà¦ıà¦Ĺ à¦ľ
à¦°à¦ª à¦ķ
à¦ıà¦ķ à¦®
à¦ļà¦ķ à¦ķ
Ġà¦ıà¦ķà¦¬ à¦ļà¦¨
à§° à¦¨
à§° à¦¯
à¦¸à¦« à¦²
à¦°à¦®à¦£ à¦ĩ
à¦¹à¦¤ à¦Ń
Ġà¦¬à¦ī à¦°
à¤ ¦
à¤ ®
Ġà¦¶à¦¹ à¦°à¦ľ
Ġà¦Ĩà§ľ à¦ļ
à¦ľà§Ł à¦ķ
à¦Ī à¦ľ
Ġà¦Ĩà¦Ł à¦ĸ
Ġà¦¸à¦°à¦¸ à¦°
Ġin d
el l
Ġà¦ıà¦ķà¦Ŀ à¦²à¦ķ
Ġà§¯à§ «
if e
ºçľºçľ ºçľºçľ
·çľ·çľ ·çľ·çľ
ĠRe quired
- -
. -
Å ĵ
à§ ±
Ġà¦ £
à¦¾ )à¥¤
à§ĩ à§ĩ
à§ĩ âĢĿà¥¤
à¦¿ à§ĩ
à¦¿ ),
à¦¨ à¦®à¦Ĺ
à¦¤ à¦ĺà¦¡
à¦² à¦Ĺà¦²
à¦² à¦¸à¦®
à¦ķ à¦¤à¦¬
à¦ķ à¦¢
à¦ķ à§°
à¦¯ à¦§à¦°
à¦¬ à¦®à¦¨
à¦® à¦®à¦¨
Ġà¦ķ à¦ĩà¦¤
Ġà¦¬ à¦ķà¦°
Ġà¦¸ à¦¦à¦²
Ġà¦Ĩ à¦£
à¦ĩ à¦·
à¦ª à¦¤à¦°
à¦ª à¦ķà¦¤
Ġà¦¦ à¦²à¦ķ
Ġà¦¤ à¦ķà¦®
Ġà¦¤ à¦¹à¦¬
Ġà¦¹ à¦°à¦²
à¦ľ à¦ªà¦¤
à¦¶ à¦¨à¦ĵ
à¦ĸ à¦°à¦ļ
à¦¼à§ĩ âĢĻ
Ġà¦ħ à¦ľà¦¨
à¦Ĺ à¦¶
à¦Ĺ à¦Ńà¦°
à§Ł à¦¤à¦¨
à¦§ à¦®à¦¯
à¦ļ à¦ĸ
à¦ļ à¦¬à¦°
à¦¹ à¦¬à¦¨
à¦¥ à¦¡
Ġà¦ıà¦ķ à¦¤à¦®
Ġà¦ıà¦ķ à¦ĸà¦£
à¦ł à¦ļ
à§Ĥ ,
à¦°à¦£ à¦®
à§Į -
Ġà¦¡ à¦¨
Ġà¦¡ à¦Ł
Ġà¦¡ à¦Ĺà¦®à¦Ĺ
Ġà¦¹à¦² à¦ķ
Ġà¦ıà¦¸ à¦®à¦¯
Ġà¦ħà¦¸ à¦¹à¦¯
à¦ķà¦° à¦Ń
à¦¤à¦¬ à¦®
à¦¤à¦¬ à¦°à¦£
Ġà¦¹à¦¤ à¦ļ
Ġà¦¹à¦¤ à¦ļà¦ķ
à¦°à¦¥à¦® à¦ľà¦¨
Ġà¦ĺà¦° à¦ĸ
à¦¿à¦Ĥ âĢĿ
Ġà¦ľà¦² à¦¯
à¦°à¦¹ à¦ķ
à¦¨à¦¬ à¦®
à¦¨à¦¬ à¦ļ
à¦§à¦¨ à¦¶
à¦°à¦¦ à¦¤
à¦°à¦¦ à¦²
à¦°à¦¯ à¦¨
Ġà¦ĵà¦ªà¦° à¦ĩ
à¦ĩà¦¨ à¦®
Ġà¦ħà¦ľ à¦®
à¦Ĺà¦¨ à¦°à¦ķ
Ġà¦¯à¦¤ à¦Ĺ
Ġà¦ªà¦¦ à¦¶à¦¬
à¦¬à¦¦ à¦°à¦¬
Ġà¦ħà¦Ĺ à¦£à¦¨
à¦ıà¦ķ à¦ľ
Ġà¦Ĳ à¦ķà¦¤
Ġà¦Ĩà¦ļ à¦®
Ġà¦Ĩà¦¦ à¦¬
Ġà§§à§ §à§
Ġà¦ļà¦ķ à¦®à¦ķ
à§¨ à§©
Ġà¦īà§ľ à¦¬
Ġà¦¬à¦ī à¦²
Ġà¦¬à¦ī à§Ł
à¦¤à¦¸ à¦Ń
he n
à§© à§¦
Ġà¦ħà¦®à¦¨ à¦ĩ
Ġà¦ıà¦°à¦ªà¦° à¦ĵ
à§ĭ?âĢĿ âĢĶ
à¦Ĳ à¦¶
Ġw or
Ġa m
Ġs o
à§Ģà¦Ĥ à¥¤
à¦°à¦¬à¦£ à¦¶à¦ķ
Ġà¦¨à¦ĵ à¦¶
ol d
ag e
Ġcol lect
ĠBo ishakh
ohe la
1 7
a f
n ow
u d
Ð ½
Ġ im
à§ĩ ..
à§į âĢĻ,
à¦¨ à¦ªà¦¦
à¦¤ à¦¸à¦®
à¦¤ à¦ªà¦¥
à¦¤ à¦¸à¦ķ
à¦² à¦¤à¦°
à¦² à¦ļà¦ķ
à§ģ !âĢĻ
à¦¯ à§İà¦ķ
à¦¬ à¦°à¦¬à¦°
à¦® à¦§à¦°
à¦¼ âĢĻà¥¤
à¥¤ -
Ġà¦ª à¦¸à¦°
Ġà¦ª à§Łà¦²
à¦¦ à¦ķà¦¤
à¦¦ à¦®à¦¤
à¦Ł à¦ľà¦¨
à¦Ł à¦ķà¦Ł
Ġà¦® à¦°à¦ķ
Ġà¦® à¦ļà¦ķ
à¦ĩ à¦ī
à¦ĩ à¦ķà¦Ł
Ġà¦¤ à¦°à¦®
Ġà¦ı à¦·
Ġà¦¹ à¦Łà¦²
à¦ľ à¦®à¦£
à¦ĸ à¦¹
à¦ĸ à¦¢
Ġà¦ħ à¦«à¦²
à¦Ĺ à¦ªà¦¤
à¦Ĺ à¦Ĺà¦¨
Ġà¦¯ à¦®à¦¦
à¦§ à¦¬à¦¤
à¦§ à¦ľà¦¯
à¦¹ à¦¨à¦¤
Ġà¦Ń à¦¡
Ġà¦ıà¦ķ à¦®à¦¨
Ġà¦ī à¦¶
Ġà¦ī à¦¤à¦°
Ġà¦ĸ à¦Ĺ
Ġà¦§ à¦®
ĠâĢ Ŀ
à¦¬à¦¨ à¦¡
à¦°à¦£ à¦¹
Ġà¦ıà¦ĩ à¦°
à¦°à¦¬ à§İ
Ġà¦Ĩà¦² à¦Ł
Ġà¦Ł à¦Ĺà¦°
à¦Ĩ à¦ªà¦¦
Ġà¦Ŀ à¦®
Ġà¦Ĩà¦ľ à¦°
à¦ħ à¦£
à¦²à¦ķ à¦ª
à¦ķà¦¤ à¦®
à¦¨à¦ĵ à¦ĸ
à¦¯à¦¬ à§Łà¦¸
Ġà¦ľà¦² à¦ĵ
Ġà¦ľà¦² à¦ļà¦°
Ġà¦ľà¦² à¦Ľà¦Ł
Ġà¦ħà¦ª à¦ª
à¦¿à¦ĥ ,
à¦ĩà¦¨ à¦ķ
Ġà¦Ńà¦° à¦Ľ
à§Ģ, âĢĿ
à¦Ńà¦¬ à§İ
Ġà¦ķà¦® à¦£
à§ģâĢĻ ,
à§ģ, âĢĿ
à¦¤à¦¤ à¦¸
à¦¼à§ĩà¥¤ âĢĻ
Ġà¦«à¦² à¦Ł
Ġà¦ĩà¦¨ à¦¡
à¦°à¦ķà¦® à¦ĩ
Ġà¦¸à¦®à§Ł à¦Ł
à¦¸à¦« à¦²à¦¤
Ġà¦¶à¦¤ à¦Ĺ
à¦¨à¦¸ à¦ĩ
à¦¾âĢĻ -
Ġà¦īà§İà¦¸à¦¬ à¦Ĺ
à¦ķà¦¥ à¦ķ
à¤ Ł
à¦¬à¦¹ à¦®
à¦¨à¦ª à¦ŀ
he re
Ġà¦¹à¦ĩ à¦¹à¦ĩ
in e
Ġà¦Ĩà§Ł à¦¤à¦¨
at e
Ġà¦Ĩà¦Ł à¦¤à¦²
it ion
is h
om p
as s
ĠA I
Ġà¦ľà¦¨à¦ªà¦¦ à¦¬
à¦ĩà¦°à¦ķà¦® à¦ĩ
Ġà¦®à¦¦à¦¨ à¦¬
Ø§ Ø
Ġà§§à§¯à§¦ à§«
Ġà¦Ĩà¦ĵ à¦°à¦¤
! âĢ¦
) âĢĵ
1 2
T I
b ut
h at
i a
i e
n ing
o ve
Ã ©
Ù ħ
æ Ĺ
Ġ #
Ġ al
Ġ ro
à¦° à¦ĵà§Ł
à¦¨ à¦ł
à¦¨ à¦°à¦ķà¦®
à¦¤ à¦ĺ
à¦¤ à¦²à¦¬
à¦² à¦£
à¦ķ à¦¬à¦¨
à¦¯ à¦ªà¦¨
à¦¬ à¦ļà¦°
à¦® à¦ľà¦¨
à¦® à¦¬à¦¤
Ġà¦ķ à¦¤à¦°à¦ķà¦®
Ġà¦¸ à¦²à¦¤
à¦¸ à¦®à¦ķ
Ġà¦Ĩ à¦£à¦¬
à¦¦ à¦Ļ
à¦Ł à¦¤à¦°
Ġà¦® à¦°à¦¹
à¦ª à¦¬à¦¨
à¦ª à¦ľà¦¨
à¦ª à¦Łà¦ķ
à§Ģ !âĢĿ
Ġà¦¹ à¦¸à¦ª
à¦ľ à¦īà¦¦
à¦ĸ à¦°à¦¤
à¦ĸ à¦Ńà¦°
à¦· à¦ĸ
à¦¡ à¦¤
à¦ļ à¦¦à¦¶
à¦¹ à¦Ĺà¦¨
Ġà¦¶ à¦ľ
Ġà¦¶ à¦°à¦¶
à¦ĵ à¦Ľ
Ġà¦ıà¦ķ à¦§
Ġà¦ıà¦ķ à¦¶à¦¤
Ġà¦Ľ à¦²à¦ķ
Ġà¦Ĩà¦® à¦°à¦£
à¦ł à¦«
à¦ł à¦Ĺà§ľ
Ġà¦ī à¦ľà¦²
à¦¾à¦ģ !
à¦Ĥ âĢĶ
Ġà¦« à¦ľà¦°
Ġà¦ĸ à¦²à¦¨
à¦¬à¦¨ à¦ļ
Ġà¦ıà¦ĩ à¦Ĺ
à¦ŀ à¦¦
à¦¿, -
à¦ľà¦¨ à¦ķà¦Ń
à¦« à¦²à¦¤
à¦°à¦¬ à¦¸à¦Ń
à¦¤à¦° à¦²
à¦¬à¦° à¦¸
à¦¬à¦° à¦ĵ
à¦°à¦ķ à¦ķ
à¦·à¦£ à¦¤
Ġà¦¬à¦¨ à¦°
Ġà¦ªà¦¥ à¦¶
Ġà¦ħà¦¸ à¦®à§Ł
à¦ħ à¦§à¦°
Ġà¦¹à¦¤ à¦¶
Ġà¦¶à¦¬ à¦¦
à¦¿à¦Ĥ !
à¦¯à¦¬ à¦ĩà§Ł
Ġà¦ľà¦² à¦¨
à¦¨à¦¬ à¦¹
à¦§à¦¨ à¦®
à¦ĩà¦¨ à¦°
ĠâĢĶ -
Ġà¦¬à¦ĩ à¦¸
Ġà¦¬à¦Ľà¦° à¦Ĺ
à¦®à¦£ à¦¬
à¦°à¦ª à¦ŀ
à§įâĢĮ âĢį
à¦ıà¦ķ à¦ĸ
à¦ļà¦ķ à¦ļà¦ķ
Ġà¦ĩà¦¨ à¦¶
à§° à¦®à¦£
à¦ľà¦² à¦§
Ġà¦¸à¦®à§Ł à¦®à¦¤
à¦ĺà¦° à¦Ĺ
Ġà¦ıà¦ķà¦ĩ à¦°à¦ķà¦®
à§ĩâĢ¦ )
à¦¸à¦¹ à¦®à¦°
Ġà¦ªà¦°à¦¶ à¦®à¦£
Ġà¦Ĩà¦ĩà¦¨ à¦ľ
Ġà¦¸à§İ à¦ļà¦°
à¦Łà¦¸ à¦ħ
Ġà¦¨à¦Ĺ à¦°à¦¬
à¦Ĩà¦ļ à¦®à¦ķ
Ġp ro
om e
Ġà¤ ¸
Ġh is
ĠP ohela
à§ĩâĢĿ âĢĵ
à§§à§¯à§ ©
à§§à§¯à§ ¬
ĠT H
Ġà§§à§¯à§¯à§ «
Ġà¦īà¦Ńà§Ł à¦ĩ
Ġà§¦ à§¨
Ġà¦ªà¦°à¦ªà¦° à¦ĩ
Ġà¦Łà¦¹à¦² à¦¦
éŁ¿éŁ¿éŁ¿éŁ¿éŁ¿éŁ¿éŁ¿éŁ¿éŁ¿éŁ¿éŁ¿éŁ¿éŁ¿éŁ¿éŁ¿éŁ¿ éŁ¿éŁ¿éŁ¿éŁ¿éŁ¿éŁ¿éŁ¿éŁ¿éŁ¿éŁ¿éŁ¿éŁ¿éŁ¿éŁ¿éŁ¿éŁ¿
à§§à§¯à§« à§¨
1 1
1 4
1 6
2 4
; âĢĶ
I N
i ver
p or
u c
Ð »
Ù Ī
à °
Ġ le
Ġ áĥ
à¦¾ /
à§ĩ ...âĢĿ
à¦° à¦ħ
à¦¨ à¦Ĺà¦¤
à¦¤ à¦ªà¦¨
à¦¤ à¦ªà¦¤
à¦¯ à¦¤à¦¨
à¦¯ à¦ªà¦¦
à¦¯ à¦ªà¦ķ
à¦¬ à¦ĺ
à¦¬ à¦®à§Ł
à¦® à¦°à¦¸
à¦® à¦¹à¦¸
Ġà¦ķ à¦ĵ
à¦¸ à¦ľà¦²
à¦¸ à¦¯à¦ľ
Ġà¦Ĩ à¦ĩà¦ľ
à¦Ł à¦ªà¦¤à¦Ļ
Ġà¦¨ à¦¬à¦ª
Ġà¦® à¦«
à¦ª à¦¬à¦°
Ġà¦¤ à¦²à¦¬
Ġà¦¹ à¦°à¦¹
Ġà¦¹ à¦Łà¦¬
Ġà¦¹ à¦°à¦Ĺ
à¦ľ à¦®à¦¹
à¦¶ à¦ªà¦°à¦®
à¦¼à§ĩ )
à¦Ĺ à¦®à¦¯
à¦Ĺ à¦®à§Ł
Ġà¦¯ à¦¤à¦¨
à¦¡ à¦²à¦ķ
à¦ļ à¦ķà¦¤
Ġà¦ķà¦° à¦¦
à¦¹ à¦°à¦ķ
à¦£ à¦ĸ
à¦£ à§Ł
Ġà¦ľ à¦¹à¦°
Ġà¦° à¦ĵà¦¯
à¦ł à¦ĸ
à¦¼à¦¾ à¦ĥ
à¦¼à¦¾ âĢ¦
Ġà¦¥ à¦ķà¦¥à¦ķ
Ġà¦ĸ à¦°à¦¸
Ġà¦ħà¦¨ à¦§
à¦¾à¥¤ âĢĶ
Ġà¦§ à¦¨à¦¬
à¦¬à¦¨ à¦¹
à¦¼à¦¿ âĢĵ
à§İ à¦°
à¦ī à¦¶
à¦ī à¦Łà¦°
à¦ľà¦¨ à¦ª
à¦ľà¦¨ à¦§
à¦ľà¦¨ à¦¬à¦°
à¦ľà¦¨ à¦ªà¦¦à¦¬
à¦¬à¦° à¦ļà¦¨
à¦Ĩ à¦·
à¦Ĩ à¦Łà¦ķ
Ġà¦ľà¦¨ à¦ªà¦¥
âĢĵ âĢĿ
à¦¨à¦¤ à¦¤
Ġà¦¬à¦¨ à¦ªà¦¥
à¦¤à¦¬ à¦¯
à¦ķà¦¤ à¦Ł
Ġà¦ľà¦² à¦®à¦Ĺ
Ġà¦¸à¦° à¦Ľ
Ġà¦īà¦ª à¦ªà¦¤
à¦§à¦¨ à¦Ł
à¦ĩà¦² à¦«à¦²à¦ķ
Ġà¦ħà¦ª à¦¤
à¦ªà¦¦ à¦ļ
à¦ıà¦ĩ à¦ĸ
Ġà¦ħà¦ķ à¦®
Ġà¦°à¦Ļ à¦ļà¦Ļ
à¦¨à¦ķ à¦ķ
à¦¨à¦ķ à¦£
à§ģâĢĻ à¥¤
Ġà¦ħà¦Ĺ à¦Ń
à¦·à¦ķ à¦¶
à§įâĢĮ âĢĻ
à¦ıà¦ķ à¦¶
à¦ıà¦ķ à¦¥
Ġà¦ıà¦ķà¦ľà¦¨ à¦ĵ
à¦¬à¦ķ à¦£
Ġà¦¶à¦¤ à¦¦à¦²
Ġà¦¦à¦° à¦ĸ
à§¦ à§©
à§¦ à§¯
à§¨ à§¬
à§¨ à§¯
Ġà¦®à¦ľ à¦¦
Ġà¦ªà¦¶ à¦²
à§ĩâĢ¦ à¥¤âĢĿ
à¦ķà¦°à¦£ à¦ª
à¦¬à¦¹ à¦£
à§© à§§
an s
à¦¾à¦ĥ âĢĵ
à¦¾âĢ¦ âĢĻ
Ġà¦¸à§İ à¦ļ
Ġà¦¸à§İ à¦Ń
à¦¬à¦ľà¦¨ à¦¦
à¦¿âĢ¦ à¥¤
à§Ń à§®
on s
Ġà¦¦à¦ĸà¦² à¦¦
Ġthe ir
à§ĩ,âĢĿ âĢĶ
Ġc l
Ġà§ª à§¦à§¦
Ġl ike
ul t
à¦·à¦² à¦§
Ġ19 6
Ġcon t
ãģ ®
Ġà¦¹à¦ľ à¦°à¦¤
Ġà¦¸à¦¦à¦² à¦¬à¦²
Ġcollect ive
æĹ ¥
, âĢĵ
1 3
1 5
2 0
2 3
c k
g al
p er
y a
Ù Ĩ
Ù İ
à§ĩ )à¥¤
à§į âĢĶ
à¦¨ à¦ªà¦°
à¦¨ à¦¦à¦¯
à¦¨ à¦§à¦°
à¦¤ à§İ
à¦¤ à§İà¦ķ
à¦² à¦ķà¦²
à¦ķ à¦¬à¦²
à¦¯ à¦£
à¦¯ à¦°à¦ķ
à¦¯ à¦¬à¦²
à¦¬ à¦ķà¦¬
à¦¼ !âĢĻ
à§ĭ âĢĿà¥¤
à¥ Ĥ
à¥¤ âĢĶâĢĺ
à¦¸ à¦¤à¦°
à¦¸ à¦ªà¦¨
Ġà¦Ĩ à¦ĩà¦ķ
Ġà¦¨ à¦¬à¦¸
à¦ª à¦²à¦¬
à¦ª à¦ļà¦°
à§Ģ )
à¦Ľ à¦®
Ġà¦ı à¦¤à¦¬
Ġà¦ı à¦®à¦ª
à¦ľ à¦ªà¦°
à¦ľ à¦ĺ
à¦ľ à¦¸à¦®
à¦ľ à¦®à§Ł
à¦ĸ à¦ķà¦ķ
Ġà¦ħ à¦¤à¦¬à¦¡
à¦Ĺ à¦ªà¦°
à¦· à¦²à¦¤
Ġà¦¯ à¦ľà¦®
à¦§ à¦ľ
à¦§ à¦¬à¦ª
à¦¡ à¦¡
à¦¡ à¦ĵà§Ł
Ġà¦Ĺ à¦°à¦¬
Ġà¦° à¦ľà¦¸
à§ĩà¥¤ )
à¦Ń à¦ª
à¦Ń à¦ªà¦¤
Ġà¦ıà¦ķ à¦ĺà¦£
à¦ł à¦ĩ
à¦ł à¦ķà¦°
à¦ł à¦¨à¦Ł
Ġà¦ī à¦ĩà¦ķ
à¦¾à¦ģ ?âĢĻ
à§Ĥ à¥¤
Ġà¦ĵ à¦®à¦°
à§ľ à¦¹
Ġà¦§ à¦²
âĢĻ ?
Ġà¦®à¦¨ à¦ľ
à¦®à¦¨ à¦¦
à¦Ŀ à¦Ł
à¦ī à¦ªà¦ļ
à¦ľà¦¨ à¦Ł
à¦ľà¦¨ à¦ľ
à¦ªà¦¨ à¦¤
à¦ı à¦·
à¦°à¦ķ à¦°à¦£
à¦Ĩ à¦ĸ
Ġà¦¹à¦² à¦Ł
à¦ĺ à¦ª
Ġà¦ĩ à¦¶à¦¤
Ġà¦ľà¦¨ à¦¯
Ġà¦ľà¦¨ à¦¶à¦ķ
à¦¬à¦² à¦Ł
à¦·à¦£ à¦Ł
à¦·à¦£ à¦¹
à¦ķà¦² à¦ľ
Ġà¦ħà¦¸ à¦¦
Ġà¦ĵà¦ł à¦¤
à¦¤à¦¨ à¦ĵ
à¦ķà¦Ł à¦®à¦¯
à¦ħ à¦°à¦¬
à¦¸à¦¬ à¦Ł
à¦°à¦¸ à¦Ĺ
Ġà¦ħà¦¦ à¦ķ
à¦¦à¦¨ à¦ĩ
à¦Ĺà¦² à¦ĩ
à¦Ĺà¦² à¦ª
Ġà¦ľà¦² à¦ĩ
Ġà¦ľà¦² à¦¤à¦°à¦Ļ
à¦²à¦¤ à¦®
à¦®à¦¤ à¦Ń
à¦°à¦ľ à¦Ĺà¦¤
à¦¨à¦¬ à¦ľà¦¨
à¦ĸà¦² à¦¨
Ġà¦ķà¦² à¦°
à¦²à¦¬ à¦¦
à¦®à¦ķ à¦Ń
à¦¶à¦¨ à¦ĩ
à¦ļà¦² à¦®
Ġà¦ľà¦® à¦¬
à¦¾âĢĶ -
à§İà¦¸ à¦ķà¦¦
Ġà§ ·
à¦¦à§Ł à¦¬
Ġà¦ĵà¦ĩ à¦¦
à¦®à¦£ à¦¤
à¦¢ à¦ª
Ġà¦ªà¦¤ à¦ŀ
Ġà¦Ĩà¦¦ à¦°à¦£
Ġà¦Ĺà§ľ à¦¨
Ġà¦¦à¦² à¦Ľ
Ġà¦ķà¦ĸà¦¨à¦ĵ à¦¬
Ġà¦°à¦ķà¦® à¦Ł
à¦¼à¦¾, âĢĿ
Ġà¦¹à¦° à¦·
Ġà¦¸à¦Ń à¦¯
âĢĻ, âĢĻ
Ġà¦Ĺà¦£ à¦¸
à¤ µ
à¦īà¦² à¦¦
Ġà§¨ à§¦à§¦
à§ª à§¦
à¦ľà§Ł à¦Ĺ
à¦ľà¦Ĺ à§İà¦ķ
on d
Ġà¦¢à¦² à¦¢à¦²
Ġà¦°à¦¥ à¦¯
at er
à¦¯à¦¶ à¦¸
ou g
à¦ĩà¦ľà¦¨ à¦ĩ
à¦®à¦Ŀ à¦®
Ġn o
Ġà¦¨à¦ĸ à¦¦à¦°
ic al
ĠâĢ¦ à¥¤
Ġà¤ ª
Ġà¤ ¬
Ġà§§à§¯à§ª à§©
ig o
Ġà¦īà¦ĩ à¦¥
Ġà¦§à¦ª à¦§à¦ª
à¦ıà¦¨ à¦ı
ÂŃÂŃÂŃÂŃ ÂŃÂŃÂŃÂŃ
à¦¸à¦ĸà¦¨ à¦ĵ
Ġà¦®à¦ļ à¦®à¦ļ
à§§à§¯à§Ń à§§
æĹ¥ ãģ®
1 8
2 2
3 0
? âĢ¦
b or
n e
p t
t a
u e
w e
Ú ©
Ġ ë
à§ĩ à¥¥
à¦° à¦ªà¦¨
à¦° à¦Ĺà¦¨
à¦° à¦Ŀà¦°
à¦¿ /
à¦¤ à¦®à¦ķ
à¦² à¦ªà¦¦
à¦² à¦®à¦§
à¦ķ à¦Ŀ
à§ģ à¥¥
à¦¬ à¦¥
à¦® à¦ķà¦²
à¦® à¦Ĺà¦¨
à¦® à¦¸à¦²
à¦¼ à§Ī
Ġà¦Ĩ à¦ĩà¦¯
Ġà¦Ĩ à¦īà§ľ
Ġà¦¨ à¦¨à¦¦
à¦ª à¦Ľà¦¨
à¦ª à§Łà¦¸
Ġà¦¦ à¦²à¦¨
Ġà¦¦ à¦¶à¦¬
Ġà¦¤ à¦¸à¦¬
Ġà¦ı à¦°à¦ĵ
à¦ľ à¦²à¦ķ
à¦¶ à¦¡
à¦¶ à¦°à¦®
à¦ĸ à¦ªà¦¤
à¦¼à§ĩ :
à¦· à¦·
à¦§ à¦¬à¦¨
à¦§ à¦¶à¦ķ
à¦¡ à¦¬à¦ªà¦ķ
à¦ļ à¦ªà¦¦à¦¸
à¦¹ à¦ªà¦°
à¦£ à¦²
à¦£ à¦ªà¦°
à¦¥ à¦°à¦¹à¦°
Ġà¦ļ à¦¯
Ġà¦° à¦ĩ
Ġà¦° à¦£à¦¨
Ġà¦° à¦¥à¦¬
à¦ł à¦ĵ
Ġà¦ī à¦«
à¦Ĥ âĢ¦
Ġà¦ħà¦¨ à¦Łà¦¨
Ġà¦ªà¦° à¦Ĺ
Ġà¦ĺ à¦·à¦Ł
à¦¬à¦¨ à¦²à¦¤
Ġà¦®à¦¨ à¦¯
à¦ī à¦ŀ
à¦ī à¦¦à¦¯
à¦ī à¦ĩà¦¯
à¦ī à¦ľà¦ª
à¦ľà¦¨ à¦Ĺà¦£
à¦« à¦¦
à¦ı à¦ª
à¦ı à¦ľ
à¦ı à¦¡
âĢĵ à¥¤
Ġà¦ıà¦¸ à¦ª
à¦°à¦® à¦¥
à¦ĥ -
à¦¨à¦¤ à¦¤à¦°
à¦ķà¦² à¦¹
Ġà¦ªà¦¥ à¦¯
à¦ķà¦Ł à¦¸
à¦ħ à¦¬à¦²
à¦ħ à¦²à¦ķ
à¦ħ à¦¬à¦¤
Ġà¦ħà¦® à¦¤
à¦¬à¦¤ à¦ķ
Ġà¦ĺà¦° à¦ľ
à§ĩâĢĶ -
à¦¯à¦¬ à¦ļ
Ġà¦ľà¦² à¦®
Ġà¦ľà¦² à¦¢
Ġà¦®à¦¹ à¦¸
à¦°à¦¹ à¦Ĺ
Ġà¦īà¦ª à¦®à¦¹
Ġà¦īà¦ª à¦ķà¦¥
à¦°à¦ľ à¦ķ
à¦²à¦¨ à¦Ĺ
Ġà¦ħà¦ª à¦¹à¦°à¦£
à¦¶à¦¨ à¦Ĺ
à¦®à¦¯ à¦ľ
à¦ªà¦¦ à¦Ĺ
à¦ªà¦¦ à¦ĵ
Ġà¦ħà¦¥ à¦ĩ
à¦Ńà¦¬ à¦ķ
à¦Ńà¦¬ à¦ĩ
à¦¨à¦ķ à¦¶
Ġà¦Ĺà¦° à¦Ĺà¦°
à¦¯à¦® à§Łà¦¤
à¦ªà¦¥ à¦ļ
à¦ıà¦ķ à¦¨
à¦¤à¦® à¦ľ
Ġà¦Ĳ à¦¤à¦°
Ġà¦²à¦ķ à¦¡
Ġà¦ħà¦¬à¦¸ à¦°à¦ª
Ġà¦Ī à¦®
Ġà¦Ĺà§ľ à¦Ĺà§ľ
à¦¬à¦¶ à¦°
Ġà¦ıà¦ķà¦ĩ à¦¸
à¦¾âĢĻ âĢĵ
à¦¼âĢĶ âĢĻ
à¦Łà¦« à¦°à¦®
à¦£à¦ķ à¦£
Ġà¦ªà¦°à¦® à¦ª
Ġà¦¸à¦°à¦² à¦°
Ġà¦Ĩà§ľ à¦·
à¦ªà§ľ à¦¶
an k
à¦¾à¦ĥ âĢĶ
Ġà¦ľà¦Ĺ à§İà¦ķ
à¦¾âĢĿ ,
Ġà¦²à§ľ à¦Ľ
à¦¿?âĢĿ âĢĶ
en s
Ġà¦ķà¦¬à¦° à¦ĸ
Ġthe re
à¦¶à¦¦ à¦Ń
Ġà¦ķà¦¦ à¦®à¦¤à¦²
Ġà¦Ńà¦¬à¦¨ à¦Ł
Ġà¦¸à¦«à¦² à¦Ń
Ġà¦®à¦°à¦£ à¦¶
à¦²à¦ĵ à¦Ń
Ġh ad
à¦ľà¦Ń à¦¬à¦¨
ĠB e
Ġl ife
Ġe x
et ect
Ġà§§à§¯à§ª à§«
Ġà§§à§¯à§¯à§ ¨
ig n
à¦£à¦Ĺà¦¤ à¦®
Ġà§§à§Ń à§ªà§©
âĢĶâĢĶ âĢĶâĢĶ
ĠG od
Ġà¦ĵà¦²à¦Ł à¦ª
Ġà¦¥à¦ĩ à¦¥à¦ĩ
ĠĠĠĠĠĠĠĠ ĠĠĠĠĠĠĠĠ
Ġit self
âĢķâĢķâĢķâĢķ âĢķâĢķâĢķâĢķ
Ġà¦Ńà¦°à¦£ à¦ª
âĢ¨ Ċ
Ġind igo
2 1
2 5
R O
e k
f or
i al
l ow
o od
Ġ à§Ł
à¦¨ à¦ķà¦¤à¦ķ
à¦¤ à¦£
à¦¤ à¦ķà¦²
à¦¤ à¦¦à¦°
à¦² à¦¨à¦¬
à¦ķ à¦¸à¦¨
à¦ķ à¦°à¦ķà¦®
à¦ķ à¦¥à¦¨
à¦¬ à¦ķà¦²
à¦¬ à¦¬à¦¤
à¦® à¦ªà¦¨
à¦¼ âĢĿà¥¤
Ġà¦¬ à¦ª
Ġà¦¬ à¦ķà¦²
Ġà¦¸ à¦ķà¦°
Ġà¦ª à¦Łà¦ķ
à¦¸ à¦ľà¦¨
à¦¸ à¦°à¦¸
à¦¸ à¦¨à¦¬
Ġà¦Ĩ à¦¹à¦²
Ġà¦Ĩ à¦Łà¦¬
à¦¦ à¦«
à¦¦ à¦ĺà¦°
à¦Ł à¦ĺ
Ġà¦® à¦°à¦¨
à¦ĩ à¦Ŀ
à¦ĩ à¦®à¦²
à¦ª à¦¦à¦°
à¦ª à¦Łà¦²
Ġà¦¦ à¦ĩà¦¯
Ġà¦¤ à¦£
Ġà¦ı à§Ł
Ġà¦ı à¦ĺà¦°
Ġà¦¹ à¦ĩà§Ł
à¦ĸ à¦®à§Ł
à¦¼à§ĩ âĢ¦à¥¤
Ġà¦ħ à¦¹à¦²
à§Ł à¦ľà¦¨
à¦· à¦Ľ
à¦§ à§ľà¦ķ
Ġà¦ķà¦° à¦®à¦°
à¦¹ à¦§
Ġà¦Ĺ à¦¸
à¦¥ à¦Ľ
à¦¥ à¦°à¦¬
Ġà¦Ń à¦Ĺà¦°
à¦Ń à¦°à¦£
à¦Ń à¦ŀ
Ġà¦Ľ à¦ª
Ġà¦Ľ à¦²à¦ļ
à¦Ĥ âĢĵ
Ġà¦¬à¦² à¦¶
Ġà¦ĵ à¦®à¦²
Ġà¦ħà¦¨ à¦Ĺ
Ġà¦ªà¦° à¦Ľ
Ġà¦ªà¦° à¦ļ
à¦¬à¦¨ à¦¤
à¦¬à¦¨ à¦¶
Ġà¦®à¦¨ à¦ª
Ġà¦®à¦¨ à¦®à¦°
à¦®à¦¨ à¦°
à¦®à¦¨ à¦Ĺà¦°
Ġà¦ıà¦ĩ à¦¡à¦¸
à¦ŀ à¦°
à§İ à¦¨
à§İ à¦Ł
à¦ī à¦²à¦ķ
à¦ī à¦ªà¦ķ
à¦¿, âĢĶ
à¦ľà¦¨ à¦°
à¦« à¦°à¦ķ
à¦¤à¦° à¦¯
Ġà¦¸à¦¬ à¦¸
à¦¬à¦° à¦«
Ġà¦Ł à¦ĩà¦Ł
à¦Ĩ à§ľ
à¦ĺ à¦ļ
Ġà¦ĩ à¦®à¦²
Ġà¦ĩ à¦®à¦°
Ġà¦Ŀ à¦®à¦Ŀà¦®
à¦¬à¦² à¦¦
Ġà¦ħà¦¬ à¦Ĺà¦¤
Ġà¦¬à¦¨ à¦ļ
à§ĭà¦ģ ,
Ġà¦Ĩà¦Ĺ à¦°à¦¬
à¦ķà¦Ł à¦²
à¦ħ à¦ķà¦¸
à¦¸à¦¬ à¦¹
à¦¸à¦¬ à¦¶à¦¤
à¦²à¦ķ à¦®à¦²
à¦¬à¦¤ à¦¶
à¦¦à¦¨ à¦¹
à¦¿à¦Ĥ âĢĵ
à¦¦à¦° à¦ª
à¦Ĺà¦² à¦¸
Ġà¦ľà¦² à¦ļ
Ġà¦īà¦ª à¦¶
Ġà¦īà¦ª à¦¶à¦®
à¦¨à¦¬ à¦¬à¦¨
à¦¯à¦ķ à¦¥
à¦ļà¦¨ à¦ķ
Ġà¦¸à¦¹ à¦¨
à¦ķà¦¬ à¦ļ
à¦ªà¦¦ à¦Ł
Ġà¦ĵà¦ªà¦° à¦ĵ
à§İà¦¸ à¦Ļ
Ġà¦¬à¦ĩ à¦ĵ
à¦·à¦ķ à¦¥
à¦¯à¦® à¦ŀ
à§įâĢĮ !
à¦ıà¦ķ à¦¸à¦®à§Ł
à¦Łà¦² à¦Ĺ
à¦ļà¦ķ à¦¦
à¦¢ à¦ķ
à§° à¦ļà¦£
Ġà¦Ĩà¦§ à¦¬
Ġà¦¨à¦¬ à¦¤à¦°
Ġà¦¬à§ľ à¦²
à¦®à¦¸ à¦ľ
à¦°à¦®à¦£ à¦Ł
à§Ŀ à¦ļ
à¦®à¦¹ à¦ķ
à§ĩâĢ¦ .
à¤ £
à¤ ¸
à¤ ľ
Ġà¦ľà§Ł à¦¯
he s
Ġà¦Ĩà¦ĩà¦¨ à¦¶
in k
Ġà¦¸à§İ à¦ªà¦¥
à¦¨à§Łà¦¨ à¦¶
à§Ń à§¨
Ġà¦Ĩà¦Ł à¦ļà¦²
is s
ar y
Ġà¦ĸà¦° à¦ĸà¦°
à§ĭâĢĻ âĢĶ
Ġà¦¨à¦°à¦ķ à¦¬
Ġà¦ĩà¦® à¦ªà¦¸
Ġf rom
Ġà¦ķà§ľ à¦ķà§ľ
ing s
ĠA nd
Ġà§§à§¯à§¯à§ ª
Ġbe auty
ay s
Ġà¦Ĺà¦²à¦¦ à¦ĺà¦°
os t
Ġà¦Ľà§Ł à¦Ł
Ġk now
Ġwh o
Ġà¦¶à¦°à¦¶ à¦¯
O N
a j
a ch
f f
f rom
h ol
l l
n g
t le
u al
u res
Ñ ĥ
× Ļ
Ċ Ċ
Ġ J
Ġà¦ Ļ
à¦¾ ...âĢĿ
à¦° à¦°à¦ķ
à¦¨ à¦ļà¦ķ
à¦¤ à¦ªà¦°
à¦¤ à¦ĸà¦¤
à¦¤ à¦¸à¦°
à¦² à¦¦à¦°
à¦² à¦®à¦°
à¦² à¦¦à¦¹
à¦ķ à¦ķà¦°
à¦ķ à¦¸à¦®
à¦ķ à¦ªà¦Ł
à¦¯ à§Łà¦¨
à¦¯ à¦Ĺà¦£
à¦¯ à¦ľà¦Ĺà¦¤
Ġà¦¬ à¦®à¦¨
Ġà¦¬ à¦ľà¦°
Ġà¦¬ à¦ªà¦£
à¦¸ à¦¹à¦¨
à¦¦ à¦¬à¦ª
à¦Ł à¦ªà¦°
à¦Ł à¦¤à¦®
Ġà¦¨ à¦°à¦ª
Ġà¦® à¦ĵà¦ķ
à¦ĩ à¦īà¦°
à¦ª à¦«
à¦ª à¦¸à¦®
à¦ª à§°
à§Ģ âĢĿà¥¤
Ġà¦¦ à§°
Ġà¦¤ à¦Łà¦°
Ġà¦ı à¦®à¦¤
Ġà¦¹ à¦ĩà¦Ľ
à¦¶ à¦°à¦£
à¦¶ à¦ķà¦¤
à¦¶ à¦®à¦°
à¦ĸ à¦®à¦¨
à¦ĸ à¦°à¦¬
à¦ĸ à¦²à¦¤
à¦ĸ à¦Ńà¦Ļ
à¦Ĺ à¦°à¦¤
à¦Ĺ à¦¤à¦°
à¦Ĺ à¦¸à¦¨
à¦Ĺ à¦ªà¦¥
à¦· à¦®à¦¯
Ġà¦¯ à¦¸
à¦§ à¦¸à¦®
à¦§ à¦§à¦°
à¦§ à¦Ńà¦°
à¦ļ à¦ĵ
à¦ļ à¦¤à¦®
à¦¹ à¦¬à¦²
Ġà¦Ĺ à¦°à¦¹
à¦£ à¦ĺ
à¦£ à¦¸à¦Ļ
Ġà¦¶ à¦¤à¦°
Ġà¦ļ à¦ĸ
Ġà¦ļ à¦®à¦ļ
à¦Ń à¦¡
à¦Ń à¦ĵ
Ġà¦ıà¦ķ à¦ļà¦ķ
Ġà¦ıà¦ķ à¦ĺà¦°
à¦¾à¦ģ âĢĵ
Ġà¦¬à¦² à¦¨
Ġà¦Ĩà¦° à¦ª
Ġà¦² à¦ĩ
Ġà¦² à¦ĵ
Ġà¦ħà¦¨ à¦¬
Ġà¦ħà¦¨ à¦®à¦¨
ĠâĢ ¢
Ġà¦¸à¦® à¦ķà¦ķ
Ġà¦ĺ à¦°à¦£
à¦¼à¦¿ à¥¤âĢĻ
Ġà¦®à¦¨ à¦°
Ġà¦®à¦¨ à¦Ń
à¦ªà¦° à¦²
à¦¿à¥¤ à¥¤
Ġà¦ıà¦ĩ à¦ĩ
Ġà¦ıà¦ĩ à¦®à¦¤
à¦ŀ à¦¬à¦²
à§İ à¦ªà¦¦
à¦ī à¦łà¦¤
à¦ı à¦¹
à¦Ĩ à¦¸à¦¤
Ġà¦ķà¦¥ à¦ķà¦ł
à¦ĺ à¦·
à¦ĺ à¦Ń
Ġà¦ĩ à¦īà¦ķ
Ġà¦ĩ à¦ĵà¦°
Ġà¦ĩ à¦Łà¦¸
Ġà¦ĩ à¦¨à¦¬à¦ķ
Ġà¦ħà¦¬ à¦¦à¦®
à¦°à¦® à¦¦
Ġà¦¬à¦¨ à¦¦
Ġà¦¬à¦¨ à¦ªà¦°
Ġà¦¬à¦¨ à¦ľà¦Ļ
à§ĭà¦ģ -
Ġà¦Ĩà¦¬ à¦¡
Ġà¦Ĩà¦Ĺ à¦®
Ġà¦¨à¦¤ à¦®
Ġà¦Ĺà¦² à¦Ĺ
à¦ķà¦Ł à¦¤à¦®
à¦ħ à¦«à¦²
à¦¤à¦¬ à¦ī
à¦¤à¦¬ à§Łà¦¸
Ġà¦ıà¦² à¦®
à¦¾à¦Ĥ âĢĶ
à¦¦à¦¨ à¦®
à¦¦à¦¨ à¦Ł
à¦¦à¦¨ à¦ª
à¦¿à¦Ĥ ?
à¦¯à¦¬ à¦ĩà¦¯
à¦Ĺà¦² à¦¦
à¦Ĺà¦² à¦Ĺ
Ġà¦ľà¦² à¦ªà¦¥
Ġà¦ľà¦² à¦¦à¦¸
à¦Ĩà¦® à¦²
Ġà¦ħà¦¤ à¦¦
Ġà¦ħà¦¤ à¦ĸ
Ġà¦ħà¦¤ à¦Ĺ
à¦¹à¦¸ à¦ķ
Ġà¦īà¦ª à¦ķà¦£
à¦°à¦ľ à¦Ń
à¦¯à¦ķ à¦£
Ġà¦ķà¦² à¦ª
à¦²à¦¬ à¦£
à¦°à¦¦ à¦®
Ġà¦¸à¦¹ à¦®à¦¤
à¦ªà¦¦ à¦ĩ
à¦¸à¦¨ à¦Ń
ĠâĢĶ âĢľ
Ġà¦¬à¦ĩ à¦ªà§ľ
à¦°à¦ĵ à¦ĩ
à¦·à¦¤ à¦ķ
à¦¨à¦ķ à¦¯
à¦¬à¦¦ à¦¤
à¦¸à¦° à¦Ĺ
Ġà¦ıà¦° à¦ļ
à§ĩ! )
Ġà¦«à¦² à¦Ĺ
à§Łà¦¨ à¦ªà¦°
Ġà¦ĩà¦¨ à¦¹
à§° à¦ķà¦²
à§° à¦¥à¦®
à¦ľà¦² à¦ľ
Ġà¦¸à¦ķà¦² à¦ĩ
à¦¸à¦« à¦°
à¦¯à¦¸ à¦Ń
à¦¥à¦° à¦ĸà¦£
Ġà¦īà§İ à¦°
Ġà¦°à¦ķà¦® à¦«
Ġà¦¦à¦¶ à¦¤à¦²
Ġà¦Ĺà¦£ à¦ªà¦¤
Ġà¦¦à¦® à¦ķà¦²
Ġà¦ľà§Ł à¦²
à¦ıà¦ĸà¦¨ à¦ķ
à¦Ĺà¦£ à¦¤à¦¨
an a
Ġà¦ķà¦Ł à¦ķà¦Ł
in ation
à¦¶à¦° à§İ
à¦¤à¦ĸà¦¨ à¦ĵ
Ġà¦ıà¦°à¦ªà¦° à¦ĩ
à¦ħà¦¬ à¦¸à¦°
Ġthe y
is m
Ġà¦¨à§ľ à¦²
Ġà¦Ĩà¦ĸ à§ľ
à¦Ŀà¦ķ à¦Ŀà¦ķ
Ġà§© à§§
Ġc h
Ġb ut
Ġà¦ķà¦¸ à¦°à¦¤
il e
ic k
Ġà§ª à§«
ĠĠĊĠĠ ĠĠĠĠ
ĠB en
Ġà¦®à¦Ī à¦¨à¦ķ
à¦¨à¦®à§Ł à¦¤
Ġà¦ķà¦¨à¦ķ à¦ļ
Ġà§¦ à§ª
áĥ ĺ
ĠH e
os e
Ġ19 7
Ġwh ich
à¦°à¦Ĺà¦² à¦Ń
Ġà¦«à¦¸à¦« à¦°
oug h
2 6
2 7
2 8
; -
? )
C O
U R
a re
l ed
n a
y an
Ñ Ĥ
Ù Ĭ
â Ĥ
Ġ &
à¦¾ à¥¥
à¦¾ Â·Â·Â·
à§ĩ à§Ģ
à§ĩ à¦ĥà¥¤
à¦° à¦°à¦¥
à¦° à¦ªà¦¦
à¦° à¦ĭà¦£
à§į à¦ģ
à§į âĢĵ
à¦¿ âĢĮ
à¦¿ ÂŃ
à¦¨ à¦¸à¦¤
à¦¤ à¦¸à¦¨
à¦² à¦ĵà§Ł
à¦² à¦¹à¦°
à¦ķ à¦¦à¦²
à¦ķ à¦Ŀà¦²à¦ķ
à¦¯ à¦°à¦¤
à¦¯ à¦¸à¦¬
à¦¯ à¦ķà¦¤
à¦¯ à¦ªà¦¤
à¦¬ à§İà¦¸à¦°
à¦® à¦ĵà§Ł
à¦® à¦ªà¦ķ
Ġà¦ķ à¦ĸ
Ġà¦ķ à¦ķà¦Ł
Ġà¦¬ à¦Łà¦²
Ġà¦¸ à¦ĩà¦Ľ
à¦¸ à¦ķà¦°
à¦¸ à¦¨à¦ĵ
à¦¸ à¦ĵà§Ł
à¦¸ à¦¦à¦¦
Ġà¦Ĩ à¦ªà¦ķ
Ġà¦Ĩ à¦ĩà¦ª
à¦¦ à¦¡
à¦¦ à¦ļà¦¯
à¦¦ à¦ķà¦ķ
à¦Ł à¦°à¦¶
à¦Ł à¦®à¦¸
Ġà¦¨ à¦°à¦ĸ
Ġà¦® à¦°à¦®à¦°
à¦ĩ à¦ªà¦Ł
à¦ª à¦ĺ
à¦ª à¦¬à¦¦
Ġà¦¦ à¦¬
à¦Ľ à¦Ń
à¦Ľ à¦ķà¦Ł
à¦Ľ à¦²à¦¨
Ġà¦¤ à¦ķà¦¤à¦ķ
Ġà¦ı à¦®à¦¬
à¦ľ à¦ªà¦¦
à¦¶ à¦¬à¦°
à¦¼à§ĩ ?âĢĿ
à¦· à§ľ
à¦· à¦¤à¦¨
à¦· à¦°à¦ľ
Ġà¦¯ à¦·
à¦§ à¦®à¦¨
à¦ļ à¦ļ
à¦ļ à¦¢
à¦ļ à¦¶à¦®
Ġà¦ķà¦° à¦ª
à¦¹ à¦«
Ġà¦Ĺ à¦Ł
à¦£ à¦¤à¦®
à¦£ à¦ļà¦°
à¦£ à¦§à¦°
Ġà¦ļ à¦ĩ
à¦ĵ à¦·
à¦Ń à¦²à¦Ĺ
Ġà¦ıà¦ķ à¦¬à¦°
Ġà¦ıà¦ķ à¦ļà¦²
Ġà¦Ĩà¦® à¦ľà¦¨à¦¤
Ġà¦ī à¦¯
à¦¾à¦ģ à¥¤âĢĿ
Ġà¦¬à¦² à¦¬à¦¤
Ġà¦² à¦Ľ
Ġà¦² à¦ķà¦Ł
Ġà¦ĵ à§İ
Ġà¦ĵ à¦ľà¦¸
Ġà¦« à§Łà¦¸
Ġà¦ĸ à¦Ļ
à§ľ à¦¨à¦ķ
à¦°à¦¤ à¦¯
à¦°à¦¤ à¦ªà¦ķ
Ġà¦ħà¦¨ à¦®
à¦ŀ à¦¬
à¦ŀ à¦Ń
à¦ľà¦¨ à¦Ĺ
à¦°à¦¬ à¦ļà¦¨
à¦ı à¦¤à¦Ł
Ġà¦Ĩà¦² à¦ķ
Ġà¦Ĩà¦² à¦ªà¦¥
à¦¬à¦° à¦°
Ġà¦Ĩà¦¸ à¦¨à¦Ł
à¦Ĩ à¦ĺ
à¦Ĩ à¦²à¦¤
à¦Ĩ à¦ķà¦¸
Ġà¦®à¦¤ à¦Ł
Ġà¦¡ à¦¬
Ġà¦¡ à¦²à¦«
à¦ĺ à¦¤à¦°
Ġà¦ĩ à¦Ĺà¦²
à¦¼à¥¤ âĢ¦
Ġà¦ħà¦¬ à§Ł
à¦¬à¦ª à¦¦
à¦°à¦® à¦Ł
à¦°à¦® à¦ĵ
à¦ĥ ?
Ġà¦¬à¦¨ à¦Ł
Ġà¦ħà¦¸ à¦¤à¦°
Ġà¦ĵà¦ł à¦Ľ
à¦¤à¦¨ à¦ļ
à¦ķà¦° à¦Ľ
à¦ħ à¦¬à¦°
à¦ħ à§°
à¦ħ à¦¬à¦¹
à§ĩ? âĢĶ
à§ĩ? âĢ¦
Ġà¦Ĩà¦ķ à¦¨
Ġà¦ħà¦° à¦«
Ġà¦Ĩà¦¶ à¦°
à¦¦à¦¨ à¦¦
à¦¦à¦¨ à¦ªà¦¤
Ġà¦¬à¦° à¦·
à§ĩâĢĶ âĢĿ
à¦¦à¦° à¦Ń
Ġà¦ľà¦² à¦ªà¦°
Ġà¦¸à¦° à¦Ĺà¦°à¦®
Ġà¦®à¦¹ à¦ķ
Ġà¦®à¦¹ à¦®
à¦°à¦¹ à¦¤
à¦¹à¦¸ à¦Ł
à¦°à¦ľ à¦¤
à¦°à¦² à¦®
à¦¿à¦ĥ !
Ġà¦¸à¦¹ à¦§à¦°
à¦¹à¦² à¦¹
Ġà¦ĩà¦¤ à¦°à¦¬
Ġà¦°à¦Ļ à¦ļà¦Ł
à¦¦à§Ł à¦¤
à¦¤à¦² à¦Ĺ
Ġà¦¬à¦ĩ à¦ª
Ġà¦ªà¦¦ à¦¤
Ġà¦ªà¦¦ à¦¦à¦²
à¦°à¦ª à¦²
à¦¯à¦® à¦ĩ
à¦ªà¦¥ à¦¹
à¦ıà¦ķ à¦Ĺ
à¦ıà¦ķ à¦¦à¦²
à¦ıà¦ķ à¦ľà¦¨à¦ķ
à¦¤à¦® à¦®
Ġà¦ħà¦² à¦®
Ġà¦Ĳ à¦ĸ
Ġà¦ĩà¦¨ à¦¸à¦ª
à§° à¦¶
à§° à¦£
?âĢĻ âĢĶ
!âĢĿ ,
à¦¸à¦« à¦¡
Ġà¦¶à¦¤ à¦Ń
Ġà¦īà¦ªà¦° à¦ĩ
Ġ( âĢĺ
Ġà¦īà§İ à¦ĸ
Ġà¦ĸà¦¬à¦° à¦ĩ
Ġà¦Ĩà¦ª à¦¶
à¦°à¦Ĺ à¦®
à¦¼à§Ģ âĢĶ
Ġà¦¦à¦° à¦¦à¦°
à§¦ à§®
à§Ŀ à¦Ń
Ġà¦¸à¦¦ à¦Ĺ
Ġà¦§à¦¨ à¦°à¦¤
à§¨ à§Ń
à§¨ à§®
Ġà¦Ĺà¦£ à¦¹à¦¤
Ġà¦īà§ľ à¦²
à¤ ¬
à¦ķà¦°à¦£ à¦°
à¦ķà¦°à¦£ à¦¬
à¦¦à¦¸ à¦ĩ
à¦°à¦« à¦°à¦®
à¦ļà§Ł à¦ķ
Ġà¦ļà¦Ł à¦ļà¦Ł
Ġà¦Ĩà¦ĩà¦¨ à¦Ĺà¦¤
Ġà¦¸à§İ à¦ķà¦°
Ġà¦Ĩà¦« à¦Ĺ
à§Ń à§§
on t
Ġà¦Ĩà¦Ł à¦ľà¦¨
à§® à§«
Ġà¦Ķ à§İà¦¸
à¦Ńà§Ł à¦ķ
à¦īà¦¡ à¦¸
Ġà¦Ĩà¦ĩ à¦ĵà¦Ł
ar s
Ġà§© à§«à§¦
Ġa c
Ġs p
à§ĭâĢ¦ à¥¤
à¦¿âĢĿ âĢĵ
Ġà¦ĸà¦¨ à¦ĸà¦¨
Ġà¦Ĺà¦Ĺà¦¨ à¦ļ
Ġà¦¶à¦°à§İ à¦¬
ĠC h
à¦¯à¦ľà¦¨ à¦ķà¦Ń
à¦§à¦¸ à¦ļ
ĠD e
Ġà§¦ à§§
Ġà§¦ à§©
Ġà¦¦à¦¹ à¦°à¦®
Ġà¦ļà¦ª à¦²à¦¤
à§ģà§į à¦ģ
Ġcou nt
int u
æŃĵæŃĵæŃĵæŃĵæŃĵæŃĵæŃĵæŃĵ æŃĵæŃĵæŃĵæŃĵæŃĵæŃĵæŃĵæŃĵ
à§§à§¯à§ª à§Ń
ĠUn iver
Ġà¦ļà¦®à¦ļ à¦®
ĠBen gal
2 9
3 7
e w
f ul
g r
i k
s ity
t o
Â ¦
Ø ´
Ġ '
Ġ ed
Ġ all
à¦° à¦¡à¦¬
à¦¨ à¦ľà¦²
à¦¨ à¦īà¦¦
à¦¨ à¦ĸà¦ļ
à¦¤ à¦ļà¦²
à¦¤ à¦¶à¦¤
à¦ķ à¦®à¦¨
à¦ķ à¦ĵà¦¯
à¦ķ à¦ªà¦¤
à§ģ '
à§ģ âĢĺ
à¦¯ à¦·
à¦¯ à¦¶à¦ķ
à¦¯ à§°
à¦¯ à¦¹à¦¤
à¦¬ à¦ĵà¦¯
à¦¬ à¦Ĺà¦¤à¦Ń
à¦® à¦¸à¦¤
Ġà¦¸ à¦Łà¦ķ
Ġà¦¸ à¦ĵà¦Ĺ
à¥¤ ]
Ġà¦ª à¦²à¦²
à¦¸ à¦Ńà¦°
à¦¸ à¦¸à¦¹
Ġà¦Ĩ à¦Łà¦¤
Ġà¦Ĩ à¦īà¦²
à¦¦ à¦ķà¦°
à¦¦ à¦¶à¦ķ
à¦¦ à¦¶à¦®
à¦Ł à¦®à¦¨
à¦Ł à¦¸à¦¨
à¦Ł à¦®à¦°
Ġà¦® à¦Ĺà¦¡
à¦ĩ à¦¡à¦²
à¦ª à¦®à¦¨
à§Ģ âĢ¦âĢĿ
Ġà¦¤ à¦¸à¦²
Ġà¦ı à¦Ĺà¦¤
Ġà¦¹ à¦°à¦¬
Ġà¦¹ à¦ĵà¦¨
à¦ľ à¦®à¦¨
à¦ľ à¦¦à¦£
à¦¶ à¦®à¦¤
à¦¶ à¦®à¦¯
à¦¶ à¦ªà¦¤
Ġà¦ħ à¦ªà¦¨
à¦Ĺ à§Ł
à¦Ĺ à¦Ĺà¦¤
à¦Ĺ à¦¦à¦¤
Ġà¦¯ à§İà¦¸
à¦£ à¦¬à¦¦
à¦¥ à¦ļ
Ġà¦¶ à¦¬à¦¨à¦®
Ġà¦ļ à§Łà¦¨
Ġà¦° à¦Ĺà¦¡
à¦ĵ à¦ĵ
Ġà¦Ľ à¦Ĺà¦¨
Ġà¦Ĩà¦® à¦ļ
à§ĥ à§į
ĠĠ Ġ
à¦¼à¦¾ âĢĻ,
à¦¾à¦ģ âĢ¦
Ġà¦Ĩà¦° à¦¨à¦²
Ġà¦² à¦ĸ
Ġà¦² à¦¹
Ġà¦« à§Ł
Ġà¦« à¦°à¦«à¦°
à¦°à¦¤ à¦Ł
Ġà¦ħà¦¨ à¦²à¦¸
Ġà¦ªà¦° à¦®à¦¹
Ġà¦ĺ à¦¸
à¦¬à¦¨ à¦Ĺà¦°
à¦¼à¦¿ âĢ¦
Ġà¦®à¦¨ à¦Ĺ
à¦ī à¦ĸ
à¦ľà¦¨ à¦¹
à¦°à¦¬ à¦ĩ
à¦ı à¦¨à¦ľ
Ġà¦Ł à¦²à¦Ľ
à¦Ĩ à¦ĩà¦¸
à¦ĺ à¦«
Ġà¦ĩ à¦¶à¦°
Ġà¦ľà¦¨ à¦®à¦¨
à§Ī ,
Ġà¦ıà¦¬ à§ľ
âĢĵ !
Ġà¦¹à§Ł à¦°
Ġà¦¬à¦¨ à¦Ĺ
à¦ķà¦² à¦¤
à¦ķà¦² à¦°à¦¬
à§ĩà¦ģ ,
à¦ķà¦° à¦²
à¦ħ à¦ªà¦®
à¦°à¦¨ à¦¬
Ġà¦Ĩà¦ķ à¦Ľ
à¦°à¦¸ à§İ
Ġà¦īà¦¦ à¦Ĺà¦¤
à¦¦à¦¨ à¦¬
à¦¦à¦¨ à¦§
à¦¦à¦¨ à¦ĵ
Ġà¦¬à¦° à¦ªà¦ķ
à¦¨à¦ĵ à¦ĩ
à¦¦à¦° à¦²
à¦°à¦¹ à¦ĵ
à¦§à¦ķ à¦¦
à¦§à¦ķ à¦°à¦£
à¦°à¦ľ à¦¦
à¦¨à¦¬ à¦¯
à¦¨à¦¬ à¦¸à¦¤
à¦¯à¦ķ à¦°à¦£
Ġà¦ħà¦ª à¦²
Ġà¦ħà¦ª à¦¹
Ġà¦ħà¦ª à¦¦à¦¸
Ġà¦Ĩà¦¤ à¦ª
à¦¿à¦ĥ âĢĶ
à¦°à¦ªà¦° à¦¨
âĢ¦ à¥¤âĢĿ
à¦ıà¦ĩ à¦¤
à¦ıà¦ĩ à¦ĩ
Ġà¦¬à¦¹ à¦¨à¦ķ
Ġà¦¬à¦ĩ à¦ĩ
Ġà¦ªà¦¦ à¦Ł
à¦¸à¦® à¦¬
à§İà¦ķ à¦ļ
à¦¤à¦ķ à¦¥
à¦¸à¦° à¦ŀ
à¦ªà¦¥ à¦¯
à¦ªà¦¥ à¦ļà¦²
à¦ıà¦ķ à¦ªà¦°
à§ĩ! âĢĶ
à¦ļà¦ķ à¦¡
à¦°à¦Ń à¦°
Ġà¦Ĳ à¦¹
à¦ªà¦ķ à¦ķ
à¦¶à¦ķ à¦ķ
à§° à¦¦
à§° à¦¥
Ġà¦¶à¦¤ à¦¶à¦¤
Ġà¦Ĩà¦¡ à¦®
à¦¯à¦¦ à¦¸
à¦¾! âĢ¦
Ġà¦Ĩà¦Ļ à¦Ł
à¦°à¦Ĺ à¦ŀ
à¦°à¦ľà¦¨ à¦ķ
Ġà¦ĺà¦¨ à¦ĺà¦Ł
Ġà¦ıà¦¨ à¦ľà¦¯
à§ĭâĢĶ âĢĻ
à¦°à¦®à¦£ à¦ªà¦¥
à§¦ à§ª
à¦¦à¦® à¦¬à¦¨
à¦²à¦® à¦¹
à¦ķà¦¦ à¦£
à¦łà¦ķ à¦¯
à¤ ·
à¤ Ĺ
à¤ ļ
à¦¤à¦¦ à¦¶
à¦®à¦¦ à¦¤
à¦°à¦° à¦Ļ
Ġà¦°à¦¸ à¦¸
Ġà¦ľà§Ł à¦ķ
Ġà¦®à¦¦ à¦¤
à¦¿âĢĻ -
à§© à§¨
à§© à§®
Ġà¦¹à¦ĩ à¦ĵ
Ġà¦Ĩà¦ĩà¦¨ à¦ķ
à§ª à§Ń
à¦ľà¦Ĺ à¦ŀ
Ġà¦ıà¦ķà¦¨ à¦ľà¦°
à¦Ī à¦®
à§ĩâĢĻ -
Ġà¦Ńà¦Ĺ à¦¬à¦¨
en ce
at her
at ure
er n
à§¬ à§«
Ġà¦Ĩà¦Ł à¦¶
âĢ¦âĢĿ âĢĶ
ar g
Ġà§© à§«
Ġà§© à§Ń
ed ic
à¦¾,âĢĿ âĢĶ
Ġà¦®à¦°à¦£ à¦ķ
as e
Ġà¦¨à¦Ł à¦¬à¦°
Ġà§ª à§¦
Ġà¤ Ĩ
Ġh im
ĠA r
à¦¬à¦°à¦² à¦¹à¦°
Ġà§§à§® à§«à§Ń
Ġà§§à§¨ à§¦à§¦
et y
ĠR up
Ġà¦¹à¦°à¦« à¦Ĺ
ig h
Ġà¦§à¦ķ à¦§à¦ķ
ow n
à¦¶à¦§ à¦°à¦¦
os s
Ġà¦¬à¦Ľ à¦°à¦ķ
Ġà¦ªà¦ļà¦¨ à¦¶
Ġà¦¢à¦ķ à¦¢à¦ķ
Ġà¦¬à¦°à¦¬ à§°
Ġman y
ĠInd ian
ĠUniver sity
Ġà¦Ľà¦Ĺà¦¨ à¦²
! âĢĵ
3 1
3 4
3 5
A I
S I
d e
i x
i re
m s
n ess
o ci
p en
s s
t s
t her
Â «
Â »
Ñ ĭ
à «
Ġ if
à¦° à¦²à¦ķ
à¦° à¦¯à¦¤
à¦¤ à§Ł
à¦¤ à§°
à¦² à¦®à¦¤
à¦² à¦§à¦°
à¦² à¦°à¦Ļ
à¦² à¦ĸà¦£
à¦ķ à¦ĵà§Ł
à¦ķ à¦¨à¦ķ
à¦ķ à¦ļà¦°
à¦¯ à¦¡
à¦¬ à¦¤à¦°
à¦¬ à¦®à¦¤
à¦¬ à¦¹à¦¸
à¦¬ à¦¹à¦°
à¦¬ à¦īà§Ł
à¦® à¦°à¦¨
à¦® à¦ªà¦¦
à¦® à¦ļà¦°à¦£
à¦® à¦Ĺà¦¤à¦Ń
à§ĭ ),
Ġà¦¬ à§°
Ġà¦¬ à¦ľà¦²
Ġà¦¬ hol
Ġà¦¸ à§ľ
Ġà¦ª à¦®
à¦¸ à¦¥
à¦¸ à¦¯à¦¨
Ġà¦Ĩ à¦ĸà¦°
à¦¦ à§ľ
à¦¦ à¦¬à¦¨
à¦¦ à¦¨à¦¤à¦¤
à¦Ł à¦§
à¦Ł à¦ķà¦²
Ġà¦¨ à¦°à¦¸
Ġà¦¨ à¦¬à¦ķ
Ġà¦® à¦²à¦¤
à¦ĩ à¦§
à¦ĩ à¦£
à¦ĩ à¦¥
à¦ĩ à¦¸à¦¨
à¦ĩ à¦¸à¦Ł
à¦ĩ à¦ļà¦Ł
à¦ª à¦®à¦£
à¦ª à¦¯à¦ľ
à¦ª à¦ľà¦Ļ
à§Ģ ),
Ġà¦¦ à¦§
à¦Ľ à§Ł
à¦Ľ à¦ķà¦ĩ
à¦Ľ à¦²à¦Ľà¦²
Ġà¦¤ à¦¯
Ġà¦ı à¦¥
Ġà¦ı à¦¤à¦°
Ġà¦ı à¦¨à¦¸
Ġà¦¹ à¦°à¦¨
Ġà¦¹ à¦¦à¦¯
Ġà¦¹ à¦ķà¦¸
à¦ľ à¦ķà¦²
à¦ľ à¦°à¦¨
à¦¶ à¦®à§Ł
à¦¶ à¦²à¦Ĺ
à¦¶ à¦°à¦ķà¦°
à¦ĸ à¦¬à¦¨
à¦¼à§ĩ à¦¾
âĢ Ĳ
à¦Ĺ à¦®à¦¸
à¦Ĺ à¦ĺà¦¨
à¦Ĺ à¦¶à¦¯
à§Ł à¦ª
à¦· à¦ªà¦²
à¦· à¦¬à¦°à¦£
Ġà¦¯ à¦ĸ
à¦§ à¦°à¦¤
à¦§ à¦¬à¦°
à¦§ à¦¤à¦®
à¦ļ à¦«
à¦ļ à¦°à¦®
Ġà¦ķà¦° à¦¸
Ġà¦Ĺ à¦Ľ
Ġà¦Ĺ à¦Ĺ
à¦Ń à¦ķà¦°
Ġà¦ıà¦ķ à¦Ľ
Ġà¦Ľ à¦ĩ
Ġà¦Ĩà¦® à¦¡
à¦ł à¦Ŀ
à¦ł à¦ļà¦ķ
à¦ł à¦Ńà¦°
à¦¼à¦¾ âĢĿ
Ġà¦ī à¦¶à¦ķ
à¦Ļ à§ľ
Ġà¦¥ à¦ķ
Ġà¦Ĩà¦° à¦¬à¦°
Ġà¦ĵ à¦®à¦¨
Ġà¦ĵ à¦°à¦®
âĢĶ ?âĢĻ
à§ľ à¦¶
Ġà¦ħà¦¨ à¦¶à¦¨
Ġà¦§ à¦ĩà¦°
Ġà¦ªà¦° à¦®à¦¬
Ġà¦¸à¦® à¦®
Ġà¦¸à¦® à¦ħà¦§
à¦¬à¦¨ à¦ķà¦¥
à¦¼à¦¿ ;
à¦¿à¥¤ âĢĵ
à§İ à¦ļ
à§İ à¦ªà¦¨
à¦ī à¦ĵ
à¦ī à¦¬à¦¨
à¦ī à¦¤à¦°
à¦ī à¦ĩà¦¨
à¦ī à§İà¦¸à¦°
à¦ľà¦¨ à¦¸
à¦°à¦¬ à¦ª
à¦ªà¦¨ à¦ķ
à¦¬à¦° à¦ŀ
Ġà¦Ĩà¦¸ à¦Ļ
à¦Ĩ à¦¨à¦Ĺ
à¦Ĩ à¦²à¦Ĺ
Ġà¦ķà¦¥ à¦®
ĠâĢľ âĢ¦
Ġà¦ľà¦¨ à¦¬
Ġà¦ľà¦¨ à¦ķà¦²
Ġà¦ıà¦¬ à¦¡
ĠĠĊ Ċ
Ġà¦¬à¦¸ à¦°
Ġà¦¬à¦¨ à¦ķ
à¦ķà¦² à¦Ĺ
Ġà¦ħà¦¸ à¦®à¦¤
à¦¤à¦¨ à¦Ł
à¦¤à¦¨ à¦Ĺ
à¦ķà¦° à¦°
à¦ķà¦° à¦ĵ
à¦ħ à§Łà¦¨
Ġà¦ıà¦ĸà¦¨ à¦¤
Ġà¦ħà¦® à¦²à¦¤
à¦¿à¦Ĥ âĢ¦
Ġà¦¸à¦° à¦¦
Ġà¦ħà¦¤ à¦ķ
Ġà¦ħà¦¤ à¦¶à¦¤
Ġà¦īà¦ª à¦¬à¦¨
à¦¨à¦¬ à¦¬
à¦¨à¦¬ à¦Ĺ
à¦®à¦ķ à¦¹
à¦°à¦¦ à¦Ĺ
Ġà¦ħà¦ª à¦ĺ
Ġà¦¸à¦¹ à¦®à¦°à¦£
âĢ¦ )
à¦ļà¦² à¦Ĺ
à¦ļà¦² à¦ļ
Ġà¦ĵà¦° à¦ĵ
à¦¸à¦¨ à¦¦
à¦ĩà¦¨ à¦¸à¦ª
Ġà¦Ńà¦° à¦Ĺ
Ġà¦°à¦Ļ à¦Ł
Ġà¦°à¦Ļ à¦ĵ
à¦¾? âĢ¦
à¦Ńà¦¬ à¦ĵ
à¦·à¦¤ à¦Ł
Ġà¦ªà¦¦ à¦ª
Ġà¦ªà¦¦ à¦®à¦°
à¦¤à¦ķ à¦°à¦¬
Ġà¦ħà¦Ĺ à¦®
à¦Ĺà¦° à¦ª
Ġà¦ħà¦ªà¦° à¦ľà¦¨
à¦ªà¦¥ à¦Ł
à¦ªà¦¥ à¦Ń
à¦¤à¦¤ à¦¤
à¦ıà¦ķ à¦ª
Ġà¦ħà¦² à¦ķà¦Ł
Ġà¦Ĳ à¦²
à§° à¦²
à¦ľà¦² à¦ª
Ġà¦¸à¦®à§Ł à¦¸
à¦¬à¦¬ à¦¶
Ġà¦¶à¦¤ à¦ª
Ġà¦¶à¦¤ à¦ļ
Ġà¦īà¦ľ à¦¬
à¦ķà¦¨ à¦¸
Ġà¦Ī à¦ľ
Ġà¦Ĺà§ľ à¦Ľ
Ġà¦Ĩà¦¹ à¦®à¦¦
à¦¸à¦ķ à¦¶
à¦ªà¦¸ à¦ĩ
Ġà¦°à¦ķà¦® à¦Ń
Ġà¦¬à§ľ à¦°
Ġà¦¬à§ľ à¦¸à§ľ
à¦ĩà¦Ł à¦¸
à¦ĩà¦Ł à¦Ĺ
à¦«à¦² à¦ĩ
Ġà¦¸à¦¹à¦ľ à¦¬
à¦°à¦®à¦£ à¦Ń
à¦ıà¦¬ à¦®
à§¦ à§¨
à§¦ à§«
à¦®à¦°à¦£ à¦¶à¦ķ
Ġà¦¶à¦¹ à¦°à¦ĩ
Ġà¦Ĺà¦¹ à¦¨à¦¤
à¦°à¦° à¦ŀ
à¦ķà¦Ĺ à¦£
à¦¥à¦ķ à¦Ń
à¦ķà¦ľà¦¨ à¦ĵ
Ġà¦®à¦¶ à¦ķà¦°
Ġà¦ħà¦Ł à¦²à¦¤
à¦¸à¦¹ à¦¬
Ġt w
à¦¿âĢĻ âĢĵ
à§© à§«
à§ª à§¨
à§ª à§§
Ġà¦ľà§ľ à¦¤
à¦®à¦® à¦Ń
à¦¿âĢ¦ âĢĻ
à¦¬à¦°à¦£ à¦ķ
à§ĩâĢĻ âĢĵ
on y
Ġà¦¸à¦« à¦Ł
Ġà¦Ńà¦°à¦¸ à¦¨
Ġà¦²à§ľ à¦¤
à¦¯à¦Ĺ à¦łà¦¨
at a
à§¬ à§¯
or d
Ġà¦¨à§ľ à¦¤
Ġà¦¨à§ľ à¦¬
ar a
ar ning
Ġà¦¬à¦¶ à¦¬à¦°
à¦Ĩà¦¤ à¦Ļ
Ġa b
Ġa p
à¦¾?âĢĿ âĢĶ
Ġà¦ļà§ľ à¦¤
Ġc an
Ġà§§à§¯à§Ń à§©
ic e
à¦¼à¦¿à¦Ĥ -
ĠP art
Ġà§§à§¦ à§¦à§¦
ve l
Ġà§§à§® à§¬à§¦
à§§à§¯à§ ¨
ĠM an
ĠT h
Ġà¦¸à¦¦à¦° à¦ĺ
ĠR ah
ĠD etect
un g
Ġà¦¶à¦¶ à¦§à¦°
ag ore
Ġà§¯à§ ¦
Ġà§§à§¯à§¬ à§ª
Ġon ly
à¦ķà¦¸à¦¬ à¦ľ
ac k
Ġde ath
Ġà¦¤à§İà¦¸ à¦¤
ĠTH E
à¦ķà¦°à¦£à¦° à¦ļà¦¯
) ;
. âĢĻ
3 2
3 3
? âĢĵ
E D
E R
M y
N A
a w
a ct
b y
c le
d er
o b
p H
p h
s ha
u ch
v es
y es
Ã Ĺ
Ð º
à ®
à ´
á Ģ
ä ¸
å ĵ
Ġ )
Ġ Ñ
Ġ Ñģ
Ġ Â«
à¦¾ ...
à§ĩ à¦¾-
à¦° à¦²à¦¤
à§į âĢĻà¥¤
à¦¨ à¦ªà¦¨
à¦¨ à¦°à¦¸
à¦¨ à¦¶à¦ķ
à¦¨ à¦ªà¦Ł
à¦¨ à¦ĺà¦¨
à¦¤ à¦ŀ
à¦¤ à¦ļà¦¨
à¦¤ à¦Ĺà¦£
à¦¤ à¦ĺà§ľ
à¦² à¦ªà¦¨
à¦² à¦¨à¦ĵ
à¦ķ à¦Ļ
à¦ķ à¦ªà¦°
à¦ķ à¦®à§Ł
à§ģ âĢ¦âĢĿ
à§ģ âĢ¦à¥¤
à¦¯ à¦®à¦ķ
à¦¯ à¦Ĺà¦°
à¦¬ à¦Łà¦¬
à¦¬ à¦ĩà¦Ł
à¦¬ à¦ĩà¦¤
à¦¬ à¦Ńà¦°
à¦¬ à¦®à¦¶
à¦¬ à¦Ĺà¦£
à¦® à¦®à¦Ĺ
Ġà¦ķ à¦·à¦¤
à§ĭ )
à§ĭ âĢĿâĢĶ
Ġà¦¬ à¦¶à¦¤
Ġà¦¸ à¦ªà¦¥
Ġà¦¸ à§°
à¥¤ (
à¥¤ âĢľ
Ġà¦ª à¦·
Ġà¦ª à§°
Ġà¦ª à¦ĩà¦¡
Ġà¦ª à¦ªà¦ķà¦°
à¦¸ à¦¬à¦°
à¦¸ à¦¦à¦¨
à¦¦ à¦¸à¦®
à¦¦ à¦¬à¦ķ
à¦Ł à¦¸à¦®
à¦Ł à¦¸à¦¹
Ġà¦¨ à¦°à¦¬à¦²
Ġà¦¨ à¦¦à¦¨à¦¦
Ġà¦® à§°
à¦ĩ à¦ķà¦²
à¦ĩ à¦²à¦ķ
à¦ĩ à¦ĵà§Ł
à¦ĩ à¦®à¦¸
à¦ĩ à¦¸à¦®à¦¯
à¦ĩ à¦īà¦ľ
à¦ĩ à¦Ĺà¦ŀ
à¦ª à¦¬à§Łà¦¸
à§Ģ à¦ĥ
Ġà¦¦ à¦ľ
Ġà¦¦ à¦¶à¦¨
Ġà¦¦ à¦°à¦Ĺ
à¦Ľ à¦ļ
Ġà¦¤ à¦¦à¦¬
Ġà¦¤ à¦ªà¦¶
Ġà¦ı à¦¨à¦Ĺ
Ġà¦¹ à§ľà¦ķ
à¦ľ à¦ŀ
à¦ľ à¦¤à¦¬
à¦ľ à¦¤à¦¤
à¦ľ à¦¸à¦¤
à¦ľ à¦ĸà¦®
à¦¶ à¦ķà¦Ł
à¦ĸ à¦ĵà¦¯
à¦Ĺ à¦¹à¦¨
à¦Ĺ à¦¯à¦ľ
à§Ł à¦¡à¦«
à¦· à¦¨à¦ĵ
à¦· à¦¦à¦°
à¦· à¦ªà¦¤
Ġà¦¯ à§İ
à¦§ à¦Ĺà¦²
à¦§ à¦¹à¦¸
à¦¡ à¦¬à¦¬
à¦ļ à¦®à¦¤
à¦¹ à¦ĵà¦¯
à¦ģ âĢĻ,
à¦£ à¦Ľ
à¦£ à¦²à¦¤
à¦£ à¦¬à¦ķ
à¦£ à¦¸à¦¹
à¦£ à¦Ńà¦Ł
Ġà¦¶ à¦¤à¦°à¦ŀ
Ġà¦° à¦ĵà§Ł
Ġà¦° à¦Ĺà¦°
Ġà¦° à¦£à¦®
à§ĩà¥¤ âĢĶ
à¦Ń à¦ľà¦¨à¦ķ
Ġà¦ıà¦ķ à¦¬à¦¸
Ġà¦Ĩà¦® à¦¤à¦²
à¦ł à¦¤à¦°
à¦¼à¦¾ :
à¦¼à¦¾ ?âĢĻ
à¦¼à¦¾ âĢĻà¥¤
Ġà¦ī à¦ŀ
Ġà¦ī à¦®à¦°
Ġà¦ī à¦¸à¦ĸ
à¦Ļ à¦¡
à§ĩ, âĢĵ
Ġà¦¬à¦² à¦ķ
Ġà¦² à¦²à¦¨
Ġà¦² à¦¬à¦Ļ
Ġà¦ĵ à¦ªà¦¨
Ġà¦ĵ à¦¨à¦¨
Ġà¦« à¦°à¦¹
Ġà¦ĸ à¦¬
Ġà¦ĸ à¦¨à¦ķ
âĢĶ âĢĵ
ĠâĢ Į
Ġà¦ªà¦° à¦ľ
Ġà¦ªà¦° à¦£
Ġà¦ªà¦° à¦ªà¦ķ
à¦¾, -
à¦¾, âĢĶ
Ġà¦¸à¦® à¦ªà¦°
Ġà¦ĺ à¦°à¦®
à¦¬à¦¨ à¦ĸ
à¦¼à¦¿ âĢĻ
à¦®à¦¨ à¦¤à¦°
à§İ à¦ªà¦²
à¦ī à¦«
à¦ī à¦¤à¦²
à¦ī à¦ªà¦¯
à¦ľà¦¨ à¦¯
à¦°à¦¬ à¦£à¦ķ
à¦¤à¦° à¦¶
à¦ªà¦¨ à¦¬
à¦ı à¦°à¦ĵ
à¦¬à¦° à¦ľ
Ġà¦Ł à¦¨à¦ķ
à¦Ĩ à¦°à¦ķ
à¦Ĩ à¦ĩà¦¯
à¦Ĩ à¦ªà¦¡
à¦Ĩ à¦²à¦¸
Ġà¦īà¦ł à¦ļ
Ġà¦ĩ à¦«
Ġà¦ĩ à¦ķà¦¨
Ġà¦ľà¦¨ à¦ĩ
Ġà¦ľà¦¨ à¦¬à¦¹
à¦¬à¦² à¦¸
à¦¬à¦² à¦ª
à¦¬à¦² à¦Ĺ
Ġà¦ł à¦¨
à¦·à¦£ à¦ª
Ġà¦ļà¦² à¦ķ
Ġà¦¬à¦¨ à¦¨
Ġà¦¬à¦¨ à¦ª
Ġà¦ħà¦¸ à¦¬à¦°
Ġà¦Ĺà¦² à¦²
à¦ħ à¦Ĺà¦£
à¦²à¦ķ à¦Ĺ
à¦¬à¦¤ à¦¸
Ġà¦Ĩà¦¨ à¦¯
Ġà¦Ĩà¦¨ à¦ļ
Ġà¦ıà¦² à¦ĩà¦¡
Ġà¦Ĩà¦¶ à¦ķ
Ġà¦īà¦¦ à¦Ń
Ġà¦¹à¦¤ à¦¦à¦°
Ġà¦ħà¦¦ à¦°
à¦¦à¦¨ à¦¨à¦Ĺà¦°
Ġà¦¬à¦° à¦ĩ
à¦Ĺà¦² à¦ĵ
à¦Ĺà¦² à¦®à§Ł
Ġà¦¸à¦¨ à¦ķ
à¦Ĺà¦¤ à¦ĩ
à¦¹à¦¸ à¦ĵ
Ġà¦īà¦ª à¦¢
à¦Ľà¦¨ à¦Ł
à¦¨à¦¬ à¦¶
à¦¨à¦¬ à¦§à¦°
à¦²à¦¬ à¦¶
à¦§à¦¨ à¦¸
à¦ĩà¦² à¦ĸ
à¦ĩà¦² à¦Ĺ
Ġà¦ħà¦ª à¦¸à¦°
à¦®à¦² à¦Ń
à¦¹à¦° à¦ª
à¦ļà¦² à¦Ń
à¦ķà¦¬ à¦ķ
à¦ĩà¦¨ à¦²
à¦¼à§ĭ âĢĶ
à¦¼à§ĭ âĢĻ
Ġà¦¬à¦¹ à¦°à¦®à¦ª
à¦¦à§Ł à¦ĵ
à¦Ĺà¦¨ à¦¸
à¦·à¦¤ à¦¸
à¦¨à¦ķ à¦·
à¦¶à¦¬ à¦ķ
à¦¸à¦° à§İ
à¦ıà¦ķ à¦¯
à§ĩ! âĢ¦
Ġà¦ħà¦¶ à¦ķ
à¦ªà¦ķ à¦¦
Ġà¦ĩà¦¨ à¦Ńà¦²à¦Ń
Ġà¦ıà¦ķà¦¬ à¦Ľà¦°
à§° à¦ĩ
à§° à¦¹à¦£
Ġà¦¸à¦®à§Ł à¦ĵ
à¦¸à¦« à¦Łà¦ĵà¦¯
Ġà¦Ī à¦Ļ
à¦¯à¦° à¦ļà¦¨
à¦¬à¦¯ à¦ľ
à¦¯à¦¦ à¦¶
à¦¨à¦¸ à¦ķ
à¦¨à¦¸ à¦ª
à¦¨à¦¸ à¦¹
à¦¨à¦¸ à¦¹à¦ķ
Ġà¦¨à¦¬ à¦ļ
à¦¨à¦° à¦Ļ
Ġà¦Ĩà¦ª à¦Ĺ
à¦¼à§Ģ -
à¦ĩà¦Ł à¦Ł
à¦ĩà¦Ł à¦¹
à¦¯à¦¥ à¦Ń
Ġà¦ķà¦· à¦²
Ġà¦¹à¦° à¦°
Ġà¦ķà¦¨ à¦ľ
à¦Łà¦¨ à¦Ĺà¦°
Ġà¦ķà¦²à¦ķ à¦¬
à¦ªà¦£ à¦ķ
Ġà¦Ĺà¦£ à¦¬
Ġà¦Ĺà¦£ à¦Ĩà¦¨
Ġà¦¬à¦ī à¦¬
à¤ ª
à¤ ¶
à¦ķà¦°à¦£ à¦¯
Ġà¦Ĺà¦¹ à¦¬à¦°
à¦¯à¦Ń à¦Ļ
à¦°à¦° à¦ļà¦¨
Ġà¦¸à¦°à¦² à¦®à¦¤
à¦·à§Ł à¦¬à¦¸
Ġà¦ľà§Ł à¦ľà§Łà¦ķ
à¦£à¦¬ à¦§
à¦¦à¦ķ à¦£
à¦¤à¦¸ à¦ĩ
à§« à§«
an ce
à§ª à§«
in al
Ġà¦Ĩà¦ļà¦°à¦£ à¦ķ
Ġà¦Ĩà§Ł à¦¶
à§¯à§ ¨
re t
à¦¶à¦Ĺ à¦Ļ
Ġà¦ĸà¦°à¦ļ à¦ĵ
à§¬ à§Ń
Ġà¦Ĩà¦Ł à¦ļ
à§® à§¬
Ġà¦Ķ à¦°
Ġà¦Ŀà§ľ à¦ķ
Ġà¦Ĩà¦ĩ à¦¸à¦¬
ar d
à¦¦à¦ª à¦¤à¦¨
à¦¸à¦ķà¦² à¦ĩ
à§ģà¦Ĥ -
ou nd
ou ld
à¦¼à§ĩâĢĶ âĢĻ
and s
Ġf l
à¦ħà¦ª à¦²à¦ķ
à¦ħà¦ª à¦Ľà¦¨
Ġà§§à§¯à§Ń à§«
Ġà¦ļà¦°à¦£ à¦§
Ġn ow
ĠS oci
Ġà¦¨à¦ĵ à¦ľ
à¦£à¦ļ à¦ŀ
Ġà¤ ī
Ġà¤ Ĺ
Ġd o
ĠP intu
Ġà¦ĩà¦ī à¦ıà¦¸à¦¬
à§§à§¯à§ ®
à¦¨à§Ł à¦¨à¦ķ
us e
us ion
ur av
à¦®à¦« à¦²à¦ķ
et h
ĠR o
ĠD i
Ġà¦ĸà§ľ à¦Ĺ
Ġà¦ĸà§ľ à¦ĸà§ľ
Ġà§§à§Ń à§«à§¬
Ġà§§à§Ń à§Ńà§®
Ġbe c
Ġbe en
ra h
Ġà¦¸à¦®à¦Ŀ à¦¦
Â·Â·Â· âĢĻ
Ġne ver
Ġà¦¬à¦°à¦ķà¦¤ à¦īà¦²
Ġwe re
Ġ*** *
Ġà¦°à¦¸à¦¬ à¦¤
Ġà¦Ĭà¦¨ à¦¸à¦¤
ĠâĢĶâĢĶâĢĶ -
Ġcou ld
Ġà¦Ĩà¦ī à¦¸à¦¹
ers on
ºçľºçľºçľºçľ ºçľºçľºçľºçľ
·çľ·çľ·çľ·çľ ·çľ·çľ·çľ·çľ
Ġwor k
Ġà§ªà§¦à§¦ à§ª
Ġà¦Ĩà¦ĩà¦ķ à¦¨
Ġà¦Łà¦ĩà¦Ł à¦®
åĵ į
Ġà¦°à¦Ĺà¦° à¦Ĺ
, à¥¤
. à¥¤
3 6
3 9
A D
A R
I I
I n
a i
a z
c l
e c
e op
h in
o T
o at
s h
s ter
t he
u hin
v en
Ð ¿
à ¨
Ġ ê
Ġ us
Ġ our
à§ĩ âĢĮ
à§į âĢ¦
à¦¿ à§Ģ
à¦¨ à¦¬à¦²
à¦¤ à¦¤à¦¨
à¦¤ à¦¸à¦®à¦¸
à¦² à¦ªà¦°
à¦² à¦¬à¦ª
à¦² à¦®à¦¯
à¦² à¦°à¦ķà¦®
à¦² à¦Łà¦¨
à¦² à¦ªà¦®
à¦² à¦¶à¦¯
à¦ķ à¦°à¦®
à¦ķ à¦¦à¦°
à¦ķ à¦Ĺà¦¤
à¦ķ à¦®à¦£
à¦ķ à¦ªà¦¥
à¦ķ à¦¨à¦Ł
à¦ķ à¦¸à¦ª
à¦ķ à¦¸à¦Ł
à¦¯ à¦ĺ
à¦¯ à¦Ńà¦¬
à¦¯ à¦«à¦²
à¦¬ à¦¬à¦²
à¦¬ à¦®à¦¹
à¦¬ à¦īà¦¯
à¦® à¦¸à¦Ļ
à¦® à¦ľà¦²
à¦® à¦ªà¦£
à¦® à¦ĺà¦¨
à¦¼ ),
Ġà¦ķ à¦Ľ
Ġà¦ķ à¦ĵà§Ł
Ġà¦ķ à¦Łà¦¨
Ġà¦¬ à¦¶à¦®
Ġà¦¸ à¦°à¦¬à¦¤
à¥ ĥ
Ġà¦ª à¦¦à¦°
Ġà¦Ĩ à¦¦à¦¨
Ġà¦Ĩ à¦¹à¦°
Ġà¦Ĩ à¦ļà¦²
Ġà¦Ĩ à¦Łà¦²
à¦¦ à§°
à¦¦ à¦Ńà¦°
à¦¦ æĹ¥ãģ®
à¦Ł à¦°à¦Ł
à¦Ł à¦¬à¦ķ
à¦Ł à¦ĺà¦°
Ġà¦¨ à¦¹à¦°
Ġà¦¨ à¦Łà¦°
Ġà¦¨ à¦°à¦¹à¦°
Ġà¦¨ à¦¬à¦¤à¦®
à¦ĩ à¦ı
à¦ĩ à¦¤à¦²
à¦ĩ à¦¥à¦¨
à¦ª à¦®à¦²
à¦ª à¦¢
à¦ª à¦¹à¦¤
à§Ģ âĢĻâĢĶ
à¦Ľ à¦®à¦Ľà¦®
Ġà¦ı à¦ľà¦²
à¦ľ à§İ
à¦ľ à¦¤à¦²
à¦ĸ à¦«
à¦ĸ à¦ľà¦¨à¦ķ
à¦¼à§ĩ âĢĿ
à¦Ĺ à¦°à¦ĵ
à¦Ĺ à¦¸à¦®
à¦Ĺ à¦«à¦²
à¦Ĺ à¦£à¦¨
à¦Ĺ à¦ľà¦¨à¦ķ
à§Ł à¦®à¦Ĺ
à¦· à¦ļà¦¨
à¦· à¦°à¦ĩ
à¦· à¦¸à¦ķ
à¦· à¦ĩà§Ł
à¦§ à¦ĸ
à¦§ à¦®à¦ķ
à¦§ à¦ªà¦¤
à¦§ à§°
à¦¡ à¦¯
à¦¡ à¦²à¦¸
à¦ļ à¦Ĺà¦¤
Ġà¦ķà¦° à¦Ĺ
à¦¹ à¦¡
à¦¹ à¦²à¦ķ
Ġà¦Ĺ à¦ľà¦¬
à¦ģ à¥¤
à¦£ à¦ªà¦¤
à¦£ à¦¬à¦¯à¦ľ
à¦¥ à¦ĸ
à¦¥ à¦²à¦¨
à¦¥ à¦¸à¦®
Ġà¦¶ à§Ł
Ġà¦¶ à¦ĵ
Ġà¦¶ à¦¬à¦°
Ġà¦¶ à§Łà¦¨
Ġà¦ļ à§ľà¦ķ
Ġà¦Ń à§ľ
Ġà¦° à¦¸à¦ķà¦·
à¦ĵ à¦¸
à¦Ń à¦²à¦ķ
Ġà¦ıà¦ķ à¦ªà¦°
Ġà¦ıà¦ķ à¦ıà¦ķà¦Ł
Ġà¦Ĩà¦® à¦¹
à¦¼à¦¾ à¦ģ
à¦¼à¦¾ ?âĢĿ
à¦¼à¦¾ à¦ĥà¥¤
Ġà¦ī à¦Ń
Ġà¦ī à¦Ľà¦²
Ġà¦¬à¦² à¦Ĺ
Ġà¦ĵ à¦¸à¦®
Ġà¦ĸ à¦ĩà§Ł
âĢĶ à¥¤
à§ľ à¦ľ
à¦°à¦¤ à¦Ń
à¦¾à¥¤ âĢĵ
à¦ĸà¦¨ à¦ķ
Ġà¦¸à¦® à¦ª
Ġà¦¸à¦® à¦¦à¦°
à¦¬à¦¨ à¦°à¦ķ
âĢĻ )
à¦¿à¥¤ )
à¦Ŀ à¦Ļ
Ġà¦ıà¦ĩ à¦ľ
à§İ à¦¶à¦ķ
à¦ī à¦¬à¦²
à¦ī à¦ªà¦¤
à¦ī à¦ªà¦¹
à¦ľà¦¨ à¦®à¦¤
à¦« à¦®
à¦« à¦ĵ
à¦« à¦°à¦®
à¦°à¦¬ à¦ĵ
à¦°à¦¬ à¦¤à¦®
Ġà¦Ĩà¦² à§Ł
à¦¬à¦° à¦®
à¦¬à¦° à¦®à¦¯
à¦¬à¦° à¦¸à¦Ń
à¦°à¦ķ à¦¬
Ġà¦Ł à¦¸à¦Ł
Ġà¦Ł à§Łà¦²
à¦Ĩ à¦¬à¦¦
à¦Ĩ à¦ĩà¦ª
Ġà¦®à¦¤ à¦¨à¦ĩ
à¦ĺ à¦ªà¦¥
Ġà¦ĩ à¦Ľ
Ġà¦ĩ à¦¸à¦®
Ġà¦ĩ à¦īà¦¡
Ġà¦ĩ à¦Ńà¦¨
Ġà¦ĩ à¦«à¦¤
Ġà¦ľà¦¨ à¦¸à¦¨
à¦¬à¦² à¦¹
à¦¬à¦² à¦Ń
Ġà¦ıà¦¸ à¦ıà¦¸à¦¸
à¦ķà¦² à¦¸
Ġà¦Ĺà¦² à¦¬
à¦¤à¦¨ à¦¯
à¦ķà¦Ł à¦Ĺ
à¦ħ à¦²à¦¸
à¦ħ à¦°à¦«
à¦ħ à¦¹à¦®
à¦ħ à¦ĸà¦£
à¦¸à¦¬ à¦¦
à§ĭà¥¤ âĢĵ
à§ĭà¥¤ âĢ¦
à¦¬à¦¤ à¦¤
à¦°à¦¸ à¦¦
à¦¤à¦¬ à¦¸
Ġà¦Ĩà¦¶ à¦¯
à¦¾à¦Ĥ âĢĻ
Ġà¦¹à¦¤ à¦ĩ
à¦¦à¦¨ à¦®à¦¯
Ġà¦¬à¦° à¦ª
Ġà¦¬à¦° à¦Ĺ
à¦¨à¦ĵ à¦ª
à¦¨à¦ĵ à§Ł
Ġà¦ĺà¦° à¦ĩ
Ġà¦ĺà¦° à¦ĵ
à¦¿à¦Ĥ !âĢĿ
à§ĩâĢĶ ?âĢĻ
à¦Ĺà¦² à¦®
Ġà¦ľà¦² à¦§à¦°
Ġà¦¸à¦° à¦¯
Ġà¦®à¦¹ à¦¬
Ġà¦®à¦¹ à¦°à¦®
à¦°à¦¹ à¦®
à¦°à¦¶ à¦®à¦¨
à¦¯à¦ķ à¦¬
à¦°à¦² à¦¹à¦°
Ġà¦ķà¦² à¦®à¦ķ
à¦²à¦¬ à¦ķ
à¦¶à¦¨ à¦¸
Ġà¦Ĩà¦¤ à¦¶
âĢ¦ âĢ¦.
Ġà¦īà¦¤ à¦·
à¦¸à¦¨ à¦Ł
à¦ĩà¦¨ à¦¹
à¦¾âĢĶ âĢĿ
à¦¹à¦² à¦¦
à¦¹à¦² à¦Ł
à¦¼à§ĭ ?
à¦Ńà¦¬ à¦ªà¦°
à¦¦à§Ł à¦ĩ
Ġà¦ķà¦® à¦ľ
à¦·à¦¤ à¦®
à¦¬à¦¦ à¦®
à§ģâĢĻ âĢĶ
à§İà¦ķ à¦£
à¦¤à¦ķ à¦ķ
à¦¤à¦ķ à¦¦
à¦®à¦£ à¦ĩ
à¦®à¦£ à¦ĵ
à¦·à¦ķ à¦Ĺà¦£
à¦¯à¦® à¦ª
à¦ıà¦ķ à¦«
à¦¤à¦® à¦¦
Ġà¦Ĳ à¦Ł
Ġà¦Ĳ à¦¸à¦¬
à¥¤âĢĻ âĢĶ
à¥¤âĢĻ âĢĻ
à¥¤âĢĻ âĢĿ
Ġà¦ĩà¦¨ à¦ª
à¦¬à¦ķ à¦¨
à§ĩ; âĢĶ
Ġà¦¸à¦®à§Ł à¦¹
à¦®à§Ł à¦²
à§ĩâĢĵ à¥¤
à§ĩâĢĵ âĢĵ
Ġà¦Ĺà¦¤ à¦ľà¦¨
à¦¨à¦Ĺ à¦£
à¦°à¦Ĺ à¦®à¦¨
Ġà¦īà§İà¦¸ à¦®
à§¦ à§Ń
à¦¦à¦® à¦ľ
Ġà¦¦à¦¶ à¦Ĺ
à¦¼âĢĶ âĢĺ
Ġà¦ķà¦²à¦ķ à¦£
à¦®à¦¹ à¦°à¦®
à¦®à¦¹ à¦¨à¦¨
à¦¹à¦°à¦£ à¦Ĺ
à¦¹à¦°à¦£ à¦ĵ
Ġà¦¬à¦ī à¦ĵ
à§ĩâĢ¦ à¥¤âĢĻ
à¤ Ń
à¦¦à¦¸ à¦¹
à¦°à¦¬à¦² à¦¤à¦°
à¦®à¦ª à¦ŀ
à¦¸à¦¹ à¦ļà¦°
à¦ļà§Ł à¦ªà¦¤
Ġà¦ľà¦Ĺà¦¤ à¦Ł
à§© à§¬
à§© à§¯
Ġà¦· à¦Ł
Ġà¦· à¦£
à¦¬à¦Ł à¦¦
Ġà¦¨à¦° à¦ĵà¦¯
à¦Ĩà¦Ĺ à¦¸
Ġà¦īà¦ªà¦¨ à¦¯
Ġà¦Ĩà¦ļà¦°à¦£ à¦¬
Ġà¦Ĩà¦ļà¦°à¦£ à¦ĩ
à¦¬à¦ľà¦¨ à¦¬
re e
re at
à¦¿âĢ¦ ?âĢĿ
à§ĩâĢĻ ;
Ġà¦ļà¦°à¦® à¦Ń
à§Ń à§¦
à§Ń à§¬
à¦¤à¦ĸà¦¨ à¦ķ
on e
Ġà¦ĸà¦°à¦ļ à¦Ł
Ġà¦²à§ľ à¦¬
à¦Ĩà¦¶ à¦Ļ
en ds
Ġà¦°à¦¥ à¦ļà¦ķ
al ity
at tle
Ġà¦Ńà¦Ĺà¦¬ à¦Ĺà¦ŀ
Ġà¦Ĩà¦Ł à¦ĺ
à§® à§Ń
à§ģâĢĶ âĢĻ
Ġthe se
Ġà¦ĩà¦Ł à¦Ń
à¦£à¦¦ à¦£
Ġw hen
Ġà§© à§ª
Ġà§© à§¦à§¦
Ġà¦ķà¦¦ à§°
Ġs m
Ġs ub
à¦īà¦¬ à¦ĵà¦¯
à§Ģà¦Ĥ ,
Ġb re
Ġm ot
Ġf am
Ġo ther
à§· à§·
Ġà¦ļà¦°à¦£ à¦¤à¦²
ĠS t
le t
Ġà¤ ®
Ġà¤ ľ
Ġà¦ķà¦¦à¦® à¦Ĺ
ĠP h
Ġà§§à§¨ à§®à§®
ĠM E
Ġl ong
Ġl iter
Ġl ove
ĠT agore
all y
all uc
ur al
Ġà§§à§¯à§ª à§¨
Ġth y
Ġà§§à§¯à§¯à§ ©
Ġà§§à§© à§«à§¦
Ġà§¦ à§«
Ġà§¦ à§®
Ġà¦°à¦ĵ à¦¶à¦¨
ad e
áĥ Ĳ
à¦īà¦ª à¦²à¦¬
à¦Ńà§İà¦¸ à¦¤
Ġà¦ķà¦°à¦¤à¦² à¦Ĺà¦¤
Ġre f
Ġà¦¬à¦Ĺà¦² à¦¦
Ġà¦·à§ľ à¦ĭà¦¤
Ø§ Ø±
Ø§ ÙĦ
Ġà¦ĸà¦¨à¦¨ à¦ķ
Ġhe art
à¦ıà¦® à¦ıà¦¸
Ġà§§à§¯à§© à§©
Ġà¦°à¦Ĺ à¦ļà¦Ł
Ġtr ans
Ġà¦«à¦¸à¦« à¦¸
Ġà§§à§¯à§§à§ ª
à¦ĩà¦¨à¦« à¦°à¦®
Ġà¦¤à§İà¦¸ à¦®
TI ON
por t
ĠRup sha
ĠDetect ive
Ġà¦ĩà¦ķà¦¨ à¦®
Ġà¦Łà¦¸à¦Ł à¦¸
alluc ination
3 8
4 0
4 3
4 5
E N
O de
] ,
] à¥¤
a il
c o
c ol
d en
e x
f ore
h i
j a
j un
j ect
l an
l ess
o c
r u
s y
u k
v ed
w n
y m
¿ ½
Â °
Ð ¼
Ù ģ
Ù ĩ
ï ¿½
Ġ ]
Ġ |
Ġ Õ
Ġ â
Ġ !âĢĻ
Ġ en
Ġ ver
Ġ out
à§ĩ à¦¾à¥¤
à§ĩ à¦¾,
à¦¿ )à¥¤
à¦¿ à¥¥
à¦¿ ...âĢĿ
à¦¨ à¦ļà¦¨
à¦¨ à¦ĩà¦¨
à¦¤ à¦¬à¦²
à¦¤ à¦¸à¦Ļ
à¦¤ à¦ľà¦²
à¦² à¦¬à¦¤
à¦² à¦ªà¦ķ
à¦² à¦®à§Ł
à¦ķ à¦®à¦°
à¦ķ à¦®à¦ª
à¦¯ à¦¦à¦°
à¦¯ à¦®à¦°
à¦¯ à¦ľà¦¯
à¦¯ à¦¹à¦®
à¦¯ à¦ĸà¦£
à¦¬ à§İà¦ķ
à¦¬ à¦®à¦£
à¦¬ à¦īà¦®
à¦® à¦ħà¦¨
à¦¼ âĢ¦à¥¤
Ġà¦ķ à¦ªà¦°
Ġà¦ķ à¦ĵà¦¯
Ġà¦ķ à¦¸à¦¬
Ġà¦ķ à¦¸à¦°à§İ
Ġà¦¬ à¦¦à¦¹
Ġà¦¸ à¦ĩà¦¯
Ġà¦¸ à¦§à¦¬
Ġà¦¸ à§Łà¦²
Ġà¦¸ à¦Īà¦¦
Ġà¦ª à¦ĩ
Ġà¦ª à¦¹à¦°
à¦¸ à¦¬à¦²
à¦¸ à¦ļà¦°
Ġà¦Ĩ à§°
Ġà¦Ĩ à¦īà¦°
à¦¦ à¦°à¦¤
à¦¦ à¦ķà¦¦
à¦Ł à¦®à¦Łà¦®
Ġà¦¨ à¦°à¦¬
Ġà¦¨ à¦°à¦¦
Ġà¦¨ à¦¨à¦¸
Ġà¦® à¦ķà¦°
Ġà¦® à¦¸à¦¨à¦¦
à¦ĩ à¦®à¦¤
à¦ª à¦Ńà¦°
à§Ģ à§ĩ
à¦Ľ à¦ĵà¦¯
à¦Ľ à¦ªà¦Ł
Ġà¦¤ à¦ĸà¦²
Ġà¦ı à¦Ļ
Ġà¦ı à¦°à¦®à¦§
à¦ľ à¦¬à¦°
à¦ľ à¦¬à¦²
à¦ľ à¦¯à¦¨
à¦ľ à¦ĺà¦°
à¦ľ à¦ķà¦¦
à¦¶ à¦²à¦ķ
à¦¼à§ĩ âĢĶâĢľ
Ġà¦ħ à¦ĵ
Ġà¦ħ à¦ĸà¦¨
à¦Ĺ à¦°à¦¬
à¦Ĺ à¦°à¦¸
à¦Ĺ à¦®à¦¤
à¦Ĺ à¦¸à¦¹
à§Ł à¦ľ
à§Ł à¦ĸ
à§Ł à¦ľà¦¨à¦¦
à¦· à¦¤à¦°
à¦· à¦°à¦®
à¦· à¦¸à¦®
à¦§ à¦Ĺà¦¤
à¦¡ à¦¬à¦ª
à¦¡ à§Łà¦¨
à¦¡ à¦Ńà¦¨
à¦ļ à¦°à¦¬
à¦ļ à¦²à¦ķ
à¦ļ à¦°à¦¦
à¦ļ à¦ľà¦¨à¦ķ
à¦¹ à¦®à¦§
à¦¹ à¦²à¦¬à¦¶à¦¤
Ġà¦Ĺ à§İ
Ġà¦Ĺ à¦Łà¦Ĺ
Ġà¦¶ à¦łà¦¤
Ġà¦ļ à¦®à¦¤
Ġà¦ļ à¦ĩà¦²
Ġà¦ļ à¦°à¦ª
Ġà¦° à¦®à¦ľ
Ġà¦° à¦£à¦¬
à¦Ń à¦°à¦¦
à¦Ń à¦¸à¦¸
Ġà¦ıà¦ķ à¦¶à¦Ł
Ġà¦Ľ à¦ĩà¦¯
Ġà¦Ľ à¦²à¦Ľ
à¦ł à¦§
à¦ł à¦²à¦Ĺ
à¦¼à¦¾ !âĢĿ
Ġà¦ī à¦Ľ
à¦Ĥ !
à¦Ĥ )
Ġà¦¬à¦² à¦¦à¦°
Ġà¦² à¦Łà¦¬
Ġà¦ĵ à¦ĺà¦°
Ġà¦ĸ à¦°à¦¦
Ġà¦ĸ à¦¸à¦²
Ġà¦ĸ à¦Ĺà¦®
à§ľ à¦ª
à¦°à¦¤ à¦ĵ
Ġà¦§ à¦¨à¦¦
Ġà¦¸à¦® à¦°à¦¬
Ġà¦ĺ à¦¨à¦ķ
Ġà¦ĺ à¦°à¦ķà¦¨
à¦¬à¦¨ à¦¨
à¦¬à¦¨ à¦²
âĢĻ .
âĢĻ à¥¤âĢĿ
à¦¼à¦¿ à¥¤âĢĿ
à¦¼à¦¿ ?âĢĻ
à¦°à¦£ à¦ľ
à¦¿à¥¤ âĢĺ
à¦Ŀ à¦ª
à¦ī à¦°à¦¨
à¦ī à¦²à¦Ĺ
à¦ī à¦ªà¦¶
à¦ī à§İà¦°
à¦« à¦Ŀà¦®
à¦°à¦¬ à¦²à¦¤
à¦°à¦¬ à¦¹à¦®
à¦¤à¦° à¦¥
à¦¤à¦° à¦ľà¦Ĺà¦¤
à¦ªà¦¨ à¦¸
à¦ªà¦¨ à¦Ł
à¦ªà¦¨ à¦ĵ
à¦ı à¦¤à¦Ĺ
à¦ı à¦°à¦ªà¦°à¦ĩ
Ġà¦Ĩà¦² à¦¯
Ġà¦Ĩà¦² à¦®à¦ķ
Ġà¦Ĩà¦² à¦®à¦Ĺ
Ġà¦Ĩà¦² à¦¬à§İ
Ġà¦¸à¦¬ à¦ķà¦¥
à¦Ĩ à¦®à¦¨
à¦Ĩ à¦°à¦¶
à¦Ĩ à¦ĩà¦²
à¦Ĩ à¦¸à¦ķ
à¦Ĩ à¦¦à¦®
à¦Ĩ à¦¹à¦¤
à¦Ĩ à¦ĩà¦¡
ĠâĢĺ âĢĶ
Ġà¦®à¦¤ à¦ķ
Ġà¦Ĩà¦Ľ à¦°
Ġà¦Ĩà¦Ľ à¦¨
Ġà¦Ĩà¦Ľ à¦²
à¦ĺ à¦¤
à¦ĺ à¦ĵ
Ġà¦ĩ à¦¬à¦¨
Ġà¦ĩ à¦¶à¦ķ
Ġà¦ĩ à¦¹à¦ķ
Ġà¦ľà¦¨ à¦ļ
Ġà¦Ŀ à¦Ŀ
Ġà¦ªà¦¡ à¦ķ
Ġà¦§à¦° à¦¨à¦Ł
à¦¬à¦² à¦¯
à§ģà¦ģ -
à§ģà¦ģ à¦ģ
Ġà¦ł à¦ķà¦¬
à¦¬à¦ª à¦Ł
à¦·à¦£ à¦ľ
Ġà¦Ĩà¦Ĺ à¦®à¦£
à¦ķà¦² à¦Ł
à¦ķà¦² à¦ĩ
Ġà¦ªà¦¥ à¦ľ
Ġà¦ħà¦¸ à¦®à¦°
Ġà¦ħà¦¸ à¦«à¦²
à¦¤à¦¨ à¦®
à¦ķà¦Ł à¦®
à¦ķà¦Ł à¦®à§Ł
à¦ķà¦° à¦ĸ
à¦ħ à¦¸à¦¤
à¦ħ à¦ªà¦¬
à¦²à¦ķ à¦¥
Ġà¦Ĩà¦¨ à¦®
Ġà¦Ĩà¦¨ à¦ª
Ġà¦Ĩà¦¨ à¦²à¦ķ
Ġà¦ħà¦° à¦ľ
à¦ķà¦¤ à¦²
à¦°à¦¥à¦® à¦ľ
à¦°à¦¥à¦® à¦Ń
Ġà¦ħà¦¦ à¦®à¦¨
Ġà¦ħà¦¦ à¦²à¦¬
à¦¦à¦¨ à¦°à¦¤
Ġà¦¬à¦° à¦²
Ġà¦¬à¦° à¦ĸ
à¦¿à¦Ĥ !âĢĻ
Ġà¦ľà¦² à¦¶
Ġà¦ľà¦² à¦Ĺ
Ġà¦¸à¦¨ à¦¦à¦ªà¦¤
Ġà¦ħà¦Ń à¦ķ
Ġà¦®à¦¹ à¦¨
à¦°à¦¹ à¦¬
à¦°à¦¹ à¦°à¦¤
à¦¨à¦¬ à§İ
à¦¯à¦ķ à¦¨
Ġà¦ķà¦² à¦¶
à¦²à¦¬ à¦¸à¦¨
à¦²à¦¨ à¦ª
à¦ĩà¦² à¦ĩ
à¦ĩà¦² à¦ª
à¦°à¦¦ à¦¦
Ġà¦ħà¦ª à¦ļ
Ġà¦ħà¦ª à¦¶à¦ķ
Ġà¦¸à¦¹ à¦®
âĢ¦ ?âĢĻ
à¦ķà¦¬ à¦ĩ
à¦°à¦¯ à¦ľ
à¦¸à¦¨ à¦ļ
à¦ĩà¦¨ à¦¡
à¦¹à¦² à¦®à§Ł
à¦¼à§ĭ !
à§İà¦¸ à¦ķà¦°
à¦¿? âĢĶ
Ġà¦¨à§Ł à¦Ł
Ġà¦°à¦Ļ à¦Ĺ
Ġà¦°à¦Ļ à¦¹
à¦¦à§Ł à¦ľ
à¦¦à§Ł à¦Ĺ
Ġà¦ªà¦¦ à¦¦
à¦¬à¦¦ à¦®à¦¨
à¦®à¦£ à¦ķà¦¨
à¦°à¦ª à¦¤à¦¨
à¦¦à¦² à¦Ł
à¦¦à¦² à¦ª
à¦¬à¦¸ à¦®à¦ķ
Ġà¦«à¦² à¦²
Ġà¦Ĳ à¦ļ
à¦ªà¦ķ à¦¨
Ġà¦ıà¦ķà¦¦ à¦£
à¦®à¦¬ à¦¡
à§° à¦ª
à§° à¦§
à¦ľà¦² à¦¸
à¦ħà¦¨ à¦Ļ
à§ģà¥¤ âĢĵ
Ġà¦Ĩà¦§ à¦®à¦°
à¦¹à¦¨ à¦²
à¦¸à¦« à§ľ
Ġà¦Ī à¦·à¦¦
à¦¯à¦° à¦Ļ
Ġ( !)
à§ĩâĢĵ !
à¦¸à¦ķ à¦Ĺ
à¦¸à¦ķ à¦¦à¦²
à¦¼à§ģ âĢĶ
Ġà¦¬à§ľ à¦¬
Ġà¦¬à§ľ à¦¶
Ġà¦¬à¦ķ à¦ļ
à¦¾âĢĻ ;
Ġà¦ªà¦² à¦¸
à¦¾âĢĵ à¥¤
à¦¦à¦® à¦Ĺ
Ġà¦ķà¦¨ à¦¡
Ġà¦ķà¦¨ à¦Ńà¦¯
Ġà¦Ĩà¦Ń à¦°à¦£
à¦ªà¦£ à¦¨
Ġà¦¨à¦°à¦® à¦¤
à¦²à¦Ĺ à¦ŀ
Ġà¦§à¦¨ à¦ªà¦¤
Ġà¦ħà¦Łà¦² à¦Ń
à¦¶à¦² à¦ĵ
à¦¬à¦ĩ à¦Ĺ
à¤ ¼
à¦ķà¦¸ à¦Ń
Ġà¦Ĺà¦°à¦® à¦ķ
à¦¤à¦ª à¦ŀ
à¦ķà¦ľà¦¨ à¦ĩ
à¦¥à¦² à¦ªà¦¦
à¦¿à¥¤âĢĻ âĢĿ
Ġt old
à¦¨à¦ª à¦¤à¦¨
à¦¿âĢĻ ;
Ġà¦ıà¦°à¦ķà¦® à¦Ł
Ġà¦ıà¦°à¦ķà¦® à¦Ń
à¦¨à¦ļ à¦£
à¦¾âĢ¦ .
in s
Ġà¦¶à¦ªà¦¥ à¦¬
Ġà¦Ĩà¦ļà¦°à¦£ à¦Ł
à¦Ī à¦¨
Ġà¦ľà¦Ĺ à§İà¦¸
à¦¸à¦Ń à¦¬à¦¨
al c
al e
al f
à§¬ à§®
it al
à¦¾!âĢĿ âĢĶ
Ġà¦¨à¦Ĺ à¦°à¦ķ
Ġw here
Ġw ould
Ġà§© à§¨
Ġà§© à§©
Ġà§© à§®
Ġà¦Ńà¦°à¦¤ à¦®
à¦ļà¦® à§İà¦ķ
Ġs h
à¦īà¦¬ à¦Ĺ
à¦īà¦¬ à¦ĵà§Ł
Ġc ur
Ġà¦¨à¦°à¦ķ à¦ķ
es c
Ġb et
à¦ĩà¦« à¦¸
à¦ĩà¦« à¦°à¦®
à¦ľà¦¦ à¦°à¦¬
Ġf e
Ġf ur
Ġà§§à§¯à§Ń à§¦
Ġà§§à§¯à§Ń à§¨
à¦¤à¦ļ à¦°à¦¬
Ġà¦ĺà¦· à¦²
Ġà¦ĺà¦· à¦Ľ
Ġp r
om b
ic t
ĠI nt
Ġà¤ ¹
Ġd r
Ġd y
Ġh alf
Ġà§« à§¦à§¦
à¦¼à¦¿à¦Ĥ à¥¤
ĠA n
ĠA yan
ion s
ĠP ro
à§ľà¦² à¦£
Ġà§§à§¨ à§¯à§§
ro p
à¦¶à¦Ĺà¦¤ à¦Ń
à¦£à¦¸ à¦ŀ
à¦īà¦ł à¦¬
ur y
am es
Ġà§§à§¯à§ª à§®
Ġth an
Ġà¦®à¦¤à¦²à¦¬ à¦Ł
Ġà§¦ à§¯
Ġà§§à§Ń à§«à§Ń
Ġà¦¸à¦² à¦®à¦¨
id ent
ir it
ir st
ĠL ond
Ġre s
Ġre al
ation s
ï»¿ âĢĻ
Ġà¦®à¦¦à¦¨ à¦®
Ġà¦ľà¦¹ à¦°à¦¤
Ġà§§à§¯à§® à§Ń
op t
Ġhe re
à¦ľà¦°à¦£ à¦®à§Ł
Ġst ip
Ġà§§à§¯à§© à§¨
Ġà§§à§¯à§© à§®
ĠØ ª
à¦®à§İ à¦²
ĠÐ ¿
Ġit s
à¦¦à¦ļ à§Łà¦¨
ab le
ist ory
ĠY ou
Ġà§§à§¯à§¨ à§§
Ġà§§à§¯à§¨ à§¯
à¤¹ à¤°
à¦Ķ à¦¦
ug g
iz ed
ÂŃÂŃÂŃÂŃÂŃÂŃÂŃÂŃ ÂŃÂŃÂŃÂŃÂŃÂŃÂŃÂŃ
ĠBe auty
×Ļ ×
Ġà¦¨à¦°à¦ª à¦¶
áĥĺ áĥ
led ge
Ġà¦ħà¦¬à§Ł à¦¬à¦¹
ĠSoci ety
ĠDi ya
áĥĲ áĥ
Ġà¦¬à¦¦à¦¹ à¦ľà¦®
Ġà¦Ĺà¦Łà¦Ĺ à¦Ł
Ġà¦ħà¦¦à¦²à¦¬ à¦¦à¦²
ĠLond on
Ġstip ends
4 2
4 4
A L
A TION
F i
G O
I oT
a ug
g a
i at
i ous
l s
l es
r ic
r ing
r ish
r ough
t en
t ain
v as
w ay
£ áĥ
Â ¤
Ã ¡
Ð ´
Ñ Į
Ø ¯
Ù Ĳ
à ±
Ġ /
Ġ X
Ġ Z
Ġ ent
Ġ ra
Ġ ill
Ġ ess
Ġ up
à¦¾ ..
à§ĩ à§į
à¦° à¦°à¦¶
à¦° à¦ļà¦ķ
à§į à¥¤âĢĻ
à¦¿ à§į
à¦¿ ..
à¦¨ à§ľ
à¦¨ à¦Ĺà¦²
à¦¨ à¦®à¦²
à¦¤ à¦ł
à¦¤ à¦ĵà¦¯
à¦¤ à¦¹à¦¤
à¦¤ à¦·à¦Ł
à¦² à¦¸à¦¬
à¦² à¦ªà¦Ł
à¦² à¦īà¦¦
à¦ķ à¦·à¦£
à¦ķ à¦¶à¦ķ
à¦ķ à¦ľà¦¬
à§ģ âĢĮ
à¦¯ à¦Ľ
à¦¯ à¦²à¦ķ
à¦¯ à¦§à¦¨
à¦¯ à¦¦à§Ł
à¦¯ à¦¶à¦¬
à¦¬ à¦Ĺà¦²
à¦¬ à¦®à¦¸
à¦¬ à¦īà¦Ł
à¦® à¦¢
à¦® à§°
à¦® à¦Ĺà¦ľ
à¦® à¦Ńà¦°
à¦® à¦·à¦ª
à¦¼ âĢĻ-
à¦¼ âĢĿâĢĶ
Ġà¦ķ à¦¦à¦²
Ġà¦ķ à¦ĩà¦¬
à§ĭ ...
à§ĭ ...âĢĿ
Ġà¦¬ à¦¨à¦¤
Ġà¦¬ à¦¢
Ġà¦¬ à¦ĸà¦°
Ġà¦¬ à¦°à¦¬à¦°
Ġà¦¸ à§İà¦¸
Ġà¦¸ à¦¸à¦ª
Ġà¦¸ à¦¶à¦Ļ
Ġà¦¸ à§İà¦¸à¦Ļ
à¥¤ "
Ġà¦ª à¦Ĺ
à¦¸ à§İà¦ķ
à¦¸ à¦ļà¦ķ
à¦¸ à§°
à¦¸ à¦¨à¦¤à¦¨
Ġà¦Ĩ à¦ļà¦ķ
Ġà¦Ĩ à¦īà¦¡
à¦¦ à¦²à¦ķ
à¦¦ à¦ªà¦¦
à¦¦ à¦¤à¦²
à¦Ł à¦°à¦¦
à¦Ł à¦°à¦ĵ
à¦Ł à¦¬à¦¸
à¦Ł à¦Ńà¦°
à¦Ł à¦®à¦¡
Ġà¦¨ à¦¬à¦¤
Ġà¦¨ à¦°à¦¹à¦¤
Ġà¦® à¦°à¦ľ
Ġà¦® à¦Ĺà¦¨
à¦ĩ à¦²à¦¨
à¦ĩ à¦«à¦²
à¦ĩ à¦ªà¦²
à¦ĩ à¦ľà¦Ł
à¦ĩ à¦¶à¦Ł
à¦ª à¦°à¦¤
à¦ª à¦ķà¦Ł
à¦ª à¦¸à¦¨
à¦ª à¦ľà¦²
à¦ª à¦£à¦¤
à§Ģ âĢĿâĢĶ
Ġà¦¦ à¦¦à¦°
Ġà¦ı à¦£
Ġà¦ı à¦¨à¦Ł
Ġà¦¹ à¦Ĺ
Ġà¦¹ à¦«à¦®
à¦ľ à¦Ĺà¦¨
à¦ľ à¦®à¦°
à¦ľ à¦ĺà¦¨
à¦¶ à¦¸à¦®
à¦¶ à¦Ńà¦°
à¦ĸ à¦Ŀ
âĢ ĭ
Ġà¦ħ à¦°à¦¸
Ġà¦ħ à¦Ĺà¦¨
Ġà¦ħ à¦¹à¦¨
à¦Ĺ à¦ľà¦¨
à¦Ĺ à¦¬à¦¦
à¦Ĺ à¦®à¦£
à¦Ĺ à¦łà¦ķ
à§Ł à¦¸à¦Ļ
à¦· à¦Ĺà¦£
Ġà¦¯ à¦®à¦²
Ġà¦¯ à¦®à¦°
Ġà¦¯ à§İà¦ªà¦°
à¦§ à§ľ
à¦§ à¦°à¦¦
à¦§ à¦ªà¦¥
à¦¡ à¦²à¦Ł
à¦ļ à¦¹
à¦ļ à¦°à¦ķ
à¦ļ à¦°à¦¨
à¦ļ à¦ªà¦¦
à¦ļ à§°
à¦¹ à¦°à¦¬
à¦¹ à¦ľà¦¨à¦ķà¦Ń
Ġà¦Ĺ à¦¬à¦°
à¦ģ ,
à¦£ à¦®à¦¨
à¦£ à¦ªà¦¨
à¦£ à¦ļà¦¨
à¦£ à¦ķà¦¥
à¦¥ à¦ľà¦¨
à¦¥ à¦°à¦ĵ
Ġà¦¶ à¦¤à¦°à¦Ļ
Ġà¦ľ à¦ł
Ġà¦ľ à¦Ĺà¦ľ
Ġà¦Ń à¦ľà¦®
Ġà¦° à¦¸à¦®
Ġà¦° à¦Łà¦²
Ġà¦° à¦Ĺà§ľ
à¦ĵ à¦«
à¦ĵ à¦°à¦ķà¦®
à§ĩà¥¤ "
à§ĩà¥¤ [
à§ĩà¥¤ âĢľ
Ġà¦ıà¦ķ à¦¡
Ġà¦ıà¦ķ à¦ķà¦Ń
Ġà¦Ĩà¦® à¦Ł
à¦ł à¦ł
à¦ł à¦¨à¦ķ
Ġà¦ī à¦ĩà§Ł
à¦Ĥ /
à¦Ļ à¦Ł
Ġà¦Ĩà¦° à¦Ń
Ġà¦² à¦ĩà¦Ľ
Ġà¦² à¦ĩà§Ł
Ġà¦² à¦ķà¦¬à¦ķ
Ġà¦ĵ à¦«
Ġà¦ĵ à¦ľà¦°
Ġà¦ĸ à§İà¦¨
âĢĶ "
à¦°à¦¤ à¦¸
à¦°à¦¤ à¦ĩ
à¦°à¦¤ à¦ª
à¦°à¦¤ à¦ķà¦°
Ġà¦ħà¦¨ à¦¬à¦§
à¦¾à¥¤ ..
ĠâĢ ŀ
Ġà¦ªà¦° à¦ľà¦¨
Ġà¦¸à¦® à¦ªà¦¦
Ġà¦¸à¦® à¦®à¦°
âĢĻ âĢ¦
à¦¼à¦¿ !âĢĿ
Ġà¦®à¦¨ à¦¶
Ġà¦®à¦¨ à¦¨à¦¯
à¦®à¦¨ à¦®
à¦ªà¦° à¦ªà¦°
à¦ªà¦° à¦®à¦£
à¦ªà¦° à¦¬à¦¶
à¦Ŀ à¦Ĺà¦¡
Ġà¦ıà¦ĩ à¦¸
à§İ à¦«
à¦ī à¦ĩà¦²
à¦ī à¦ªà¦¦
à¦« à¦¥
à¦°à¦¬ à¦¯
à¦°à¦¬ à¦°à¦£
à¦°à¦¬ à¦¦à¦¨
à¦ı à¦¶
à¦ı à¦ķà¦°
à¦ı à¦¨à¦ķ
à¦¬à¦° à¦Ļ
Ġà¦Ł à¦¬à¦Ĺ
Ġà¦Ł uhin
à¦Ĩ à¦°à¦¤
à¦Ĩ à¦«
à¦Ĩ à¦ĵà¦¯
à¦Ĩ à¦°à¦¨
à¦Ĩ à¦²à¦¬
à§Į ?
Ġà¦¹à¦² à¦ĩ
à¦ĺ à¦¯
à¦ĺ à¦¦à¦°
à¦ĺ à¦¢
Ġà¦ĩ à¦¸à¦°
Ġà¦ĩ à¦īà¦ľ
Ġà¦ĩ à¦īà¦¸
Ġà¦ľà¦¨ à¦°
Ġà¦ľà¦¨ à¦¬à¦¸à¦¤
Ġà¦Ŀ à¦ķà¦®
à§Ī âĢĵ
à¦¼à¥¤ âĢĶâĢĻ
Ġà¦ıà¦¬ à¦®
à¦¬à¦² à¦ļ
à¦¬à¦² à¦¤à¦®
Ġà¦ł à¦Ĺ
à¦¬à¦ª à¦£
Ġà¦ıà¦¸ à¦ıà¦®à¦ıà¦¸
à¦°à¦® à¦ŀ
à¦ĥ âĢĻ
Ġà¦¢ à¦ª
Ġà¦Ĩà¦Ĺ à¦°à¦¤à¦²
à¦ķà¦² à¦¬
à¦ķà¦Ł à¦ĩ
à¦ķà¦° à¦Ĺ
à§ĭ, âĢĻ
à¦ħ à¦¡
à¦ħ à¦ªà¦¤
à¦ħ à¦§à¦®
à¦ħ à¦¨à¦¬à¦¦
à¦°à¦¥ à¦ª
Ġà¦ħà¦® à¦²à¦ķ
à¦¬à¦¤ à¦ª
à¦¬à¦¤ à¦ļ
à¦°à¦¨ à¦®
à¦°à¦¨ à¦Ł
Ġà¦Ĩà¦¨ à¦°
Ġà¦Ĩà¦¨ à¦ıà¦ķ
à¦°à¦¸ à¦ľ
à¦°à¦¸ à¦°à¦®
à¦¤à¦¬ à¦ĩ
Ġà¦ıà¦² à¦Ĺ
Ġà¦ıà¦² à¦Ĺà¦°
Ġà¦Ĩà¦¶ à¦°à¦«
à¦¨à¦ĵ à¦¨
Ġà¦ĺà¦° à¦ª
à¦¿à¦Ĥ )
à¦Ĺà¦² à¦ļ
à¦Ĺà¦² à¦ļà¦ķ
Ġà¦ľà¦² à¦¤
Ġà¦ľà¦² à¦ľà¦¨
Ġà¦ħà¦Ń à¦¬
Ġà¦®à¦¹ à¦¦
à¦Ĺà¦¤ à¦¦
à¦°à¦¹ à¦Ļ
à¦®à¦¤ à¦ĵ
Ġà¦ķà¦°à¦¬ à¦ĩ
Ġà¦ķà¦¬ à¦·à¦®
Ġà¦īà¦ª à¦Ľ
à¦°à¦ľ à¦®
à¦¨à¦¬ à¦Ľà¦°
à¦°à¦¶ à¦¨
à¦°à¦¶ à¦¤
à¦ĸà¦² à¦Ń
à¦¯à¦ķ à¦Ń
à¦°à¦² à¦¸à¦Ń
Ġà¦ķà¦² à¦¨
Ġà¦ķà¦² à¦ľ
à¦²à¦¬ à¦°à¦£
à¦²à¦¬ à¦¦à¦¨
à¦²à¦¨ à¦¦
à¦²à¦¨ à¦¹
à¦²à¦¨ à¦ķà¦°
à§ĩ- âĢĺ
à¦§à¦¨ à¦ª
Ġà¦ħà¦ª à¦¯
à¦¶à¦¨ à¦®
à¦¶à¦¨ à¦ª
Ġà¦ıà¦¤ à¦¸à¦¬
âĢ¦ âĢĻà¥¤
à¦ķà¦¬ à¦¦à¦²
à¦ªà¦¦ à¦¶
à¦ªà¦¦ à¦¸à¦Ļ
à¦¸à¦¨ à¦¸
à¦¸à¦¨ à¦Ĺ
à¦¸à¦¨ à¦ªà¦¤
à¦ĩà¦¨ à¦ľ
Ġà¦ħà¦ļ à¦²à¦¤
à¦ıà¦ĩ à¦Ĺ
à¦ıà¦ĩ à¦¸à¦¬à¦ĩ
à§Ģ, âĢĻ
à¦¹à¦² à¦ĩ
à¦¹à¦² à¦ª
à§İà¦¸ à¦®
Ġà¦¨à§Ł à¦ķ
à¦¦à§Ł à¦ª
à¦¤à¦² à¦ª
Ġà¦¯à¦¤ à¦¸à¦¬
Ġà¦¯à¦¤ Åĵ
Ġà¦¬à¦ĩ à¦ªà¦¡
à¦°à¦ĵ à¦°à¦ĩ
à¦·à¦¤ à¦ĩ
à¦¨à¦ķ à¦¥
à¦¨à¦ķ à¦°à¦£
Ġà¦¬à¦Ľà¦° à¦Ł
à¦®à¦£ à¦¸
à¦®à¦£ à¦Ń
Ġà¦ħà¦Ĺ à¦¸
âĢĮ âĢĮ
à¦¸à¦° à¦·
à¦¯à¦® à¦¹
à§įâĢĮ âĢĵ
à§įâĢĮ âĢ¦
à¦ıà¦ķ à¦°à¦ķà¦®
à¦¬à¦¸ à¦Ļ
à¦¤à¦® à¦¸
Ġà¦ħà¦² à¦¸à¦Ń
à¦°à¦Ń à¦ķ
Ġà¦ħà¦¶ à¦¥
Ġà¦Ĳ à¦¯
à¦¶à¦ķ à¦ĵ
à§Łà¦¨ à¦¶
Ġà¦ĩà¦¨ à¦«à¦°
à¦°à¦ķà¦® à¦Ń
à§° à¦ļ
à¦ľà¦² à¦®
à¦ľà¦² à¦ļà¦ķ
?âĢĻ -
Ġà¦Ĩà¦§ à¦²
Ġà¦Ĩà¦§ à¦¸
Ġà¦Ĩà¦§ à¦¶
Ġà¦Ĩà¦§ à¦®à¦¯
Ġà¦Ĩà¦§ à¦ĺà¦¨
à¦¹à¦¨ à¦¦
à¦¹à¦¨ à¦ª
Ġà¦Ńà¦¬ à¦Ń
à¦®à§Ł à¦¦
Ġà¦Ĩà¦ļ à¦®à¦¨
à¦¾! âĢĶ
Ġà¦īà¦² à¦«
Ġà¦Ĺà¦¤ à¦¯
Ġà¦īà§İ à¦¸à¦¬à¦ĩ
à¦¨à¦Ĺ à¦®
Ġà¦Ĩà¦¹ à¦¤à¦¦
Ġà¦¨à¦¬ à¦Ĺ
Ġà¦¦à¦² à¦ĩ
à¦ªà¦¸ à¦ª
Ġà¦ļà¦ķ à¦®
à¦¼à§Ģ ?
Ġà¦ĺà¦¨ à¦¶
Ġà¦ĺà¦¨ à¦ĺ
à¦Łà¦° à¦°
Ġà¦ķà¦· à¦Ľ
à¦®à¦¸ à¦¹
Ġà¦¬à¦Ł à¦®
à¦Ĩà¦° à¦Ĩà¦ĩ
à¦°à¦®à¦£ à¦¸à¦Ļ
à¦Ĺà¦¬ à¦§
à¦ľà¦¬ à¦ªà¦¨
à¦¿! )
Ġà¦§à¦¨ à¦§
à¦¹à¦°à¦£ à¦ĩ
à¦¨à¦Ń à¦¨
à¦¾à¥¤âĢĻ âĢĻ
à¦¿âĢĵ âĢĵ
Ġà¦¨à¦ľà¦° à¦¬à¦¨
à¦¼à¦Ĥ ,
Ġà¦¬à¦ī à¦Ŀ
à§ĩâĢ¦ âĢ¦
à¦®à¦¶ à¦°à¦£
à¦ķà¦¶ à¦¤
à¤ §
à¤ ģ
à¤ ł
Ġà¦¶à¦¹ à¦°à¦®à§Ł
à¦®à¦ľ à¦¡
à¦®à¦¦ à¦ª
Ġà¦ķà§Ł à¦Ł
à¦ļà¦°à¦£ à¦¶
à¦ļà¦°à¦£ à¦ĵ
à¦°à¦« à§İ
à¦¤à¦ª à¦²
à¦ķà¦Ĺ à¦ŀ
à¦ĩà¦Ń à¦¸
à¦ķà¦ľà¦¨ à¦¦
à¦·à§Ł à¦Ń
à¦¬à¦¹ à¦Ń
Ġà¦ľà§Ł à¦®
à¦¨à¦¶ à¦Ł
à¦ļà§Ł à¦¹
Ġà¦ķà¦²à¦® à¦ĩ
Ġà¦ķà¦²à¦® à¦ĵ
à¦¿âĢĻ !
à¦Ĩà¦ķ à¦¬à¦°
à¦¬à¦Ł à¦Ł
Ġà¦Ĩà¦ĩà¦¨ à¦¸à¦Ļ
à§« à§¨
à§« à§§
an y
à¦¾âĢ¦ à¥¤âĢĿ
à§ĩ!âĢĿ âĢĶ
à¦¶à¦¤ à¦§à¦¨
Ġà¦¸à§İ à¦®
Ġà¦¶à¦ªà¦¥ à¦Ĺ
Ġà¦Ĩà¦ļà¦°à¦£ à¦ĵ
à¦¬à¦ľà¦¨ à¦°
à¦¬à¦ľà¦¨ à¦¹
re ad
Ġà¦Ĩà¦« à¦°
à¦¬à§Ł à¦ĩ
à¦¬à¦°à¦¤ à¦ª
à§Ń à§©
Ġà¦ľà¦Ĺ à¦Ł
Ġà¦ľà¦Ĺ à¦¦à¦²à¦ª
à¦ıà¦®à¦¨ à¦ĵ
à¦¾âĢĿ -
à¦ħà¦¬ à¦¸à¦¨
Ġà¦ıà¦¡ à¦Ń
Ġà¦Ĩà¦Ł à¦¦
Ġthe m
Ġà¦Ŀà§ľ à¦Ŀ
it a
Ġà¦Ĩà¦ĩ à¦¸à¦²
Ġà¦Ĩà¦ĩ à¦ĵà¦¨
or a
Ġw ater
Ġà§© à§¬
Ġà¦Ĺà¦ľ à¦¦à¦¨
Ġà¦Ńà¦°à¦¤ à¦ķ
à¦¿. -
Ġa g
Ġà¦ıà¦ķà¦¶ à¦Ń
Ġc ha
Ġc omp
à¦¿!âĢĿ âĢĶ
à¦¸à¦ķà¦² à¦ķ
ou nt
Ġà¦ĭà¦£ à¦Ĺ
Ġm ust
à¦Ĩà¦§ à¦ĸ
Ġà¦ľà¦¨à¦¸ à¦®à¦°
Ġà¦°à¦¤à¦¨ à¦¦
à¦ĩà¦« à¦¯
à§¨à§¦à§¦ à§§
Ġf ar
Ġà¦ļà¦°à¦£ à¦¸
Ġà¦¶à¦¨ à¦¶à¦¨
à¦¤à¦ļ à¦°à¦¦
Ġp la
om m
ĠS e
ĠS h
ĠS ar
Ġà¦ĩà¦¹ à¦ľ
Ġà¦¨à¦ĵ à¦Ĺ
Ġà¤ °
Ġd is
Ġh or
Ġh allucination
à¦ħà¦ªà¦° à¦¦
Ġà§§à§® à§¦à§§
à§ĩâĢĿ ,
à¦īà§İà¦¸à¦¬ à¦®
ĠB ut
ĠB ang
Ġà§§à§¯à§« à§¦
ro ss
Ġà¥¤ à¥¤
Ġà¦®à¦Ī à¦¨à¦ĵ
ol og
ĠM ar
ĠM em
Ġl o
Ġl ul
Ġà¦¨à¦ķà¦² à¦ķ
Ġe p
Ġà§§à§¯à§ª à§¦
ĠR O
ĠD E
ĠD edic
Ġà§§à§¯à§¯à§ §
Ġà¦īà¦Ńà§Ł à¦ķ
Ġà§¦ à§¬
ig ital
Ġto o
ĠN GO
Ġg od
Ġà¦¨à¦ľ à¦°à¦Ł
ĠL et
ĠL ect
à¦ħà¦¹ à¦Ļ
Ġà¦īà¦ĩ à¦²à¦ķ
Ġre c
Ġre ad
od e
Ġà¦Ĺà¦ł à¦¨à¦ķ
Ġy our
Ġà§§à§¯à§® à§§
Ġà§§à§¯à§® à§©
Ġà§§à§¯à§® à§«
Ġà§§à§¯à§® à§ª
Ġà§§à§¯à§® à§¬
Ġà§§à§¯à§® à§¯
Ġà¦·à§ľ à¦ľ
Â·Â·Â· à¥¤
Ġne igh
la by
ĠW i
Ġà§§à§¯à§¬ à§¯
ĠÐ º
ind u
Ġà¦ªà¦łà¦¨ à¦ª
ĠU S
Ġv al
Ġse em
Ġor ig
Ġà¦®à¦Ł à¦°à¦¶
ĠÙ ħ
ĠÙ Ĩ
ĠâĢĶâĢĶâĢĶ âĢĵ
ĠâĢĶâĢĶâĢĶ âĢĶâĢĶâĢĶâĢĶ
av en
Ġan y
Ðµ ÑĢ
ĠInd ia
Ġà¦Ĩà¦ī à¦Łà¦ª
ang u
TE M
-- -
à§§à§¯à§¬ à§¨
Ġcont in
ne y
à¦¸à¦¹à¦¨ à¦¶
âĤ Ĥ
Ġà¦²à¦Ľ à¦®à¦¨
ĠBengal i
Ġtw o
Ġap p
erson al
eop le
Ġà¦¶à¦ĵ à¦ķà¦¤
Ġfam il
Ġà¦²à¦Łà¦¬ à¦¹à¦°
Ġlul laby
ĠDedic ated
ĠLect ures
" âĢĶ
) !
- âĢĻ
. ,
4 1
? -
A T
C T
D I
G H
M S
O R
R E
U GH
a urav
b e
b o
d om
e ch
f t
h an
h it
h ing
i o
i y
i ed
i um
k s
m e
m al
n ung
o on
p r
p ect
r an
s o
s ide
t y
v ol
w ays
w ard
x x
Ñ Ī
× ¢
Ø ¨
Ø ª
Ø Ń
à ²
á ŀ
ì Ŀ
Ċ ĠĠ
Ġ 1
Ġ 7
Ġ z
Ġ Î
Ġ à§İà¦ķ
Ġ er
Ġ qu
Ķ áĥ
ķ ×
à¦¾ à§į
à¦¾ âĢį
à¦¾ ï»¿
à¦° à¦¨à¦¤
à¦° à¦°à¦¸
à¦° à¦Ŀà¦²à¦¸
à¦¿ Â¤
à¦¨ à¦ŀ
à¦¨ à¦¦à¦°
à¦¨ à¦°à¦¦
à¦¨ à¦®à¦£
à¦¨ à¦¸à¦Ļ
à¦¨ à¦®à¦ľ
à¦¤ à¦²à¦ķ
à¦¤ à¦«à¦²
à¦¤ à¦¸à¦¹
à¦² à¦Ĺà¦¤
à¦² à¦Ĩà¦¨
à¦² à¦ĺà¦¡
à¦² à§İà¦ľ
à¦ķ à¦ľà¦®
à§ģ ),
à¦¯ à¦°à¦¬
à¦¯ à¦ľà¦²
à¦¬ à¦·
à¦¬ à¦¬à¦¨
à¦¬ à¦§à¦¨
à¦¬ à¦ľà¦°
à¦¬ à¦ľà¦¨à¦ķ
à¦¬ à¦ľà§Ł
à¦¬ à§İà¦¸à¦²
à¦® à¦¦à¦¨
à¦® à¦łà¦¤
à¦¼ âĢ¦âĢĿ
à¦¼ âĢĻâĢĶ
à¦¼ ...
à¦¼ )à¥¤
Ġà¦ķ à¦ľ
Ġà¦ķ à¦ķà¦ª
à§ĭ à¦¾
à§ĭ à§į
à§ĭ à¦ĥ,
Ġà¦¬ à¦ĸà¦¶
Ġà¦¸ à¦§
Ġà¦¸ à¦°à¦®
Ġà¦¸ à¦¦à¦¨
Ġà¦¸ à¦²à¦Ļ
Ġà¦¸ à¦ªà¦¸à¦ª
Ġà¦ª à¦¨à¦°
Ġà¦ª à¦ĩà¦ª
à¦¸ à¦¤à¦¨
à¦¸ à¦¦à¦°
à¦¸ à¦ļà¦²
à¦¸ à¦°à¦ĵ
Ġà¦Ĩ à¦īà¦¨
à¦¦ à¦ľà¦¨
à¦¦ à¦Ĺà¦²
à¦¦ à¦ľà¦Ĺà¦¤
à¦¦ à¦ľà¦Ĺà§İ
à¦Ł à§Ł
à¦Ł à¦Ŀ
à¦Ł à¦ªà¦¤
à¦Ł à¦ªà¦¦
à¦Ł à¦ļà¦ķ
à¦Ł à¦ķà¦Łà¦ķ
Ġà¦¨ à¦°à¦²
Ġà¦¨ à¦²à¦Ł
Ġà¦¨ à¦ĵà¦°
Ġà¦® à¦®à¦²
Ġà¦® à¦¦à¦ķ
à¦ĩ à§ľ
à¦ĩ à¦°à¦¨
à¦ĩ à¦®à¦°
à¦ĩ à¦®à¦ª
à¦ĩ à¦ľà¦¨à¦ķ
à¦ĩ à¦īà¦Ł
à¦ª à§İ
à¦ª à¦®à¦¤
à¦ª à¦¶à¦¬
à§Ģ ]
à§Ģ âĢĶâĢľ
Ġà¦¦ à¦®à¦Ł
à¦Ľ à¦ĸ
Ġà¦¤ à¦ŀ
Ġà¦ı à¦ªà¦°
Ġà¦¹ à¦¸à¦¨
Ġà¦¹ à¦ķà¦¦
Ġà¦¹ à¦Ĺà¦¸
à¦ľ à¦²à¦¤
à¦ľ à¦Ĺà¦£
à¦ľ à¦¬à¦ªà¦£
à¦¶ à¦°à¦¦
à¦¶ à¦ķà¦¬
à¦¼à§ĩ !âĢĿ
Ġà¦ħ à¦¯à¦¯
à¦Ĺ à¦«
à¦Ĺ à¦ķà¦°
à¦Ĺ à¦¤à¦¬
à¦Ĺ à¦¸à¦°
à¦Ĺ à¦¢
à¦Ĺ à¦ķà¦¨
à§Ł à¦®à¦ķ
à§Ł à¦¨à¦ķ
à¦· à¦®à¦£
à¦§ à¦§
à¦§ à¦°à¦ķ
à¦§ à¦¬à¦²
à¦§ à¦°à¦²
à¦§ à¦¬à¦¬
à¦§ à¦¸à¦¹
à¦¡ à¦ĸ
à¦¡ à¦§
à¦¡ à¦£
à¦¡ à¦ľà¦¨
à¦¡ à¦¸à¦®
à¦¡ à¦¸à¦ĵ
à¦ļ à¦¶à¦¬
à¦ļ à§Łà¦¨
à¦ļ à¦ĺà¦°
à¦ļ à¦¬à¦Ł
à¦¹ à¦¬à¦°
à¦¹ à¦ªà¦¤
à¦¹ à¦ķà¦¦
à¦¹ à¦Ńà¦Ļ
Ġà¦Ĺ à¦®à¦ķ
à¦ģ à¦ģ
à¦£ à¦¢
à¦£ à¦Ĺà¦ŀ
à¦¥ à¦£
à¦¥ à¦ķà¦°
à¦¥ à¦°à¦ĩ
à¦¥ à¦¬à¦¦
à¦¥ à¦®à§Ł
à¦¥ à¦²à¦Ĺ
Ġà¦¶ à¦·
Ġà¦¶ à¦ł
Ġà¦¶ à¦°à¦¨
Ġà¦¶ à¦ĸà¦Ł
Ġà¦¶ à¦°à¦¸à¦¨
Ġà¦ľ à¦ªà¦®
Ġà¦ļ à¦°à¦¨
Ġà¦ļ à¦°à¦Ľ
Ġà¦Ń à¦²à¦ķ
Ġà¦Ń à¦£à¦ĩ
Ġà¦° à¦ĩà¦¤
Ġà¦° à¦ľà¦¬
Ġà¦° à¦ĩà¦Ľ
Ġà¦° à¦¶à¦®
Ġà¦° à¦ļà§Ł
à¦ĵ à¦¨à¦ķ
à§ĩà¥¤ -
Ġà¦ıà¦ķ à¦ł
Ġà¦ıà¦ķ à¦¤à¦°
Ġà¦ıà¦ķ à¦¶à¦¬
Ġà¦ıà¦ķ à¦¸à¦ª
Ġà¦ıà¦ķ à¦°à¦Ļ
Ġà¦Ľ à¦°à¦ķ
Ġà¦Ĩà¦® à¦¸
Ġà¦Ĩà¦® à¦¸à¦¤
à¦ł à¦¯
à¦ł à¦ĸà¦£
à¦¼à¦¾ à¦¾
à¦¼à¦¾ !âĢĻ
Ġà¦ī à¦ĩà¦¶
à¦Ĥ ?
à¦Ĥ âĢĻ
à§Ĥ à§į
Ġà¦¬à¦² à¦ĩ
Ġà¦² à¦¬à¦¨
Ġà¦² à¦ĩà¦²
Ġà¦ĵ à¦¥
Ġà¦ĵ à¦¨à¦²
Ġà¦« à¦·
Ġà¦« à¦Łà¦«à¦Ł
Ġà¦ĸ à¦°à¦¶
à§ľ à¦°
à§ľ à¦¦
à§ľ à¦ĩ
à§ľ à¦ļ
à§ľ à¦«
Ġà¦ħà¦¨ à¦¶
Ġà¦¹à¦¯ à¦°à¦¤
Ġà¦¸à¦® à¦ľ
Ġà¦¸à¦® à¦°à¦ķ
Ġà¦¸à¦® à¦°à¦¸
à¦¬à¦¨ à¦ļà¦°
à¦¬à¦¨ à¦ķà¦£
âĢĻ âĢĶâĢĺ
à¦¼à¦¿ âĢĿ
Ġà¦®à¦¨ à¦¹
à¦ªà¦° à¦¨
à¦ªà¦° à¦¯
à¦¿à¥¤ -
à¦¿à¥¤ [
à¦Ŀ à¦¸
à¦Ŀ à¦¦
à¦Ŀ à¦¨à¦¦
à¦ŀ à¦¨
à¦ŀ à¦ķà¦°
à§İ à¦Ĺà¦¤
à¦ī à¦§
à¦ī à¦Ĺà¦²
à¦ī à¦¨à¦Ł
à¦ī à¦²à¦Ł
à¦ī à¦ľà¦Ł
à¦ī à¦ªà¦Ĺ
à¦ľà¦¨ à¦ªà¦¦
à¦°à¦¬ à¦¶
à¦¤à¦° à¦ĸ
à¦¤à¦° à¦ľà¦¨
à¦ªà¦¨ à¦¦
à¦ªà¦¨ à¦ĩ
à¦ªà¦¨ à¦¸à¦°
à¦ı à¦¥
à¦ı à¦¤à¦ĩ
Ġà¦Ĩà¦² à¦Ļ
Ġà¦¸à¦¬ à¦¤
Ġà¦¸à¦¬ à¦®
à¦¬à¦° à¦¨
à¦¬à¦° à¦®à§Ł
Ġà¦Ł à§Ł
à¦Ĩ à¦¨à¦ķ
à¦Ĩ à¦¸à¦®
à¦Ĩ à¦ªà¦ķ
à¦Ĩ à¦ĩà§Ł
à¦Ĩ à¦Łà¦Ł
à¦Ĩ à¦«à¦¸
Ġà¦¡ à¦Ļ
Ġà¦¡ à¦Łà¦ª
Ġà¦¹à¦² à¦ĵ
Ġà¦īà¦ł à¦¨
à¦ĺ à¦ĩ
à¦ĺ à¦°à¦£
à¦ĺ à¦®à§Ł
à¦ĺ à¦Ńà¦°
ĠâĢľ âĢĺ
Ġà¦ĩ à¦Łà¦ķ
Ġà¦ĩ à¦Łà¦ª
Ġà¦ľà¦¨ à¦°à¦¬
à¦¼à¥¤ -
à¦¼à¥¤ à¥¤
à§ģà¦ģ âĢĻ
âĢĵ ?
à¦·à¦£ à¦¬
à¦·à¦£ à¦ªà¦¦
Ġà¦ļà¦² à§İà¦¶à¦ķ
à¦°à¦® à¦®
à¦°à¦® à¦§à¦°
à¦ĥ âĢ¦
Ġà¦¬à¦¨ à¦¬à¦¨
à§ĭà¦ģ âĢ¦)
Ġà¦Ĩà¦Ĺ à¦°à¦ĵà¦¯
à§ĩà¦ģ âĢĻ,
à¦ķà¦° à¦¨
à§ĭ, -
à¦ħ à¦¨à¦¬
à¦ħ à¦ļà¦²
à¦ħ à¦ªà¦Ł
à¦ħ à¦¥à¦°
à¦ħ à¦¬à¦ļ
à¦ħ à¦¬à¦ľ
à§ĩ? )
à§ĩ? âĢĵ
à¦¸à¦¬ à¦¸à¦®à¦¯
Ġà¦ħà¦® à¦²à¦¬
à¦²à¦ķ à¦¤
à¦¬à¦¤ à¦¬
Ġà¦Ĩà¦¨ à¦ľ
à¦¤à¦¬ à¦¸à¦®
Ġà¦Ĩà¦ªà¦¨ à¦ľà¦¨à¦¦
Ġà¦īà¦¦ à¦¬
à¦¾à¦Ĥ !âĢĻ
à¦ķà¦¤ à¦¤
Ġà¦¶à¦¬ à¦¯
à¦¦à¦¨ à¦ķà¦ķ
Ġà¦ĺà¦° à¦¬à¦¨
Ġà¦ĺà¦° à¦Ńà¦°
à¦¯à¦¬ à§İ
à¦¯à¦¬ à§°
à¦¦à¦° à¦Ĺ
à¦Ĺà¦² à¦ªà¦¥
Ġà¦ľà¦² à¦¬à¦¨
Ġà¦ľà¦² à¦¸à¦®
Ġà¦ľà¦² à¦ļà¦ķ
Ġà¦ľà¦² à¦ľà¦²
Ġà¦¸à¦° à¦Ĺà¦®
à¦°à¦¹ à¦ĩ
Ġà¦ķà¦¬ à¦·
Ġà¦ķà¦¬ à¦Ľà¦°
Ġà¦īà¦ª à¦²
à¦°à¦ľ à¦¡
à¦¨à¦¬ à¦¦à¦¨
à¦¯à¦ķ à¦ķ
à¦¯à¦ķ à¦¶
à¦°à¦² à¦¬
à¦°à¦² à¦Ļ
Ġà¦ķà¦² à¦ĺà¦°
à¦²à¦¬ à¦¹à¦¨à¦ķ
à¦²à¦¨ à¦Ł
à¦²à¦¨ à¦ĸ
à¦²à¦¨ à¦®à¦¯
à¦²à¦¨ à¦ķà¦¶
à¦§à¦¨ à¦Ńà¦Ļ
à¦¯à¦¤ à¦¤
à¦°à¦¦ à¦¸
à¦®à¦¯ à¦¨
Ġà¦¸à¦¹ à¦¶
âĢ¦ ?âĢĿ
à¦ªà¦¤ à¦®
à¦ļà¦² à¦²
à¦ļà¦² à¦Ľ
à¦ļà¦² à¦ĸ
à¦ķà¦¬ à¦ľ
à¦ªà¦¦ à¦ľà¦¨à¦ķ
à¦¸à¦¨ à¦¹
Ġà¦ĵà¦ªà¦° à¦ĵà¦¯
à¦¨à¦¨ à¦¦
à¦ĩà¦¨ à¦ĩ
à¦ĩà¦¨ à¦¬à¦¨
Ġà¦ľà¦® à¦¦à¦Ĺ
à¦¹à¦² à¦Ĺ
à¦¹à¦² à¦ĵ
à¦Łà¦ķ à¦¯
à¦Łà¦ķ à¦®
à¦Łà¦ķ à¦¥
à¦Łà¦ķ à¦®à§Ł
à§İà¦¸ à¦ĩ
Ġà¦ħà¦ķ à¦£
à¦¿? âĢ¦
Ġà¦°à¦Ļ à¦ĩ
Ġà¦ķà¦® à¦¸
Ġà¦ªà¦¦ à¦®
Ġà¦ªà¦¦ à¦ªà¦²
à¦¿à¦ģ -
Ġà¦¤à¦° à¦²à¦¤
Ġà¦¶à¦¹à¦° à¦ª
Ġà¦¶à¦¹à¦° à¦ĵ
à¦¤à¦ķ à¦¨
à¦¤à¦ķ à¦®
à¦¤à¦ķ à¦ļ
à¦®à¦£ à¦Ł
à¦®à¦£ à¦ª
à¦¿âĢĶ -
à¦¿âĢĶ âĢĿ
à¦°à¦ª à¦¶
à¦·à¦ķ à¦ĵ
Ġà¦Ľà¦¬ à¦Ľà¦°
Ġà¦ħà¦ªà¦° à¦£
Ġà¦ħà¦ªà¦° à¦ªà¦ķ
à¦¸à¦° à¦Ł
à¦¸à¦° à¦²à¦¤
à¦¸à¦° à¦ĺà¦°
à¦¯à¦® à¦ĵ
à¦ıà¦ķ à¦ķà¦¥
à¦ıà¦ķ à¦ĩà¦Ń
à¦¬à¦¸ à¦²
à¦Łà¦² à¦Ł
Ġà¦ħà¦®à¦² à¦ª
à¦¤à¦® à¦¹à¦²
Ġà¦«à¦² à¦¦
Ġà¦«à¦² à¦ĩ
Ġà¦«à¦² à¦¬à¦¤
Ġà¦ħà¦² à¦ª
à¦¼à§ĩ, âĢĿ
à¦°à¦Ń à¦®à¦¯
Ġà¦²à¦ķ à¦ª
à¦ľà¦² à¦°à¦Ļ
Ġà¦Ĩà¦¸à¦² à¦Ł
Ġà¦Ĩà¦§ à¦¹
Ġà¦Ĩà¦§ à¦ªà§ľ
Ġà¦¸à¦®à§Ł à¦Ĺ
à¦®à§Ł à¦ķ
à¦ķà¦¨ à¦«
à¦¯à¦° à¦ľà¦¨
Ġ( ?)
à¦¾! )
à§ĩâĢĵ âĢľ
à¦¥à¦° à¦ĸ
à¦¨à¦¸ à¦ŀ
Ġà¦¤à¦² à¦¸
Ġà¦¦à¦² à¦ĵ
à¦Łà¦¬ à¦¡
à¦Łà¦¬ à¦ĩà¦¯
à¦¬à¦¶ à¦¸
Ġà¦Ĩà¦ª à§İà¦ķ
Ġà¦ļà¦ķ à¦ĸà§ľ
à¦°à¦Ĺ à¦Ł
à¦°à¦ľà¦¨ à¦ĩ
Ġà¦īà§İà¦¸ à¦Ł
Ġà¦Ńà§Ł à¦ĵ
Ġà¦Ńà§Ł à¦Ń
Ġà¦¸à¦¹à¦ľ à¦¤à¦°
Ġà¦ıà¦¨ à¦Ń
Ġà¦¬à§Ł à¦²
à§ĭâĢĶ -
à¦®à¦¸ à¦ļ
à¦°à¦®à¦£ à¦¸
à¦¾âĢĻ ?
?âĢĿ âĢĵ
à¦¾; -
à¦§à¦¬ à¦ĵ
à¦Łà¦¨ à¦®
Ġà¦¦à¦¶ à¦Ń
à§Ŀ à¦ª
Ġà¦¸à¦¦ à¦Ĺà¦¤
Ġà¦Ĺà¦£ à¦ħà¦Ń
à¦łà¦ķ à¦ĩ
à¦łà¦ķ à¦¸à¦®
à¦°à§Ł à¦¹
à§Ģ? âĢĶ
Ġà¦īà§ľ à¦¨à¦ļà¦£
à§ĩà¥¤âĢĻ âĢĿ
à¦¾à¥¤âĢĻ âĢĿ
à¦¶à¦² à¦Ĺà¦¤
à¦¿âĢĵ à¥¤
à¦®à¦¶ à¦ķà¦°
à¦®à¦¶ à¦¹à¦°
à¤ ¡
à¤ Ľ
à¦ķà¦¸ à¦¹
à¦ķà¦°à¦£ à¦Ł
à¦¿; âĢĶ
Ġà¦®à¦² à§Ł
à§§à§ §à§
à¦·à§Ł à¦°
à¦¸à¦¹ à¦ķ
à¦¸à¦¹ à¦ķà¦°
à¦£à¦¨ à¦Ĺà¦°
Ġà¦Ĩà§ľ à¦¤
à¦¡à¦¬ à¦¡
Ġà¦¬à¦¸à¦¨ à¦ĸ
Ġà¦®à¦¦ à¦¦
à¦¤à¦¸ à¦ŀ
Ġà¦Ĭ à¦ł
à§ª à§®
à§ª à§¯
Ġà¦Ĳà¦ķ à¦®à¦¤
in c
à¦¦à¦¬ à¦Ĺà¦ŀ
à¦¦à¦¶ à¦ªà¦¦
Ġà¦¨à¦Ĺà¦° à¦ª
Ġà¦Ĩà¦ļà¦°à¦£ à¦Ĺ
à¦Ī à¦ķ
à¦¨à§Łà¦¨ à¦ĩ
re ated
à¦¿âĢ¦ .
à¦¬à¦°à¦¤ à¦¤
à§Ń à§Ń
à¦¯à¦ķà¦° à¦Ń
à¦ķà¦ĸà¦¨ à¦ĩ
à¦¨à¦¬à¦ľ à¦Ĺà¦¤
at ri
Ġà¦Ńà¦Ĺà¦¬ à§İ
à¦¶à¦¹à¦° à¦Ł
Ġà¦Ĩà¦ĩ à¦¨à¦¤
is e
is ed
or ial
ar m
à¦ħà¦² à¦Ļ
Ġà¦Ńà¦°à¦¤ à¦ª
Ġà¦Ńà¦°à¦¤ à¦Ĺ
à¦¿. âĢĻ
à¦¯à¦°à¦ķà¦® à¦Ń
Ġs pe
Ġc har
à¦ĭ à¦ľ
à§Īà¦ĥ âĢĵ
Ġà¦ľà¦Ĺà§İ à¦¬
à¦¬à¦Ĺ à¦ŀ
Ġà¦Ĺà¦łà¦¨ à¦®
Ġb ir
ou se
Ġà¦ĭà¦£ à¦®
Ġm ore
Ġà¦®à§İà¦¸ à¦ľ
and ita
à¦¬à¦Ľà¦° à¦ĸ
Ġà¦Ĩà¦°à¦¬ à¦¸à¦®
Ġo wn
à¦¶à¦¹ à¦°à¦¤à¦²
à¦¿âĢĿ ,
à¦Ńà¦¸ à¦ŀ
Ġp o
Ġp er
Ġp le
Ġp eople
om es
ĠS un
Ġà¦®à¦¹à¦° à¦°à¦®
Ġof f
ĠâĢ¦ âĢĿ
Ġà¦ĩà¦¹ à¦ľà¦Ĺà¦¤
ĠI N
Ġà¦ıà¦® à¦Ĩà¦°à¦Ĩà¦ĩ
le y
ing ale
Ġà¤ ¦
Ġd ra
Ġà¦ķà¦¦à¦® à¦«
Ġà§« à§ª
ĠA b
ĠA c
ĠA s
ĠA t
ĠP r
ĠP ur
ĠP aurav
Ġà§§à§¦ à§®
Ġà¦ķà¦²à¦¤ à¦²
à¦ĸà¦¬à¦° à¦¦
Ġà¦°à¦£ à¦Ń
Ġà¦ĩà¦ī à¦ª
ĠB har
Ġ[ âĢĺ
Ġin te
Ġà§§à§¯à§« à§§
Â·Â· Â·Â·
ĠC omp
ĠC ult
ol o
ĠM y
ut e
ut ta
Ġà§¬ à§¬
Ġà§Ń à§§
Ġà§Ń à§«
Ġà¦¥à¦² à¦¥à¦²
à¦ıà¦ķà¦ĩ à¦¸à¦Ļ
Ġe yes
ĠT r
ur ch
à¦ªà¦Ļ à¦ķ
ot h
à§ĩ) :
Ġà§§à§¯à§ª à§§
ĠR am
à¦¤à¦ĸ à¦°à¦ļ
Ġth rough
ĠD o
ct ion
Ġà§¦ à§Ń
Ġà§¨à§¦ à§§à§¦
Ġbe fore
Ġà¦¸à¦¯ à¦¤à¦¨
áĥ Ķáĥ
Ġà§® à§¦
ch o
id ual
ĠN ight
Ġg en
Ġg reat
ow er
Ġà¦Ĺà¦²à¦¦ à¦ĺ
ĠH ow
ĠL iter
ĠL angu
à§Ģ?âĢĿ âĢĶ
âĢ¦. âĢĿ
à¦Ĭ à¦¨à¦¸à¦¤
Ġà§§à§¯à§® à§¦
Ġà§§à§¯à§® à§®
ag es
Ġà¦¯à¦¬à¦¨ à¦°
ter s
ĠE d
Ġà¦ĩà¦¨à¦« à¦°à¦®
our ney
em pt
à¦¸à¦®à¦¤ à¦²
Ġà¦Ĩà¦ªà¦¦ à¦Ł
Ġà§¯à§ ®
Ġà¦ħà¦ķà¦² à¦Ļ
ub e
ĠW e
ĠW here
à§§à§Ń à§«à§¬
Ġà§§à§¯à§¬ à§¦
Ġà§§à§¯à§¬ à§«
Ġà¦ħà¦ĺà¦Łà¦¨ à¦ĺà¦Łà¦¨
um e
um ar
Ġon e
ant a
ĠÐ ²
Ġà§§à§¯à§¦ à§Ń
Ġwith out
à¦ķà¦ľà¦®à¦ķ à¦ª
ab u
Ġà¦Ĭà¦¨ à¦ļà¦²
Ġj ust
Ġj ourney
Ġà¦®à¦Ł à¦®à¦Ł
Ġà§§à§¯à§§à§ §
à¦ıà¦« à¦ĵ
Ð¾Ð »
à¦¬à§İà¦¸ à¦®
ĠInd o
Ġà¦°à¦¦ à¦¬à¦¦à¦²
Ġà¦ħà§Ł à¦¨à¦ķ
ĠĠĠĊ ĠĠ
af i
af Ã©
Ø§Ø ª
à§§à§¯à§¬ à§«
ĠTH RO
éŁ¿éŁ¿éŁ¿éŁ¿éŁ¿éŁ¿éŁ¿éŁ¿éŁ¿éŁ¿éŁ¿éŁ¿éŁ¿éŁ¿éŁ¿éŁ¿éŁ¿éŁ¿éŁ¿éŁ¿éŁ¿éŁ¿éŁ¿éŁ¿éŁ¿éŁ¿éŁ¿éŁ¿éŁ¿éŁ¿éŁ¿éŁ¿ éŁ¿éŁ¿éŁ¿éŁ¿éŁ¿éŁ¿éŁ¿éŁ¿éŁ¿éŁ¿éŁ¿éŁ¿éŁ¿éŁ¿éŁ¿éŁ¿éŁ¿éŁ¿éŁ¿éŁ¿éŁ¿éŁ¿éŁ¿éŁ¿éŁ¿éŁ¿éŁ¿éŁ¿éŁ¿éŁ¿éŁ¿éŁ¿
Ġle arning
we en
we et
ank ar
Ġknow ledge
Ġcount ry
æŃĵæŃĵæŃĵæŃĵæŃĵæŃĵæŃĵæŃĵæŃĵæŃĵæŃĵæŃĵæŃĵæŃĵæŃĵæŃĵ æŃĵæŃĵæŃĵæŃĵæŃĵæŃĵæŃĵæŃĵæŃĵæŃĵæŃĵæŃĵæŃĵæŃĵæŃĵæŃĵ
Ġab out
vel op
ĠRah im
rah m
Ġsub ur
Ġver y
Ġbet ween
ugg est
Ġess ay
Ġpla ce
ĠRO AD
Ġà¦ªà¦ĩà¦ª à¦ĩ
à¦¡à¦¸à¦ĵ à¦ħà§°
ĠNight ingale
ĠTHRO UGH
! ..
% -
' s
) âĢĶ
, âĢĶâĢĺ
, âĢĻâĢĶ
- âĢľ
4 7
5 0
; âĢĵ
? à¥¤
A B
A P
L MS
M O
O C
P ro
R I
R e
S T
S e
S p
T h
T ube
a u
a un
a id
a ce
a ke
b er
c y
c hes
e re
f ter
h o
h il
l o
l and
l ic
m p
o ol
p ed
r us
r id
r ul
s es
u ja
v ent
w er
y o
Ã ¤
Ã ¼
Ð ²
Ð ·
Õ ¥
Ø ³
à ¯
å ķ
æ ĭ
ï ¼
Ġ 6
Ġ Â·Â·Â·
Ġ art
Ġ ri
Ġ end
Ġ 10
Ġ Ú©
Ġ Ø§ÙĦ
ĭ ľ
à¦¾ à¦¿
à§ĩ (
à§ĩ à§ĭ
à§ĩ ÂŃ
à¦° à¦ł
à¦° à¦°à¦¤
à¦° à¦°à¦®
à¦° à¦īà¦ĩà¦¨
à§į à§į
à§į âĢĿ
à§į âĢĻ-
à§į âĢĻâĢĶ
à¦¿ âĢĿ-
à¦¨ à¦°à¦ª
à¦¨ à¦ĸà¦°
à¦¨ à¦ľà§Ł
à¦¨ à¦¡à¦°
à¦¤ à¦®à¦¤
à¦¤ à¦®à¦°
à¦¤ à¦¶à¦ķ
à¦¤ à¦¸à¦¤
à¦¤ à¦ªà¦Ł
à¦¤ à¦¦à¦¸
à¦¤ à§İà¦ªà¦°
à¦¤ à¦°à¦¤à¦®
à¦² à¦·
à¦² à¦°à¦ķ
à¦² à¦«à¦²
à¦² à¦ªà§ľ
à¦ķ à§İ
à¦ķ à¦ķà¦¬
à¦ķ à¦ĺà¦¨
à¦ķ à¦Ĩà¦īà¦Ł
à§ģ .
à§ģ à§ĩ
à§ģ âĢĿà¥¤
à§ģ âĢ¦âĢĻ
à¦¯ à¦ľà¦®
à¦¬ à¦Ĺà¦¨
à¦¬ à¦īà¦ķ
à¦¬ à¦®à¦ª
à¦¬ à§Łà¦®
à¦® à¦°à¦¬
à¦® à¦¤à¦°
à¦® à¦īà¦¨
à¦® à¦¦à¦Ĺ
à¦® à¦Īà¦¨
à¦¼ âĢĿ-
à¦¼ à¥¥
à§ĭ ..
à§ĭ à¥¥
à§ĭ à¦ĥ!
Ġà¦¬ à¦°à¦¨
Ġà¦¬ à¦°à¦¸
Ġà¦¬ à¦°à¦¬à¦§
Ġà¦¬ abu
Ġà¦¸ à¦¦à§Ł
Ġà¦¸ à¦¶à¦ķ
Ġà¦¸ à¦¸à¦Ļ
Ġà¦¸ à¦¦à¦®
Ġà¦¸ à¦¸à¦¸
Ġà¦¸ à¦¦à§Łà¦¤
Ġà¦ª à¦ł
à¦¸ à¦§
à¦¸ à¦¯à¦¤
à¦¸ à¦Ńà¦Ļ
à¦¸ à§ľà¦ķ
Ġà¦Ĩ à¦¥
Ġà¦Ĩ à¦¬à¦²
Ġà¦Ĩ à¦ĩà¦¤
Ġà¦Ĩ à¦ĩà§Ł
Ġà¦Ĩ à¦ľà¦¨à¦¬
à¦¦ à¦°à¦¸
à¦¦ à¦²à¦¬
à¦¦ à¦®à¦ķ
à¦¦ à¦Ĺà¦¨
à¦¦ à¦¤à¦¤
à¦¦ à¦ªà¦Ł
à¦¦ à¦²à¦¬à¦¦
à¦Ł à¦ł
à¦Ł à¦¬à¦¨
à¦Ł à¦®à§Ł
à¦Ł à¦Ĺà¦£
Ġà¦¨ à¦ĵà¦¯
Ġà¦¨ à¦§à¦°
Ġà¦¨ à¦²à¦Ľ
Ġà¦¨ esc
Ġà¦® à¦ľà¦¨
Ġà¦® à¦¶à¦ķ
Ġà¦® à¦ķà¦¦
Ġà¦® à¦²à¦®à¦²
à¦ĩ à¦¨à¦ĵ
à¦ĩ à¦²à¦¬
à¦ĩ à¦¶à¦¨
à¦ĩ à¦ªà¦¥
à¦ĩ à¦¸à¦ķ
à¦ĩ à¦·à¦Ĺ
à¦ª à¦ł
à¦ª à¦ªà¦¨
à¦ª à§İà¦¸
à¦ª à§İà¦ķ
à¦ª à¦ļà¦ķ
à¦ª à¦¸à¦²
à¦ª à¦¸à¦¤
à¦ª ankar
Ġà¦¦ à¦²à¦¤
Ġà¦¦ à¦®à¦²
à¦Ľ à¦ľ
à¦Ľ à¦§à¦°
Ġà¦¤ à¦¸à¦°
Ġà¦¤ à¦Łà¦Ń
Ġà¦ı à¦Ĺà¦²
Ġà¦ı à¦ľà¦°
Ġà¦ı à¦¨à¦²
Ġà¦¹ à§ľ
Ġà¦¹ à¦°à¦ķ
Ġà¦¹ à¦Ĺà¦²
Ġà¦¹ à¦Łà¦ķ
à¦ľ à¦Ŀ
à¦ľ à¦¦à¦°
à¦ľ à¦®à¦¤
à¦ľ à¦®à¦¯
à¦ľ à¦Ńà¦ķ
à¦¶ à¦£
à¦¶ à¦ĺ
à¦¶ à¦¬à¦¤
à¦¶ à¦¬à¦¦
à¦¶ à¦®à¦¶
à¦¼à§ĩ âĢĻ,
à¦¼à§ĩ à¦ĥà¥¤
âĢ Ĭ
Ġà¦ħ à¦°à¦®
Ġà¦ħ à¦ķà¦Ł
Ġà¦ħ à¦°à¦¥
Ġà¦ħ à¦¶à¦¬
à¦Ĺ à¦¬à¦²
à¦Ĺ à¦¶à¦ķ
à¦Ĺ à¦§à¦°
à¦Ĺ à¦¦à¦ķ
à¦Ĺ à¦§à¦¦
à§Ł à¦®à¦¨
à§Ł à¦ķà¦°
à¦· à¦ķà¦¬
à¦· à¦¸à¦Ł
à¦· à¦¸à¦¹
Ġà¦¯ à¦¡
Ġà¦¯ à§İà¦ķ
à¦§ à¦ķà¦²
à¦§ à¦¸à¦¤
à¦¡ à¦¬à¦²
à¦¡ à¦¬à¦¸
à¦¡ à¦ķà¦Ń
à¦ļ à¦·
à¦ļ à¦°à¦¤
à¦ļ à¦¤à¦¨
à¦ļ à¦ķà¦Ł
à¦ļ à¦ĵà§ľ
à¦¹ à¦ķà¦¤
à¦¹ à¦ĵà§Ł
à¦¹ à¦§à¦¨
à¦¹ à¦²à¦¬à¦¶
Ġà¦Ĺ à¦¥
Ġà¦Ĺ à¦°à¦¦
Ġà¦Ĺ à¦ľà¦¸
Ġà¦Ĺ à¦ľà¦Ĺ
Ġà¦Ĺ à§Łà¦²
à¦ģ âĢĻ
à¦ģ âĢĵ
à¦ģ à¥¤âĢĻ
à¦£ à¦°à¦ķ
à¦£ à¦¬à¦¤
à¦£ à¦ľà¦¯
à¦£ à¦ªà¦¦à¦ķ
à¦¥ à¦¦à¦°
à¦¥ à¦®à¦ķ
à¦¥ à¦¸à¦¨
à¦¥ à¦°à¦ļ
à¦¥ à¦¦à¦£
à¦¥ à¦°à¦¥à¦°
Ġà¦¶ à¦£
Ġà¦¶ à¦®à¦¨
Ġà¦¶ à¦¶à¦ķ
Ġà¦ľ à¦£
Ġà¦ľ à¦ľà¦¸
Ġà¦ľ à¦°à¦ľà¦°
Ġà¦ļ à¦Ļ
Ġà¦ļ à¦ķà¦°
Ġà¦ļ à¦¬à§İ
Ġà¦Ń à¦°à¦¤à¦°
Ġà¦Ń à§İà¦°
Ġà¦° à¦²
Ġà¦° à¦¸à¦°
Ġà¦° à§Łà¦¨
Ġà¦° à¦¸à¦Ł
Ġà¦° à¦£à¦¦
Ġà¦° à¦²à¦°
à¦ĵ à¦ªà¦°
à¦ĵ à¦ľà¦¨
à¦ĵ à¦ĺà¦°
à¦ĵ à¦²à¦ľ
à¦Ń à¦ļ
à¦Ń à¦¹
à¦Ń à¦°à¦ª
Ġà¦ıà¦ķ à¦¢
Ġà¦ıà¦ķ à¦ķà¦£
Ġà¦ıà¦ķ à¦§à¦°à¦£
Ġà¦Ľ à¦ĵà¦¯
Ġà¦Ľ à¦°à¦°
Ġà¦Ĩà¦® à¦ª
à¦ł à¦ĺ
à¦ł à¦¶à¦¬
à¦¼à¦¾ )
à¦¼à¦¾ âĢ¦âĢĿ
Ġà¦ī à¦ĩà¦ª
Ġà¦ī à¦ĩà¦¦
Ġà¦ī à¦¶à¦ĸ
à¦¾à¦ģ à¦¾
à¦¾à¦ģ âĢĿà¥¤
à¦Ļ à¦®à§Ł
à§Ĥ âĢĵ
à§Ĥ à¦ĥ
Ġà¦Ĩà¦° à¦¦
Ġà¦Ĩà¦° à¦«
Ġà¦Ĩà¦° à¦ªà¦¨
Ġà¦Ĩà¦° à¦ĺ
Ġà¦² à¦ĸà¦¨
Ġà¦² à¦Ĩ
Ġà¦² à¦¦à¦ķ
Ġà¦² à¦¸à¦¸
Ġà¦² à¤¹à¤°
Ġà¦ĸ à¦°à¦¤
Ġà¦ĸ à¦¸à¦®
Ġà¦ĸ à¦¸à¦¤
âĢĶ à¥¤âĢĻ
à§ľ à¦ĸ
à§ľ à¦ªà¦¤
à¦°à¦¤ à¦ļ
Ġà¦ªà¦° à¦Ń
Ġà¦ªà¦° à¦®à¦¤
à¦ĸà¦¨ à¦¨
Ġà¦¸à¦® à¦²
Ġà¦¸à¦® à¦°à¦¨
Ġà¦ĺ à¦°à¦®à¦¯
Ġà¦ĺ à¦¨à¦¬à¦¸à¦¤
à¦¬à¦¨ à¦®à§Ł
à¦¬à¦¨ à¦®à¦°à¦£
âĢĻ :
âĢĻ ?âĢĿ
à¦¼à¦¿ âĢĻà¥¤
Ġà¦®à¦¨ à¦¬
Ġà¦®à¦¨ à¦®à¦¤
Ġà¦®à¦¨ à¦ªà¦Ł
Ġà¦®à¦¨ à¦Ńà¦°
Ġà¦®à¦¨ à¦Ĺà¦¡
Ġà¦®à¦¨ à¦¨à¦ļ
Ġà¦®à¦¨ à¦ķà¦£
Ġà¦®à¦¨ à¦Ĺà§ľ
à¦®à¦¨ à¦§
à¦ªà¦° à¦ĩ
à¦°à¦£ à¦°
à¦°à¦£ à¦¸
à¦°à¦£ à¦¦
à¦°à¦£ à¦¶
à¦°à¦£ à¦ľà¦¨
à¦°à¦£ à¦¬à¦¬
Ġà¦ıà¦ĩ à¦¡
à¦ŀ à¦ĩ
à§İ à¦ªà¦Ł
à§İ à¦Ĩà¦¤
à§İ à¦ļà¦®à¦ķ
à¦ī à¦Ŀ
à¦ī à¦°à¦ķ
à¦ī à¦¦à§Ł
à¦ī à¦ĩà¦Ł
à¦ī à¦ªà¦¬
à¦ī à§ľà¦¨
à¦¿, âĢĿâĢĶ
à¦« à¦Ĺ
à¦« à¦«
à¦« à¦ĵà¦¯
à¦°à¦¬ à¦°à¦¤
à¦¤à¦° à¦ªà¦¤
à¦¤à¦° à¦ĸà¦£
à¦ªà¦¨ à¦Ĺà¦°
à¦ı à¦ľà¦¨
à¦ı à¦¸à¦ª
à¦ı à¦«à¦¸
Ġà¦Ĩà¦² à¦¹
Ġà¦Ĩà¦² à¦¬à¦¤
Ġà¦Ĩà¦² à¦®à¦¦
à¦¬à¦° à¦·
à¦¬à¦° à¦Ń
à¦¬à¦° à¦Ŀ
à¦¬à¦° à¦ķà¦¤
à¦°à¦ķ à¦ĩ
Ġà¦Ĩà¦¸ à¦¹
Ġà¦Ł à¦Ł
Ġà¦Ł à¦Ĺ
Ġà¦Ł à¦²à¦ķ
âĢĿ .
âĢĿ ?
à¦Ĩ à¦ŀ
à¦Ĩ à¦°à¦®
à¦Ĩ à¦¨à¦¤
à¦Ĩ à¦Ĺà¦¤
à¦Ĩ à¦ĩà¦°
à¦Ĩ à¦ªà¦Ł
à¦Ĩ à¦ĩà¦Ł
à¦Ĩ à¦ĩà¦¤
à¦Ĩ à¦§à¦¬
à¦Ĩ à¦¹à¦°à¦£
à¦Ĩ à¦¬à¦¹
à¦Ĩ à¦ªà¦²
à¦Ĩ à¦¶à¦¯
à¦Ĩ à¦¦à¦¬
à¦Ĩ à¦ĩà¦ľ
à¦Ĩ à¦ĩà¦¶
à§Į âĢĵ
Ġà¦¡ à¦«
Ġà¦¹à¦² à¦°
Ġà¦¹à¦² à¦®
à¦ĺ à¦¹
à¦ĺ à§İ
à¦ĺ à¦Ĺà¦²
à¦ĺ à¦®à§Łà¦¤
Ġà¦ĩ à¦§
Ġà¦ĩ à¦Ĺà¦¨
Ġà¦Ŀ à¦°à¦ª
à§Ī à¦Ĥ
à¦¼à¥¤ [
à¦¼à¥¤ âĢĶ
à¦¬à¦² à¦¶
à¦¬à¦² à¦¤à¦°
à§ģà¦ģ !
à§ģà¦ģ à¦ĥ
à§ģà¦ģ âĢ¦
âĢĵ âĢĻ
Ġà¦ħà¦¬ à¦Ľ
Ġà¦ł à¦®à¦ķ
à¦·à¦£ à¦¯
à¦·à¦£ à¦¦
à¦·à¦£ à¦¸à¦¹
Ġà¦¬à¦¸ à¦¨à¦Ĺ
à¦¨à¦¤ à¦ĩ
Ġà¦¬à¦¨ à¦¶
à¦ķà¦² à¦Ń
à¦ķà¦² à¦¬à¦¨
à¦ķà¦² à¦¬à¦¦
Ġà¦¨à¦¤ à¦¶
à¦ķà¦° à¦ª
à¦ķà¦° à¦ľ
à§ĭ, âĢĶ
à§ĭ, âĢĿâĢĶ
à¦ħ à¦ľà¦°
à¦ħ à¦¯à¦¥
à¦ħ à¦ķà¦¥
à¦ħ à¦ľà§Ł
à¦ħ à¦¨à¦Łà¦¨
à§ĩ? -
à§ĩ? ?
à¦¸à¦¬ à¦¸
à¦¸à¦¬ à¦Ĺ
à¦¸à¦¬ à¦§
à¦¸à¦¬ à¦ķà¦Ł
à¦¸à¦¬ à¦¸à¦®à§Ł
à§ĭà¥¤ âĢĺ
Ġà¦¤à¦¬ à¦ķ
Ġà¦ħà¦® à¦¸
Ġà¦ħà¦® à¦°à¦ķ
Ġà¦ħà¦® à¦°à¦¦
Ġà¦ħà¦® à¦°à¦ª
à¦²à¦ķ à¦ĩ
à¦²à¦ķ à¦¡
à¦¬à¦¤ à¦ĵ
à¦°à¦¨ à¦ķ
Ġà¦Ĩà¦¨ à¦¹
à¦¤à¦¬ à¦Ł
à¦¤à¦¬ à¦Ń
à¦¤à¦¬ à¦®à¦¨
à¦¤à¦¬ à¦¦à¦²
Ġà¦ıà¦² à¦¸
Ġà¦īà¦¦ à¦ķ
Ġà¦īà¦¦ à¦°à¦ª
à¦ķà¦¤ à¦ĩ
Ġà¦¶à¦¬ à¦Ĺà¦¨
Ġà¦ħà¦¦ à¦²
Ġà¦¬à¦° à¦ĵ
à¦¨à¦ĵ à¦°
Ġà¦ĺà¦° à¦Ń
à¦¯à¦¬ à¦ĩà¦¤
à¦¦à¦° à¦ĩ
à¦¦à¦° à¦ŀ
à¦Ĺà¦² à¦¨
à¦Ĺà¦² à¦Ń
à¦Ĺà¦² à¦ķà¦°
Ġà¦ľà¦² à¦ķà¦²
Ġà¦ľà¦² à¦Ŀà§ľ
Ġà¦°à¦ķ à¦¬
à¦Ĩà¦® à¦Ĺ
à¦Ĩà¦® à¦°à¦£
Ġà¦¸à¦° à¦ĸ
Ġà¦¸à¦° à¦ªà¦ŀ
Ġà¦®à¦¹ à¦«
Ġà¦ħà¦¤ à¦¸
Ġà¦ħà¦¤ à¦ĩ
à¦Ĺà¦¤ à¦¸
à¦Ĺà¦¤ à¦ĵ
à¦²à¦¤ à¦ĩ
à¦°à¦¹ à¦¹
à¦°à¦¹ à¦°à¦ķ
à¦°à¦¹ à¦Ńà¦°
Ġà¦ıà¦®à¦¨ à¦¤
à¦®à¦¤ à¦²à¦¬
à¦¹à¦¸ à¦®
Ġà¦īà¦ª à¦Ĺà¦¤
à¦°à¦ľ à¦¯
à¦°à¦ľ à¦°à¦®à¦£
à¦¨à¦¬ à¦¬à¦°
Ġà¦ķà¦² à¦Ĺ
à¦²à¦¨ à¦¨
à¦²à¦¨ à¦¶
à¦²à¦¨ à¦°à¦¤
à¦§à¦¨ à¦°
à¦§à¦¨ à¦¦
à¦ļà¦¨ à¦Ńà¦Ļ
à¦®à¦ķ à¦°à¦£à¦ĵ
à¦ĩà¦² à¦ĵ
à¦¯à¦¤ à¦²
à¦¯à¦¤ à¦Ł
à¦¯à¦¤ à¦ĵ
à¦°à¦¦ à¦£
Ġà¦¹à¦ł à¦¤
à¦¿à¦ĥ âĢĵ
Ġà¦¸à¦¹ à¦°
Ġà¦ħà¦§ à¦®à¦ķ
Ġà¦īà¦¤ à¦¥
à¦¸à¦¨ à¦ªà¦°
à¦ĩà¦¨ à¦¶
à¦ĩà¦¨ à¦·
Ġà¦ľà¦® à¦ľ
à¦ıà¦ĩ à¦°
à¦¹à¦² à¦®
à¦¹à¦² à¦®à¦¯
à¦¹à¦² à¦Ńà¦°
à¦¼à§ĭ à¦ĥ
ĠâĢĶ âĢĻ
à¦¿- âĢĺ
à¦Łà¦ķ à¦ĩ
à¦Łà¦ķ à¦ļ
à¦Łà¦ķ à¦ĵ
à§İà¦¸ à¦¹
à¦¿? ..
Ġà¦¬à¦¹ à¦¤
Ġà¦īà¦¨ à¦Ĩà¦¶
Ġà¦¨à§Ł à¦¨à¦Ńà¦°
Ġà§ °
à¦¾? âĢĶ
à¦¾? âĢĵ
à¦¦à§Ł à¦ĸ
Ġà¦ķà¦® à¦²à¦ķ
à¦¤à¦² à¦ľ
à¦¤à¦² à¦ĸ
à¦¤à¦² à¦§
à¦°à¦ĵ à¦°
à¦°à¦ĵ à¦¨
Ġà¦ªà¦¦ à¦²
Ġà¦ªà¦¦ à¦ªà¦¥
à¦¸à¦® à¦·
Ġà¦¬à¦Ľà¦° à¦ĵ
à§ģâĢĻ âĢĵ
à¦¶à¦¬ à¦¬
à¦¤à¦ķ à¦ª
à¦ªà¦¥ à¦ķ
à§įâĢĮ âĢĮ
à§įâĢĮ à¥¤âĢĻ
Ġà¦ħà¦®à¦² à¦§
à¦¤à¦® à¦§
à¦¤à¦® à¦Ń
Ġà¦«à¦² à¦Ń
Ġà¦«à¦² à¦ķà¦Ł
à¦°à¦Ń à¦¬à¦¨
Ġà¦ħà¦¶ à¦¤
Ġà¦Ĳ à¦¦
à¦ªà¦ķ à¦Ĺ
à¦®à¦¬ à¦§
à¦¶à¦ķ à¦ĩ
à¦¸à¦² à¦ĸ
à¦¬à¦ķ à¦ª
à¦¬à¦ķ à¦ĵ
à§° à§Ł
à§° à¦¬à¦¨
à§° à¦ªà¦°
à§° à¦¬à¦²
à¦ľà¦² à¦Ľ
à¦ľà¦² à¦ĸ
!âĢĿ à¥¤
Ġà¦Ĩà¦§ à¦®à¦£
à¦·à¦° à¦°
à¦ĸà¦¬ à¦ĩ
à¦¬à¦¬ à§İ
à¦¬à¦¬ à¦¶à¦¤
Ġà¦¶à¦¤ à¦§à¦®
à¦¯à¦¸ à¦¹
à¦¯à¦¸ à¦ŀ
Ġ( âĢľ
Ġà¦īà¦² à¦Łà¦ª
à§ĩâĢĵ âĢĻ
Ġà¦īà§İ à¦ķà¦²
Ġà¦īà§İ à¦ªà¦²
à¦¨à¦¸ à¦¦
à¦¨à¦¸ à¦Ń
à¦¨à¦Ĺ à¦ŀ
Ġà¦¨à¦¬ à¦§
Ġà¦¨à¦¬ à¦ķà¦²
Ġà¦¨à¦¬ à¦īà¦¦
à¦ªà¦¸ à¦¹
à¦Łà¦¬ à¦ĩà§Ł
à¦¬à¦¶ à¦¤à¦ĩ
Ġà¦ļà¦ķ à¦°à¦¬à¦°à¦¤
à¦°à¦Ĺ à¦Ŀ
à¦¼à§Ģ âĢĻ
à¦²à¦Ľ à¦¬
à¦ĩà¦Ł à¦ª
Ġà¦¸à¦¹à¦ľ à¦¸à¦°à¦²
à¦Łà¦° à¦Ĺà¦¤
Ġà¦¦à¦°à¦ķ à¦·
à¦ĩà¦¤ à¦¸
à¦ķà¦ķ à¦£
Ġà¦¬à¦Ł à¦ª
à¦Ĩà¦ľ à¦Ĺ
à¦·à¦® à¦Ń
à¦ıà¦¬ à¦®à¦¸
à¦¾âĢĻ !
à¦¾âĢĻ !âĢĿ
à¦ľà¦¸ à¦ªà¦¤
à¦²à¦¸ à¦Ł
à¦¯à¦¯ à¦ľ
à¦¿! âĢĵ
à¦ªà¦£ à¦ĵ
à¦²à¦® à¦¶à¦²
Ġà¦¨à¦°à¦® à¦Ń
Ġà¦§à¦°à¦¨ à¦§
à¦²à¦Ĺ à¦¡
Ġà¦¸à¦¦ à¦Ń
Ġà¦īà§İà¦¸à¦¬ à¦ķ
Ġà¦īà§İà¦¸à¦¬ à¦®à¦£
Ġà¦§à¦¨ à¦Ń
Ġà¦Ĺà¦£ à¦²
Ġà¦Ĺà¦£ à¦ķ
à¦®à¦Ĺ à¦£
à¦®à¦Ĺ à§ľ
Ġà¦ķà¦ª à¦ļ
à¦®à¦¹ à¦¦
à¦²à¦Ł à¦¨à¦Ĺà¦ŀ
à¦Ĩà¦² à¦¹
à¦¹à¦°à¦£ à¦Ł
à¦¨à¦Ń à¦¸
à¦¶à¦² à¦¯
à¦¶à¦² à¦ĩ
Ġ: -
Ġà¦ªà¦°à¦® à¦®
à¦¯à¦ª à¦²
à§ĩâĢ¦ ?âĢĿ
à§ĩâĢ¦ ..
à¦¬à¦Ľ à¦°à¦ĩ
à§ĩ?âĢĻ âĢĶ
à¤ ¥
Ġà¦ķà§Ł à¦ľà¦¨
à¦°à¦ĸ à¦£
à¦ıà¦¸à¦¬ à¦ķ
Ġà¦°à¦¸ à¦§
à¦·à§Ł à¦ĩ
à¦ĩà¦¡ à¦¬
Ġà¦ľà§Ł à¦¦
à¦¬à¦Ń à¦ķ
à§ĭ! âĢĶ
à¦ļà¦Ł à¦ªà¦Ł
à¦ĺà¦¨ à¦ĸ
Ġà¦ķà¦²à¦® à¦ļ
à¦¤à¦Ń à¦Ļ
Ġà¦ľà¦Ĺà¦¤ à¦ķ
Ġà¦®à¦¦ à¦®à¦¤
à¦¿âĢĻ ?
he ad
Ġà¦Ĭ à¦§
Ġà¦Ĭ à¦·à¦°
à¦ĺà¦² à¦¦
Ġà¦Ĩà¦ĩà¦¨ à¦ª
Ġà¦Ĩà¦ĩà¦¨ à¦Ĺ
Ġà¦¨à¦° à¦ªà¦¤
à§ĩ: -
an c
an i
à§ª à§¬
à¦¾à¦ĥ !âĢĻ
à¦¾âĢ¦ âĢ¦
à¦¾âĢ¦ à¥¤âĢĻ
in ess
à¦¦à¦¶ à¦ľà¦¨
à¦¶à¦¤ à¦¬à¦°
à¦īà¦¦ à¦ĺ
Ġà¦¶à¦ªà¦¥ à¦ªà¦¤
Ġà¦ªà¦²à¦ķ à¦¹
à¦¬à¦£ à¦§
à¦²à§Ł à¦Ĺ
Ġà¦®à¦¨à¦¨ à¦¶à¦ķ
à¦¿?âĢĻ âĢĶ
Ġà¦ħà¦¨à¦² à¦¶
à¦Ī à¦·à§İ
à¦¨à§Łà¦¨ à¦®
à¦¬à¦ľà¦¨ à¦¨
à¦¬à¦ľà¦¨ à¦¹à¦¤
à¦¬à¦ľà¦¨ à¦¸à¦®à¦ķ
à¦Ĺà¦°à¦£ à¦ĩ
à¦¿âĢ¦ à¥¤âĢĿ
à¦¿âĢ¦ âĢĿà¥¤
Ġà¦ĩà¦¸ à¦¸
à¦¼! âĢ¦
à§Ń à§«
à¦¨à¦® à¦ŀ
à¦ĩà¦ª à¦Ĺ
Ġà¦ĸà¦°à¦ļ à¦ĩ
Ġà¦ıà¦¡ à¦ĵà¦¯
en se
Ġà¦°à¦¥ à¦ļ
al a
at ing
at ive
à¦¯à§Ł à¦ķ
à§¬ à§©
à§® à§¦
à¦ªà¦Ĺ à¦ª
à¦Łà¦¦ à¦·
Ġà¦ĩà¦Ł à¦Ĺ
it ed
Ġà¦Ĩà¦ĩ à¦ļ
Ġà¦ħà¦¬à¦¨ à¦®
Ġà¦Ĩà¦ĸ à¦ĸ
à§İà¦ª à§°
Ġw al
Ġw ant
à¦ıà¦¸ à¦ıà¦¸à¦¸
Ġà¦Ńà¦¬à¦¨ à¦Ĺ
Ġs in
Ġs low
à¦ıà¦¤ à¦¸à¦¬
Ġà¦ļà§ľ à¦Ľ
Ġà¦ļà§ľ à¦ļà§ľ
Ġc or
Ġc all
Ġc attle
Ġc reated
à¦Ĺà¦¸ à¦ĩ
Ġà¦¬à¦ĩà¦Ł à¦ĩ
Ġà¦ľà¦Ĺà§İ à¦¦
Ġà¦ķà¦ĩ à¦°à¦¤
Ġb el
Ġà¦«à¦Ł à¦ķà¦Ł
Ġm ur
Ġm ay
Ġm ix
Ġà¦¬à¦°à¦« à¦ª
... âĢĻ
Ġf ather
Ġf irst
à¦ħà¦ª à¦¹
Ġà§§à§¯à§Ń à§ª
Ġà§§à§¯à§Ń à§¬
à§ĭâĢ¦ âĢĻ
Ġà¦ļà¦°à¦£ à¦ļ
ĠO n
ĠO r
ĠO ff
Ġp ur
Ġp art
ĠS E
ĠS en
ic s
ic ro
ĠâĢ¦ .
ĠI f
ĠI s
le x
Ġà¦ľà¦¨à¦Ĺà¦£ à¦®à¦¨
ing dom
Ġà¤ ¤
Ġà¤ µ
Ġà¤ ħ
Ġà¤ ĸ
Ġà¤ Ľ
Ġà¤ Ŀ
Ġd ist
Ġd own
Ġd rop
Ġh and
Ġh um
Ġh ands
à¦Ĩà¦ĩ à¦ĵà¦Ł
Ġà§« à§¬
Ġà§« à§¦à§¦à§¦
Ġà¦ĵà¦ľà¦¨ à¦¹
à¦Ńà¦°à¦¤ à¦¬
à¦ıà¦ķà¦¬ à¦Ľà¦°
Ġà¦Ĺà¦Ĺà¦¨ à¦Ľ
ĠP H
ĠP arg
ĠP uja
Ġà¦²à¦Ļ à¦ĺà¦¨
Ġà¦ĩà¦ī à¦ıà¦«à¦ĵ
ĠB rit
ĠB rahm
Ġin t
Ġà§§à§¯à§« à§ª
à§§à§¨ à§«
Ġà¦ªà¦¤à¦¨ à¦¶
Ġà§§à§¨ à§¦
à§§à§¯à§ ¦
à§§à§¯à§ §à§
Ġà¦ĵà¦¹ à¦¹
Ġà¦Ńà¦Ł à¦Ńà¦Ł
el ves
ol ar
ol ume
Ġà§Ń à§¦
à§§à§¦ à§¦
Ġe qu
ĠT O
à¦¶à¦¶ à¦§à¦°
à¦īà¦ł à¦²
à¦¼âĢ¦ âĢĻ
ur ga
ot s
ĠD r
ĠD urga
Ġà¦®à¦¤à¦²à¦¬ à¦¬
Ġà¦®à¦¤à¦²à¦¬ à¦ĵ
Ġbe g
im ent
Ġà¦ĵà¦°à¦ķà¦® à¦Ł
ĠN ew
ĠN az
ĠN andita
Ġà¦ªà¦¦à¦¯ à¦¨
Ġg o
Ġg u
Ġg row
Ġà¦¸à§ľà¦ķ à¦ªà¦¥
à¦¶à¦Ń à¦¬à¦¨
Ġà§§à§« à§¦
ĠH ouse
Ġà¦īà¦ĩ à¦ł
Ġre m
os op
Ġà¦¬à¦°à¦ķ à¦¨
od ern
à¦·à¦² à¦ªà¦°
Ġà§§à§ª à§¦à§¦
ĠG and
Ġà¦§à§ľ à¦®à§ľ
à¦Ĭ à¦·
Ġne w
ĠE ng
res t
res ent
op s
art h
Ġ19 à§ª
Ġhe r
ĠW hat
Ġà¦Ĩà¦ĩà¦¸ à¦¸
à¦¡à¦īà¦ĩ à¦¥
Ġà§§à§¯à§© à§ª
Ġà§§à§¯à§© à§¯
Ġà§§à§¯à§¬ à§¨
ip on
Ġà¦¸à¦°à¦¬ à§İ
Ġà¦ľà¦¬à¦° à¦¦à¦ĸà¦²
Ġà§§à§¯à§¦ à§¯
ist ic
ĠThe re
Ġse c
Ġcon s
iv ed
iv ide
Ġad opt
ĠV er
ĠV olume
Ġj oy
ĠÙ ¾
ast e
à§ģà§ģ à§ģ
Ġà¦ķà¦ĩà¦² à¦ľ
à¦īà¦Ńà§Ł à¦ĩ
og n
Ð¾Ð ²
à¦Ķ à¦·à¦§
à§§à§¯à§Ń à§«
Ġà¦Ĩà¦ĩà¦Ľ à¦¸
rit ical
Ġr hy
à¦ĩà¦· à¦·
Ġam ong
Ġim port
Ġal so
Ġal ways
à§§à§¯à§© à§¯
Ġle t
à¦ľà¦¨à¦Ĺà¦£ à¦®à¦¨
Ġex p
ĠĠĠĠĠĠĠĠĠĠĠĠĠĠĠĠ ĠĠĠĠĠĠĠĠĠĠĠĠĠĠĠĠ
âĢķâĢķâĢķâĢķâĢķâĢķâĢķâĢķ âĢķâĢķâĢķâĢķâĢķâĢķâĢķâĢķ
à¦¦à¦« à¦¤à¦°
ĠHe re
CO P
UR E
ont u
Ġsp irit
Ġed ition
ĠAr jun
à« į
Ġà¦Ĺà¦Ĺ à¦¨à¦¬
ĠPart ition
ĠÑģ Ð»
ĠRo hit
Ġà¦°à¦¸à¦ķà¦· à¦¹
Ġtrans it
à¦Ĥ) ]
Ġdy n
ĠYou Tube
Ġill usion
read y
Ġdis c
ĠMem orial
ĠUS B
Ġorig inal
Ġcontin u
Ġfamil y
ech n
ĠPaurav a
Ġà¦ħà¦ĺà¦Łà¦¨à¦ĺà¦Łà¦¨ à¦ªà¦Ł
velop ment
uggest ion
rus h
Ġà¦¨esc afÃ©
Ġmur m
ĠNaz rul
osop hy
! "
) âĢĻ
, ,
- ,
. )
/ âĢĻ
4 6
4 8
4 9
5 1
? âĢ¦.
A r
A TE
B oss
D E
I F
I nt
I TI
J oy
L E
R ipon
T A
V R
V IN
a us
a ir
b i
b ed
b le
b el
c he
c ury
c ount
d u
e g
e o
e or
e ar
e red
e gr
g nung
h as
h ip
h ana
i en
k a
k ing
m y
m er
m ed
m let
n ot
o om
p le
p ersonal
r and
r am
r ist
r ong
r vas
s a
t ick
u es
u ff
v a
v i
w am
w ord
w ise
y st
y anta
z en
¼ Î
Ã ¶
Ã Ł
Ï ģ
Ï ĥ
Ï ħ
Ð ±
Ñ ĩ
Ñ ĸ
Ò ¯
Õ ½
Ö Ģ
× ĵ
× ŀ
Ø ®
Ø ¹
Ù Ĥ
Ù ĳ
Ú ¯
Û Ĵ
à ¬
â ģ
Ġ 0
Ġ 8
Ġ }
Ġ à§İà¦ª
Ġ à§İà¦ªà¦°
Ġ ign
Ġ ÃĹ
Ġ ident
Ĩ Ĵ
Ŀ áĥ
ł áĥ
Ġà¦ ģ
Ġà¦ ŀ
à¦¾ à§ĭ
à¦¾ à¦¾à¦ģ
à¦¾ à§ĩ,
à¦¾ à§ĩ?
à¦¾ ÂŃ
à¦¾ à§įà¦ģ
à§ĩ à¦¿
à§ĩ à§ģ
à§ĩ ï»¿
à¦° à¦īà¦¦
à¦° à¦¡à¦ķ
à¦° à¦Ŀà¦¡
à§į ?âĢĻ
à¦¿ à¦¿
à¦¿ âĢį
à¦¨ à¦®à¦ķ
à¦¨ à¦¶à¦¬
à¦¨ à¦¸à¦°
à¦¨ à¦¦à¦²
à¦¨ à¦ĩà¦¤
à¦¨ à¦®à¦§
à¦¨ à¦ªà¦²
à¦¨ à¦°à¦ķà¦£
à¦¤ à¦¦à¦²
à¦¤ à¦¯à¦¶
à¦¤ à§İà¦ªà¦°à¦¤
à¦² å
à¦² à¦°à¦¸
à¦² à¦Ĺà¦¨
à¦² à¦¦à¦²
à¦² à¦ªà¦¡
à¦² à¦Ŀà¦°
à¦² à¦ªà¦²
à¦² à¦¦à¦ķ
à¦² à¦¡à¦°
à¦² à¦°à¦¤à¦¨
à¦ķ à¦ªà¦¨
à¦ķ à¦ķà¦²
à¦ķ à¦¤à¦¨
à¦ķ à¦¦à¦¨
à¦ķ à¦Ĺà¦¨
à¦ķ à¦ľà¦²
à¦ķ à¦¸à¦®à¦¯
à¦ķ à¦°à¦¤à¦²
à§ģ +
à§ģ /
à§ģ âĢĶâĢľ
à¦¯ à¦¤à¦¬
à¦¯ à¦²à¦¤
à¦¯ à¦¹à¦¸
à¦¯ à¦¦à¦¯
à¦¯ à¦ļà¦¨
à¦¯ à¦¨à¦¨
à¦¯ à¦ĺà¦°
à¦¯ à¦²à¦Ĺ
à¦¯ à¦ĺà¦¨
à¦¯ à¦¶à¦°
à¦¯ à¦ĸà¦ļ
à¦¯ à¦ĺà§ľ
à¦¬ à¦ĸà¦¨
à¦¬ à¦¸à¦¬
à¦¬ à¦¯à¦¨
à¦¬ à¦Łà¦ķ
à¦¬ à¦¶à¦¬
à¦¬ à¦¸à¦°
à¦¬ à¦¬à¦¸
à¦¬ à¦ľà¦²
à¦¬ à¦Łà¦°
à¦¬ à¦ĩà¦¬
à¦® à¦°à¦¹
à¦® à¦®à¦£
à¦® à¦¦à¦²
à¦® à¦¬à¦¸
à¦® à¦¦à¦¨à¦¬
à¦¼ ..
à¦¼ à§Īà¦ĥ
à¦¼ âĢĿâĢĵ
à¦¼ ...âĢĿ
à¦¼ âĢĿ,
Ġà¦ķ à¦¤à¦°
Ġà¦ķ à¦ªà¦¨
Ġà¦ķ à¦¬à¦¤
Ġà¦ķ à¦ĩà¦¯
Ġà¦ķ à¦ĩà¦®
à§ĭ à§ĭ
à§ĭ âĢĻ-
à§ĭ )à¥¤
à§ĭ âĢĿ,
Ġà¦¬ à¦ĵà¦¯
Ġà¦¬ à¦ĵà§Ł
Ġà¦¬ à¦Łà¦ķ
Ġà¦¬ à¦ķà¦¨
Ġà¦¬ à¦īà¦¨
Ġà¦¬ à¦°à¦¬à¦£
Ġà¦¬ un
Ġà¦¸ à¦£
Ġà¦¸ à¦Ĺà¦¨
Ġà¦¸ à¦ĺà¦¨
à¥¤ /
Ġà¦ª à¦²à¦¤
Ġà¦ª à¦ļà¦¤
Ġà¦ª à¦¬à¦¨à¦ķ
à¦¸ à§Ł
à¦¸ à¦ªà¦°
à¦¸ à¦°à¦®
à¦¸ à¦Ĺà¦¤
à¦¸ à¦°à¦¹
à¦¸ à¦²à¦¨
à¦¸ à¦°à¦¦
à¦¸ à¦¸à¦®
à¦¸ à¦ªà¦¥
à¦¸ à¦Łà¦¬
à¦¸ à¦Łà¦°
à¦¸ à¦Łà¦¨
à¦¸ à¦¦à¦¸
à¦¸ à¦°à¦¬à¦°
à¦¸ à¦ĸà¦£
à¦¸ à¦°à¦¸à¦¤
Ġà¦Ĩ à¦ĸà¦¨
Ġà¦Ĩ à¦§à¦ķ
Ġà¦Ĩ à¦īà¦²à¦¦
à¦¦ à¦¦à¦°
à¦¦ à¦¶à¦¨
à¦¦ à¦ªà¦¥
à¦Ł à¦¥
à¦Ł à¦Ļ
à¦Ł à¦ŀ
à¦Ł à¦¬à¦¦
à¦Ł à¦®à¦£
à¦Ł à¦ªà¦Ł
à¦Ł à¦¨à¦¦
à¦Ł à¦¬à¦¯
à¦Ł à¦¸à¦ķ
à¦Ł à¦®à¦¹
à¦Ł à¦Ŀà¦¨
à¦Ł à¦£à¦ª
Ġà¦¨ à¦¹à¦²
Ġà¦¨ à¦ĩà¦ķ
Ġà¦¨ à¦Łà¦¬
Ġà¦¨ à¦ĩà¦¬
Ġà¦¨ à¦²à¦ĸ
Ġà¦¨ à¦¬à¦ªà¦¤
Ġà¦® à¦¬
Ġà¦® à¦Ń
Ġà¦® à¦ĩà¦²
Ġà¦® à¦ĩà¦¨
Ġà¦® à¦Ĺà¦°
Ġà¦® à¦Łà¦°
Ġà¦® à¦Ľà¦²
Ġà¦® à¦łà¦¬
Ġà¦® à¦°à¦ľà¦Ĺà¦¤
à¦ĩ à¦¬à¦¨
à¦ĩ à¦ķà¦¤
à¦ĩ à¦Łà¦²
à¦ĩ à¦¢
à¦ĩ à¦ĺà¦°
à¦ĩ à¦Ŀà¦°
à¦ĩ à¦¶à¦¤
à¦ĩ à¦ĵà¦¨
à¦ĩ à¦¦à¦¹
à¦ª à¦Ĺà¦¤
à¦ª à¦¦à¦¯
à¦ª à¦ļà¦¨
à¦ª à¦Ĺà¦¨
à¦ª à¦¶à¦ķ
à¦ª à¦²à¦¸
à¦ª à¦ªà¦²
à§Ģ âĢĻ-
à§Ģ âĢĿâĢĵ
Ġà¦¦ à¦ĸà¦¨
Ġà¦¦ à¦¹à¦²
à¦Ľ à¦¹
à¦Ľ à¦¤à¦°
à¦Ľ à¦¤à¦®
Ġà¦¤ à¦ļ
Ġà¦¤ à¦¹
Ġà¦¤ à¦Ļ
Ġà¦¤ à¦°à¦¸
Ġà¦¤ à¦®à¦²
Ġà¦¤ à¦Łà¦¦
Ġà¦¤ à§İà¦ª
Ġà¦¤ à¦ĵà¦¬
Ġà¦ı à¦®à¦¡
Ġà¦ı à¦§à¦°à¦¨
Ġà¦ı à¦¤à¦°à¦ķà¦®
Ġà¦¹ à¦īà¦¨
Ġà¦¹ à¦Łà¦¨
à¦ľ à¦£
à¦ľ à¦«
à¦ľ à¦¬à¦¦
à¦ľ à¦°à¦Ł
à¦¶ à¦ªà¦°
à¦¶ à¦ŀ
à¦¶ à¦¦à¦°
à¦¶ à¦¤à¦®
à¦¶ à¦ªà¦ķ
à¦¶ à¦²à¦Ł
à¦¶ à¦¸à¦¹
à¦¶ à¦Ĺà¦¡
à¦¶ à§Łà¦Ĺ
à¦¶ à¦Ńà¦Ļ
à¦¶ à§Łà¦ķ
à¦ĸ à¦ķà¦Ł
à¦ĸ à¦°à¦¸
à¦ĸ à¦ķà¦ĩ
à¦ĸ à¦ĺà¦£
à¦¼à§ĩ âĢĻà¥¤
à¦¼à§ĩ ),
Ġà¦ħ à¦°à¦¤
Ġà¦ħ à¦ķà¦¬
Ġà¦ħ à¦£à¦¨
Ġà¦ħ à¦Ľà¦²
à¦Ĺ à¦ªà¦¨
à¦Ĺ à¦¬à¦°
à¦Ĺ à¦ĵà¦¯
à¦Ĺ à¦ķà¦²
à¦Ĺ à¦ħ
à¦Ĺ à¦°à¦¨
à¦Ĺ à¦¦à¦°
à¦Ĺ à§°
à¦Ĺ à¦£à¦ķ
à¦Ĺ à¦¸à¦¦
à¦Ĺ à¦¦à¦Ĺà¦¦
à§Ł à¦ķà¦¦
à¦· à¦ĺ
à¦· à¦¬à¦²
à¦· à¦°à¦¶
à¦· à¦®à§Ł
à¦· à¦Ńà¦°
à¦· à¦²à¦Ĺ
à¦· à¦¦à¦Ĺ
à¦· à¦ľà¦¨à¦ķ
à¦· à¦¸à¦¸
Ġà¦¯ à¦ļ
Ġà¦¯ à¦®à¦ķ
Ġà¦¯ à¦®à¦¸
Ġà¦¯ à¦¤à¦¬à¦¡
à¦§ à¦£
à¦§ à¦ľà¦¨
à¦§ à¦¤à¦°
à¦§ à¦°à¦¥
à¦§ à¦¬à¦ķ
à¦§ à¦¦à¦Ĺ
à¦¡ à¦®à¦¯
à¦¡ à¦¸à¦¨
à¦¡ à¦¨à¦ķ
à¦¡ à¦¨à¦®
à¦ļ à¦ľ
à¦ļ à¦Ŀ
à¦ļ à§İ
à¦ļ à¦ĵà¦¯
à¦ļ à¦ħ
à¦ļ à¦¨à¦ĵ
à¦ļ à¦°à¦ķà¦®
à¦ļ à¦®à§Ł
Ġà¦ķà¦° à¦°
Ġà¦ķà¦° à¦ķ
à¦¹ à¦°à¦¤
à¦¹ à¦ĺ
à¦¹ à¦ķà¦²
à¦¹ à¦²à¦¤
à¦¹ à¦¤à¦¤
à¦¹ à¦ķà¦ª
à¦¹ à¦¬à¦¶à¦¤
Ġà¦Ĺ à¦¢
Ġà¦Ĺ à§°
Ġà¦Ĺ à¦ľà¦®
Ġà¦Ĺ à¦Ĺà¦²à¦¸
Ġà¦Ĺ à¦ªà¦Ĺà¦ª
à¦ģ ?
à¦ģ à¦¾
à¦£ à¦ķà¦²
à¦£ à¦°à¦¸
à¦£ à¦ªà¦¦
à¦£ à¦ªà¦¥
à¦£ à¦£à¦ķ
à¦£ à¦Ńà¦¯
à¦¥ à¦Ļ
à¦¥ à¦¨à¦ĵ
à¦¥ à¦°à¦ª
à¦¥ à¦ªà¦¥
à¦¥ à¦§à¦°
à¦¥ à¦ķà¦¦
Ġà¦¶ à¦°à¦¬
Ġà¦¶ à¦°à¦ķ
Ġà¦¶ à¦®à¦¸
Ġà¦¶ à¦®à¦¶
Ġà¦¶ à¦°à¦¬à§İ
Ġà¦ľ à¦ķ
Ġà¦ľ à¦ĸ
Ġà¦ľ à¦®à¦¨
Ġà¦ľ à¦°à¦¥
Ġà¦ľ à¦ĵà§Ł
Ġà¦ľ à¦īà¦¨
Ġà¦ľ à¦Ĺà¦¬
Ġà¦ļ à¦¶
Ġà¦ļ à¦ķà¦¬
Ġà¦ļ à¦Łà¦²
Ġà¦ļ à¦ªà¦Ł
Ġà¦ļ à¦ªà¦ļ
Ġà¦Ń à¦®
Ġà¦Ń à¦°à¦¨
Ġà¦Ń à¦ľà¦¸
Ġà¦Ń à¦ľà¦¤
Ġà¦Ń à¦īà¦ľ
Ġà¦Ń à¦¨à¦Ńà¦¨
Ġà¦° à¦ĸ
Ġà¦° à¦Ńà¦¸
à¦ĵ à¦Ĺà¦°
à¦ĵ à¦ĩà¦Ł
à¦ĵ à¦°à¦«
à¦Ń à¦¶
à¦Ń à¦Ń
à¦Ń à¦ľà¦¨
à¦Ń à¦¨à¦¤
à¦Ń à¦¶à¦ķ
à¦Ń à¦£à¦ĩ
à¦Ń à¦°à¦£à¦Ń
Ġà¦ıà¦ķ à¦Ĺà¦²
Ġà¦ıà¦ķ à¦®à¦£
Ġà¦ıà¦ķ à¦Ľà¦¤
Ġà¦Ľ à¦¶
Ġà¦Ĩà¦® à¦ĺ
à§ĥ âĢĮ
à¦ł à¦¬à¦°
à¦ł à¦¤à¦²
à¦ł à¦®à§Ł
à¦¼à¦¾ /
à¦¼à¦¾ âĢĶâĢĺ
à¦¼à¦¾ âĢĻâĢĶ
Ġà¦ī à¦®à¦®
Ġà¦ī à¦ĵà¦®
à¦¾à¦ģ ?âĢĿ
à¦¾à¦ģ âĢĻ,
à¦Ĥ ;
à¦Ĥ âĢ¦à¥¤
à¦Ļ à¦¶
à¦Ļ à¦Ĺ
à§ĩ, âĢ¦
Ġà¦¬à¦² à¦ľ
Ġà¦¬à¦² à¦¹
Ġà¦Ĩà¦° à¦¬à¦¦
Ġà¦² à¦Ĺà¦¬à¦Ĺ
Ġà¦ĵ à¦Ļ
Ġà¦ĵ à¦²à¦¨
Ġà¦ĸ à¦ĩà¦¯
Ġà¦ĸ à§ľà¦¬
âĢĶ ?
à§ľ à¦¤à¦°
à§ľ à¦ĺà¦°
à¦°à¦¤ à¦Ĺ
Ġà¦ħà¦¨ à¦ªà¦¨
à¦¾à¥¤ -
à¦¾à¥¤ [
Ġà¦§ à¦¨à¦²
Ġà¦§ à¦®à¦§
ĠâĢ į
Ġà¦ªà¦° à¦¹
Ġà¦ªà¦° à¦Ĺà¦£
à¦ĸà¦¨ à¦Ł
à¦ĸà¦¨ à¦ª
Ġà¦¸à¦® à¦®à¦¨
Ġà¦ĺ à¦²
à¦¬à¦¨ à¦®à¦¯
âĢĻ /âĢĻ
à¦¼à¦¿ ?âĢĿ
Ġà¦®à¦¨ à¦¤
Ġà¦®à¦¨ à¦ļ
à¦®à¦¨ à¦ª
à¦®à¦¨ à¦ĵ
à¦ªà¦° à¦¹à¦°
à¦ªà¦° à¦¶à¦®à¦£
à¦°à¦£ à¦ª
à¦°à¦£ à¦ļ
à¦°à¦£ à§Łà¦Ĺ
à¦¿à¥¤ "
à¦¿à¥¤ (
à¦Ŀ à¦°à¦Ľ
à¦Ŀ à¦Ĺà¦Ļ
Ġà¦ıà¦ĩ à¦¦
à§İ à¦¦
à§İ à¦¹
à§İ à¦«à¦¨
à¦ī à¦ĺ
à¦ī à§İà¦ķ
à¦ī à¦ªà¦®
à¦ī à¦ªà¦ľ
à¦ī à§İà¦ªà¦²
à¦ī à§İà¦ķà¦£
à¦ľà¦¨ à¦Ń
à¦ľà¦¨ à¦ªà¦°
à¦ľà¦¨ à¦Ĺà¦¨
à¦« à¦¶
à¦« à¦£
à¦« à¦Ŀ
à¦« à¦°à¦¸
à¦« à¦ľà¦²
à¦°à¦¬ à¦²à¦¬
à¦°à¦¬ à¦£à¦®
à¦¤à¦° à¦°
à¦¤à¦° à¦¨
à¦¤à¦° à¦ļ
à¦¤à¦° à¦ķà¦£
à¦ªà¦¨ à¦Ĺ
à¦ªà¦¨ à¦Ń
à¦ªà¦¨ à¦¤à¦®
à¦ªà¦¨ à¦ķà¦¥
à¦ı à¦¯
à¦ı à¦¨à¦Ł
à¦ı à¦Ĺà¦ľ
à¦ı à¦Ĩà¦ĩà¦¯
Ġà¦Ĩà¦² à¦ľ
Ġà¦¸à¦¬ à¦°
Ġà¦¸à¦¬ à¦²à¦¤
à¦°à¦ķ à¦ļ
à¦°à¦ķ à¦ĵ
à¦°à¦ķ à¦ĸà¦£
Ġà¦Ł à¦¸
Ġà¦Ł à¦ªà¦¨
âĢĿ à§ĩ
à¦Ĩ à¦Ĺà¦¨
à¦Ĩ à¦²à¦Ł
à¦Ĩ à¦¬à¦¡
à¦Ĩ à¦īà¦¶
Ġà¦ķà¦¥ à¦¯
ĠâĢĺ âĢ¦
à§Į âĢĶ
Ġà¦¡ à¦¯
Ġà¦¡ à¦®à¦°
Ġà¦¹à¦² à¦ª
Ġà¦¹à¦² à¦§à¦°
à¦ĺ à¦Ŀ
à¦ĺ à¦°à¦ķ
à¦ĺ à¦¬à¦¤
à¦ĺ à¦°à¦¦
à¦ĺ à¦®à¦¯
à¦ĺ à¦Ĺà¦°
à¦ĺ à¦ĸà¦£
Ġà¦ĩ à¦®à¦¤
Ġà¦ĩ à¦ľà¦°
Ġà¦ĩ à¦Łà¦¬
Ġà¦ĩ à¦«à¦°
Ġà¦ĩ à§Łà¦°
Ġà¦ľà¦¨ à¦¦
à§Ī !
à§Ī à¦ģ
à¦¼à¥¤ âĢĺ
Ġà¦§à¦° à¦¨à¦ĵ
à§ģà¦ģ âĢĶ
à§ģà¦ģ à¥¤âĢĻ
âĢĵ âĢĺ
ĠĠĊ ĠĊ
à¦·à¦£ à¦¤à¦°
à¦·à¦£ à¦¯à¦¨
Ġà¦ıà¦¸ à¦Ľ
Ġà¦ļà¦² à¦¨à¦¸à¦ĩ
à¦¼, âĢĿâĢĶ
à¦°à¦® à¦Ĺ
à¦°à¦® à¦¦à¦¤
à¦°à¦® à¦¬à¦¶à¦¤
Ġà¦¬à¦¨ à¦²
Ġà¦¬à¦¨ à¦ľà¦¨
Ġà¦¬à¦¨ à¦ļà¦°
Ġà¦¬à¦¨ à¦Ĺà¦®à¦¨
à§ĭà¦ģ âĢĶ
à§ĭà¦ģ âĢĻ,
Ġà¦Ĩà¦¬ à¦ķ
Ġà¦Ĩà¦Ĺ à¦·
à¦ķà¦² à¦°
à¦ķà¦² à¦ļ
à¦ķà¦² à¦¨à¦Ĺ
Ġà¦ħà¦¸ à¦®à¦¤à¦²
Ġà¦Ĺà¦² à¦«
à¦¤à¦¨ à¦°
à¦¤à¦¨ à¦¸
à¦¤à¦¨ à¦ª
à§ĩà¦ģ à¥¤
à§ĩà¦ģ âĢĻà¥¤
à¦ķà¦Ł à¦ª
à¦ķà¦Ł à¦ĵ
à¦ķà¦Ł à¦¬à¦¤
à¦ķà¦° à¦¸
à¦ķà¦° à¦ĩ
à¦ķà¦° à¦¹
à¦ħ à¦ĵ
à¦ħ à¦¬à¦¨
à¦ħ à¦Ŀ
à¦ħ à¦ķà¦²
à¦ħ à¦¨à¦ķ
à¦ħ à¦¬à¦ķ
à¦ħ à¦ľà¦¯
à¦ħ à¦¸à¦®à¦¯
à§ĩ? "
à§ĩ? !âĢĿ
à§ĭà¥¤ -
à¦°à¦¥ à¦¸
Ġà¦ħà¦® à¦ĺ
à¦²à¦ķ à¦ĵà¦¯
à¦¬à¦¤ à¦²
à¦¬à¦¤ à¦°à¦£
Ġà¦Ĩà¦¨ à§Łà¦¨
Ġà¦Ĩà¦ķ à¦ļ
à¦°à¦¸ à¦ª
à¦¤à¦¬ à¦¦
à¦¾à¦Ĥ âĢ¦
à¦¾à¦Ĥ âĢĮ
à¦¾à¦Ĥ !âĢĿ
à¦¾à¦Ĥ âĢĻ-
Ġà¦¶à¦¬ à¦Ł
Ġà¦¶à¦¬ à¦Ĺ
à¦¦à¦¨ à¦¨
à¦¦à¦¨ à¦ļà¦ķ
Ġà¦ĺà¦° à¦¹
à¦¿à¦Ĥ à¥¤âĢĻ
à¦¿à¦Ĥ ?âĢĿ
à¦¿à¦Ĥ âĢĻâĢĶ
à§ĩâĢĶ !
à§ĩâĢĶ âĢĶ
à¦¯à¦¬ à¦¦à¦²
à¦Ĺà¦² à¦¬à¦Ł
à¦Ĺà¦² à¦ľà¦¨à¦ķ
Ġà¦ľà¦² à¦¬à¦°
Ġà¦ľà¦² à¦ĺ
Ġà¦ľà¦² à¦®à¦£
Ġà¦ħà¦Ń à¦Ļ
Ġà¦®à¦¹ à§ľ
à¦°à¦¹ à¦®à¦¤
à¦°à¦¹ à¦°à¦ĩ
à¦°à¦¹ à¦¨à¦ķ
à¦°à¦¹ à¦°à¦Ł
à¦®à¦¤ à¦ĩ
Ġà¦īà¦ª à¦ª
Ġà¦īà¦ª à¦²à¦¦
à¦°à¦ľ à§Łà¦¨
à¦¨à¦¬ à¦ĩ
à¦¨à¦¬ à¦¤à¦°
à¦ĸà¦² à¦®
Ġà¦ķà¦² à¦¬
Ġà¦ķà¦² à¦®à¦ª
à¦²à¦¬ à¦Ł
à¦²à¦¬ à¦ĵ
à¦²à¦¨ à¦Ĺà¦°
à¦²à¦¨ à¦®à§Ł
à¦§à¦¨ à¦²
à¦ļà¦¨ à¦¦
à¦®à¦ķ à¦®à¦²
à¦®à¦ķ à¦¥à¦¨
à¦ĩà¦² à¦¡
à¦ĩà¦² à¦Łà¦¦
à¦¯à¦¤ à¦¦à¦£
à¦°à¦¦ à¦Ł
Ġà¦ħà¦ª à¦¶
Ġà¦ħà¦ª à¦ķà¦²
Ġà¦ħà¦ª à¦¶à¦¨
à¦®à¦² à¦¤à¦°
à¦¶à¦¨ à¦¶
à¦¶à¦¨ à¦¹
Ġà¦ıà¦¤ à¦ľà¦¨
Ġà¦¸à¦¹ à¦¤
Ġà¦¸à¦¹ à¦Ĺ
Ġà¦¸à¦¹ à¦¬à¦¤
âĢ¦ !
âĢ¦ ?
à¦ļà¦² à¦ĵ
à¦ķà¦¬ à¦Ľà¦°
à¦°à¦¯ à¦ª
à¦ªà¦¦ à¦²
à¦ªà¦¦ à¦§
à¦¸à¦¨ à¦¯à¦¨
Ġà¦ķà¦¤ à¦²
à¦ĩà¦¨ à¦ª
Ġà¦Ńà¦° à¦°à¦°
Ġà¦ħà¦ļ à¦°
à¦ıà¦ĩ à¦®
à¦ıà¦ĩ à¦ľà¦¨
Ġà¦ĺà¦Ł à¦®
Ġà¦ħà¦ľ à¦²
Ġà¦ħà¦ľ à¦ªà¦¥
à¦Łà¦ķ à¦°à¦£
à§İà¦¸ à¦¤
à¦¿? ï»¿âĢĻ
Ġà¦¬à¦¹ à¦ĩ
Ġà¦°à¦Ļ à¦¤
Ġà¦°à¦Ļ à¦®
Ġà¦°à¦Ļ à¦ª
à¦Ńà¦¬ à¦¦
à¦¦à§Ł à¦¦
à¦¦à§Ł à¦ªà¦Ł
à¦¦à§Ł à¦Ĺà¦£
à¦Ĺà¦¨ à¦¹
Ġà¦ķà¦® à¦ĵ
Ġà¦ķà¦® à¦«
Ġà¦ķà¦® à¦¬à¦¯
à¦¤à¦² à¦¦
à¦°à¦ĵ à¦ªà¦°
à¦¨à¦ķ à¦ļ
Ġà¦ªà¦¦ à¦Ľ
Ġà¦ªà¦¦ à¦¹
à¦¸à¦® à¦Ŀ
Ġà¦¶à¦° à¦¬à¦¨
à¦¶à¦¬ à¦ĩ
à¦¶à¦¬ à¦ļà¦¨
à§Ģà¥¤ âĢĵ
à¦¤à¦ķ à¦¹
Ġà¦®à¦° à¦Ĺ
à¦®à¦£ à¦Ĺ
à¦®à¦£ à¦¸à¦®
Ġà¦ħà¦Ĺ à¦ª
à¦¿âĢĶ ?âĢĻ
Ġà¦Ĺà¦° à¦°
Ġà¦Ĺà¦° à¦ľà¦¨
à¦ĩà¦° à¦Ļ
à§ģà¦ĥ !
à¦·à¦ķ à¦¨
à¦·à¦ķ à¦Ĺ
à¦·à¦ķ à¦®à¦£
Ġà¦ħà¦ªà¦° à¦Ł
à¦¸à¦° à¦°
à¦¦à¦² à¦¦
à¦¯à¦® à¦¬
à¦¯à¦® à¦¶
à¦ªà¦¥ à¦²
à¦ªà¦¥ à¦ĩ
à¦ªà¦¥ à¦ª
à§įâĢĮ ?
à§įâĢĮ !âĢĻ
à¦¤à¦¤ à¦¦
à¦ıà¦ķ à¦ļ
à¦ıà¦ķ à¦Ŀ
à¦Łà¦² à¦®
à¦Łà¦² à¦ľ
à¦Łà¦² à¦®à¦²
à¦Łà¦² à¦Łà¦²
à¦¤à¦® à¦¬
Ġà¦«à¦² à¦ľ
à¦ļà¦ķ à¦ĵ
à¦°à¦Ł à¦¨
à¦ªà¦ķ à¦ĵ
Ġà¦²à¦ķ à¦Ĺ
à¦®à¦¬ à¦ĩà¦Ĺ
à¦¶à¦ķ à¦°à¦ķ
à¦¢ à¦Ļ
à¦¸à¦² à¦¡à¦°
Ġà¦ĩà¦¨ à¦²
à§° à¦¯à¦ľ
à§ĩ; âĢĵ
à¦ľà¦² à¦Ł
à¦ľà¦² à¦ĵ
à¦ħà¦¨ à¦¡
à¦ħà¦¨ à¦Ń
!âĢĿ âĢĵ
à¦ªà¦Ł à¦Ń
Ġà¦Ĩà¦§ à¦«
à¦¹à¦¨ à¦Ĺ
à¦¹à¦¨ à¦Ń
à¦¹à¦¨ à¦ľà¦²
à¦ľà¦° à¦Ĺ
à¦¨à¦¦ à¦¶
Ġà¦Ńà¦¬ à¦¬à¦²
Ġà¦°à¦¬ à¦°à¦¬
Ġà¦¶à¦¤ à¦¯
Ġà¦¶à¦¤ à¦¸à¦¹à¦¸
à¦ķà¦¨ à¦Ĺ
à¦ķà¦¨ à¦ľà¦°
à¦¯à¦¸ à¦¦
à¦¯à¦¸ à¦ĸ
Ġà¦Ī à¦·
Ġà¦Ī à¦¦à¦Ĺ
Ġà¦Ī à¦Ĺà¦²à¦ķ
Ġà¦¬à¦²à¦¬ à§İ
Ġà¦Ĩà¦¦ à¦°à¦®
Ġà¦Ĩà¦¦ à¦®à¦ķ
à¦Ĺà¦ľ à¦¬
à¦Ĺà¦ľ à¦¸
à¦Ĺà¦ľ à¦ĩ
à¦Ĺà¦ľ à¦ļ
Ġ( âĢĶ
Ġà¦Ĺà§ľ à¦²
Ġà¦Ĺà¦¤ à¦ķà¦²
à¦¨à¦Ĺ à¦Ĺ
Ġà¦¨à¦¬ à¦¤à¦°à¦Ļ
Ġà¦¦à¦² à¦ª
Ġà¦¦à¦² à¦Ń
Ġà¦ĸà¦¬à¦° à¦Ĺ
à¦¸à¦ķ à¦®
à¦¸à¦ķ à¦Ń
à¦¼à§ģ âĢĵ
Ġà¦¬à§ľ à¦ľ
à¦°à¦Ĺ à¦łà¦¨
à¦¼à§Ģ !
Ġà¦ĺà¦¨ à¦¤à¦°
à¦«à¦² à¦¸
Ġà¦Ńà§Ł à¦Ł
Ġà¦Ńà§Ł à¦ĩ
à§ĭâĢĶ âĢĿ
Ġà¦ĭ à¦®à¦¨
Ġà¦ĭ à¦¤à¦¨
à¦®à¦¸ à¦Ń
Ġà¦¬à¦Ł à¦¨
à¦ªà¦· à¦ľ
à¦Ĩà¦ľ à¦¬
à¦°à¦®à¦£ à¦¯
Ġà¦¬à¦ķ à¦¸
?âĢĿ ,
?âĢĿ à¥¤
à¦ľà¦¸ à¦°à¦ķ
à§¦ à§¬
à¦Ĺà¦¬ à§İà¦¸
Ġà¦¤à¦¤ à¦¸
à¦¼à¦¾à¥¤ âĢ¦
à¦ľà¦¬ à¦ĩ
Ġà¦¦à¦¶ à¦ĸ
à¦¼âĢĶ -
Ġà¦¨à¦°à¦® à¦¸
à¦²à¦Ĺ à¦¹
à¦²à¦Ĺ à¦£
à¦Ĺà¦® à¦ĩ
à¦Ĺà¦® à¦ĵ
Ġà¦ľà¦¬ à¦ľà¦¬
à§Ŀ à¦¸
à§Ŀ à¦¤à¦°
à¦®à¦°à¦£ à¦¶
à¦®à¦°à¦£ à¦¹
Ġà¦ĵà¦ķ à¦¥
âĢĻ, -
à¦¼? )
à¦¼? âĢ¦
Ġà¦Ĺà¦£ à¦ª
Ġà¦Ĺà¦£ à¦¹
Ġà¦Ĺà¦£ à¦¸à¦®
Ġà¦Ĺà¦£ à¦ķà¦¬à¦°
Ġà¦ıà¦¸à¦¬ à¦ĵ
à¦¨à¦¯ à¦ľ
à¦łà¦ķ à¦®
à¦łà¦ķ à¦ª
à¦łà¦ķ à¦ĵ
à§Łà¦¤ à¦ĩ
à¦Ĩà¦² à¦ĸ
à¦ľà¦® à¦ľà¦®
à¦¡à¦² à¦ª
à¦²à¦¯ à¦¬à¦¨
Ġà¦ªà¦°à¦® à¦¶
à¦¼à¦Ĥ à¥¤
Ġà¦¬à¦ī à¦¡
à§ĩâĢ¦ âĢĿà¥¤
à¦®à¦¶ à¦¤à¦¬
à¦¬à¦ĩ à¦ªà¦¤
à¤ ¢
à¤ ĺ
à¦¦à¦Ĺ à¦£
à¦ķà¦¸ à¦¦
à¦ķà¦°à¦£ à¦¹
à¦®à¦ľ à¦ķ
à¦®à¦ľ à¦Ĺà¦¤
à§ĩ?âĢĿ à¥¤
Ġà¦Ĺà¦°à¦® à¦Ł
à¦ķà¦Ĺ à¦®à¦¨
Ġà¦¸à¦°à¦² à¦ª
Ġà¦¸à¦°à¦² à¦ļ
à¦ĩà¦Ń à¦¨
à¦¥à¦ķ à¦·
à¦¥à¦² à¦ļ
à¦¥à¦² à¦ªà¦¥
à¦ıà¦¸à¦¬ à¦ĵ
Ġà¦ħà¦Ł à¦ªà¦Ł
à¦®à¦ª à¦²
à¦Łà¦Ľ à¦¡
Ġà¦°à¦¸ à¦ľ
à¦·à§Ł à¦ļ
Ġà¦ľà§Ł à¦ª
Ġà¦ľà§Ł à¦¶
Ġà¦ľà§Ł à¦¢
à¦£à¦¬ à¦Ļ
à¦¨à¦¶ à¦°
à¦¡à¦¬ à¦ľ
à¦¡à¦¬ à¦ľà¦¨à¦¨
à¦¦à¦ķ à¦ĵ
à¦ıà¦ĸà¦¨ à¦¤
à¦¿à¥¤âĢĻ âĢĻ
Ġà¦ļà¦¨ à¦ļà¦¨
à¦ļà§Ł à¦Ł
à¦Ĺà¦£ à¦®
à¦¯à§İ à¦ĩ
Ġà¦¬à¦ľ à¦¦
Ġà¦¬à¦ľ à¦ª
Ġà¦®à¦¦ à¦¬
Ġà¦®à¦¦ à¦ĵ
à§© à§¦à§¦
à§© à§Ń
à¦²à¦Ń à¦Ļ
Ġà¦Ĭ à¦¨à¦¤
Ġà¦Ĭ à¦¨à¦ªà¦ŀ
Ġà¦ıà¦°à¦ķà¦® à¦ĵ
Ġà¦Ĩà¦ĩà¦¨ à¦®
Ġà¦¨à¦° à¦ļà¦¨
à§« à§®
an an
à§ª à§ª
à¦¾âĢ¦ âĢĿâĢĶ
à¦Ĩà¦Ĺ à¦®à¦¨
in is
à¦ľà§Ł à¦ĩ
à¦ľà§Ł à¦§
Ġà¦ĵà¦ª à¦°à¦¤à¦²
à¦¦à¦¬ à¦®
à¦¦à¦¶ à¦¦
Ġà¦¸à§İ à¦ª
à¦¾?âĢĻ âĢĶ
Ġà¦¶à¦ªà¦¥ à¦ĩ
Ġà¦¶à¦ªà¦¥ à¦¬à¦¦
Ġà¦ĩà¦² à¦°
Ġà¦ĩà¦² à¦¶
Ġà¦ªà¦²à¦ķ à¦¬
Ġà¦Ĩà¦ļà¦°à¦£ à¦Ĺà¦¤
Ġà¦®à¦¨à¦¨ à¦Ĺà¦°
Ġà¦®à¦¨à¦¨ à¦ļà¦°
à¦¼âĢĵ à¥¤
à¦ĩà¦® à¦ªà¦¸
à§Łà¦® à¦®
à¦Ī à¦°
à¦¬à¦ľà¦¨ à¦ª
re n
éŁ¿ åĵį
!âĢĻ âĢĿ
à¦¯à¦¹ à¦ĩ
à¦¿âĢ¦ ..
à¦¯à¦Ł à¦ķà¦°
à§ĩâĢĻ !
Ġà¦ļà¦°à¦® à¦°
à¦¬à¦°à¦¤ à¦¨
à§Ń à§¯
à§ĢâĢĶ âĢĻ
à¦¾âĢĿ !
on om
Ġà¦¸à¦« à¦°à¦¸à¦Ļ
à¦ħà¦¬ à¦Ĺ
Ġà¦Ńà¦Ĺ à¦ĵà¦¯
Ġà¦ıà¦¡ à¦®à¦¨
en a
en e
en us
al m
al t
al ley
at es
at ur
er cury
à¦¯à§Ł à¦ĩ
à§® à§¯
âĢ¦âĢĿ à¥¤
Ġà¦Ķ à¦·
Ġà¦Ķ à¦¡
Ġà¦Ķ à¦¦à¦°
à¦ªà¦Ĺ à¦ŀ
Ġthe ms
Ġà¦Ŀà§ľ à¦¬
Ġà¦Ŀà§ľ à¦ľà¦²
à¦Ĺà¦Ń à¦¬à¦¨
Ġà¦ĩà¦Ł à¦ĸ
it s
it ation
Ġà¦ħà¦¬à¦¨ à¦®à¦¨
à§ĭ?âĢĿ ,
à¦¯à¦®à§Ł à¦Ń
ar b
ar n
ar re
ar ds
ar iness
à¦ĵà¦ĩ à¦°à¦ķà¦®
Ġà¦°à¦« à¦¤
à¦Ĳ à¦¨
à¦Ĳ à¦Ł
Ġw ind
Ġw rit
Ġw ine
Ġà§© à§¯
Ġà¦¬à¦¦ à¦ĸ
Ġà¦¬à¦¦ à¦Ń
Ġa fter
à¦Ĩà¦¨ à¦®à¦¨
à¦¯à¦°à¦ķà¦® à¦ĩ
Ġs he
Ġs il
Ġs un
Ġs ha
Ġs ke
Ġs ong
Ġs uch
Ġs weet
Ġc ult
Ġà¦¨à¦°à¦ķ à¦¦à¦°
à¦ĭ à¦Ĺà¦¬
Ġà¦ľà¦Ĺà§İ à¦®à§Ł
es ide
Ġb ell
Ġb ack
Ġb attle
Ġb alc
Ġb oth
Ġb eside
Ġà¦¨à¦¹ à¦¬à§İ
ou ch
Ġm en
Ġm ind
Ġm ons
Ġm iss
Ġm ade
à¦Ĩà¦§ à¦ľà¦¨
Ġà¦°à¦¤à¦¨ à¦²
and a
à¦ĩà¦« à§Ł
Ġà¦®à¦°à¦£ à¦ª
Ġà¦®à¦°à¦£ à¦«
Ġà¦®à¦Ĺà¦ľ à¦ķ
Ġà¦¬à¦°à¦« à¦¶
Ġà¦¬à¦°à¦« à¦Ŀà¦°
éŁ¿éŁ¿éŁ¿éŁ¿ éŁ¿éŁ¿
à¦¶à¦¸ à¦ľ
Ġf low
Ġf ret
à¦²à¦ĵ à¦²
Ġà¦¬à§İà¦¸ à¦¦
Ġà¦ªà¦¥à¦ļ à¦²à¦¤
Ġo ver
il d
il ity
Ġà§§à§¯à§Ń à§¯
à§ĭâĢ¦ à¥¤âĢĿ
à¦ħà¦ľ à¦Ĺà¦°
ĠO F
à¦¿âĢĿ !
Ġp re
Ġp ain
Ġp alm
ĠS a
ĠS m
ĠS p
ĠS y
ĠS ir
ĠS uk
ĠS TEM
Ġà¦¨à¦ĸ à¦Ĺ
as ant
Ġà§ª à§¨
Ġà§ª à§Ń
Ġà§ª à§®
à¦£à¦° à¦ļà¦¯
Ġà¦ĺà§ľ à¦ĺà§ľ
ĠâĢ¦ ..
ĠI I
ĠĠĊĠĠ ĠĠĠ
à¦ĸà¦Ĺ à¦¹
ing u
à¦¥à¦ª à¦ŀ
Ġd el
Ġd id
Ġd em
Ġd etect
Ġd ays
Ġà¦ķà¦¦à¦® à¦ª
Ġh as
Ġh ap
Ġh old
Ġh ome
Ġh olo
Ġh aun
Ġà§« à§¨
Ġà§« à§«
à¦¼à¦¿à¦Ĥ ,
ĠA ng
ĠP M
ĠP l
ĠP un
ĠP ra
ĠP ap
ĠP ublis
Ġà§§à§¦ à§§
à¦ļà¦ľà¦¨ à¦ĩ
Ġà¦°à¦£ à¦¸
Ġà¦°à¦£ à¦¹
Ġà¦ĩà¦ī à¦¥
Ġà§§à§® à§¦
Ġà§§à§® à§¦à§¦
Ġà§§à§® à§©à§©
Ġà§§à§® à§¯à§©
Ġà§§à§® à§¬à§¯
Ġà§§à§® à§Ńà§©
à§§à§¨ à§©à§ª
Ġà¦ķà¦¤à¦¬ à¦¡
à§§à§¯à§ ¯à§
ro k
ro ok
ĠC o
ĠC ent
ĠC ol
ĠC ity
ĠC SI
ĠC rook
à¦¡à¦¸ à¦ĵà¦¯
à§ģâĢĵ à¥¤
el t
ol ation
ĠM r
ĠM ed
Ġl ight
Ġl ater
Ġl ost
Ġà§¬ à§ª
Ġà§¬ à§®
Ġà§Ń à§¨
à¦¯à¦² à¦¹à¦°
à§ĩâĢĻ, âĢĻ
à§ĩ!âĢĻ âĢĻ
à§ĩ!âĢĻ âĢĿ
à¦Ĺà¦ł à¦¨à¦ķ
à¦Ĺà¦ł à¦¨à¦Ł
Ġe c
Ġe ase
Ġe ves
Ġe cho
Ġe arth
ĠT w
ĠT hat
Ġà¦ľà¦¨à¦ªà¦¦ à¦ķ
us i
us yanta
Ġà¦¹à¦¨à¦¨ à¦ª
ur ous
ot her
à§ĩ) ;
Ġà§§à§¯à§ª à§¬
ĠR aj
à¦ľà¦¹ à¦°à¦¤
Ġth ink
Ġth ose
ĠD NA
ĠD usyanta
à¦ªà¦¶à¦¨ à¦Ł
Ġà¦¹à¦°à¦£ à¦ķ
Ġà¦®à¦¤à¦²à¦¬ à¦ĸ
Ġà§§à§© à§¬
Ġà§§à§© à§Ńà§§
à¦¶à¦ªà¦¥ à¦¬à¦¦
Ġà¦ĸà§ľ à¦®
Ġà§¨à§¦ à§¬
Ġà§¨à§¦ à§«à§¦
à¦Ĩà¦ĩà¦¨ à¦¸
ad em
à¦¼?âĢĿ âĢĶ
Ġà¦¦à¦°à¦¦ à¦¸
áĥ Ŀáĥ
à¦īà¦ª à¦Ń
Ġà§® à§«
ch a
à§ĭâĢ¦âĢĿ âĢĶ
à§ģâĢ¦ .
Ġg old
Ġg ood
à¦¸à§İ à¦ªà¦¥
à¦¸à§İ à¦ļà¦°
Ġà¦¸à¦®à¦¤à¦² à¦Ń
Ġà§§à§« à§¦à§¦
Ġà§§à§« à§«à§«
à¥¤âĢ¦ .
ĠH er
ĠH ar
ĠH ind
ĠH istory
à¦¤à¦ļà¦° à¦°
ĠL al
ĠL ED
à¦¼à§Ģà¥¤ âĢĿ
à¦ħà¦¹ à¦ŀ
Ġà¦īà¦ĩ à¦ķà¦²
Ġre p
os ity
Ġfor g
à¦¬à¦ľà¦Ĺà¦¤ à¦ķ
à¦¯à¦Łà¦ķ à¦¦
à¦īà¦ªà¦° à¦¨
ul ar
à¦¦à¦®à¦¨ à¦ķ
ation al
Ġà§§à§¬ à§«à§¬
Ġà¦¹à¦ľà¦® à¦¶à¦ķ
ĠG o
ĠG eor
Ġy et
à¦Ĭ à¦¨à¦¬
à¦Ĩà¦ļà¦°à¦£ à¦ķ
Ġà¦Ĩà¦ªà¦¸ à¦¹
Ġne ed
Ġne are
ter n
Ø§ ÛĮ
Ø§ Ùħ
à¤¤ à¤°
Ġwe ariness
em por
Ġà§¯à§ ª
Ġà¦Ĩà¦īà¦Ł à¦¬à¦ķ
Ġà¦¨à¦¬à¦° à¦¸
à§§à§Ń à§«à§Ń
à§§à§Ń à§¯à§©
à¦¡à¦īà¦ĩ à¦ļà¦Ĺ
à¤ķ à¤°
Ġà§§à§¯à§© à§§
Ġmy self
Ġà¦ĩà¦¤à¦° à¦ľà¦¨
Ġwh ose
ĠØ ±
ĠØ Ń
um mer
à¦Ĩà¦īà¦Ł à¦¡
à¤² à¦Ľ
Ġà¦¨à¦¬à¦¦ à¦®
Ġà¦¶à¦¤à¦ªà¦¥ à¦¬
ri but
Ġv ill
Ġà§§à§¯à§¨ à§¨
Ġà§§à§¯à§¨ à§Ń
Ġà§§à§¯à§¨ à§¬
à¸ ±
à¸ ²
à¸ ģ
à¸ Ļ
Ġse p
Ġcon f
ore word
Ġà¦¡à¦ľà¦¨ à¦ĸ
ge gnung
iv idual
lis h
Ð° Ñģ
ĠF oreword
ĠÙ Ħ
Ġà¦®à¦ĩ à¦§
à§©à§© à§©à§©
ast y
har ma
Ġà¦Ĺà¦¤à¦¬ à¦Ľà¦°
Ġà§§à§¯à§§à§ ¬
Ġde ep
ry an
uth or
Ðµ Ñģ
Ð¾Ð ·
Ġà¦ıà¦ĩà¦ļ à¦ıà¦¸à¦¸
à§§à§¯à§Ń à§¦
ÑĢ Ð°
Ġì ĭľ
Ġà¦Ĩà¦ī à¦Łà¦²
à§§à§¯à§ª à§©
àª °
ep ing
Ġr un
Ġà¦¶à¦ķà¦Ł à¦¬
âĢ¦âĢ¦ âĢ¦âĢ¦
iz on
iz arre
Ġ× ¨
Ġ× Ķ
Ġat t
Ġun der
Ġind ividual
Ġà§§à§§à§ Ń
Ġso ft
Ġim age
Ø§Ø ¯
Ġro ad
Ġpro ject
à§§à§¯à§© à§®
Ġáĥ Ľ
Ġcl ass
Ġ196 7
gal ow
à¦Ŀà¦Ł à¦ªà¦Ł
Ġà§· à§·
pt ic
ĠBe gegnung
for m
hes is
iss ion
Ġknow n
ĊĊ Ċ
âĤ Ĩ
Ġà¦ļà¦ĩ à¦²à¦¬
ĠCh urch
ĠDe velopment
Â¦ à¦¾
Ġà¦«à§Ł à¦¸à¦²
à¦¤à§Ł à¦Ńà¦¸
à§§à§¯à§¨ à§ª
act ory
yes ha
à¦¡à¦¬à¦¬ à¦§
Ġà¦ĵà¦¨à¦¨ à¦ķ
Ġà¦ĩà¦¨à¦Ńà¦²à¦Ń à¦¡
Ġfl ies
Ġà¤ī à¤ł
Ġdo es
à§§à§¯à§® à§«
urav as
Ġbec omes
ºçľºçľºçľºçľºçľºçľºçľºçľ ºçľºçľºçľºçľºçľºçľºçľºçľ
·çľ·çľ·çľ·çľ·çľ·çľ·çľ·çľ ·çľ·çľ·çľ·çľ·çľ·çľ·çľ·çľ
sh ip
ality à¦¯
Ġsm all
Ġbre ast
Ġâ ĨĴ
à¦ªà¦¨à¦¸ à¦°à¦¶
Ġfe ver
ĠInt egr
Ġdr ink
aug h
iat ic
rish na
à¦¨à§ľ à¦¬à§ľ
à¦Ĩà¦²à¦¬ à§İ
omm un
ĠSe lect
Ġgod s
Ġneigh bor
Ġval ue
Ġapp ro
pr int
à¦ħà¦¨à¦¬ à¦°à¦¤
Ġspe ak
Ġple asant
ĠAs iatic
Â·Â·Â·Â· âĢĻ
ĠCult ure
ĠMy ra
Ġgen er
ĠLangu ages
Ġjourney ed
Ġsubur bs
æĭ Ń
Ġmix ed
ĠOff ice
Ġhum an
ĠParg iter
ĠBrit ish
Ġequ alityà¦¯
Ġbeg in
ĠGand har
ĠEng lish
Ġimport ant
Ġdyn asty
Ġmurm urous
rvas i
yst em
âģ ł
Ġign or
Ġà¦¬un galow
Ġà¦ļà¦ªà¦ļ à¦ª
Ġà¦§à¦®à¦§ à¦®
Ġthems elves
Ġbalc ony
ĠSuk umar
Ġhap pen
Ġhaun t
ĠCrook es
Ġease ful
ĠGeor ge
Ġneare r
! /
! ?
% à¥¤
' ,
' à¥¤
' ll
) :
) âĢĶâĢĻ
+ âĢĻ
, "
0 0
1 10
5 3
5 4
5 6
: -
? "
? ?
? !âĢĿ
? âĢĶ-
A M
A N
A Y
A nd
A ryan
B ig
B ang
C U
C or
C TE
C omp
D igital
E n
F I
F or
G o
G est
G EN
H U
H y
H el
H AT
I M
I R
I T
I U
I V
I t
L L
L et
L ED
O L
O P
O ST
P r
P RO
Q R
R U
S R
S t
S he
S ak
S TEM
S olar
T UR
U n
V E
W here
W hat
Y AB
a ud
b an
b us
b id
b our
c om
c ess
c ap
c hed
c hen
c omp
c ene
d le
d ing
d el
d ay
d igital
e y
e al
e le
e ars
f i
g en
g es
h ut
h ood
h ost
i j
i er
i osity
j an
k er
k now
l u
l it
m i
m at
m ar
n an
n ter
n ight
o o
o x
o le
o red
p p
p s
p id
r s
r ite
r ings
s p
s il
s uggestion
t i
t al
t es
t ur
u v
u it
v al
v ens
v itation
w ith
w ater
x p
y pe
¦ ģ
¨ Ø±
° ë
½ Ð°
Î ±
Î µ
Ï Ģ
Ï Ħ
Ð ¹
Õ ¡
Õ «
Õ ¸
Õ ¿
× ¨
× ľ
Ø ¶
Ù ı
à ©
à ³
à µ
à ¶
à ·
â ¦ģ
å ¿
ê °
ì Ĩ
Ċ Ġ
Ġ 4
Ġ à§İà¦¸
Ġ ut
Ġ lect
Ġ à°
Ġ ÑĤ
Ġ QR
ı ãģ
ķ ë
ķ áĥĶáĥ
Ŀ ¼
Ġà¦ Ĥ
à¦¾ '
à¦¾ ]
à¦¾ à¦¼
à¦¾ à§ĩà¦ģ
à¦¾ à¦¾à¦ģ,
à¦¾ âĢķ
à¦¾ à¦¾à¦ģ?
à§ĩ ]
à§ĩ à¦¼
à§ĩ Â·Â·Â·
à§ĩ à§įà¦ģ
à§ĩ Â·Â·Â·âĢĻ
à¦° à¦°à¦¹
à¦° à¦Ĺà¦ľ
à¦° à¦īà¦¨
à¦° à¦«à¦²
à¦° à¦°à¦®à¦£
à¦° à¦ĺà¦¨
à¦° à¦īà¦ľ
à¦° à¦ħà¦®
à¦° à¦ĺà¦£
à¦° à¦ĺà¦¡
à¦° à¦ĭà¦¤
à¦° afi
à§į ;
à§į à¦¾
à§į à¥¤âĢĿ
à§į ï¿½
à¦¿ à¦¼
à¦¿ Â·
à¦¨ à¦ĸà¦¨
à¦¨ à¦¸à¦¬
à¦¨ à¦°à¦¥
à¦¨ à¦ķà¦¤
à¦¨ à¦²à¦¬
à¦¨ à¦®à¦°
à¦¨ à¦ıà¦¬
à¦¨ à¦ĩà¦¬
à¦¨ à§Łà¦¤
à¦¨ à¦Ŀà¦°
à¦¨ à¦ĸà¦£
à¦¨ à¦ľà¦Ĺà¦¤
à¦¨ à¦īà¦¤
à¦¤ à¦Ŀ
à¦¤ à¦ķà¦Ł
à¦¤ à¦¹à¦¸
à¦¤ à¦Ĺà¦¨
à¦¤ à¦ĺà¦°
à¦¤ à¦§à¦°
à¦¤ à¦¹à¦°à¦£
à¦¤ à¦¸à¦®à¦¯
à¦¤ à¦Ľà¦¬
à¦¤ à¦¥à¦ķ
à¦¤ à¦¶à¦¯
à¦¤ à§İà¦ª
à¦¤ à¦°à¦¤à¦²
à¦² à§ľ
à¦² à¦ľà¦¨
à¦² à¦ı
à¦² à¦Ĩ
à¦² à¦¬à¦²
à¦² à¦¤à¦¬
à¦² à¦¸à¦«
à¦² à¦®à¦¸
à¦² à¦¦à¦¸
à¦² à¦¥à¦¤
à¦² à¦Ĺà¦¤à¦Ń
à¦ķ à¦·à¦¤
à¦ķ à¦§à¦°
à¦ķ à¦łà¦ķ
à¦ķ à¦Ĩà¦²
à¦ķ à¦ªà¦°à¦®
à¦ķ à¦°à¦®à§Ł
à§ģ ]
à§ģ à¦¾
à§ģ à§ĭ
à§ģ à§ĥ
à§ģ âĢĿâĢĶ
à§ģ ...
à¦¯ à¦¦à¦¨
à¦¯ à¦°à¦®à¦£
à¦¯ à¦ªà¦£
à¦¬ à¦«
à¦¬ à¦ĵà§Ł
à¦¬ à¦¦à§Ł
à¦¬ à¦®à¦Ĺ
à¦¬ à¦£à¦ķ
à¦¬ à¦īà¦°
à¦¬ à§İà¦ª
à¦¬ à¦īà¦¬
à¦¬ à¦ľà¦Ĺà§İà¦ķ
à¦® à¦°à¦®
à¦® à¦Ĺà¦²
à¦® à§Łà¦¨
à¦® à¦¹à¦¨
à¦® à¦ľà¦¯
à¦® à§Ŀ
à¦® à¦Ŀà¦°
à¦® à¦ļà¦Ł
à¦® à¦ľà¦¨à¦ķ
à¦® à¦Ńà¦Ļ
à¦® à¦°à¦¹à¦¸
à¦® à¦°à¦ľà¦²
à¦¼ (
à¦¼ à§Į
à¦¼ à§ģà¦ĥ
à¦¼ à§įâĢĮ
à¦¼ à§ĭà¥¤âĢĻ
Ġà¦ķ à¦Łà¦²
Ġà¦ķ à¦ĩà§Ł
Ġà¦ķ à¦ľà¦¨à¦ķ
Ġà¦ķ à¦®à¦¨à¦¸
Ġà¦ķ Ø§Ø
à§ĭ .
à§ĭ à¦¾à¦ģ
à§ĭ âĢĮ
à§ĭ âĢĿâĢĵ
Ġà¦¬ à¦¤à¦°
Ġà¦¬ à¦ķà¦Ł
Ġà¦¬ à¦ĩà¦¨
Ġà¦¬ à§Łà¦¨
Ġà¦¬ à¦¦à¦¤
Ġà¦¬ à¦ķà¦²à¦®
Ġà¦¬ à¦¨à¦¤à¦²
Ġà¦¸ à¦·
Ġà¦¸ à¦¥
Ġà¦¸ à¦ĩà¦²
Ġà¦¸ à¦ªà¦Ł
Ġà¦¸ à¦ĩà¦Ł
Ġà¦¸ à¦ĩà¦¸
Ġà¦¸ à¦²à¦«
à¥ Į
à¥¤ ..
Ġà¦ª à§İ
Ġà¦ª à¦¹à¦²
Ġà¦ª à¦Ĺà¦¡
à¦¸ à¦Ŀ
à¦¸ à¦°à¦¬
à¦¸ à¦ħ
à¦¸ à¦¦à¦¯
à¦¸ à¦°à¦¶
à¦¸ à¦¦à§Ł
à¦¸ à¦¸à¦Ļ
à¦¸ à¦§à¦¬
à¦¸ à¦ľà¦®
à¦¸ à¦īà¦¦
à¦¸ à¦ħà¦²
à¦¸ à¦ĺà¦Ł
Ġà¦Ĩ à¦ķà¦²
Ġà¦Ĩ à¦ļà¦¨
Ġà¦Ĩ à¦ļà¦°
Ġà¦Ĩ à¦ĩà¦®
Ġà¦Ĩ à¦īà¦¸
Ġà¦Ĩ à¦ªà¦¦à¦ķ
à¦¦ à¦¥
à¦¦ à§İ
à¦¦ à¦¬à¦²
à¦¦ à¦ķà¦²
à¦¦ à¦Ĺà¦¤
à¦¦ à¦²à¦¤
à¦¦ à¦Ľà¦¨
à¦¦ à¦®à¦°
à¦¦ à¦¬à¦¸
à¦¦ à¦®à¦¬
à¦¦ à¦ľà¦²
à¦¦ à¦ĩà¦¯
à¦¦ à¦Ĺà¦®
à¦¦ à¦ĩà§Ł
à¦¦ à¦Ńà¦Ļ
à¦¦ à¦Ńà¦ķ
à¦¦ à¦°à¦¤à¦°
à¦¦ à¦°à¦¤à¦®
à¦Ł à¦£
à¦Ł à¦¬à¦°
à¦Ł à¦Ĩ
à¦Ł à¦ķà¦¤
à¦Ł à¦²à¦¤
à¦Ł à¦®à¦¯
à¦Ł à¦°à¦ĩ
à¦Ł à¦¨à¦ķ
à¦Ł à¦ªà¦¥
à¦Ł à¦°à¦ļ
à¦Ł à¦¨à¦Ĺ
à¦Ł à¦Ĺà¦¬à¦Ĺ
Ġà¦¨ à¦ľà¦¨
Ġà¦¨ à¦¬à¦²
Ġà¦¨ à¦°à¦¶
Ġà¦¨ à¦®à¦ķ
Ġà¦¨ à¦²à¦Ĺ
Ġà¦¨ à¦°à¦°
Ġà¦¨ à¦²à¦ª
Ġà¦¨ à¦¬à¦²à¦¤
Ġà¦¨ à¦Łà¦Ł
Ġà¦¨ à¦Ńà¦¨
Ġà¦¨ à¦ľà¦¦
Ġà¦¨ à¦¬à¦²à¦¬
Ġà¦® à¦Ŀ
Ġà¦® à§İ
Ġà¦® à¦ķà¦¬
Ġà¦® à¦«à¦²
Ġà¦® à¦Łà¦¨
Ġà¦® à¦¦à¦Ĺ
à¦ĩ à¦¨à¦¤
à¦ĩ à¦ķà¦°
à¦ĩ à¦ĸà¦¤
à¦ĩ à¦ķà¦¬
à¦ĩ à¦Ĺà¦¨
à¦ĩ à¦¤à¦®
à¦ĩ à¦Łà¦¬
à¦ĩ à¦®à¦Ł
à¦ĩ à¦ľà¦®
à¦ĩ à¦ļà¦¬
à¦ĩ à¦¶à¦¦
à¦ĩ à¦²à¦¬à¦ķ
à¦ª à¦ªà¦°
à¦ª à¦¬à¦²
à¦ª à¦¸à¦¬
à¦ª à¦§à¦¨
à¦ª à¦Ĺà¦°
à¦ª à¦¸à¦°
à¦ª à¦§à¦°
à¦ª à¦Ńà¦¯
à¦ª à¦¶à¦¯
à¦ª à¦¶à¦Ł
à¦ª à§İà¦¸à¦Ļ
à§Ģ /
à§Ģ à§Ģ
à§Ģ à¦ģ
à§Ģ à¦ĥà¥¤
à§Ģ )à¥¤
Ġà¦¦ à¦®à¦¯
Ġà¦¦ à¦°à¦ĵ
Ġà¦¦ à¦®à¦¬
Ġà¦¦ à¦¹à¦¤
Ġà¦¦ à¦°à¦¶à¦¨
à¦Ľ à¦Ļ
à¦Ľ à¦ľà¦¨
Ġà¦¤ à¦ľ
Ġà¦¤ à¦¶
Ġà¦¤ à¦Ĺ
Ġà¦¤ à¦ķà¦²
Ġà¦¤ à¦ĸà¦¤
Ġà¦¤ à¦°à¦ľ
Ġà¦¤ à¦Ľà¦°
Ġà¦¤ à¦¥à¦¨
Ġà¦¤ à¦¦à¦ª
Ġà¦¤ à¦«à¦¸
Ġà¦¤ à¦°à¦ľà¦®
Ġà¦ı à¦¤à¦¨
Ġà¦ı à¦Ĺà¦¨
Ġà¦ı à¦¹à¦¨
Ġà¦¹ à¦°à¦®
Ġà¦¹ à¦¦à§Ł
Ġà¦¹ à§ľà¦¹
à¦ľ à¦°à¦ķ
à¦ľ à¦ĵà§Ł
à¦ľ à¦¹à¦¸
à¦ľ à¦®à¦ķ
à¦ľ à¦¹à¦°
à¦ľ à¦ļà¦ķ
à¦ľ à§°
à¦ľ à¦®à¦¨à¦¸
à¦ľ à¦ªà¦°à¦®
à¦ľ à¦¬à¦¦à¦²
à¦ľ à¦²à¦ķà¦£
à¦ľ à¦¸à¦°à¦ŀ
à¦¶ à¦ł
à¦¶ à§İ
à¦¶ à¦ªà¦¨
à¦¶ à¦¬à¦²
à¦¶ à¦¤à¦¬
à¦¶ à¦Ĺà¦²
à¦¶ à¦ļà¦°
à¦¶ à¦Ŀà¦°
à¦¶ à¦¤à¦Ń
à¦¶ à¦°à¦Ļ
à¦¶ à¦Ŀà¦¡
à¦ĸ à¦ŀ
à¦ĸ à¦°à¦¹
à¦ĸ à¦¸à¦®
à¦ĸ à¦°à¦Ĺ
à¦ĸ à¦¶à¦¯
âĢ ĥ
âĢ ŀ
Ġà¦ħ à¦Łà¦ķ
Ġà¦ħ à¦ĩà¦¬
Ġà¦ħ à¦Ŀà¦°
Ġà¦ħ à¦ĵà¦°
à¦Ĺ à¦¨à¦ĵ
à¦Ĺ à¦°à¦²
à¦Ĺ à¦¹à¦°
à¦Ĺ à¦ªà¦¦
à¦Ĺ à¦¦à¦²
à¦Ĺ à¦®à¦¬
à¦Ĺ à¦ķà¦®
à§Ł à¦§
à§Ł à¦¡
à§Ł à¦¬à¦°
à§Ł à¦¨à¦¤
à§Ł à¦¨à¦ĵ
à§Ł à¦®à¦¤
à§Ł à¦®à§Ł
à§Ł à¦ķà¦°à¦£
à§Ł à¦°à¦¨à¦®
à¦· à¦®à¦¨
à¦· à¦¸à¦°
à¦· à¦°à¦ļ
à¦· à¦«à¦²
à¦· à¦¦à¦¸
Ġà¦¯ à¦®à¦®
à¦§ à¦Ŀ
à¦§ à¦«
à¦§ à¦ĵà¦¯
à¦§ à¦¨à¦¤
à¦§ à¦°à¦ª
à¦§ à¦ļà¦°
à¦§ à¦Ĺà¦£
à¦§ à¦¶à¦°
à¦¡ à¦°à¦¦
à¦¡ à¦¹à¦°
à¦¡ à¦°à¦Ł
à¦¡ à¦®à§Ł
à¦¡ à¦¸à¦¹
à¦¡ à¦Ĩà¦ª
à¦ļ à¦¬à¦¨
à¦ļ à¦®à¦¯
à¦ļ à¦Łà¦ķ
à¦ļ à¦®à¦°
à¦ļ à¦¬à¦ķ
à¦ļ à¦ªà¦Ł
à¦ļ à¦¬à¦ĩ
à¦ļ à¦ªà¦²
à¦ļ à¦Ĺà¦¡
à¦ļ à¦¶à¦°
Ġà¦ķà¦° à¦ŀ
Ġà¦ķà¦° à¦ķà¦°
Ġà¦ķà¦° à¦®à¦ļ
à¦¹ à¦°à¦¸
à¦¹ à¦¤à¦¬
à¦¹ à¦²à¦¬
à¦¹ à¦¹à¦°
à¦¹ à¦¨à¦¨
à¦¹ à¦®à¦¸
à¦¹ à¦ĩà¦¬
à¦¹ à¦®à¦¶
à¦¹ à¦ĺà¦¨
à¦¹ à¦°à¦ķà¦°
Ġà¦Ĺ à¦°à¦¸
Ġà¦Ĺ à¦¹à¦°
Ġà¦Ĺ à¦«à¦°
à¦ģ !
à¦£ à¦¥
à¦£ à¦®à¦¤
à¦£ à¦¨à¦¬
à¦£ à¦°à¦¶
à¦£ à¦¸à¦¨
à¦£ à¦ļà¦ķ
à¦£ à¦®à¦§
à¦£ à¦ĺà¦¨
à¦£ à¦°à¦Ļ
à¦£ à¦Ńà¦Ļ
à¦£ à¦Ńà¦ķ
à¦£ à¦Ńà§Ł
à¦¥ à¦ľ
à¦¥ à¦·
à¦¥ à¦°à¦¤
à¦¥ à¦¬à¦°
à¦¥ à¦Ĺà¦¤
à¦¥ à¦¤à¦¤
à¦¥ à¦°à¦Ń
à¦¥ à¦ļà¦°
à¦¥ à¦¸à¦ķ
à¦¥ à¦²à¦Ł
à¦¥ à¦¬à¦§
à¦¥ à¦°à¦ªà¦Ł
Ġà¦¶ à¦¤à¦®
Ġà¦¶ à§°
Ġà¦¶ à¦£à¦¨
Ġà¦¶ à¦°à¦¬à¦°
Ġà¦¶ à¦Łà¦Ĺ
Ġà¦ľ à¦°à¦¦
Ġà¦ļ à¦°à¦¸
Ġà¦ļ à¦°à¦¦
Ġà¦ļ à¦ªà¦¸
Ġà¦ļ à¦°à¦Ĺ
Ġà¦Ń à¦·
Ġà¦Ń à¦ŀ
Ġà¦Ń à¦°à¦ķ
Ġà¦Ń à¦ķà¦¤
Ġà¦Ń à¦²à¦¤
Ġà¦Ń à¦ĩà¦²
Ġà¦Ń à¦¬à¦¦
Ġà¦Ń à¦¬à¦¸
Ġà¦Ń à§İà¦¸à¦¨
Ġà¦° à¦°
Ġà¦° à¦¬à¦¨
Ġà¦° à¦¹à¦²
Ġà¦° à¦¸à¦¤
Ġà¦° à¦Łà¦¤
Ġà¦° à¦¸à¦ķ
Ġà¦° à¦ĩà¦¯
Ġà¦° à¦®à¦¸
Ġà¦° à¦¸à¦ª
Ġà¦° à¦¸à¦®à¦¯
Ġà¦° à¦®à¦ª
Ġà¦° à¦¨à¦ľ
Ġà¦° afi
à¦ĵ à¦§
à¦ĵ à¦ķà¦¥
à¦ĵ à¦ıà¦¸
à§ĩà¥¤ ]
à§ĩà¥¤ âĢĶâĢĻ
à¦Ń à¦Ľ
à¦Ń à¦·
à¦Ń à¦£
à¦Ń à¦°à¦ķ
à¦Ń à¦¨à¦ķ
Ġà¦ıà¦ķ à¦ķà¦Ł
Ġà¦ıà¦ķ à¦ıà¦ķ
Ġà¦ıà¦ķ à¦¸à¦¤
Ġà¦ıà¦ķ à¦¸à¦Ł
Ġà¦Ľ à¦°
Ġà¦Ľ à¦ķà¦Ł
Ġà¦Ľ à§Łà¦¨
Ġà¦Ľ à¦ĩà¦Ł
Ġà¦Ĩà¦® à¦ĩ
Ġà¦Ĩà¦® à¦ĵ
Ġà¦Ĩà¦® à¦Ŀ
Ġà¦Ĩà¦® à¦«
à§ĥ âĢĻ
à¦ł à¦²
à¦ł à¦¬à¦¨
à¦ł à¦°à¦¸
à¦ł à¦ķà¦¬
à¦ł à¦ªà¦¥
à¦ł à¦ļà¦°
à¦ł à¦¨à¦Ĺ
à¦ł à¦¨à¦ĩ
à¦ł à¦ĸà¦¡
ĠĠ âĢ¨Ċ
à¦¼à¦¾ âĢĶâĢľ
à¦¼à¦¾ âĢĻ-
à¦¼à¦¾ ),
à¦¼à¦¾ âĢ¦à¥¤
à¦¼à¦¾ âĢ¦à¥¤âĢĻ
Ġà¦ī à¦ĸ
Ġà¦ī à¦ĺ
Ġà¦ī à¦¨à¦¬
Ġà¦ī à§°
Ġà¦ī à¦·à¦°
Ġà¦ī à¦Łà¦ª
Ġà¦ī à¦ĩà¦¡
Ġà¦ī à¦Ĺà¦¡
Ġà¦ī à¦ĩà¦«
à¦¾à¦ģ à¦ģ
à¦¾à¦ģ !âĢĿ
à¦¾à¦ģ âĢĻà¥¤
à¦Ĥ à¥¤âĢĻ
à¦Ļ à¦°à¦¹
à¦Ļ à¦¨à¦ĩ
à§Ĥ !
Ġà¦¥ à¦¨
Ġà¦¥ à¦ª
Ġà¦¥ à¦ªà¦¥à¦ª
Ġà¦¬à¦² à¦ªà§Ł
Ġà¦Ĩà¦° à¦Ł
Ġà¦Ĩà¦° à¦Ĩà¦°
Ġà¦² à¦ª
Ġà¦² à¦·
Ġà¦² à¦ļ
Ġà¦² à¦¥
Ġà¦² à§Łà¦¬à¦¦
Ġà¦ĵ à¦¶
Ġà¦ĵ à¦¦à¦¨
Ġà¦ĵ à¦Ĺà¦°
Ġà¦ĵ à¦ªà§ľ
Ġà¦« à¦°à¦Ĺ
Ġà¦ĸ à¦ľ
Ġà¦ĸ à¦°à¦®
Ġà¦ĸ à¦¸à¦°
Ġà¦ĸ à¦ļà¦°
Ġà¦ĸ à§Łà¦°
à§ľ à¦¬à¦¨
à§ľ à¦ªà¦°
à§ľ à¦ľà¦¨
à§ľ à¦®à§Ł
à¦°à¦¤ à¦§
à¦°à¦¤ à¦°à¦Ń
à¦°à¦¤ à§°
à¦°à¦¤ à¦¨à¦¦
à¦°à¦¤ à¦ķà¦¥
Ġà¦ħà¦¨ à¦ķ
Ġà¦ħà¦¨ à¦ª
Ġà¦ħà¦¨ à¦ľ
Ġà¦ħà¦¨ à¦ļ
Ġà¦ħà¦¨ à¦¬à¦°à¦²
à¦¾à¥¤ âĢĶâĢĺ
ĠâĢ ¨
Ġà¦ªà¦° à¦ļà¦°
Ġà¦ªà¦° à¦¬à¦¶
à¦¾, âĢĵ
à¦¾, âĢ¦
à¦ĸà¦¨ à¦Ĺ
Ġà¦¸à¦® à¦§
Ġà¦¸à¦® à§°
Ġà¦¸à¦® à¦¬à§Łà¦¸
Ġà¦ĺ à¦ª
Ġà¦ĺ à¦°à¦¨
Ġà¦ĺ à¦°à¦¸
à¦¬à¦¨ à¦®à¦¨
à¦¬à¦¨ à¦ľà¦¨
à¦¬à¦¨ à¦«
à¦¬à¦¨ à¦°à¦®
à¦¬à¦¨ à¦°à¦¸
à¦¬à¦¨ à¦Ĺà¦¤
à¦¬à¦¨ à¦ļà¦¨
à¦¬à¦¨ à¦¶à¦ķ
à¦¬à¦¨ à¦¨à¦¦
à¦¬à¦¨ à¦ĺà¦¨
à¦¬à¦¨ à¦ĸà¦£
à¦¬à¦¨ à¦°à¦¹à¦¸
à¦¬à¦¨ à¦ªà¦ŀ
à¦¼à¦¿ :
Ġà¦®à¦¨ à¦¶à¦¨
Ġà¦®à¦¨ à¦ķà¦¥
à¦®à¦¨ à¦¤
à¦®à¦¨ à¦²
à¦®à¦¨ à¦ľ
à¦®à¦¨ à¦ĸ
à¦®à¦¨ à¦¨à¦¶
à¦ªà¦° à¦°
à¦°à¦£ à¦·
à¦¿à¥¤ âĢĶ
à¦¿à¥¤ ..
à¦Ŀ à¦ĩ
à¦Ŀ à¦°à¦£
à¦Ŀ à¦¬à¦°
à¦Ŀ à¦¬à§Łà¦¸
à¦ŀ à¦Ĺ
à¦ŀ à¦ľà¦¨
à§İ à¦¤
à§İ à¦®
à§İ à¦Ĺ
à§İ à¦Ń
à§İ à¦ķà¦²
à§İ à¦Ľà¦²
à¦ī à¦ľà¦¨
à¦ī à¦ı
à¦ī à¦¨à¦¤
à¦ī à¦²à¦¤
à¦ī à¦ľà¦®
à¦ī à¦®à¦ª
à¦ī à¦ĩà¦ľ
à¦ī à¦ªà¦ķà¦¥
à¦ī à§İà¦ķà¦°
à¦ī à§İà¦ªà¦¤
à¦ľà¦¨ à¦°à¦¤
à¦ľà¦¨ à¦°à¦¸
à¦ľà¦¨ à¦Ĺà¦°
à¦« à¦ĩ
à¦« à¦ľ
à¦« à¦ļ
à¦« à§Łà¦¸
à¦°à¦¬ à¦®
à¦°à¦¬ à¦¹
à¦°à¦¬ à¦ķà¦°
à¦°à¦¬ à¦ľà¦¨à¦ķ
à¦¤à¦° à¦§
à¦¤à¦° à¦ªà¦¥
à¦¤à¦° à¦ľà¦Ĺà§İ
à¦ªà¦¨ à¦°
à¦ªà¦¨ à¦®
à¦ªà¦¨ à¦ļ
à¦ªà¦¨ à¦¶à¦¬
à¦ªà¦¨ à¦ĺà¦°
à¦ı à¦®à¦¤
à¦ı à¦¨à¦¸
à¦ı à¦°à¦ªà¦°à¦ĵ
à¦ı à¦Ĩà¦ĩà§Ł
à¦¬à¦° à¦¦à¦¸
à¦°à¦ķ à¦ĸ
à¦°à¦ķ à¦ªà¦°
à¦°à¦ķ à¦Łà¦Ń
Ġà¦¬à¦²à¦² à¦®
Ġà¦Ĩà¦¸ à¦¶
Ġà¦Ĩà¦¸ à¦°à¦Ł
Ġà¦Ł à¦®à¦ķ
Ġà¦Ł à¦ªà¦¸
Ġà¦Ł à¦®à¦Ł
Ġà¦Ł à¦²à¦®
Ġà¦Ł à¦ªà¦²
âĢĿ ;
âĢĿ âĢ¦
à¦Ĩ à¦ľà¦¨
à¦Ĩ à¦ķà¦°
à¦Ĩ à¦²à¦ķ
à¦Ĩ à¦¹à¦¸
à¦Ĩ à¦¸à¦°
à¦Ĩ à¦°à¦Ł
à¦Ĩ à¦ľà¦²
à¦Ĩ à¦Łà¦¬
à¦Ĩ à¦Łà¦ª
à¦Ĩ à¦Łà¦®
Ġà¦®à¦¤ à¦¤
Ġà¦®à¦¤ à¦ª
Ġà¦¹à¦² à¦¨
Ġà¦¹à¦² à¦¤
à¦ĺ à¦°à¦¬
à¦ĺ à¦ĺ
à¦ĺ à¦°à¦ĩ
à¦ĺ à¦®à¦£
à¦ĺ à¦Ŀà¦°
à¦ĺ à¦ĺà¦¨
à¦ĺ à¦ķà¦£
à¦ĺ à¦Ŀà¦¡
Ġà¦ĩ à¦¹à¦¸
Ġà¦ĩ à¦¸à¦ķ
Ġà¦ľà¦¨ à¦ªà¦°
Ġà¦ľà¦¨ à¦¬à¦²
Ġà¦ľà¦¨ à¦¤à¦°à¦Ļ
Ġà¦ľà¦¨ à¦¦à¦°à¦¦
Ġà¦Ŀ à¦¤
Ġà¦Ŀ à¦¨à¦ķ
Ġà¦Ŀ à¦Ĺà¦¬
Ġà¦Ŀ à¦ªà¦Ŀ
à¦¼à¥¤ )
à¦¬à¦² à¦ĵ
à¦¬à¦² à¦Ŀà¦²
à¦¬à¦² à¦Ŀà¦²à¦ķ
à§ģà¦ģ âĢĵ
à§ģà¦ģ âĢĻ,
à§ģà¦ģ âĢ¦âĢĻ
Ġà¦ħà¦¬ à¦£
Ġà¦ł à¦Ł
Ġà¦ł à¦ķà¦¤
Ġà¦¹à§Ł à¦ĵ
à¦·à¦£ à¦¨
Ġà¦ıà¦¸ à¦¡
Ġà¦ıà¦¸ à¦®à¦¸
Ġà¦ķà¦°à¦² à¦ĩ
Ġà¦ļà¦² à¦°
Ġà¦ļà¦² à¦¨à¦¦
à¦¼, âĢĶ
à¦¼, âĢĻ
à¦¼, âĢĵ
à¦°à¦® à¦Ń
à¦°à¦® à¦ķà¦°
à¦ĥ )
à¦ĥ !âĢĻ
Ġà¦¬à¦¸ à¦¬à¦ĩ
Ġà¦¬à¦¨ à¦°à¦ķ
Ġà¦¬à¦¨ à¦®à¦²
Ġà¦¬à¦¨ à¦ľà¦²
Ġà¦¬à¦¨ à¦«à¦²
Ġà¦¬à¦¨ à¦ķà¦ª
Ġà¦¢ à¦¨
Ġà¦¢ à¦²à¦¤
Ġà¦¢ à¦īà§Ł
à§ĭà¦ģ âĢĻ
Ġà¦Ĩà¦ľ à¦²
Ġà¦Ĩà¦ľ à¦®à¦ķ
Ġà¦Ĩà¦¬ à¦¸
Ġà¦Ĩà¦¬ à¦§
Ġà¦Ĩà¦Ĺ à¦°
Ġà¦Ĩà¦Ĺ à¦ļ
à¦ķà¦² à¦ĵ
à¦ķà¦² à¦ķà¦²
à¦ķà¦² à¦¤à¦²
Ġà¦ªà¦¥ à¦®
Ġà¦ªà¦¥ à¦ªà¦°
Ġà¦ªà¦¥ à¦¸à¦Ļ
Ġà¦ªà¦¥ à¦®à§Ł
Ġà¦¨à¦¤ à¦®à¦¸
Ġà¦ħà¦¸ à¦«à¦²à¦¤
à¦¤à¦¨ à¦ĸ
à¦¤à¦¨ à¦¹
à¦¤à¦¨ à¦ŀ
à§ĩà¦ģ -
à§ĩà¦ģ à¥¤âĢĻ
à¦ķà¦Ł à¦¨
à¦ķà¦Ł à¦¤
à¦ķà¦Ł à¦°à¦¦
à¦ķà¦Ł à¦ľà¦¨à¦ķ
à¦ķà¦° à¦ľà¦¨
à¦ħ à¦ĸ
à¦ħ à¦ķà¦°
à¦ħ à¦°à¦¯
à¦ħ à¦¹à¦²
à¦ħ à¦¸à¦ķ
à¦ħ à¦ªà¦¸
à¦ħ à¦Ńà¦¯
à¦ħ à¦ķà¦®
à¦¸à¦¬ à¦¯
à§ĭà¥¤ à¥¤
à¦°à¦¥ à¦ĵ
Ġà¦ħà¦® à¦¯
Ġà¦ħà¦® à¦°à¦¨
à¦²à¦ķ à¦®
à¦²à¦ķ à¦ĺà¦¡
à¦°à¦¨ à¦ĩ
à¦°à¦¨ à¦ľ
Ġà¦Ĩà¦¨ à¦¥
Ġà¦Ĩà¦¨ à¦«
Ġà¦¤à¦ĸà¦¨ à¦¤
à¦¾- âĢĶ
à¦°à¦¸ à¦°à¦¤
à¦°à¦¸ à¦ŀ
à¦°à¦¸ à¦¨à¦ķ
à¦°à¦¸ à¦¤à¦ĵ
à¦¤à¦¬ à¦ľ
à¦¤à¦¬ à¦¶
à¦¤à¦¬ à¦¹
à¦¤à¦¬ à§İ
à¦¤à¦¬ à¦§à¦°
à¦¤à¦¬ à¦īà¦ķ
à¦¤à¦¬ à¦ķà¦Ĺ
Ġà¦ħà¦° à¦ļ
Ġà¦ħà¦° à¦ľà¦¨
Ġà¦ıà¦² à¦¬
Ġà¦ıà¦² à¦¦
Ġà¦ıà¦² à¦ĩ
Ġà¦Ĩà¦¶ à¦¨
Ġà¦Ĩà¦¶ à¦ķà¦¥
Ġà¦īà¦¦ à¦°à¦¸
Ġà¦īà¦¦ à§Łà¦¨
Ġà¦¹à¦¤ à¦ķ
à¦ķà¦¤ à¦ĵ
à¦ķà¦¤ à¦Ń
Ġà¦¶à¦¬ à¦ľ
à¦°à¦¥à¦® à¦ĩ
à¦°à¦¥à¦® à¦¤à¦®
Ġà¦ħà¦¦ à¦°à¦ķ
à¦¦à¦¨ à¦¸
à¦¦à¦¨ à¦¸à¦®
à¦¦à¦¨ à¦Ĺà¦°
à¦¦à¦¨ à¦®à§Ł
à¦¦à¦¨ à¦¸à¦¹
Ġà¦¬à¦° à¦ľ
Ġà¦¬à¦° à¦¦à¦¨
Ġà¦¬à¦° à¦¦à¦²
Ġà¦¬à¦° à¦ĩà§Ł
Ġà¦¬à¦° à¦Ĺà¦¦
Ġà¦ķà¦°à¦Ľ à¦¸
Ġà¦ĺà¦° à¦ĵà¦¯
Ġà¦ĺà¦° à¦ĺà¦°
à¦¿à¦Ĥ ?âĢĻ
à¦¿à¦Ĥ âĢĻ-
à¦¿à¦Ĥ âĢĿà¥¤
à§ĩâĢĶ (
à¦¯à¦¬ à¦ķ
à¦¯à¦¬ à¦¶
à¦¯à¦¬ à¦°à¦£
à¦¯à¦¬ à¦ļà¦¨
à¦¦à¦° à¦°
à¦¦à¦° à¦ĸ
à¦¦à¦° à¦ĺ
à¦Ĺà¦² à¦°
à¦Ĺà¦² à¦¤
à¦Ĺà¦² à¦¶
à¦Ĺà¦² à¦ĺà¦Ł
à¦Ĺà¦² à¦®à¦¹à¦²
Ġà¦ľà¦² à¦²
Ġà¦ľà¦² à¦«
Ġà¦ľà¦² à¦¹à¦¸
Ġà¦ľà¦² à¦Łà¦²
Ġà¦ľà¦² à¦®à¦¹
Ġà¦°à¦ķ à¦¸
à¦Ĩà¦® à¦¦
Ġà¦¸à¦° à¦ª
Ġà¦¸à¦° à¦²à¦¬
Ġà¦¸à¦° à¦¹à¦ª
Ġà¦®à¦¹ à¦²à¦¤
Ġà¦®à¦¹ à¦¬à¦¬à¦¤
Ġà¦ħà¦¤ à¦²à¦¤
Ġà¦¯à¦ĸà¦¨ à¦ķ
à¦Ĺà¦¤ à¦ª
à¦²à¦¤ à¦ª
à¦²à¦¤ à¦¶
à¦°à¦¹ à¦¯
à¦°à¦¹ à¦¯à¦¨
à¦§à¦ķ à¦ķ
à¦§à¦ķ à¦£
à¦§à¦ķ à§°
à¦®à¦¤ à¦ķ
à¦®à¦¤ à¦ª
à¦¹à¦¸ à¦¹
Ġà¦ķà¦¬ à¦¯
Ġà¦īà¦ª à¦§
Ġà¦īà¦ª à¦®à¦¨
Ġà¦īà¦ª à¦²à¦Ń
à¦Ľà¦¨ à¦Ń
à¦°à¦ľ à¦¸
à¦°à¦ľ à¦ľ
à¦°à¦ľ à¦Ĺ
à¦°à¦ľ à§Ł
à¦°à¦ľ à¦Ļ
à¦°à¦ľ à¦¬à¦°à¦¦à¦¸
à¦¨à¦¬ à¦§
à¦¨à¦¬ à¦¸à¦¨
à¦¨à¦¬ à¦ľà¦®
à¦¨à¦¬ à¦Ĺà¦£
à¦¨à¦¬ à¦¸à¦¦
à¦¨à¦¬ à¦¦à¦°à¦¦
à¦ĸà¦² à¦¹
à¦ĸà¦² à¦ĵ
à¦¯à¦ķ à¦¬à¦¨
Ġà¦ķà¦² à¦¹à¦ķ
à¦²à¦¬ à¦¸
à¦²à¦¨ à¦²
à¦§à¦¨ à¦§
à¦§à¦¨ à¦Ń
à¦§à¦¨ à¦ŀ
à¦ļà¦¨ à¦°
à¦ļà¦¨ à¦¸
à¦ļà¦¨ à¦ľ
à¦ļà¦¨ à¦¶
à¦®à¦ķ à¦®
à¦ĩà¦² à¦Łà¦°
à¦¯à¦¤ à¦ļ
à¦°à¦¦ à¦¶
à¦°à¦¦ à§Łà¦¸
Ġà¦ħà¦ª à¦ł
Ġà¦ħà¦ª à¦¶à¦¬
Ġà¦ħà¦ª à¦¯à¦¶
à¦®à¦² à¦¯
à¦®à¦² à¦®
à¦®à¦² à¦¦
à¦¶à¦¨ à¦¯
à¦¶à¦¨ à¦¸à¦®
Ġà¦ıà¦¤ à¦²
Ġà¦ıà¦¤ à¦ĵ
Ġà¦ıà¦¤ à§İ
Ġà¦¸à¦¹ à¦ľà¦¨
Ġà¦¸à¦¹ à¦¨à¦¯
Ġà¦¸à¦¹ à¦ħà¦¬à¦¸
âĢ¦ "
à¦ªà¦¤ à¦¤
à¦ļà¦² à¦¸
Ġà¦ħà¦§ à¦®à¦°
à¦ķà¦¬ à¦¯
à¦ķà¦¬ à¦§
à¦ķà¦¬ à¦¸à¦¤
Ġà¦īà¦¤ à¦¸
à¦°à¦¯ à¦¯
à¦ªà¦¦ à¦®
à¦ªà¦¦ à¦¹
à¦ªà¦¦ à¦£
à¦ªà¦¦ à¦¦à¦²
à¦¸à¦¨ à¦ĩ
à¦¸à¦¨ à¦ķà¦°
Ġà¦ķà¦¤ à¦¶à¦¤
Ġà¦ĵà¦ªà¦° à¦ķ
Ġà¦ĵà¦ªà¦° à¦¦
à¦¨à¦¨ à¦¸
à¦ĩà¦¨ à¦ļ
à¦ĩà¦¨ à¦Ń
à¦ĩà¦¨ à¦ĵà¦¯
à¦ĩà¦¨ à¦¸à¦®
à¦¾âĢĶ âĢĶ
Ġà¦ħà¦ļ à¦®à¦ķ
à¦ıà¦ĩ à¦¦
Ġà¦ĺà¦Ł à¦ķ
à¦¯à¦¨ à¦¦
à¦¼à§ĭ âĢĵ
à¦¼à§ĭ âĢ¦
à¦¼à§ĭ !âĢĿ
à¦¼à§ĭ ?âĢĿ
à¦Łà¦ķ à¦¨
à¦Łà¦ķ à¦¹
Ġà¦ĩà¦¤ à¦°à¦¤
à¦¿? âĢĵ
Ġà¦¨à§Ł à¦ĩ
Ġà¦¨à§Ł à¦¨à¦ľ
Ġà¦°à¦Ļ à¦°
Ġà¦°à¦Ļ à¦®à¦¹à¦²
à¦Ńà¦¬ à¦Ł
à¦¦à§Ł à¦®
à¦¦à§Ł à¦¹
à¦¦à§Ł à¦®à§Ł
à¦Ĺà¦¨ à¦ķ
à¦Ĺà¦¨ à¦¦
à¦Ĺà¦¨ à¦ĩ
à¦Ĺà¦¨ à¦Ĺ
à¦¤à¦² à¦¹
Ġà¦ıà¦Ĺ à¦¬
Ġà¦ıà¦Ĺ à¦ļ
à¦®à¦° à¦§
Ġà¦¬à¦ĩ à¦ĺà¦°à¦Ł
à¦°à¦ĵ à¦¤
à¦°à¦ĵ à¦¶à¦¨
à¦¨à¦ķ à§Ł
Ġà¦ªà¦¦ à¦ĩ
Ġà¦ªà¦¦ à¦Ĺ
Ġà¦ªà¦¦ à¦Ń
Ġà¦ªà¦¦ à¦ĺ
Ġà¦ĵà¦ĩ à¦°
Ġà¦ĵà¦ĩ à¦¤
à¦¬à¦¦ à¦®à¦¨à¦ķ
Ġà¦¶à¦° à¦ª
à¦¿à¦ģ à¥¤
à¦¶à¦¬ à¦ļà¦°à¦£
à§İà¦ķ à¦®à¦²
à¦¤à¦ķ à¦Ĺ
à¦¤à¦ķ à¦Ń
à¦¿âĢĶ ?
âĢĮ ,
âĢĮ âĢĶ
à¦°à¦ª à¦ľ
à¦°à¦ª à¦¡
à§ģ, -
à§ģ, âĢĻ
à§ģ, âĢĿâĢĶ
à§ģà¦ĥ âĢĵ
à¥¤âĢĿ âĢĶ
Ġà¦ħà¦ªà¦° à¦ľà¦¨à¦ķ
à¦¦à¦² à¦Ĺà¦¤
à¦¯à¦® à¦Ł
à¦¯à¦® à¦°à¦¹
à§įâĢĮ à§į
à§įâĢĮ âĢĻà¥¤
à¦¤à¦¤ à¦ĩ
à¦ıà¦ķ à¦Ń
à¦ıà¦ķ à¦ĺà¦£
à¦¼à§ĩà¥¤ âĢ¦
Ġà¦ıà¦° à¦°
à§ĩ! !
à¦¬à¦¸ à¦¦
à¦¬à¦¸ à¦Ń
à¦¬à¦¸ à¦®à¦¯
à¦¤à¦® à¦ª
à¦¤à¦® à¦ŀ
à¦¤à¦® à§Łà¦¤
Ġà¦«à¦² à¦«
Ġà¦«à¦² à¦ĵà¦¯
Ġà¦«à¦² à¦¨à¦ĵ
Ġà¦«à¦² à¦®à§Ł
à¦ļà¦ķ à¦®
à¦ļà¦ķ à¦¥
Ġà¦ħà¦² à¦ľ
Ġà¦ħà¦² à¦¸à¦Ĺ
à¦°à¦Ń à¦¨
Ġà¦Ĳ à¦°à¦ķà¦®
Ġà¦Ĳ à¦®à§Ŀ
à¦ªà¦ķ à¦®
à¦ªà¦ķ à¦ª
à¦ªà¦ķ à¦£
Ġà¦ıà¦ķà¦¦ à¦«
Ġà¦ıà¦ķà¦¦ à¦²à¦ķ
à¥¤âĢĻ [
à¦¶à¦ķ à¦£
à¦¶à¦ķ à¦¥
à¦¨à¦Ł à¦ª
à§Łà¦¨ à¦ĩ
à§Łà¦¨ à¦¹
Ġà¦ĩà¦¨ à¦ķà¦°
à¦°à¦ķà¦® à¦Ł
à¦°à¦ķà¦® à¦ĵ
à¦¬à¦ķ à¦Ĺ
à¦¬à¦ķ à¦¹
à§° à¦ĵ
à§° à¦¸à¦®
à§° à¦Ĺà¦°
à§° à¦®à¦¶
à§° à¦¬à§°
à§ĩ; -
à¦ľà¦² à¦Ńà¦°
à¦ľà¦² à¦®à¦Ĺ
Ġà¦ħà¦¬à¦¸ à¦°à¦ķ
Ġà¦ħà¦¬à¦¸ à¦°à¦¹
à¦ĩà¦ķ à¦ª
à¦ħà¦¨ à¦¸
à¦ħà¦¨ à¦Ĺ
Ġà¦Ĩà¦¸à¦² à¦ĩ
à§ģà¥¤ âĢĶâĢĺ
à¦§à¦¤ à¦Ń
à¦§à¦¤ à§İà¦¸à¦®
Ġà¦Ĩà¦§ à¦Ń
Ġà¦Ĩà¦§ à¦«à¦°
à¦¹à¦¨ à¦°
à¦¹à¦¨ à¦Ĺà¦°
à¦¹à¦¨ à¦Ĺà¦ŀ
Ġà¦¸à¦®à§Ł à¦ª
Ġà¦Ńà¦¬ à§İ
Ġà¦°à¦¬ à¦¸à¦¨
à¦¸à¦« à¦°à¦®
à¦®à§Ł à¦®
à¦®à§Ł à¦¹
à¦¨à¦² à¦ĸ
Ġà¦¶à¦¤ à¦¸
Ġà¦¶à¦¤ à¦Ł
Ġà¦¶à¦¤ à¦ĸ
Ġà¦¶à¦¤ à¦§
Ġà¦¶à¦¤ à¦ľà¦¨
Ġà¦¬à¦¦à¦² à¦Ł
Ġà¦Ĩà¦¡ à¦²à¦«
à¦ķà¦¨ à¦ª
à¦ķà¦¨ à¦¶
à¦ķà¦¨ à¦ļà¦¨
à¦¯à¦¸ à¦°à¦ķ
à§ĩà¥¤âĢĿ âĢĶ
Ġà¦Ī à¦¨
Ġà¦Ĩà¦¦ à¦®à¦¶
à¦Ĺà¦ľ à¦ķ
Ġà¦īà¦ªà¦° à¦ķ
Ġà¦īà¦ªà¦° à¦®
Ġà¦īà¦ªà¦° à¦¸
Ġà¦īà¦ªà¦° à¦Ł
Ġà¦īà¦ªà¦° à¦ĵ
Ġà¦īà¦ªà¦° à¦ĵà¦¯
à¦īà¦¨ à¦¸
Ġà¦Ĩà¦Ļ à¦°
Ġà¦ħà¦¬à¦¶ à¦ĩ
à§ĩâĢĵ ?
à¦¥à¦° à¦°
à¦¥à¦° à¦ĺ
à¦¥à¦° à¦Ĺà¦¤
à¦¥à¦° à¦ĸà¦ļ
à¦¨à¦¸ à¦¡
à¦¨à¦¸ à¦ļ
à¦¨à¦¸ à¦ķà¦¨
à¦¨à¦¸ à¦ªà¦Łà¦ķ
à§ĭ? "
à§ĭ? âĢ¦
à¦¨à¦Ĺ à¦łà¦¨
Ġà¦Ĩà¦¹ à¦¬à¦¨
Ġà¦¨à¦¬ à¦°à¦¤
Ġà¦¨à¦¬ à¦Ĺà¦¡
Ġà¦ĸà¦¬à¦° à¦ªà¦¤
à¦ªà¦¸ à¦¦
à¦ªà¦¸ à¦ľ
Ġà¦°à¦ķà¦® à¦ĵ
à¦Łà¦¬ à¦ī
à¦¬à¦¶ à¦°à¦£
Ġà¦Ĩà¦ª à¦£
Ġà¦¬à§ľ à¦ķà¦°
à¦°à¦Ĺ à¦ķ
à¦°à¦Ĺ à¦¡
à¦°à¦Ĺ à¦Ń
à¦°à¦Ĺ à¦£à¦ķ
Ġà¦ĺà¦¨ à¦ľà¦Ļ
à¦²à¦Ľ à¦Ł
à¦ĩà¦Ł à¦¨
à¦ĩà¦Ł à¦®
à¦ĩà¦Ł à¦ľ
à¦ĩà¦Ł à¦ĵ
à¦ĩà¦Ł à¦«
à¦¥à¦¨ à¦¯
à¦¥à¦¨ à¦ĩ
Ġà¦īà§İà¦¸ à¦ķ
Ġà¦īà§İà¦¸ à¦ĩ
Ġà¦īà§İà¦¸ à¦Ĺ
Ġà¦īà§İà¦¸ à¦¬à¦ª
Ġà¦¸à¦¹à¦ľ à¦¸
Ġà¦¸à¦¹à¦ľ à¦ª
Ġà¦¬à§Ł à¦¸à¦ķ
Ġà¦ĭ à§Ł
à¦°à¦®à¦£ à¦Ĺà¦²
à¦°à¦®à¦£ à¦ªà¦¤
à¦·à¦® à¦®
à¦¾âĢĻ )
à¦¾âĢĻ à¥¤âĢĿ
Ġà¦ªà¦² à¦®
Ġà¦ªà¦² à¦Ļ
à¦¾âĢĵ ?
à¦Ĺà¦¬ à§İ
à¦§à¦¬ à¦¹
à¦¦à¦® à¦§
à¦¦à¦® à¦ł
à¦¦à¦® à¦¦à¦®
Ġà¦ķà¦¨ à¦ªà¦Ł
à¦¹à¦¤ à¦ĩ
à§ĭ- à¥¤
à¦°à¦¹à¦£ à¦®
à¦°à¦¹à¦£ à¦ĩ
à¦°à¦¹à¦£ à¦ĵ
à¦¼à¦¾à¥¤ à¥¤
à¦ķà¦¡ à¦ĩà¦¨
Ġà¦Ĩà¦Ń à¦¨
à¦ľà¦¬ à¦ľ
Ġà¦¦à¦¶ à¦¹
Ġà¦¦à¦¶ à¦ķà¦°
Ġà¦¦à¦¶ à¦ľà¦¨à¦ķ
à¦²à¦¸ à¦¦
à¦²à¦¸ à¦ĵ
Ġà¦ķà¦²à¦ķ à¦¤
Ġà¦ķà¦²à¦ķ à¦¬à¦ľ
à¦¿! !
à¦¿! âĢĶ
à¦²à¦® à¦¸à¦²
à¦²à¦Ĺ à¦Ł
à¦²à¦Ĺ à¦ª
à¦²à¦Ĺ à¦Ļ
à§Ŀ à¦¬
à§Ŀ à¦¤à¦®
Ġà¦¸à¦Ń à§Ł
Ġà¦īà§İà¦¸à¦¬ à¦ļ
à¦¶à¦ª à¦ŀ
à¦®à¦°à¦£ à¦ĩ
Ġà¦Ĺà¦£ à¦¶
Ġà¦Ĺà¦£ à¦Ń
Ġà¦Ĺà¦£ à¦¶à¦ķ
à¦®à¦Ĺ à¦§
à¦łà¦ķ à¦ľ
à¦łà¦ķ à§Łà¦²
à¦°à§Ł à¦¸
à¦®à¦¹ à¦®
à¦Ĩà¦² à¦ª
à¦¹à¦°à¦£ à¦ķ
Ġà¦Ĩà¦¦à¦° à¦Ł
Ġà¦Ĩà¦¦à¦° à¦¹
Ġà¦Ĩà¦¦à¦° à¦ĵ
Ġà¦ıà¦Ń à¦²
Ġà¦ªà¦¶ à¦¤
à¦ķà¦¥ à¦®
à¦ķà¦¥ à¦ŀ
à¦¹à¦¯ à¦¬à¦¨
à§ĩà¥¤âĢĻ âĢĻ
à¦¾à¥¤âĢĻ âĢĶ
à¦¡à¦² à¦°
Ġà¦ªà¦°à¦® à¦§à¦°
à¦¯à¦ª à¦¶
à¦¼à¦Ĥ âĢĵ
Ġà¦¬à¦ī à¦Ĺ
à§ĩâĢ¦ âĢĿâĢĶ
à¦®à¦¶ à¦°
à¦®à¦¶ à¦¤
à¦®à¦¶ à¦°à¦£à¦ķ
à¦ķà¦¶ à¦¨à¦ĵ
à¤ «
à¤ ĸ
Ġà¦¶à¦¹ à¦°à¦®à¦¯
à¦īà¦² à¦ĩ
à¦ķà¦°à¦£ à¦ķ
à¦¦à¦¸ à¦Ń
Ġà¦īà¦· à¦¸
Ġà¦®à¦² à¦¦
Ġà¦¦à¦® à¦Ľ
à§ĩ?âĢĿ ,
à¦°à¦« à¦Ł
à¦°à¦« à¦¤à¦ĩ
Ġà¦¸à¦°à¦² à¦®à¦¨
à¦°à¦¬à¦² à¦ª
à¦ĩà¦Ń à¦Ł
à¦°à¦ĸ à¦ļ
à¦°à¦ĸ à¦°à¦¤
à¦¥à¦² à¦ĩ
à¦¥à¦² à¦Ń
Ġà¦ħà¦Ł à¦²à¦ķ
Ġà¦°à¦¸ à¦¶
à¦·à§Ł à¦¬
à¦·à§Ł à¦ª
à¦·à§Ł à¦Ĺà¦¤
à¦ĩà¦¡ à¦¸
à¦ĩà¦¡ à¦ĩ
à¦ĩà¦¡ à¦Ĺ
à¦ĩà¦¡ à¦¸à¦¹
à¦¸à¦¹ à¦ª
à¦ķà§ľ à¦Ĺ
Ġà¦ľà§Ł à¦¬
Ġà¦ľà§Ł à¦Ł
Ġà¦ľà§Ł à¦ĩ
Ġà¦ľà§Ł à¦ĵ
Ġà¦ľà§Ł à¦ªà¦¤
Ġà§¨ à§¦à§¦à§¦
à¦¡à¦¬ à¦®
à¦¡à¦¬ à§İ
à¦¦à¦ķ à¦®à¦£
à¦¤à¦¹ à¦¬
à¦¿à¥¤âĢĻ âĢĶ
Ġt re
Ġt ra
Ġt ill
Ġt ree
Ġt empt
à¦ĺà¦¨ à¦ĺà¦¨
Ġà¦ķà¦²à¦® à¦ĸ
,âĢĿ âĢĵ
âĢĶâĢĺ âĢĺ
à¦¼; âĢĶ
à¦¯à§İ à¦¦
à¦¯à§İ à¦ĵ
à¦¯à§İ à¦¸à¦¬
à¦¨à¦Ľ à¦¡
à¦¨à¦ª à¦Ļ
à¦¿âĢĻ !âĢĿ
Ġà¦¸à¦ľ à¦²à¦¤
à¦ĸà¦ķ à¦®
à¦²à¦Ń à¦¸
à¦²à¦Ń à¦ª
à¦®à¦ļ à¦ŀ
à¦ĩà¦¸ à¦Ĺ
à¦ĩà¦¸ à¦°à¦¯
Ġà¦Ĭ à¦¨à¦®
Ġà¦¹à¦ĩ à¦¹à¦Ł
Ġà¦Ĩà¦ĩà¦¨ à¦®à¦¤
Ġà¦Ĩà¦ĩà¦¨ à¦Ńà¦Ļ
à¦ľà¦¨à¦ķ à¦ĵ
Ġà¦Ŀà¦¨ à§İà¦ķ
à§« à§©
à§« à§ª
an j
an ge
an tern
à¦īà¦Ł à¦¦
Ġà¦¤à¦¨ à¦ŀ
à¦¾à¦ĥ -
à¦¾à¦ĥ /
à¦¾à¦ĥ âĢĻ
à¦¾âĢ¦ âĢĻà¥¤
à¦¾âĢ¦ âĢĿà¥¤
Ġà¦ľà§ľ à¦¬à¦¸
Ġà¦ľà§ľ à¦¸à§ľ
in a
in es
in ed
à¦¶à¦¤ à¦¶
à¦ľà¦Ĺ à¦¦
Ġà¦¶à¦ªà¦¥ à¦Ł
Ġà¦ªà¦²à¦ķ à¦Ĺ
à¦²à¦ľ à¦«
à¦²à¦ľ à¦ĺ
à¦²à§Ł à¦¬
Ġà¦®à¦¨à¦¨ à¦®
à¦¼âĢĵ âĢĵ
à¦ķà¦£ à¦¹
Ġà¦Ĩà§Ł à¦ķà¦°
à¦ļà§ľ à¦ĵ
à¦Ī à§Ł
à¦Ĺà¦°à¦£ à¦®
à¦¿âĢ¦ !
à¦¿âĢ¦ ?
à¦¿âĢ¦ à¥¤âĢĻ
à¦Łà¦® à¦¹à¦²
Ġà¦ĩà¦¸ à¦ĸ
à¦¯à¦Ł à¦¨à¦ķ
Ġà¦ļà¦® à¦ķà¦Ł
à¦¼! )
Ġà¦ļà¦°à¦® à¦¤à¦®
Ġà¦Ńà¦ķ à§İ
à¦¯à¦ķà¦° à¦ĵ
à¦¯à¦¤à¦® à¦ĵ
on a
on et
Ġà¦ķà¦ļ à¦¸
Ġà¦ķà¦ļ à¦ĵ
Ġà¦ĸà¦°à¦ļ à¦ªà¦¤
à¦īà¦ľ à¦«
à¦¸à¦®à§Ł à¦¸
à¦¿?âĢĿ âĢĵ
à¦ħà¦¸ à¦¬à¦°
à¦ħà¦¸ à¦°à¦ķ
Ġà¦Ńà¦Ĺ à¦ķ
Ġà¦ıà¦¡ à¦ĵà§Ł
en o
à¦¯à¦Ĺ à¦ļ
Ġà¦°à¦¥ à¦¸
al ing
à¦Łà¦¸ à¦¦
at or
er ies
Ġà¦ķà¦¬à¦° à¦ķ
Ġà¦ķà¦¬à¦° à¦Ĺ
à¦¯à§Ł à¦¹
à§¬ à§¨
à§¬ à§ª
Ġà¦Ĩà¦Ł à¦Ĺ
à§® à§¨
âĢ¦âĢĿ ,
âĢĻ- âĢĺ
Ġthe e
Ġà¦Ŀà§ľ à¦Ŀà¦ŀ
à¦Ńà§Ł à¦Ļ
Ġà¦ĩà¦Ł à¦ĵ
it ra
it ies
it ory
it Ã©
it tle
Ġà¦Ĩà¦ĩ à¦¨à¦¬
Ġà¦Ĩà¦ĩ à¦¡à¦²
Ġà¦Ĩà¦ĩ à¦ıà¦¸
à¦Łà¦Ĺ à¦ŀ
is ter
is hed
is ode
à¦īà¦ĩ à¦ļ
Ġà¦ħà¦¬à¦¨ à¦¬
or al
Ġà¦¨à§ľ à¦ļà§ľ
ar at
ar ly
Ġà¦®à¦Ĺ à¦Ł
Ġà¦®à¦Ĺ à¦§à¦¦
à¦ĵà¦ĩ à¦ĸ
à¦¸à¦°à¦£ à¦ķ
à¦¤à¦°à¦£ à¦¶
Ġà¦ħà¦¬à¦¦ à¦®à¦¨
à¦Ĳ à¦¤à¦°
Ġà¦¬à¦ªà¦¨ à¦ķ
Ġw id
à¦ħà¦² à¦¸à¦¤
Ġà§© à§ªà§¦
Ġà¦Ĺà¦ľ à¦Ń
Ġà¦Ńà¦°à¦¤ à¦¸
Ġà¦Ńà¦°à¦¤ à¦¶
Ġà¦Ńà¦°à¦¤ à¦Ń
Ġà¦Ńà¦°à¦¤ à¦·à¦Ń
à¦¿. ,
à¦¿. à¥¤
à¦ħà¦® à¦Ļ
Ġa ct
Ġa ge
Ġa way
Ġà¦Ńà¦¬à¦¨ à¦¦
à¦·à¦¬ à§İ
à¦ħà¦¦ à¦®à¦¨
à¦¯à¦°à¦ķà¦® à¦ĵ
Ġs ing
Ġs us
Ġs ay
Ġs up
Ġs ome
Ġs ign
Ġs ix
Ġs ym
Ġs aid
Ġs ense
Ġs uff
à§ĭâĢĻ ?
à§ĭâĢĻ âĢĵ
Ġà¦Ĩà¦¬à¦¹ à¦¬
Ġà¦ļà§ľ à¦²
Ġà¦ļà§ľ à¦ķà¦Ĺ
Ġc o
Ġc y
Ġc ar
Ġc le
Ġc ent
Ġc ap
Ġc row
Ġc ry
Ġc ome
Ġc ross
Ġc aus
Ġc ommun
à¦ĭ à¦ķ
à¦ĭ à§Ł
à¦ķà¦¶à¦¨ à¦Ł
à§Īà¦ĥ !
à§Īà¦ĥ âĢĶ
Ġà¦ľà¦Ĺà§İ à¦Ĺ
es p
à§Ģà¦Ĥ ?
Ġà¦Ĺà¦łà¦¨ à¦¶
Ġà¦ķà¦ĩ à¦ĵ
Ġà¦ķà¦ĩ à¦²à¦ķ
Ġb o
Ġb izarre
Ġà¦¨à¦¹ à¦·
Ġà¦¨à¦¹ à¦¬à¦¤
ou d
ou l
Ġà¦ĭà¦£ à¦¸
Ġà¦ĭà¦£ à¦¶
à¦ļà¦¸ à¦ľ
Ġà¦¤à¦¦ à¦¬à¦¸
Ġà¦¤à¦¦ à¦¬à¦§
Ġm et
Ġm ad
Ġm ir
Ġm od
Ġm em
Ġm ess
Ġm ood
Ġm uch
Ġm ount
Ġm ake
Ġà¦®à§İà¦¸ à¦®
Ġà¦ľà¦¨à¦¸ à¦®à¦ķ
and y
Ġà¦®à¦°à¦£ à¦¹
Ġà¦®à¦Ĺà¦ľ à¦§
à¦ħà¦Ń à¦¦
à¦«à¦²à¦¨ à¦ĩ
Ġà¦®à§Ł à¦®à¦¨à¦¸
Ġà¦ĩà¦® à¦®à¦°
... à¥¤âĢĿ
Ġf er
Ġf ew
Ġf ound
à¦£à¦Ĺ à¦¹
Ġo ld
Ġo pen
il osophy
il sa
à¦ħà¦ª à¦¹à¦°à¦£
à§ĢâĢĻ !
à§ĭâĢ¦ .
à§ĭâĢ¦ ?âĢĻ
à§ĭâĢ¦ ?âĢĿ
à¦°à¦¬à¦£ à¦¯
ĠO f
Ġn or
Ġn ames
Ġn iy
Ġp l
Ġp rom
Ġp ap
Ġp ass
Ġp oss
Ġp ict
Ġp ersonal
Ġp ower
Ġà¦īà¦Ĺ à§ľ
om s
ĠS ha
ĠS ag
ĠS ri
ĠS ci
ĠS pe
ĠS te
ĠS OR
as h
as k
as es
as se
as ure
Ġà§ª à§©
Ġà§ª à§ª
Ġà§ª à§¬
Ġà§ª à§¯
Ġà¦ªà¦°à¦¤ à¦¨
ĠI X
Ġà¦¦à¦®à¦¨ à¦¨
Ġà¦¦à¦®à¦¨ à¦¬
Ġà¦¦à¦®à¦¨ à¦®
Ġà¦¦à¦®à¦¨ à¦¶
Ġà¤ ¨
Ġà¤ ķ
Ġà¤ ļ
Ġà¤ Ń
Ġd in
Ġd re
Ġd es
Ġd ur
Ġd et
Ġd est
Ġd esc
Ġd augh
Ġà¦ķà¦¦à¦® à¦Ľ
Ġh op
Ġh ym
à§ĭ!âĢĿ âĢĶ
à¦Ŀà¦¨ à¦Ŀà¦¨
ĠA M
ĠA ll
ĠA ss
ĠA VIN
Ġà¦Ĺà¦Ĺà¦¨ à¦®à¦£
ĠP k
ĠP o
ĠP ar
ĠP IN
ĠP sy
Ġà§§à§¦ à§¬
à¦ļà¦ľà¦¨ à¦ĵ
à¦ĸà¦¬à¦° à¦Ł
à¦¬à¦ªà¦¨ à¦¬
à¦¬à¦ªà¦¨ à¦ª
Ġà¦°à¦£ à¦¤à¦°
Ġà¦ĩà¦ī à¦ıà¦¸
Ġà§§à§® à§¯à§¯
Ġà§§à§® à§¨à§¦
Ġà§§à§® à§Ńà§¬
à§ĩâĢĿ !
Ġà¦ľà¦²à¦ķ à¦·
Ġ[ *
Ġin ter
âĢ¦à¥¤ âĢĺ
Ġà§§à§¯à§« à§«
Ġà§§à§¯à§« à§¬
Ġà¦²à¦Ĺ à¦ĩà¦¨
Ġà§§à§¨ à§¯à§¯
ĠC O
ĠC l
ĠC all
ĠC op
ĠC ass
ĠC hat
ĠC alc
el o
el y
ent ion
ol ve
à¦¯à¦ľà¦¨ à¦ĵ
ĠM a
ĠM ah
ĠM odern
ĠM ontu
ĠĠĠĠ ĠĠ
ut ion
ut um
Ġl ies
Ġl ink
Ġl antern
Ġà§¬ à§¨
Ġà§¬ à§§
Ġà§¬ à§«
Ġà§¬ à§¯
Ġà§Ń à§ª
Ġà§Ń à§Ń
à¦Ĺà¦ł à¦¨à¦¦
à§§à§¦ à§Ń
Ġe ach
Ġe mp
ĠT e
ĠT hy
ĠT ype
à¦¨à¦¶à¦¨ à¦Ł
us s
ur d
ot e
Ġà¦ķà¦²à¦ķà¦² à¦§
am s
Ġà§§à§¯à§ª à§¯
ĠR oy
Ġth ou
Ġth ir
Ġth ine
ĠD ep
ĠD ata
ĠD ivide
ĠD harma
à¦®à¦¸à¦® à§°
ct u
à¦¾!âĢĻ âĢĿ
Ġà§§à§© à§ªà§§
Ġà§§à§© à§©à§¯
Ġà§§à§© à§ªà§¬
Ġà¦¨à¦Ń à¦¶
à¦®à¦®à¦¤ à¦Ĺ
Ġà§¨à§¦ à§¨à§¨
Ġà§¨à§¦ à§¨à§¦
ad er
ad har
ad hak
ad hy
Ġto ward
à¦īà¦ª à¦²à¦ķ
Ġà§® à§§
Ġà§® à§¯
ch à¦²
id s
id er
id dle
à¤¾ à¤ģ
à¦ĩà¦ĵ à¦Ń
ĠN O
à§ģâĢ¦ à¥¤âĢĿ
Ġg r
Ġg ent
Ġg ir
Ġg ave
Ġg iv
Ġg lit
Ġà¦¨à¦ľ à¦°à¦ķ
à¦Ńà§İà¦¸ à¦Ń
ir on
à¦¯à¦§ à¦°à¦¨
Ġà¦Ĺà¦²à¦¦ à¦ĺà¦¨
ĠH is
ĠH ai
ĠH ilsa
ÂŃÂŃ ÂŃ
ĠL a
ĠL ike
ĠL ove
Ġà¦°à¦ľà¦¤ à¦¶
Ġà¦°à¦ľà¦¤ à¦ĵ
ra v
à¦ħà¦¹ à¦¹
à¦¶à¦§ à¦°à¦ķ
Ġà¦īà¦ĩ à¦Ļ
Ġà¦īà¦ĩ à¦¢
Ġre g
Ġre l
Ġre st
Ġà¦Ľà§Ł à¦¤à¦²
Ġfor mal
Ġà¦¬à¦Ľ à¦°à¦ķà¦¯
Ġà¦ıà¦ķà¦Ŀ à¦Łà¦ķ
od s
od y
Ġà¦¬à¦ļà¦¨ à¦®à¦¬
Ġà¦īà¦ªà¦ķà¦°à¦£ à¦Ĺ
ment s
à¦·à¦ľà¦¨ à¦ĵ
Ġis olation
à¦ıà¦ĩà¦ļ à¦ıà¦¸à¦¸
Ġà¦ľà¦¹ à¦°à¦²
Ġà§§à§¬ à§ª
à¦¶à¦§à¦° à¦°
Ġà§¨à§¨ à§©
ĠG IF
Ġà¦§à§ľ à¦ķà¦¨
à¦Ĩà¦Ł à¦ľà¦¨
à¦¼âĢĻ ;
Ġà¦²à¦¬ à¦£à¦ķ
Ġà§§à§¯à§® à§¨
à¦²à¦¥ à¦Ĺà¦¤
ĠE id
ĠE ast
ĠE xp
à§§à§® à§¬
à§§à§® à§«à§Ń
ce pt
ver s
à¦Ńà¦Ĺ à¦ĵà¦¯
op h
op adhy
à¦Ńà¦² à¦ªà¦®
Ġà¦«à¦¸ à¦²à¦ķ
Ġà¦«à¦¸ à¦²à¦¬
la c
la ck
Ġà¦Ĩà¦ªà¦¦ à¦Ĺ
Ġà§¯à§ §
Ġà§¯à§ ¨
Ġà§¯à§ ¯
Ġk iss
Ġk ingdom
Ġà¦ĸà¦ª à¦ĸà¦ª
art ment
à¦®à§Łà¦ķà¦° à¦Ń
Ġhe ro
Ġhe ad
Ġà¦Ĩà¦īà¦Ł à¦¸
if f
if ic
ĠK rishna
Ġà¦«à¦²à¦¨ à¦¶
Ġà§¨à§« à§¯
Ġst at
Ġst ars
Ġà§§à§¯à§© à§¦
Ġà§§à§¯à§© à§«
éŁ¿éŁ¿éŁ¿éŁ¿éŁ¿éŁ¿éŁ¿éŁ¿éŁ¿éŁ¿éŁ¿éŁ¿éŁ¿éŁ¿éŁ¿éŁ¿ éŁ¿éŁ¿éŁ¿éŁ¿éŁ¿éŁ¿éŁ¿éŁ¿
à¦°à¦²à§Ł à¦Ļ
Ġà§§à§¯à§¬ à§§
Ġà§§à§¯à§¬ à§¬
Ġà§§à§¯à§¬ à§®
ect or
ip e
ip le
Ġwh is
Ġwh ile
ĠØ ´
ĠØ ¹
ĠØ ¨Ø±
nt hesis
st ic
st rong
à¥ĩ ,
à¦°à¦¡ à¦ĵà¦¯
ant s
ĠÐ ±
ĠÐ ³
ĠÐ ´
ĠÐ ¶
ĠÐ ½Ð°
à¤² à¦¤
Ġà§§à§¯à§¦ à§§
Ġà§§à§¯à§¦ à§©
ind ran
à¦¯à¦Łà¦¨ à¦¶
Ġà¦Ńà¦Ĺà¦¬à¦¦ à¦Ĺ
ap u
ri or
ĠU nd
ĠU rvasi
ĠRe inc
ĠRe hana
à¦ıà¦°à¦ķà¦® à¦Ł
Ġv ine
Ġà§§à§¯à§¨ à§¦
Ġà§§à§¯à§¨ à§«
à§§à§ª à§¦
à§§à§ª à§«
Ġà¦Ĭà¦¨ à¦Ĩà¦¶
est ry
à¸ ¸
à¦°à¦Ĺà¦² à¦Ńà¦¤
Ġà¦¬à¦¦à¦° à¦īà¦¦
à¥Ģ à¥¤
Ġse en
ac y
iv ated
end ed
ust han
ci al
ci ety
ci bel
Ð° Ð»
ĠV id
Ġj at
Ġor g
ĠÙ Ī
Ġà¦Ĩà¦ĵ à¦¨à¦²
ĠâĢĶâĢĶâĢĶ âĢĶâĢĶ
ĠâĢĶâĢĶâĢĶ âĢĶâĢĵ
à§©à§© à§©
ast ic
Ġà§§à§¯à§§à§ «
Ġde ad
Ġde cibel
Ġcou nter
elf ie
ak en
à§ģâĢĿ !
Ðµ Ð½
à§©à§ª à§¨
Ġcol d
à¦Ķ à¦ªà¦¨
à¦Ķ à¦ªà¦§
Ġà¦ıà¦ĩà¦ļ à¦Ĩà¦°
Ġà¦ľà¦¨à¦®à¦¤ à¦ķ
ĠBo ok
Ġì ķ
Ġì Ŀ
à¦®à¦²à¦ķ à¦¬à§İ
Ġà¦Ĩà¦ī à¦¶
à§§à§¬ à§ª
à§§à§¯à§ª à§«
ÙĦ Ø§
ĠIn st
à¥ĭ à¤Ĥ
Ġme re
Ġme ans
ĠUn cle
!! !
TE CTE
ah ity
ib r
ib anan
ib ility
Ð¸ Ð½
ÛĮ Ø±
Ġ× ķ×
Ġat tain
Ġat oms
Ġun d
Ġun t
à¦¦à¦ĸà¦² à¦¦
à¤¦ à¤¯
Åĵ à¦¨
Ġà§§à§§à§ ª
Ġà§§à§§à§ ®
Ġwor d
Ġwor ship
Ġso il
Ġso ciety
Ġcollect ion
Ġà¦®à¦°à¦ķ à¦¤
ition s
ass ion
Ø§Ø ²
TI C
ie f
ove l
Ã© t
Ġal ien
Ġro ck
Ġro ots
Ġpro per
à§§à§¯à§© à§ª
à§§à§¯à§¬ à§©
IN G
uc ation
ÙĪ Ø´
à° ¤
Ġáĥ ¡
à¦¼à§ĩ) :
Ġà¦ľà¦¹à¦° à§İ
Ġ196 5
Ġ196 à§ª
Ġcont empor
Ġcont ribut
à¦¸à¦ªà¦¨ à¦¸
Ġà¦ıà¦¤à¦¬ à¦Ľà¦°
Ġà§¨à§¦à§¦ à§©
Ġà§¨à§¦à§¦ à§®
bor n
Ġë Ī
Ġà¦°à¦ĩ à¦²à¦¬
Ġà¦ħà¦ªà¦¹à¦°à¦£ à¦ķ
Ġex per
aj a
Ñĥ Ð»
ĠJ ibanan
à¦ķà¦ªà¦Ł à¦¤
ĠHe aven
ÙĬ ÙĨ
Ġà¦ķà¦ĸ à¦ĸà¦¨
Ġà¦ħà¦¬à§Ł à¦¬à¦ķ
Ġac ross
ĠDe vi
Ġà¦¦à¦¹à¦°à¦® à¦®à¦¹à¦°à¦®
Ġed ited
à¦ĵà¦ĵ à¦ĵ
à¦¼à¦¿âĢ¦ ?
à¦Ĩà¦ĩà¦¸ à¦¸
Ġhim self
oss ip
SI ON
à« ĩ
à¦²à¦®à¦¤ à¦ĩ
à¦¦à¦¬à¦¨ à¦¨
ĠRah ul
ph ony
Ðº Ð°
Ðº Ð¾Ð
à® ¤
ä¸ Ģ
ĠÑ Ī
Ġà¦łà¦¨ à¦łà¦¨
Ġà¦ĩà¦¨à¦Ńà¦²à¦Ń à¦®
à¤ª à¤Ł
Ġà¤ī à¤ľ
ĠRo ck
ster ia
the y
Ġsm ell
let on
Ġà¤ľ à¤¹
ĠPh onet
ĠPh ilosophy
Ġliter ary
Ġliter ature
Ġref lex
co al
oc al
Ġà¦ħà¦ĵ à¦°à¦¤
Ġà¦ħà¦ĵ à¦°à¦Ļ
à¦¡à§Łà¦¨ à¦ª
à¤¼ à§ĩ
Ġcur iosity
omb apu
Ġdy ing
ÂŃÂŃÂŃÂŃÂŃÂŃÂŃÂŃÂŃÂŃÂŃÂŃÂŃÂŃÂŃÂŃ ÂŃÂŃÂŃÂŃÂŃÂŃÂŃÂŃÂŃÂŃÂŃÂŃÂŃÂŃÂŃÂŃ
aug ht
£áĥ ļ
à± ĩ
Ġent ire
Ġra pid
Ġà¦ľà¦ł à¦°à¦ľ
Ġà¦®à¦¨à¦¨à¦¯ à¦ľ
Ġag ain
Ġhor ses
ĠBang la
Ġlo ok
Ġep isode
ĠDE TECTE
Ġneigh bour
Ġseem ed
ĠâĢĶâĢĶâĢĶâĢĶâĢĶâĢĶâĢĶ âĢĶâĢĶ
ĠâĢĶâĢĶâĢĶâĢĶâĢĶâĢĶâĢĶ âĢĶâĢĶâĢĶâĢĶ
vol ution
Ġ7 0
inc iple
atri ot
Ġchar coal
Ġbir d
Ġdra w
ĠAt ombapu
ĠBhar ata
Ġinte gr
Ġinte rest
ĠComp any
ĠTr uth
ĠHow rah
ĠLiter ature
Se en
cy cle
rid ge
Õ¥ ÖĢ
à¯ į
Ġà¦¹à§ľ à¦¬à§ľ
Ġwal ks
Ġsin ce
à§§à§¯à§§à§ ¦
Ġrem ind
Ġsec ond
Ġadopt ion
ĠVer y
ogn ition
Ġrhy me
Ġdisc ern
Ġcontinu ous
Ar jun
Int r
ITI ATE
ble m
personal ized
wam i
×ŀ ×
Ġident ity
arn ation
Ġwrit ten
Ġske leton
Ġcult ural
Ġmons oon
ĠSm art
Ġdetect ed
ĠPublis hing
ĠCSI COP
ĠMed ium
ĠRaj ul
Ġthink ing
Ġrep lac
Ġvill age
Ġproject or
Ġbreast s
Ġappro x
ĠOffice Boss
Ġbegin ning
Ġhappen ed
Gest alt
HAT TA
IT Y
St op
Un know
YAB HATTA
vens on
Ġà¦¹à§ľà¦¹ à§ľ
à¦īà¦ı à¦¬à¦²
Ġà¦Ŀà¦ªà¦Ŀ à¦ª
Ġwid ow
Ġsuff er
Ġcrow d
Ġpict ure
ĠSha h
ĠSag ara
ĠSte venson
Ġhop e
Ġhym n
ĠPsy ch
ĠCass io
ĠCalc utta
utum n
Ġthir d
ĠHai h
ĠLike wise
opadhy ay
indran ath
ĠReinc arnation
ĠJibanan anda
ĠDETECTE D
Unknow n
! -
! !âĢĿ
! ?âĢĿ
" ,
" à¥¤
' âĢĶ
( !)
) ]
) âĢĻ,
, /
, ;
, [
, âĢĶâĢľ
- à¦¾,
. /
4 à§¨
5 2
5 8
: :
? à¥¤âĢĻ
? âĢ¦âĢĻ
A C
A S
A l
A the
A yesha
A pp
B O
B ut
B HU
B lack
C I
C h
C ar
C all
C ool
C URE
C SR
C ases
D G
D ance
E L
E x
E co
F it
F rom
F ade
G od
G og
G ory
H O
H W
H on
H en
H ive
H ind
H CO
H alley
I S
I f
I an
J un
J up
K E
K K
K am
L e
M ic
M ong
M ars
M uch
M ani
M ontu
M ercury
M AN
N o
N CT
O O
O U
O W
O h
O ER
O ops
O mlet
O GEN
P A
P I
P M
P P
P S
P U
P ar
P as
P art
R A
R ed
R ec
R esp
S H
S P
S S
S U
S Y
S o
S ha
S ec
S atur
S OL
S elfie
S DG
T H
T U
T ok
T agore
T RU
T aught
U p
V is
V ER
V enus
W ord
X J
X II
X IM
Y ou
] )
] :
^ ^
_ ,
a an
a use
a Cor
a HCO
b r
b t
b re
b on
b en
b as
b ol
b ur
b ow
b low
b ness
b ack
c er
c us
c end
c ritical
d v
d ar
d ep
d ings
d ays
d own
e b
e au
f e
f l
f it
f il
f low
f ather
f ric
f actory
g o
g y
g re
g ing
g ro
g ate
h n
h à¦¶
h os
h ous
h ich
h ons
h rop
h usi
i ent
i od
i our
j i
j at
j ab
j ust
j na
k an
k et
k ind
k adem
l ar
l ing
l ot
l am
l ag
l end
l iter
l iver
l bor
m b
m à¦¯
m en
m it
m or
m as
m os
m ber
n o
n s
n er
n ce
n ect
n ers
n ics
o f
o es
o ot
o ch
o ver
o int
o ck
o ven
o hn
p es
p ing
p all
p ot
p et
p ly
p art
p ress
p ath
p ohela
p resent
r or
r up
r ine
r ater
r ont
r ugg
r iment
s c
s ive
s pect
s atri
s App
t or
t ed
t as
t us
t et
t un
t ire
t aste
t ouch
u f
u er
u ro
u ment
u ce
u red
v is
v il
v ind
v ara
v ious
v ised
v ived
v iron
w w
w an
w in
w or
w ar
w ag
w hol
w are
x ist
x for
x ena
y S
y ed
y ac
y nthesis
y ping
z e
¤ ï
¥ ı
¦ à¦¤
¦ à¦®
¦ ÙĨ
§ Ģ
© æ
« à§¯
¯ à¤¹
° Ķ
° Ø±
± ĭ
³ µ
· à¦Ł
· Ø±
¹ Î
¾ âĢĻà¥¤
¿ âĢĻ
Â ¬
Ã ª
Ã ³
Ã Ń
Ã ¦à¦¤
Ä ±
Å Ł
É Ļ
Ê ¼
Ì Ĭ
Î ´
Î ½
Î ¼Î
Î ¹Î
Ð ³
Ð ¶
Ñ Ħ
Ñ Ĩ
Ó Ļ
Ö ¾
Ö Ĥ
× ¦
× Ĳ
× Ĵ
× ĸ
Ø ¬
Ø °
Ø ²
Ø ¸
Ø º
Ù Ĵ
Ú Ĩ
Û ģ
á ¹
â Ī
ã Ģ
å ®
å ħ
å ı
å ¥ı
æ ¬
æ ¸
æ ĥ
æ Ĭ
ç §
ç ļ
è ¾
é ¡
í Ĵ
í ķ
í Ļ
ï Ģ
ĉ Ċ
Ġ 2
Ġ 3
Ġ 5
Ġ 9
Ġ i
Ġ {
Ġ å
Ġ à§ĩ
Ġ à§į
Ġ ?âĢĻ
Ġ ve
Ġ el
Ġ à§İà¦ķà¦°
Ġ ÑĢ
Ġ à§ģâĢĻà¥¤
Ġ 30
Ġ ens
Ġ arg
Ġ 34
Ġ 35
Ġ à®
Ġ à´
Ġ áĢ
Ġ à¨
Ġ ?âĢĻ-
Ġ arm
Ġ Ïĥ
Ġ Ò¯
Ġ ÏĢ
ģ âĢĿ
ģ Ø±
ģ âĤĤ
Ĥ Ċ
ī Ĥ
ī à¦¨
Ĭ ¥
Į Ģ
ı Ħ
ĳ ĺ
ĳ áĥĺáĥ
Ķ °ë
ĺ ħ
Ľ ×
Ŀ à¦ªà¦Ł
Ŀ ¤ï
ŀ ĳ
Ł âĢĿ
ł ×Ļ×
ł ķë
Ġà¦ ¾âĢĻà¥¤
Ġà¦ ¿âĢĻ
à¦¾ ^
à¦¾ à§ģ
à¦¾ **
à¦¾ à¦¾à¦ģ!
à¦¾ âĢĲ
à¦¾ âģł
à§ĩ _
à§ĩ à§ĩà¦ģ
à§ĩ à§ĭ,
à§ĩ à§įâĢĮ
à§ĩ à¦¾à¥¤âĢĿ
à§ĩ ï¿½
à¦° à§ľ
à¦° à¦°à¦¬
à¦° à¦Ĩ
à¦° à¦·à¦£
à¦° à¦Ĩà¦®
à¦° à¦§à¦ķ
à¦° à¦ĩà¦²
à¦° à¦Ńà¦¬
à¦° à¦Łà¦²
à¦° à¦¢
à¦° à§Łà¦¨
à¦° à¦Ĩà¦°
à¦° à¦ħà¦Ń
à¦° à¦Ŀà¦²à¦®à¦²
à¦° à¤¤
à¦° à¦ħà¦Ļ
à¦° à¦²à¦¤à¦®
à¦° Ð´
à¦° Ã¦à¦¤
à§į !âĢĿ
à§į Â·Â·Â·
à§į âĢĻ;
à¦¿ *
à¦¿ >
à¦¿ ]
à¦¿ à¦¾à¥¤
à¦¿ ÂŃÂŃ
à¦¿ âĢĲ
à¦¿ Â·Â·Â·âĢĻ
à¦¨ à¦Ļ
à¦¨ à¦ī
à¦¨ à¦°à¦¬
à¦¨ à¦²à¦ķ
à¦¨ à¦²à¦¤
à¦¨ à¦¹à¦°
à¦¨ à¦ıà¦ĩ
à¦¨ à¦¹à¦²
à¦¨ à¦·à¦ķ
à¦¨ à¦°à¦Ł
à¦¨ à¦¢
à¦¨ à¦¹à¦¨
à¦¨ à¦«à¦²
à¦¨ à¦ľà¦¯
à¦¨ à¦¹à¦°à¦£
à¦¨ à¦Ľà¦¬
à¦¨ à¦®à¦ª
à¦¨ à¦ħà¦°
à¦¨ à¦ħà¦²
à¦¨ à¦«à¦°
à¦¨ à¦Ĩà¦¨
à¦¨ à¦ĺà¦£
à¦¨ à¦ĺà¦¡
à¦¨ à¦Ŀà¦²à¦®à¦²
à¦¨ à¦¨à¦¤à¦²
à¦¨ à¦¸à¦¨à¦ķ
à¦¨ à¦ıà¦ľ
à¦¨ à¦¸à¦°à¦ŀ
à¦¤ à¦ı
à¦¤ à¦Ĺà¦²
à¦¤ à¦Ľà¦¨
à¦¤ à¦®à¦²
à¦¤ à¦ķà¦¬
à¦¤ à¦¢
à¦¤ à¦¸à¦²
à¦¤ à¦ľà¦°
à¦¤ à¦ľà¦¨à¦ķ
à¦¤ à¦Ľà¦¤
à¦¤ à¦ľà§Ł
à¦¤ à¦¯à¦ľ
à¦¤ à§İà¦¸à¦¬
à¦¤ à¦ĺà¦Łà¦¨
à¦¤ à¦¶à¦¸
à¦¤ à¦ľà¦¨à¦¦
à¦¤ à¦ķà¦¬à¦ļ
à¦¤ à¤¬
à¦² à§İ
à¦² à¦°à¦¬
à¦² à¦¨à¦¤
à¦² à¦¤à¦¨
à¦² à¦ħ
à¦² à¦ĩà¦²
à¦² à¦Ńà¦¬
à¦² à¦¢
à¦² à¦¸à¦²
à¦² à¦Łà¦¬
à¦² à¦ªà¦£
à¦² à¦Ĩà¦²
à¦² à¦ľà¦®
à¦² à¦¦à¦Ĺ
à¦² à¦ľà¦Ł
à¦² à¦¶à¦°
à¦² à¦ħà¦²
à¦² à¦Ŀà¦¡
à¦² à¦°à¦¹à¦¸
à¦² à¦Ŀà¦²à¦®à¦²
à¦² à¦ªà¦°à¦¬
à¦² ä¸
à¦² Ð¼
à¦ķ à¦ĺ
à¦ķ à¦ļà¦¨
à¦ķ à¦¯à¦¨
à¦ķ à¦¸à¦°
à¦ķ à¦®à¦¬
à¦ķ à¦ĩà¦¯
à¦ķ à¦¹à¦¤
à¦ķ à¦°à¦¬à¦°
à¦ķ à¦¯à¦ľ
à¦ķ à¦īà¦¡
à¦ķ à¦ħà¦²
à¦ķ à¦Ĳà¦¤
à¦ķ à§Łà¦²
à¦ķ à¦¤à¦°à¦ķà¦®
à§ģ à¦¼
à§ģ à§Ĥ
à§ģ âĢĶâĢĺ
à§ģ ..
à§ģ ÂŃ
à§ģ ...âĢĿ
à§ģ Â·Â·Â·
à§ģ âĢĿ,
à§ģ à§ģà¦ģà¦ģ
à§ģ ÌĬ
à¦¯ à¦«
à¦¯ à¦°à¦¥
à¦¯ à¦°à¦¹
à¦¯ à¦²à¦¬
à¦¯ à¦ħà¦¨
à¦¯ à¦ªà¦¸
à¦¯ à¦ĩà¦¤
à¦¯ à¦Ĺà¦¬
à¦¯ à¦Ĩà¦²
à¦¯ à¦¹à¦°à¦£
à¦¯ à¦¬à¦¨à¦ķ
à¦¯ à¦ĺà¦Ł
à¦¯ à¦°à¦¹à¦¸
à¦¯ à¦Ŀà¦²à¦®à¦²
à¦¬ à¦Ŀ
à¦¬ à¦¯à¦¤
à¦¬ à¦®à¦°
à¦¬ à¦ĩà¦°
à¦¬ à¦ħà¦¨
à¦¬ à¦ĺà¦°
à¦¬ à¦Ĺà¦®
à¦¬ à¦īà¦²
à¦¬ à¦ħà¦¸
à¦¬ à¤°
à¦¬ Ð»
à¦¬ à¦£à¦¬à¦§
à¦® à¦ķà¦¤
à¦® à¦°à¦²
à¦® à¦²à¦¨
à¦® à¦°à¦¦
à¦® à¦¶à¦¨
à¦® à¦¬à¦¦
à¦® à¦¸à¦°
à¦® à¦¸à¦ķ
à¦® à¦Ļà¦²
à¦® à¦Ĺà¦¬
à¦® à¦®à¦§
à¦® à¦īà¦²
à¦® à¦¦à¦¸
à¦® à¦Ľà¦¬
à¦® à¦Ńà¦ķ
à¦® à¦ħà¦²
à¦® à¦«à¦¸
à¦® à¦§à¦¨à¦ķ
à¦® à¦ĺà¦£
à¦® à¦¥à¦¸
à¦® à¦¦à¦¨à¦®
à¦® à¦°à¦¦à¦¦
à¦¼ /
à¦¼ à¦ģ
à¦¼ à§ģâĢĻ
à¦¼ à§ĭà¥¤âĢĿ
à¦¼ ï»¿
Ġà¦ķ à¦¹à¦°
Ġà¦ķ à¦¹à¦²
Ġà¦ķ à¦Ĺà¦¨
Ġà¦ķ à¦¸à¦ķ
Ġà¦ķ à¦ķà¦ķ
Ġà¦ķ à¦ĩà¦¸
Ġà¦ķ à¦¦à¦¬
Ġà¦ķ à¦¹à¦ķ
Ġà¦ķ à¦ķà¦ĸà¦¨
Ġà¦ķ à§ľà¦ķ
Ġà¦ķ à¦ĵà¦®
Ġà¦ķ à¦Ĩà¦°à¦¤
à§ĭ à¦¿
à§ĭ à§įà¦ģ
à§ĭ 'à¥¤
à§ĭ ",
Ġà¦¬ à¦°à¦¤
Ġà¦¬ à¦Ŀ
Ġà¦¬ à¦ľà¦¨
Ġà¦¬ à¦¦à¦¸
Ġà¦¬ à¦«à¦°
Ġà¦¬ à¦°à¦¤à¦¨
Ġà¦¸ à¦Ľ
Ġà¦¸ à¦¬à¦¨
Ġà¦¸ à¦Ĺà¦²
Ġà¦¸ à¦ĩà¦¨
Ġà¦¸ à¦¸à¦°
Ġà¦¸ à¦Ľà¦²
Ġà¦¸ à¦²à¦Ń
Ġà¦¸ à¦ĩà¦«
Ġà¦¸ à¦¡à¦°
Ġà¦¸ à¦ĩà¦ĵ
Ġà¦¸ à¦¦à¦¨à¦Ł
à¥ Ī
à¥ Ĳ
à¥¤ *
à¥¤ à¥¤âĢĿ
à¥¤ âĢ¦à¥¤
à¥¤ âĢ¦âĢĻ
Ġà¦ª à¦ĸ
Ġà¦ª à¦¬à¦°
Ġà¦ª à¦²à¦¬
Ġà¦ª à¦ļà¦²
Ġà¦ª à¦¸à¦¨
Ġà¦ª à¦¢
Ġà¦ª à¦ľà¦°
Ġà¦ª à¦ĩà¦¤
Ġà¦ª à¦ªà¦¡
Ġà¦ª à¦Łà¦¨
Ġà¦ª à¦ĩà¦¸
Ġà¦ª à¦Łà¦Ł
Ġà¦ª à§Łà¦®
Ġà¦ª à¦ļà¦¬
Ġà¦ª à¦Ĺà¦Ł
Ġà¦ª à§Łà¦¦
à¦¸ à¦·
à¦¸ à¦£
à¦¸ à¦¸à¦¬
à¦¸ à¦ķà¦¤
à¦¸ à¦°à¦ĩ
à¦¸ à¦¹à¦°
à¦¸ à§İà¦¸
à¦¸ à¦¤à¦ķ
à¦¸ à¦°à¦ª
à¦¸ à¦ıà¦ķ
à¦¸ à¦Łà¦²
à¦¸ à¦ªà¦ķ
à¦¸ à¦°à¦¬à¦¤
à¦¸ à¦ªà¦Ł
à¦¸ à¦ĩà¦¬
à¦¸ à¦Ńà¦¯
à¦¸ à¦ħà¦°
à¦¸ à¦¦à¦ķ
à¦¸ à¦Ĺà¦£
à¦¸ à¦ľà¦¨à¦ķ
à¦¸ à¦¶à¦¸
à¦¸ à¦°à¦¤à¦®
à¦¸ à¦Ĺà¦¤à¦Ń
à¦¸ à¦¨à¦¤à¦²
Ġà¦Ĩ à¦¢
Ġà¦Ĩ à¦Łà¦¨
Ġà¦Ĩ à¦ħà¦°
Ġà¦Ĩ à¦ĸà¦£
Ġà¦Ĩ à¦Łà¦¸
à¦¦ à¦ªà¦°
à¦¦ à¦ŀ
à¦¦ à¦¨à¦¤
à¦¦ à¦§à¦¨
à¦¦ à¦¶à¦¬
à¦¦ à¦ªà¦¸
à¦¦ à¦¬à¦¹
à¦¦ à¦Ńà¦¦
à¦¦ ol
à¦¦ à¦ľà¦¡
à¦¦ à¦¬à¦¦à¦²
à¦¦ à¦ĺà¦°à¦Ł
à¦¦ à¦°à¦¨à¦Ĺà¦°
à¦Ł à¦°à¦¤
à¦Ł à§İ
à¦Ł à¦ī
à¦Ł à¦ªà¦¨
à¦Ł à¦²à¦ķ
à¦Ł à¦®à¦¤
à¦Ł à¦Ĺà¦¨
à¦Ł à¦Łà¦²
à¦Ł à¦°à¦Ń
à¦Ł à¦ªà¦ķ
à¦Ł à¦ļà¦°
à¦Ł à¦¨à¦²
à¦Ł à¦Ĺà¦¬
à¦Ł à¦®à¦§
à¦Ł à¦®à¦Ł
à¦Ł à¦®à¦ª
à¦Ł à¦ĺà¦¡
Ġà¦¨ à¦ī
Ġà¦¨ à¦ħ
Ġà¦¨ à¦¦à¦¨
Ġà¦¨ à¦ĵà§Ł
Ġà¦¨ à¦°à¦Ń
Ġà¦¨ à¦Łà¦¨
Ġà¦¨ à¦¨à¦ĩ
Ġà¦¨ à¦ĸà¦ķ
Ġà¦¨ à¦Ī
Ġà¦¨ à¦Łà¦¸
Ġà¦¨ à¦«à¦°
Ġà¦¨ à¦ĸà¦ļ
Ġà¦¨ à¦ĺà¦¸
Ġà¦¨ à¦ŀà¦°
Ġà¦® à¦ĵ
Ġà¦® à¦ĺ
Ġà¦® à§İà¦ķ
Ġà¦® à¦ĩà¦°
Ġà¦® à¦®à¦¬
Ġà¦® à¦ªà¦¸
Ġà¦® à¦¥à¦¨
Ġà¦® à¦ĩà¦¤
Ġà¦® à¦®à¦Ĺ
Ġà¦® à¦¦à¦¸
Ġà¦® à§İà¦ª
Ġà¦® à§Łà¦°
Ġà¦® à¦ĵà¦¤
Ġà¦® à¦¸à¦®à¦¸
Ġà¦® à¦¦à¦¨à¦ķ
à¦ĩ à¦°à¦¬
à¦ĩ à¦¤à¦°
à¦ĩ à¦ªà¦¨
à¦ĩ à¦Ĩ
à¦ĩ à¦¦à¦¨
à¦ĩ à¦¦à¦°
à¦ĩ à¦°à¦ĩ
à¦ĩ à¦ªà¦¤
à¦ĩ à¦¹à¦²
à¦ĩ à¦Łà¦ķ
à¦ĩ à¦¸à¦®
à¦ĩ à¦Ĺà¦°
à¦ĩ à¦¦à¦²
à¦ĩ à¦ªà¦¸
à¦ĩ à¦¦à¦®
à¦ĩ à¦īà¦ķ
à¦ĩ à¦¸à¦ª
à¦ĩ à¦ļà¦¡
à¦ĩ à¦ĵà¦°
à¦ĩ à¦¶à¦°
à¦ĩ à¦¸à¦®à§Ł
à¦ĩ à¦īà¦¡
à¦ĩ à¦ĵà¦²
à¦ĩ à¦¶à¦²à¦ĵ
à¦ĩ åķ
à¦ª à¦¹à¦°
à¦ª à¦¯à¦¨
à¦ª à¦²à¦²
à¦ª à¦¹à¦°à¦£
à¦ª à¦Ŀà¦°
à¦ª à¦Ľà¦¬
à¦ª à¦®à¦¦
à¦ª à¦łà¦¨
à¦ª à¦¬à¦§
à¦ª à¦ľà¦Ĺà¦¤
à¦ª à¦¬à¦¦à¦²
à¦ª à¦ľà¦Ĺà§İ
à¦ª à¦°à¦¤à¦¨
à¦ª à¦®à§Łà¦¤
à§Ģ à§į
à§Ģ à§ģ
à§Ģ âĢĶâĢĺ
à§Ģ ï»¿
à§Ģ !âĢĿâĢĶ
Ġà¦¦ à¦®à¦¦
Ġà¦¦ à¦ĩà¦Ń
Ġà¦¦ à¦ĩà¦®
Ġà¦¦ à¦ĩà¦ļ
Ġà¦¦ uk
à¦Ľ à¦¶
à¦Ľ à¦ŀ
à¦Ľ à¦ĺ
à¦Ľ à¦°à¦®
à¦Ľ à¦ªà¦¦
à¦Ľ à¦²à¦®
à¦Ľ à¦īà¦²
à¦Ľ à¦¸à¦¹
à¦Ľ à¦Łà¦«à¦Ł
à¦Ľ à¦ľà¦Ļ
à¦Ľ à¦¦à¦ĵ
à¦Ľ à¦ªà¦¸à¦¹
Ġà¦¤ à¦ĩ
Ġà¦¤ à¦ķà¦°
Ġà¦¤ à¦°à¦¶
Ġà¦¤ à¦ĩà¦²
Ġà¦¤ à¦Łà¦ķ
Ġà¦¤ à§°
Ġà¦¤ à¦Łà¦¬
Ġà¦¤ à¦ķà¦¦
Ġà¦¤ à¦¦à¦¸
Ġà¦¤ à¦¹à¦®
Ġà¦¤ à¦¦à¦£
Ġà¦¤ à¦Ĺà¦¦
Ġà¦¤ à¦°à¦¤à¦®
Ġà¦¤ à¦¤à¦¬à¦¡
Ġà¦¤ à¦²à¦¤à¦²
Ġà¦ı à¦·à¦£
Ġà¦ı à¦²à¦ķ
Ġà¦ı à¦®à¦¸
Ġà¦ı à¦Ĩà¦°
Ġà¦ı à¦ĵà¦¤
Ġà¦ı à¦¹à¦¨à¦¬
Ġà¦¹ à¦ŀ
Ġà¦¹ à¦Ĩ
Ġà¦¹ à¦ķà¦°
Ġà¦¹ à¦°à¦¸
Ġà¦¹ à¦®à¦ķ
Ġà¦¹ à¦¸à¦¤
Ġà¦¹ à¦ľà¦°
Ġà¦¹ à¦¥à¦°
Ġà¦¹ à¦Łà¦Ľ
Ġà¦¹ à¦ĩà¦¸
Ġà¦¹ à¦Łà¦¸
à¦ľ à¦°à¦¤
à¦ľ à¦°à¦¬
à¦ľ à¦ĵà¦¯
à¦ľ à¦ķà¦Ł
à¦ľ à¦¬à¦¤
à¦ľ à¦°à¦¸
à¦ľ à¦Ĺà¦²
à¦ľ à¦²à¦¨
à¦ľ à¦°à¦¦
à¦ľ à¦°à¦ĩ
à¦ľ à¦¸à¦¨
à¦ľ à¦Ĺà¦°
à¦ľ à¦°à¦ª
à¦ľ à¦¬à¦¸
à¦ľ à¦Łà¦²
à¦ľ à¦¤à¦®
à¦ľ à¦¸à¦Ļ
à¦ľ à¦¬à¦ķ
à¦ľ à¦ªà¦¡
à¦ľ à¦Ńà¦°
à¦ľ à¦§à¦¬
à¦ľ à¦¦à¦®
à¦ľ à§Łà¦¤
à¦ľ à¦ķà¦¥
à¦ľ à¦ªà¦²
à¦ľ à¦ªà§ľ
à¦ľ à¦Ĩà¦ª
à¦ľ à¦łà¦°
à¦ľ à¦£à¦²
à¦ľ à¦ĩà¦¨à¦«à¦°à¦®
à¦¶ à¦·
à¦¶ à¦¥
à¦¶ à¦¤à¦°
à¦¶ à¦¨à¦¤
à¦¶ à¦ķà¦²
à¦¶ à¦¤à¦¨
à¦¶ à¦ĵà§Ł
à¦¶ à¦¨à¦¬
à¦¶ à¦°à¦ª
à¦¶ à¦ªà¦Ł
à¦¶ à¦ľà¦°
à¦¶ à¦®à¦¸
à¦¶ à¦²à¦®
à¦¶ à§Łà¦¤
à¦¶ à¦ľà¦®
à¦¶ à¦¤à¦Ł
à¦¶ à¦¤à¦¸
à¦¶ à¦ľà¦¨à¦ķ
à¦¶ à¦ľà§Ł
à¦¶ à¦ĵà¦°
à¦¶ à¦Ĩà¦ĩà¦¨
à¦¶ à¦¬à¦°à¦¦
à¦ĸ à¦ł
à¦ĸ à¦ĸà¦¨
à¦ĸ à¦ĺ
à¦ĸ à¦¦à¦°
à¦ĸ à¦®à¦¤
à¦ĸ à¦ļà¦¨
à¦ĸ à¦¸à¦Ļ
à¦ĸ à¦ľà¦²
à¦ĸ à¦§à¦°
à¦ĸ à¦ĺà¦¨
à¦ĸ à¦Ĺà¦£
à¦ĸ à¦ľà¦Ĺ
à¦ĸ à§Łà¦°
à¦ĸ à¦Ńà¦°à¦¤
à¦ĸ à¦°à¦¸à¦®
à¦¼à§ĩ à¦¼
à¦¼à§ĩ à¦Ĥ
à¦¼à§ĩ !âĢĻ
à¦¼à§ĩ âĢ¦âĢĿ
à¦¼à§ĩ âĢĻâĢĶ
à¦¼à§ĩ âĢ¦.
âĢ ²
âĢ ³
âĢ Ĩ
Ġà¦ħ à¦ĩà¦²
Ġà¦ħ à¦Łà¦¬
Ġà¦ħ à¦ĩà¦Ľ
à¦Ĺ à¦ĸ
à¦Ĺ à¦·
à¦Ĺ à§İ
à¦Ĺ à¦ĺ
à¦Ĺ à¦¤à¦¨
à¦Ĺ à¦°à¦¥
à¦Ĺ à¦°à¦¹
à¦Ĺ à¦ĩà¦²
à¦Ĺ à¦®à¦²
à¦Ĺ à¦°à¦¯
à¦Ĺ à¦®à¦°
à¦Ĺ à¦¬à¦¸
à¦Ĺ à¦ļà¦°
à¦Ĺ à¦¸à¦Ļ
à¦Ĺ à¦ľà¦²
à¦Ĺ à¦ľà¦°
à¦Ĺ à¦Ĺà¦ľ
à¦Ĺ à¦Ĺà¦£
à¦Ĺ à¦¶à¦¤
à¦Ĺ à¦¹à¦ķ
à¦Ĺ à¦ĸà¦ļ
à¦Ĺ à¦°à¦¤à¦²
à¦Ĺ à¦®à¦¤à¦®
à¦Ĺ à¦ľà¦¨à¦ķà¦Ń
à¦Ĺ à¦¬à¦²à¦¯
à§Ł à§Ł
à§Ł à¦°à¦¨
à§Ł à¦°à¦¸
à§Ł à¦¨à¦¬
à§Ł à¦ªà¦¥
à§Ł à¦¬à¦¸
à§Ł à¦ľà¦²
à§Ł à¦ķà¦ķ
à§Ł à¦®à¦ª
à§Ł à¦·à¦Ł
à§Ł à¦ķà¦Ń
à¦· à¦Ŀ
à¦· à¦°à¦¦
à¦· à¦°à¦ĵ
à¦· à¦¬à¦¦
à¦· à¦ļà¦ķ
à¦· à¦°à¦Ł
à¦· à¦ļà¦°
à¦· à¦ľà¦®
à¦· à¦Ńà¦¯
à¦· à¦¬à¦¹
à¦· à¦²à¦ª
à¦· à¦Ńà¦Ļ
à¦· à¦ľà¦Ĺà¦¤
à¦· à¦°à¦®à§Ł
à¦· à¦°à¦¸à¦®
à¦· à¦¸à¦¬à¦§
Ġà¦¯ à¦¬à¦¦
Ġà¦¯ à¦ľà¦¤
Ġà¦¯ à¦¶à¦®
Ġà¦¯ à¦¶à¦ĩ
Ġà¦¯ à¦¬à¦¨à¦¬
Ġà¦¯ à¦¤à¦°à¦ķà¦®
à¦§ à¦·
à¦§ à¦°à¦®
à¦§ à¦¤à¦¨
à¦§ à¦°à¦¸
à¦§ à¦¦à¦°
à¦§ à¦®à¦¤
à¦§ à¦ªà¦¦
à¦§ à¦°à¦ĵ
à¦§ à¦¦à¦²
à¦§ à¦«à¦²
à¦§ à¦¦à¦®
à¦§ à¦ľà¦®
à¦§ à¦ľà¦¨à¦ķ
à¦§ à¦¯à¦ľ
à¦§ à¦ªà¦¶
à¦§ à¦°à¦ªà¦²
à¦¡ à¦Ľ
à¦¡ à§Ł
à¦¡ à¦¤à¦²
à¦¡ à¦®à¦°
à¦¡ à¦¤à¦®
à¦¡ à¦ľà¦²
à¦¡ à¦ªà¦Ł
à¦¡ à¦¬à¦¯
à¦¡ à¦§à¦°
à¦¡ à¦«à¦²
à¦¡ à¦ªà¦£
à¦¡ à¦¬à¦ĩ
à¦¡ à¦ĸà¦£
à¦¡ à¦ħà¦²
à¦¡ à¦®à¦¨à¦¸
à¦¡ à¦ĩà¦Ńà¦¨
à¦ļ à¦ªà¦°
à¦ļ à¦ĺ
à¦ļ à¦¨à¦¤
à¦ļ à¦Ĺà¦²
à¦ļ à¦¹à¦¸
à¦ļ à¦¨à¦¬
à¦ļ à¦°à¦ĵ
à¦ļ à¦¤à¦¤
à¦ļ à¦¶à¦ķ
à¦ļ à¦¸à¦¹
à¦ļ à¦¶à¦¤
à¦ļ à¦¬à¦°à¦£
à¦ļ à¦ĸà¦£
à¦ļ al
à¦ļ à¦īà¦·
Ġà¦ķà¦° à¦¯
Ġà¦ķà¦° à¦Ł
Ġà¦ķà¦° à¦§
Ġà¦ķà¦° à¦¹
à¦¹ à¦·
à¦¹ à¦ŀ
à¦¹ à¦¸à¦¬
à¦¹ à¦¬à¦¤
à¦¹ à¦¨à¦ĵ
à¦¹ à¦¦à¦°
à¦¹ à¦®à¦ķ
à¦¹ à¦ĩà¦²
à¦¹ à¦ķà¦¬
à¦¹ à¦¯à¦¨
à¦¹ à¦¤à¦²
à¦¹ à¦¬à¦¦
à¦¹ à¦ªà¦¥
à¦¹ à¦ļà¦ķ
à¦¹ à¦®à¦¬
à¦¹ à¦¶à¦ķ
à¦¹ à§°
à¦¹ à¦ķà¦¨
à¦¹ à¦ķà¦ķ
à¦¹ à¦łà¦ķ
à¦¹ à¦ľà¦®
à¦¹ à¦®à¦¦
à¦¹ à¦ĸà¦£
à¦¹ à¦Ńà¦ķ
à¦¹ à¦Ĺà¦¸
à¦¹ à¦Ĩà¦¦à¦°
Ġà¦Ĺ à¦ĩ
Ġà¦Ĺ à¦§
Ġà¦Ĺ à¦ľà¦¨
Ġà¦Ĺ à¦¬à¦²
Ġà¦Ĺ à¦¨à¦¤
Ġà¦Ĺ à¦Ĺà¦²
Ġà¦Ĺ à¦®à¦Ĺ
Ġà¦Ĺ à¦¬à¦¨à¦°
Ġà¦Ĺ à¦ħà¦£
à¦ģ à¦¿
à¦ģ âĢĻà¥¤
à¦£ à¦¡
à¦£ à¦Ŀ
à¦£ à¦ľà¦¨
à¦£ à¦®à¦£
à¦£ à¦Ĺà¦°
à¦£ à¦¦à¦²
à¦£ à¦¸à¦¤
à¦£ à¦¨à¦¦
à¦£ à¦¹à¦°à¦£
à¦£ à¦Ŀà¦°
à¦£ à¦ļà¦¤
à¦£ à¦¬à¦¹
à¦£ à¦¶à¦¯
à¦£ à¦¦à¦¶
à¦£ à¦¯à¦ľ
à¦£ à§Łà¦ķ
à¦£ à¦ħà¦²
à¦£ Åĵ
à¦¥ à¦§
à¦¥ à¦¥
à¦¥ à¦ĺ
à¦¥ à¦¬à¦²
à¦¥ à¦ķà¦²
à¦¥ à¦¬à¦¤
à¦¥ à¦°à¦¹
à¦¥ à¦ĵà§Ł
à¦¥ à¦¨à¦ķ
à¦¥ à¦¤à¦®
à¦¥ à§°
à¦¥ à¦ľà¦²
à¦¥ à¦ķà¦¨
à¦¥ à¦ĺà¦°
à¦¥ à¦¨à¦¸
à¦¥ à¦«à¦²
à¦¥ à¦ķà¦¡
à¦¥ à¦°à¦ľà¦²
Ġà¦¶ à¦¦
Ġà¦¶ à¦Ĺ
Ġà¦¶ à¦ķà¦²
Ġà¦¶ à¦®à¦°
Ġà¦¶ à§ľà¦ķ
Ġà¦¶ à¦°à¦®à¦ķ
Ġà¦¶ à¦¬à¦°à¦¦
Ġà¦¶ arat
Ġà¦¶ Pas
Ġà¦ľ à¦¬à¦¨
Ġà¦ľ à¦ªà¦¨
Ġà¦ľ à¦ĺ
Ġà¦ľ à¦ªà¦¤
Ġà¦ľ à§°
Ġà¦ľ à¦ľà¦®
Ġà¦ľ à¦ľà¦ª
Ġà¦ľ à¦ĵà¦¹
Ġà¦ļ à§Ł
Ġà¦ļ à¦°à¦¤
Ġà¦ļ à¦ķà¦Ł
Ġà¦ļ à¦¹à¦°
Ġà¦ļ à¦°à¦Ł
Ġà¦ļ à¦Łà¦¤
Ġà¦ļ à¦Łà¦¬
Ġà¦ļ à¦ªà¦¡
Ġà¦ļ à¦īà¦ķ
Ġà¦ļ à¦Łà¦Ľ
Ġà¦ļ à¤¶
Ġà¦Ń à¦¤
Ġà¦Ń à¦°à¦®
Ġà¦Ń à§°
Ġà¦Ń à¦²à¦Ĺ
Ġà¦Ń à¦£à¦¨
Ġà¦Ń à¦ĩà¦·
Ġà¦° à¦·
Ġà¦° à§ľ
Ġà¦° à¦¨à¦¤
Ġà¦° à¦ķà¦Ł
Ġà¦° à¦¦à¦¨
Ġà¦° à¦®à¦ķ
Ġà¦° à¦¹à¦¨
Ġà¦° à¦Ĺà¦ľ
Ġà¦° à¦ľà¦ķ
Ġà¦° à¦Łà¦Ľ
Ġà¦° à¦¤à¦¨à¦¤
Ġà¦° à¦ľà¦Ĺ
Ġà¦° à¦£à¦°
Ġà¦° à¦¡à¦Ł
Ġà¦° à¤ķ
Ġà¦° à¦īà¦«
à¦ĵ à¦¬à¦¨
à¦ĵ à¦®à¦¨
à¦ĵ à¦ī
à¦ĵ à¦®à¦²
à¦ĵ à¦®à¦°
à¦ĵ à¦°à¦ª
à¦ĵ à¦ĩà¦¸
à¦ĵ à§ľà¦¨
à§ĩà¥¤ '
à§ĩà¥¤ (
à§ĩà¥¤ à¥¤âĢĻ
à§ĩà¥¤ âĢĶâĢĺ
à§ĩà¥¤ )à¥¤
à§ĩà¥¤ âĢ¦.
à§ĩà¥¤ Â»
à¦Ń à¦¬à¦ª
à¦Ń à¦¶à¦¨
à¦Ń à¦¸à¦¨
à¦Ń à¦ľà¦¸
à¦Ń à§Łà¦¤
à¦Ń à¦ľà¦®
à¦Ń à§İà¦¸à¦¨
à¦Ń à¦¨à¦Ńà¦¨
Ġà¦ıà¦ķ à¦°à¦ķ
Ġà¦ıà¦ķ à¦°à¦®
Ġà¦ıà¦ķ à¦ķà¦¤
Ġà¦ıà¦ķ à¦°à¦¶
Ġà¦ıà¦ķ à¦¸à¦®
Ġà¦ıà¦ķ à¦®à¦§
Ġà¦ıà¦ķ à¦²à¦®
Ġà¦ıà¦ķ à¦ĺà¦¨
Ġà¦ıà¦ķ à¦¶à¦°
Ġà¦ıà¦ķ à¦Ĩà¦¨
Ġà¦ıà¦ķ à¦ħà¦ªà¦°
Ġà¦ıà¦ķ à¦Ľà¦¡
Ġà¦Ľ à¦Ľ
Ġà¦Ľ à¦Ļ
Ġà¦Ľ à¦ķà¦¤
Ġà¦Ľ à¦¤à¦²
Ġà¦Ľ à¦ªà¦Ľ
Ġà¦Ĩà¦® à¦¯
Ġà¦Ĩà¦® à¦°à¦¤
Ġà¦Ĩà¦® à¦ªà¦¤
Ġà¦Ĩà¦® à¦«à¦²
Ġà¦Ĩà¦® à¦²à¦ĩ
Ġà¦Ĩà¦® à¦²à¦¦
à§ĥ .
à§ĥ à§ĥ
à§ĥ âĢĵ
à¦ł à¦Ľ
à¦ł à¦°à¦¤
à¦ł à¦°à¦¬
à¦ł à¦¬à¦¦
à¦ł à¦®à¦£
à¦ł à¦¶à¦ķ
à¦ł à¦ķà¦¨
à¦ł à¦¤à¦Ł
à¦ł à¦¬à§İ
à¦ł à¦ĸà§ľ
à¦¼à¦¾ à§ĩ
à¦¼à¦¾ âĢĿâĢĶ
à¦¼à¦¾ âĢ¦âĢĻ
à¦¼à¦¾ ...âĢĿ
Ġà¦ī à¦Ļ
Ġà¦ī à¦¨à¦¤
Ġà¦ī à¦¸à¦®
Ġà¦ī à¦®à¦¦
Ġà¦ī à¦ĩà¦¸
Ġà¦ī à¦ĩà¦ľ
Ġà¦ī à¦ĵà¦°
Ġà¦ī à¦ĩà¦®
Ġà¦ī à¦ıà¦¸
Ġà¦ī à¦ĩà¦ļ
Ġà¦ī à¦«à¦¸
à¦¾à¦ģ à¦¿
à¦¾à¦ģ à§ģ
à¦¾à¦ģ âĢĿ
à¦¾à¦ģ âĢ¦âĢĿ
à¦Ĥ à¥¤âĢĿ
à¦Ĥ !âĢĻ
à¦Ĥ âĢĶâĢĻ
à¦Ĥ âĢĻâĢĵ
à¦Ļ à¦ĵ
à¦Ļ à¦¨à¦¹
à¦Ļ à¦ħà¦²
à§Ĥ )
à§Ĥ à¦¾
à§Ĥ âĢĶ
à§Ĥ âĢĻ
à§Ĥ à¦ĥà¥¤
à§ĩ, (
Ġà¦¥ à¦¬
Ġà¦¥ à¦¸
Ġà¦¥ à¦¡
Ġà¦¥ à¦Łà¦²
Ġà¦¥ à¦¹à¦¹à¦°
Ġà¦¬à¦² à¦¸
Ġà¦¬à¦² à¦¬à¦¨
Ġà¦¬à¦² à¦¨à¦ķ
Ġà¦¬à¦² à¦¦à¦ĩ
Ġà¦Ĩà¦° à¦ľà¦¨
Ġà¦Ĩà¦° à¦¬à¦ķ
Ġà¦Ĩà¦° à¦ıà¦¸
Ġà¦Ĩà¦° à¦ıà¦¨à¦ı
Ġà¦² à¦¦
Ġà¦² à¦«
Ġà¦² à¦ĵà§Ł
Ġà¦² à¦ĩà¦¬
Ġà¦² à¦¬à¦¡
Ġà¦² à¦ĩà¦®
Ġà¦² à¦Ńà¦¤
Ġà¦ĵ à¦¬à¦²
Ġà¦ĵ à§İà¦¸
Ġà¦ĵ à¦¸à¦ķ
Ġà¦ĵ à¦²à¦®
Ġà¦ĵ à¦¸à¦ª
Ġà¦ĵ à¦ħà¦°
Ġà¦ĵ à§Łà¦°
Ġà¦« à¦ľ
Ġà¦« à¦Ļ
Ġà¦« à¦Łà¦°
Ġà¦ĸ à¦¸à¦¬
Ġà¦ĸ à¦ĩà¦¨
Ġà¦ĸ à¦Ĺà¦°
Ġà¦ĸ à¦ĩà¦Ń
Ġà¦ĸ à¦¸à¦Ľ
Ġà¦ĸ à¦¬à¦°à¦¤
Ġà¦ĸ à¦·à¦ĸ
Ġà¦ĸ à¦¨à¦ķà¦ķ
âĢĶ #
âĢĶ '
âĢĶ /
à§ľ à¦ĵ
à§ľ à¦¨à¦ĵ
à§ľ à¦²à¦¨
à§ľ à¦§à¦°
à§ľ à¦²à¦¦
à¦°à¦¤ à¦¹
à¦°à¦¤ à¦°à¦ķ
à¦°à¦¤ à¦¨à¦¬
à¦°à¦¤ à¦Ńà¦Ļ
Ġà¦ħà¦¨ à¦ªà¦¤
Ġà¦ħà¦¨ à¦¬à¦¹
Ġà¦ħà¦¨ à¦®à¦¨à¦¸
Ġà¦ħà¦¨ à¦¬à¦Ĺ
à¦¾à¥¤ "
à¦¾à¥¤ âĢĶâĢĻ
à¦¾à¥¤ âĢ¦âĢĻ
Ġà¦§ à¦·
Ġà¦§ à¦¨à¦¸
Ġà¦§ à¦¨à¦°
Ġà¦§ à¦ĩà§Ł
Ġà¦§ à¦²à¦Ń
Ġà¦§ à§ľà¦ķ
Ġà¦§ à¤¡
Ġà¦¹à¦¯ à¦¬à¦°à¦²
ĠâĢ ĭ
ĠâĢ ĤĊ
Ġà¦ªà¦° à¦®à¦¨
Ġà¦ªà¦° à¦ķà¦²
Ġà¦ªà¦° à¦®à¦°
Ġà¦ªà¦° à¦®à¦Ĺ
Ġà¦ªà¦° à¦¶à¦®
Ġà¦ªà¦° à¦¬à¦Ł
Ġà¦ªà¦° à¦¥à¦®
à¦¾, "
à¦¾, âĢĶâĢĻ
à¦ĸà¦¨ à¦²
à¦ĸà¦¨ à¦¦
à¦ĸà¦¨ à¦ĩ
à¦ĸà¦¨ à¦¶
à¦ĸà¦¨ à¦ĸ
à¦ĸà¦¨ à¦®à¦¯
Ġà¦¸à¦® à¦¬à¦¨
Ġà¦¸à¦® à¦ı
Ġà¦ĺ à¦¨à¦¨
Ġà¦ĺ à§°
Ġà¦ĺ à¦¨à¦¦
Ġà¦ĺ à¦¨à¦¸
Ġà¦ĺ à¦¨à¦°
Ġà¦ĺ à¦·à¦¬
Ġà¦ĺ à¦¨à¦¬à¦¸
à¦¬à¦¨ à¦Ľ
à¦¬à¦¨ à¦¬à¦¨
à¦¬à¦¨ à¦ªà¦°
à¦¬à¦¨ à¦ĺ
à¦¬à¦¨ à¦¸à¦¨
à¦¬à¦¨ à¦¸à¦®
à¦¬à¦¨ à¦¸à¦¤
à¦¬à¦¨ à¦ľà¦²
à¦¬à¦¨ à¦ľà¦¯
à¦¬à¦¨ à¦²à¦Ĺ
à¦¬à¦¨ à¦²à¦¯
à¦¬à¦¨ à¦¸à¦¹
à¦¬à¦¨ à¦°à¦Ļ
à¦¬à¦¨ à¦ľà§Ł
à¦¬à¦¨ à¦ľà¦Ļ
à¦¬à¦¨ à¦ĺà¦£
à¦¬à¦¨ à¦¸à¦ŀ
à¦¬à¦¨ à¦ľà¦¨à¦®
âĢĻ (
âĢĻ âĢĻ
âĢĻ âĢ¦âĢĿ
âĢĻ âĢĻâĢĶ
à¦¼à¦¿ à¦ģ
à¦¼à¦¿ âĢĶâĢľ
à¦¼à¦¿ âĢĻ,
à¦¼à¦¿ ,âĢĿ
à¦¼à¦¿ )à¥¤
à¦¼à¦¿ âĢĶâĢĻ
Ġà¦®à¦¨ à¦·
Ġà¦®à¦¨ à¦¡
Ġà¦®à¦¨ à¦®à¦¨
Ġà¦®à¦¨ à¦¨à¦ĩ
Ġà¦®à¦¨ à¦¨à¦Ĺà¦łà¦¨
à¦®à¦¨ à¦¯
à¦®à¦¨ à¦¬
à¦®à¦¨ à¦¶
à¦®à¦¨ à¦ļ
à¦®à¦¨ à¦¬à¦¤
à¦®à¦¨ à¦¬à¦¦
à¦®à¦¨ à¦ªà¦Ł
à¦ªà¦° à¦Ł
à¦ªà¦° à¦¥
à¦ªà¦° à¦ľà¦¨
à¦ªà¦° à¦¶à¦¨
à¦ªà¦° à¦®à¦ª
à¦ªà¦° à¦®à¦²à¦¤
à¦ªà¦° à¦¬à¦¶à¦¤
à¦°à¦£ à¦²
à¦°à¦£ à¦§
à¦°à¦£ à¦ħ
à¦°à¦£ à¦¸à¦®
à¦°à¦£ à¦®à§Ł
à¦°à¦£ à¦ķà¦ķ
à¦°à¦£ à§Łà¦¬
à¦¿à¥¤ âĢĻ,
à¦¿à¥¤ âĢ¦âĢĻ
à¦¿à¥¤ ï»¿
à¦Ŀ à¦Ĺ
à¦Ŀ à¦Ń
à¦Ŀ à¦Ĺà¦²
à¦Ŀ à¦¨à¦ķ
à¦Ŀ à¦®à¦Ŀà¦®
Ġà¦ıà¦ĩ à¦²
Ġà¦ıà¦ĩ à¦ķà¦¥
à¦ŀ à¦²
à¦ŀ à¦¯
à¦ŀ à¦®
à¦ŀ à¦Ł
à¦ŀ à¦¹
à¦ŀ à¦¬à¦¨
à§İ à¦ĸ
à§İ à¦ĵ
à§İ à§ľ
à§İ à¦®à¦¨
à§İ à¦¸à¦¬à¦ķ
à§İ à¦Ľà¦Ł
à§İ à¦Ńà¦ķ
à¦ī à¦Ń
à¦ī à¦ī
à¦ī à¦Ĩ
à¦ī à¦¸à¦¬
à¦ī à¦¦à¦°
à¦ī à¦¸à¦°
à¦ī à¦¬à¦ķ
à¦ī à¦ĩà¦ķ
à¦ī à¦ľà¦°
à¦ī à¦ªà¦¡
à¦ī à¦²à¦¸
à¦ī à¦¸à¦Ł
à¦ī à¦¦à¦Ĺ
à¦ī à¦łà¦¨
à¦ī à¦¦à¦ķ
à¦ī à¦¬à¦Ł
à¦ī à¦īà¦¬
à¦ī à¦®à¦ĵ
à¦ī à§ľà¦¤
à¦ī à¦Ŀà¦¡
à¦ī à¦¶à¦¨à¦ĵ
à¦¿, ,
à¦¿, âĢĵ
à¦ľà¦¨ à¦ķà¦²
à¦ľà¦¨ à¦ķà¦°
à¦ľà¦¨ à¦®à¦¯
à¦ľà¦¨ à¦ªà¦¥
à¦ľà¦¨ à¦®à§Ł
à¦ľà¦¨ à¦Ńà¦°
à¦ľà¦¨ à¦ķà¦ĩ
à¦ľà¦¨ à¦¸à¦ļ
à¦« à¦¬
à¦« à¦§
à¦« à¦¹
à¦« à¦°à¦ĩ
à¦« à¦Łà¦°
à¦« à¦Łà¦ª
à¦« à¦Łà¦Ł
à¦°à¦¬ à¦Ł
à¦°à¦¬ à¦Ļ
à¦°à¦¬ à¦¸à¦¨
à¦°à¦¬ à¦¹à¦¨
à¦°à¦¬ à¦£à¦¬
à¦°à¦¬ à¦¶à¦¶
à¦°à¦¬ à¦²à¦¤à¦®
à¦¤à¦° à¦¯à¦¨
à¦¤à¦° à¦¸à¦®
à¦¤à¦° à¦¶à¦¬
à¦¤à¦° à¦®à¦£
à¦¤à¦° à¦ĺà¦°
à¦¤à¦° à¦®à¦ľ
à¦¤à¦° à¦®à¦¹à¦²
à¦ªà¦¨ à¦¶
à¦ªà¦¨ à¦§
à¦ªà¦¨ à¦¸à¦°à¦ķ
à¦ı à§Ł
à¦ı à¦£
à¦ı à¦¤à¦°
à¦ı à¦·à¦£
à¦ı à¦¤à¦¨
à¦ı à¦²à¦ķ
à¦ı à¦²à¦¬
à¦ı à¦®à¦¬
à¦ı à¦®à¦¦
à¦ı à¦®à¦ª
à¦ı à¦¨à¦ª
à¦ı à¦®à¦Ń
à¦ı à¦¤à¦¬à¦¡
Ġà¦Ĩà¦² à¦ĵà¦¯
Ġà¦Ĩà¦² à¦°à¦¶
Ġà¦Ĩà¦² à¦Ĺà¦°
Ġà¦Ĩà¦² à¤®
Ġà¦¸à¦¬ à¦ĵ
Ġà¦¸à¦¬ à¦Ń
Ġà¦¸à¦¬ à¦ľà¦¨
Ġà¦¸à¦¬ à¦ļà¦¯
Ġà¦¸à¦¬ à¦°à¦Ļ
Ġà¦¸à¦¬ à¦§à¦°à¦¨
à¦¬à¦° à¦¯
à¦¬à¦° à¦¶à¦¨
à¦¬à¦° à¦®à¦£
à¦¬à¦° à¦¦à¦²
à¦¬à¦° à¦¸à¦Ļ
à¦¬à¦° à¦ķà¦£
à¦¬à¦° à¦Ńà¦Ļ
à¦°à¦ķ à¦Ĺ
à¦°à¦ķ à¦°à¦¦
à¦°à¦ķ à¦¤à¦ķ
à¦°à¦ķ à¦Łà¦°
à¦°à¦ķ à¦¨à¦¡
Ġà¦¬à¦²à¦² à¦¨
Ġà¦Ĩà¦¸ à¦°à¦ĩ
Ġà¦Ĩà¦¸ à¦Ĺà¦°
Ġà¦Ĩà¦¸ à¦°à¦Ĺ
Ġà¦Ĩà¦¸ à¦¨à¦ª
Ġà¦Ł à¦¦
Ġà¦Ł à¦«
Ġà¦Ł à¦ķà¦°
Ġà¦Ł à¦Ĺà¦²
Ġà¦Ł à¦²à¦¬
Ġà¦Ł à¦Łà¦ķ
Ġà¦Ł à¦²à¦²
Ġà¦Ł à¦ªà¦Ł
Ġà¦Ł à¦²à¦¸
Ġà¦Ł à¦ķà¦¦
Ġà¦Ł à¦ķà¦¸
âĢĿ )
à¦Ĩ à¦£
à¦Ĩ à¦ĵ
à¦Ĩ à¦°à¦¸
à¦Ĩ à¦¦à¦¨
à¦Ĩ à¦Ĺà¦²
à¦Ĩ à¦ĵà§Ł
à¦Ĩ à¦¨à¦¬
à¦Ĩ à¦°à¦¦
à¦Ĩ à¦°à¦ª
à¦Ĩ à¦¦à¦²
à¦Ĩ à¦¨à¦²
à¦Ĩ à¦¨à¦¸
à¦Ĩ à¦ªà¦¸
à¦Ĩ à¦§à¦°
à¦Ĩ à¦¬à¦¶
à¦Ĩ à¦ĩà¦¬
à¦Ĩ à¦Ĺà¦®
à¦Ĩ à¦Ŀà¦°
à¦Ĩ à¦°à¦¬à¦°
à¦Ĩ à¦¬à¦°à¦£
à¦Ĩ à¦¦à¦¤
à¦Ĩ à¦ĩà¦¦
à¦Ĩ à¦ªà¦¶
à¦Ĩ à¦«à¦Ł
à¦Ĩ à¦ıà¦²
à¦Ĩ à¦ĸà¦¡
à¦Ĩ à§ľà¦®
à¦Ĩ à¦¬à¦¹à¦®
Ġà¦ķà¦¥ à¦ª
Ġà¦ķà¦¥ à¦®à¦¸
ĠâĢĺ à§Į
ĠâĢĺ âĢĵ
ĠâĢĺ à§ĭâĢĻà¥¤
à§Į à¦ĥ
à§Į âĢ¦.
Ġà¦®à¦¤ à¦¸
Ġà¦®à¦¤ à¦ĵ
Ġà¦Ĩà¦Ľ à¦ĩ
Ġà¦¡ à¦®
Ġà¦¡ à¦¸
Ġà¦¡ à¦ª
Ġà¦¡ à¦²à¦¤
Ġà¦¡ à¦¹à¦°
Ġà¦¡ à¦°à¦ª
Ġà¦¡ à¦¬à¦ķ
Ġà¦¡ à¦Łà¦Ĺ
Ġà¦¹à¦² à¦¸
Ġà¦¹à¦² à¦ĸ
Ġà¦¹à¦² à¦ĵà¦¯
Ġà¦¹à¦² à¦®à¦¸
Ġà¦¹à¦² à¦ĺà¦°à¦Ł
Ġà¦īà¦ł à¦¯
à¦ĺ à¦ł
à¦ĺ à¦¬à¦¨
à¦ĺ à¦®à¦¨
à¦ĺ à¦°à¦¨
à¦ĺ à¦²à¦¤
à¦ĺ à¦®à¦²
à¦ĺ à¦°à¦ĵ
à¦ĺ à¦ļà¦°
à¦ĺ à¦¶à¦ķ
à¦ĺ à¦¸à¦Ļ
à¦ĺ à¦°à¦Ľ
à¦ĺ à¦ķà¦¨
à¦ĺ à¦Łà¦¬
à¦ĺ à¦®à¦Ĺ
à¦ĺ à¦Łà¦Ľ
à¦ĺ à¦¨à¦¶
à¦ĺ à¦¦à¦¶
à¦ĺ à¦°à¦¸à¦¹
à¦ĺ à¦²à¦Ĺà¦¡
ĠâĢľ #
Ġà¦ĩ à¦ı
Ġà¦ĩ à¦¬à¦°
Ġà¦ĩ à¦Ĩ
Ġà¦ĩ à¦¬à¦²
Ġà¦ĩ à¦¤à¦¨
Ġà¦ĩ à¦¦à¦²
Ġà¦ĩ à¦ľà¦¤
Ġà¦ĩ à¦ķà¦¥
Ġà¦ĩ à¦¡à¦²
Ġà¦ĩ à¦ıà¦Ł
Ġà¦ĩ à¦īà¦²
Ġà¦ĩ à¦Łà¦Ł
Ġà¦ĩ à¦®à¦ªà¦°
Ġà¦ĩ à¦Ńà¦²
Ġà¦ľà¦¨ à¦ĵ
Ġà¦ľà¦¨ à¦®à¦¦
Ġà¦ľà¦¨ à¦¸à¦¨à¦ķ
Ġà¦Ŀ à¦¸
Ġà¦Ŀ à¦ĩ
Ġà¦Ŀ à¦¬à¦°
Ġà¦Ŀ à¦°à¦¯
Ġà¦Ŀ à¦ªà¦¡
Ġà¦Ŀ à¦ķà¦¡
à§Ī âĢĶ
Ġà¦¹à¦¬ à¦ĩ
Ġà¦§à¦° à¦ª
Ġà¦§à¦° à¦ļ
Ġà¦§à¦° à¦¨à¦ķ
à¦¬à¦² à¦§
à¦¬à¦² à¦¬à¦¨
à¦¬à¦² à¦¬à§İ
à§ģà¦ģ à¦ĥà¥¤
à§ģà¦ģ !âĢĻ
âĢĵ à¥¤âĢĻ
Ġà¦ħà¦¬ à¦Ń
Ġà¦ħà¦¬ à¦®à¦¨
Ġà¦ł à¦ĩ
Ġà¦ł à¦ķà¦²
Ġà¦¹à§Ł à¦Ľ
à¦¬à¦ª à¦¥
à¦¬à¦ª à¦ŀ
à¦·à¦£ à¦ļ
à¦·à¦£ à¦ķà¦°
à¦·à¦£ à¦¸à¦®
à¦·à¦£ à¦¤à¦¤
à¦·à¦£ à¦¶à¦ķ
à¦·à¦£ à¦Ĺà¦£
à¦·à¦£ à¦Ńà¦Ļ
Ġà¦ıà¦¸ à¦¸
Ġà¦ıà¦¸ à¦®à§Ł
Ġà¦ıà¦¸ à¦ıà¦¸
Ġà¦ıà¦¸ à¦ĵà¦ıà¦¸
Ġà¦ļà¦² à¦¸
Ġà¦ļà¦² à¦Ł
à¦°à¦® à¦ļ
à¦°à¦® à¦ªà¦°
à¦°à¦® à¦°à¦ķ
à¦°à¦® à¦ķà¦²
à¦°à¦® à¦®à¦¯
à¦°à¦® à¦ªà¦¦
à¦°à¦® à¦¹à¦²
à¦°à¦® à¦Ĺà¦¨
à¦°à¦® à¦°à¦Ł
à¦°à¦® à¦¶à¦ķ
à¦°à¦® à¦®à§Ł
à¦°à¦® à¦Ŀà¦®
à¦ĥ à¥¤âĢĻ
à¦ĥ ..
Ġà¦¬à¦¸ à¦ķ
Ġà¦¬à¦¨ à¦Ľ
Ġà¦¬à¦¨ à¦§
Ġà¦¬à¦¨ à¦ĵ
Ġà¦¬à¦¨ à¦ĺ
Ġà¦¬à¦¨ à¦ķà¦°
Ġà¦¬à¦¨ à¦®à¦°
Ġà¦¢ à¦²à¦ķ
Ġà¦¢ à¦²à¦¬
Ġà¦¢ à¦²à¦ª
à§ĭà¦ģ à¥¤
à§ĭà¦ģ à¦Ĥ
à§ĭà¦ģ à¥¤âĢĿ
à§ĭà¦ģ !âĢĿ
à§ĭà¦ģ âĢĻà¥¤
Ġà¦Ĩà¦ľ à¦¤
Ġà¦Ĩà¦ľ à¦Ł
Ġà¦Ĩà¦ľ à¦¹
Ġà¦Ĩà¦ľ à¦®à¦Ĺ
Ġà¦Ĩà¦¬ à¦ľ
Ġà¦Ĩà¦¬ à§°
Ġà¦Ĩà¦¬ à¦¹à¦ķ
Ġà¦Ĩà¦Ĺ à¦¬
à¦ķà¦² à¦ª
à¦ķà¦² à¦¸à¦¨
à¦ķà¦² à¦¨à¦Ł
à¦ķà¦² à¦Ńà¦Ļ
Ġà¦ªà¦¥ à¦¬
Ġà¦ªà¦¥ à¦¸
Ġà¦ªà¦¥ à¦¦
Ġà¦ªà¦¥ à¦Ľ
Ġà¦ªà¦¥ à¦ļà¦ķ
Ġà¦ªà¦¥ à¦®à¦§
Ġà¦ªà¦¥ à¦¸à¦Ń
Ġà¦¨à¦¤ à¦¸
Ġà¦¨à¦¤ à¦Ń
Ġà¦ħà¦¸ à¦²
Ġà¦ħà¦¸ à¦¸
Ġà¦ĵà¦ł à¦¨
Ġà¦Ĺà¦² à¦Ł
Ġà¦Ĺà¦² à¦ª
Ġà¦Ĺà¦² à¦ĺ
à¦¤à¦¨ à¦ªà¦¨
à¦¤à¦¨ à¦ħ
à¦¤à¦¨ à¦®à¦£
à§ĩà¦ģ âĢĶ
à§ĩà¦ģ âĢĻ
à§ĩà¦ģ à§Į
à§ĩà¦ģ âĢĵ
à¦ķà¦Ł à¦¬
à¦ķà¦Ł à¦¦
à¦ķà¦Ł à¦Ł
à¦ķà¦° à¦¥
à¦ķà¦° à¦ŀ
à¦ķà¦° à¦ļà¦°à¦£
à¦ħ à§Ł
à¦ħ à¦¤à¦°
à¦ħ à¦¨à¦¤
à¦ħ à¦¤à¦¨
à¦ħ à¦°à¦¥
à¦ħ à¦°à¦¨
à¦ħ à¦Ĺà¦¤
à¦ħ à¦¹à¦°
à¦ħ à¦¸à¦¨
à¦ħ à¦Ńà¦¬
à¦ħ à¦¬à¦¦
à¦ħ à¦¸à¦²
à¦ħ à¦¬à¦¯
à¦ħ à¦ľà¦®
à¦ħ à¦¤à¦Ł
à¦ħ à¦°à¦°
à¦ħ à¦¬à¦§
à¦ħ à¦ĩà¦¸
à¦ħ à¦ľà¦ª
à¦ħ à¦¸à¦®à§Ł
à¦ħ à¦ªà¦¶
à¦ħ à¦«à¦¸
à¦ħ à¦¬à§Łà¦¬
à¦ħ à¦ħà¦£
à¦ħ à¦¸à¦«à¦²à¦¤
à§ĩ? ,
à§ĩ? âĢľ
à¦¸à¦¬ à¦¤
à¦¸à¦¬ à¦¥
à¦¸à¦¬ à¦ĵ
à§ĭà¥¤ âĢĶ
à§ĭà¥¤ à¥¤âĢĻ
Ġà¦¤à¦¬ à§İ
à¦°à¦¥ à¦¯
à¦°à¦¥ à¦ĩ
Ġà¦ħà¦® à§ľ
Ġà¦ħà¦® à¦°à¦£
Ġà¦ħà¦® à¦°à¦¬
Ġà¦ħà¦® à¦°à¦²
Ġà¦ħà¦® à¦°à¦Ĺà¦£
à¦²à¦ķ à¦ĵ
à¦²à¦ķ à¦¹à¦²
à¦²à¦ķ à¦¸à¦®
à¦¬à¦¤ à¦Ĺ
à¦¬à¦¤ à¦ķà¦¨
à¦°à¦¨ à¦¨
à¦°à¦¨ à¦¦
à¦°à¦¨ à¦Ĺ
à¦°à¦¨ à¦°à¦ķ
à¦°à¦¨ à¦Łà¦¦
Ġà¦Ĩà¦¨ à¦¡
Ġà¦Ĩà¦¨ à¦ĩà¦īà¦ľ
Ġà¦¸à¦¤ à§İ
Ġà¦Ĩà¦ķ à¦¶
Ġà¦Ĩà¦ķ à¦¡
Ġà¦Ĩà¦ķ à¦Ļ
à¦¾- ,
à¦¾- âĢĺ
à¦°à¦¸ à¦Ł
à¦°à¦¸ à¦«
à¦°à¦¸ à¦¬à¦°
à¦°à¦¸ à¦ĺ
à¦¤à¦¬ à¦Ĺ
à¦¤à¦¬ à¦§
à¦¤à¦¬ à¦ļ
à¦¤à¦¬ à¦¦à¦¨
à¦¤à¦¬ à¦ķà¦¬
à¦¤à¦¬ à¦¸à¦¨
à¦¤à¦¬ à¦¹à¦¨
Ġà¦ħà¦° à¦²
Ġà¦ıà¦² à¦Ń
Ġà¦Ĩà¦¶ à¦²
Ġà¦Ĩà¦¶ à¦®
Ġà¦Ĩà¦¶ à¦ĩ
Ġà¦Ĩà¦ªà¦¨ à¦ľà¦¨à¦ķ
Ġà¦īà¦¦ à¦Ļ
Ġà¦īà¦¦ à§Łà¦®
Ġà¦īà¦¦ à§Łà¦Ĺ
Ġà¦īà¦¦ à§Łà¦ķ
à¦¾à¦Ĥ !
à¦¾à¦Ĥ /
à¦¾à¦Ĥ ?
à¦¾à¦Ĥ âĢĿ
à¦¾à¦Ĥ âĢĻà¥¤
Ġà¦¹à¦¤ à¦¦
à¦ķà¦¤ à¦Ĺ
à¦ķà¦¤ à¦ľà¦¨
à¦ķà¦¤ à¦ķà¦Ĺ
à¦ķà¦¤ à¦¶à¦¤
à¦°à¦¥à¦® à¦ķ
à¦¦à¦¨ à¦°
à¦¦à¦¨ à¦ĸ
à¦¦à¦¨ à¦¬à¦¨
Ġà¦¬à¦° à¦°
à¦¨à¦ĵ à¦¶
Ġà¦ĺà¦° à¦ļ
Ġà¦ĺà¦° à§İ
à¦¿à¦Ĥ :
à¦¿à¦Ĥ ;
à¦¿à¦Ĥ à¥¤âĢĿ
à¦¿à¦Ĥ âĢĶâĢľ
à¦¿à¦Ĥ âĢ¦âĢĿ
à¦¿à¦Ĥ ),
à§ĩâĢĶ "
à§ĩâĢĶ '
à¦¯à¦¬ à¦¸à¦°
à¦¦à¦° à¦ĵ
à¦¦à¦° à¦ĵà¦¯
à¦¦à¦° à¦¦à¦°
à¦¦à¦° à¦¦à¦¸
à¦Ĺà¦² à¦ĸ
à¦Ĺà¦² à¦§
à¦Ĺà¦² à¦ĺ
à¦Ĺà¦² à¦ķà¦²
à¦Ĺà¦² à¦ĺà¦°
à¦Ĺà¦² à¦Ĺà¦£
Ġà¦ľà¦² à¦¤à¦°
Ġà¦ľà¦² à¦®à¦¯
Ġà¦ľà¦² à¦ļà¦²
Ġà¦ľà¦² à¦ªà¦¦
Ġà¦ľà¦² à¦¸à¦Ļ
Ġà¦ľà¦² à¦ªà¦Ł
Ġà¦ľà¦² à¦ªà¦¡
Ġà¦ľà¦² à¦ľà¦®
Ġà¦ľà¦² à¦Ŀà¦°
Ġà¦ľà¦² à¦Ľà¦¤
Ġà¦¸à¦¨ à¦¨
Ġà¦¸à¦¨ à§İ
Ġà¦¸à¦¨ à§İà¦ķ
Ġà¦°à¦ķ à¦ª
à¦Ĩà¦® à¦¤
à¦Ĩà¦® à¦¬
à¦Ĩà¦® à¦²à¦ķ
Ġà¦ķà¦ĸà¦¨ à¦ħ
Ġà¦¸à¦° à¦ļ
Ġà¦¸à¦° à¦¹
Ġà¦¸à¦° à¦¹à¦¸
Ġà¦¸à¦° à¦²à¦¸
Ġà¦¸à¦° à¦²à¦Ĺ
Ġà¦¸à¦° à¦«à¦°
Ġà¦®à¦¹ à§İà¦¸
Ġà¦ħà¦¤ à¦ªà¦°
à¦Ĺà¦¤ à¦¯
à¦Ĺà¦¤ à¦ľ
à¦Ĺà¦¤ à¦ķà¦£
à¦²à¦¤ à¦¤
à¦°à¦¹ à¦²
à¦°à¦¹ à¦ľ
à¦°à¦¹ à¦°à¦¬
à¦°à¦¹ à¦°à¦¨
à¦°à¦¹ à¦°à¦ľ
à¦°à¦¹ à¦®à¦¯
à¦°à¦¹ à¦®à¦£
à¦°à¦¹ à¦¨à¦¯
à¦°à¦¹ à¦ľà¦¨à¦ķ
à¦°à¦¹ or
à¦°à¦¹ à¦īà¦ªà¦Ĺ
à¦§à¦ķ à¦ĩ
Ġà¦ıà¦®à¦¨ à¦¸à¦¬
à¦®à¦¤ à¦¸
à¦ĸà¦¤ à¦®
Ġà¦ķà¦¬ à¦°à¦¬
Ġà¦ķà¦¬ à¦·à¦ķ
Ġà¦ķà¦¬ à¦ļà¦ķ
Ġà¦īà¦ª à¦ļà¦°
Ġà¦īà¦ª à¦¹à¦¤
à¦Ľà¦¨ à¦ª
à¦°à¦ľ à¦Ł
à¦°à¦ľ à¦¬à¦²
à¦¨à¦¬ à¦Ń
à¦¨à¦¬ à¦¦à¦²
à¦¨à¦¬ à¦¹à¦¨
à¦¨à¦¬ à¦¸à¦¹
à¦¨à¦¬ à¦ķà¦£
à¦¨à¦¬ à§Łà¦¸
à¦¨à¦¬ à¦Ĺà¦łà¦¨
à¦¨à¦¬ à¦Ĺà¦ł
à¦¨à¦¬ à¦®à¦¨à¦ķ
à¦°à¦¶ à¦ª
à¦ĸà¦² à¦¬à¦¦
à¦¯à¦ķ à¦ĵ
à¦¯à¦ķ à¦ªà¦°
à¦¯à¦ķ à¦°à¦£à¦¬
à¦°à¦² à¦·
à¦°à¦² à¦Ń
à¦°à¦² à¦ĺ
à¦°à¦² à¦²à¦¨
Ġà¦ķà¦² à¦²
Ġà¦ķà¦² à¦¯
Ġà¦ķà¦² à¦¬à¦°
Ġà¦ķà¦² à¦¬à¦¤
Ġà¦ķà¦² à¦®à¦²
Ġà¦ķà¦² à¦®à¦¬
Ġà¦ķà¦² à¦®à¦§
Ġà¦ķà¦² à¦ıà¦²
à¦²à¦¬ à¦®
à¦²à¦¬ à¦ĩ
à¦²à¦¨ à¦°
à¦²à¦¨ à¦¯
à¦²à¦¨ à¦Ń
à¦²à¦¨ à¦ķà¦²
à¦²à¦¨ à¦¸à¦®
à¦²à¦¨ à¦ķà¦¥
à¦²à¦¨ à¦®à¦ŀ
à¦²à¦¨ à¦°à¦¹à¦¸
à¦²à¦¨ à¦«à¦ķ
à¦§à¦¨ à¦ľ
à¦§à¦¨ à¦°à¦¤
à¦§à¦¨ à¦ªà¦Ł
à¦ļà¦¨ à¦ĩ
à¦®à¦ķ à¦¨
à¦®à¦ķ à¦¦
à¦®à¦ķ à§°
à¦ĩà¦² à¦ļ
à¦ĩà¦² à¦ªà¦¥
à¦¯à¦¤ à¦¸
à¦¯à¦¤ à¦¸à¦¬
à¦°à¦¦ à§Łà¦ķ
Ġà¦ħà¦ª à¦ľ
Ġà¦ħà¦ª à¦Ĺ
Ġà¦ħà¦ª à¦¥
Ġà¦ħà¦ª à¦Ĺà¦¤
Ġà¦ħà¦ª à¦ļà¦¨
à¦®à¦² à¦¸
à¦®à¦² à¦ª
à¦®à¦² à¦ļà¦¨
à¦¶à¦¨ à¦°
à¦¶à¦¨ à¦¦
à¦¶à¦¨ à¦¡
à¦¶à¦¨ à¦®à¦¯
à¦¶à¦¨ à¦Ĺà¦°
Ġà¦Ĩà¦¤ à¦ĸ
à¦°à¦ĩ à¦¨
à¦°à¦ĩ à¦¤
à¦°à¦ĩ à¦Ń
à¦¿à¦ĥ -
à¦¿à¦ĥ âĢĻà¥¤
Ġà¦¸à¦¹ à¦ļ
Ġà¦¸à¦¹ à¦®à¦¨
Ġà¦¸à¦¹ à¦¶à¦¬
Ġà¦¸à¦¹ à¦ħà¦¸
âĢ¦ ,âĢĿ
âĢ¦ !âĢĻ
à¦¹à¦° à¦ĵ
à¦¹à¦° à¦«
à¦¹à¦° à¦ı
à¦ªà¦¤ à¦¯
à¦ļà¦² à¦ª
à¦ļà¦² à¦¹
à¦ļà¦² à¦°à¦¤
à¦ļà¦² à¦¨à¦ĵ
à¦ļà¦² à¦¸à¦®
Ġà¦ķà¦£ à¦¤
Ġà¦ĵà¦° à¦Ł
Ġà¦ħà¦§ à§°
à¦ķà¦¬ à¦¸
à¦ķà¦¬ à¦¹
à¦ķà¦¬ à¦¸à¦¨
Ġà¦īà¦¤ à¦®
à¦°à¦¯ à¦ļ
Ġà¦¶à¦ķ à¦¡
Ġà¦¶à¦ķ à¦ļ
à¦ªà¦¦ à¦¦
à¦ªà¦¦ à¦Ń
à¦ªà¦¦ à¦®à¦¯
à¦ªà¦¦ à¦¸à¦Ń
à¦¸à¦¨ à¦°
à¦¸à¦¨ à¦²
à¦¸à¦¨ à¦®
à¦¸à¦¨ à¦¶
à¦¸à¦¨ à¦ĸ
à¦¸à¦¨ à§İà¦ķ
à¦¸à¦¨ à¦¦à¦£
Ġà¦ķà¦¤ à¦Ń
Ġà¦ķà¦¤ à¦ľà¦¨à¦ķ
Ġà¦ķà¦¤ à¦ľà¦¨à¦ĩ
Ġà¦ĵà¦ªà¦° à¦Ł
Ġà¦ĵà¦ªà¦° à¦Ĩà¦°
Ġà¦ĵà¦ªà¦° à¦ħà¦²
Ġà¦ĵà¦ªà¦° à¦®à¦¹à¦²
à¦¨à¦¨ à¦¨
à¦¨à¦¨ à¦ķ
à¦¨à¦¨ à¦¶
à¦¨à¦¨ à¦Ĺà¦°
à¦ĩà¦¨ à¦¦
à¦ĩà¦¨ à¦¸à¦¹
Ġà¦ıà¦ĸ à¦ĸ
Ġà¦ľà¦® à¦®
à¦¾âĢĶ )
à¦¾âĢĶ ,
à¦¾âĢĶ ?âĢĻ
Ġà¦ħà¦ļ à¦ķ
à¦ıà¦ĩ à¦ļà¦¡
à§Ģ, -
Ġà¦ħà¦ľ à¦¬
Ġà¦ħà¦ľ à¦ªà¦¤
à¦¹à¦² à¦ľà¦¨à¦ķ
à¦¼à§ĭ :
à¦¼à§ĭ ;
à¦¼à§ĭ âĢĿ
à¦¼à§ĭ âĢĻ,
à¦Łà¦ķ à¦ķ
à¦Łà¦ķ à¦¸
à¦Łà¦ķ à¦ª
à¦Łà¦ķ à¦¶
à¦Łà¦ķ à¦£
à¦Łà¦ķ à¦®à¦¯
à¦Łà¦ķ à¦®à¦ŀ
à§İà¦¸ à¦¯
à§İà¦¸ à§°
à§İà¦¸ à¦ķà¦ķ
à§İà¦¸ à¦ķà¦ĩ
Ġà¦ħà¦ķ à¦¶à¦¨
à¦¿? )
à¦¿? -
Ġà¦¬à¦¹ à¦Ľ
Ġà¦¬à¦¹ à¦ļà¦°
Ġà¦īà¦¨ à¦®
Ġà¦īà¦¨ à¦ļà¦²
Ġà¦īà¦¨ à¦¸à¦¤
Ġà¦¨à§Ł à¦¨à¦ļ
Ġà¦°à¦Ļ à¦²
Ġà¦°à¦Ļ à¦¦
Ġà¦°à¦Ļ à¦§
à¦¾? ?
à¦Ńà¦¬ à¦¶à¦ķ
à¦Ńà¦¬ à¦®à§Ł
à¦¦à§Ł à¦ļ
à¦¦à§Ł à¦ľà¦²
à¦¦à§Ł à¦Ńà¦°
à¦Ĺà¦¨ à¦¯
Ġà¦ķà¦® à¦¦
Ġà¦ķà¦® à¦ł
à¦¤à¦² à¦¯
à¦¤à¦² à¦®
à¦¤à¦² à¦ĵ
à¦¤à¦² à¦Ń
à¦¤à¦² à¦ĵà¦¯
Ġà¦¯à¦¤ à¦ľà¦¨
Ġà¦¯à¦¤ à¦¤à¦¤
à¦®à¦° à¦°
à¦®à¦° à¦Ł
à¦®à¦° à¦ļ
à¦®à¦° à¦«
à¦®à¦° à¦Ĺà¦°à¦²
Ġà¦¬à¦ĩ à¦°
Ġà¦¬à¦ĩ à¦¦
Ġà¦¬à¦ĩ à¦ļ
Ġà¦¬à¦ĩ à¦¹
Ġà¦¬à¦ĩ à¦ªà¦Ł
Ġà¦¬à¦ĩ à¦ĺà¦°
Ġà¦¬à¦ĩ à¦Ńà¦°
à¦°à¦ĵ à¦ķ
à¦·à¦¤ à¦ĵ
à¦·à¦¤ à¦Ń
à¦·à¦¤ à¦®à§Ł
à¦·à¦¤ à¦Ńà¦°
à¦¨à¦ķ à¦¦
à¦¨à¦ķ à¦ª
à¦¨à¦ķ à¦¡
à¦¨à¦ķ à¦Ń
Ġà¦ªà¦¦ à¦¶
Ġà¦ªà¦¦ à¦ķà¦°
Ġà¦ªà¦¦ à¦Ĺà¦°
Ġà¦ĵà¦ĩ à¦Ĺ
à¦¬à¦¦ à¦ķ
à¦¬à¦¦ à¦¶
à¦¸à¦® à¦ª
à¦¸à¦® à¦¶
à¦¸à¦® à¦ŀ
Ġà¦¬à¦Ľà¦° à¦¡
Ġà¦¬à¦Ľà¦° à¦Ńà¦°
Ġà¦¸à¦ķ à¦£
Ġà¦īà¦ļ à¦ķ
Ġà¦Ĩà¦°à¦ĵ à¦ĩ
Ġà¦¶à¦° à¦Ĺ
Ġà¦¶à¦° à¦ļ
Ġà¦¶à¦° à¦Ļ
à¦¿à¦ģ !
à¦¿à¦ģ âĢ¦
à¦¶à¦¬ à¦§
à§Ģà¥¤ )
à§Ģà¥¤ à¥¤
âĢľ âĢ¦
à§İà¦ķ à¦·
à§İà¦ķ à¦ļà¦ķ
à¦¤à¦ķ à¦ĩ
à¦¤à¦ķ à¦ĸ
à¦¤à¦ķ à¦·
à¦¤à¦ķ à¦ĵ
à¦¤à¦ķ à¦¸à¦®
Ġà¦®à¦° à¦ª
à¦®à¦£ à¦¶
à¦®à¦£ à¦®à¦£
à¦®à¦£ à¦Ĺà¦£
à¦®à¦£ à¦¸à¦Ń
Ġà¦ħà¦Ĺ à¦®à¦ļ
à¦Ĺà¦° à¦°
à¦Ĺà¦° à¦ĸ
à¦¿âĢĶ à¥¤
à¦¿âĢĶ à¥¤âĢĻ
à¦°à¦ª à¦¯
à¦°à¦ª à¦¸
à¦°à¦ª à¦°à¦¤
à§ģà¦ĥ ,
à§ģà¦ĥ -
Ġà¦Ĺà¦¨ à¦²
à¦·à¦ķ à¦¸à¦®
à¦·à¦ķ à¦¦à¦²
à¦¸à¦° à¦Ļ
à¦¦à¦² à¦°
à¦¦à¦² à¦®
à¦¦à¦² à¦¬à¦²
à¦¦à¦² à¦¹à¦°
à¦¦à¦² à¦®à¦£
à¦¯à¦® à¦¸
à¦¯à¦® à¦¦
à¦¯à¦® à¦ľ
à¦¯à¦® à¦®à¦¯
à¦ªà¦¥ à¦°
à¦ªà¦¥ à¦ľ
à¦ªà¦¥ à¦¶
à¦ªà¦¥ à¦ĺ
à¦ªà¦¥ à¦Ńà¦Ļ
à§įâĢĮ ;
à§įâĢĮ à§įâĢĮ
à§įâĢĮ !âĢĿ
à§įâĢĮ âĢĻ,
à§įâĢĮ âĢĶâĢĻ
à§įâĢĮ âĢ¦à¥¤
à§įâĢĮ âĢ¦âĢĻ
à§įâĢĮ Â·Â·Â·
à§įâĢĮ âĢĮâĢĮ
à¦¤à¦¤ à¦§
à¦¤à¦¤ à¦ªà¦ķ
à¦ıà¦ķ à¦¹
à¦ıà¦ķ à¦¸à¦°
à¦ıà¦ķ à¦ķà¦ķ
à¦ıà¦ķ à¦¸à¦Ł
à¦ıà¦ķ à¦ķà¦Ń
à¦ıà¦ķ à¦ĸà¦£
à¦ıà¦ķ à¦ªà¦²à¦ķ
à¦ıà¦ķ à¦§à¦°à¦¨
à¦ıà¦ķ à¦§à¦°à¦£
à¦¼à§ĩà¥¤ à¥¤
Ġà¦ıà¦° à¦Ł
à§ĩ! .
à§ĩ! âĢĵ
à§ĩ! âĢĻâĢĶ
à§ĩ! âĢĶâĢĻ
à¦¬à¦¸ à¦ĸ
à¦¬à¦¸ à¦¹
à¦¬à¦¸ à¦ķà¦¨
à¦Łà¦² à¦ĩ
à¦Łà¦² à¦ĵ
Ġà¦ħà¦®à¦² à¦¦
Ġà¦ħà¦®à¦² à¦Ń
à¦¤à¦® à¦ĩ
à¦¤à¦® à¦¬à¦°
à¦¤à¦® à¦ªà¦¤
à¦¤à¦® à¦®à¦§
Ġà¦«à¦² à¦Ľ
Ġà¦«à¦² à¦¹
à¦ļà¦ķ à¦¨
à¦ļà¦ķ à¦ĩ
à¦ļà¦ķ à¦Ń
à¦ļà¦ķ à¦Ĺà¦£
Ġà¦ħà¦² à¦Ł
Ġà¦ħà¦² à¦ĸ
Ġà¦ħà¦² à¦Ĺ
à¦¼à§ĩ, -
à¦¼à§ĩ, âĢĶ
à¦¼à§ĩ, âĢĻ
à¦°à¦Ń à¦ª
Ġà¦ħà¦¶ à¦Ļ
Ġà¦Ĳ à¦¬
à¦ªà¦ķ à¦ĩ
à¦ªà¦ķ à¦¤à¦°
Ġà¦ıà¦ķà¦ľà¦¨ à¦¦
§à§ ®
Ġà¦²à¦ķ à¦ķ
Ġà¦²à¦ķ à¦ļ
à¦²à¦² à¦®
à¦®à¦¬ à¦ĸ
à¦®à¦¬ à¦ŀ
à¦®à¦¬ à§İ
à¦®à¦¬ à¦¶à¦¤
à¦®à¦¬ à§İà¦ª
à¦¶à¦ķ à¦®
à¦¶à¦ķ à¦ľà¦¨
ĠĊ Ċ
à¦¨à¦Ł à¦Ł
à¦¸à¦² à¦¸
à¦¸à¦² à¦Ń
à§Łà¦¨ à¦°
à§Łà¦¨ à¦Ĺ
Ġà¦ĩà¦¨ à¦¸à¦²
Ġà¦ĩà¦¨ à¦Ńà¦¯
Ġà¦ĩà¦¨ à¦ıà¦Ń
à¦¸à¦¤ à¦ĵ
à¦°à¦Ľ à¦¡
Ġà¦ıà¦ķà¦¬ à¦¸à¦¨
Ġà¦ıà¦ķà¦¬ à¦ļà¦¨à¦¤
à¦¬à¦ķ à¦®
à¦¬à¦ķ à¦¸
à¦¬à¦ķ à¦®à§Ł
à¦¬à¦ķ à¦¨à¦¸
à¦¬à¦ķ à¦¸à¦Ń
à¦¬à¦ķ à¦¸à¦¦
à§° à¦Ľ
à§° à¦Ĺ
à§° à¦ľà¦¨
à§° à¦Ĺà¦¤
à§° à¦¹à¦°
à§° à¦Ńà¦¬
à§° à¦¹à¦¤
à§° à¦ľà¦¬
à§° à¦²à¦¯
à§° à¦¬à¦ļ
à§° à¦¸à¦¹
à§° à¦¤à¦¹
à§° à¦ĸà¦ļ
à§° à¦ľà¦ĩ
à§° à§Łà¦ĩ
à§° à¦®à¦£à¦ķ
à§° à¦ªà§°
à§ĩ; âĢĻ
à§ĩ; -âĢľ
à¦ľà¦² à¦ĩ
à¦ľà¦² à¦Ĺ
à¦ľà¦² à¦¡
à¦ľà¦² à¦¬à¦¨
à¦ľà¦² à¦²à¦¤
à¦ľà¦² à¦¦à¦¸
à¦ľà¦² à¦Ľà¦¬
Ġà¦ħà¦¬à¦¸ à¦°à¦ĵ
Ġà¦ªà¦¤ à¦¯
Ġà¦ªà¦¤ à¦ªà¦¤
à¦ĩà¦ķ à¦ķ
à¦ĩà¦ķ à¦®
à¦ĩà¦ķ à¦Ĺ
à¦ħà¦¨ à¦°
à¦ħà¦¨ à¦¯
à¦ħà¦¨ à¦¶à¦¨
à¦ħà¦¨ à¦ªà¦¤
!âĢĿ âĢ¦
!âĢĿ âĢĵâĢĵ
à¦ªà¦Ł à¦°
à¦ªà¦Ł à¦®
à¦ªà¦Ł à¦ļ
à§ģà¥¤ )
à§ģà¥¤ -
à§ģà¥¤ âĢĶ
à§ģà¥¤ âĢ¦
à§ģà¥¤ âĢĺ
à¦§à¦¤ à¦ĩ
Ġà¦Ŀà¦° à¦ı
Ġà¦Ĩà¦§ à¦®
Ġà¦Ĩà¦§ à¦¬à¦¯
Ġà¦Ĩà¦§ à¦ªà¦¯
Ġà¦Ĩà¦§ à¦¶à¦¤à¦ķ
à¦¹à¦¨ à¦®
à¦¹à¦¨ à¦ĩ
à¦¹à¦¨ à¦ļà¦¨
Ġà¦¸à¦®à§Ł à¦¤
Ġà¦¸à¦®à§Ł à¦®
Ġà¦¸à¦®à§Ł à¦Ľ
Ġà¦¸à¦®à§Ł à¦Ĺà¦¤
à¦¨à¦¦ à¦ª
Ġà¦°à¦¬ à¦¬
à¦¸à¦« à¦Ł
à¦¸à¦« à¦°à¦Ł
à¦¸à¦« à¦Łà¦ĵà§Ł
à¦®à§Ł à¦ª
à¦®à§Ł à¦®à¦¨à¦¸
à¦¨à¦² à¦ľ
à¦¨à¦² à¦¡
à¦·à¦° à¦«
à¦¬à¦¬ à¦ĩ
à¦¬à¦¬ à¦¹
Ġà¦¶à¦¤ à¦Ľ
Ġà¦¬à¦¦à¦² à¦ª
à¦ķà¦¨ à¦ĩ
à¦ķà¦¨ à¦ĸ
à¦¯à¦¸ à¦ļ
à¦¯à¦¸ à¦¹à¦¸
Ġà¦Ĩà¦¦ à¦²à¦¤
Ġà¦Ĩà¦¦ à¦®à¦ľ
à¦Ĺà¦ľ à¦¦
à¦Ĺà¦ľ à¦¡
à¦Ĺà¦ľ à¦ĵ
à¦Ĺà¦ľ à¦Ń
à¦Ĺà¦ľ à¦ĵà¦¯
à¦Ĺà¦ľ à¦ĸà¦£
à¦Ĺà¦ľ à¦ĵà¦²
à¦¯à¦¦ à¦ķ
Ġ( ?-
à¦īà¦¨ à¦¹
à¦īà¦¨ à¦«
à¦¾! !
à¦¾! âĢĵ
à¦¾! ..
Ġà¦Ĩà¦Ļ à¦¨
Ġà¦Ĩà¦Ļ à¦¡
Ġà¦ħà¦¬à¦¶ à¦¤
à§ĩâĢĵ ,
à§ĩâĢĵ âĢĿ
à§ĩâĢĵ âĢĺ
Ġà¦Ĺà§ľ à¦®
Ġà¦Ĺà§ľ à¦¬à§ľ
à¦ĺà¦° à¦Ļ
à¦¥à¦° à¦ļà¦¨
Ġà¦īà§İ à¦ĸà¦¨à¦¨
à¦¨à¦¸ à¦Ł
à¦¨à¦¸ à¦ľ
à¦¨à¦¸ à¦Ĺà¦¤
à§ĭ? âĢĵ
à¦¨à¦Ĺ à¦¦
à¦¨à¦Ĺ à§ľ
à¦¨à¦Ĺ à¦°à¦®
Ġà¦Ĩà¦¹ à¦ķ
Ġà¦Ĩà¦¹ à¦¹
Ġà¦¨à¦¬ à¦Ł
Ġà¦¨à¦¬ à¦Ń
Ġà¦¨à¦¬ à¦ªà¦°
Ġà¦Ĩà¦¸à¦¬ à¦ĩ
à¦¨à¦° à¦ŀ
à¦¨à¦° à¦ļà¦¨
Ġà¦¤à¦² à¦ĵà¦¯
Ġà¦¦à¦² à¦®à¦²
Ġà¦¦à¦² à¦¦à¦²
Ġà¦¦à¦² à¦Ĺà¦¤à¦Ń
Ġà¦ĸà¦¬à¦° à¦ķ
Ġà¦ķà¦ĸà¦¨à¦ĵ à¦¸à¦ĸà¦¨à¦ĵ
à¦¸à¦ķ à¦ĩ
à¦¸à¦ķ à¦ªà¦ķ
à¦¸à¦ķ à¦Ĺà¦£
à¦¸à¦ķ à¦¸à¦ľ
à¦ªà¦¸ à¦®à¦¨
à¦ªà¦¸ à§°
Ġà¦°à¦ķà¦® à¦¸à¦ķà¦®
à¦Łà¦¬ à¦ĩà¦Ł
à¦Łà¦¬ à¦ĩà¦¤
à¦Łà¦¬ à¦īà¦¦
à¦¼à§ģ !
à¦¬à¦¶ à¦°à¦£à¦¬
Ġà¦Ĩà¦ª à§İà¦¸
Ġà¦Ĩà¦ª à¦§à¦°
Ġà¦ļà¦ķ à¦ķà¦ļ
à¦°à¦ľà¦¨ à¦®
à¦°à¦ľà¦¨ à¦¨à¦ķ
à¦¼à§Ģ âĢĵ
Ġà¦ĺà¦¨ à¦ĩ
Ġà¦ĺà¦¨ à¦ľ
à¦ĩà¦Ł à¦°
à¦ĩà¦Ł à¦¦
à¦ĩà¦Ł à¦ĩ
à¦«à¦² à¦ª
à¦«à¦² à¦Ĺ
Ġà¦īà§İà¦¸ à¦ĵ
Ġà¦īà§İà¦¸ à¦Ń
Ġà¦īà§İà¦¸ à¦¬à¦¨
Ġà¦Ńà§Ł à¦®
Ġà¦Ńà§Ł à¦ħà¦²
Ġà¦¸à¦¹à¦ľ à¦¤à¦®
Ġà¦ıà¦¨ à¦®
Ġà¦ıà¦¨ à¦¡
Ġà¦¬à§Ł à¦·
à§ĭâĢĶ "
à§ĭâĢĶ à¥¤âĢĻ
Ġà¦Ĩà¦Łà¦ķ à¦Ľ
Ġà¦ĭ à¦¯
Ġà¦ĭ à¦¬
Ġà¦ĭ à¦ķà¦¬
Ġà¦ĭ à¦·à¦¯
Ġà¦ĭ à¦£à¦¬
à¦ĩà¦¤ à¦°à¦¬
à¦®à¦¸ à¦¸
Ġà¦¬à¦Ł à¦Ł
Ġà¦¬à¦Ł à¦¨à¦Ł
Ġà¦¬à¦Ł à¦ĩà§Ł
à¦Ĩà¦° à¦«
à¦Ĩà¦ľ à¦¤
à¦Ĩà¦ľ à¦®
à¦°à¦®à¦£ à¦²
à¦°à¦®à¦£ à¦¦
à¦°à¦®à¦£ à¦ľ
à¦°à¦®à¦£ à¦Ĺ
à¦°à¦®à¦£ à¦°à¦¤
à¦°à¦®à¦£ à¦ļà¦°
Ġà¦¬à¦ķ à¦ª
Ġà¦¬à¦ķ à¦ĸ
Ġà¦¬à¦ķ à¦Ĺ
Ġà¦¬à¦ķ à¦§
Ġà¦¬à¦ķ à¦°à¦¬à¦ķà¦°
à¦·à¦® à¦¤à¦°
ĠâĢĵ âĢľ
à¦¾âĢĻ âĢĻ
à¦¾âĢĻ à¥¤âĢĻ
à¦¾âĢĻ ,âĢĿ
à¦¾âĢĻ );
Ġà¦¦à¦° à¦ĵà¦¯
à¦¾; âĢĶ
à¦¾; âĢĵ
à¦¾âĢĵ !
à¦¾âĢĵ âĢĿ
à¦¾âĢĵ âĢĵ
Ġà¦ħà¦« à¦¬
à¦ĩà¦¬ à¦īà¦¯
à¦§à¦¬ à¦Ł
à¦§à¦¬ à¦§
à¦§à¦¬ à¦ļ
à¦§à¦¬ à¦§à¦¬
à¦¦à¦® à¦¦à¦Ĺ
Ġà¦ķà¦¨ à¦¡à¦®
Ġà¦¨à¦ķ à¦¡
à¦ľà¦¬ à¦īà¦®
à¦ľà¦¬ à§İà¦¸à¦²
Ġà¦¦à¦¶ à¦°
Ġà¦¦à¦¶ à¦¶
à¦¼âĢĶ âĢĶ
à¦²à¦¸ à¦¹
Ġà¦ķà¦²à¦ķ à¦ľ
Ġà¦ķà¦²à¦ķ à¦Ļ
à¦¿! -
à¦¿! âĢ¦
à¦ªà¦£ à¦ĸ
à¦²à¦® à¦¶
à¦²à¦® à¦ĸ
Ġà¦¨à¦°à¦® à¦¤à¦°
Ġà¦¨à¦°à¦® à¦¤à¦®
à¦ķà¦¦ à¦«
à¦Ĺà¦® à¦¦
à¦Ĺà¦® à¦ª
à¦Ĺà¦® à§İ
Ġà¦²à¦ľ à¦Ł
à§Ŀ à¦¦
à§Ŀ à¦Ŀ
à§Ŀ à¦¸à¦Ļ
Ġà¦¸à¦¦ à¦¤
Ġà¦īà§İà¦¸à¦¬ à¦¸
Ġà¦īà§İà¦¸à¦¬ à¦®à§Ł
Ġà¦īà§İà¦¸à¦¬ à¦§à¦°
à¦Ĩà¦ªà¦¨ à¦ľà¦¨
à¦®à¦°à¦£ à¦¬
à¦®à¦°à¦£ à¦¬à¦°
âĢĻ, âĢĶ
à¦¼? âĢĶ
à¦¼? âĢĵ
à¦¨à¦ĩ à¦ľ
Ġà¦§à¦¨ à¦®
Ġà¦§à¦¨ à¦¶
à§¨ à§§à§¨à§«
Ġà¦Ĺà¦£ à¦¦
Ġà¦Ĺà¦£ à¦ļ
Ġà¦Ĺà¦£ à¦¤à¦°à¦Ļ
Ġà¦Ĺà¦£ à¦¸à¦ļ
Ġà¦Ĺà¦£ à¦Ńà¦¬à¦¨
à¦ĩà¦Ľ à¦¸
à¦łà¦ķ à¦¶
à¦łà¦ķ à¦¬à¦¨
à¦łà¦ķ à¦ľà¦¨
à¦łà¦ķ à¦¬à¦°
à¦łà¦ķ à¦®à¦£
à¦łà¦ķ à¦Ĺà¦£
Ġà¦ķà¦ª à¦²
à¦°à§Ł à¦ķ
à¦°à§Ł à¦¦
à¦®à¦¹ à¦¬
à¦®à¦¹ à¦¡
à¦®à¦¹ à§İ
à§Ģ? âĢĵ
à¦Ĩà¦² à¦¯
à¦Ĩà¦² à¦Ļ
à¦Ĩà¦² à¦«
à¦Ĩà¦² à¦ªà¦¨
à¦Ĩà¦² à¦¬à¦¤
à¦¹à¦°à¦£ à¦ľ
Ġà¦Ĩà¦¦à¦° à¦ĩ
à¦¾à¦ģ, âĢĻ
à¦ķà¦¥ à¦²
à¦ķà¦¥ à¦¯
à§ĩà¥¤âĢĻ [
à§ĩà¥¤âĢĻ âĢĶ
Ġ: à¥¤
Ġ: âĢĻ
Ġà¦ªà¦°à¦® à¦¦
Ġà¦ªà¦°à¦® à¦²à¦¤
Ġà¦ªà¦°à¦® à¦¬à¦¸
à¦¯à¦ª à¦Łà¦ķ
à¦¿âĢĵ âĢĻ
Ġà¦®à¦£ à¦ĵ
à¦¼à¦Ĥ -
à¦¼à¦Ĥ âĢĶ
Ġà¦¬à¦ī à¦ĩ
Ġà¦¬à¦ī à¦¶
Ġà¦¬à¦ī à¦Ń
Ġà¦¬à¦ī à¦ł
à§ĩâĢ¦ "
à§ĩâĢ¦ âĢ¦âĢ¦.
Ġà¦®à¦¸ à¦ķà¦°
à¦®à¦¶ à¦®
à¦®à¦¶ à¦¤à¦¬à¦°
à¦ļà¦¡ à¦Ĺ
à¦¬à¦ĩ à¦®
à¦¬à¦ĩ à¦Ŀ
à¦¬à¦ĩ à¦ªà§ľ
à¦¬à¦ĩ à¦Ĺà¦£
à¦¬à¦ĩ à¦ľà¦¨à¦ĩ
à¦¬à¦ļ à¦¨à¦¤
à¦ķà¦¶ à¦ĩ
à¦¬à¦Ľ à¦¬
à§ĩ?âĢĻ -
à§ĩ?âĢĻ âĢĻ
Ġà¦¶à¦¹ à¦¦
Ġà¦¶à¦¹ à¦ľ
à¦¦à¦Ĺ à¦ļ
à¦¦à¦Ĺ à¦ŀ
à¦¦à¦Ĺ à¦¦à¦Ĺ
à¦īà¦² à¦ª
à¦īà¦² à¦ĵ
à¦īà¦² à¦«
à¦ķà¦¸ à¦ļ
à¦ķà¦¸ à¦ŀ
à¦ķà¦¸ à¦ı
à¦ķà¦¸ à¦ĩà¦¤
à¦ķà¦Ľ à¦¬
à¦ķà¦Ľ à¦¡
à¦ķà¦Ľ à§ľ
à¦ķà¦°à¦£ à¦Ĺ
à¦ķà¦°à¦£ à¦Ĺà¦¤
à¦®à¦ľ à¦¦
à¦®à¦ľ à§Ł
à¦¿; âĢĵ
Ġà¦®à¦² à¦ļà¦¤
Ġà¦®à¦² à§Łà¦¬
à¦ľà¦ķ à¦®
à¦ľà¦ķ à¦£
à¦®à¦¦ à¦¶
à¦®à¦¦ à¦®à¦¨
à¦°à¦° à¦°
à¦°à¦° à¦«
Ġà¦¦à¦® à¦ª
Ġà¦ķà§Ł à¦¦
Ġà¦ķà§Ł à¦¶
Ġà¦ķà§Ł à¦ĸ
Ġà¦ķà§Ł à¦ķà¦Ł
à¦¶à¦® à¦¹à¦²
à¦ļà¦°à¦£ à¦ĩ
Ġà¦Ĺà¦°à¦® à¦¤
Ġà¦Ĺà¦°à¦® à¦ĵ
Ġà¦Ĺà¦°à¦® à¦®à¦¶à¦²
à¦¤à¦ª à¦¬
à¦¤à¦ª à¦Ļ
Ġà¦Ĺà¦® à¦Ľ
Ġà¦¸à¦°à¦² à¦ĵ
à¦°à¦¬à¦² à¦°
à¦ĩà¦Ń à¦¦
à¦ķà¦ľà¦¨ à¦°
à¦ķà¦ľà¦¨ à¦¨
à¦¥à¦² à¦¬à¦ª
à¦¥à¦² à¦®à¦£
Ġà¦®à¦¶ à¦¹
à¦®à¦ª à¦«
à¦Łà¦Ľ à§ľ
Ġà¦°à¦¸ à¦Ń
Ġà¦°à¦¸ à¦ķà¦²
Ġà¦°à¦¸ à¦ķà¦°
Ġà¦°à¦¸ à¦¸à¦¨
Ġà¦°à¦¸ à¦Ńà¦Ļ
à¦·à§Ł à¦ĵ
à¦Łà¦ª à¦²
à¦ĩà¦¡ à¦ķ
à¦ĩà¦¡ à¦ª
à¦ĩà¦¡ à¦¶
à¦ĩà¦¡ à¦ĵ
à¦ĩà¦¡ à¦¬à¦ĩ
à¦¬à¦¹ à¦ķ
à¦¬à¦¹ à¦¬
à¦¸à¦¹ à¦®
à¦¸à¦¹ à¦§à¦°
à¦ªà¦² à¦ľ
à¦ķà§ľ à¦¬
à¦ķà§ľ à¦¦
Ġà¦ľà§Ł à¦°
Ġà¦ľà§Ł à¦ļ
à¦¬à¦Ń à¦¬à¦¨
à¦Ľà¦² à¦ĩ
à¦Ľà¦² à¦Ń
Ġà¦Ĩà§ľ à¦²
Ġà§¨ à§§à§«
à¦·à¦¦ à¦¦
à¦·à¦¦ à¦¶
à¦·à¦¦ à¦ĵ
à§ĭ! )
à§ĭ! âĢĻâĢĶ
à¦ªà¦® à¦²à¦¤
à¦ļà¦Ł à¦ľà¦²à¦¦
à¦¨à¦¶ à¦¤
à¦¨à¦¶ à§Łà¦¤
à¦¡à¦¬ à¦ĺà¦°à¦£
Ġt ol
Ġt ur
Ġt ul
Ġt ap
Ġt est
Ġt ight
Ġt ek
Ġt echn
Ġt ouch
à¦ľà¦Ľ à¦¤
à¦ªà§ľ à¦¨
Ġà¦¬à¦¸à¦¨ à¦§
Ġà¦ļà¦¨ à¦®à¦¨
à¦¤à¦Ń à¦Ł
à¦¤à¦Ń à¦¬à¦¨
à¦¼; âĢĵ
Ġà¦ªà¦°à¦¶ à¦°
à¦¯à§İ à¦¬
à¦¯à§İ à¦®
à¦¯à§İ à¦ªà¦°
à¦¨à¦Ľ à§ľ
à¦¨à¦Ľ à¦¸à¦¨
Ġà¦ľà¦Ĺà¦¤ à¦ľ
à¦¬à¦§ à¦®
Ġà¦®à¦¦ à¦ĩ
Ġà¦®à¦¦ à¦ĵà§Ł
Ġà¦®à¦¦ à¦¶à¦ķ
à¦¿âĢĻ à¥¤âĢĿ
à¦¿âĢĻ âĢĻâĢĶ
à¦¤à¦¸ à¦ľ
à¦¤à¦¸ à¦ĸ
à¦¤à¦¸ à¦®à¦°
à¦¤à¦¸ à¦Īà¦°
he l
he at
à§© à§¬à§«
Ġà¦· à¦Łà¦ª
Ġà¦· à¦¬à¦¸à¦²
à¦ĸà¦ķ à¦·
à¦²à¦Ń à¦ķ
à¦²à¦Ń à¦®à¦ª
.. âĢĻ
Ġà¦Ĭ à¦ľà¦²
Ġà¦ħà¦®à¦¨ à¦¸
Ġà¦ħà¦®à¦¨ à¦Ł
Ġà¦ħà¦®à¦¨ à¦¤à¦°
à¦¬à¦Ł à¦¤à¦²
à¦¹à¦® à¦®à¦¤
Ġà¦Ĩà¦ĩà¦¨ à¦Ł
à¦²à¦ª à¦Ļ
Ġà¦¨à¦° à¦ŀ
Ġà¦Ŀà¦¨ à¦Ŀà¦¨à¦ķ
à§« à§¨à§¦
an as
an ing
an ish
an ie
an ism
Ġà¦¤à¦¨ à¦ĸ
Ġà¦¤à¦¨ à§Ł
à§ª à§¦à§¦
à§ª à§§à§©
à¦¾à¦ĥ ;
à¦¾à¦ĥ ?
à¦¾à¦ĥ âĢ¦
à¦¾âĢ¦ ?âĢĿ
à¦¾âĢ¦ ..
à¦¾âĢ¦ .âĢĿ
à¦¥à¦® à¦¥à¦®
à¦Ĩà¦Ĺ à¦°à¦¤à¦²
in os
in th
in ary
à¦ķà¦® à¦ªà¦ķ
à¦ľà§Ł à¦¦
à¦ľà§Ł à¦ªà¦¥
à§ĩ!âĢĿ âĢĵ
Ġà¦ħà¦¹ à¦¹
Ġà¦ħà¦¹ à¦®à¦¦
à¦¦à¦¬ à¦§à¦ķ
à¦¦à¦¶ à¦¶
à¦¶à¦¤ à¦ªà¦¥
Ġà¦ħà¦®à¦° à¦ļà¦¨
Ġà¦¸à§İ à¦¬
Ġà¦¸à§İ à¦Ĺ
Ġà¦¸à§İ à¦ļà¦ķ
Ġà¦¸à§İ à¦ļà¦°à¦£
à¦ĩà¦ľ à¦ĵ
à¦ľà¦Ĺ à¦łà¦¨
Ġà¦¨à¦Ĺà¦° à¦Ĺ
Ġà¦¨à¦Ĺà¦° à¦°à¦ķ
Ġà¦¨à¦Ĺà¦° à¦ªà¦¥
Ġà¦¶à¦ªà¦¥ à¦ª
Ġà¦ªà¦²à¦ķ à¦ķ
Ġà¦ªà¦²à¦ķ à¦Ŀ
Ġà¦ªà¦²à¦ķ à¦Ńà¦°
Ġà¦īà¦ªà¦¨ à¦¦
à¦¶à¦° à§İà¦ķ
à¦¬à¦£ à¦ĺà¦¨
à¦¬à¦® à¦Ń
à¦¬à¦® à¦¹à¦²
à¦¬à¦® à¦§à¦°
à¦¼âĢĵ âĢľ
Ġà¦Ĩà§Ł à¦°à¦¨
à¦¼à¦¿à¥¤ ï»¿âĢĻ
à¦ļà§ľ à¦Ĺ
à§Łà¦® à¦ĩ
à¦¬à¦ľ à¦¦
à¦¬à¦ľà¦¨ à¦¸
à¦¬à¦ľà¦¨ à¦ĩ
à¦¬à¦ľà¦¨ à¦Ĺ
re ct
re nt
re hen
re use
à¦ħà¦¤ à¦ĸ
Ġà¦«à¦¸à¦² à¦Ĺ
Ġà¦«à¦¸à¦² à¦¹
Ġà¦«à¦¸à¦² à¦¸à¦ľ
à¦®à¦® à¦ŀ
à¦¥à¦¬ à§İ
à¦¿âĢ¦ âĢ¦
à¦¿âĢ¦ âĢĻà¥¤
à¦¿âĢ¦ âĢĿâĢĶ
à¦¬à¦°à¦£ à¦Ł
à¦¬à¦°à¦£ à¦ĩ
à¦¬à¦°à¦£ à¦¡
à¦¬à¦°à¦£ à¦ĵ
Ġà¦ªà¦Ł à¦¸
Ġà¦ªà¦Ł à¦ªà¦°
à§ĩâĢĻ ?
à§ĩâĢĻ à¥¤âĢĿ
à¦¼! !
Ġà¦ļà¦°à¦® à¦ªà¦¨
Ġà¦Ĺà¦¦ à¦ĸ
à§Ń à§¦à§¦
à§Ń à§§à§ªà§«
à¦ķà¦ª à¦¯
à¦ķà¦ª à§Ł
Ġà¦ľà¦Ĺ à¦ľà¦¨
Ġà¦ıà¦ķà¦² à¦«
à¦ıà¦®à¦¨ à¦¤
à¦ıà¦®à¦¨ à¦Ń
à§ĢâĢĶ "
à§ĢâĢĶ !âĢĻ
à¦¹à¦ķ à¦ľ
à¦¾âĢĿ ?
à¦¾âĢĿ âĢ¦
Ġà¦ķà¦®à¦² à¦¶
Ġà¦ķà¦®à¦² à¦¬à¦¨
Ġà¦ķà¦®à¦² à¦ķà¦²
Ġà¦ķà¦ļ à¦¹à¦°
Ġà¦¸à¦« à¦°à¦ķ
Ġà¦¸à¦« à¦°à¦Ł
Ġà¦®à¦¡ à¦ķ
à¦īà¦ľ à¦ĩ
à¦¸à¦®à§Ł à¦ķ
à¦¸à¦®à§Ł à¦¬
à¦¸à¦®à§Ł à¦Ł
à¦¸à¦®à§Ł à¦ĵ
Ġà¦¸à¦¤à¦° à¦ŀ
Ġà¦Ĩà¦¸à¦¨ à¦ĸ
à¦ħà¦¸ à¦°à¦²
Ġà¦Ńà¦Ĺ à§İ
à¦Ĩà¦¶ à§Ł
à¦Ĩà¦¶ à¦«
Ġà¦ıà¦¡ à¦®
Ġà¦ıà¦¡ à¦īà¦ĩà¦¨
à¦ľà¦Ĺà¦¤ à¦ĩ
en l
en et
en head
à¦¯à¦Ĺ à¦ŀ
à¦¯à¦Ĺ à¦Ĺà¦¨
Ġ- âĢĵ
Ġà¦°à¦¥ à¦Ł
al i
al s
al ter
al th
al ous
at i
at ic
at ha
at ter
at ory
at ib
at ural
at ka
er ing
er ci
er gy
Ġà¦ķà¦¬à¦° à¦ĩ
à¦¯à§Ł à¦¸
à¦¯à§Ł à¦Ł
à¦¯à§Ł à¦ĵ
à¦¨à¦ľà¦¨ à¦¨
Ġà¦Ĩà¦Ł à¦ĺà¦°
à¦ĸà¦¸ à¦¡
à¦ĸà¦¸ à¦ĸà¦¸
à§® à§§à§ª
à¦ĩà¦¦ à¦ŀ
à¦²à¦« à¦®
à¦²à¦¦ à¦£
Ġà¦Ķ à¦ļ
Ġà¦Ŀà§ľ à¦¤
Ġà¦Ŀà§ľ à¦®à¦¤
à¦Ńà§Ł à¦ĩ
it us
it ter
it ik
à¦§à¦® à¦ŀ
Ġà¦Ĩà¦ĩ à¦Ĺ
Ġà¦Ĩà¦ĩ à¦°à¦¨
Ġà¦Ĩà¦ĩ à¦¢
Ġà¦Ĩà¦ĩ à¦¹à¦¨à¦ķ
Ġà¦Ŀà¦ķ à¦Ŀ
Ġà¦Ŀà¦ķ à¦ľà¦ķ
is a
is on
is es
à§ĭ?âĢĿ âĢĵ
or n
or s
or ld
or ium
), âĢĻ
ar o
ar un
ar ch
ar ate
ar ative
Ġà¦Ĩà¦ĸ à¦°à¦Ĺ
à¦¨à¦¹ à¦«
Ġà¦®à¦Ĺ à¦ª
Ġà¦®à¦Ĺ à¦Ńà¦°
Ġà¦¯à¦® à¦ĵ
à¦¤à¦°à¦£ à¦ĵ
à¦Ĳ à¦²
à¦Ĳ à¦¯
Ġw in
Ġw ar
Ġw ed
Ġw ay
Ġw ell
Ġw oo
Ġw aken
à¦¦à¦ª à¦¹
à¦ħà¦² à¦ĸ
Ġà§© à§¬à§¦
Ġà§© à§¬à§«
Ġà§© à§§à§ªà§¦
Ġà¦Ĺà¦ľ à¦ļà¦ķ
Ġà¦¬à¦§ à¦²
à¦īà¦¸ à¦Ĺ
Ġà¦Ńà¦°à¦¤ à¦¨
Ġà¦¬à¦¦ à¦°à¦¸
Ġà¦¬à¦¦ à¦²à¦¬
Ġà¦¬à¦¦ à¦ĩà¦Ł
Ġà¦¬à¦¦ à¦ħà¦Ń
à¦ħà¦® à¦°à¦¦
Ġà¦ķà¦¤à¦ķ à¦ĸ
Ġa ction
Ġa uthor
Ġa aro
à§ĭâĢĵ à¥¤
à§ĭâĢĵ âĢľ
Ġà¦ħà¦ļà¦² à¦ª
à¦Ĩà¦¨ à¦²à¦ķ
Ġà¦¸à¦«à¦² à¦ĵ
Ġà¦¶à¦¤à¦ķ à¦£
Ġs om
Ġs et
Ġs im
Ġs end
Ġs ide
Ġs ud
Ġs uc
Ġs ens
Ġs uggestion
Ġs ummer
Ġs cene
Ġs ister
Ġs andy
Ġà¦ķà¦²à¦°à¦¬ à¦¹
Ġà¦ķà¦²à¦°à¦¬ à¦®à§Ł
à¦¾?âĢĿ ,
à§ĭ?âĢĻ à¥¤
Ġà¦ļà§ľ à¦Ł
Ġà¦ļà§ľ à¦ĩ
Ġà¦ļà§ľ à¦ļ
Ġc he
Ġc un
Ġc ir
Ġc os
Ġc oat
Ġc omes
à¦¿!âĢĿ à¥¤
âĢį âĢĮ
Ġà¦¨à¦°à¦ķ à¦°
Ġà¦¨à¦°à¦ķ à¦ĩ
Ġà¦¨à¦°à¦ķ à¦¯à¦¨
à§İà¦¸à¦¬ à¦®
Ġà¦¸à¦°à¦¸ à¦Ń
à¦Ĺà¦¸ à¦ľ
à¦¬à§ľ à¦¦
à¦·à¦¸ à¦ĵ
à¦ķà¦¶à¦¨ à¦Ĺ
à¦¸à¦ķà¦² à¦ĸ
à§ģà¦Ĥ à¥¤
à§Īà¦ĥ âĢ¦
Ġà¦ľà¦²à¦¬ à§İ
Ġà¦ľà¦²à¦¬ à¦¸à¦¨
es ant
es pe
es ome
es ear
à¦¬à¦Ĺ à¦Ļ
à¦¬à¦Ĺ à¦łà¦¨
à§Ģà¦Ĥ âĢ¦âĢĻ
ed s
Ġb l
Ġb and
Ġb ra
Ġb oy
Ġb rings
Ġb orn
à¦²à¦° à¦ŀ
à§ģ! âĢ¦
ou bt
Ġà¦ĭà¦£ à¦ĩ
à§ĭà¦Ĥ âĢĵ
Ġà¦ħà¦¬à¦° à¦¨
à¦Ĩà¦¹ à¦¬
à¦ĩà¦ļ à¦£
Ġà¦¤à¦¦ à¦Ĺà¦¤
Ġà¦¤à¦¦ à¦Ĺà¦¤à¦Ń
à¦¨à¦ľ à¦ĸà¦®
Ġm g
Ġm il
Ġm us
Ġm ight
Ġm ain
Ġm eth
Ġm ail
Ġm oon
Ġm icro
Ġà¦®à§İà¦¸ à¦¦
Ġà¦®à§İà¦¸ à¦°à¦ŀ
à¦Ĩà¦§ à¦ª
à¦¬à¦¤à¦¨ à¦°
à¦¬à¦¤à¦¨ à¦¦
Ġà¦°à¦¤à¦¨ à¦ª
and ra
à¦ĩà¦« à¦¤
à¦ĩà¦« à¦¬
Ġà¦®à¦°à¦£ à¦®
Ġà¦®à¦°à¦£ à¦ħà¦ħà¦£
à¦ĩà¦¶ à¦ľà¦¨
Ġà¦Ĩà¦Ĺà¦®à¦¨ à¦ķ
à¦ªà¦ķà¦¥à¦¨ à¦ĩ
Ġà¦¹à¦Ł à¦ªà¦Ł
à¦¬à¦Ľà¦° à¦Ĺ
Ġà¦®à¦Ĺà¦ľ à¦Ł
Ġà¦¬à¦°à¦« à¦ķ
Ġà¦¬à¦°à¦« à¦ĩ
Ġà¦¬à¦°à¦« à¦ľ
Ġà¦¬à¦°à¦« à¦Ĺ
à¦«à¦²à¦¨ à¦¶
éŁ¿éŁ¿éŁ¿éŁ¿ åĵį
... ?
Ġf it
Ġf ro
Ġf ut
Ġf ot
Ġf ul
Ġf ly
Ġf art
Ġf ind
Ġf ore
Ġf inal
Ġf ru
Ġf oul
à¦²à¦ĵ à¦¬
Ġà¦ķà¦¸ à¦£
Ġà¦¬à§İà¦¸ à¦²
Ġà¦¬à§İà¦¸ à¦Ĺ
Ġà¦¬à§İà¦¸ à¦°à¦ĩ
à¦£à¦Ĺ à¦Ļ
Ġà¦ıà¦ĩà¦°à¦ķà¦® à¦Ł
Ġà¦ıà¦ĩà¦°à¦ķà¦® à¦Ń
Ġà¦ľà¦¨à¦® à¦Ńà¦°
Ġà¦ķà§ľ à¦ĩ
Ġà¦ķà§ľ à¦ļ
Ġà¦ķà§ľ à¦®à§ľ
Ġà¦¸à¦¸ à¦¹à¦°
Ġo der
à¦¶à¦¹ à¦°à¦¬
à¦¶à¦¹ à¦°à¦ķ
à¦¶à¦¹ à¦°à¦ľ
Ġà¦īà§İà¦ķ à¦¨
Ġà¦īà§İà¦ķ à§°
il a
il oy
à¦Ĺà¦łà¦¨ à¦®
à§ĢâĢĻ ;
à§ĢâĢĻ âĢĵ
à¦ªà¦ľ à¦²à¦¬
Ġà§§à§¯à§Ń à§Ń
à§ĭâĢ¦ à¥¤âĢĻ
à§ĭâĢ¦ âĢĻà¥¤
Ġà¦ļà¦°à¦£ à¦ª
Ġà¦ļà¦°à¦£ à¦¸à¦®
à¦°à¦¬à¦£ à¦¯à¦¨
à¦¯à¦Ļ à¦ĸà¦²
ĠO à¦ķ
ĠO ne
ĠO mlet
ĠO LED
ĠO liver
ĠO xfor
Ġn ut
Ġn um
Ġn ight
Ġn ose
Ġn atural
Ġà¦ĺà¦· à¦ĺà¦·
Ġà¦ĵà¦Ĺ à¦¯
Ġp it
Ġp ar
Ġp as
Ġp ic
Ġp ath
Ġp ie
Ġp hil
Ġp resent
Ġp fi
Ġp rior
Ġp atriot
à¦ķà¦ĵ à¦¦
om in
om os
om ination
om ena
ĠS K
ĠS k
ĠS on
ĠS at
ĠS is
ĠS us
ĠS im
ĠS our
ĠS up
ĠS elf
ĠS hak
ĠS out
ĠS TE
ĠS ek
ĠS eth
ĠS weet
ĠS ummer
ĠS eries
ĠS ahity
Ġà¦¨à¦ĸ à¦°à¦ĵ
as a
as ic
as ures
as eno
as wami
ic ult
ic ism
ic ars
ic les
ic ants
Ġà¦¨à¦Ł à¦ľ
Ġà§ª à§§
Ġà¦¸à¦¦à¦¸ à§İ
Ġà¦ĸà¦¨ à¦ķà¦Ł
ĠâĢ¦ !
ĠâĢ¦ âĢ¦..
ĠâĢ¦ .âĢĻ
ĠâĢ¦ âĢ¦âĢ¦.
à¦¡à¦¨ à¦§à¦°
ĠI D
ĠI II
ĠI oT
ĠI ran
Ġà¦ħà¦£ à¦¹
ĠĠĊĠĠ ĠĠĠĠĠĠĠĠ
Ġà¦¦à¦®à¦¨ à¦ķ
Ġà¦¦à¦®à¦¨ à¦¹
Ġà¦ıà¦® à¦ı
le ge
le ich
le ep
le arning
à¦®à¦²à¦¤ à¦®
Ġà¦¨à¦ĵ à¦²à¦ķ
Ġà¦ľà¦¨à¦Ĺà¦£ à¦¨à¦¨
Ġà¤ §
Ġà¤ Ł
Ġà¤ ¯à¤¹
Ġd er
Ġd im
Ġd ow
Ġd row
Ġd ust
Ġd ign
Ġd iss
Ġd ik
Ġd aw
Ġd ail
Ġd ivide
Ġd iff
Ġd oubt
Ġd omin
à¦°à¦¸à¦¬ à¦¸
Ġh o
Ġh y
Ġh ast
Ġh ath
Ġh istory
à¦Ĩà¦ĩ à¦ı
à¦Ĩà¦ĩ à¦ıà¦¸
à¦ħà¦ªà¦° à¦®
Ġà§« à§§
Ġà§« à§©
Ġà§« à§Ń
Ġà§« à§®
à¦¼à¦¿à¦Ĥ âĢĶ
à¦¼à¦¿à¦Ĥ ),
à¥¥ âĢĿ
Ġà¦ĵà¦ľà¦¨ à¦¦
Ġà¦ĵà¦ľà¦¨ à¦Ł
ĠA R
ĠA ry
ĠA UR
ĠA DI
ĠA iy
ĠA yesha
ĠA LL
ĠA chà¦²
ĠA utumn
ĠA fric
ĠA kadem
à¦Ļà¦¨ à¦ĸ
à¦Ļà¦¨ à¦§à¦°
à¦Ńà¦°à¦¤ à¦ª
à¦ıà¦ķà¦¬ à¦¸
Ġà¦ľà¦²à¦ª à¦¤à¦¨
à¦ªà§Ł à¦²
Ġà¦Ĺà¦Ĺà¦¨ à¦®
Ġà¦Ĺà¦Ĺà¦¨ à¦Ń
Ġà¦Ĺà¦Ĺà¦¨ à¦ªà¦¥
ĠP K
ĠP re
ĠP ress
ĠP hen
ĠP eop
Ġà§§à§¦ à§¨
Ġà§§à§¦ à§©
Ġà§§à§¦ à§«
Ġà§§à§¦ à§ª
Ġà§§à§¦ à§Ń
ve y
ve ll
ve pall
Ġà¦¶à¦°à§İ à¦°
Ġà¦Ĩà¦¬à¦°à¦£ à¦ķ
Ġà¦Ĩà¦¬à¦°à¦£ à¦Ł
à¦ľà¦ªà¦¥ à¦®à§Ł
Ġà¦ıà¦ķà¦°à¦ķà¦® à¦ĩ
à¦¬à¦ªà¦¨ à¦ķ
à¦¬à¦ªà¦¨ à¦®à¦¯
Ġà¦°à¦£ à¦§
Ġà¦°à¦£ à¦ķà¦²
Ġà¦°à¦£ à¦ľà¦¯
Ġà¦°à¦£ à¦°à¦Ļ
Ġà¦°à¦£ à¦ľà§Ł
Ġà¦°à¦£ à¦¯à¦ľ
Ġà¦¦à¦¹à¦¨ à¦¹
à§Łà¦£ à¦Ĺà¦ŀ
Ġà§§à§® à§¬
Ġà§§à§® à§¯à§§
Ġà§§à§® à§§à§«
Ġà§§à§® à§¨à§«
Ġà§§à§® à§©à§ª
Ġà§§à§® à§Ńà§¨
Ġà§§à§® à§®à§«
Ġà§§à§® à§¬à§«
Ġà§§à§® à§«à§«
Ġà§§à§® à§¯à§¨
Ġà§§à§® à§¬à§Ń
Ġà§§à§® à§©à§¯
Ġà§§à§® à§«à§®
à¦Ĺà¦®à¦¨ à¦ķ
à¦¯à¦°à¦¸ à¦Ł
Ġà¦ľà¦²à¦ķ à¦ļ
ĠB Y
ĠB an
ĠB ro
ĠB el
ĠB ig
ĠB ha
ĠB ring
ĠB urd
ĠB ridge
ĠB esant
à¦¾âĢĻ, âĢĻ
Ġin to
Ġin vol
Ġà§§à§¯à§« à§©
Ġà§§à§¯à§« à§Ń
Ġà§§à§¯à§« à§®
Ġà¦²à¦Ĺ à¦Ĩà¦īà¦Ł
Ġà¦®à¦¹à§İ à¦¦
à§§à§¨ à§©
à§§à§¨ à§Ń
à§§à§¨ à§§à§Ń
à§§à§¨ à§©à§¦
Ġà¦ķà¦¤à¦¬ à§ľ
Ġà§§à§¨ à§¨
Ġà§§à§¨ à§«
Ġà§§à§¨ à§®à§¬
ro l
ro t
ro du
ro ÃŁ
ro yed
Ġà¦ķà¦°à¦£ à¦ĵ
Ġà¦ķà¦°à¦£ à¦ªà¦¦
ĠC or
ĠC our
ĠC har
ĠC ase
ĠC CT
ĠC RE
ĠC AP
ĠC ITY
ĠC PU
ĠC rater
ĠC enet
à¦¨à§Ł à¦¨à¦¬
el a
el s
el ig
el ong
ent y
ent ial
ol k
ol it
ol factory
ĠM O
ĠM en
ĠM ob
ĠM aid
ĠM icro
ĠM ercury
ĠM itra
ĠM iddle
ĠM over
ĠM erci
ĠM omos
ĠĠĠĠ Ġ
à¦ħà¦®à¦² à¦ª
ut o
Ġl at
Ġl ess
Ġl ast
Ġl ate
Ġl aw
Ġl ived
Ġà§¬ à§¦
Ġà§¬ à§©
Ġà§¬ à§Ń
Ġà§¬ à§«à§¬
Ġà§Ń à§¦à§¦
Ġà§Ń à§¬
Ġà§Ń à§Ńà§Ń
à§ĩâĢĻ, -
à¦Ĺà¦ł à¦ķà¦¦
à¦Ĺà¦ł à¦¨à¦ĩ
à¦ªà¦°à¦® à¦ķà¦°
à¦ªà¦°à¦® à¦¸à¦¤
Ġà¦īà¦ĩà¦² à¦¸
Ġà¦īà¦ĩà¦² à¦Ł
à§§à§¦ à§§
à§§à§¦ à§ª
à§§à§¦ à§¬
à§§à§¦ à§«à§Ń
Ġe in
Ġe le
Ġe ver
Ġe xt
Ġe ast
à¦®à¦ĸ à¦®à¦²
Ġà¦²à¦¬à¦£ à¦®
Ġà¦²à¦¬à¦£ à¦Ł
Ġà¦²à¦¬à¦£ à¦ļ
Ġà¦²à¦¬à¦£ à¦ļà¦²
ĠT o
ĠT er
ĠT im
ĠT ha
ĠT ra
ĠT od
ĠT omb
ĠT echn
à¦£à¦¸ à¦ĸ
Ġà¦¶à¦® à¦¦à¦®
Ġà¦ľà¦¨à¦ªà¦¦ à¦¬à¦§
Ġà¦ķà¦¨à¦¸ à¦ª
à¦ªà¦¹ à¦ļ
à¦īà¦ł à¦Ľ
us ing
us ters
à¦¼âĢ¦ .
à¦¼âĢ¦ à¥¤âĢĻ
à¦¼âĢ¦ .à¥¤
Ġà¦Ŀà¦Ł à¤ªà¤Ł
all en
ur ies
ur ches
Ġà¦ľà¦¨à¦ķ à¦¨à¦¨
Ġà¦®à¦Īà¦¨ à¦¡
ot ai
ot ations
ot ten
am ph
am ala
am mi
et ing
et tle
à§ĩ) ?
ĠR E
ĠR om
ĠR ab
ĠR ain
ĠR iver
ĠR adhak
ĠR esear
à¦ıà¦² à¦Ĺà¦°
Ġà¦®à¦°à¦¬ à¦ĩ
Ġth ing
Ġth ings
Ġth ree
ĠD J
ĠD ay
ĠD ust
ĠD ru
ĠD aven
ĠD IU
ĠD OW
ĠD anie
à¦¯à¦ļ à¦°à¦¤
Ġà¦ĵà¦² à¦¡
Ġà¦ĸà¦Ł à¦®à¦Ł
Ġà¦ķà¦¨à¦ķ à¦ķ
Ġà¦ķà¦¨à¦ķ à¦ª
à¦¹à¦£ à¦ªà¦°
ct ile
ct rine
Ġà§§à§© à§§à§Ń
Ġà§§à§© à§®à§«
Ġà§§à§© à§ªà§«
Ġà§§à§© à§¯à§¨
Ġà§§à§© à§«à§§
Ġà§§à§© à§«à§ª
Ġà¦ľà¦²à¦¦ à¦Ĺà¦®
Ġà¦Ĩà¦¦à¦² à¦Ł
Ġà¦«à¦¡ à¦«à¦¡
Ġà§¦ à§§à§Ń
Ġà¦ĸà¦² à¦ľà¦¨
Ġà¦Łà¦ķ à¦Ŀ
Ġà§¨à§¦ à§¨à§§
Ġà§¨à§¦ à§Ńà§«
Ġà§¨à§¦ à§Ńà§§à§ªà§«
ig s
ig ence
à§ĩ. âĢĿ
à§ĩ. à¥¤âĢĻ
Ġà¦²à§Ł à¦Ńà¦Ļ
à¦Ĩà¦ĩà¦¨ à¦ľ
un d
un k
un ci
un cle
Ġà¦ļà¦²à¦¨ à¦ªà¦¥
Ġà§§à§Ń à§¯à§Ń
Ġà§§à§Ń à§¯à§©
Ġà§§à§Ń à§¦à§«
Ġà§§à§Ń à§ªà§¨
Ġà§§à§Ń à§¬à§Ń
Ġbe at
Ġbe ing
Ġbe ings
im a
im um
im bus
à¦ĥ, âĢĶ
à¦¿!âĢĻ âĢĿ
Ġà¦Ĩà¦ĩà¦¡ à¦²à¦ķ
Ġà¦¸à¦¹à¦ļà¦° à¦Ĺà¦£
ay ana
Ġà¦Ķà¦°à¦¸ à¦ľà¦¨
ad indu
ad ammi
Ġà¦¦à¦°à¦¦ à¦Ńà¦°
Ġto il
Ġto wn
Ġto wer
à¦Ĺà¦¬à¦¤ à¦ª
áĥ ®
áĥ £áĥ
áĥ ķáĥĶáĥ
Ġà¦ĵà¦°à¦ķà¦® à¦Ń
à¦īà¦ª à¦§
à¦īà¦ª à¦¬à¦¨
Ġà§® à§¨
Ġà§® à§¦à§¦
Ġà§® à§Ń
Ġà§® à§¬
ch it
ch or
ch af
ch atka
id ence
à§ĭâĢ¦âĢĿ à¥¤
à¦Ĺà¦ļ à¦ŀ
Ġà¦īà¦® à¦Ļ
à¤¾ ,
à¤¾ à¤Ĥ
ĠN o
ĠN ag
ĠN ature
ĠN ex
ĠN ational
ĠN IR
ĠN ij
ĠN TU
ĠN aHCO
ĠN iloy
ĠN otai
à§ģâĢ¦ ?
Ġg ot
Ġg et
Ġg ive
Ġg ap
Ġg host
à¦°à¦Ŀ à¦Ļ
à¦°à¦Ŀ à¦²à¦ķ
à¦¸à§İ à¦¤
Ġà¦¨à¦ľ à¦°à¦ĩ
à¦ıà¦ķà¦¤ à¦²
Ġà§§à§« à§§
à¦¶à¦¬à¦¨ à¦®
ir ring
à¦°à¦£à§Ł à¦¨à¦ķ
à¦°à¦£à§Ł à¦ķà¦²à¦¹
âĢĿâĢĵ âĢĵ
Ġà¦Īà¦Ĺà¦² à¦¦
à¦¬à¦¨à¦® à¦¥
à¦¿) âĢĶ
Ġà¦Ĺà¦²à¦¦ à¦Ĺà¦²
ĠH U
ĠH o
ĠH ell
ĠH igh
ĠH indu
ĠH alley
ĠH OP
ĠH yac
ĠL e
ĠL od
ĠL ife
ĠL aw
ĠL ingu
ĠL AY
ĠL IV
ĠL OST
ĠL ittle
ĠL ibr
ha ps
ra i
ra k
ra ct
ra ge
à¦·à¦¹ à¦ľ
à¦¶à¦§ à¦°à¦ĩ
Ġà¦īà¦ĩ à¦ı
Ġre ap
Ġre volution
Ġre tire
os hi
os ystem
os ynthesis
à¦¹à¦ĩ à¦¹à¦²
Ġà¦®à¦ķ à¦¤à¦¬
Ġà¦¦à¦¹ à¦¨à¦ķ
Ġfor ward
à§į, à§ĩ
Ġà¦¬à¦Ľ à¦°à¦¬
Ġà¦¬à¦Ľ à¦°à¦ľ
à¦¯à¦Łà¦ķ à¦ķ
ment al
à¦¾à¦ģ? âĢ¦
ul y
Ġà¦ķà¦²à¦¹ à¦ª
Ġà¦ķà¦²à¦¹ à¦ªà¦°
à¤° à¦¨
à¤° à¦¬
à¤° à¦®
à¤° à¦£
à¤° à¤ķ
Ġà¦¬à¦Ĺà¦² à¦¸
Ġà¦¬à¦Ĺà¦² à¦¸à¦ĵ
à§ĢâĢĻ, âĢĻ
Ġà¦¦à¦²à¦¬ à¦¦à¦²
à§¯à§Ń à§©
Ġà¦¤à§ľ à¦ª
à¦Ĩà¦Ľ à§ľ
âĢ¦. à¥¤
âĢ¦. âĢĻ
à¦¨à¦ªà¦¥ à¦ķ
à¦¼à¦ĥ âĢĵ
Ġà¦®à¦¦à¦¨ à¦ĸ
Ġà¦®à¦¦à¦¨ à¦¶à¦°
Ġà¦®à¦«à¦¸ à¦¸à¦²
Ġà¦īà¦¦à§Ł à¦¶à¦Ļ
Ġà§§à§ª à§«
Ġà§§à§ª à§ª
Ġà§§à§ª à§¨à§¦
Ġà§§à§¬ à§¯à§®
Ġà§§à§¬ à§¬à§Ń
Ġà§¨à§¨ à§®à§Ń
ĠG O
ĠG ang
ĠG oat
ĠG au
ĠG rand
ĠG roÃŁ
à¦°à¦¦à¦¯ à¦¨
Ġà¦Ĩà¦¹à¦°à¦£ à¦ķ
Ġà¦Ĩà¦¹à¦°à¦£ à¦ĩ
à§¯à§¦ à§¦
Ġy ears
à¦Ĭ à¦¨
Â·Â·Â· à¥¤âĢĻ
ag ed
ag ram
à¦ĸà¦ķà¦° à¦°
Ġà¦Łà¦¹à¦² à¦¦à¦²
à¦Ĩà¦ļà¦°à¦£ à¦ĵ
à¦Ĺà¦²à¦ķ à¦¬
Ġà¦¯à¦¬à¦¨ à¦¦
ill s
Ġne ck
Ġà¦¬à¦°à¦ķà¦¤ à¦®à¦¯
ter ji
Ø§ Ùģ
Ø§ Ùĩ
ĠE r
Ġà¥¥ /
à§ģ?âĢĻ -
Ġà¦ķà¦®à¦¨ à¦ĵà¦¯
à§§à§® à§¦à§¦
à§§à§® à§¯à§¯
à§§à§® à§¨à§¨
à§§à§® à§®à§®
à§§à§® à§¨à§§
à§§à§® à§§à§¬
à§§à§® à§¦à§¯
à§§à§® à§¨à§¬
à§§à§® à§©à§§
à§§à§® à§Ńà§¨
à§§à§® à§¬à§¯
à§§à§® à§¯à§¨
à§§à§® à§¬à§©
à§§à§® à§Ńà§¯
à§§à§® à§®à§¨
ce mber
Ġà¦¨à¦¬à¦¬ à¦°à¦£
à¦Ńà¦Ĺ à¦¬à¦¦
à¦¤à¦ľà¦¨ à¦®
à¤¤ à¤¨
à¤¤ à¤®
Ġwe ather
em per
ive ly
la bor
la use
à¦¯à¦¬à¦¨ à¦ª
Ġà¦Łà¦¬ à¦¬à¦¨
Ġà§¯à§ ©
Ġà§¯à§ §à§®
à¦®à¦īà¦¦ à¦¦
Ġà¦ªà¦Łà¦² à¦¦
Ġà¦ªà¦Łà¦² à¦ª
Ġà¦ªà¦Łà¦² à¦Ĺ
Ġk om
Ġk ab
Ġk ob
Ġk ora
Ġk ey
Ġk ettle
à§ĩà¦ĥ !
à§ĩà¦ĥ -
à§ĩà¦ĥ !âĢĻ
à§ģ!âĢĿ à¥¤
Ġà¦®à¦°à¦¦ à¦ķ
Ġà¦®à¦°à¦¦ à¦¦
Ġà¦ĸà¦¨à¦¨ à¦ª
Ġnot hing
Ġ19 à§¨
Ġ19 39
Ġhe ap
Ġhe aven
Ġhe alth
ub lic
ĠW ill
ĠW ind
ĠW hen
ĠW ings
ĠW ho
ĠW HO
ĠW alter
ĠW orld
à¤¿ à¤Ĥ
if elong
Ġà¦ķà¦ĩà¦° à¦Ľ
Ġà¦®à¦ł à¦ĺ
à¦ľà¦°à¦£ à¦®
ĠK u
ĠK ir
ĠK now
ĠK lan
ĠK han
ĠK ingdom
ĠK lu
ĠK ines
ĠK KK
ĠK PI
ĠK amala
ĠK rai
à¦¯à¦¸à¦¨ à¦ľ
à¦ĸà§ľ à¦Ĺ
à§§à§Ń à§®à§«
Ġst y
Ġst ay
Ġst ra
Ġst ill
Ġst ory
Ġst ep
Ġst ate
Ġst irring
Ġà¦Ĩà¦¤à¦° à¦¦
à¤ķ à¦²
red ict
Ġmy ster
ĠĠĠĠĠĠĠĠ ĠĠĠĊ
ĠĠĠĠĠĠĠĠ ĠĠĠ
qu e
qu ipe
à¦°à¦²à§Ł à¦®à§Ł
à¦°à¦ľà¦¨à¦¨ à¦¶à¦ķ
Ġà§§à§¯à§¬ à§©
ip ur
ip end
Ġwh at
ĠØ £
ĠØ ¬
ĠØ ®
ĠØ ³
ĠØ µ
ĠØ °Ø±
Ġà¦¬à¦ļ à¦¨à¦ĵ
à¦¥à¦¶ à¦°à¦£
st ood
Ġà¦ħà¦ĺà¦Łà¦¨ à¦ĩ
Ġtr y
Ġtr ick
Ġtr uly
Ġon ce
à¦®à§İ à¦Ł
à§ĭâĢĿ !
Ġà¦§à¦¬à¦² à¦ķ
Ġà¦§à¦¬à¦² à¦Ĺ
Ġyou th
Ġyou ng
ĠÐ ¼
Ġà¦ľà¦¬à¦° à¦ľ
à§ĩ,- âĢĺ
à¦Ĩà§Ł à¦¤à¦¨
à¤¨ à¤ķ
Ġà§§à§¯à§¦ à§¦
Ġà§§à§¯à§¦ à§¨
à¦¨à¦¸à¦¨ à¦Ł
à¦ļà¦®à¦ķ à¦ª
à§ĩ,âĢĻ âĢĻ
Ġà¦ĩà¦¨à¦ķ à¦®
à§§à§« à§©
à§§à§« à§Ń
à§§à§« à§¯
Ġà¦¤à¦¬à¦² à¦ļ
Ġà¦«à¦²à¦ķ à¦Ĺ
ri al
ri ke
ĠRe use
ĠRe ader
ĠRe cycle
âĢķâĢķâĢķâĢķ âĢķâĢķ
ab ha
ab omination
ke pt
Ð¾ ÑĢ
Ġà¦Ĺà¦®à¦¨ à¦ªà¦¥
Ġà¦«à§ľ à¦«à§ľ
à¦ħà¦¸à¦® à¦ŀ
ist ered
ht i
ĠY OU
Ġv i
Ġv is
Ġv edic
Ġv icars
Ġà§§à§¯à§¨ à§©
à§§à§© à§¬
est s
est ly
est aCor
ĠThe y
Ø± Ø®
à¸ ¡
à¸ ª
à¸ ¹
à¸ Ĺ
à§ĩ... âĢĻ
à§ĩ... ?âĢĿ
à¥Ģ à¤Ĥ
à§¨à§¨ à§¨à§¨
à§ĩâĢ¦âĢĻ âĢĿ
Ġà§¨à§Ń à§¬
Ġà¦ħà¦¹à¦°à¦¹ à¦ĩ
Ġwas t
Ġse a
Ġse e
Ġse i
Ġse ek
Ġse vent
Ġcon qu
à§¨à§¦ à§¨à§«
Ġà§¨à§¬ à§¨
iv es
iv ing
lis hed
à¦¶à¦®à¦¨ à¦¦
à¦ļà¦²à¦¨ à¦¸à¦ĩ
end e
ust ody
ust rial
ci ous
Ð° Ð¿
Ð° Ð¹
ĠV ar
ĠV int
ĠV edic
ĠV enus
Ġj ud
Ġor der
à¦¼âĢĿ (
Ġà¦®à¦Ł à¦°à¦¸
ĠF ra
ĠF rom
ĠF ood
ĠF irst
ĠÙ Ĥ
ĠÙ ĩ
ĠÙ ģØ±
Ġà¦Ĩà¦ĵ à¦°à¦¤à¦ķ
âĢĵâĢĵ âĢľ
Ġtim es
Ġas k
Ġas s
av es
av iour
à§ģà§ģ âĢ¦âĢĿ
à§ģà§ģ à§ģà§ģâĢ¦âĢĿ
à§ĢâĢ¦ à¥¤âĢĿ
Ġà¦ĵà¦ĩà¦°à¦ķà¦® à¦ĩ
Ġà§§à§¯à§§à§ ¦
Ġà§§à§¯à§§à§ ®
Ġà§§à§¯à§§à§ ¯
th m
th at
à¦¿... âĢĻ
à¦¿... âĢĻà¥¤
à¦ªà¦°à¦¸ à¦Ĺà¦¨
à¦ıà¦°à¦ĩ à¦®à¦§
Ġcou rage
Ġtime kept
ak s
à¦£à¦ľ à§Łà¦¨
à¦īà¦Ńà§Ł à¦ķ
Ġman gro
Ġman kind
og h
og y
Ðµ Ð»
Ðµ ÑĤ
à¦²à¦§à¦¨ à¦·
à¦¼âĢĻ, âĢĻ
à§©à§ª à§Ń
int ox
Ġcol lar
Ð¾Ð ´
Ð¾Ð ¹
Ð¾Ð º
ser a
à¦¬à§İà¦¸ à¦Ń
à¦¬à¦ľà¦Ĺà§İ à¦ĵ
Ġà¦¹à¦ľ à¦°à¦ª
ÑĢ Ñĭ
Ñģ Ð¿
Ġà¦¶à¦¤à¦¬ à¦Ľà¦°
Ġà¦ļà¦Łà¦ķà¦² à¦¬
Ġà¦ļà¦Łà¦ķà¦² à¦Ĺ
à§ªà§© à§¯
pe ars
Ġì Ĩ
à¦®à¦ªà¦¥ à¦®
ang a
ich inos
à§§à§¯à§ª à§¦
à§§à§¯à§ª à§ª
The re
ian s
oy a
àª ®
àª ¹
àª ¿
àª Ĺ
àª ĺ
àª ļ
Ġà¦¤à§İà¦¸ à¦¹
Ġà¦²à¦Łà¦ķ à¦¨
Ġà¦¸à¦¬à¦°à¦ķà¦® à¦Ń
à¦Ĩà¦²à¦® à¦ª
ĠIn it
ĠIn spect
ain s
ug ht
ug leich
Ġr ich
Ġr ather
Ġà¦ĸà¦ķ à¦ĸà¦ķ
à¦Ĩà¦¸à¦¨ à¦¸
âĢ¦âĢ¦ âĢ¦
Ġme aning
ĠUn win
!! !âĢĻ
TE R
ib a
ib le
Ð¸ ÑĢ
Ð¸ ÑĤ
Ð¸ Ð²
ÛĮ Ø¯
Ġ× Ľ×
Ġun s
Ġun ity
Ġun read
ĠĠĠĊ Ġ
Ġind ustrial
ell er
ell igence
Ġà§¯à§« à§¦
Ġà§¯à§« à§Ń
-- --
Åĵ à¦¬
à§± à¦¨
à¦²à¦¸à¦® à¦·
Ġà§§à§§à§ ¦
Ġà§§à§§à§ §
Ġà§§à§§à§ ¨
Ġà§§à§§à§ ©
Ġà§§à§§à§ «à§¯
Ġwor ds
Ġwor ld
Ġam using
age ment
17 56
af ter
ud h
ud y
Ð½ Ð¾
Ð½ ÑĥÐ»
Ġim p
Ġim per
Ġim mor
à§ĩ.. âĢĻ
Ġà¦®à¦°à¦ķ à¦¤à¦ª
à¦ĩà¦ī à¦Ń
Ġà¦Ĩà¦²à¦Ł à¦ªà¦ķ
à¤Ł à¤²
ass o
ĠAI den
Ø§Ø ³
Ġà¦Ĩà¦ĵà¦°à¦¤ à¦Ł
hat i
ie w
Ùħ Øª
Ġal ong
Ġal ready
Ġro om
Ġro ot
à¦®à¦ľà¦¨ à¦ªà¦¦
Ġà¦¶à¦°à¦¶ à¦°
Ġpro f
Ġpro se
Ġà¤¸ à¤¤
à§§à§¯à§© à§¨
à§§à§¯à§¬ à§ª
ĠTH AT
IN TRU
ÙĪ Ø±
ÙĪ ÙĨ
à° §
à° ¨
à° ¾
à° Ĥ
Ġle g
Ġle ave
Ġle aves
Ġáĥ ©
Ġáĥ £áĥ
à¦¤à¦ªà¦¨ à¦ķ
à¦ĩà¦²à¦«à¦²à¦ķ à¦Ĺ
ons ibility
Ġcl ip
Ġcl own
Ġcl ash
Ġcl usters
Ġ196 6
Ġcollective ly
23 7
ck er
Ġà¦Ĩà¦ĩà¦ķ à¦¨à¦Ĺ
Ġà¦ıà¦¤à¦¬ à§ľ
Ġà¦īà¦ĩà¦ķ à¦ıà¦¨
à¦¾âĢĶ- âĢĻ
à¤µ à¦¤
Ġà§¨à§¦à§¦ à§§
oug ht
Ú© ÙĦ
Ġë Ķ°ë
à¦¿/ (
ens ch
ĠBe ach
RO W
ek er
for ce
Ġà¦¬à¦ķà¦² à¦¸
Ġà¦®à¦¨à¦ª à¦¸à¦¨
à¦īà¦ªà¦ķ à¦°à¦£
à¤£ à¤µà¦¤
à¤¸ à¦«
à¤ľ à¤¨
ink le
iss a
Ġwho le
ON G
ach ara
×Ļ ×Ļ
ĠJ HW
à¦Ĺà¦°à¦¤ à¦Ł
Ġà¦Ĺà¦°à¦¹ à¦ľà¦®
Ġch op
Ġch ild
Ġch urches
ick er
ick et
ĠHe at
Ġ197 1
Ġ197 3
Ġ197 4
Ġ197 9
Ġ197 à§¨
Ġ197 à§ª
are ful
yan i
ÙĬ Ùĩ
ÙĬ Ø¹
âĤ ģâĤĤ
à¦¾Â·Â·Â· âĢĻ
à¦¿âĢĮ à¦ĥ
à¦¿ÂŃ à¦ĥ
à¦·à§ľ à¦¯à¦¨
Ġà¦Ĺà¦Ł à¦®à¦Ł
Ġà¦ļà¦ĩ à¦²à¦¤
Ġac c
Ġac hes
Ġac ute
Ġsp end
Ġsp ring
ĠCh andra
ĠCh adammi
ĠDe cember
to col
Ø´ Ø§Ø±
Ġed X
Ġà¦Ĩà¦īà¦² à¦ļ
Ġà¦¹à¦°à¦¬ à¦ķà¦¤
Ġà¦¹à¦°à¦¬ à¦ĸà¦¤
à¤· à¦°à¦¤
à¤· à¤ķ
Ġà¤Ĩ à¤¨
Ġà¤Ĩ à¤Ĺ
ĠAr c
ĠRup a
SI G
Ñĭ ÑĤ
à¦ķà¦¨à¦ķ à¦¨
à§ĭ), âĢĻ
Ġà¦¸à§ľ à¦ķà¦Ł
Ġà¦¸à§ľ à¦ķà¦¦
Ġà¦¸à§ľ à¦ķà¦Ĺ
Ġà¦¸à§ľ à¦ķà¦ļ
à¦ĩà¦¥ à¦¨à¦ķ
Ġtw enty
Ġap pears
Ġcan not
à§§à§¯à§¨ à§¦
à§§à§¯à§¨ à§«
à§§à§¯à§¨ à§¯
ĠMan ipur
ĠTh is
ĠTh ank
ĠTh ames
ĠRah mat
ĠDetect ed
My ra
My stic
NA L
act er
ph ant
à® £
à´ ¤
áĢ ¯
ä¸ ĸ
ĠÑ Ħ
ĠÑ ĩ
à¦¸à¦¬à¦° à¦ķà¦®
à¦¦à¦¸à¦® à¦·
à§ĩà¥¤âĢĶ (
ĠâĢĮ âĢĶ
Ġà¦łà¦¨ à§İà¦ķ
à¤¶ à¤¨
ands cap
Ġfl otations
Ġfl icker
ĠSoci al
Ġà¤ī à¤¤
à§§à§¯à§® à§ª
à§§à§¯à§® à§Ń
Ġbec ame
Ġbec ome
Ġbec ause
erson ality
åĵį éŁ¿éŁ¿éŁ¿éŁ¿éŁ¿éŁ¿éŁ¿éŁ¿éŁ¿éŁ¿éŁ¿éŁ¿éŁ¿éŁ¿éŁ¿éŁ¿éŁ¿éŁ¿éŁ¿éŁ¿éŁ¿éŁ¿éŁ¿éŁ¿
AR YABHATTA
az i
cl es
cl ud
ec ur
ster ies
ven eal
Ġê °
Ġus ed
à¦ªà¦¹à¦¤ à¦ļ
à¦¼à§ĩâĢĿ âĢ¦
Ġà¦¶à§Ł à¦¨à¦ķà¦ķ
à¦¼à¦¾?âĢĿ à¥¤
à¤Ń à¤°
à§Ńà§¬ à§¨
Ġmot or
Ġmot her
Ġfam ous
ĠSt ates
ĠSt udy
Ġà¤ľ à¤¬
Ġlong er
Ġliter acy
Ġref lect
Ø§Ø± ÛĮ
EN C
EN D
ail ed
col labor
ex press
hi jat
sy cho
Ġâ Ŀ¤ï
Ġen em
Ġen ough
Ġà¦®à¦ķà¦° à¦§
Ġà¦ļà¦ĩà¦² à¦Ľ
Ġà¦ļà¦°à¦ª à¦¡
à¦Ĩà¦¦à¦® à¦¸à¦¨
Ġsh all
Ġsh ould
Ġcur ious
Ġfur ther
Ġpr ank
Ġpr inciple
ĠInt rodu
ĠInt elligence
Ġà¤¹ à¤®
ĠAn n
ĠPro veneal
ury eo
ident itÃ©
irit ual
Ġres ist
Ġres idual
Ġreal ms
opt ical
ĠÐ¿ Ð¾
ĠÐ¿ Ð¸
áĥĺáĥ ¡
áĥĲáĥ Ĺ
áĥĲáĥ Ľ
AL T
ric ts
rish nan
à± ģ
à± ĥ
ĠX Z
ĠZ à¦¨à¦¤
ĠZ oom
Ġup on
à¦Ĩà¦°à¦¨ à¦²
Ġà¦Ĩà¦¨à¦ıà¦ķ à¦¸à¦ª
Ġà¦ħà¦¶à¦¥ à¦¤à¦²
Ġà§©à§¬ à§ª
Ġcha p
Ġcha in
Ġcomp assion
ĠSe en
ĠSar ma
ĠSar vepall
ĠSar adindu
Ġhor izon
olog y
olog ical
ĠMar lbor
ĠMar xist
Ġlo v
ĠDE SOL
Ġrec ogn
Ġread y
indu ism
Ġval o
Ġseem s
Ġorig in
ĠÙĨ Ú¯
ÐµÑĢ Ð°
DI A
bo ok
pect s
ty pe
xx xx
×¢ ×ĵ
áŀ Ħ
ìĿ Ģ
ìĿ ĺ
Ġz ugleich
ĠÎ ¼Î
Ġer ror
Ġqu ite
Ġà¦ľà¦¨à¦°à¦¬ à¦¹
à§§à§§à§ Ń
Ġà¦Ĭà¦ł à¦Ľ
Ġà¦Ńà¦Ĺà¦¬à§İ à¦Ĺà¦ŀ
Ġchar ms
Ġbir th
Ġpo int
Ġpo ison
Ġper pet
Ġper haps
Ġple ase
ĠSun il
ĠSun days
Ġoff er
Ġoff end
ĠIN ITIATE
Ġdra ught
ĠAb hijat
ĠAc adem
ĠPur uravas
ĠCult ural
ĠTr ichinos
ĠRam aswami
ĠDo ver
ĠLiter ary
ĠLangu age
ĠEd n
ĠEd ucation
éŁ¿éŁ¿éŁ¿éŁ¿éŁ¿éŁ¿éŁ¿éŁ¿éŁ¿éŁ¿éŁ¿éŁ¿éŁ¿éŁ¿éŁ¿éŁ¿éŁ¿éŁ¿éŁ¿éŁ¿éŁ¿éŁ¿éŁ¿éŁ¿éŁ¿éŁ¿éŁ¿éŁ¿éŁ¿éŁ¿éŁ¿éŁ¿éŁ¿éŁ¿éŁ¿éŁ¿éŁ¿éŁ¿éŁ¿éŁ¿éŁ¿éŁ¿éŁ¿éŁ¿éŁ¿éŁ¿éŁ¿éŁ¿éŁ¿éŁ¿éŁ¿éŁ¿éŁ¿éŁ¿éŁ¿éŁ¿éŁ¿éŁ¿éŁ¿éŁ¿éŁ¿éŁ¿éŁ¿éŁ¿ éŁ¿éŁ¿éŁ¿éŁ¿éŁ¿éŁ¿éŁ¿éŁ¿éŁ¿éŁ¿éŁ¿éŁ¿éŁ¿éŁ¿éŁ¿éŁ¿
Ġcountry side
æŃĵæŃĵæŃĵæŃĵæŃĵæŃĵæŃĵæŃĵæŃĵæŃĵæŃĵæŃĵæŃĵæŃĵæŃĵæŃĵæŃĵæŃĵæŃĵæŃĵæŃĵæŃĵæŃĵæŃĵæŃĵæŃĵæŃĵæŃĵæŃĵæŃĵæŃĵæŃĵ æŃĵæŃĵæŃĵæŃĵæŃĵæŃĵæŃĵæŃĵæŃĵæŃĵæŃĵæŃĵæŃĵæŃĵæŃĵæŃĵæŃĵæŃĵæŃĵæŃĵæŃĵæŃĵæŃĵæŃĵæŃĵæŃĵæŃĵæŃĵæŃĵæŃĵæŃĵæŃĵ
Ġsubur b
AP PRO
OC s
Pro ject
RI DE
Sp ace
Th ou
ace book
Õ¥ Õ
à¯ Ģ
ï¼ ģâĢĿ
ï¼ ŁâĢĿ
Ġri vers
Ġend less
Ġ10 00
Ġà¦¸à¦¸à¦¸ à¦¸à¦¸
à¦¡à¦¬à¦¸ à¦ĸ
à¦¬à¦°à¦ķà¦¤ à¦īà¦²
Ġà¦Łà¦Ĺ à¦Łà¦Ĺ
à¤¥ à¦¨
Ġwal king
Ġwant ed
Ġslow ly
Ġmay be
ĠOn ly
ĠOr ion
ĠOr issa
Ġpur uravas
Ġpart y
ĠIs land
ĠIs lam
Ġà¤µ à¤¹
Ġdist ingu
Ġdist ricts
à§§à§¯à§¦ à§¦
à§§à§¯à§¦ à§©
à§§à§¯à§§à§ ¬
Ġgu ess
Ġgrow n
Ġ19à§ª 3
Ġ19à§ª 6
ĠWhat sApp
Ġsec ret
Ġcons ider
Ġcons cious
Ġadopt ed
Ð¾Ð² Ð½Ð¾
Ġrhy thm
Ġexp ress
âĢķâĢķâĢķâĢķâĢķâĢķâĢķâĢķâĢķâĢķâĢķâĢķâĢķâĢķâĢķâĢķ âĢķâĢķâĢķâĢķâĢķâĢķ
ĠÑģÐ» Ð¾Ð²Ð½Ð¾
Ġdisc uss
DE SH
air s
my th
tick et
Ã¶ r
Ïħ Î½
Ñĸ ÑĢ
Õ½ Õ¿
ÙĤ Ø¯
Ùĳ Ùİ
à¬ ¾
à¦¨à¦®à¦ķ à¦¬à¦°
à¦²å ±ĭ
à¦¸à¦°à¦¹ à¦¦
à¦Ĺà¦ħ à¦ĩ
Ġà¦īà¦®à¦® à¦®
Ġ(âĢĶ )
inis hes
onom ic
arb ar
Ġsun bur
Ġsha red
Ġsweet er
Ġbell s
Ġmiss ing
éŁ¿éŁ¿éŁ¿éŁ¿éŁ¿éŁ¿ éŁ¿åĵį
Ġflow s
Ġpre vious
Ġpain s
ĠSa xena
Ġdem ons
ĠAng el
ĠPun jab
ĠPra jna
ĠPap es
ĠPap ers
à§§à§¯à§¯à§ ª
à§§à§¯à§¯à§ «
rok en
ĠCent re
Ġec onomic
ĠTw o
Ġà§¨à§¦à§¬ à§§
Ġgood ly
ĠHind head
ĠLal on
Ġforg et
ular ity
à¤ķà¤° à¤£
Ġsep oy
Ġsep arate
ĠÙĦ Ú©
uthor ized
ÑĢÐ° Ð¼
Ġìĭľ ë
Ġ×¨ ×Ĵ
Ġ×¨ ×¢×ĵ
Ġatt ack
Ġunder stood
Ġsoft ly
ĠáĥĽ áĥĿáĥ
form ation
Ġà¤īà¤ł à¦²
ĠIntegr ation
Ġgener ations
ĠGandhar vas
ĠGandhar va
Ġignor ant
110 10
Bang la
Pr imum
Sak i
TUR NAL
aud itory
bid den
cess ful
del ved
night ed
sp ir
sil on
Õ¸ ÖĤ
à© ľ
à¶ »
à· Ĵ
ìĨ į
Ġlect ures
ĠÑĤ Ð°
ıãģ Ħ
Ġà¦Ĥ ,
Ġà¦ķØ§Ø ¦ÙĨ
Ġà¦®à¦¦à¦Ĺ à§°
à¦¬à¦¨à¦ľà¦¨ à¦®à¦¨
Ġà¦¢à¦¨ à§İà¦ķ
Ġà¦ħà¦²à¦¸à¦Ĺ à¦®à¦¨
Ġtra vell
Ġtempt ation
Ġact ive
Ġsing ularity
Ġsign s
Ġsym phony
Ġco itus
Ġcy cles
Ġcent uries
Ġcry ptic
Ġcross ed
Ġcaus ed
Ġbo ishakh
Ġà¦¨à¦¹à¦¬à¦¤ à¦ĸ
Ġmir th
Ġmod el
Ġmem ory
Ġmess age
Ġmount ains
Ġold er
Ġniy e
Ġpap ers
Ġpass age
ĠSpe cial
ĠSOR ROW
Ġdre ar
Ġdur ing
Ġdest royed
Ġdaugh ter
ĠAM ONG
ĠAll en
ĠAss am
ĠPo ila
Ġinter rup
ĠCO DESH
ĠCl ass
ĠCall er
ĠChat terji
ĠĠĠĠĠĠ ĠĠĊĠĠĠĠĠĠĠĠĠĠ
ĠTe xt
ĠDep artment
Ġgr ands
Ġgent le
Ġgir l
Ġgiv en
Ġglit ch
Ġreg ion
Ġrel ief
Ġrest ored
ĠExp os
Ġkingdom s
Ġhero ic
Ġstat ue
Ġwhis per
ĠØ¨Ø± ÙĤ
ĠUnd er
Ġcounter me
ĠìĿ ´
ĠInst agram
Ġattain able
Ġunt old
Ġcontempor ary
Ġcontribut e
ĠëĪ Ī
Ġexper iment
ĠPhonet ic
Ġentire ly
Ġrapid ly
Ġneighbour s
ĠâĢĶâĢĶâĢĶâĢĶâĢĶâĢĶâĢĶâĢĶâĢĶâĢĶâĢĶ âĢĵ
Ġ70 6
Ġintegr ity
Ġremind ed
Intr usion
ĠSmart Hive
Ġreplac ed
ĠPsych ical
ĠHaih aya
Al ready
Athe ism
BHU NA
Ch rist
Fit r
Gog uryeo
Gory eo
Hind usthan
Jup iter
Kam chatka
Mong olo
Mani ac
NCT B
Red uce
SU LE
SY STEM
Sha re
Satur n
SDG s
VER RIDE
XII I
XIM ATION
bre ak
blow ing
fil m
hos h
hous es
tun e
touch ing
uro pe
viron mental
whol esome
Ûģ Ùħ
åħ ī
çļ Ħ
ïĢ £
Ġarg ument
Ġ34 0
Ġ35 0
Ġarm ies
ĠÒ¯ Ð½
ĠÏĢ Ïģ
à¦¾** **
à¦²ä¸ Ŀà¦ªà¦Ł
Ġà¦ķà¦¹à¦ķ à¦¹
Ġà¦ªà¦ĩà¦¸ à¦ĩ
à¦¦à¦ªà¦¸ à¦°à¦£
à¦¦ol at
Ġà¦¨à¦Łà¦¸ à¦ľ
à¦ĩà¦°à¦ĩ à¦Ľ
à¦ĩåķ ıãģĦ
Ġà¦¦uk an
à¦ļal ela
à¦ļà¦īà¦· à¦·
Ġà¦¶Pas ok
Ġà¦ľà¦ĵà¦¹ à¦°à¦²
Ġà¦Ľà¦ªà¦Ľ à¦ª
Ġà¦ĸà¦·à¦ĸ à¦·
à¦¿à¥¤ï»¿ )
ĠâĢĺà§Į âĢĻà¥¤
Ġà¦ĩà¦ıà¦Ł à¦¸
Ġà¦Ĩà¦ľà¦®à¦Ĺ à¦¡
à¦ħà¦°à¦° à¦°à¦°
Ġà¦īà¦¦à§Łà¦Ĺ à¦Ĺà¦¨
à¦°à¦¹or izon
à¦®à¦°à¦Ĺà¦°à¦² à¦ĸà¦£
Ġtol ls
Ġtap estry
Ġtek n
Ġwed dings
Ġsud den
Ġsuc cessful
Ġcun ning
espe are
Ġband opadhyay
Ġmus ed
Ġfut ure
Ġfart her
Ġfore ign
Ġfru its
ĠOmlet te
ĠOxfor d
Ġnut riment
Ġnum bness
Ġpic nics
Ġpie ce
Ġphil osophy
ĠSour aseno
ĠShak espeare
ĠSTE AM
ĠSahity a
ĠIran ian
Ġdim inishes
Ġdow ry
Ġdrow sy
Ġdign ity
Ġdiss olve
Ġdaw n
Ġdail y
ĠAUR A
ĠADI TI
ĠAiy ar
ĠAkadem i
ĠPhen omena
ĠPeop les
ĠBel le
ĠBurd wan
Ġinvol ved
ĠChar acter
ĠCCT V
ĠCRE ATION
ĠCAP SULE
ĠMob ile
ĠMaid enhead
ĠMicro film
Ġlaw s
ĠTha cker
ĠRain water
ĠRadhak rishnan
ĠResear ch
ĠDru hy
ĠDaven port
ĠDIU TURNAL
ĠDOW N
unci ation
uncle an
ĠNex us
ĠNIR BHUNA
ĠHOP E
ĠHyac inth
ĠLod ge
ĠLingu istic
ĠLIV OGEN
ĠLibr ary
ĠGang es
ĠGau hati
ĠGrand ma
emper or
Ġhealth ful
ĠKnow ledge
ĠKlu x
ĠKines is
estaCor p
Ġsevent h
ĠVint age
Ġjud ges
Ġmangro ve
intox icants
ĠInspect or
Ġimper ial
Ġimmor tal
INTRU SION
ĠëĶ°ë Ŀ¼
ĠJHW H
areful ly
andscap e
collabor ative
ĠâĿ¤ï ¸
ĠIntrodu ction
ĠSarvepall i
ĠMarlbor ough
ĠDESOL ATION
Ġperpet ual
ĠAbhijat ak
ĠAcadem y
ĠTrichinos is
APPRO XIMATION
Ġdistingu ished
Ġconscious ness
Ġsunbur nt
Ġ×¨×Ĵ ×¢
Ġinterrup tus
ĠĠĠĠĠĠĠĠĊĠĠĠĠĠĠĠĠĠĠ Ġ
ĠSouraseno i
