{"[PAD]":0,"[UNK]":1,"[CLS]":2,"[SEP]":3,"!":4,"\"":5,"#":6,"$":7,"%":8,"&":9,"'":10,"(":11,")":12,"*":13,"+":14,",":15,"-":16,".":17,"/":18,"0":19,"1":20,"2":21,"3":22,"4":23,"5":24,"6":25,"7":26,"8":27,"9":28,":":29,";":30,"<":31,"=":32,">":33,"?":34,"@":35,"A":36,"B":37,"C":38,"D":39,"E":40,"F":41,"G":42,"H":43,"I":44,"J":45,"K":46,"L":47,"M":48,"N":49,"O":50,"P":51,"Q":52,"R":53,"S":54,"T":55,"U":56,"V":57,"W":58,"X":59,"Y":60,"Z":61,"[":62,"\\":63,"]":64,"^":65,"_":66,"`":67,"a":68,"b":69,"c":70,"d":71,"e":72,"f":73,"g":74,"h":75,"i":76,"j":77,"k":78,"l":79,"m":80,"n":81,"o":82,"p":83,"q":84,"r":85,"s":86,"t":87,"u":88,"v":89,"w":90,"x":91,"y":92,"z":93,"{":94,"|":95,"}":96,"~":97,"¡":98,"¢":99,"£":100,"¤":101,"¥":102,"¦":103,"§":104,"¨":105,"©":106,"ª":107,"«":108,"¬":109,"®":110,"¯":111,"°":112,"±":113,"²":114,"³":115,"´":116,"µ":117,"¶":118,"·":119,"¸":120,"¹":121,"º":122,"»":123,"¼":124,"½":125,"¾":126,"¿":127,"À":128,"Á":129,"Â":130,"Ã":131,"Ä":132,"Å":133,"Æ":134,"Ç":135,"È":136,"É":137,"Ê":138,"Ë":139,"Ì":140,"Í":141,"Î":142,"Ï":143,"Ð":144,"Ñ":145,"Ò":146,"Ó":147,"Ô":148,"Õ":149,"Ö":150,"×":151,"Ø":152,"Ù":153,"Ú":154,"Û":155,"Ü":156,"Ý":157,"Þ":158,"ß":159,"à":160,"á":161,"â":162,"ã":163,"ä":164,"å":165,"æ":166,"ç":167,"è":168,"é":169,"ê":170,"ë":171,"ì":172,"í":173,"î":174,"ï":175,"ð":176,"ñ":177,"ò":178,"ó":179,"ô":180,"õ":181,"ö":182,"÷":183,"ø":184,"ù":185,"ú":186,"û":187,"ü":188,"ý":189,"þ":190,"ÿ":191,"Ā":192,"ā":193,"Ă":194,"ă":195,"Ą":196,"ą":197,"Ć":198,"ć":199,"Ĉ":200,"ĉ":201,"Ċ":202,"ċ":203,"Č":204,"č":205,"Ď":206,"ď":207,"Đ":208,"đ":209,"Ē":210,"ē":211,"Ĕ":212,"ĕ":213,"Ė":214,"ė":215,"Ę":216,"ę":217,"Ě":218,"ě":219,"Ĝ":220,"ĝ":221,"Ğ":222,"ğ":223,"Ġ":224,"ġ":225,"Ģ":226,"ģ":227,"Ĥ":228,"ĥ":229,"Ħ":230,"ħ":231,"Ĩ":232,"ĩ":233,"Ī":234,"ī":235,"Ĭ":236,"ĭ":237,"Į":238,"į":239,"İ":240,"ı":241,"Ĳ":242,"ĳ":243,"Ĵ":244,"ĵ":245,"Ķ":246,"ķ":247,"ĸ":248,"Ĺ":249,"ĺ":250,"Ļ":251,"ļ":252,"Ľ":253,"ľ":254,"Ŀ":255,"ŀ":256,"Ł":257,"ł":258,"Ń":259,"à¦":260,"à§":261,"Ġà¦":262,"à¦¾":263,"à§ĩ":264,"à¦°":265,"à§į":266,"à¦¿":267,"à¦¨":268,"à¦¤":269,"à¦²":270,"à¦ķ":271,"à§ģ":272,"à¦¯":273,"à¦¬":274,"à¦®":275,"à¦¼":276,"Ġà¦ķ":277,"à§ĭ":278,"Ġà¦¬":279,"Ġà¦¸":280,"à¥":281,"à¥¤":282,"Ġà¦ª":283,"à¦¸":284,"Ġà¦Ĩ":285,"à¦¦":286,"à¦Ł":287,"Ġà¦¨":288,"Ġà¦®":289,"à¦ĩ":290,"à¦ª":291,"à§Ģ":292,"Ġà¦¦":293,"à¦Ľ":294,"Ġà¦¤":295,"Ġà¦ı":296,"Ġà¦¹":297,"à¦ľ":298,"à¦¶":299,"à¦ĸ":300,"à¦¼à§ĩ":301,"âĢ":302,"Ġà¦ħ":303,"à¦Ĺ":304,"à§Ł":305,"à¦·":306,"Ġà¦¯":307,"à¦§":308,"à¦¡":309,"à¦ļ":310,"Ġà¦ķà¦°":311,"à¦¹":312,"Ġà¦Ĺ":313,"à¦ģ":314,"à¦£":315,"à¦¥":316,"Ġà¦¶":317,"Ġà¦ľ":318,"Ġà¦ļ":319,"Ġà¦Ń":320,"Ġà¦°":321,"à¦ĵ":322,"à§ĩà¥¤":323,"à¦Ń":324,"Ġà¦ıà¦ķ":325,"Ġà¦Ľ":326,"Ġà¦Ĩà¦®":327,"à§ĥ":328,"à¦ł":329,"ĠĠ":330,"à¦¼à¦¾":331,"Ġà¦ī":332,"à¦¾à¦ģ":333,"à¦Ĥ":334,"à¦Ļ":335,"à§Ĥ":336,"à§ĩ,":337,"Ġà¦¥":338,"Ġà¦¬à¦²":339,"Ġà¦Ĩà¦°":340,"Ġà¦²":341,"Ġà¦ĵ":342,"Ġà¦«":343,"Ġà¦ĸ":344,"âĢĶ":345,"à§ľ":346,"à¦°à¦¤":347,"Ġà¦ħà¦¨":348,"à¦¾à¥¤":349,"Ġà¦§":350,"Ġà¦¹à¦¯":351,"ĠâĢ":352,"Ġà¦ªà¦°":353,"à¦¾,":354,"à¦ĸà¦¨":355,"Ġà¦¸à¦®":356,"Ġà¦ĺ":357,"à¦¬à¦¨":358,"âĢĻ":359,"à¦¼à¦¿":360,"Ġà¦®à¦¨":361,"à¦®à¦¨":362,"Ġà¦ıà¦ķà¦Ł":363,"à¦ªà¦°":364,"à¦°à¦£":365,"à¦¿à¥¤":366,"à¦Ŀ":367,"Ġà¦ıà¦ĩ":368,"à¦ŀ":369,"à§İ":370,"à¦ī":371,"à¦¿,":372,"à¦ľà¦¨":373,"à¦«":374,"à¦°à¦¬":375,"à¦¤à¦°":376,"à¦ªà¦¨":377,"à¦ı":378,"Ġà¦Ĩà¦²":379,"Ġà¦¸à¦¬":380,"à¦¬à¦°":381,"à¦°à¦ķ":382,"Ġà¦¬à¦²à¦²":383,"Ġà¦Ĩà¦¸":384,"Ġà¦Ł":385,"âĢĿ":386,"à¦Ĩ":387,"Ġà¦ķà¦¥":388,"ĠâĢĺ":389,"à§Į":390,"Ġà¦®à¦¤":391,"Ġà¦Ĩà¦Ľ":392,"Ġà¦¡":393,"Ġà¦¹à¦²":394,"Ġà¦īà¦ł":395,"à¦ĺ":396,"ĠâĢľ":397,"Ġà¦ĩ":398,"Ġà¦ľà¦¨":399,"Ġà¦Ŀ":400,"à§Ī":401,"à¦¼à¥¤":402,"Ġà¦ªà¦¡":403,"Ġà¦¸à¦Ļ":404,"Ġà¦¹à¦¬":405,"Ġà¦ıà¦¬":406,"Ġà¦§à¦°":407,"à¦¬à¦²":408,"à¦ĵà¦¯":409,"Ġà¦ķà¦°à¦¤":410,"à§ģà¦ģ":411,"âĢĵ":412,"ĠĠĊ":413,"Ġà¦ħà¦¬":414,"Ġà¦ł":415,"Ġà¦¹à§Ł":416,"à¦¬à¦ª":417,"à¦·à¦£":418,"Ġà¦ıà¦¸":419,"Ġà¦®à¦§":420,"Ġà¦ķà¦°à¦²":421,"Ġà¦ļà¦²":422,"à¦¼,":423,"à¦°à¦®":424,"à¦ĥ":425,"Ġà¦¬à¦¸":426,"à¦¨à¦¤":427,"Ġà¦¬à¦¨":428,"Ġà¦¢":429,"à§ĭà¦ģ":430,"Ġà¦Ĩà¦ľ":431,"Ġà¦Ĩà¦¬":432,"Ġà¦Ĩà¦Ĺ":433,"à¦ķà¦²":434,"Ġà¦ªà¦¥":435,"Ġà¦¨à¦¤":436,"Ġà¦ħà¦¸":437,"Ġà¦ĵà¦ł":438,"Ġà¦Ĺà¦²":439,"à¦¤à¦¨":440,"à§ĩà¦ģ":441,"à¦ķà¦Ł":442,"à¦ķà¦°":443,"à§ĭ,":444,"à¦ħ":445,"à§ĩ?":446,"Ġà¦Ĩà¦®à¦°":447,"à¦¸à¦¬":448,"Ġà¦¨à¦¯":449,"à§ĭà¥¤":450,"Ġà¦¤à¦¬":451,"Ġà¦ıà¦ĸà¦¨":452,"à¦°à¦¥":453,"Ġà¦ħà¦®":454,"à¦²à¦ķ":455,"à¦¬à¦¤":456,"à¦°à¦¨":457,"Ġà¦Ĩà¦¨":458,"Ġà¦¤à¦ĸà¦¨":459,"Ġà¦¸à¦¤":460,"Ġà¦Ĩà¦ķ":461,"à¦¾-":462,"à¦°à¦¸":463,"à¦¤à¦¬":464,"Ġà¦ħà¦°":465,"Ġà¦ıà¦²":466,"Ġà¦Ĩà¦¶":467,"Ġà¦Ĩà¦ªà¦¨":468,"Ġà¦īà¦¦":469,"à¦¾à¦Ĥ":470,"Ġà¦¹à¦¤":471,"à¦ķà¦¤":472,"Ġà¦¶à¦¬":473,"à¦°à¦¥à¦®":474,"Ġà¦ħà¦¦":475,"à¦¦à¦¨":476,"Ġà¦¬à¦°":477,"Ġà¦ķà¦°à¦Ľ":478,"à¦¨à¦ĵ":479,"Ġà¦ĺà¦°":480,"à¦¿à¦Ĥ":481,"à§ĩâĢĶ":482,"à¦¯à¦¬":483,"à¦¦à¦°":484,"à¦Ĺà¦²":485,"Ġà¦ľà¦²":486,"Ġà¦¯à¦¦":487,"Ġà¦¸à¦¨":488,"Ġà¦°à¦ķ":489,"à¦Ĩà¦®":490,"Ġà¦ħà¦Ń":491,"Ġà¦ķà¦ĸà¦¨":492,"Ġà¦¸à¦°":493,"Ġà¦®à¦¹":494,"Ġà¦ħà¦¤":495,"Ġà¦īà¦łà¦²":496,"Ġà¦¸à¦®à¦¯":497,"Ġà¦¯à¦ĸà¦¨":498,"à¦Ĺà¦¤":499,"à¦²à¦¤":500,"à¦°à¦¹":501,"à¦§à¦ķ":502,"à¦ĵà§Ł":503,"Ġà¦ıà¦®à¦¨":504,"à¦®à¦¤":505,"Ġà¦ķà¦°à¦¬":506,"à¦¹à¦¸":507,"à¦ĸà¦¤":508,"à¦¦à¦¯":509,"Ġà¦ķà¦¬":510,"Ġà¦īà¦ª":511,"à¦Ľà¦¨":512,"à¦°à¦ľ":513,"à¦¨à¦¬":514,"à¦°à¦¶":515,"à¦ĸà¦²":516,"Ġà¦ªà§ľ":517,"à¦¯à¦ķ":518,"à¦°à¦²":519,"Ġà¦ķà¦²":520,"Ġà¦¬à¦¡":521,"à¦²à¦¬":522,"à¦²à¦¨":523,"à§ĩ-":524,"à¦§à¦¨":525,"à¦ļà¦¨":526,"à¦®à¦ķ":527,"à¦ĩà¦²":528,"à¦¯à¦¤":529,"Ġà¦¨à¦¦":530,"à¦°à¦¦":531,"Ġà¦ħà¦ª":532,"à¦®à¦²":533,"à¦¶à¦¨":534,"Ġà¦ıà¦¤":535,"à¦®à¦¯":536,"Ġà¦Ĩà¦¤":537,"Ġà¦¹à¦ł":538,"à¦°à¦ĩ":539,"à¦¿à¦ĥ":540,"à¦°à¦ªà¦°":541,"Ġà¦¸à¦¹":542,"âĢ¦":543,"Ġà¦¹à¦ļ":544,"à¦¹à¦°":545,"à¦ªà¦¤":546,"à¦ļà¦²":547,"Ġà¦ķà¦£":548,"Ġà¦ĵà¦°":549,"Ġà¦ħà¦§":550,"à¦ķà¦¬":551,"Ġà¦¬à¦²à¦¤":552,"Ġà¦īà¦¤":553,"à¦°à¦¯":554,"Ġà¦¶à¦ķ":555,"à¦ªà¦¦":556,"à¦¸à¦¨":557,"Ġà¦ķà¦¤":558,"Ġà¦ĵà¦ªà¦°":559,"à¦¨à¦¨":560,"à¦ĩà¦¨":561,"Ġà¦Ńà¦°":562,"Ġà¦ıà¦ĸ":563,"Ġà¦ľà¦®":564,"à¦¾âĢĶ":565,"Ġà¦ħà¦ļ":566,"à¦ıà¦ĩ":567,"Ġà¦ĺà¦Ł":568,"à§Ģ,":569,"Ġà¦ħà¦ľ":570,"à¦¹à¦²":571,"à¦¯à¦¨":572,"à¦¼à§ĭ":573,"ĠâĢĶ":574,"à¦¿-":575,"à¦Łà¦ķ":576,"Ġà¦ĩà¦¤":577,"à§İà¦¸":578,"Ġà¦ħà¦ķ":579,"à¦¿?":580,"Ġà¦¬à¦¹":581,"Ġà¦īà¦¨":582,"Ġà¦¨à§Ł":583,"Ġà§":584,"Ġà¦°à¦Ļ":585,"à¦¾?":586,"Ġà¦ħà¦¥":587,"à¦Ńà¦¬":588,"à¦Ľà¦°":589,"Ġà¦Ĺà¦¡":590,"Ġà¦¦à¦°à¦ľ":591,"à¦¦à§Ł":592,"à¦Ĺà¦¨":593,"Ġà¦ķà¦®":594,"à¦¤à¦²":595,"Ġà¦ıà¦Ĺ":596,"Ġà¦¯à¦¤":597,"à¦®à¦°":598,"Ġà¦¬à¦ĩ":599,"à¦°à¦ĵ":600,"à¦·à¦¤":601,"à¦¨à¦ķ":602,"Ġà¦Ľà¦¡":603,"Ġà¦ªà¦¦":604,"Ġà¦ĵà¦ĩ":605,"à¦¬à¦¦":606,"à¦¸à¦®":607,"Ġà¦¬à¦Ľà¦°":608,"Ġà¦¸à¦ķ":609,"Ġà¦Ńà¦¯":610,"Ġà¦īà¦ļ":611,"Ġà¦Ĩà¦°à¦ĵ":612,"Ġà¦¶à¦°":613,"à¦¿à¦ģ":614,"à§ģâĢĻ":615,"à¦¶à¦¬":616,"Ġà¦¤à¦°":617,"Ġà¦¸à¦®à¦¸":618,"Ġà¦ıà¦Ł":619,"Ġà¦¬à¦¯":620,"Ġà¦¶à¦¹à¦°":621,"à§Ģà¥¤":622,"âĢľ":623,"à§İà¦ķ":624,"à¦¤à¦ķ":625,"Ġà¦®à¦°":626,"à¦®à¦£":627,"Ġà¦ħà¦Ĺ":628,"à¦Ĺà¦°":629,"à¦¿âĢĶ":630,"Ġà¦Ĺà¦°":631,"Ġà¦Ĺà¦Ń":632,"à¦ĩà¦°":633,"âĢĮ":634,"à¦°à¦ª":635,"à§ģ,":636,"à§ģà¦ĥ":637,"Ġà¦Ĺà¦¨":638,"à¦·à¦ķ":639,"à¥¤âĢĿ":640,"à¦Ŀà¦¤":641,"Ġà¦Ľà¦¬":642,"Ġà¦ħà¦ªà¦°":643,"à¦¸à¦°":644,"à¦¦à¦²":645,"à¦¯à¦®":646,"à¦ªà¦¥":647,"à¦ļà¦¯":648,"à§įâĢĮ":649,"à¦¤à¦¤":650,"à¦ıà¦ķ":651,"à¦¼à§ĩà¥¤":652,"Ġà¦ıà¦°":653,"à§ĩ!":654,"à¦¬à¦¸":655,"à¦Łà¦²":656,"Ġà¦ħà¦®à¦²":657,"à¦¤à¦®":658,"Ġà¦«à¦²":659,"à¦ļà¦ķ":660,"Ġà¦ħà¦²":661,"à¦¼à§ĩ,":662,"à¦°à¦Ł":663,"à¦°à¦Ń":664,"Ġà¦ħà¦¶":665,"Ġà¦Ĳ":666,"à¦ªà¦ķ":667,"Ġà¦¬à¦²à¦Ľ":668,"à¦ļà¦°":669,"Ġà¦ıà¦ķà¦ľà¦¨":670,"Ġà¦ıà¦ķà¦¦":671,"§à§":672,"Ġà¦²à¦ķ":673,"à¦²à¦²":674,"à¦®à¦¬":675,"à¥¤âĢĻ":676,"à¦¶à¦ķ":677,"ĠĊ":678,"à¦¢":679,"à¦¨à¦Ł":680,"à¦¸à¦²":681,"Ġà¦Ĩà¦¨à¦¨":682,"à¦¸à¦Ļ":683,"à§Łà¦¨":684,"Ġà¦ĩà¦¨":685,"à¦°à¦ļ":686,"à¦¸à¦¤":687,"à¦°à¦¬à¦¤":688,"à¦°à¦ķà¦®":689,"à¦°à¦Ľ":690,"Ġà¦ıà¦ķà¦¬":691,"à¦¬à¦ķ":692,"Ġà¦ħà¦¥à¦ļ":693,"à§°":694,"à§ĩ;":695,"Ġà¦ĩà¦ļ":696,"à¦ľà¦²":697,"Ġà¦ħà¦¬à¦¸":698,"Ġà¦ªà¦¤":699,"Ġà¦ħà¦¨à¦¨":700,"à¦ĩà¦ķ":701,"à¦ħà¦¨":702,"Ġà¦°à¦¹à¦¸":703,"?âĢĻ":704,"!âĢĿ":705,"à¦£à¦¤":706,"Ġà¦Ĩà¦¸à¦Ľ":707,"à§ģ-":708,"à¦ªà¦Ł":709,"Ġà¦Ĩà¦¸à¦²":710,"à§ģà¥¤":711,"à¦¯à¦¬à¦¹":712,"Ġà¦¸à¦ķà¦²":713,"à¦§à¦¤":714,"Ġà¦Ŀà¦°":715,"à§Įà¦ģ":716,"Ġà¦Ĩà¦§":717,"à¦¯à¦¬à¦¸":718,"à¦¹à¦¨":719,"Ġà¦¸à¦®à§Ł":720,"à¦·à¦¯":721,"à¦ľà¦°":722,"à¦¨à¦¦":723,"Ġà¦Ńà¦¬":724,"Ġà¦°à¦¬":725,"à¦¸à¦«":726,"à¦®à§Ł":727,"Ġà¦Ĩà¦ľà¦ķ":728,"à¦¨à¦²":729,"à¦·à¦°":730,"à¦ĸà¦¬":731,"à¦¬à¦¬":732,"Ġà¦¶à¦¤":733,"Ġà¦ªà¦ķ":734,"Ġà¦¬à¦¦à¦²":735,"Ġà¦Ĩà¦ļ":736,"Ġà¦īà¦ľ":737,"Ġà¦Ĩà¦¡":738,"à¦ķà¦¨":739,"à¦ĸà¦Ľ":740,"à¦¯à¦¸":741,"à§ĩà¥¤âĢĿ":742,"Ġà¦Ī":743,"Ġà¦¬à¦²à¦¬":744,"Ġà¦Ĩà¦¦":745,"à¦¯à¦°":746,"à¦Ĺà¦ľ":747,"Ġà¦ķà¦¯":748,"à¦¬à¦¯":749,"Ġà¦īà¦ªà¦°":750,"à¦¯à¦¦":751,"Ġà¦ħà¦Ļ":752,"Ġ(":753,"à¦īà¦¨":754,"à¦¾!":755,"Ġà¦Ĩà¦Ļ":756,"Ġà¦ħà¦¬à¦¶":757,"à¦Łà¦¤":758,"Ġà¦īà¦²":759,"Ġà¦Ľà§ľ":760,"à§ĩâĢĵ":761,"Ġà¦Ĺà§ľ":762,"à¦ĺà¦°":763,"à¦¥à¦°":764,"Ġà¦Ĺà¦¤":765,"Ġà¦īà§İ":766,"à¦¨à¦¸":767,"à§ĭ?":768,"Ġà§§à§":769,"à¦¨à¦Ĺ":770,"Ġà¦Ĩà¦¹":771,"Ġà¦¨à¦¬":772,"Ġà¦Ĩà¦¸à¦¬":773,"à¦¨à¦°":774,"Ġà¦ĵà¦¦":775,"Ġà¦¤à¦²":776,"Ġà¦¦à¦²":777,"Ġà¦ĸà¦¬à¦°":778,"Ġà¦ķà¦ĸà¦¨à¦ĵ":779,"à¦¸à¦ķ":780,"à¦ªà¦¸":781,"à¦¨à¦¬à¦¤":782,"à¦§à¦°":783,"Ġà¦ĺà¦Łà¦¨":784,"Ġà¦°à¦ĩà¦²":785,"Ġà¦°à¦ķà¦®":786,"âĢĺ":787,"Ġà¦īà¦¡":788,"à¦Łà¦¬":789,"à¦¼à§ģ":790,"à¦¬à¦¶":791,"Ġà¦Ĩà¦ª":792,"Ġà¦¬à§ľ":793,"Ġà¦ļà¦ķ":794,"à¦ĩà¦¯":795,"à¦Ŀà¦²":796,"à¦°à¦Ĺ":797,"à¦°à¦ľà¦¨":798,"à¦¼à§Ģ":799,"à¦Ļà¦²":800,"Ġà¦ĺà¦¨":801,"à¦²à¦Ľ":802,"à¦ĩà¦Ł":803,"Ġà¦Ĩà¦¯":804,"Ġà¦¹à¦ĵà¦¯":805,"à¦«à¦²":806,"¯à§":807,"à¦ıà¦°":808,"à¦¼à¦¾,":809,"à¦¥à¦¨":810,"à¦¯à¦¥":811,"Ġà¦ıà¦ķà¦ĩ":812,"Ġà¦īà§İà¦¸":813,"Ġà¦Ńà§Ł":814,"Ġà¦¸à¦¹à¦ľ":815,"Ġà¦ıà¦¨":816,"Ġà¦¬à§Ł":817,"à§ĭâĢĶ":818,"à¦Łà¦°":819,"Ġà¦Ĩà¦Łà¦ķ":820,"Ġà¦¦à¦°à¦ķ":821,"Ġà¦ķà¦·":822,"Ġà¦ĭ":823,"à¦ĩà¦¤":824,"Ġà¦ıà¦ĸà¦¨à¦ĵ":825,"à¦®à¦¸":826,"à¦ķà¦ķ":827,"à¦ıà¦ķà¦Ł":828,"à¦ªà¦¡":829,"à¦Ńà¦°":830,"Ġà¦Ľà¦¨":831,"Ġà¦Ĩà¦¸à¦¤":832,"Ġà¦¬à¦Ł":833,"à¦ªà¦·":834,"Ġà¦°à¦¯":835,"Ġà¦ķà¦ł":836,"à¦Ĩà¦°":837,"à¦Ĩà¦ľ":838,"à¦°à¦¹à¦°":839,"à§Ģ-":840,"à¦°à¦®à¦£":841,"Ġà¦¬à¦ķ":842,"à¦·à¦®":843,"à¦ıà¦¬":844,"Ġà¦¹à¦°":845,"ĠâĢĵ":846,"à¦¾âĢĻ":847,"?âĢĿ":848,"Ġà¦Ńà¦¦":849,"Ġà¦ªà¦²":850,"Ġà¦¦à¦°":851,"à¦¾;":852,"Ġà¦ħà¦¥à¦¬":853,"à¦ľà¦¸":854,"Ġà¦ļà¦°":855,"à§¦":856,"à¦¾âĢĵ":857,"Ġà¦ħà¦«":858,"à¦¯à¦ĩ":859,"à¦Ĺà¦¬":860,"à¦ľà¦¯":861,"à¦ĩà¦¬":862,"à¦§à¦¬":863,"Ġà¦¤à¦¥":864,"à¦¦à¦®":865,"Ġà¦ķà¦¨":866,"Ġà¦ľà¦¡":867,"à¦¹à¦¤":868,"à¦Łà¦¨":869,"à§ĭ-":870,"Ġà¦¨à¦ķ":871,"Ġà¦ıà¦¦":872,"à¦°à¦¹à¦£":873,"Ġà¦¤à¦¤":874,"Ġà¦ľà¦¯":875,"à¦¼à¦¾à¥¤":876,"Ġà¦¤à¦ĸà¦¨à¦ĩ":877,"à¦ķà¦¡":878,"Ġà¦¸à¦¬à¦ļ":879,"Ġà¦Ĩà¦Ń":880,"à¦ľà¦¬":881,"Ġà¦ħà¦¦à¦®":882,"Ġà¦¦à¦¶":883,"à¦¼âĢĶ":884,"à¦°à¦§":885,"à¦²à¦¸":886,"à¦¯à¦¯":887,"à¦®à¦§":888,"Ġà¦ľà¦°":889,"Ġà¦Īà¦¶":890,"Ġà¦ķà¦²à¦ķ":891,"Ġà¦¯à¦¨":892,"à¦¿!":893,"à¦ľà¦¤":894,"à¦ªà¦£":895,"à¦®à¦Ł":896,"Ġà¦¸à¦ļ":897,"à¦²à¦®":898,"à¦¸à¦¬à¦ĩ":899,"Ġà¦¸à¦°à¦ķ":900,"Ġà¦¨à¦°à¦®":901,"Ġà¦§à¦°à¦¨":902,"à¦ķà¦¦":903,"à¦Ĩà¦®à¦°":904,"Ġà¦¯à¦¥":905,"à¦²à¦Ĺ":906,"à¦Ĺà¦®":907,"Ġà¦īà¦łà¦¤":908,"Ġà¦²à¦ľ":909,"Ġà¦ľà¦¬":910,"à§Ŀ":911,"Ġà¦¸à¦¦":912,"à¦·à¦®à¦¤":913,"Ġà¦¸à¦Ń":914,"âĢĶâĢľ":915,"Ġà¦īà§İà¦¸à¦¬":916,"à¦Ĩà¦ªà¦¨":917,"à¦¶à¦ª":918,"à¦®à¦°à¦£":919,"Ġà¦ĵà¦ķ":920,"âĢĻ,":921,"à¦¼?":922,"Ġà¦Ĳà¦¤":923,"à¦¨à¦ĩ":924,"Ġà¦§à¦¨":925,"à§¨":926,"Ġà¦Ĩà¦ľà¦ĵ":927,"Ġà¦Ĺà¦£":928,"à¦®à¦Ĺ":929,"à¦īà¦ķ":930,"Ġà¦ıà¦¸à¦¬":931,"Ġà¦ħà¦Łà¦²":932,"à¦¾à¥¤âĢĿ":933,"à¦ĩà¦Ľ":934,"à¦¨à¦¯":935,"à¦łà¦ķ":936,"Ġà¦¸à¦ŀ":937,"Ġà¦ķà¦ª":938,"à§Łà¦¤":939,"à¦°à§Ł":940,"à¦®à¦¹":941,"à¦łà¦¸":942,"Ġà¦¸à¦¤à¦¤":943,"à¦²à¦Ł":944,"Ġà¦¨à¦¨":945,"à§Ģ?":946,"à¦Ĩà¦²":947,"à¦¹à¦°à¦£":948,"Ġà¦īà§ľ":949,"à¦ŀà¦¤":950,"Ġà¦Ĩà¦¦à¦°":951,"à¦Łà¦«":952,"Ġà¦®à¦ľ":953,"à¦¾à¦ģ,":954,"Ġà¦ıà¦Ń":955,"Ġà¦¨à¦®":956,"à¦ĸà¦°":957,"Ġà¦ªà¦°à¦¬à¦°":958,"Ġà¦īà¦ªà¦¸":959,"à¦¹à¦ł":960,"Ġà¦§à¦°à¦²":961,"à¦¨à¦Ń":962,"Ġà¦ªà¦¶":963,"à¦ľà¦®":964,"à¦ķà¦¥":965,"à¦ªà¦ļ":966,"à¦¹à¦¯":967,"Ġà¦īà¦łà¦Ľ":968,"à§ĩà¥¤âĢĻ":969,"à¦£à¦ķ":970,"Ġà¦²à¦¡":971,"à¦¾à¥¤âĢĻ":972,"à¦¶à¦²":973,"Ġ:":974,"à¦¡à¦²":975,"à¦¸à¦ª":976,"âĢĻà¥¤":977,"à¦¼-":978,"Ġà¦ļà¦®à¦ķ":979,"à¦²à¦¯":980,"Ġà¦ªà¦°à¦®":981,"Ġà¦ıà¦ķà¦¸à¦Ļ":982,"à¦¯à¦ª":983,"à¦¿âĢĵ":984,"Ġà¦¨à¦ľà¦°":985,"Ġà¦®à¦£":986,"à¦¼à¦Ĥ":987,"Ġà¦¸à¦¬à¦ĩ":988,"Ġà¦ħà¦¸à¦®":989,"à¦¸à¦®à¦¯":990,"Ġà¦¥à¦®à¦ķ":991,"Ġà¦¬à¦ī":992,"à§ĩâĢ¦":993,"à¦¸à¦Ł":994,"Ġà¦®à¦¸":995,"à¦®à¦¶":996,"à¦ļà¦¡":997,"à¦¬à¦ĩ":998,"à¦¬à¦ļ":999,"Ġà¦Ńà¦Ļ":1000,"Ġà¦ıà¦ķà¦®":1001,"à¦ĥà¥¤":1002,"à¦²à¦®à¦²":1003,"à¦ıà¦Ł":1004,"Ġà¦¬à¦¸à¦²":1005,"Ġà¦®à¦ŀ":1006,"Ġà¦ªà¦¦à¦ķ":1007,"Ġà¦°à§Ł":1008,"à¦ķà¦¶":1009,"à¦¤à¦Ł":1010,"à¦¬à¦Ľ":1011,"Ġà¦°à¦ļà¦¨":1012,"à§ĩ?âĢĻ":1013,"à¤":1014,"Ġà¦¶à¦¹":1015,"à¦Ŀà¦°":1016,"à¦¦à¦Ĺ":1017,"Ġà¦ªà§ľà¦²":1018,"Ġà¦Ĩà¦°à¦®":1019,"à¦īà¦²":1020,"Ġà¦Ĺà¦Ļ":1021,"à¦ķà¦¸":1022,"Ġà¦ļà¦²à¦Ľ":1023,"à¦ķà¦Ľ":1024,"à¦ķà¦°à¦£":1025,"à¦®à¦ľ":1026,"à¦¦à¦¸":1027,"Ġà¦Ĺà¦¹":1028,"Ġà¦īà¦·":1029,"à¦¿;":1030,"Ġà¦¦à¦ķ":1031,"Ġà¦īà¦łà¦¬":1032,"Ġà¦®à¦²":1033,"à¦ľà¦ķ":1034,"à¦¤à¦¦":1035,"Ġà¦Ĩà¦ĵà¦¯":1036,"Ġà¦°à¦®à¦£":1037,"Ġà¦ļà¦²à¦¤":1038,"à¦¯à¦Ń":1039,"à¦Ľà¦¬":1040,"Ġà¦¤à¦°à¦Ļ":1041,"Ġà§§à§¯à§":1042,"Ġà¦¯à¦¤à¦ĩ":1043,"à¦®à¦¦":1044,"à¦°à¦°":1045,"Ġà¦¦à¦®":1046,"Ġà¦ħà¦°à¦£":1047,"Ġà¦ķà§Ł":1048,"Ġà¦Ĺà¦¬":1049,"à¦¶à¦®":1050,"Ġà¦ĺà¦£":1051,"à¦ļà¦°à¦£":1052,"à§ĩ?âĢĿ":1053,"à¦°à¦«":1054,"Ġà¦Ĺà¦°à¦®":1055,"Ġà¦Ŀà¦²à¦®à¦²":1056,"à¦¤à¦ª":1057,"Ġà¦²à¦²":1058,"Ġà¦Ĺà¦®":1059,"à¦ķà¦Ĺ":1060,"Ġà¦ħà¦ŀ":1061,"Ġà¦¸à¦°à¦²":1062,"Ġà¦ıà¦®à¦¨à¦ķ":1063,"à¦°à¦¬à¦²":1064,"à¦ĩà¦Ń":1065,"à¦¥à¦ķ":1066,"à¦ķà¦ľà¦¨":1067,"à§§à§":1068,"à¦Ŀà¦ĸ":1069,"à¦°à¦ĸ":1070,"à¦ļà¦¤":1071,"à¦¥à¦²":1072,"Ġà¦®à¦¶":1073,"Ġà¦ªà¦ŀ":1074,"à¦ıà¦ĸ":1075,"Ġà¦ħà¦ľà¦¸":1076,"à¦ıà¦¸à¦¬":1077,"Ġà¦ªà¦£":1078,"à¦Ĺà¦Ľ":1079,"Ġà¦ħà¦Ł":1080,"à¦®à¦ª":1081,"à¦Łà¦Ľ":1082,"à¦łà¦¨":1083,"Ġà¦°à¦¸":1084,"à¦·à§Ł":1085,"à¦Łà¦ª":1086,"à¦ĩà¦¡":1087,"Ġà¦²à¦®":1088,"à¦Ńà¦¯":1089,"à¦¬à¦¹":1090,"à¦ķà¦ĩ":1091,"à¦·à¦Ł":1092,"Ġà¦¹à§Łà¦¤":1093,"à¦¸à¦¹":1094,"à¦£à¦¨":1095,"à¦ªà¦²":1096,"à¦ķà§ľ":1097,"Ġà¦¹à¦¸":1098,"Ġà¦ľà§Ł":1099,"à¦¬à¦Ń":1100,"à¦¸à¦Ľ":1101,"Ġà¦ļà¦¤":1102,"à¦°à¦¬à¦¨":1103,"à¦Ľà¦²":1104,"à¦¿à¥¤âĢĿ":1105,"à¦ħà¦°":1106,"Ġà¦ļà¦¡":1107,"Ġà¦Ĩà§ľ":1108,"Ġà¦Ĩà¦ĺ":1109,"à¦ĩà§Ł":1110,"Ġà¦¸à¦ª":1111,"à¦£à¦¬":1112,"à¦ķà¦Ń":1113,"Ġà§¨":1114,"à¦·à¦¦":1115,"à§ĭ!":1116,"à¦ªà¦®":1117,"à¦ļà¦Ł":1118,"à¦¨à¦¶":1119,"à¦¦à¦Ł":1120,"à¦¡à¦¬":1121,"à¦¦à¦ķ":1122,"à¦¤à¦¹":1123,"à¦ıà¦ĸà¦¨":1124,"à¦¿à¥¤âĢĻ":1125,"Ġt":1126,"Ġà¦®à¦¤à¦¨":1127,"à¦°à¦Ĺà¦¤":1128,"Ġà¦¸à¦®à¦¨":1129,"Ġà¦ħà¦¸à¦¹":1130,"à¦ľà¦Ľ":1131,"à¦īà¦¯":1132,"Ġà¦ıà¦ķà¦¤":1133,"Ġà¦ªà¦Ľà¦¨":1134,"à¦ĺà¦¨":1135,"à¦ªà§ľ":1136,"Ġà¦¸à¦¬à¦ķ":1137,"à¦¤à¦¨à¦¤":1138,"à§§":1139,"Ġà¦¬à¦¸à¦¨":1140,"Ġà¦ļà¦¨":1141,"Ġà¦¹à¦¨":1142,"à¦ļà§Ł":1143,"à¦Ĺà¦£":1144,"Ġà¦ķà¦²à¦®":1145,"à¦¤à¦Ń":1146,"à¦īà¦°":1147,",âĢĿ":1148,"Ġà¦īà¦°":1149,"âĢĶâĢĺ":1150,"à¦¼;":1151,"à¦°à¦¦à¦°":1152,"Ġà¦ļà¦Ł":1153,"Ġà¦ªà¦°à¦¶":1154,"à¦¯à§İ":1155,"à¦¨à¦Ľ":1156,"Ġà¦ľà¦Ĺà¦¤":1157,"à¦¬à¦²à¦ľ":1158,"Ġà¦¬à¦ľ":1159,"à¦¨à¦ª":1160,"à¦¬à¦§":1161,"Ġà¦¬à¦ĩà¦¯":1162,"à¦¬à¦¡":1163,"Ġà¦®à¦¦":1164,"à¦Ĺà¦¡":1165,"à¦¿âĢĻ":1166,"à¦¤à¦¸":1167,"Ġà¦¨à¦·":1168,"Ġà¦¸à¦ł":1169,"he":1170,"Ġà¦¸à¦ľ":1171,"à¦Ĩà¦ķ":1172,"à§©":1173,"Ġà¦·":1174,"à¦§à¦¹à¦¯":1175,"Ġà¦Ŀà¦¡":1176,"à¦¶à¦¯":1177,"à¦ĸà¦ķ":1178,"Ġà¦ļà¦²à¦²":1179,"à¦²à¦Ń":1180,"Ġà¦®à¦®à¦¤":1181,"à¦®à¦ļ":1182,"Ġà¦Ĩà¦¨à¦¤":1183,"à¦ĩà¦¸":1184,"..":1185,"Ġà¦Ĭ":1186,"Ġà¦¹à¦ĩ":1187,"Ġà¦ħà¦®à¦¨":1188,"à¦¬à¦Ł":1189,"à¦¹à¦®":1190,"Ġà¦ĵà¦·":1191,"à¦ĺà¦²":1192,"Ġà¦ħà¦¤à¦ıà¦¬":1193,"à¦ľà¦Ł":1194,"à¦®à¦¡":1195,"Ġà¦ıà¦°à¦ķà¦®":1196,"Ġà¦Ĩà¦ĩà¦¨":1197,"Ġà¦ıà¦¤à¦ķ":1198,"à¦²à¦ª":1199,"Ġà¦¨à¦°":1200,"à¦°à¦Ļ":1201,"à¦ľà¦¨à¦ķ":1202,"Ġà¦Ŀà¦¨":1203,"à§«":1204,"à¦¨à¦ļ":1205,"Ġà¦ľà¦Ł":1206,"à§ĩ:":1207,"à¦¬à¦²à¦¤":1208,"à¦°à¦¸à¦Ļ":1209,"an":1210,"Ġà¦ªà¦¯":1211,"à¦°à¦¬à¦°":1212,"Ġà¦ķà¦¤à¦Ł":1213,"Ġà¦¨à¦¡":1214,"à¦īà¦Ł":1215,"à¦Ľà¦¤":1216,"Ġà¦¤à¦¨":1217,"Ġ.":1218,"à§ª":1219,"à¦¤à¦ĩ":1220,"Ġà¦ĵà¦¯":1221,"Ġà¦Ĳà¦ķ":1222,"Ġà¦ħà¦¤à¦²":1223,"à¦¾à¦ĥ":1224,"Ġà¦ķà¦Ł":1225,"à¦¾âĢ¦":1226,"à¦¥à¦®":1227,"Ġà¦ĵà¦Ł":1228,"à¦Ĩà¦Ĺ":1229,"Ġà¦ľà§ľ":1230,"à¦²à¦ļ":1231,"à¦ªà¦Ľ":1232,"Ġà¦¹à¦ĵà§Ł":1233,"in":1234,"à¦¥à¦¤":1235,"à¦ķà¦ļ":1236,"à¦ķà¦®":1237,"à¦ľà§Ł":1238,"Ġà¦ĸà¦¸":1239,"à§ĩ!âĢĿ":1240,"Ġà¦¸à¦®à¦°":1241,"Ġà¦ħà¦¹":1242,"Ġà¦Ĩà¦ķà¦°":1243,"Ġà¦ĵà¦ª":1244,"à¦Łà¦Ł":1245,"à¦¦à¦¬":1246,"Ġà¦ĵà¦ĸ":1247,"à¦¦à¦¶":1248,"à¦¶à¦¤":1249,"Ġà¦ħà¦®à¦°":1250,"à¦²à¦ĩ":1251,"à¦¯à¦®à¦¯":1252,"Ġà¦¸à§İ":1253,"à¦ĩà¦ľ":1254,"Ġà¦¶à¦Ļ":1255,"à¦ĵà¦°":1256,"à¦®à¦¨à¦ĩ":1257,"à¦īà¦¦":1258,"à¦¾?âĢĻ":1259,"Ġà¦ķà¦Ļ":1260,"à¦ľà¦Ĺ":1261,"Ġà¦¨à¦Ĺà¦°":1262,"Ġà¦¶à¦ªà¦¥":1263,"Ġà¦ĩà¦²":1264,"Ġà¦ļà¦²à¦¬":1265,"Ġà¦ªà¦²à¦ķ":1266,"à¦²à¦ľ":1267,"Ġà¦§à¦°à¦¤":1268,"Ġà¦īà¦ªà¦¨":1269,"à¦¶à¦°":1270,"à¦¬à¦£":1271,"Ġà¦¬à¦¸à¦¤":1272,"à¦²à§Ł":1273,"Ġà¦Ĩà¦ļà¦°à¦£":1274,"Ġà¦®à¦¨à¦¨":1275,"Ġà¦ħà¦ªà¦®":1276,"à¦¬à¦®":1277,"à¦¼âĢĵ":1278,"à¦ķà¦£":1279,"Ġà¦²à¦¤":1280,"Ġà¦Ĩà§Ł":1281,"à¦¶à¦Ł":1282,"Ġà¦ıà¦ķà¦¨":1283,"à§ĩà¦¾":1284,"Ġà¦ľà¦Ļ":1285,"à¦¼à¦¿,":1286,"à¦¼à¦¿à¥¤":1287,"à¦īà§Ł":1288,"à¦ļà§ľ":1289,"Ġà¦ıà¦¤à¦Ł":1290,"à¦¼à¦¾-":1291,"à¦ĩà¦®":1292,"à¦¬à¦²à¦Ľ":1293,"à§Łà¦®":1294,"à¦¿?âĢĻ":1295,"à§¯à§":1296,"à¦¸à¦¬à¦ķ":1297,"Ġà¦ħà¦¨à¦²":1298,"Ġà¦ħà¦ķà¦¸":1299,"à¦Ī":1300,"Ġà¦īà¦ªà¦²à¦¬":1301,"à¦¨à§Łà¦¨":1302,"à¦¬à¦ľ":1303,"à¦¬à¦ľà¦¨":1304,"à¦ĵà¦¨":1305,"re":1306,"à¦°à¦®à¦¶":1307,"à¦ħà¦¤":1308,"à¦°à¦ķà¦²":1309,"à¦¤à¦Ĺ":1310,"à¦®à¦ªà¦°":1311,"Ġà¦«à¦¸à¦²":1312,"à§¦à§¦":1313,"à¦®à¦®":1314,"Ġà¦ĭà¦·":1315,"Ġà¦°à¦ŀ":1316,"éŁ":1317,"Ġà¦¬à¦¸à¦¬":1318,"éŁ¿":1319,"!âĢĻ":1320,"à¦¯à¦¹":1321,"à¦¥à¦¬":1322,"à¦Ĺà¦°à¦£":1323,"à¦¡à¦¬à¦¦":1324,"à¦¿âĢ¦":1325,"à¦Łà¦®":1326,"à¦¬à¦²à¦¨":1327,"Ġà¦ĩà¦¸":1328,"éŁ¿éŁ¿":1329,"Ġà¦ħà¦¬à¦§":1330,"à¦¬à¦°à¦£":1331,"à¦®à¦Ľ":1332,"Ġà¦Ĩà¦ĵà§Ł":1333,"Ġà¦ħà¦¬à¦²":1334,"Ġà¦¤à¦ĸà¦¨à¦ĵ":1335,"Ġà¦¬à¦ĩà§Ł":1336,"à¦¯à¦Ł":1337,"Ġà¦ķà¦«":1338,"Ġà¦ªà¦Ł":1339,"Ġà¦®à¦¯":1340,"à§ĩâĢĻ":1341,"Ġà¦ļà¦®":1342,"Ġà¦Ĩà¦²à¦®":1343,"Ġà¦Ĩà¦«":1344,"à¦¾:":1345,"à¦Ľà¦Ł":1346,"à§Łà¦Ĺ":1347,"Ġà¦ıà¦ķà¦¸":1348,"Ġà¦ıà¦¤à¦¦":1349,"à¦¬à§Ł":1350,"à¦¼!":1351,"Ġà¦®à¦Ļ":1352,"Ġà¦ļà¦°à¦®":1353,"Ġà¦ĩà¦¯":1354,"à¦¬à¦°à¦¤":1355,"Ġà¦ĺà¦¡":1356,"Ġà¦Ĺà¦¦":1357,"à§Ń":1358,"à¦¤à¦ľ":1359,"à¦¦à¦¤":1360,"Ġà¦Ńà¦ķ":1361,"Ġà¦Ĭà¦°":1362,"Ġà¦¨à¦ĩ":1363,"à¦¨à¦®":1364,"Ġà¦Ŀà¦²à¦ķ":1365,"à¦¯à¦ķà¦°":1366,"à¦ķà¦ª":1367,"à¦¤à¦ĸà¦¨":1368,"Ġà¦ľà¦Ĺ":1369,"Ġà¦ıà¦ķà¦²":1370,"à¦ľà¦ª":1371,"à¦ıà¦®à¦¨":1372,"à§įà¥¤":1373,"à¦¸à¦¸":1374,"à§ĢâĢĶ":1375,"Ġà¦ıà¦°à¦ªà¦°":1376,"Ġà¦¸à¦¹à¦¯":1377,"à¦¹à¦ķ":1378,"à§ĭà¥¤âĢĿ":1379,"à¦Ńà¦Ļ":1380,"Ġà¦¸à¦¹à¦®à¦°":1381,"à¦¾âĢĿ":1382,"à¦¶à¦Ĺ":1383,"Ġà¦ĩà¦Ļ":1384,"Ġà¦¬à¦Ļ":1385,"à¦ħà¦ļ":1386,"à¦¯à¦¤à¦®":1387,"à¦Ľà¦ª":1388,"Ġà¦ļà¦ŀ":1389,"Ġà¦ªà¦¦à¦ļ":1390,"à¦ĩà¦ª":1391,"Ġà¦¬à§Łà¦¸":1392,"Ġà¦¶à¦¸":1393,"on":1394,"Ġà¦ķà¦®à¦²":1395,"Ġà¦®à¦¨à¦¸":1396,"à¦ĸà¦Ł":1397,"Ġà¦ķà¦ļ":1398,"Ġà¦¸à¦«":1399,"Ġà¦®à¦¡":1400,"à¦¾à¦ģà¥¤":1401,"Ġà¦ªà¦°à¦¸":1402,"à¦°à¦ļà¦£":1403,"Ġà¦¸à¦¹à¦¸":1404,"à¦ļà¦¬":1405,"à¦ķà¦ĸà¦¨":1406,"à§Ģ!":1407,"Ġà¦ĸà¦°à¦ļ":1408,"à¦īà¦ľ":1409,"Ġà¦Ńà¦°à¦¸":1410,"à¦¬à¦¨à¦ķ":1411,"à¦¸à¦®à§Ł":1412,"à¦ĸà¦£":1413,"Ġà¦¨à¦ĩà¦²":1414,"à¦ħà¦¬":1415,"à¦¸à¦Ń":1416,"Ġà¦²à§ľ":1417,"Ġà¦ĩà¦¦":1418,"Ġà¦«à¦°":1419,"Ġà¦Ĩà¦¬à¦¦":1420,"à¦¿?âĢĿ":1421,"Ġà¦ªà¦¨":1422,"à¦Ńà¦ķ":1423,"à¦¨à¦¬à¦ľ":1424,"à¦¦à¦¹":1425,"Ġà¦°à¦ļ":1426,"Ġà¦Ĩà¦®à¦¨":1427,"à¦ıà¦Ń":1428,"Ġà¦ķà¦ķ":1429,"Ġà¦¸à¦¤à¦°":1430,"Ġà¦ıà¦ĩà¦¸à¦¬":1431,"Ġà¦Ĩà¦¸à¦¨":1432,"Ġà¦¢à¦²":1433,"Ġà¦īà§İà¦ª":1434,"à¦ħà¦¸":1435,"Ġà¦Ńà¦Ĺ":1436,"Ġà¦¯à¦ľ":1437,"à¦Ĩà¦¶":1438,"à¦°à¦¥à¦®à¦¬":1439,"Ġà¦ıà¦¡":1440,"à¦ľà¦Ĺà¦¤":1441,"en":1442,"à¦¯à¦Ĺ":1443,"ĠâĢĶâĢĺ":1444,"Ġ-":1445,"à¦ľà¦¨à¦¶":1446,"à§ĩâĢĶâĢľ":1447,"Ġà¦Ĩà¦¬à¦°":1448,"Ġà¦°à¦¥":1449,"à¦ĺà¦¶":1450,"al":1451,"Ġà¦¬à¦ŀ":1452,"à¦Łà¦¸":1453,"Ġà¦¨à¦ķà¦¶":1454,"at":1455,"er":1456,"Ġà¦Łà¦°":1457,"Ġà¦īà¦ªà¦¹":1458,"à¦¯à¦ĸà¦¨":1459,"Ġà¦¦à¦ĸà¦²":1460,"Ġà¦Ĩà¦¤à¦Ļ":1461,"Ġà¦¬à¦¹à¦¨":1462,"Ġà¦ķà¦¬à¦°":1463,"à¦¯à§Ł":1464,"à¦Łà¦«à¦°":1465,"à§¬":1466,"à¦°à¦·":1467,"à¦¦à¦¦":1468,"Ġà¦ĩà¦¶":1469,"Ġà¦ªà¦¬":1470,"Ġà¦ķà¦¡":1471,"Ġà¦¦à¦¤":1472,"Ġà¦Ńà¦Ĺà¦¬":1473,"à¦¨à¦ľà¦¨":1474,"Ġà¦Ĩà¦Ł":1475,"Ġà¦ľà¦¨à¦¨":1476,"à¦¸à¦¤à¦¤":1477,"Ġà¦¶à¦¯":1478,"à¦ĸà¦¸":1479,"à¦¤à¦Ľ":1480,"à¦Ĩà¦¬":1481,"Ġà¦ħà¦¬à¦¹":1482,"à¦Ŀà¦¬":1483,"à¦ªà¦¬":1484,"Ġà¦ªà§ľà¦Ľ":1485,"à§®":1486,"Ġà¦®à¦¨à¦ķ":1487,"âĢ¦âĢĿ":1488,"à§ģâĢĶ":1489,"Ġà¦Ĩà¦¬à¦Ľ":1490,"à¦ĩà¦¦":1491,"Ġà¦ļà¦¶à¦®":1492,"âĢĻ-":1493,"Ġà¦®à¦¨à¦Ł":1494,"à¦®à¦ĩ":1495,"à¦¿à¦Ĥ-":1496,"Ġà¦īà¦ªà¦ķ":1497,"à¦Ĩà¦ľà¦ķ":1498,"à¦²à¦«":1499,"à¦¸à¦¦":1500,"Ġà¦ĭà¦¤":1501,"à¦²à¦¦":1502,"Ġà¦Ŀà¦²à¦¸":1503,"Ġà¦Ĩà¦ļà¦®à¦ķ":1504,"Ġà¦Ķ":1505,"à¦ªà¦Ĺ":1506,"Ġthe":1507,"à¦¯à¦ľ":1508,"à¦¤à¦°à¦Ļ":1509,"à¦¬à¦¨à¦¯":1510,"Ġà¦Ŀà§ľ":1511,"à¦Łà¦¦":1512,"à¦Ńà§Ł":1513,"Ġà¦¯à¦¤à¦Ł":1514,"Ġà¦ĸà¦£":1515,"à¦¶à¦¦":1516,"à¦Ĺà¦Ń":1517,"Ġà¦ĩà¦Ł":1518,"à¦īà¦¡":1519,"Ġà¦ıà¦ķà¦ķ":1520,"Ġà¦¸à¦®à¦Ĺ":1521,"it":1522,"à¦§à¦®":1523,"à¦ªà¦ķà¦¥":1524,"Ġà¦¬à¦Łà¦Ĺ":1525,"à¦ªà¦¯":1526,"à¦¶à¦¹à¦°":1527,"à¦¯à¦ĵ":1528,"Ġà¦¬à¦¨à¦¹":1529,"Ġà¦ļà¦®à§İà¦ķ":1530,"Ġà¦Ĩà¦ĩ":1531,"à¦Ĩà¦¸":1532,"Ġà¦Ŀà¦ķ":1533,"à¦£à¦¦":1534,"à¦ĺà¦®":1535,"à¦Łà¦Ĺ":1536,"à¦¼à¥¤âĢĿ":1537,"Ġà¦Ĩà¦¨à¦²":1538,"Ġà¦Ŀà¦°à¦¨":1539,"is":1540,"Ġà¦ıà¦ķà¦ĸ":1541,"à¦īà¦ĩ":1542,"à§Łà¦ķ":1543,"à§ĭ;":1544,"à¦ıà¦¸à¦¬à¦ĩ":1545,"Ġà¦ħà¦¬à¦¨":1546,"Ġà¦ĩà¦ŀ":1547,"à§ĭ?âĢĿ":1548,"à¦¾!âĢĿ":1549,"à¦Ńà¦¬à¦¤":1550,"or":1551,"Ġà¦ªà¦¥à¦ļà¦²":1552,"à¦¯à¦®à§Ł":1553,"Ġà¦¸à¦ĸ":1554,"Ġà¦ıà¦ĸà¦¨à¦ĩ":1555,"à¦Łà¦ĸ":1556,"Ġà¦¨à§ľ":1557,"),":1558,"Ġà¦Ĩà¦ªà¦¤":1559,"Ġà¦¨à¦Ĺ":1560,"ar":1561,"Ġà¦Ĩà¦ĸ":1562,"à¦¨à¦¹":1563,"Ġà¦®à¦Ĺ":1564,"à¦ĵà¦ĩ":1565,"Ġà¦ļà¦ķà¦ļà¦ķ":1566,"Ġà¦ªà¦Ļ":1567,"Ġà¦°à¦«":1568,"à§İà¦ª":1569,"à¦¸à¦°à¦£":1570,"à§ľà¦ķ":1571,"à¦Ŀà¦ķ":1572,"Ġà¦Ĩà¦°à¦ľ":1573,"à¦Ĩà¦ļ":1574,"Ġà¦¹à§Łà¦¨":1575,"Ġà¦ıà¦®à¦¨à¦ĩ":1576,"Ġà¦Ĺà¦¹à¦¨":1577,"Ġà¦ıà¦ķà¦°":1578,"Ġà¦¯à¦®":1579,"à§ĩ,âĢĿ":1580,"à¦¤à¦°à¦£":1581,"à¦°à¦¤à¦°":1582,"à¦ħà¦¬à¦¶":1583,"Ġà¦¬à¦¶":1584,"Ġà¦ħà¦¬à¦¦":1585,"à¦Ĳ":1586,"Ġà¦¬à¦ªà¦¨":1587,"à¦¶à§Ł":1588,"Ġà¦īà¦¦à¦¯":1589,"Ġw":1590,"Ġà¦ĵà§ľ":1591,"à¦Ńà¦¨":1592,"âĢĿà¥¤":1593,"à¦ıà¦ķà¦¦":1594,"à¦¦à¦ª":1595,"à¦ħà¦²":1596,"Ġà§©":1597,"à¦²à¦¬à¦¨":1598,"Ġà¦ķà¦¦":1599,"Ġà¦¤à¦ªà¦¸":1600,"Ġà¦Ĺà¦ľ":1601,"Ġà¦¦à¦¯":1602,"à¦ıà¦¸":1603,"Ġà¦īà¦ªà¦Ń":1604,"Ġà¦ıà¦ķà¦¦à¦®":1605,"Ġà¦¬à¦§":1606,"à¦īà¦¸":1607,"Ġà¦Ńà¦°à¦¤":1608,"à¦¿.":1609,"à§ģ?":1610,"Ġà¦¬à¦¦":1611,"à¦Ĩà¦¤":1612,"à¦Ľà¦Ĺ":1613,"à¦ķà¦ł":1614,"à¦ħà¦®":1615,"à¦¶à¦ĩ":1616,"Ġà¦ķà¦¤à¦ķ":1617,"Ġa":1618,"à¦ªà¦¶":1619,"Ġà¦ıà¦ķà¦¶":1620,"Ġà¦Ŀà¦Ĺà¦¡":1621,"Ġà¦¤à¦ķ":1622,"à¦«à¦°":1623,"Ġà¦ķà¦¤à¦¦":1624,"à§ĭâĢĵ":1625,"à¦ļà¦®":1626,"Ġà¦Ńà¦¬à¦¨":1627,"Ġà¦ĸà¦°":1628,"à¦°à¦¤à¦¬à¦°":1629,"Ġà¦ªà§ľà¦¤":1630,"à§İà¦ĩ":1631,"Ġà¦Ĩà¦ľà¦ĩ":1632,"à¦¯à¦¶":1633,"à¦·à¦¬":1634,"à¦¯à¦¬à¦¤":1635,"Ġà¦ħà¦¯":1636,"à¦ħà¦¦":1637,"Ġà¦¤à¦¤à¦ķ":1638,"à¦¼à§ĩ-":1639,"Ġà¦ħà¦¬à¦ķ":1640,"à¦¨à¦ĵà¦¦":1641,"Ġà¦Ĩà§Łà¦¨":1642,"Ġà¦ħà¦ļà¦²":1643,"à¦Ĩà¦¨":1644,"Ġà¦ıà¦ĩà¦Ł":1645,"à¦¯à¦°à¦ķà¦®":1646,"Ġà¦¸à¦«à¦²":1647,"Ġà¦ªà¦°à¦¦":1648,"Ġà¦ĺà¦°à¦Ł":1649,"à¦·à§İ":1650,"Ġà¦¶à¦¤à¦ķ":1651,"Ġs":1652,"à¦°à¦¥à¦®à¦¤":1653,"Ġà¦īà¦ªà¦¦":1654,"Ġà¦ĭà¦¦":1655,"à§Łà¦°":1656,"Ġà¦ķà¦²à¦°à¦¬":1657,"à¦¾?âĢĿ":1658,"Ġà¦¯à¦¤à¦¦":1659,"à¦¸à¦°à¦ķ":1660,"à¦ĵà¦¡":1661,"à¦ıà¦¤":1662,"Ġà¦Ĩà¦¸à¦°":1663,"à§¯":1664,"à§ĭâĢĻ":1665,"à§Łà¦¬":1666,"Ġà¦¸à¦®à¦¤":1667,"Ġà¦°à¦¶":1668,"Ġà¦ĩà¦¸à¦²":1669,"Ġà¦ĩà¦īà¦¨":1670,"à§ĭ?âĢĻ":1671,"Ġà¦¹à¦ĵ":1672,"Ġà¦Ĩà¦¬à¦¹":1673,"Ġà¦ļà§ľ":1674,"à¦īà¦¬":1675,"Ġc":1676,"à¦¿!âĢĿ":1677,"âĢį":1678,"à¦«à¦Ł":1679,"Ġà¦ľà¦²à¦°":1680,"Ġà¦¨à¦°à¦ķ":1681,"à§İà¦¸à¦¬":1682,"Ġà¦¸à¦°à¦¸":1683,"à¦Ĺà¦¸":1684,"Ġà¦Ĩà¦¨à¦¬":1685,"à¦°à¦¤à¦¤":1686,"à¦®à¦¨à¦¸":1687,"Ġà¦Ĩà¦¶à¦Ļ":1688,"Ġà¦¬à¦ĩà¦Ł":1689,"Ġà¦Ĳà¦¶":1690,"à¦¬à§ľ":1691,"à¦ĭ":1692,"à¦·à¦¸":1693,"Ġà¦Ĩà¦®à¦²":1694,"Ġà¦¡à¦ķ":1695,"à¦ĺà¦Łà¦¨":1696,"Ġà¦Ŀà¦ķà¦Ŀà¦ķ":1697,"à¦¿:":1698,"à¦ķà¦¶à¦¨":1699,"à¦®à§ľ":1700,"à¦¸à¦ķà¦²":1701,"Ġà¦°à¦¤":1702,"Ġà¦°à¦®":1703,"Ġà¦Īà¦·à§İ":1704,"à¦Łà¦«à¦Ł":1705,"à¦ıà¦Ĺ":1706,"à§ģà¦Ĥ":1707,"Ġà¦¯à¦¯":1708,"à§Īà¦ĥ":1709,"Ġà¦ľà¦²à¦¬":1710,"Ġà¦ľà¦Ĺà§İ":1711,"es":1712,"à¦¬à¦Ĺ":1713,"à¦¦à¦£":1714,"à§Ģà¦Ĥ":1715,"Ġà¦Ĺà¦łà¦¨":1716,"Ġà¦īà¦²à¦Ł":1717,"Ġà¦ķà¦ĩ":1718,"Ġà¦¦à¦Ĺ":1719,"à¦·à¦ª":1720,"à¦¼à¥¤âĢĻ":1721,"ed":1722,"Ġb":1723,"à¦®à¦ĵ":1724,"à¦Ĺà¦Ĺ":1725,"Ġà¦ıà¦ķà¦ª":1726,"Ġà¦īà¦ªà¦¯":1727,"à¦¸à¦²à¦®":1728,"Ġà¦¦à¦£":1729,"Ġà¦Ľà¦Łà¦«à¦Ł":1730,"Ġà¦«à¦Ł":1731,"à¦²à¦°":1732,"à¦ľà¦¨à¦¤":1733,"à§ģ!":1734,"Ġà¦¨à¦¹":1735,"Ġà¦¦à¦¡":1736,"à¦Ĺà¦ŀ":1737,"ou":1738,"Ġà¦ĵà¦¡":1739,"Ġà¦Ĩà¦²à¦¤":1740,"Ġà¦ĭà¦£":1741,"Ġà¦ĺà¦Łà¦²":1742,"à§Łà¦¸":1743,"Ġà¦¥à¦®":1744,"à¦ħà¦¶":1745,"à¦¤à¦¬à¦¤":1746,"à§ĭà¦Ĥ":1747,"à¦¼à§ĩâĢĶ":1748,"Ġà¦§à¦®à¦ķ":1749,"Ġà¦ıà¦ĩà¦Ń":1750,"à¦ľà¦ķà¦°":1751,"Ġà¦ħà¦¬à¦°":1752,"à¦Ĺà¦¦":1753,"à¦Ĩà¦¹":1754,"à¦ĩà¦ļ":1755,"à§ĭà¥¤âĢĻ":1756,"Ġà¦ħà¦Ĺà¦£":1757,"à¦ľà¦Ļ":1758,"à¦ĸà¦ļ":1759,"à¦ļà¦¸":1760,"à¦ĩà¦ľà¦¨":1761,"Ġà¦¤à¦¦":1762,"à¦Ĺà¦Ł":1763,"à¦£à¦®":1764,"à¦¨à¦ľ":1765,"Ġà¦§à¦°à¦¬":1766,"Ġm":1767,"à¦¸à¦ĩ":1768,"Ġà¦®à§İà¦¸":1769,"à¦¾,âĢĿ":1770,"à§İà¦ªà¦°":1771,"à¦Ĩà¦§":1772,"à¦²à¦ĸ":1773,"à¦¬à¦¤à¦¨":1774,"Ġà¦īà¦ķ":1775,"Ġà¦¬à¦°à¦£":1776,"Ġà¦Ľà¦²":1777,"Ġà¦¨à¦¬à¦ľ":1778,"à¦Ļà¦¤":1779,"Ġà¦ľà¦¨à¦¸":1780,"Ġà¦¹à¦ķ":1781,"Ġà¦°à¦¤à¦¨":1782,"Ġà¦¯à¦¤à¦ķ":1783,"Ġà¦ªà§ľà¦¬":1784,"and":1785,"à¦ĩà¦«":1786,"à¦īà¦¤":1787,"à§¨à§¦à§¦":1788,"Ġà¦®à¦°à¦£":1789,"à¦ĩà¦¶":1790,"Ġà¦¦à¦¸":1791,"Ġà¦Ĩà¦¹à¦¤":1792,"à¦ľà¦¦":1793,"à¦ĺà¦¦":1794,"Ġà¦Ĩà¦Ĺà¦®à¦¨":1795,"à¦¼à¦¾âĢĶ":1796,"à¦ªà¦ķà¦¥à¦¨":1797,"à¦ķà¦·":1798,"à¦Ĩà¦ª":1799,"Ġà¦¹à¦Ł":1800,"âĢĻâĢĶ":1801,"Ġà¦¬à¦¨à¦¬":1802,"à¦°à¦¸à¦°":1803,"Ġà¦¤à¦¤à¦ĩ":1804,"à¦¬à¦Ľà¦°":1805,"Ġà¦®à¦Ĺà¦ľ":1806,"Ġà¦Ĩà¦°à¦¬":1807,"à¦ħà¦Ń":1808,"Ġà¦¬à¦°à¦«":1809,"à¦ľà¦ĩ":1810,"à¦«à¦²à¦¨":1811,"âĢĿ-":1812,"âĢĿâĢĶ":1813,"à¦ıà¦ķà¦ľà¦¨":1814,"éŁ¿éŁ¿éŁ¿éŁ¿":1815,"à¦¸à¦ĵ":1816,"Ġà¦ħà¦²à¦ķ":1817,"à¦·à¦¨":1818,"Ġà¦¦à¦¶à¦Ł":1819,"à¦®à¦Ŀ":1820,"Ġà¦ıà¦¤à¦ĩ":1821,"Ġà¦®à§Ł":1822,"à¦¶à¦¸":1823,"Ġà¦īà¦Ńà¦¯":1824,"à§ľà¦¤":1825,"Ġà¦ħà¦¨à¦¬à¦¦":1826,"Ġà¦ĩà¦®":1827,"à¦¼à§į":1828,"à¦Ĺà¦ķ":1829,"à¦Ńà¦¦":1830,"Ġà¦Ĩà¦°à¦£":1831,"à§ľà¦Ľ":1832,"Ġà¦¹à¦¤à¦Ń":1833,"...":1834,"Ġf":1835,"à¦¾à¦ĥà¥¤":1836,"à¦²à¦ĵ":1837,"Ġà¦ķà¦¸":1838,"à¦Łà¦ĵà¦¯":1839,"Ġà¦¬à§İà¦¸":1840,"à¦·à¦ĩ":1841,"à¦£à¦Ĺ":1842,"Ġà¦¶à¦«":1843,"Ġà¦¬à¦²à¦°":1844,"à¦°à¦£à¦¯":1845,"Ġà¦ıà¦ĩà¦°à¦ķà¦®":1846,"Ġà¦ľà¦¨à¦®":1847,"Ġà¦ķà§ľ":1848,"Ġà¦¸à¦¸":1849,"Ġà¦¸à¦®à¦¬":1850,"Ġà¦ªà¦¥à¦ļ":1851,"Ġà¦¥à¦®à¦¥à¦®":1852,"Ġo":1853,"à¦¶à¦¹":1854,"à¦·à¦Ĺ":1855,"Ġà¦ĵà§Ł":1856,"à¦¼à¦¿-":1857,"à§·":1858,"Ġà¦īà§İà¦ķ":1859,"à¦«à¦¸":1860,"Ġà¦ħà¦·":1861,"Ġà¦Ĺà¦¤à¦ķ":1862,"Ġà¦ħà¦¨à¦Ļ":1863,"il":1864,"Ġ*":1865,"à¦¦à¦ĩ":1866,"à¦ªà¦ĩ":1867,"à¦Ĺà¦łà¦¨":1868,"à¦ħà¦ª":1869,"à¦°à¦¸à¦¨":1870,"Â·":1871,"à§ĢâĢĻ":1872,"à¦ĺà¦ķ":1873,"à¦ªà¦ľ":1874,"à§ľà¦¨":1875,"Ġà¦ĩà¦ľ":1876,"Ġà¦ķà¦²à¦Ļ":1877,"Ġà§§à§¯à§Ń":1878,"à§ĭâĢ¦":1879,"à¦ļà¦Ľ":1880,"Ġà¦ļà¦°à¦£":1881,"Ġà¦Ľà¦¦":1882,"à¦ķà¦¸à¦ĩ":1883,"à¦£à¦¬à¦¨":1884,"Ġà¦īà¦§":1885,"à¦¿à¦Ĥ,":1886,"à¦¯à¦¬à¦¦":1887,"à¦®à¦Ń":1888,"à¦¦à¦Ľ":1889,"Ġà¦°à¦ľ":1890,"Ġà¦ıà¦ķà¦¥":1891,"à¦ħà¦ľ":1892,"Ġà¦Ĩà¦ł":1893,"Ġà¦ıà¦ķà¦¸à¦®à¦¯":1894,"à¦°à¦¤à¦®":1895,"à¦°à¦¬à¦£":1896,"Ġà¦ľà¦¨à¦¤":1897,"à¦°à¦¥à¦°":1898,"Ġà¦ħà¦§à¦°":1899,"à§ĢâĢĵ":1900,"Ġà¦¶à¦¨":1901,"à¦°à¦ŀ":1902,"Ġà¦Ĩà¦ķà¦¸":1903,"à¦ķà¦«":1904,"à¦¯à¦Ļ":1905,"à¦ĵà¦¤":1906,"à¦ĵà¦²":1907,"Ġà¦ıà¦ķà¦Ĺ":1908,"à¦łà¦¶":1909,"Ġà¦ħà¦¨à¦¬à¦°à¦¤":1910,"à¦¤à¦ĵ":1911,"Ġà¦¨à¦®à¦¸":1912,"Ġà¦¥à¦°à¦¥à¦°":1913,"Ġà¦ħà¦¬à¦²à¦®":1914,"Ġà¦¦à¦¶à¦ķ":1915,"Ġà¦Ľà¦¯":1916,"à¦īà¦®":1917,"à¦¤à¦°à¦Ł":1918,"ĠO":1919,"à¦¤à¦ļ":1920,"à¦¯à¦ŀ":1921,"Ġn":1922,"à¦¿âĢĿ":1923,"Ġà¦¤à¦ª":1924,"à¦Ĺà¦ĩ":1925,"Ġà¦¥à¦°":1926,"à¦ªà¦ķà¦²":1927,"Ġà¦Łà¦²":1928,"Ġà¦Ĩà¦Ľà¦¡":1929,"Ġà¦ħà¦¬à¦¤":1930,"à¦¹à¦¬":1931,"Ġà¦ĺà¦·":1932,"Ġà¦°à¦¹":1933,"à¦¤à¦°à¦ķ":1934,"Ġà¦¸à¦¬à¦¸à¦®à¦¯":1935,"Ġà¦¡à¦Ĺ":1936,"à¦Ńà¦¸":1937,"Ġà¦ľà¦²à¦§":1938,"à¦¬à¦ļà¦¨":1939,"Ġà¦ĵà¦¸à¦¬":1940,"âĢįà§į":1941,"Ġà§§":1942,"à¦ķà¦ľ":1943,"Ġà¦ĵà¦Ĺ":1944,"Ġà¦®à¦¥":1945,"Ġà¦¤à§İà¦ķ":1946,"Ġà¦Ľà¦Ł":1947,"Ġp":1948,"à¦ķà¦ĵ":1949,"à¦¬à¦ĵ":1950,"Ġà¦īà¦Ĺ":1951,"Ġà¦°à¦ĵà¦¨":1952,"Ġà¦Ĩà¦¸à¦®":1953,"Ġà¦Ĩà¦¶à¦ª":1954,"om":1955,"ĠS":1956,"Ġà¦ªà¦¹":1957,")à¥¤":1958,"Ġà¦¦à§Ł":1959,"Ġà¦ħà¦¬à¦ļ":1960,"Ġà¦®à¦¹à¦°":1961,"Ġà¦¨à¦ĸ":1962,"à¦ľà¦§":1963,"à¦Ĺà§ľ":1964,"à¦¡à¦°":1965,"as":1966,"ic":1967,"à¦¸à¦Ĺ":1968,"Ġà¦¨à¦Ł":1969,"Ġà§ª":1970,"à¦ĵà¦¦":1971,"âĢĶâĢĻ":1972,"Ġà¦¸à¦¦à¦¸":1973,"Ġof":1974,"à¦£à¦°":1975,"à¦łà¦¤":1976,"Ġà¦²à¦¹à¦°":1977,"Ġà¦ĸà¦¨":1978,"Ġà¦ĺà§ľ":1979,"Ġà¦łà¦ķ":1980,"à¦ħà¦ķ":1981,"Ġà¦ľà¦²à¦ľ":1982,"à¦·à¦°à¦Ĺ":1983,"Ġà¦ªà¦°à¦¤":1984,"à§Ģ;":1985,"Ġà¦²à¦¯":1986,"ĠâĢ¦":1987,"Ġà¦ĩà¦¹":1988,"à¦ħà¦Ĺ":1989,"à¦¤à¦¶":1990,"à¦®à¦ŀ":1991,"Ġà¦ıà¦°à¦ĩ":1992,"à¦Ĺà¦ª":1993,"Ġà¦²à¦£":1994,"à¦°à¦®à¦¹":1995,"à¦¡à¦¨":1996,"Ġà¦ħà¦¬à¦¸à¦°":1997,"à¦§à¦¨à¦ķ":1998,"Ġà¦Īà¦¦":1999,"ĠI":2000,"Ġà¦ħà¦£":2001,"Ġà¦ĸà¦¡":2002,"ĠĠĊĠĠ":2003,"Ġà¦ıà¦®à¦¨à¦Ń":2004,"à¦²à¦Ľà¦²":2005,"Ġà¦Ĩà¦«à¦¸":2006,"à¦¬à§İ":2007,"Ġà¦¦à¦®à¦¨":2008,"Ġà¦«à¦£":2009,"Ġà¦ĩà¦¤à¦¸":2010,"Ġà¦ıà¦®":2011,"Ġà¦Ľà¦¤":2012,"Ġà¦§à¦°à¦£":2013,"à¦¿,âĢĿ":2014,"Ġà¦ªà¦¥à¦ª":2015,"Ġà¦Ĩà¦¹à¦®":2016,"le":2017,"à¦®à¦²à¦¤":2018,"Ġà¦¨à¦ĵ":2019,"Ġà¦ľà¦¨à¦Ĺà¦£":2020,"à¦ķà¦¬à¦°":2021,"Ġà¦¬à¦¨à¦®":2022,"à¦¤à¦ĸà¦¨à¦ĩ":2023,"à¦ĸà¦Ĺ":2024,"à¦¡à¦Ĺ":2025,"à§°à¦¸":2026,"à¦ķà¦ĸ":2027,"à¦®à¦¹à¦¤":2028,"à¦§à¦²":2029,"Ġà¦ĺà¦Łà¦¬":2030,"à¦£à¦ļ":2031,"Ġà¦Ĩà¦¶à¦«":2032,"ing":2033,"à¦¥à¦ª":2034,"Ġà¦īà§İà¦¸à¦°":2035,"Ġà¦®à¦¸à¦ľ":2036,"Ġà¤":2037,"à¦¦à¦°à¦ľ":2038,"Ġà¦¯à¦ĸà¦¨à¦ĩ":2039,"Ġd":2040,"à¦°à¦¸à¦¬":2041,"à¦ĩà¦ĸ":2042,"à¦ĸà¦®":2043,"Ġà¦ķà¦¦à¦®":2044,"Ġà¦Ńà¦°à¦ª":2045,"Ġh":2046,"à¦¨à¦Ĺà¦°":2047,"Ġà¦¤à¦°à¦²":2048,"Ġà¦ıà¦ª":2049,"Ġà¦Ľà¦²à¦Ľà¦²":2050,"à¦Ĩà¦ĩ":2051,"à¦Ĩà¦¨à¦¨":2052,"à¦ħà¦ªà¦°":2053,"Ġà§«":2054,"Ġà¦Īà¦°":2055,"à¦¸à¦¡":2056,"Ġà¦°à¦ľà¦¨":2057,"à¦¼à¦¿à¦Ĥ":2058,"à¦°à¦£à¦¤":2059,"Ġà¦¬à§İà¦¸à¦°":2060,"à§ĭ!âĢĿ":2061,"Ġà¦¸à¦¯à¦¤":2062,"à¥¥":2063,"Ġà¦¬à¦ĩà¦¤":2064,"à¦¸à¦®à¦¸":2065,"Ġà¦ħà¦²à¦¸":2066,"à¦ħà¦¤à¦ıà¦¬":2067,"Ġà¦®à¦®":2068,"Ġà¦¦à¦ª":2069,"Ġà¦ĵà¦ľà¦¨":2070,"à¦Ŀà¦¨":2071,"Ġà¦ĸà¦¬à¦°à¦Ł":2072,"ĠA":2073,"à¦Ļà¦¨":2074,"à¦¬à¦°à¦²":2075,"à¦ķà¦²à¦®":2076,"Ġà¦ķà¦¤à¦Ĺ":2077,"à¦Ńà¦°à¦¤":2078,"à¦¬à¦¨à¦Ł":2079,"à¦ıà¦ķà¦¬":2080,"Ġà¦ľà¦²à¦ª":2081,"à¦Łà¦ĩ":2082,"à¦ªà¦ª":2083,"à¦ªà§Ł":2084,"Ġà¦¦à¦ĩ":2085,"Ġà¦Ĺà¦Ĺà¦¨":2086,"à¦ħà¦§":2087,"à¦¤à¦²à¦¤":2088,"Ġà¦ıà¦ĵ":2089,"à¦ľà¦Ń":2090,"ion":2091,"ĠP":2092,"à¦¦à¦ĵ":2093,"Ġà¦¯à¦¶":2094,"à¦¡à¦ķ":2095,"à¦£à¦ª":2096,"Ġà¦²à¦Ļ":2097,"à¦īà¦ªà¦¸":2098,"Ġà¦¸à¦¬à¦Ł":2099,"Ġà¦Ĩà¦¨à¦Ľ":2100,"Ġà§§à§¦":2101,"Ġà§§à§¯à§Ńà§§":2102,"ve":2103,"à¦°à¦ļà¦²":2104,"Ġà¦ªà¦ļ":2105,"à¦ĸà¦ĸ":2106,"à¦łà¦°":2107,"à§ľà¦²":2108,"à¦¾âĢĻà¥¤":2109,"Ġà¦ĵà¦¸":2110,"ĠĠĊĠ":2111,"à¦¹à¦°à¦£à¦¸":2112,"Ġà¦·à¦¡":2113,"Ġà¦Ĺà¦¯":2114,"Ġà¦ļà¦²à¦®":2115,"à¦°à¦ªà¦°à¦ĵ":2116,"Ġà¦¶à¦°à§İ":2117,"Ġà¦¸à¦«à¦²à¦¤":2118,"Ġà¦ķà¦²à¦¤":2119,"à¦§à¦Ł":2120,"à¦°à¦£à¦¨":2121,"Ġà¦Ĩà¦¬à¦°à¦£":2122,"Ġand":2123,"à¦ľà¦ĵ":2124,"à¦ļà¦ľà¦¨":2125,"Ġà¦Ľà¦ķ":2126,"à§ľà¦¬":2127,"à¦Īà¦¶":2128,"Ġà¦¹à¦¤à¦Ńà¦®":2129,"à¦¼:":2130,"à¦ªà¦Ŀ":2131,"à¦Ľà¦¡":2132,"à¦ľà¦ªà¦¥":2133,"à¦ĸà¦¬à¦°":2134,"Ġà¦ıà¦ķà¦ľ":2135,"Ġà¦ıà¦ķà¦°à¦ķà¦®":2136,"Ġà¦²à¦¹à¦®":2137,"Ġà¦ªà¦°à¦¨":2138,"Ġà¦ªà¦°à¦ĵ":2139,"à¦°à¦¬à¦¦":2140,"à¦¬à¦ªà¦¨":2141,"Ġà¦°à¦£":2142,"Ġà¦ªà¦Łà¦Ń":2143,"Ġà¦¦à¦¹à¦¨":2144,"à§Łà¦£":2145,"à¦¹à¦¦":2146,"Ġà¦ĩà¦ī":2147,"à¦¾âĢĶâĢľ":2148,"Ġà§§à§®":2149,"à¦¼?âĢĻ":2150,"à¦ļà¦¶":2151,"à¦Ŀà¦¡":2152,"Ġà¦¬à¦¨à¦Ń":2153,"Ġà¦¦à¦«":2154,"à¦Ĺà¦®à¦¨":2155,"Ġà¦ļà¦£":2156,"à¦Ĥ,":2157,"à¦®à¦¨à¦Ł":2158,"à¦ķà¦Łà¦ķ":2159,"Ġà¦¤à¦¦à¦¨":2160,"à¦¡à¦Ł":2161,"à§ĩâĢĿ":2162,"à¦¯à¦°à¦¸":2163,"à¦§à¦¦":2164,"à¦¡à¦ª":2165,"Ġà¦ľà¦²à¦ķ":2166,"Ġà¦°à¦¨":2167,"à¦Ńà¦Ł":2168,"à¦īà§İà¦¸à¦¬":2169,"à¦ľà¦¨à¦ĩ":2170,"Ġà¦Ĩà¦²à¦Ĺ":2171,"Ġà¦§à¦°à¦Ľ":2172,"Ġà¦¤à¦¤à¦Ł":2173,"ĠB":2174,"Ġ[":2175,"à¦¶à¦Ŀ":2176,"à¦¥à¦ķà¦¤":2177,"à¦Ĩà¦¸à¦²":2178,"Ġà¦īà¦ªà¦®":2179,"Ġà¦ħà¦ªà¦¬":2180,"à§ĭ:":2181,"à§Łà¦¬à¦¦":2182,"Ġà¦§à¦¡":2183,"Ġà¦ħà¦®à¦°à¦¤":2184,"Ġà¦ķà¦ĸà¦¨à¦ĩ":2185,"Ġà¦ĩà¦¨à¦¸":2186,"à¦¾âĢĻ,":2187,"Ġin":2188,"à¦¾à§ĩ":2189,"à¦¨à¦ĸ":2190,"à¦īà¦ļ":2191,"à¦ĺà¦£":2192,"Ġà¦ıà¦ĸà¦¨à¦ķ":2193,"âĢ¦à¥¤":2194,"Ġà¦Ŀà¦°à¦Ŀà¦°":2195,"Ġà§§à§¯à§«":2196,"à¦¹à¦Ł":2197,"Ġà¦ıà¦ķà¦¦à¦²":2198,"Ġà¦²à¦Ĺ":2199,"à¦¬à¦²à¦²":2200,"Ġà¦®à¦¹à§İ":2201,"Ġà¦¶à¦ĸ":2202,"Ġà¦Ŀà¦°à¦Ľ":2203,"Ġà¦®à¦¹à¦²":2204,"à§§à§¨":2205,"Ġà¦ķà¦¤à¦¬":2206,"Ġà¦ªà¦¤à¦¨":2207,"à§Ģ?âĢĻ":2208,"à¦ıà¦¦":2209,"Ġà¦ľà¦¨à¦ª":2210,"Ġà§§à§¨":2211,"à§§à§¯à§":2212,"à¦Ĳà¦¤":2213,"Â·Â·":2214,"à¦¸à¦¯":2215,"Ġà¦Ńà¦¸":2216,"Ġà¦ĵà¦¹":2217,"Ġà¦ıà¦ĩà¦ĸ":2218,"à¦¿à¦Ĥà¥¤":2219,"Ġà¦¸à¦°à¦²à¦¤":2220,"Ġà¦¬à¦ĩà¦Ĺ":2221,"Ġà¦ªà¦¦à¦§":2222,"à¦¾à¦ĥ,":2223,"ro":2224,"Ġà¦¨à¦²":2225,"Ġà¦®à¦ľà¦¬":2226,"Ġà¦¤à¦«":2227,"à¦¶à¦ĵ":2228,"Ġà¦ķà¦°à¦£":2229,"ĠC":2230,"Ġà¥¤":2231,"à¦¡à¦¸":2232,"Ġà¦Ľà¦²à¦¨":2233,"Ġà¦¬à¦ĩà¦Ľ":2234,"à¦°à¦ĸà¦°":2235,"à¦¿âĢĻà¥¤":2236,"Ġà¦¨à¦¥":2237,"Ġà¦®à¦Ľ":2238,"Ġà¦®à¦Ī":2239,"à§Łà¦¦":2240,"à¦·à¦ĵ":2241,"à¦°à¦¬à¦£à¦¤":2242,"à¦Ĩà¦¦":2243,"Ġà¦ĺà¦Łà¦¤":2244,"Ġà¦ħà¦²à¦Ļ":2245,"Ġà¦Ńà§Łà¦Ļ":2246,"à§ģâĢĵ":2247,"à¦¬à§°":2248,"à¦¼à§ĩ?":2249,"Ġà¦ªà¦°à¦²":2250,"à¦Ĩà¦¯":2251,"à¦¨à§Ł":2252,"à¦¤à¦§":2253,"à¦¡à¦Ń":2254,"Ġà¦Ńà¦Ł":2255,"el":2256,"à¦Ľà¦ķ":2257,"à¦¶à¦Ĺà¦¤":2258,"à¦ĺà¦Ł":2259,"ent":2260,"à¦ļà§Łà¦¤":2261,"Ġà¦ĵà¦Ń":2262,"Ġà¦ľà¦¨à¦Ĺ":2263,"ol":2264,"ÂŃ":2265,"à¦¯à¦ľà¦¨":2266,"à¦£à¦ĵ":2267,"à§ģ;":2268,"à¦§à¦¸":2269,"à¦łà¦ķà¦ķ":2270,"Ġà¦Ĩà¦Ĺà¦²":2271,"ĠM":2272,"à¦¸à¦ªà¦¤":2273,"à¦¹à§İ":2274,"Ġà¦°à¦Ł":2275,"ĠĠĠĠ":2276,"à¦ħà¦®à¦²":2277,"Ġà¦¸à¦¹à¦ķà¦°":2278,"ut":2279,"Ġl":2280,"à¦Łà¦ĵà§Ł":2281,"Ġà¦¨à¦ķà¦²":2282,"Ġà¦¹à¦¦":2283,"à¦¡à¦¬à¦°":2284,"Ġà¦¬à¦°à¦ŀ":2285,"à¦°à¦¶à¦¸":2286,"Ġà§¬":2287,"Ġà§Ń":2288,"à¦¯à¦²":2289,"à¦®à¦ļà¦¨":2290,"Ġà¦¸à¦¡":2291,"à¦ľà¦¡":2292,"à¦£à¦Ń":2293,"Ġà¦¥à¦°à¦¹à¦°":2294,"Ġà¦ªà¦°à¦ĩ":2295,"à¦Ĩà¦Ļ":2296,"à¦¦à¦°à¦¬à¦¨":2297,"à¦®à¦£à¦¦":2298,"à¦ľà¦¸à¦Ń":2299,"à§ĩâĢĻ,":2300,"Ġà¦¬à¦Łà¦¬":2301,"à¦·à¦Ń":2302,"Ġà¦¥à¦²":2303,"Ġà¦¬à¦¹à¦®":2304,"à§ĩ!âĢĻ":2305,"à¦ªà¦Łà¦ª":2306,"à¦¿âĢĻ,":2307,"à¦¤à¦¥":2308,"à¦ķà¦¯":2309,"à¦Łà¦Ń":2310,"à¦Ĺà¦¯":2311,"à¦Ĺà¦ł":2312,"à¦ªà¦°à¦®":2313,"à¦«à¦¨":2314,"à§įâĢĮà¥¤":2315,"à¦ıà¦ķà¦ĩ":2316,"Ġà¦īà¦ĩà¦²":2317,"à¦°à¦®à¦°":2318,"à§§à§¦":2319,"Ġe":2320,"à¦®à¦ĸ":2321,"Ġà¦ıà¦Ľ":2322,"Ġà¦²à¦¬à¦£":2323,"Ġà¦ħà¦¬à§Łà¦¬":2324,"Ġà¦ıà¦ķà¦ľà¦¨à¦ķ":2325,"ĠT":2326,"à¦²à¦Ļ":2327,"à¦£à¦¸":2328,"Ġà¦¶à¦®":2329,"à¦ĵà§ľ":2330,"Ġà¦ľà¦¨à¦ªà¦¦":2331,"à¦ħà¦¨à¦¨":2332,"à¦¤à¦Ļ":2333,"Ġà¦Ĩà¦Łà¦Ł":2334,"à¦£à¦Ł":2335,"à§Ŀà¦¤":2336,"Ġà¦ķà¦¨à¦¸":2337,"à¦ªà¦¹":2338,"à¦¶à¦¶":2339,"à¦§à¦¶":2340,"à¦£à¦ªà¦£":2341,"à¦°à¦ķà¦°":2342,"à¦ĺà¦¡":2343,"à¦¸à¦ķà¦·":2344,"Ġà¦¤à¦¤à¦¦":2345,"à¦ĩà¦¸à¦¬":2346,"à¦īà¦ł":2347,"Ġà¦ªà¦¥à¦Ł":2348,"à¦¨à¦¶à¦¨":2349,"à¦¨à¦®à§Ł":2350,"Ġà¦®à¦°à¦¤":2351,"Ġà¦¹à¦¤à¦¬":2352,"à¦¹à¦¨à¦¬":2353,"à¦°à¦¤à¦²":2354,"à¦ħà¦¥":2355,"Ġà¦¸à¦¹à¦¦":2356,"Ġà¦¬à¦īà¦¯":2357,"Ġà¦¬à¦īà¦¦":2358,"Ġà¦īà§İà¦ķà¦£":2359,"us":2360,"à¦¬à¦¹à¦¨":2361,"à¦®à¦ķà¦°":2362,"à¦¼âĢ¦":2363,"Ġà¦¬à¦®":2364,"Ġà¦¸à¦¦à¦°":2365,"Ġà¦Ĩà¦·":2366,"à¦¶à¦ķà¦°":2367,"à¦°à¦ķà¦Ł":2368,"à§ĩâĢĶâĢĺ":2369,"Ġà¦¹à¦¨à¦¨":2370,"Ġà¦ľà¦Ĺà¦¨":2371,"Ġà¦ıà¦ĩà¦¬":2372,"à¦°à¦¬à¦§":2373,"à¦¬à¦°à¦ķ":2374,"Ġà¦Ŀà¦Ł":2375,"all":2376,"ur":2377,"à¦®à¦«":2378,"à¦ªà¦Ļ":2379,"Ġà¦ıà¦ķà¦¯":2380,"Ġà¦ľà¦¨à¦ķ":2381,"Ġà¦ķà¦¤à¦ķà¦Ĺ":2382,"Ġà¦®à¦Īà¦¨":2383,"ot":2384,"à¦¯à¦®à¦¨à¦¸":2385,"à¦¸à¦ļ":2386,"à¦¦à¦®à¦¯":2387,"Ġà¦ķà¦²à¦ķà¦²":2388,"Ġà¦¸à¦¹à¦ķ":2389,"am":2390,"et":2391,"à§ĩ)":2392,"à¦¨à¦®à¦¯":2393,"à¦¯à¦¬à¦°":2394,"à¦Ĺà¦Ļ":2395,"à¦§à¦Ń":2396,"Ġà¦¹à¦²à¦¦":2397,"Ġà¦ħà¦ªà¦°à¦ķ":2398,"Ġà§§à§¯à§ª":2399,"ĠR":2400,"à¦ķà¦®à¦¤":2401,"à¦¸à¦ĸ":2402,"Ġà¦ıà¦¯":2403,"à¦ıà¦²":2404,"à§ĭ,âĢĿ":2405,"à¦Ĺà¦¤à¦Ń":2406,"Ġà¦Ĺà¦£à¦¤à¦¨":2407,"Ġà§§à§¯à§«à§¨":2408,"à¦¤à¦ĸ":2409,"Ġà¦¬à¦£":2410,"Ġà¦®à¦°à¦¬":2411,"à¦ľà¦¹":2412,"à¦¶à¦Ļ":2413,"à¦·à¦ķà¦°":2414,"Ġà¦¸à¦¬à¦ĸ":2415,"Ġà¦®à¦¤à¦ĩ":2416,"à¦¬à¦²à¦ĩ":2417,"Ġà¦ķà¦¤à¦ĸ":2418,"Ġà¦ĺà¦Łà¦Ľ":2419,"à§§à§§":2420,"Ġth":2421,"à¦¤à¦Ńà¦°":2422,"à¦¸à¦ľ":2423,"Ġà¦¨à¦¸":2424,"Ġà¦¦à¦°à¦¬":2425,"à¦¡à¦®":2426,"Ġà¦ĺà¦°à¦¬":2427,"à¦¦à¦¨à¦ķ":2428,"Ġà¦ķà¦²à¦¸":2429,"æŃ":2430,"ĠD":2431,"à¦ªà¦¶à¦¨":2432,"Ġà¦¤à¦¸":2433,"Ġà¦¹à¦°à¦£":2434,"Ġà¦Łà¦²à¦®à¦²":2435,"à¦°à¦¹à¦¸":2436,"Ġà§§à§¯à§¯à§":2437,"æŃĵ":2438,"à¦°à¦ªà¦¤":2439,"à¦¯à¦ļ":2440,"à¦®à¦¸à¦®":2441,"Ġà¦¬à¦¦à¦®":2442,"Ġà¦ªà§Łà¦¸":2443,"à¦¦à¦ªà¦¤":2444,"Ġà¦ĵà¦²":2445,"à¦°à¦ķà¦¦":2446,"Ġà¦ľà¦¨à¦ľ":2447,"à¦·à¦£à¦ķ":2448,"à¦·à¦ķà¦¦":2449,"æŃĵæŃĵ":2450,"Ġà¦Ĩà¦ŀ":2451,"Ġà¦ĸà¦Ł":2452,"à¦ķà¦²à¦ķ":2453,"Ġà¦¸à¦¹à¦ª":2454,"à¦²à¦¹":2455,"à¦¬à¦¸à¦¨":2456,"Ġà¦ķà¦¨à¦ķ":2457,"à¦¹à¦£":2458,"à¦¥à¦¹":2459,"à¦¬à¦¦à¦²":2460,"à¦Ĺà¦ľà¦ªà¦¤":2461,"à§ĩâĢ¦âĢĿ":2462,"ct":2463,"à¦Łà¦ĵ":2464,"à¦Ĺà¦ĵ":2465,"Ġà¦®à¦¤à¦²à¦¬":2466,"Ġà¦ĩà¦īà¦°":2467,"à¦¬à¦²à¦¬":2468,"à¦¾!âĢĻ":2469,"Ġà§§à§©":2470,"à¦ĭà¦·":2471,"à¦²à¦¡":2472,"à¦¬à¦¬à¦°":2473,"Ġà¦ķà¦ªà¦Ł":2474,"à¦ĩà¦Ĺ":2475,"Ġà¦°à¦ĺ":2476,"à¦¬à¦²à¦®":2477,"Ġà¦īà¦ªà¦²à¦ķ":2478,"Ġà¦¹à¦°à¦«":2479,"Ġà¦¶à¦°à§İà¦ļà¦¨":2480,"à¦¨à¦·":2481,"Ġà¦ıà¦«":2482,"à¦¶à¦ªà¦¥":2483,"à¦Ĺà¦¹":2484,"Ġà¦¶à¦ļ":2485,"Ġà¦īà¦Ńà§Ł":2486,"Ġà¦ªà¦°à¦ķ":2487,"à¦¬à¦¨à¦¬":2488,"à¦¬à¦¨à¦§":2489,"Ġà¦ľà¦²à¦¦":2490,"Ġà¦®à¦¹à¦¤":2491,"à¦²à¦¨à¦®":2492,"âĢ¦âĢĻ":2493,"à¦¾âĢ¦âĢĿ":2494,"éŁ¿éŁ¿éŁ¿éŁ¿éŁ¿éŁ¿éŁ¿éŁ¿":2495,"à§ĩâĢĻà¥¤":2496,"Ġà¦Ĩà¦¦à¦²":2497,"Ġà¦¨à¦Ń":2498,"à¦ĩà¦ĩ":2499,"Ġà¦ıà¦ľ":2500,"à¦·à¦ľ":2501,"Ġà¦«à¦¡":2502,"à¦īà¦¶à¦¨":2503,"à¦²à¦¨à¦ķ":2504,"Ġà§¦":2505,"Ġà¦®à¦¶à¦²":2506,"Ġà¦¦à¦®à¦ķ":2507,"à¦¶à¦Ľ":2508,"Ġà¦ħà¦¡":2509,"à¦·à¦Ļ":2510,"Ġà¦Ĩà¦°à¦ķ":2511,"Ġà¦²à¦ĺ":2512,"Ġà¦¯à¦¤à¦ĸ":2513,"Ġà¦Ŀà¦¨à¦Ŀà¦¨":2514,"Ġà¦°à¦¤à¦¨à¦¬":2515,"à¦²à¦¶":2516,"à¦ĸà¦¡":2517,"Ġà¦ħà¦Ŀ":2518,"à¦§à¦¹":2519,"à¦£à¦¯":2520,"à¦£à¦ĩ":2521,"à¦ĵà¦Ł":2522,"Ġà¦ĸà§ľ":2523,"à¦¦à¦¨à¦¶":2524,"à§ĩà¦¾à¦ģ":2525,"à¦¯à¦®à¦¨":2526,"à¦®à¦®à¦¤":2527,"Ġà¦¸à¦Ł":2528,"à¦ªà¦ŀ":2529,"Ġà¦¤à¦ªà¦¨":2530,"à¦§à¦ķà¦¤":2531,"Ġà¦ĸà¦²":2532,"Ġà¦Łà¦ķ":2533,"Ġà¦Ĩà¦Ĺà¦¨":2534,"Ġà¦ľà¦²à¦¸":2535,"Ġà§¨à§¦":2536,"ig":2537,"à§ĩ.":2538,"à¦¨à¦Ńà¦°":2539,"à¦®à¦¹à¦°":2540,"à¦ĸà¦®à¦¯":2541,"Ġà¦¯à¦ķ":2542,"à¦£à¦Ĺà¦¤":2543,"Ġà¦Ńà¦°à¦¦":2544,"à¦Ļà¦¬":2545,"Ġà¦²à§Ł":2546,"à¦Ĩà¦ĩà¦¨":2547,"Ġà¦Ŀà¦Łà¦ķ":2548,"à¦®à¦¬à¦Ļ":2549,"Ġà¦ľà§Łà¦Ĺ":2550,"un":2551,"Ġà¦¤à¦Ł":2552,"Ġà¦ıà§ľ":2553,"à¦¼à§ĩâĢĵ":2554,"à¦§à¦ĩ":2555,"à¦«à¦¡":2556,"Ġà¦ļà¦²à¦¨":2557,"à¦¬à¦¤à¦ĩ":2558,"à¦Ĺà¦ľà¦Ł":2559,"Ġà§§à§Ń":2560,"Ġà¦¸à¦«à¦°":2561,"Ġbe":2562,"Ġà¦¹à¦ķà¦ļà¦ķ":2563,"im":2564,"Ġà¦¸à¦¯":2565,"à¦¥à¦¸":2566,"Ġà¦¸à¦®à¦ķ":2567,"Ġà¦®à¦¨à¦¨à¦¶":2568,"à¦īà¦Ĺ":2569,"Ġà¦Ŀà¦Ļ":2570,"à¦ĥ,":2571,"Ġà¦ıà¦®à¦¨à¦Ł":2572,"Ġà¦ıà¦ķà¦ĩà¦Ń":2573,"à¦¿!âĢĻ":2574,"à¦¨à¦®à¦¨":2575,"à¦¨à¦¸à¦®":2576,"Ġà¦Ĩà¦ĩà¦¡":2577,"à¦Łà¦¬à¦²":2578,"Ġà¦ıà¦ķà¦ļ":2579,"à¦°à¦®à§Ł":2580,"à¦¨à¦ĵà¦°à¦ķà¦®":2581,"Ġà¦¸à¦¹à¦ļà¦°":2582,"Ġà¦¸à¦ķà¦²à¦ķ":2583,"Ġà¦īà¦ªà¦°à¦¨":2584,"à¦®à¦Ľà¦®":2585,"ay":2586,"à¦¤à¦¯":2587,"à¦¤à¦¡":2588,"à¦²à¦Ĺà¦°":2589,"Ġà¦¸à¦²":2590,"Ġà¦¦à§ľ":2591,"à§Łà¦¤à¦®":2592,"Ġà¦°à¦ĵ":2593,"Ġà¦Ķà¦°à¦¸":2594,"à¦ħà¦¥à¦ļ":2595,"ad":2596,"à¦¼?âĢĿ":2597,"Ġà¦¦à¦°à¦¦":2598,"à¦§à¦Ľ":2599,"à¦¾à¦ģ-":2600,"Ġà¦«à¦ķ":2601,"Ġà¦¸à¦¬à¦ľ":2602,"Ġà¦¤à¦ĸà¦¨à¦ķ":2603,"Ġà¦īà¦ªà¦ļ":2604,"à¦°à¦ªà¦°à¦ĩ":2605,"à§İà¦¸à¦ķ":2606,"à§ĭâĢĶâĢľ":2607,"Ġà¦Ĺà¦£à¦®":2608,"Ġto":2609,"à§ģà¥¤âĢĿ":2610,"à¦¦à¦¬à¦¦":2611,"à¦ªà¦ĵ":2612,"à¦Ĺà¦¬à¦¤":2613,"à¦·à¦ªà¦°":2614,"Ġà¦ľà¦®à¦¤":2615,"à¦Ĥ-":2616,"Ġà¦ĸà¦¦":2617,"à¦īà§ľ":2618,"áĥ":2619,"à¦ĸà¦¯":2620,"à¦ļà¦²à¦¤":2621,"à¦ĵà¦ł":2622,"Ġà¦ĵà¦°à¦ķà¦®":2623,"Ġà¦«à¦ľà¦²":2624,"à¦īà¦ª":2625,"Ġà¦ħà¦ªà¦²à¦ķ":2626,"à¦¿à¦ĥà¥¤":2627,"Ġà§®":2628,"Ġà¦ĸà¦¸à¦ĸà¦¸":2629,"Ġà¦ħà¦¹à¦Ļ":2630,"ch":2631,"à¦¨à¦¡":2632,"Ġà¦Ĩà¦°à¦¶":2633,"à¦ªà¦°à¦¦":2634,"à¦Ŀà¦ªà¦¥":2635,"à¦ľà¦¨à¦¬":2636,"à¦²à¦ķà¦£":2637,"à¦¨à¦ĵà¦Ń":2638,"à¦°à¦¶à¦ķ":2639,"Ġà¦¦à¦®à¦¬à¦¨":2640,",âĢĻ":2641,"id":2642,"çľ":2643,"à¦¼à§ĭà¥¤":2644,"à§ĭâĢ¦âĢĿ":2645,"âĢķ":2646,"à¦Ĺà¦ļ":2647,"à§Łà¦²":2648,"à¦£à¦¹":2649,"Ġà¦īà¦®":2650,"à¦Ŀà§ľ":2651,"à¦Ŀà¦°à¦¨":2652,"Ġà¦¸à¦°à¦ŀ":2653,"Ġà¦īà¦ªà¦¤":2654,"à¦ıà¦ĩà¦¸à¦¬":2655,"à¤¾":2656,"Ġà¦Łà¦²à¦Łà¦²":2657,"à¦ĩà¦ĵ":2658,"Ġà¦ľà¦ª":2659,"âĢĶâĢĶ":2660,"à¦ķà¦°à¦¶":2661,"à¦¤à¦¬à¦ķ":2662,"à§°à¦¹":2663,"ĠN":2664,"à¦¨à¦¬à¦°":2665,"à§ģâĢ¦":2666,"Ġà¦ªà¦¦à¦¯":2667,"à¦¼à§ĩ!":2668,"à¦§à¦ĵ":2669,"Ġà¦ĸà¦ļ":2670,"Ġà¦Łà¦ķà¦Łà¦ķ":2671,"à¦ĺà§ľ":2672,"à¦Ĺà¦²à¦Ł":2673,"Ġg":2674,"à¦°à¦Ŀ":2675,"à§ģà¥¤âĢĻ":2676,"à¥į":2677,"à¦¸à§İ":2678,"à¦ªà¦²à¦ķ":2679,"Ġà¦¹à¦ĩà¦²":2680,"Ġà¦ħà§Łà¦¨":2681,"Ġà¦¨à¦ľ":2682,"à¦ĩà¦°à¦ķà¦®":2683,"Ġà¦¤à¦®":2684,"Ġà¦«à¦¨":2685,"à¦°à¦ľà¦¬":2686,"à¦¬à¦Ļ":2687,"Ġà¦¸à§ľà¦ķ":2688,"à¦Ľà¦¤à¦²":2689,"à¦¶à¦Ń":2690,"à¦¶à¦«":2691,"à¦¶à¦ĵà¦¯":2692,"à¦·à¦§":2693,"à¦Ńà§İà¦¸":2694,"Ġà¦Ľà¦®à¦Ľà¦®":2695,"Ġà¦¸à¦®à¦¤à¦²":2696,"à¦ıà¦ķà¦¤":2697,"Ġà¦ķà¦°à¦¤à¦²":2698,"Ġà¦ħà¦¬à¦¸à¦¨":2699,"à¦·à¦£à¦¸":2700,"Ġà¦īà¦¦à¦Ĺ":2701,"Ġà¦ľà¦®à¦ľà¦®":2702,"Ġà§§à§«":2703,"Ġà¦¨à¦¬à¦¬à¦°":2704,"à¦¤à¦¬à¦°":2705,"Ġà¦ķà¦¹":2706,"à¥¤âĢ¦":2707,"Ġà¦ļà¦ĵà¦¡":2708,"Ġà¦Ńà¦£":2709,"Ġà¦ĵà¦¨":2710,"Ġà¦§à¦ķ":2711,"Ġà¦Ĩà¦²à¦¸":2712,"Ġà¦Łà¦®":2713,"Ġà¦ħà¦¬à¦ľ":2714,"à¦¨à¦¤à¦®":2715,"Ġà¦ķà¦¨à¦«":2716,"à¦°à¦ĺ":2717,"à¦¼à§Ģ,":2718,"Ġà¦ķà¦¬à¦²":2719,"Ġà¦¤à¦¡":2720,"à¦¶à¦¬à¦¨":2721,"à¦¥à¦Ĺ":2722,"Ġà¦¬à¦²à¦ļ":2723,"Ġà¦ªà¦°à¦¬":2724,"Ġà¦¸à¦®à¦·":2725,"à¦ľà¦¨à¦¨":2726,"Ġà¦Ĩà¦¨à¦®à¦¨":2727,"Ġà¦īà¦ªà¦¬":2728,"Ġà¦Ĩà¦¹à¦¬":2729,"ir":2730,"Ġ?":2731,"à¦ķà¦°à¦¬":2732,"à¦¯à¦ªà¦Ł":2733,"à¦Ĺà¦¬à¦¨":2734,"Ġà¦°à¦¹à¦®":2735,"à¦ĵà¦ķ":2736,"à¦łà¦Ł":2737,"à¦Ĥà¥¤":2738,"Ġà¦ªà¦°à¦ªà¦°":2739,"à¦°à¦£à§Ł":2740,"Ġà¦ıà¦ĩà¦®":2741,"Ġà¦¸à¦¬à¦¸à¦®à§Ł":2742,"âĢĿâĢĵ":2743,"à¦°à¦²à¦¯":2744,"à§įâĢĮ-":2745,"à§°à¦¤":2746,"ow":2747,"à¦¡à¦¶":2748,"Ġà¦ĵà¦¤":2749,"Ġà¦«à¦Łà¦ķ":2750,"Ġà¦¸à¦¬à¦Ĺ":2751,"à¦ħà¦«":2752,"à¦¿âĢĶâĢľ":2753,"Ġà¦Īà¦Ĺà¦²":2754,"Ġà¦Ĩà¦ªà¦¡":2755,"Ġà§¨à§§":2756,"Ġà¦Ĭà¦·":2757,"Ġà¦°à¦ĵà¦¶":2758,"à¦¾)":2759,"à¦¯à¦§":2760,"Ġà¦ķà¦Ń":2761,"Ġà¦¤à¦°à¦ķ":2762,"à§Łà¦ĩ":2763,"à¦Ļà¦°":2764,"à¦¬à¦¨à¦®":2765,"à¦ªà¦°à¦¬à¦°":2766,"à¦Ĩà¦¡":2767,"à¦¤à¦¬à¦¡":2768,"Ġà¦¤à¦°à¦«":2769,"à¦¿)":2770,"à¦¼à§ģ,":2771,"Ġà¦¸à¦ĩ":2772,"à¦¸à¦ĺ":2773,"à¦Łà¦¹":2774,"à¦ªà¦ķà¦°":2775,"à¦¶à¦ľ":2776,"à¦ļà¦ª":2777,"Ġà¦Ĺà¦ļ":2778,"Ġà¦¶à¦¶":2779,"à¦¬à¦°à¦Ł":2780,"Ġà¦ĩà¦°":2781,"Ġà¦Ĺà¦²à¦¦":2782,"à¦ħà¦°à¦£":2783,"à¦ħà¦ľà¦¸":2784,"à¦ľà¦Ĺà§İ":2785,"ĠH":2786,"à¦¤à¦ļà¦°":2787,"Ġà¦¸à¦ļà¦²":2788,"à¦Ľà¦¦":2789,"à¦¹à¦ļà¦°":2790,"Ġà¦ħà¦¨à¦°":2791,"Ġà¦§à¦¬":2792,"à¦¬à¦°à¦ĩ":2793,"Ġà¦Ĩà¦Ľà§ľ":2794,"à¦ĩà¦²à¦Ł":2795,"Ġà¦¸à¦¹à¦¨à¦¶":2796,"Ġà¦¬à¦īà¦®":2797,"à¦¿âĢ¦âĢĿ":2798,"Ġà¦ħà¦¬à¦¨à¦¤":2799,"ÂŃÂŃ":2800,"Ġà¦ķà¦¦à¦°":2801,"Ġà¦¶à¦°à¦£":2802,"à¦¬à¦°à¦¹":2803,"Ġà§¯":2804,"à¦²à¦ªà¦¤":2805,"Ġà¦¸à¦ľà¦²":2806,"à¦¦à¦®à¦¸":2807,"Ġà¦¯à¦®à¦ľ":2808,"à¦ĵà¦Ĺ":2809,"à¦°à¦£à¦Ł":2810,"à¦ıà¦ķà¦¸à¦Ļ":2811,"ma":2812,"ĠL":2813,"à§Ĺ":2814,"à¦®à¦§à¦¨":2815,"Ġà¦¬à¦īà¦ķ":2816,"Ġà¦ħà¦ĸà¦£":2817,"Ġà¦°à¦ľà¦¤":2818,"Ġà¦īà¦¬":2819,"à§Ĥ-":2820,"Ġà¦²à¦ŀ":2821,"Ġà¦«à¦²à¦¤":2822,"à§Ī-":2823,"Ġà¦Ĩà¦ķà¦¬à¦°":2824,"à¦¨à¦¬à¦¦":2825,"Ġà¦īà§İà¦ķà¦°":2826,"Ġà¦¦à¦¶à¦¦":2827,"Ġà¦Ķà¦ªà¦¨":2828,"âĢķâĢķ":2829,"ha":2830,"ra":2831,"à¦¬à¦¦à¦¨":2832,"à¦¼à§Ģà¥¤":2833,"à¥¤âĢĵ":2834,"à¦¸à¦°à¦²":2835,"à¦ĸà¦ķà¦¦":2836,"à¦·à¦¹":2837,"à¦¹à¦Ń":2838,"Ġà¦Ĩà¦®à¦Ĺ":2839,"Ġà¦«à¦°à¦¸":2840,"à¦°à¦¬à¦ķ":2841,"Ġà¦ĩà§Ł":2842,"à¦·à¦£à¦ĩ":2843,"à¦ħà¦¹":2844,"à¦Ĩà¦ľà¦ĵ":2845,"à¦¬à¦®à¦ŀ":2846,"à§¯à§¬":2847,"à¦¥à¦ªà¦°à¦¤":2848,"à¦¤à¦Ĺà¦¤":2849,"à§ģ:":2850,"à¦¶à¦§":2851,"Ġà¦¶à¦²":2852,"Ġà¦ļà¦ķà¦²":2853,"Ġà¦ļà¦Łà¦ķ":2854,"Ġà¦īà¦ĩ":2855,"Ġà¦²à¦¨":2856,"Ġà¦«à¦¤":2857,"à¦°à¦£à¦Ń":2858,"Ġà¦ħà¦ªà¦¦":2859,"à¦·à§Łà¦ķ":2860,"Ġre":2861,"à¦²à¦®à¦¨":2862,"à¦²à¦®à¦£":2863,"à¦¬à¦ŀ":2864,"Ġà¦ªà¦¬à¦¨":2865,"à¦¦à¦Ń":2866,"à¦ªà¦¬à¦¯":2867,"Ġà¦¹à¦ĩà¦¬":2868,"à¦ľà¦¶":2869,"Ġà¦ıà¦¤à¦Ĺ":2870,"à¦ªà¦¦à¦ķ":2871,"à¦ıà¦ķà¦¸":2872,"Ġà¦«à¦²à¦¶":2873,"à¦ļà§Łà¦ĩ":2874,"ĠĠĊĠĠĠ":2875,"os":2876,"à¦¹à¦ĩ":2877,"à¦łà¦ª":2878,"Ġà¦ıà¦ĩà¦ľà¦¨":2879,"à¦Ĩà¦°à¦ĵ":2880,"Ġà¦§à¦¬à¦§à¦¬":2881,"Ġ;":2882,"à§ĩà¦Ĥ":2883,"Ġà¦¬à¦°à¦ķ":2884,"à¦¸à¦ŀ":2885,"Ġà¦®à¦ķ":2886,"Ġà¦¦à¦¹":2887,"Ġà¦Ľà§Ł":2888,"Ġà¦ĸà¦°à¦Ĺ":2889,"à¦ľà¦¨à¦¦":2890,"Ġà¦ħà¦¶à¦°":2891,"Ġà¦¨à§ľà¦¬à§ľ":2892,"Ġfor":2893,"19":2894,"à¦¤à¦°à¦¬":2895,"à¦¯à¦ªà¦°":2896,"à¦¬à¦°à¦¬":2897,"Ġà¦¬à¦ķà¦¬":2898,"à¦ªà¦¤à¦¨":2899,"à§Ģ?âĢĿ":2900,"Ġà¦¹à¦ĩà¦¤":2901,"Ġà¦¯à¦¤à¦¬":2902,"Ġà¦ľà¦¸":2903,"Ġà¦ľà¦®à¦²":2904,"à¦°à¦£à¦ĵ":2905,"à¦°à¦¬à¦®à¦¯":2906,"Ġà¦Ĩà¦²à¦ªà¦¨":2907,"Ġà¦Łà¦ªà¦ķ":2908,"à¦ķà¦²à¦¨":2909,"à¦¯à¦¬à¦§":2910,"Ġà¦Ĩà¦¤à¦°à¦¬":2911,"Ġà¦īà§İà¦ªà¦¤":2912,"à§¯à§«":2913,"à§į,":2914,"Ġà¦¬à¦Ľ":2915,"à¦ļà¦ĩ":2916,"Ġà¦ıà¦ķà¦Ŀ":2917,"Ġà¦ļà¦²à¦ļ":2918,"Ġà¦īà¦¤à¦Ļ":2919,"Ġà¦ķà¦®à¦ª":2920,"à¦¬à¦ľà¦Ĺà¦¤":2921,"Ġà¦®à§Łà¦²":2922,"...âĢĿ":2923,"od":2924,"à¦¯à¦ķà¦²":2925,"à¦¯à¦Łà¦ķ":2926,"à¦¼!âĢĿ":2927,"Ġà¦¬à¦ļà¦¨":2928,"Ġà¦¸à¦ĩà¦¤":2929,"à¦¼à§ĩ;":2930,"à¦Ńà¦°à¦¶":2931,"Ġà¦§à¦¸":2932,"Ġà¦¸à¦®à¦Ŀ":2933,"Ġà¦ĩà¦ķ":2934,"Ġà¦Ĩà¦¬à¦¶":2935,"Ġà¦¨à¦¤à¦ľ":2936,"Ġà¦īà¦ªà¦ķà¦°à¦£":2937,"Ġà¦ħà¦ķà¦ªà¦Ł":2938,"à¦Ĺà¦¬à¦Ĺ":2939,"ment":2940,"à¦ķà¦§":2941,"à¦¬à¦¶à¦ķ":2942,"à¦¼à§Ĥ":2943,"à¦¼à§ĭ,":2944,"Ġà¦¸à¦°à¦¬à¦°":2945,"à¦¶à¦ļ":2946,"à§Łà¦¶à¦ĩ":2947,"à¦¹à¦Ļ":2948,"à¦łà¦¬":2949,"à¦¼à¦¾âĢĵ":2950,"à¦¾à¦ģ?":2951,"à¦Ļà¦ļ":2952,"à¦¬à¦¨à¦ĩ":2953,"à¦īà¦ªà¦°":2954,"Ġà¦ħà¦¬à¦Ĺ":2955,"Ġà¦¬à¦¨à¦¸":2956,"Ġà¦ĺà¦°à¦Ĺ":2957,"Ġà¦ĵà¦ĩà¦Ł":2958,"Ġà¦Ĺà§ľà¦¤":2959,"à§ĭ!âĢĻ":2960,"ul":2961,"à§ĩà§Ĺ":2962,"à¦¯à¦ļà¦°":2963,"à¦®à¦¹à¦²":2964,"Ġà¦¬à¦¦à¦¨":2965,"Ġà¦¸à¦Ĺ":2966,"Ġà¦Ĩà¦ľà¦¨":2967,"à¦¦à¦®à¦¨":2968,"à¦Łà¦Ĺà¦²":2969,"Ġà¦¤à¦°à¦¬":2970,"à¦·à¦¶":2971,"à¦·à¦ľà¦¨":2972,"à¦§à¦ª":2973,"à¦§à¦ķà¦°":2974,"à¦ĵà¦ª":2975,"à¦¼à¦¾?":2976,"Ġà¦ªà¦°à¦ĸ":2977,"à¦Ŀà¦ŀ":2978,"à¦īà¦¹":2979,"à¦¤à¦¨à¦Ń":2980,"à¦ħà¦¦à¦®":2981,"Ġà¦ķà¦²à¦¹":2982,"à¤°":2983,"ation":2984,"à¦¶à¦¶à¦¤à¦ķ":2985,"Ġà¦¬à¦Ĺà¦²":2986,"Ġà¦¬à¦¹à¦°":2987,"à§ĢâĢĻ,":2988,"Ġà¦¦à¦²à¦¬":2989,"à¦·à¦²":2990,"à¦¹à§Łà¦¤":2991,"Ġà¦¶à¦°à¦¤":2992,"Ġà¦ļà¦ª":2993,"à¦łà¦¦":2994,"à¦ªà¦°à¦ķ":2995,"Ġà¦¸à¦¬à¦²":2996,"Ġà¦°à¦ķà¦®à¦ĩ":2997,"Ġà¦Ĺà¦£à¦¨":2998,"à§¯à§Ń":2999,"Ġà¦ªà¦Łà¦ļ":3000,"Ġis":3001,"à¦ķà¦¸à¦Ļ":3002,"à¦®à¦ĺ":3003,"à¦ĩà¦¨à¦¬":3004,"Ġà¦¤à§ľ":3005,"à¦ĸà¦®à¦£":3006,"Ġà¦ħà¦ĸ":3007,"à§Łà¦¶":3008,"Ġà¦Ńà¦ľ":3009,"Ġà¦ıà¦ķà¦¸à¦®à§Ł":3010,"à¦Ĩà¦Ľ":3011,"âĢ¦.":3012,"à¦ıà¦ĩà¦ļ":3013,"à¦°à¦¹à¦£à¦¯":3014,"Ġà¦°à¦¸à¦Ĺ":3015,"Ġà¦Ĩà¦«à¦ľ":3016,"»¿":3017,"ï»¿":3018,"à¦¨à¦ªà¦¥":3019,"à¦¤à§ľ":3020,"à¦¤à¦ķà¦°":3021,"à¦²à¦Ŀ":3022,"à¦®à¦°à¦ķ":3023,"à¦¼à¦ĥ":3024,"Ġà¦®à¦¦à¦¨":3025,"Ġà¦®à¦«à¦¸":3026,"à¦ľà¦ķà¦¨":3027,"Ġà¦ħà¦¯à¦¥":3028,"à¦§à¦°à¦¨":3029,"Ġà¦Ĺà¦ł":3030,"Ġà¦¶à§Łà¦¤":3031,"Ġà¦ľà¦¹":3032,"à¦ĵà¦¹":3033,"Ġà¦«à¦°à¦®":3034,"à¦Ĩà¦¦à¦°":3035,"Ġà¦¢à¦Ļ":3036,"Ġà¦īà¦¦à§Ł":3037,"à¦°à¦¥à¦®à¦Ł":3038,"Ġà¦īà¦²à¦Ļ":3039,"Ġà§§à§ª":3040,"Ġà§§à§¬":3041,"Ġà¦ĭà¦Ĺà¦¬":3042,"Ġà¦Ķà¦¦":3043,"mail":3044,"à¦¤à¦°à¦¤":3045,"à§ģà§į":3046,"Ġà¦¤à¦Ľà¦¨":3047,"Ġà¦¹à¦ľà¦®":3048,"à¦¶à¦§à¦°":3049,"à¦£à¦§":3050,"Ġà¦ıà¦ķà¦ĺ":3051,"Ġà¦īà¦¥":3052,"Ġà¦²à¦Ł":3053,"Ġà¦Ĩà¦¨à¦Ĺ":3054,"Ġà¦ıà¦®à¦¨à¦ĵ":3055,"Ġà¦īà¦ªà¦ľ":3056,"Ġà¦ªà¦¦à¦¬":3057,"Ġà¦¶à¦¹à¦°à¦Ł":3058,"à§Ģà¥¤âĢĿ":3059,"à¦¨à¦¦à¦£":3060,"Ġà¦Ĩà¦¦à¦®":3061,"Ġà¦¶à¦¹à¦°à¦¤à¦²":3062,"Ġà§¨à§¨":3063,"Ġà¦¤à¦Ľà¦¨à¦Ľ":3064,"ĠG":3065,"à¦°à¦¦à¦¯":3066,"à¦¦à¦°à¦®":3067,"Ġà¦ıà¦¶":3068,"Ġà¦ħà¦°à¦¨":3069,"Ġà¦ĵà¦²à¦Ł":3070,"Ġà¦§à§ľ":3071,"Ġà¦Łà¦ª":3072,"à¦Ĩà¦Ł":3073,"à¦¤à¦¨à¦¦":3074,"Ġà¦¸à¦®à§Łà¦ĩ":3075,"Ġà¦Ĩà¦¹à¦°à¦£":3076,"Ġà¦¦à¦¶à¦®":3077,"Ġà¦īà§ľà¦Ľ":3078,"Ġà¦¨à¦°à¦¨":3079,"à¦Ľà¦¯":3080,"Ġà¦ıà¦ľà¦¨":3081,"à¦ĸà¦ĩ":3082,"Ġà¦ħà¦ĺ":3083,"Ġà¦ķà¦°à¦ļ":3084,"à¦Ńà¦ľ":3085,"Ġà¦īà¦Ł":3086,"Ġà¦¥à¦¤":3087,"Ġà¦Łà¦Ĺà¦¬à¦Ĺ":3088,"à¦ĺà¦¸":3089,"à¦¬à¦ªà¦¤":3090,"à§ĩâĢĶâĢĻ":3091,"Ġà¦ķà¦¤à¦ĩ":3092,"à¦ĩà¦¨à¦Ł":3093,"à¦ĩà¦¨à¦Ĺ":3094,"Ġà¦ħà¦ļà¦ŀ":3095,"à§Ģà¥¤âĢĻ":3096,"à¦¤à¦®à¦¶":3097,"Ġà§§à§§":3098,"Ġà¦¬à§ľà¦ĩ":3099,"à¦łà¦ķà¦ĸ":3100,"Ġà¦¬à¦īà¦Ł":3101,"à§¯à§¦":3102,"à¦°à¦ĺà¦°":3103,"à§į-":3104,"à¦¬à¦Ĺà¦¤":3105,"à¦¼âĢĻ":3106,"Ġà¦®à¦¸à¦²":3107,"à¦ĸà¦ĵ":3108,"à¦§à¦Ĺ":3109,"à¦¥à¦ĩ":3110,"Ġà¦ıà¦ķà¦²à¦¬":3111,"Ġà¦Ĩà¦°à¦¤":3112,"Ġà¦§à¦ª":3113,"Ġà¦ħà¦¸à¦®à¦¯":3114,"à¦¨à¦ĵà¦Ł":3115,"Ġà¦¦à¦¶à¦ľà¦¨":3116,"à§ĩâĢ¦à¥¤":3117,"Ġà¦ľà§Łà¦§":3118,"à§¯à§ª":3119,"Ġ!":3120,"Ġy":3121,"à¦Ĭ":3122,"à¦°à¦®à¦¨":3123,"à¦®à¦®à¦°":3124,"Ġà¦ķà¦®à¦¤":3125,"Ġà¦¨à¦®à¦¨":3126,"à§ĢâĢĿ":3127,"Ġà¦Ĺà¦£à¦¤":3128,"Ġà¦°à¦ª":3129,"à¦Ńà¦®":3130,"Ġà¦²à¦¬":3131,"à¦°à¦£à¦ķ":3132,"à¦°à¦£à¦®à¦¯":3133,"à¦ıà¦¨":3134,"à¦ĺà¦¬":3135,"Ġà¦ħà¦¸à§İ":3136,"à¦¸à¦¬à¦¶":3137,"Ġà¦ķà¦®à¦¬":3138,"à§°à¦¬":3139,"à¦®à¦¸à¦®à¦°":3140,"Ġà§§à§¯à§®":3141,"Ġà¦·à§ľ":3142,"Â·Â·Â·":3143,"à¦¦à¦°à¦®à¦¹à¦²":3144,"ag":3145,"à¦²à¦¥":3146,"à¦ķà¦¹":3147,"à¦¯à¦ªà¦¥":3148,"à¦®à¦Ļ":3149,"à¦ĸà¦ķà¦°":3150,"à¦ĸà¦¬à¦¤":3151,"à¦¹à¦ª":3152,"Ġà¦ľà¦ĸà¦®":3153,"à¦¼à¦¾à¦Ĥ":3154,"à¦Ļà¦Ľ":3155,"à¦®à¦¨à¦¨":3156,"Ġà¦Łà¦¹à¦²":3157,"à¦Ĩà¦ļà¦°à¦£":3158,"Ġà¦ħà¦ªà¦Ľà¦¨":3159,"à¦ıà¦ĩà¦Ń":3160,"Ġà¦īà§ľà¦¤":3161,"à¦Ĩà¦§à¦Ł":3162,",-":3163,"ly":3164,"à¦¬à¦ķà¦°":3165,"Ġà¦Ĩà¦ªà¦¸":3166,"Ġà¦ħà¦¯à¦¤":3167,"à¦Ĺà¦²à¦ķ":3168,"à§Łà¦Ń":3169,"Ġà¦¯à¦¬à¦¨":3170,"à¦¹à¦°à¦¨":3171,"à§ľà¦®":3172,"âĢĿ,":3173,"à§Įà¥¤":3174,"à¦ĺà¦¤à¦®":3175,"Ġà¦ħà¦§à¦®":3176,"Ġà¦ħà¦ķà¦¥":3177,"Ġà¦ķà¦®à¦Ľ":3178,"à¦¨à¦Łà¦¨":3179,"Ġà¦¶à¦¤à¦¬à¦°":3180,"Ġà¦Ĺà§ľà¦¬":3181,"Ġà¦®à§Łà¦¦":3182,"ill":3183,"Ġne":3184,"Ġà¦¬à¦°à¦ķà¦¤":3185,"ave":3186,"nd":3187,"ter":3188,"Ø§":3189,"ĠE":3190,"Ġà¥¥":3191,"à§ģ?âĢĻ":3192,"Ġà¦ķà¦®à¦¨":3193,"à¦ĩà¦¹":3194,"Ġà¦ıà¦Ĩà¦ĩ":3195,"à¦§à¦¨à¦¬":3196,"à¦¥à¦ªà¦°":3197,"Ġà¦ľà¦¤":3198,"Ġà¦ıà¦ķà¦¤à¦²":3199,"à¦°à¦¤à¦¨":3200,"Ġà¦Ŀà¦ŀ":3201,"Ġà¦¬à¦¸à¦Ľ":3202,"Ġà¦ªà¦¥à¦ĩ":3203,"à¦¾à¦Ĥ,":3204,"à¦¼à§ĭ-":3205,"à¦®à¦£à¦ķ":3206,"Ġà¦«à¦²à¦¸":3207,"à¦Ŀà¦²à¦®à¦²":3208,"à§§à§®":3209,"Ġà§¨à§ª":3210,"res":3211,"ity":3212,"à¦ĭà¦¤":3213,"Ġà¦¦à¦Ĺà¦¦à¦Ĺ":3214,"Ġà¦¬à¦ķà¦¬à¦ķ":3215,"ce":3216,"ver":3217,"Ġà¦¸à§Ł":3218,"Ġà¦¸à¦ĸà¦¨":3219,"Ġà¦¨à¦¬à¦¬":3220,"à¦ĸà¦¦":3221,"à¦·à¦°à¦£":3222,"à¦·à¦¬à¦°":3223,"à¦·à¦¤à¦¬":3224,"à¦§à¦¯":3225,"Ġà¦ļà¦¬":3226,"Ġà¦Ńà¦²":3227,"à§ĩà¥¤âĢ¦":3228,"à¦Ńà¦Ĺ":3229,"Ġà¦²à¦°":3230,"Ġà¦«à¦¸à¦ķ":3231,"Ġà¦ĸà¦Łà¦ķ":3232,"Ġà¦ħà¦¨à¦¸":3233,"à¦¬à¦¨à¦¦":3234,"à¦°à¦£à¦¬":3235,"Ġà¦Ĩà¦¸à¦ķ":3236,"Ġà¦Łà¦²à¦¤":3237,"Ġà¦ħà¦¸à¦¤":3238,"à¦¸à¦¬à¦ĸ":3239,"à¦ķà¦¤à¦ķ":3240,"à¦®à¦ķà¦°à¦£":3241,"Ġà¦ĩà¦¨à¦«":3242,"Ġà¦īà§ľà¦¨":3243,"Ġà¦ĸà¦¸à¦¡":3244,"op":3245,"à¦¸à¦ł":3246,"à¦¹à¦®à¦¯":3247,"Ġà¦ľà¦ŀ":3248,"Ġà¦ľà¦ĺà¦¨":3249,"à¦Ńà¦²":3250,"Ġà¦ıà¦ķà¦Ń":3251,"à¦¼à¦¾âĢĻ":3252,"à¦īà¦·":3253,"à¦¤à¦°à¦¸":3254,"à¦°à¦®à¦¤":3255,"à¦°à¦¸à¦®":3256,"à¦Ĺà¦¤à¦ķ":3257,"Ġà¦¨à§Łà¦¨":3258,"Ġà¦ķà¦ĸà¦¨à¦ĵà¦ĩ":3259,"Ġà¦ļà¦Łà¦ªà¦Ł":3260,"à§¯à§¯":3261,"Ġ,":3262,"à¦¤à¦ľà¦¨":3263,"à¦¤à¦ªà¦ķ":3264,"à¦ķà§Ł":3265,"à¦¯à¦¸à¦®":3266,"Ġà¦ķà¦ļà¦ķ":3267,"Ġà¦¶à¦Ł":3268,"Ġà¦«à¦¸":3269,"à¦ıà¦°à¦ªà¦°":3270,"Ġà¦¸à¦¬à¦¥":3271,"Ġà¦ħà¦¸à¦Ń":3272,"Ġà¦ħà¦¤à¦Ł":3273,"Ġà¦ħà¦ªà¦¸":3274,"à¦¤à¦²à¦Ł":3275,"à¦¬à¦ķà¦¦":3276,"à¦Łà¦¬à¦ĩ":3277,"our":3278,"à¦¬à¦ĸ":3279,"Ġà¦ķà¦¨à¦Ł":3280,"Ġà¦¸à¦Ĺà¦°":3281,"Ġà¦Ĩà§Łà¦¤":3282,"à¦¦à¦®à§Ł":3283,"Ġà¦¨à¦¬à¦¯":3284,"Ġà¦®à¦ĸ":3285,"à¦ªà¦Ń":3286,"à¦£à¦¶":3287,"à¦¥à¦¯":3288,"à§Ĥà¦ģ":3289,"Ġà¦ĸà¦¤":3290,"ĠâĢĻ":3291,"à¦°à¦¬à¦ļ":3292,"à¦¤à¦°à¦ª":3293,"Ġà¦Ĩà¦²à¦ĸ":3294,"à¦¦à§Łà¦ķ":3295,"à§įâĢĮ,":3296,"Ġà¦ĩà¦¨à¦ľ":3297,"Ġà¦¶à¦¤à¦§à¦¨":3298,"à¤¤":3299,"à¦ıà¦ĸà¦¨à¦ĵ":3300,"Ġà¦·à¦·":3301,"Ġà¦Ĩà¦ĩà¦¸à¦ķ":3302,"Ġwe":3303,"æŃĵæŃĵæŃĵæŃĵ":3304,"em":3305,"ive":3306,"la":3307,"à¦¯à¦¬à¦¨":3308,"Ġà¦¸à¦²à¦ľ":3309,"à¦¸à¦®à¦¤":3310,"Ġà¦Ĩà¦ªà¦¦":3311,"Ġà¦®à¦°à¦®":3312,"à¦Ľà§ľ":3313,"à¦Ńà¦¬à¦¨":3314,"Ġà¦īà¦ĩà¦¨":3315,"à¦¾à¦ģà¥¤âĢĻ":3316,"à¦«à¦¤":3317,"Ġà¦Łà¦¬":3318,"Ġà¦Łà¦¨à¦Łà¦¨":3319,"Ġà¦ķà¦¥à¦ķ":3320,"à¦¨à¦¤à¦²":3321,"Ġà¦ĵà¦łà¦²":3322,"à¦ħà¦Ļ":3323,"à¦¨à¦¬à¦¸":3324,"à§İà¦¸à¦°":3325,"Ġà§¯à§":3326,"Ġà¦ĵà¦ĩà¦¸à¦¬":3327,"à¦°à¦ªà¦¥":3328,"Ġà¦īà§İà¦ªà¦¨":3329,"à¦ķà¦ĸà¦¨à¦ĵ":3330,"à¦Ĳà¦ķ":3331,"à§¨à§¦à§¦à§©":3332,"**":3333,"à¦¤à¦Ŀà¦°":3334,"à¦²à¦ĺ":3335,"à¦®à¦īà¦¦":3336,"à§ĭâĢĻ,":3337,"Ġà¦¸à¦ļà¦ķ":3338,"Ġà¦ªà¦Łà¦²":3339,"Ġà¦ĵà¦®":3340,"Ġà¦ħà¦¨à¦¡":3341,"à¦°à¦£à¦Ĺ":3342,"à¦īà¦ªà¦¨":3343,"à¦¨à¦ĵà¦®à¦¤":3344,"Ġà¦īà§İà¦¸à¦¬à¦®":3345,"à¦¸à¦¹à¦ľ":3346,"à¦°à¦®à¦¶à¦ĩ":3347,"Ġà¦ľà¦²à¦ķà¦£":3348,"Ġà¦®à¦ĸà¦®à¦²":3349,"Ġk":3350,"à§ĩà¦ĥ":3351,"à¦¨à¦ªà¦¤":3352,"à§ģ!âĢĿ":3353,"Ġà¦¬à¦¤":3354,"Ġà¦®à¦°à¦²":3355,"Ġà¦®à¦°à¦¦":3356,"Ġà¦ıà¦¨à¦ķ":3357,"à¦ľà¦ĸ":3358,"à§Łà¦ļ":3359,"à¦¹à¦ķà¦°":3360,"Ġà¦ıà¦ķà¦«":3361,"Ġà¦Ĩà¦®à¦¦":3362,"Ġà¦ĸà¦ª":3363,"Ġà¦ĸà¦¨à¦¨":3364,"Ġà¦ıà¦ĩà¦¸à¦®à¦¯":3365,"à¦ĺà¦Ĺ":3366,"Ġà¦ħà¦¬à¦¯":3367,"à¦Ĺà¦²à¦¬":3368,"Ġà¦ħà¦Ńà¦¯":3369,"à¦¨à¦¬à¦¸à¦®":3370,"à§°à¦®":3371,"Ġà¦ªà¦¤à¦Ļ":3372,"à§¨à§¦à§¦à§¦":3373,"ame":3374,"à¦°à¦ļà¦¨":3375,"à¦¨à¦¬à¦¨":3376,"à¦¨à¦ľà¦°":3377,"à¦¯à¦Ĺà¦¤":3378,"à¦¬à¦ķà¦Ł":3379,"Ġà¦¸à¦¶à¦¬":3380,"à¦ľà§ľ":3381,"à¦ľà¦¤à¦¨":3382,"à¦¹à§Ł":3383,"Ġà¦¶à¦ª":3384,"Ġà¦ľà¦®à¦ķ":3385,"à¦¼à¦¾!":3386,"à¦¼à¦¿âĢĶ":3387,"à§İà¦¬":3388,"Ġà¦ľà¦¨à¦¹":3389,"à¦°à¦®à¦¬à¦°":3390,"Ġà¦ķà¦¬à¦ļ":3391,"Ġà¦°à¦Ļà¦§à¦¨":3392,"Ġà¦ĵà¦ĩà¦ĸ":3393,"Ġà¦¤à¦²à¦¦":3394,"Ġà¦Ĺà¦£à¦ªà¦°":3395,"art":3396,"Ġà¦Ńà¦°à¦¤à¦¬":3397,"Ġnot":3398,"Ġà¦°à¦£à¦ľ":3399,"Ġà¦¥à¦¤à¦®à¦¤":3400,"Ġ19":3401,"à¦¦à¦§":3402,"à¦¦à¦¬à¦¤":3403,"Ġà¦¤à§İà¦ªà¦°":3404,"à¦¼à§ĩà¥¤âĢĿ":3405,"Ġà¦ħà¦ķà¦²":3406,"Ġà¦¶à¦°à¦¬à¦¤":3407,"Ġà¦ľà¦Łà¦²":3408,"Ġà¦ľà§Łà¦¨":3409,"Ġà¦īà¦¥à¦²":3410,"Ġà¦ĸà¦¤à¦®":3411,"à¦°à¦¬à¦¸":3412,"à¦¼,âĢĿ":3413,"Ġà¦Ĩà¦ľà¦¬":3414,"Ġà¦ħà¦¸à¦¨":3415,"Ġà¦ħà¦¸à¦Ļ":3416,"Ġà¦īà¦ªà§ľ":3417,"à¦®à§Łà¦ķà¦°":3418,"Ġà¦ĸà¦¬à¦°à¦¦":3419,"à¦¬à¦¶à¦¤":3420,"à¦°à¦®à¦£à¦ķ":3421,"à¦¾âĢĻâĢĶ":3422,"Ġà¦ħà¦¸à¦®à¦ŀ":3423,"Ġà¦ķà¦¨à¦ķà¦¨":3424,"Ġ\"":3425,"Ġhe":3426,"à¦¤à¦¦à¦¨":3427,"à¦¤à¦ľà¦¬":3428,"à¦®à¦ļà¦°":3429,"Ġà¦¸à¦ĵà§Ł":3430,"à¦¸à¦°à¦¤":3431,"Ġà¦Ĩà¦īà¦Ł":3432,"Ġà¦Ĩà¦ĵà¦¤":3433,"Ġà¦Ĩà¦ĵà§ľ":3434,"Ġà¦¦à¦¨":3435,"à¦¶à¦Ńà¦ķ":3436,"à¦Ĺà¦Ńà¦Ļ":3437,"âĢĶ-":3438,"à¦¬à¦¨à¦¸à¦Ļ":3439,"Ġà¦®à¦¨à¦ĸ":3440,"à¦«à¦ķ":3441,"à¦ıà¦®":3442,"Ġà¦ħà¦®à¦Ļ":3443,"Ġà¦ľà¦²à¦ĸ":3444,"à¦²à¦¤à¦²":3445,"à¦¸à¦¨à¦ķ":3446,"Ġà¦ľà¦®à¦Ľ":3447,"Ġà¦¬à¦ĩà¦ĸ":3448,"à¦¤à¦ķà¦£":3449,"Ġà¦®à¦°à¦Ľ":3450,"à¦®à¦£à¦°":3451,"Ġà¦¦à¦²à¦Ł":3452,"Ġà¦®à¦¶à¦Ĺ":3453,"Ġà¦¹à¦ĩà¦ļà¦ĩ":3454,"à¦¬à§Łà¦¸":3455,"à¦ıà¦®à¦¨à¦ķ":3456,"Ġare":3457,"à§¨à§¦à§¦à§¨":3458,"Ġà§§à§¯à§¯à§¦":3459,"ub":3460,"ĠW":3461,"à¦¯à¦¤à¦°":3462,"à¦¯à¦°à¦¶":3463,"Ġà¦¸à¦¶à¦¸":3464,"à¦Łà¦ļ":3465,"Ġà¦®à¦ľà¦²":3466,"à¦ªà¦ĸ":3467,"Ġà¦¹à¦ĩà¦¨":3468,"Ġà¦¹à¦ĩà¦¯":3469,"à¦¶à¦°à¦¤":3470,"à¦ļà¦Ĺ":3471,"à¦ļà¦¤à¦²":3472,"Ġà¦°à¦£à¦ķ":3473,"Ġà¦ıà¦ķà¦®à¦¤":3474,"Ġà¦¬à¦²à¦¯":3475,"Ġà¦ĵà¦§":3476,"Ġà¦§à¦®à¦¨":3477,"Ġà¦ĩà¦¡":3478,"Ġà¦ħà¦¬à¦®":3479,"Ġà¦ħà¦¬à¦¤à¦°à¦£":3480,"à¦°à¦®à¦¯":3481,"à¦ħà¦ŀ":3482,"à¦°à¦¥à¦ķ":3483,"Ġà¦īà¦ªà¦¡":3484,"à¦®à¦ķà¦¥":3485,"à¦ıà¦ĩà¦Ł":3486,"!âĢĿâĢĶ":3487,"Ġà¦Ĩà¦§à¦ĺà¦£":3488,"à¦®à§Łà¦¤":3489,"à¦¨à¦¸à¦ªà¦Ł":3490,"Ġà§§à§¯":3491,"à¤¿":3492,"à¦ķà¦ľà¦¨à¦ķ":3493,"Ġà¦Ĩà§ľà¦®":3494,"à¦ıà¦ĸà¦¨à¦ĩ":3495,"Ġà¦ªà¦Ļà¦ķ":3496,"Ġà¦¨à¦¬à¦¬à¦§":3497,"if":3498,"à¦®à¦ªà¦¤":3499,"Ġà¦ķà¦ĩà¦°":3500,"à¦¦à¦ľ":3501,"Ġà¦¨à¦¬à¦°":3502,"Ġà¦®à¦ł":3503,"Ġà¦®à¦Ļà¦²":3504,"à¦ľà¦°à¦£":3505,"à¦ľà¦ĸà¦¬à¦°":3506,"à¦Ĺà¦°à¦®":3507,"à¦¥à¦Ń":3508,"Ġà¦ıà¦ķà¦°à¦¤":3509,"Ġà¦¥à¦ĩ":3510,"à¦°à¦ķà¦¨":3511,"Ġà¦ĵà¦łà¦¬":3512,"à¦ħà¦¬à¦¸":3513,"à¦²à¦ķà¦§":3514,"Ġà¦¬à¦°à¦¦":3515,"à¦¨à¦ĵà¦ķ":3516,"à¦¶à¦¨à¦Ł":3517,"Ġà¦¬à¦ĩà¦ªà¦¤":3518,"Ġà¦ħà¦ªà¦°à¦¦":3519,"à¦¤à¦®à§Ł":3520,"Ġà¦¦à¦²à¦¬à¦¦":3521,"ĠK":3522,"à¦¤à¦«":3523,"à¦¤à¦ļà¦ķ":3524,"à¦¯à¦¸à¦¨":3525,"à¦¬à¦®à¦¯":3526,"à¦¬à¦¸à¦®":3527,"Ġà¦ķà¦ľà¦¨":3528,"Ġà¦¸à§İà¦ķ":3529,"à¥¤à¥¤":3530,"à¦ĸà§ľ":3531,"Ġà¦¯à¦¬":3532,"à¦¹à¦Ĺ":3533,"à¦ĵà¦ľ":3534,"Ġà¦«à¦²à¦¨":3535,"Ġà¦ıà¦ĩà¦¤":3536,"à¦¬à¦ªà¦ķ":3537,"à¦ħà¦Ł":3538,"à¦ıà¦ĩà¦¬":3539,"Ġà¦ªà¦¦à¦®à¦ķ":3540,"à§°à¦ľ":3541,"Ġà¦īà§İà¦«":3542,"Ġà¦¨à¦¬à¦ľà¦¨":3543,"à§§à§Ń":3544,"à¦¸à¦¹à¦¦":3545,"Ġà§¨à§«":3546,"Ġst":3547,"à¦¯à¦ĸ":3548,"à§ĭâĢĻà¥¤":3549,"Ġà¦ªà¦ª":3550,"Ġà¦Ĩà¦¤à¦°":3551,"Ġà¦Ĩà¦ĩà¦¸":3552,"Ġà¦ıà¦¹":3553,"à¦ĸà¦Ń":3554,"Ġà¦ħà¦Ĺà¦¤":3555,"à¦·à¦ªà¦¥":3556,"à¦¡à¦īà¦ĩ":3557,"Ġà¦Ńà¦¨":3558,"Ġà¦Ńà¦¬à¦¤":3559,"à¦Ńà¦°à¦¯":3560,"à¦°à¦¤à¦ķ":3561,"Ġà¦§à¦ķà¦²":3562,"à¦·à¦£à¦®":3563,"à§İà¦¸à¦²":3564,"Ġà¦Ĩà¦§à¦ĸ":3565,"Ġà¦ıà¦¨à¦ľ":3566,"Ġà¦ĭà¦ľ":3567,"à¦¼âĢĶâĢľ":3568,"à¤ķ":3569,"Ġà§§à§¯à§©":3570,"red":3571,"à¦¾âĢĿà¥¤":3572,"Ġmy":3573,"à§¨à§¦à§¦à§ª":3574,"ĠĠĠĠĠĠĠĠ":3575,"éŁ¿éŁ¿éŁ¿éŁ¿éŁ¿éŁ¿éŁ¿éŁ¿éŁ¿éŁ¿éŁ¿éŁ¿éŁ¿éŁ¿éŁ¿éŁ¿":3576,"qu":3577,"ºçľ":3578,"à¦¼à¦ĥà¥¤":3579,"à¦Łà¦¶":3580,"à¦ªà¦¬à¦¤":3581,"Ġà¦ħà¦¹à¦°":3582,"à¦¡à¦«":3583,"à¦¹à¦¹":3584,"à¦¥à¦Ł":3585,"Ġà¦īà¦¸":3586,"Ġà¦ªà¦°à¦ª":3587,"âĢĻ;":3588,"Ġà¦Ĩà¦²à¦¨":3589,"Ġà¦Łà¦¯":3590,"Ġà¦ĩà¦¤à¦°":3591,"Ġà¦ĩà¦īà¦Ł":3592,"Ġà¦ľà¦¨à¦¶":3593,"à§ģà¦ģà¥¤":3594,"à¦¦à¦¯à¦¨":3595,"à¦°à¦²à§Ł":3596,"à¦²à¦¬à¦§":3597,"à¦§à¦¨à¦¹":3598,"Ġà¦ħà¦ªà¦ļà¦¯":3599,"Ġà¦¬à¦ĩà¦ķ":3600,"Ġà¦Ĺà¦Ńà¦°":3601,"Ġà¦Ĳà¦¨":3602,"à¦°à¦ľà¦¨à¦¨":3603,"Ġà§§à§¯à§¬":3604,"Ġà¦Ĩà¦ĩà¦¨à¦¸":3605,"Ġà§©à§¦":3606,"à¦ĭà¦£":3607,"omment":3608,"Ġemail":3609,"Ġà¦¨à¦ľà¦°à¦¦":3610,"Ġà¦·à§ľà¦¯à¦¨":3611,"ect":3612,"ip":3613,"·çľ":3614,"à¦°à¦Ĩà¦¨":3615,"à¦¨à¦¤à¦°":3616,"à¦¤à¦§à¦¨":3617,"à¦ķà¦®à¦²":3618,"à¦¯à¦ľà¦¨à¦ķ":3619,"à¦¬à¦īà¦¦":3620,"à¦¼à§ģ-":3621,"à¦Łà¦°à¦ķ":3622,"à¦ªà¦ªà¦¤":3623,"à¦ĸà¦¶":3624,"âĢ¢":3625,"Ġà¦ħà¦ķà¦°":3626,"à¦¡à¦ľ":3627,"à¦ļà¦ķà¦°":3628,"à¦£à¦«":3629,"à¦£à¦Ńà¦°":3630,"à¦ĵà¦®":3631,"à¦ĵà¦¸à¦¬":3632,"à§ĥ-":3633,"Ġà¦īà¦¸à¦ķ":3634,"à§ľà¦Ĺ":3635,"à¦Ŀà¦Ľ":3636,"à¦ŀà¦ª":3637,"à¦°à¦ķà¦£":3638,"à¦°à¦¸à¦Ń":3639,"à¦¿à¦ĤâĢĻ":3640,"Ġà¦ıà¦¤à¦ĸ":3641,"Ġà¦ħà¦ľà§Ł":3642,"Ġà¦¬à¦ĩà¦¬":3643,"à¦¤à¦ķà¦°à¦£":3644,"à¦Ŀà¦²à¦¸":3645,"Ġà¦¶à¦¹à¦°à¦ķ":3646,"ith":3647,"Ġwh":3648,"ess":3649,"ºçľºçľ":3650,"ĠØ":3651,"à¦¤à¦ķà¦¤":3652,"à¦²à¦ķà¦Ł":3653,"à¦®à¦¥":3654,"Ġà¦ķà¦¶":3655,"Ġà¦¬à¦ļ":3656,"à¦¸à¦®à¦²":3657,"Ġà¦ıà¦¤à¦¬à¦¡":3658,"à¦·à¦°à¦¤":3659,"Ġà¦Ĺà¦«":3660,"à¦£à¦®à¦¯":3661,"à¦¥à¦¶":3662,"Ġà¦°à¦Ĺ":3663,"à§ľà¦¸":3664,"âĢĻâĢĵ":3665,"à¦®à¦¨à¦ķ":3666,"Ġà¦Łà¦¨":3667,"Ġà¦Ŀà¦°à¦¤":3668,"Ġà¦Ĩà¦Ĺà¦¸":3669,"à¦ķà¦°à¦¦":3670,"Ġà¦īà¦¦à¦°":3671,"Ġà¦ľà¦²à¦Ľà¦¬":3672,"à¦Ĺà¦¤à¦®":3673,"à¦®à¦¤à¦²":3674,"à¦¿âĢĶâĢĻ":3675,"à¦ľà¦²à¦Ń":3676,"à¦Łà¦¤à¦ĩ":3677,"Ġà¦Ńà§Łà¦ķ":3678,"à¦¾âĢĿâĢĶ":3679,"Ġà¦Ńà¦Łà¦ļ":3680,"·çľ·çľ":3681,"ds":3682,"nt":3683,"st":3684,"à¦°à¦ĵà¦¯":3685,"à¦¯à¦®à¦£":3686,"à¦®à¦«à¦²":3687,"Ġà¦¸à¦ªà¦¨":3688,"à¥ĩ":3689,"à¥¤âĢĺ":3690,"Ġà¦Ĩà¦ĩà¦²":3691,"à¦Łà¦ķà¦°":3692,"Ġà¦¨à¦¶":3693,"à¦ĸà¦ª":3694,"Ġà¦ħà¦ĺà¦Łà¦¨":3695,"à¦·à¦ķà¦¤":3696,"à¦¡à¦ĩ":3697,"à¦¹à¦ľà¦¨à¦ķ":3698,"Ġà¦īà¦¹":3699,"Ġà¦ĸà§ľà¦ķ":3700,"à¦ľà¦¨à¦ĵ":3701,"à¦«à§ľ":3702,"à¦ıà¦ķà¦²":3703,"à¦ĺà¦°à¦Ł":3704,"à¦ĥâĢĵ":3705,"à¦¤à¦¨à¦¶":3706,"à¦¯à¦¤à¦ķ":3707,"à¦¾âĢĶâĢĺ":3708,"à¦·à¦¤à¦Ĺ":3709,"à§ģâĢĻ-":3710,"à¦¤à¦ķà¦¡":3711,"à¦¯à¦®à¦Ĺ":3712,"à¦ľà¦²à¦¦":3713,"Ġà¦¬à¦ķà¦¶":3714,"à¦ķà¦¸à¦ľ":3715,"à¦ķà¦Ľà¦Ł":3716,"Ġà¦ķà§Łà¦²":3717,"Ġtr":3718,"à§¦à§¦à§¦":3719,"um":3720,"Ġon":3721,"à¦°à¦¡":3722,"à¦ķà¦¸à¦¬":3723,"à¦ķà¦Ĩà¦ª":3724,"à¦®à§İ":3725,"à§ĭâĢĿ":3726,"Ġà¦¸à¦°à¦¬":3727,"Ġà¦ªà§Ł":3728,"à¦Łà¦°à¦Ĺ":3729,"Ġà¦ħà¦¤à¦°":3730,"à¦Ńà¦§":3731,"Ġà¦§à¦¬à¦²":3732,"à¦°à¦£à¦ĩ":3733,"à¦īà¦£":3734,"à¦°à¦¬à¦®à§Ł":3735,"Ġà¦Ĩà¦¸à¦ļ":3736,"à¦Ĩà¦īà¦Ł":3737,"à¦·à¦£à¦Ĺ":3738,"à¦°à¦®à¦ľ":3739,"Ġà¦ªà¦¥à¦ĺ":3740,"à¦ħà¦Łà¦²":3741,"à¦²à¦ķà¦¨":3742,"Ġà¦īà¦¦à¦ĺ":3743,"Ġà¦ľà¦²à¦°à¦Ļ":3744,"à¦®à¦²à¦Ĺ":3745,"Ġà¦ħà¦ľà¦ª":3746,"Ġà¦¶à¦°à§İà¦ķ":3747,"à¦¥à¦°à¦Ĺ":3748,"ant":3749,"Ġà¦Ķà¦·à¦§":3750,"Ġà¦®à¦Ĺà¦§":3751,"à§İà¦ªà¦°à¦¤":3752,"Ġyou":3753,"ĠÐ":3754,"Ġit":3755,"à¦®à¦®à¦¯":3756,"Ġà¦ªà¦ļà¦¨":3757,"à¦¸à¦¹à¦¸":3758,"à¦¦à¦ļ":3759,"à¦¶à¦®à¦£":3760,"à¦¼à§ĩâĢ¦":3761,"à¦ļà¦Ń":3762,"Ġà¦ľà¦¬à¦°":3763,"Ġà¦Ĩà¦®à¦¬":3764,"Ġà¦Ĩà¦®à¦ľ":3765,"à§ĩ,-":3766,"à¦¾,âĢĻ":3767,"à¦°à¦£à§Łà¦¨":3768,"à¦ıà¦Ľ":3769,"à¦Ĩà§Ł":3770,"Ġà¦¡à¦°":3771,"Ġà¦ĩà¦¬":3772,"à¦°à¦®à¦¬":3773,"à¦¬à¦¤à¦®":3774,"à¦°à¦¹à¦¸à¦¨":3775,"Ġà¦ħà¦ľà¦¯":3776,"à¦¤à¦¤à¦®":3777,"à¦¶à¦ķà¦¦":3778,"Ġà¦Ĩà¦§à¦ª":3779,"à¦Ĺà¦®à¦ŀ":3780,"à¤¨":3781,"à¤²":3782,"Ġà§§à§¯à§¦":3783,"ind":3784,"à§¯à§§":3785,"Ġà¦ľà¦Ĺà¦¦":3786,"à¦¡à¦Ńà¦£":3787,"à¦¨à¦ĺ":3788,"à¦¨à¦¸à¦¨":3789,"à¦ķà¦ļà¦ķ":3790,"à¦¯à¦Ŀ":3791,"à¦¯à¦Łà¦¨":3792,"Ġà¦¬à¦Ĺ":3793,"Ġà¦ªà¦łà¦¨":3794,"Ġà¦Ĩà¦¹à¦¸":3795,"à¦¦à¦°à¦¬":3796,"à¦¦à¦ĺ":3797,"Ġà¦¨à¦¬à¦¦":3798,"Ġà¦®à¦Łà¦ķ":3799,"à¦ĩà¦ħà¦ķ":3800,"à¦¶à¦¤à¦²":3801,"à¦ļà¦®à¦ķ":3802,"à¦£à¦¶à¦ķ":3803,"à¦Ńà¦²à¦Ń":3804,"à§ĩ,âĢĻ":3805,"Ġà¦¬à¦²à¦¦":3806,"Ġà¦ĵà¦Ŀ":3807,"à¦°à¦¬à¦Ĺ":3808,"à¦¤à¦°à¦ĵ":3809,"à¦ıà¦¤à¦ķ":3810,"à¦ĺà¦Ľ":3811,"Ġà¦ĩà¦¨à¦ķ":3812,"à§Īà¦ĥà¥¤":3813,"à¦ħà¦¤à¦²":3814,"Ġà¦ħà¦Ńà§Ł":3815,"à¦¨à¦¬à¦¸à¦Ń":3816,"Ġà¦ªà§ľà¦¨":3817,"à¦¶à¦¨à¦ķ":3818,"à¦ªà¦¦à¦¬":3819,"Ġà¦ķà¦®à¦ĩ":3820,"Ġà¦ķà¦®à¦ªà¦ķ":3821,"à¦¬à¦¬à¦Ļ":3822,"Ġà¦¶à¦¤à¦ªà¦¥":3823,"à¦Ŀà¦°à¦Ŀà¦°":3824,"à§§à§«":3825,"Ġà§¨à§¯":3826,"Ġà¦ĸà¦¸à§ľ":3827,"Ġà¦¸à¦«à¦Łà¦ĵà¦¯":3828,"Ġwith":3829,"à¦ķà¦ľà¦®à¦ķ":3830,"Ġà¦ľà¦¨à¦Ĺà¦£à¦ķ":3831,"Ġà¦Ŀà¦Łà¦ªà¦Ł":3832,"rom":3833,"Ġï»¿":3834,"à§ĩâĢĿâĢĶ":3835,"à¦°à¦§à¦°":3836,"à¦¤à¦ªà¦¸":3837,"à¦®à¦·":3838,"Ġà¦¸à¦¶à¦°":3839,"à¦¸à¦ĵà¦¯":3840,"à¦ĩà¦®à¦¨":3841,"à¦ĩà¦ŀ":3842,"à§ĢâĢĻà¥¤":3843,"Ġà¦¤à¦ĸ":3844,"Ġà¦¤à¦¬à¦²":3845,"Ġà¦¹à¦ª":3846,"à¦ļà¦¤à¦°":3847,"Ġà¦ķà¦°à¦¨":3848,"Ġà¦Ĺà¦ª":3849,"Ġà¦Ĺà¦ŀ":3850,"Ġà¦Ĺà¦¤à¦°":3851,"Ġà¦«à¦²à¦ķ":3852,"Ġà¦ĸà¦¯":3853,"Ġà¦ħà¦¨à¦Ń":3854,"Ġà¦ħà¦¨à§ľ":3855,"Ġà¦ĺà¦°à¦®à§Ł":3856,"à¦ľà¦¨à¦®":3857,"à¦Ĩà¦°à¦ľ":3858,"Ġà¦¡à¦²":3859,"Ġà¦Ĩà¦ªà¦¨à¦ľà¦¨":3860,"à¦¨à¦¬à¦ķ":3861,"à¦¯à¦¤à¦ĩ":3862,"Ġà¦¸à¦¹à¦ľà¦²à¦Ń":3863,"Ġà¦īà¦¤à¦²":3864,"à¦ĩà¦¨à¦¸":3865,"Ġà¦«à¦²à¦ª":3866,"à¦ªà¦ķà¦Ń":3867,"à¦°à¦ļà¦²à¦¨":3868,"Ġà¦¬à§ľà¦¦":3869,"à¦°à¦Ĺà¦£":3870,"Ġà¦¸à¦¹à¦ľà¦Ń":3871,"?âĢĿâĢĶ":3872,"Ġà¦Ńà¦Ĺà¦¬à¦¦":3873,"Ġà¦¨à¦Ĺà¦¦":3874,"Ġà¦¸à¦°à¦¸à¦¤":3875,"ap":3876,"ri":3877,"ĠU":3878,"à¦¯à¦¯à¦¨":3879,"à¦®à¦°à¦¤":3880,"à¦Łà¦§à¦°":3881,"à¦ĩà¦ªà¦°":3882,"à§Ģ!âĢĻ":3883,"à¦Ľà¦¸":3884,"à¦ľà¦¬à¦¨":3885,"à¦¶à¦¤à¦ķ":3886,"à¦ļà¦ŀ":3887,"à¦¹à¦®à¦¨":3888,"à¦łà¦¹":3889,"Ġà¦¬à¦²à¦Ł":3890,"Ġà¦¬à¦²à§Ł":3891,"Ġà¦ªà¦°à¦°":3892,"Ġà¦¸à¦®à¦¬à¦¯":3893,"ĠâĢĺâĢĺ":3894,"à¦·à¦£à¦¶":3895,"Ġà¦ªà¦¥à¦°":3896,"Ġà¦ªà¦¥à¦Ĺ":3897,"à¦ħà¦¥à¦¬":3898,"à¦°à¦¸à¦¤":3899,"à¦°à¦ľà¦²":3900,"à¦ªà¦¤à¦Ļ":3901,"Ġà¦¬à¦ĩà¦®":3902,"Ġà¦ªà¦¦à¦¸":3903,"Ġà¦ĵà¦ĩà¦Ń":3904,"Ġà¦ıà¦ķà¦ĩà¦¸à¦Ļ":3905,"Ġà¦¬à¦Łà¦¤à¦²":3906,"à¦®à¦Łà¦®":3907,"à¦¦à¦Ĺà¦¦":3908,"her":3909,"ĠRe":3910,"à¦§à¦¹à§Ł":3911,"Ġà¦¤à¦°à¦«à¦¦":3912,"âĢķâĢķâĢķâĢķ":3913,"à¦ĵà¦ľà¦«":3914,"à¦¡à¦īà¦ĩà¦ļ":3915,"!)":3916,"!âĢĶ":3917,"ab":3918,"ke":3919,"Ð¾":3920,"à¦¿âĢĿà¥¤":3921,"à¦¨à¦ľà¦¨à¦ķ":3922,"à¦ķà¦°à¦ķ":3923,"Ġà¦¬à¦ĩà¦²":3924,"Ġà¦¸à¦ĵà¦¯":3925,"Ġà¦¸à¦ļà¦°":3926,"Ġà¦ªà¦ľ":3927,"à¦Łà¦ľ":3928,"Ġà¦¨à¦ļ":3929,"Ġà¦®à¦°à¦¶":3930,"à§Ģ:":3931,"Ġà¦¤à¦¤à¦¬":3932,"à¦ľà¦ľ":3933,"à¦§à¦Ĺà¦®":3934,"à¦¡à¦ļ":3935,"Ġà¦Ĺà¦®à¦¨":3936,"Ġà¦Ĺà¦ľà¦²":3937,"à¦¥à¦°à¦Ł":3938,"Ġà¦ļà¦°à¦ķ":3939,"à¦łà¦Ń":3940,"Ġà¦Ĩà¦°à¦¨":3941,"Ġà¦²à¦¸":3942,"Ġà¦«à§ľ":3943,"Ġà¦ħà¦¨à¦¤":3944,"à¦¼à¦¿?":3945,"à¦«à¦ª":3946,"à¦ıà¦°à¦ķà¦®":3947,"à¦¬à¦°à¦Ĺ":3948,"Ġà¦ķà¦¥à¦ŀ":3949,"Ġà¦Ŀà¦°à¦¬":3950,"à¦°à¦®à¦ķ":3951,"Ġà¦Ĩà¦Ĺà¦¤":3952,"Ġà¦Ĺà¦²à¦¤":3953,"à¦ķà¦°à¦Ł":3954,"à¦ħà¦®à¦°":3955,"à¦ħà¦¸à¦®":3956,"à¦²à¦ķà¦¦":3957,"Ġà¦ķà¦¬à¦ľ":3958,"à§ģà¦ĥà¥¤":3959,"à¦ıà¦ķà¦¦à¦®":3960,"Ġà¦Ķà¦ľ":3961,"ist":3962,"Ġ***":3963,".âĢĿ":3964,"ht":3965,"ĠY":3966,"Ġv":3967,"à¦¨à¦°à¦®":3968,"à¦¯à¦¨à¦¤":3969,"à¦¬à¦ī":3970,"à¦¼)":3971,"Ġà¦ķà¦ļà¦²":3972,"Ġà¦¸à¦¦à¦¯":3973,"Ġà¦¤à§İà¦ªà¦°à¦¤":3974,"Ġà¦¹à¦¡":3975,"à¦¶à¦ĸ":3976,"à¦§à¦ªà¦°":3977,"Ġà¦ļà¦·":3978,"Ġà¦Ńà¦°à¦£":3979,"Ġà¦°à¦¸à¦¬":3980,"à¦Ńà¦¤":3981,"à¦łà¦Ĺà¦¡":3982,"à¦¤à¦°à¦ŀ":3983,"à¦ĺà¦¬à¦¦":3984,"Ġà¦Ĺà¦²à¦Ĺà¦²":3985,"à¦²à¦ķà¦ļ":3986,"Ġà¦Ĩà¦ķà¦£":3987,"à¦°à¦¥à¦®à¦¦":3988,"Ġà¦ħà¦Ńà¦¦":3989,"à¦¯à¦¤à¦¦":3990,"à¦°à¦¦à¦ķ":3991,"à¦·à¦ķà¦ķ":3992,"Ġà¦«à¦²à¦®":3993,"à¦¢à¦²":3994,"à§°à¦ķ":3995,"à¦®à¦Ĺà¦ŀ":3996,"Ġà§§à§¯à§¨":3997,"à¦°à¦«à¦¤":3998,"à§§à§©":3999,"à§§à§ª":4000,"Ġà§¨à§®":4001,"Ġà¦¹à¦¨à¦¹à¦¨":4002,"Ġà¦Ĭà¦¨":4003,"à¦¾à¦ĥ!":4004,"est":4005,"Ġà¦ľà¦¨à¦¸à¦ļ":4006,"ĠThe":4007,"se":4008,"up":4009,"Ø±":4010,"à¸":4011,"à§ĩ...":4012,"à¦°à¦Ĺà¦²":4013,"à¦¨à¦®à¦¸":4014,"à¦¨à¦ľà¦Ł":4015,"à¦¤à¦®à¦¨":4016,"à¦²à¦ªà¦¥":4017,"à¦¯à¦¸à¦Ļ":4018,"Ġà¦¬à¦¦à¦°":4019,"à¥Ģ":4020,"Ġà¦Ĩà¦ĵà¦¡":4021,"à¦¦à¦°à¦ķ":4022,"Ġà¦¨à¦ª":4023,"Ġà¦¤à§İ":4024,"Ġà¦ħà¦¤à¦¨":4025,"à¦§à¦ļ":4026,"à¦ļà¦²à¦¬":4027,"à¦£à¦®à§Ł":4028,"à¦ĵà¦ĸ":4029,"Ġà¦ıà¦ķà¦ķà¦¥":4030,"à¦łà¦®":4031,"Ġà¦²à¦ĩà¦¯":4032,"âĢĻ!":4033,"à¦¤à¦°à¦Ĺ":4034,"à¦ıà¦¸à¦¸":4035,"Ġà¦¬à¦¸à¦¤à¦¬":4036,"Ġà¦¢à¦ķ":4037,"à¦°à¦¸à¦¹":4038,"à¦Ĺà¦²à¦Ĺà¦ŀ":4039,"à¦§à¦¨à¦Ĺ":4040,"Ġà¦Ĩà¦¤à¦¤":4041,"Ġà¦¸à¦¹à¦¬":4042,"Ġà¦ħà¦ľà¦Ĺà¦°":4043,"Ġà¦Ńà¦¬à¦ĺ":4044,"à§¨à§¨":4045,"à§ĩâĢ¦âĢĻ":4046,"Ġà§¨à§Ń":4047,"à§«à§¦":4048,"Ġà¦ħà¦¹à¦°à¦¹":4049,"à¦ĩà¦ľà¦¡":4050,"à¦¯à¦ĸà¦¨à¦ĩ":4051,"Ġwas":4052,"Ġse":4053,"Ġcon":4054,"à¦Ĺà¦ªà§İ":4055,"Ġthis":4056,"ÂŃÂŃÂŃÂŃ":4057,"Ġà¦§à§ľà¦«à§ľ":4058,")-":4059,"ore":4060,"à¦¾),":4061,"à¦¨à¦°à¦ķ":4062,"à¦¤à¦®à¦¯":4063,"à¦²à¦ļà¦°":4064,"à¦²à¦ľà¦²":4065,"à¦ķà¦ĺà¦°":4066,"à¦¯à¦¦à¦²":4067,"à¦¬à¦ĩà¦¯":4068,"Ġà¦¸à¦°à¦¤":4069,"Ġà¦¸à¦°à¦£":4070,"Ġà¦Ĩà¦ĩà¦Ł":4071,"Ġà¦ħà¦¢":4072,"à§Łà¦Ł":4073,"à§Łà¦ĵ":4074,"à¦¹à¦¶":4075,"Ġà¦Ĺà¦¦à¦Ĺà¦¦":4076,"Ġà¦Ńà¦ľà¦¨":4077,"Ġà¦°à¦¸à¦¨":4078,"à¦Ńà¦Ĺà¦¬":4079,"à¦łà¦ľ":4080,"Ġà¦²à¦ķà¦²à¦ķ":4081,"à¦¬à¦¨à¦¬à¦¤":4082,"à¦¬à¦¨à¦Ńà¦°":4083,"à§İà¦ķà¦°":4084,"à¦«à¦²à¦ķ":4085,"Ġà¦Ĩà¦²à¦¬":4086,"Ġà¦¡à¦ľà¦¨":4087,"Ġà¦ľà¦¨à¦¸à¦®":4088,"Ġà¦īà¦ªà¦Ĺ":4089,"Ġà¦ķà¦²à¦®à¦Ł":4090,"à¦²à¦¬à¦¶à¦¤":4091,"à¦¬à¦¸à¦¤":4092,"à§¨à§¦":4093,"Ġà§¨à§¬":4094,"ong":4095,"Ġà¦Ĩà¦ĸà¦¡":4096,"row":4097,"Ġthat":4098,"aya":4099,",âĢĶ":4100,"ac":4101,"ge":4102,"iv":4103,"lis":4104,"à¦°à§İ":4105,"à¦¨à¦ĺà¦°":4106,"à¦¤à¦ªà¦¦":4107,"à¦²à¦ľà¦¯":4108,"à¦ķà¦®à¦¯":4109,"à¦¬à¦ļà¦ķ":4110,"Ġà¦ķà¦ŀ":4111,"Ġà¦¬à¦°à¦¬":4112,"Ġà¦¸à¦ĩà¦¬":4113,"Ġà¦ªà¦¸":4114,"à¦¸à¦ĸà¦¨":4115,"à¦¶à¦®à¦¨":4116,"Ġà¦ħà¦Ľ":4117,"Ġà¦ħà¦°à¦¬":4118,"à¦·à¦¡":4119,"à¦ļà¦²à¦¨":4120,"à¦¹à¦®à§Ł":4121,"à¦¥à¦ĵ":4122,"à¦¥à¦¬à¦¹":4123,"Ġà¦¶à¦°à¦®":4124,"Ġà¦ľà¦ľ":4125,"Ġà¦ļà¦ªà¦²":4126,"Ġà¦°à¦¡":4127,"Ġà¦°à¦ļà¦¯":4128,"Ġà¦Ĩà¦®à¦¤":4129,"à¦łà¦Ĺ":4130,"Ġà¦§à¦¨à¦ķ":4131,"à¦¬à¦¨à¦¦à¦°":4132,"à¦īà¦¥":4133,"à¦īà§İà¦¸":4134,"à¦°à¦¬à¦ŀ":4135,"à¦¤à¦°à¦®":4136,"à¦¤à¦°à¦ĩ":4137,"à¦ıà¦¤à¦¦":4138,"Ġà¦Ŀà¦ª":4139,"à¦ĥâĢĶ":4140,"à¦ķà¦²à¦Ļ":4141,"à¦°à¦¹à¦°à¦£":4142,"Ġà¦ħà¦ªà¦ķ":4143,"Ġà¦ħà¦§à¦¸":4144,"à¦ªà¦¦à¦¸":4145,"Ġà¦¨à§Łà¦¤":4146,"Ġà¦ħà¦¥à¦°":4147,"Ġà¦ªà¦¦à¦¤à¦²":4148,"à¦Ĩà¦ľà¦ĩ":4149,"à¦°à¦®à¦£à¦¬":4150,"à¦¾à¦ģ,âĢĿ":4151,"Ġà¦ªà¦°à¦®à¦¸à¦¤":4152,"à¦·à§Łà¦Ł":4153,"Ġà§¨à§©":4154,"hed":4155,"Ġà¦ĵà¦·à¦§":4156,"end":4157,"Ġà¦Ĺà¦ľà¦Ĺà¦ľ":4158,"Ġad":4159,"lect":4160,"ust":4161,"à¦Ĭà¦°":4162,"ci":4163,"ure":4164,"xt":4165,"Ð°":4166,"ĠV":4167,"Ġj":4168,"Ġor":4169,"à§ĩ),":4170,"à¦°à¦§à¦¨":4171,"à§įâĢį":4172,"à¦¨à¦«":4173,"à¦¨à¦ĵà¦¯":4174,"à¦¨à¦ķà¦°":4175,"à¦¤à¦¤à¦°":4176,"à¦²à¦ĵà¦¯":4177,"à¦ķà¦Ńà¦°":4178,"à¦®à¦¶à¦ķ":4179,"à¦¼âĢĿ":4180,"à¥¤)":4181,"à¦¦à¦ĸ":4182,"Ġà¦¨à¦Ĺà¦£":4183,"Ġà¦®à¦Ł":4184,"Ġà¦¦à¦¦":4185,"à¦Ľà¦ĩ":4186,"Ġà¦¤à¦°à¦£":4187,"à¦ľà¦²à¦¬":4188,"à¦ĸà¦ľ":4189,"à¦Ĺà¦§":4190,"à§Łà¦ªà¦°":4191,"à¦·à¦¤à¦²":4192,"à¦·à¦§à¦°":4193,"à¦§à¦ļà¦¨":4194,"à¦¡à¦¹":4195,"à¦¡à¦ĵ":4196,"à¦ļà¦£":4197,"Ġà¦°à¦Łà¦¨":4198,"Ġà¦Ľà¦®":4199,"Ġà¦²à¦Ń":4200,"Ġà¦ĺà¦·à¦¤":4201,"à¦¬à¦¨à¦¸":4202,"Ġà¦®à¦¨à¦®":4203,"à¦ªà¦°à¦¬":4204,"à¦ŀà¦¸":4205,"à§İà¦ªà¦¤":4206,"à¦¤à¦°à¦ķà¦®":4207,"Ġà¦¸à¦¬à¦¶":4208,"à¦ĺà¦Łà¦ķ":4209,"Ġà¦ĩà¦£":4210,"Ġà¦ĩà¦Ń":4211,"Ġà¦ĩà¦®à¦¨":4212,"à¦·à¦£à¦ĵ":4213,"Ġà¦¬à¦¨à¦ľ":4214,"Ġà¦Ĺà¦²à¦Ľ":4215,"à¦ķà¦Łà¦¬à¦°":4216,"à¦¤à¦¬à¦¬":4217,"à¦¾à¦Ĥ-":4218,"à¦¯à¦¬à¦¯":4219,"à¦¯à¦¬à¦ĩ":4220,"à¦¦à§Łà¦¸":4221,"âĢĮà§į":4222,"à§įâĢĮâĢĶ":4223,"Ġà¦¸à¦®à§Łà¦ķ":4224,"Ġà¦¦à¦²à¦Ĺà¦¤":4225,"à¦·à§Łà¦Ĺ":4226,"Ġà¦ķà¦Łà¦®à¦Ł":4227,"à¦¬à¦®à¦Ļ":4228,"Ġwill":4229,"Ġà¦ķà¦ªà¦Łà¦¤":4230,"Ġà¦Ķà¦°à¦¸à¦ľ":4231,"10":4232,"ĠF":4233,"ĠÙ":4234,"à¦¨à¦ĩà¦²":4235,"à¦¨à¦ļà¦°":4236,"à¦¯à¦Ńà¦°":4237,"à¦®à¦®à§Ł":4238,"Ġà¦ķà¦¬à¦¨":4239,"Ġà¦¸à¦¸à¦®":4240,"Ġà¦Ĩà¦ĵ":4241,"à¦Łà¦°à¦¬":4242,"Ġà¦®à¦ĩ":4243,"à¦ĩà¦¸à¦²":4244,"à¦Ľà¦²à¦¤":4245,"à¦¡à¦¬à¦Ń":4246,"à¦¥à¦ªà¦¤":4247,"Ġà¦ľà¦łà¦°":4248,"Ġà¦°à¦®à¦¨":4249,"à§ľà¦Ļ":4250,"à¦ªà¦°à¦¶":4251,"à¦¬à¦°à¦¦":4252,"Ġà¦¡à¦¬à¦²":4253,"à¦ĺà¦¦à¦²":4254,"âĢĵâĢĵ":4255,"à¦ĥ!":4256,"à¦¤à¦¨à¦ķ":4257,"à¦ħà¦¸à¦¹":4258,"à¦²à¦ķà¦ķ":4259,"à¦²à¦ķà¦Ń":4260,"à¦¨à¦¬à¦ķà¦²":4261,"à¦ļà¦¨à¦ľà¦Ļ":4262,"Ġà¦ħà¦ªà¦ļà§Ł":4263,"Ġà¦Ĩà¦¤à¦¶à¦¬":4264,"à¦ªà¦¦à¦ª":4265,"ĠâĢĶâĢĶâĢĶ":4266,"à¦¦à§Łà¦Ł":4267,"à§Łà¦¨à¦¯":4268,"à¦¬à¦ķà¦ķ":4269,"à¦ħà¦¨à¦²":4270,"Ġà¦¶à¦¤à¦ķà¦°":4271,"Ġà¦ļà¦®à¦ķà¦ª":4272,"à¤¹":4273,"Ġà¦¶à¦¹à¦°à¦¬":4274,"Ġtim":4275,"à¦¿âĢĻâĢĶ":4276,"à§©à§©":4277,"à§«à§Ń":4278,"à§¯à§®":4279,"Ġà¦ķà¦¬à¦°à¦¸":4280,"Ġas":4281,"ast":4282,"Ġà¦¦à¦«à¦¤à¦°":4283,"Ġà¦¤à¦ªà¦¨à¦ķ":4284,"ress":4285,"av":4286,"har":4287,"à§į!":4288,"à§įâĢĻ":4289,"à¦¤à¦¬à¦¨":4290,"à¦²à¦ŀ":4291,"à¦ķà¦¶à¦ª":4292,"à§ģà§ģ":4293,"à§ģ?âĢĿ":4294,"à¦¬à¦¦à¦°":4295,"à¦®à¦¸à¦¨":4296,"Ġà¦ķà¦ĩà¦²":4297,"Ġà¦ķà¦¸à¦®":4298,"Ġà¦¸à¦¶":4299,"Ġà¦¸à¦ĵà¦¦":4300,"à¦¸à¦ĺà¦°":4301,"Ġà¦Ĩà¦ĩà¦°":4302,"à¦Łà¦¯":4303,"à¦Łà¦Ĩà¦ª":4304,"Ġà¦®à¦²à¦®":4305,"à§ĢâĢ¦":4306,"Ġà¦ıà¦ŀ":4307,"à¦ľà¦ļ":4308,"à¦ľà¦§à¦°":4309,"Ġà¦¯à¦¶à¦¸":4310,"à¦§à¦®à§Ł":4311,"à¦¹à¦ľ":4312,"à¦¹à¦ĵ":4313,"Ġà¦Ĺà¦¤à¦¬":4314,"à¦£à¦¬à¦°":4315,"Ġà¦¶à¦¶à¦¬":4316,"Ġà¦°à¦®à¦²":4317,"Ġà¦ıà¦ķà¦§à¦°à¦¨":4318,"à¦łà¦ķà¦¦":4319,"Ġà¦«à¦¸à¦«":4320,"Ġà¦ĸà¦¨à¦ª":4321,"Ġà¦§à§°":4322,"Ġà¦®à¦¨à¦ĵ":4323,"à¦Ŀà¦²à¦ķ":4324,"à¦īà¦Ńà¦¯":4325,"à¦¤à¦°à¦«":4326,"Ġà¦Łà¦®à¦Łà¦®":4327,"Ġà¦ĩà¦¨à¦Ł":4328,"Ġà¦Ŀà¦²":4329,"Ġà¦Ŀà¦°à¦£":4330,"à¦·à¦£à¦ľà¦¨":4331,"Ġà¦ªà¦¥à¦ĵ":4332,"à¦¦à¦¨à¦Ĺ":4333,"à¦¯à¦¬à¦¶à¦¤":4334,"à¦¦à¦°à¦Ł":4335,"à¦²à¦¨à¦ĩ":4336,"à¦²à¦¨à¦ļ":4337,"à¦§à¦¨à¦ĩ":4338,"Ġà¦ħà¦ľà¦°":4339,"ĠâĢĶâĢĿ":4340,"Ġà¦ĵà¦ĩà¦°à¦ķà¦®":4341,"Ġà¦®à¦°à¦ļ":4342,"à¦°à¦ªà¦Ļ":4343,"Ġà¦¦à¦²à¦ªà¦¤":4344,"à¦ķà¦ķà¦¥":4345,"à§¨à§«":4346,"Ġà§§à§¯à§§à§":4347,"à¦°à¦¬à¦²à¦Ń":4348,"à¦²à¦ļà¦²à¦¨":4349,"à§ĩâĢĻâĢĶ":4350,"Ġà¦¸à¦«à¦Łà¦ĵà§Ł":4351,"ite":4352,"Ġby":4353,"Ġde":4354,"Ġhave":4355,"ĠMaya":4356,"à¦Ĺà¦łà¦¨à¦Ĺ":4357,"Ġà¦¸à¦ĸà¦¨à¦ĵ":4358,"?âĢĶ":4359,"ry":4360,"th":4361,"Ġan":4362,"à¦¿...":4363,"à¦¨à¦§":4364,"à¦¨à¦®à¦¤":4365,"à¦¤à¦¤à¦²":4366,"Ġà¦ķà§°":4367,"Ġà¦¬à¦°à¦®":4368,"à¦¦à¦¬à¦°":4369,"Ġà¦¨à¦²à¦ķ":4370,"Ġà¦®à¦ļ":4371,"à¦ªà¦®à§Ł":4372,"Ġà¦¦à¦Ļ":4373,"Ġà¦¤à¦®à¦¸":4374,"Ġà¦¤à¦°à¦¤à¦°":4375,"à¦ĸà¦§":4376,"à¦¡à¦ĵà¦¯":4377,"à¦¹à¦¨à¦ķ":4378,"à¦¹à¦¬à¦§":4379,"à§ĩà¥¤à¥¤":4380,"à¦Ńà¦°à¦¸":4381,"Ġà¦īà¦Ĺà¦°":4382,"Ġà¦ĸà§Ł":4383,"à§ľà¦Ŀ":4384,"Ġà¦¸à¦®à¦Ń":4385,"à¦¬à¦¨à¦ľ":4386,"à¦®à¦¨à¦Ń":4387,"à¦ªà¦°à¦¸":4388,"à¦ıà¦«":4389,"à¦ıà¦°à¦ĩ":4390,"Ġà¦Ĩà¦²à¦«":4391,"à¦¬à¦°à¦ļ":4392,"à¦Ĩà¦Ń":4393,"Ġà¦ķà¦¥à¦ķà¦¤":4394,"Ġà¦®à¦¤à¦¬":4395,"Ġà¦Ŀà¦°à¦²":4396,"à¦¬à¦²à§Ł":4397,"à¦°à¦®à¦ª":4398,"à¦ħà¦®à¦¨":4399,"à¦¿à¦ĤâĢĶ":4400,"Ġà¦ľà¦²à¦Ł":4401,"Ġà¦ľà¦²à¦Ńà¦°":4402,"à¦¨à¦¬à¦®à¦¨":4403,"Ġà¦ªà§ľà¦¶":4404,"à¦°à¦¦à§Ł":4405,"Ġà¦ħà¦ªà¦Ł":4406,"Ġà¦¹à¦łà¦ķ":4407,"à¦ıà¦ĩà¦°à¦ķà¦®":4408,"à¦·à¦¤à¦ļ":4409,"Ġà¦Ĺà¦¨à¦Ĺà¦¨":4410,"à¦ıà¦ķà¦¸à¦®à¦¯":4411,"Ġà¦Ĩà¦¦à¦¤":4412,"à¦Ĺà¦ľà¦ĸ":4413,"Ġà¦ĸà¦¬à¦°à¦ĵ":4414,"à¦ľà¦¬à¦īà¦¦":4415,"Ġà¦Ĺà¦®à¦Ĺà¦®":4416,"à§«à§¬":4417,"à¦¦à¦¶à¦Ł":4418,"ath":4419,"ated":4420,"Ġcou":4421,"Ġà¦ľà¦Ĺà§İà¦Ł":4422,"elf":4423,"uth":4424,"Ġà§§à§¯à§ªà§Ń":4425,"Ġtime":4426,"ak":4427,"bs":4428,"ies":4429,"ld":4430,"à¦¤à¦®à¦£":4431,"à¦²à¦§":4432,"à¦²à¦ķà¦°":4433,"à¦²à¦ļà¦¨":4434,"à§ģ)":4435,"à§ģâĢĿ":4436,"à¦®à¦¶à¦²":4437,"Ġà¦¸à¦ľà¦¨":4438,"Ġà¦Ĩà¦Łà¦ª":4439,"à¦Ľà¦ĵ":4440,"Ġà¦¤à¦°à¦¤":4441,"Ġà¦¤à¦ªà¦¤":4442,"Ġà¦¤à¦Łà¦¸":4443,"à¦¶à¦°à¦ķ":4444,"à¦¶à¦ļà¦¨":4445,"âĢī":4446,"à§Łà¦£à¦¤":4447,"à¦·à¦¸à¦¦":4448,"à¦£à¦ľ":4449,"à¦£à¦ķà¦°":4450,"Ġà¦ĸà¦ŀ":4451,"à¦¾à¥¤âĢ¦":4452,"à¦¬à¦¨à¦ĵ":4453,"à§İà¦¸à¦¨":4454,"à¦īà¦¨à¦²":4455,"à¦īà¦Ńà§Ł":4456,"à¦¿,âĢĻ":4457,"à¦ıà¦®à¦¨à¦ĩ":4458,"Ġà¦¹à¦²à¦«":4459,"Ġà¦Ĩà¦¬à¦¹à¦®":4460,"Ġà¦ªà¦¥à¦ķ":4461,"Ġà¦ªà¦¥à¦¹":4462,"à¦¸à¦¬à¦ļ":4463,"Ġà¦ľà¦²à¦Ľ":4464,"à¦°à¦¶à¦®":4465,"à¦°à¦²à¦¸":4466,"à¦¶à¦¨à¦²":4467,"à¦ļà¦²à¦Ł":4468,"Ġà¦ķà¦¤à¦ľà¦¨":4469,"à¦¤à¦ķà§ľ":4470,"à¦°à¦Ńà¦Ļ":4471,"à¦Ĺà¦ľà¦Ĺ":4472,"Ġà¦¨à¦¬à¦®":4473,"Ġà¦¦à¦²à¦Ĺ":4474,"à¦¸à¦ķà¦¦":4475,"Ġà¦Ĩà¦ªà¦²":4476,"à¦ľà¦¸à¦ľ":4477,"à¦ľà¦¬à¦§":4478,"Ġà¦§à¦¨à¦ŀ":4479,"Ġà¦§à¦¨à¦¸à¦®":4480,"à¦ļà¦°à¦£à¦ķ":4481,"Ġà¦¸à¦°à¦²à¦Ń":4482,"Ġà¦°à¦¸à¦¦":4483,"Ġà¦Ĩà¦«à¦Ł":4484,"Ġman":4485,"Ġà¦ıà¦ĩà¦°à¦ķà¦®à¦ĩ":4486,"Ġà¦ĸà¦Łà¦ĸà¦Ł":4487,"hak":4488,"ked":4489,"og":4490,"Ðµ":4491,"à¦¾âĢĮ":4492,"à¦²à¦§à¦¨":4493,"à¦ķà¦¤à¦°":4494,"à¦¯à¦Ĺà¦¨":4495,"à¦®à¦¬à¦¨":4496,"à¦®à¦Ĺà¦¤":4497,"à¦¼âĢĻ,":4498,"Ġà¦¬à¦ķà¦¤":4499,"à¦¸à§ľ":4500,"à¦Łà¦¡":4501,"Ġà¦®à§ľ":4502,"Ġà¦®à§Łà¦¨":4503,"Ġà¦®à¦²à¦¯":4504,"Ġà¦¦à¦ªà¦¦à¦ª":4505,"Ġà¦ıà¦§":4506,"Ġà¦¹à¦°à¦ª":4507,"à¦Ĺà¦°à¦ķ":4508,"à§Łà¦¹":4509,"Ġà¦Ĺà§Łà¦¨":4510,"à¦£à¦ªà¦ķ":4511,"à¦¥à¦¦":4512,"Ġà¦¶à¦°à¦¦":4513,"Ġà¦ľà¦°à¦Ĺ":4514,"à¦ĵà¦¬":4515,"à¦łà¦¤à¦®":4516,"à¦¼à¦¾;":4517,"Ġà¦ĵà¦ľ":4518,"à¦¬à¦¨à¦ª":4519,"à¦¬à¦¨à¦ªà¦¥":4520,"à¦ıà¦ĵ":4521,"à¦Ĩà¦¸à¦¬":4522,"à§Į,":4523,"à¦¬à¦²à¦ķ":4524,"Ġà¦Ĩà¦ľà¦Ĺ":4525,"Ġà¦Ĺà¦²à¦¨":4526,"à¦¸à¦¬à¦®":4527,"à¦¸à¦¬à¦ľ":4528,"à¦ķà¦¤à¦¦":4529,"à¦°à¦ľà¦°":4530,"Ġà¦ĵà¦°à¦«":4531,"Ġà¦°à¦Ļà¦¬":4532,"Ġà¦ıà¦ķà¦¦à¦®à¦ĩ":4533,"Ġà¦īà§İà¦ķà¦Ł":4534,"Ġà¦ĺà¦¨à¦ĺà¦¨":4535,"à¦°à¦®à¦£à¦ª":4536,"Ġà¦¤à¦¤à¦ĸ":4537,"à¦¨à¦Ńà¦Ļ":4538,"à¦¬à¦ĩà§Ł":4539,"à¤¯":4540,"à§§à§¯":4541,"à§©à§ª":4542,"int":4543,"à¦ıà¦®à¦¨à¦Ł":4544,"à¦¾âĢĿâĢĵ":4545,"Ġcol":4546,"out":4547,"Ġà¦ľà¦²à¦ķà¦¨":4548,"Ġà¦ļà¦Łà¦ķà¦¦":4549,"Ġnext":4550,"æŃĵæŃĵæŃĵæŃĵæŃĵæŃĵæŃĵæŃĵ":4551,"Ð¾Ð":4552,"aut":4553,"ser":4554,"ãģ":4555,"à¦Ķ":4556,"à¦¿âĢĿâĢĶ":4557,"à¦²à¦¬à¦°":4558,"à¦ķà¦ªà¦ķ":4559,"à¦¯à¦®à¦¤":4560,"à¦¬à§İà¦¸":4561,"à¦¬à¦ľà¦Ĺà§İ":4562,"à¦®à¦ĺà¦Ł":4563,"Ġà¦ķà¦ĩà¦Ľ":4564,"à¥¤âĢĶ":4565,"Ġà¦¨à¦¬à¦¨":4566,"Ġà¦¨à¦ĸà¦°":4567,"Ġà¦®à§ľà¦ķ":4568,"Ġà¦¤à¦¨à¦¯":4569,"Ġà¦¹à¦®":4570,"Ġà¦¹à¦ľ":4571,"à¦ľà¦¶à¦ķ":4572,"Ġà¦ħà¦¹à¦®":4573,"à¦Ĺà¦°à¦¦":4574,"à¦§à¦¶à¦¤":4575,"Ġà¦Ĺà¦ľà¦°":4576,"à¦£à¦ł":4577,"à¦£à¦¸à¦®":4578,"Ġà¦ıà¦ķà¦¹":4579,"à§ĥà¦Ĥ":4580,"ĠĠĠĠĊ":4581,"à¦Ļà¦ķ":4582,"Ġà¦ĵà¦¬":4583,"Ġà¦«à¦²à¦¬":4584,"à§ľà¦Ł":4585,"Ġà¦ªà¦°à¦Ĺà¦¨":4586,"à¦°à¦£à¦ªà¦¤":4587,"à¦¿à¥¤âĢ¦":4588,"à¦Ŀà¦®":4589,"Ġà¦ıà¦ĩà¦ļ":4590,"à¦°à¦¬à¦ªà¦ķ":4591,"Ġà¦¸à¦¬à¦¦":4592,"Ġà¦Ĩà¦¸à¦¸":4593,"Ġà¦ķà¦¥à¦¨":4594,"Ġà¦ĩà¦®à¦ª":4595,"Ġà¦¬à¦¨à¦²à¦¤":4596,"Ġà¦ħà¦¸à¦¤à¦¤":4597,"à¦¤à¦¨à¦ĩ":4598,"Ġà¦Ĩà¦¨à¦¸":4599,"à¦¾à¦Ĥà¥¤":4600,"Ġà¦ĺà¦°à¦¦":4601,"Ġà¦ĺà¦°à¦Ľ":4602,"Ġà¦ľà¦²à¦Ń":4603,"à¦®à¦¤à¦¤":4604,"Ġà¦ķà¦¤à¦ķà¦Ł":4605,"à¦ĩà¦¨à¦«":4606,"à¦¾âĢĶâĢĻ":4607,"à¦¸à¦®à¦Ĺ":4608,"à¦ªà¦¥à¦Ĺ":4609,"à¦¬à¦ķà¦¥":4610,"Ġà¦Ĩà¦§à¦Ł":4611,"Ġà¦¶à¦¤à¦¦":4612,"Ġà¦¦à¦¶à¦°à¦¥":4613,"à¦ľà¦®à¦¹à¦²":4614,"Ġà¦¦à¦®à¦¦à¦®":4615,"à¦¬à¦Ńà¦Ļ":4616,"à¦Īà¦¯":4617,"à¦¬à§Łà¦¬":4618,"ory":4619,"Ġà¦®à¦Ĺà¦§à¦°":4620,"Ġà¦ıà¦ķà¦ªà¦²à¦ķ":4621,"ĠInd":4622,"Ġà§§à§¦à§¦":4623,"à§§à§¯à§Ń":4624,"Ġà¦ķà¦ļà¦ķà¦ļ":4625,"ublis":4626,"iel":4627,"ÑĢ":4628,"Ñģ":4629,"à¦¿à¦¾":4630,"à¦¨à¦¥":4631,"à¦¨à¦°à¦¤":4632,"à¦¨à¦¬à¦ª":4633,"à¦¨à¦ķà¦²":4634,"à¦ķà¦¦à¦®":4635,"à¦®à¦ł":4636,"à¦®à¦ĵà¦¯":4637,"à¦®à¦¦à¦°":4638,"à¦®à¦ļà¦ķ":4639,"à§ĭà§ĩ":4640,"Ġà¦¬à¦ĸ":4641,"Ġà¦¬à¦®à¦¬":4642,"Ġà¦¬à¦ļà¦¸":4643,"à¥¤[":4644,"à¦ĩà¦ĵà¦¯":4645,"Ġà¦¦à¦ĸ":4646,"Ġà¦¹à¦īà¦ķ":4647,"Ġà¦ħà§°":4648,"à¦§à¦°à¦£":4649,"à¦¡à¦¦":4650,"Ġà¦Ĺà¦°à¦ľ":4651,"Ġà¦¶à¦¤à¦¬":4652,"Ġà¦Ńà¦°à¦¬":4653,"Ġà¦°à¦ĩà¦¬":4654,"Ġà¦Ĩà¦®à§ľ":4655,"Ġà¦Ĩà¦®à¦²à¦ķ":4656,"à¦¼à¦¾à¥¤âĢĿ":4657,"Ġà¦īà¦Łà¦ķ":4658,"à¦¾à¦ģâĢĻ":4659,"Ġà¦ĵà¦¤à¦ª":4660,"Ġà¦ĸà¦ĩ":4661,"à¦°à¦¤à¦¬":4662,"à¦¬à¦¨à¦°":4663,"à¦Ĩà¦°à¦¬":4664,"à¦Ĩà§Łà¦¨":4665,"Ġà¦¹à¦²à¦ĺà¦°":4666,"Ġà¦ĩà¦Ĺ":4667,"Ġà¦ľà¦¨à¦®à¦¤":4668,"à¦¬à¦²à¦°":4669,"Ġà¦ıà¦¸à¦®":4670,"à¦°à¦®à¦²":4671,"à¦ķà¦Łà¦°":4672,"à¦ħà¦¯":4673,"à¦Ĺà¦²à¦Ľ":4674,"à¦Ĺà¦²à¦¬à¦¨":4675,"à¦°à¦¹à¦¶":4676,"à¦°à¦¶à¦¬":4677,"à¦ĩà¦²à¦¸":4678,"âĢ¦à¥¤âĢĻ":4679,"Ġà¦¶à¦¹à¦°à¦Ĺ":4680,"à§İà¦ķà¦®":4681,"à¦¿âĢĶâĢĺ":4682,"à¦ļà¦ķà¦£":4683,"à¦ľà¦²à¦°":4684,"Ġà¦Īà¦ª":4685,"Ġà¦Ĩà¦¦à¦ª":4686,"Ġà¦¦à¦²à¦¬à¦²":4687,"à¦¬à¦¶à¦Ļ":4688,"à§ĭâĢĶâĢĺ":4689,"Ġà¦Ĺà¦£à¦ľ":4690,"Ġà¦ıà¦¸à¦¬à¦ĩ":4691,"à¤Ĥ":4692,"à§ĩ?âĢĿâĢĶ":4693,"à¦¥à¦²à¦ľ":4694,"à¦ķà§ľà¦¸":4695,",âĢĿâĢĶ":4696,"Ġà¦ļà¦Łà¦ķà¦²":4697,"à¦¬à¦Łà¦Ĺ":4698,"à§ªà§©":4699,"à§®à§®":4700,"Ġà¦Ŀà¦ķà¦®à¦ķ":4701,"Ġà¦°à¦®à¦°à¦®":4702,"ous":4703,"Ġmar":4704,"Ġname":4705,"ĠBo":4706,"à¦¤à¦°à¦¬à¦Ļ":4707,"pe":4708,"Ġ=":4709,"Ġì":4710,"Ġà§ľ":4711,"à¦¨à¦®à¦¨à¦¸":4712,"à¦¬à¦ªà¦°":4713,"à¦¬à¦ķà¦¤":4714,"à¦®à¦²à¦ķ":4715,"à¦®à§İà¦¸":4716,"à¦®à¦ªà¦¥":4717,"Ġà¦¸à¦ªà¦¤":4718,"à¦¸à¦¶":4719,"Ġà¦Ĩà¦ī":4720,"Ġà¦Ĩà¦ĩà¦Ľ":4721,"à¦¦à¦ĺà¦¨":4722,"à¦ªà¦§":4723,"Ġà¦¹à¦Łà¦¤":4724,"à¦ľà¦ķà¦¤":4725,"Ġà¦ķà¦°à¦®":4726,"à¦¹à¦ĸ":4727,"Ġà¦ļà¦ĵà§ľ":4728,"Ġà¦Ńà¦°à¦²":4729,"Ġà¦Ńà§ľà¦ķ":4730,"à¦ĵà¦Ń":4731,"Ġà¦¬à¦²à¦ª":4732,"Ġà¦ĵà¦°à¦ĩ":4733,"Ġà¦«à¦¯":4734,"à¦¾à¥¤)":4735,"Ġà¦®à¦¨à¦ĩ":4736,"Ġà¦®à¦¨à¦¨à¦ķ":4737,"à¦īà¦¨à¦ķ":4738,"à¦°à¦¬à¦¬":4739,"à¦¤à¦°à¦¹":4740,"à¦ıà¦Ĩà¦ĩ":4741,"à¦°à¦ķà¦¯":4742,"Ġà¦Łà¦Ļ":4743,"Ġà¦ľà¦¨à¦¸à¦Ń":4744,"à¦¨à¦¤à¦¨":4745,"Ġà¦Ĩà¦ľà¦®":4746,"Ġà¦ħà¦¸à¦¹à¦¨":4747,"à¦²à¦ķà¦¬":4748,"Ġà¦¶à¦¬à¦¬":4749,"Ġà¦¬à¦°à¦¯":4750,"à¦°à¦¹à¦Ł":4751,"à¦¹à¦¸à¦ĩ":4752,"à¦Ľà¦¨à¦¦":4753,"à¦²à¦¨à¦¸":4754,"Ġà¦¬à¦Ľà¦°à¦ĸ":4755,"Ġà¦ħà¦²à¦°":4756,"Ġà¦ĩà¦¨à¦Ń":4757,"Ġà¦¶à¦¤à¦¶":4758,"Ġà¦¬à¦ķà¦Ľ":4759,"à§¦à§§":4760,"à¦°à¦¹à¦£à¦ķ":4761,"à§¨à§§":4762,"Ġà¦ªà¦¶à¦®":4763,"à§§à§¬":4764,"à¦ĩà§Łà¦°":4765,"Ġà¦Ĭà¦¨à¦¬":4766,"ang":4767,"Ġà¦¸à§İà¦¤":4768,"à¦Īà¦¦":4769,"ers":4770,"Ġà¦¨à§ľà¦Ľ":4771,"Ġà¦ĵà§ľà¦¨":4772,"Ġà¦°à¦¹à¦®à¦¤":4773,"ĠpH":4774,"ich":4775,"Ġà§«à§¦":4776,"à§§à§¯à§ª":4777,"Ġà¦ķà¦¨à¦ķà¦¦":4778,"ide":4779,"Ġà¦¬à¦Ľà¦°à¦ĩ":4780,"qui":4781,"The":4782,"ian":4783,"oy":4784,"rit":4785,"self":4786,"ÙĦ":4787,"àª":4788,"Ġ..":4789,"à¦¾.":4790,"à§ĩ/":4791,"à¦°à¦ļà¦°":4792,"à¦¨à¦ªà¦ķ":4793,"à¦²à¦ĺà¦°":4794,"à¦²à¦Ńà¦°":4795,"à¦²à¦ľà§Ł":4796,"à¦ķà¦°à¦¤":4797,"à¦®à¦¬à¦°":4798,"à¦®à¦¤à¦¨":4799,"à¦®à¦²à¦¬":4800,"à¦®à¦Ĺà¦°":4801,"à¦®à¦ĺà¦°":4802,"à§ĭà¦ĥ":4803,"Ġà¦¬à¦¬":4804,"à¦ªà¦®à¦¯":4805,"Ġà¦¦à¦ĩà§Ł":4806,"à¦Ľà¦Ľ":4807,"Ġà¦¤à§İà¦¸":4808,"à¦¶à¦ľà¦¨":4809,"à¦¶à¦²à¦¤":4810,"à¦¼à§ĩ?âĢĻ":4811,"âĢ¨":4812,"Ġà¦ħà¦ĩ":4813,"à¦·à¦«":4814,"à¦·à¦°à¦¬":4815,"à¦§à¦¡":4816,"à¦ļà¦Ļ":4817,"à¦¹à¦ļ":4818,"à¦¥à¦°à¦ķ":4819,"Ġà¦°à¦¦":4820,"à§ĩà¥¤âĢĵ":4821,"Ġà¦ıà¦ķà¦¤à¦°à¦«":4822,"à¦¼à¦¾à¥¤âĢĻ":4823,"à§ĩ,âĢĶ":4824,"Ġà¦²à¦Łà¦ķ":4825,"à¦°à¦¬à¦Ń":4826,"à¦¤à¦°à¦¦":4827,"à¦¤à¦°à¦ľ":4828,"Ġà¦¸à¦¬à¦°à¦ķà¦®":4829,"Ġà¦Łà¦ªà¦Łà¦ª":4830,"à¦Ĩà¦¬à¦°":4831,"à¦Ĩà¦²à¦®":4832,"à¦ĺà¦ľ":4833,"à¦ĺà¦¸à¦®à¦¯":4834,"Ġà¦ĩà¦·":4835,"à§Īà¥¤":4836,"à¦°à¦®à¦ĩ":4837,"à¦²à¦ķà¦°à¦¤":4838,"Ġà¦Ĩà¦¨à¦ķ":4839,"Ġà¦Ĩà¦ªà¦¨à¦ķ":4840,"à¦Ĺà¦²à¦®à¦¯":4841,"Ġà¦īà¦ªà¦¸à¦°":4842,"Ġà¦ķà¦²à¦Ł":4843,"Ġà¦ķà¦®à¦°":4844,"à¦°à¦ªà¦Ł":4845,"à¦ıà¦ķà¦ķ":4846,"à§°à¦Ń":4847,"Ġà¦ĭà¦Ĺ":4848,"Ġà¦ķà¦¨à¦Ń":4849,"Ġà¦ļà¦Łà¦ľà¦²à¦¦":4850,"Ġà¦ıà¦°à¦ķà¦®à¦ĩ":4851,"à§¯à§©":4852,"Ġà¦Ńà¦Ĺà¦¬à¦¤":4853,"à¦ľà¦Ĺà¦¤à¦ķ":4854,"à¦¨à¦ľà¦¨à¦ĩ":4855,"iter":4856,"Ġà¦Ĩà¦ĩà¦¶":4857,"Ġbrow":4858,"Ġfiel":4859,"ĠSave":4860,"ĠIn":4861,"à§§à§¯à§«":4862,"ĠComment":4863,"ight":4864,"Ġà¦ĸà¦ļà¦ĸà¦ļ":4865,"à§ĩà§Ĺà¦ģ":4866,"Ġà¦ľà¦¬à¦°à¦¦à¦¸":4867,"Ġadd":4868,"auty":4869,"Ġfields":4870,"ain":4871,"ep":4872,"ike":4873,"ok":4874,"ug":4875,"Ġr":4876,"à¦°à¦Ĺà¦°":4877,"à¦¤à¦¤à¦ķ":4878,"à¦¯à¦ļà¦ķ":4879,"à¦¬à¦§à¦°":4880,"Ġà¦¸à¦ªà¦ķ":4881,"à¥ģ":4882,"à¥ĭ":4883,"à¥¤âĢĶâĢĻ":4884,"à¦¸à¦¬à¦¨":4885,"à¦¸à¦®à¦°":4886,"à¦¦à¦¹à¦¨":4887,"Ġà¦®à¦°à¦¸":4888,"à¦ĩà¦Ļ":4889,"Ġà¦ħà§Ł":4890,"Ġà¦ħà¦°à¦ķ":4891,"à¦·à¦ļ":4892,"à¦·à¦°à¦¹":4893,"à¦§à¦¨à¦ĵ":4894,"à¦¡à¦¬à¦ķ":4895,"à¦ģ-":4896,"à¦£à¦£":4897,"à¦£à¦¤à¦°":4898,"Ġà¦¶à¦ķà¦Ł":4899,"Ġà¦ļà¦ļ":4900,"à¦¾à¦ģâĢĶ":4901,"Ġà¦ĸà¦ķ":4902,"à¦¾à¥¤à¥¤":4903,"Ġà¦¸à¦®à¦¦":4904,"Ġà¦ĺà¦°à¦ķ":4905,"à¦¬à¦¨à¦Ĺ":4906,"à¦¬à¦¨à¦Ń":4907,"à¦¬à¦¨à¦ļà¦ķ":4908,"à§İà¦¶":4909,"à¦īà¦Łà¦¨":4910,"à¦īà¦ĩà§Łà¦°":4911,"Ġà¦¸à¦¬à¦ķà¦Ł":4912,"à¦¬à¦°à¦ª":4913,"âĢĿ!":4914,"à¦Ĩà¦°à¦£":4915,"à¦Ĩà¦¸à¦¨":4916,"à¦Ĩà¦¸à¦Ľ":4917,"à¦°à¦®à¦¸":4918,"à¦°à¦®à¦§":4919,"Ġà¦ħà¦¸à¦ļ":4920,"Ġà¦Ĺà¦²à¦¸":4921,"à¦ħà¦·":4922,"à¦¦à¦°à¦¦":4923,"Ġà¦ľà¦²à¦¹":4924,"Ġà¦¸à¦°à¦·":4925,"Ġà¦ħà¦¤à¦²à¦¸":4926,"à¦°à¦¹à¦¨":4927,"à¦°à¦¹à¦°à¦Ĺ":4928,"Ġà¦ıà¦®à¦¨à¦¤à¦°":4929,"Ġà¦ħà¦ªà¦ķà¦°":4930,"âĢ¦âĢ¦":4931,"Ġà¦«à¦²à¦ĵ":4932,"Ġà¦ħà¦²à¦¸à¦¤":4933,"Ġà¦Ĳà¦°":4934,"Ġà¦ıà¦ķà¦ľà¦¨à¦ĩ":4935,"à§°à¦ľà¦°":4936,"Ġà¦¤à¦²à¦ª":4937,"Ġà¦ĭà¦ķ":4938,"à¦Ĺà¦®à¦Ĺ":4939,"à§¨à§ª":4940,"à¦®à¦¦à¦ķ":4941,"à¦°à¦«à¦°":4942,"à¦¾âĢ¦à¥¤":4943,"à§¬à§¦":4944,"ishak":4945,"Ġcomment":4946,"à¦ĭà¦¦":4947,"Ġme":4948,"à§¨à§¦à§¦à§«":4949,"Ġpublis":4950,"Ġà¦łà¦ķà¦łà¦ķ":4951,"Ġà§§à§¯à§ªà§ª":4952,"Ġà¦ĸà¦²à¦ĸà¦²":4953,"ĠName":4954,"Ġà¦¸à¦¬à¦¸à¦®à§Łà¦ĩ":4955,"ĠEmail":4956,"Ġwebs":4957,"à§ľà¦¸à¦ĵà§Ł":4958,"Ġtruth":4959,"ĠUn":4960,"ĠYour":4961,"Ġmarked":4962,"quired":4963,"Ġbrowser":4964,"Ġaddress":4965,"ishakh":4966,"Ġpublished":4967,"Ġwebsite":4968,"!!":4969,"-âĢĺ":4970,"TE":4971,"ah":4972,"hy":4973,"ib":4974,"iz":4975,"ohe":4976,"te":4977,"Ð¸":4978,"ÛĮ":4979,"Ġ+":4980,"Ġ×":4981,"Ġat":4982,"Ġun":4983,"à¦¾à¦¾":4984,"à§į?":4985,"à¦¨à¦Ŀ":4986,"à¦²à¦¸à¦¨":4987,"à¦¬à¦ľà¦¯":4988,"à¦¬à¦¹à¦¤":4989,"à¦®à¦¬à¦²":4990,"à¦¼à§ģà¥¤":4991,"Ġà¦¬à¦Ń":4992,"Ġà¦¸à¦ªà¦°":4993,"à¦¸à¦®à¦¨":4994,"à¦¸à¦¹à¦¯":4995,"Ġà¦Ĩà¦ĩà¦¬":4996,"à¦¦à¦ĸà¦²":4997,"à¦Łà¦°à¦¸":4998,"à¦ĩà¦¸à¦Ļ":4999,"à¦ĩà¦īà¦¨":5000,"Ġà¦ıà¦Ńà¦°":5001,"Ġà¦¹à¦°à¦¤":5002,"à¦ľà§Łà¦¨":5003,"Ġà¦ħà¦¶à¦¨":5004,"à¦Ĺà¦®à¦ķ":5005,"à¦·à¦°à¦ķ":5006,"Ġà¦¯à¦ľà¦¨":5007,"à¦§à¦¬à¦¦":5008,"à¦ļà¦¦":5009,"à¦ļà¦ķà¦²":5010,"à¦ļà¦ĵà¦¡":5011,"Ġà¦ķà¦°à¦ľ":5012,"à¦¹à¦Ńà¦°":5013,"Ġà¦Ĺà¦°à¦²":5014,"à§ĩà¥¤âĢĺ":5015,"à¦Ńà¦ĩ":5016,"à¦Ńà¦²à¦¬":5017,"ĠĠĠĊ":5018,"âĢĶâĢĿ":5019,"à§ľà¦Ń":5020,"à¦¾à¥¤âĢĺ":5021,"Ġà¦ĺà¦¨à¦¤":5022,"âĢĻ!âĢĿ":5023,"à¦¼à¦¿!":5024,"à¦Ŀà¦¬à¦¯":5025,"à¦ŀà¦ķ":5026,"à§İà¦²":5027,"à§İà¦ľ":5028,"à¦īà§İà¦ª":5029,"à¦«à¦¸à¦²":5030,"à¦¤à¦°à¦Ń":5031,"Ġà¦Ĩà¦²à¦ª":5032,"à¦¬à¦°à¦§":5033,"à¦°à¦ķà¦¥":5034,"à¦Ĩà¦ł":5035,"à¦Ĩà¦¬à¦Ľ":5036,"Ġà¦®à¦¤à¦Ń":5037,"Ġà¦ĩà¦¥":5038,"Ġà¦ĩà¦ķà¦¬":5039,"Ġà¦ĩà¦¹à¦²":5040,"Ġà¦Ŀà¦Ĺà§ľ":5041,"à§ģà¦ģ,":5042,"âĢĵâĢľ":5043,"à¦·à¦£à¦Ń":5044,"Ġà¦¬à¦¨à¦«":5045,"Ġà¦ªà¦¥à¦¨":5046,"Ġà¦ªà¦¥à¦Ń":5047,"à¦¤à¦¨à¦¬":5048,"à¦°à¦¨à¦Ĺà¦°":5049,"Ġà¦Ĩà¦ªà¦¨à¦®à¦¨":5050,"Ġà¦¸à¦¨à¦¦":5051,"Ġà¦®à¦¹à¦¡":5052,"à¦®à¦¤à¦®":5053,"Ġà¦ħà¦ªà¦Ń":5054,"âĢ¦..":5055,"Ġà¦ıà¦Ĺà¦ľ":5056,"à¦°à¦ªà¦ķ":5057,"à¦ıà¦ķà¦®":5058,"à¦ļà¦ķà¦ķ":5059,"Ġà¦ıà¦ķà¦¬à¦ļà¦¨":5060,"à§°à¦¨":5061,"à§°à¦¯":5062,"à¦¸à¦«à¦²":5063,"à¦°à¦®à¦£à¦ĩ":5064,"à¦¹à¦¤à¦Ń":5065,"Ġà¦¬à¦īà¦°":5066,"à¤¦":5067,"à¤®":5068,"Ġà¦¶à¦¹à¦°à¦ľ":5069,"Ġà¦Ĩà§ľà¦ļ":5070,"à¦ľà§Łà¦ķ":5071,"à¦Īà¦ľ":5072,"Ġà¦Ĩà¦Łà¦ĸ":5073,"Ġà¦¸à¦°à¦¸à¦°":5074,"Ġind":5075,"ell":5076,"Ġà¦ıà¦ķà¦Ŀà¦²à¦ķ":5077,"Ġà§¯à§«":5078,"ife":5079,"ºçľºçľºçľºçľ":5080,"·çľ·çľ·çľ·çľ":5081,"ĠRequired":5082,"--":5083,".-":5084,"Åĵ":5085,"à§±":5086,"Ġà¦£":5087,"à¦¾)à¥¤":5088,"à§ĩà§ĩ":5089,"à§ĩâĢĿà¥¤":5090,"à¦¿à§ĩ":5091,"à¦¿),":5092,"à¦¨à¦®à¦Ĺ":5093,"à¦¤à¦ĺà¦¡":5094,"à¦²à¦Ĺà¦²":5095,"à¦²à¦¸à¦®":5096,"à¦ķà¦¤à¦¬":5097,"à¦ķà¦¢":5098,"à¦ķà§°":5099,"à¦¯à¦§à¦°":5100,"à¦¬à¦®à¦¨":5101,"à¦®à¦®à¦¨":5102,"Ġà¦ķà¦ĩà¦¤":5103,"Ġà¦¬à¦ķà¦°":5104,"Ġà¦¸à¦¦à¦²":5105,"Ġà¦Ĩà¦£":5106,"à¦ĩà¦·":5107,"à¦ªà¦¤à¦°":5108,"à¦ªà¦ķà¦¤":5109,"Ġà¦¦à¦²à¦ķ":5110,"Ġà¦¤à¦ķà¦®":5111,"Ġà¦¤à¦¹à¦¬":5112,"Ġà¦¹à¦°à¦²":5113,"à¦ľà¦ªà¦¤":5114,"à¦¶à¦¨à¦ĵ":5115,"à¦ĸà¦°à¦ļ":5116,"à¦¼à§ĩâĢĻ":5117,"Ġà¦ħà¦ľà¦¨":5118,"à¦Ĺà¦¶":5119,"à¦Ĺà¦Ńà¦°":5120,"à§Łà¦¤à¦¨":5121,"à¦§à¦®à¦¯":5122,"à¦ļà¦ĸ":5123,"à¦ļà¦¬à¦°":5124,"à¦¹à¦¬à¦¨":5125,"à¦¥à¦¡":5126,"Ġà¦ıà¦ķà¦¤à¦®":5127,"Ġà¦ıà¦ķà¦ĸà¦£":5128,"à¦łà¦ļ":5129,"à§Ĥ,":5130,"à¦°à¦£à¦®":5131,"à§Į-":5132,"Ġà¦¡à¦¨":5133,"Ġà¦¡à¦Ł":5134,"Ġà¦¡à¦Ĺà¦®à¦Ĺ":5135,"Ġà¦¹à¦²à¦ķ":5136,"Ġà¦ıà¦¸à¦®à¦¯":5137,"Ġà¦ħà¦¸à¦¹à¦¯":5138,"à¦ķà¦°à¦Ń":5139,"à¦¤à¦¬à¦®":5140,"à¦¤à¦¬à¦°à¦£":5141,"Ġà¦¹à¦¤à¦ļ":5142,"Ġà¦¹à¦¤à¦ļà¦ķ":5143,"à¦°à¦¥à¦®à¦ľà¦¨":5144,"Ġà¦ĺà¦°à¦ĸ":5145,"à¦¿à¦ĤâĢĿ":5146,"Ġà¦ľà¦²à¦¯":5147,"à¦°à¦¹à¦ķ":5148,"à¦¨à¦¬à¦®":5149,"à¦¨à¦¬à¦ļ":5150,"à¦§à¦¨à¦¶":5151,"à¦°à¦¦à¦¤":5152,"à¦°à¦¦à¦²":5153,"à¦°à¦¯à¦¨":5154,"Ġà¦ĵà¦ªà¦°à¦ĩ":5155,"à¦ĩà¦¨à¦®":5156,"Ġà¦ħà¦ľà¦®":5157,"à¦Ĺà¦¨à¦°à¦ķ":5158,"Ġà¦¯à¦¤à¦Ĺ":5159,"Ġà¦ªà¦¦à¦¶à¦¬":5160,"à¦¬à¦¦à¦°à¦¬":5161,"Ġà¦ħà¦Ĺà¦£à¦¨":5162,"à¦ıà¦ķà¦ľ":5163,"Ġà¦Ĳà¦ķà¦¤":5164,"Ġà¦Ĩà¦ļà¦®":5165,"Ġà¦Ĩà¦¦à¦¬":5166,"Ġà§§à§§à§":5167,"Ġà¦ļà¦ķà¦®à¦ķ":5168,"à§¨à§©":5169,"Ġà¦īà§ľà¦¬":5170,"Ġà¦¬à¦īà¦²":5171,"Ġà¦¬à¦īà§Ł":5172,"à¦¤à¦¸à¦Ń":5173,"hen":5174,"à§©à§¦":5175,"Ġà¦ħà¦®à¦¨à¦ĩ":5176,"Ġà¦ıà¦°à¦ªà¦°à¦ĵ":5177,"à§ĭ?âĢĿâĢĶ":5178,"à¦Ĳà¦¶":5179,"Ġwor":5180,"Ġam":5181,"Ġso":5182,"à§Ģà¦Ĥà¥¤":5183,"à¦°à¦¬à¦£à¦¶à¦ķ":5184,"Ġà¦¨à¦ĵà¦¶":5185,"old":5186,"age":5187,"Ġcollect":5188,"ĠBoishakh":5189,"ohela":5190,"17":5191,"af":5192,"now":5193,"ud":5194,"Ð½":5195,"Ġim":5196,"à§ĩ..":5197,"à§įâĢĻ,":5198,"à¦¨à¦ªà¦¦":5199,"à¦¤à¦¸à¦®":5200,"à¦¤à¦ªà¦¥":5201,"à¦¤à¦¸à¦ķ":5202,"à¦²à¦¤à¦°":5203,"à¦²à¦ļà¦ķ":5204,"à§ģ!âĢĻ":5205,"à¦¯à§İà¦ķ":5206,"à¦¬à¦°à¦¬à¦°":5207,"à¦®à¦§à¦°":5208,"à¦¼âĢĻà¥¤":5209,"à¥¤-":5210,"Ġà¦ªà¦¸à¦°":5211,"Ġà¦ªà§Łà¦²":5212,"à¦¦à¦ķà¦¤":5213,"à¦¦à¦®à¦¤":5214,"à¦Łà¦ľà¦¨":5215,"à¦Łà¦ķà¦Ł":5216,"Ġà¦®à¦°à¦ķ":5217,"Ġà¦®à¦ļà¦ķ":5218,"à¦ĩà¦ī":5219,"à¦ĩà¦ķà¦Ł":5220,"Ġà¦¤à¦°à¦®":5221,"Ġà¦ıà¦·":5222,"Ġà¦¹à¦Łà¦²":5223,"à¦ľà¦®à¦£":5224,"à¦ĸà¦¹":5225,"à¦ĸà¦¢":5226,"Ġà¦ħà¦«à¦²":5227,"à¦Ĺà¦ªà¦¤":5228,"à¦Ĺà¦Ĺà¦¨":5229,"Ġà¦¯à¦®à¦¦":5230,"à¦§à¦¬à¦¤":5231,"à¦§à¦ľà¦¯":5232,"à¦¹à¦¨à¦¤":5233,"Ġà¦Ńà¦¡":5234,"Ġà¦ıà¦ķà¦®à¦¨":5235,"Ġà¦īà¦¶":5236,"Ġà¦īà¦¤à¦°":5237,"Ġà¦ĸà¦Ĺ":5238,"Ġà¦§à¦®":5239,"ĠâĢĿ":5240,"à¦¬à¦¨à¦¡":5241,"à¦°à¦£à¦¹":5242,"Ġà¦ıà¦ĩà¦°":5243,"à¦°à¦¬à§İ":5244,"Ġà¦Ĩà¦²à¦Ł":5245,"Ġà¦Łà¦Ĺà¦°":5246,"à¦Ĩà¦ªà¦¦":5247,"Ġà¦Ŀà¦®":5248,"Ġà¦Ĩà¦ľà¦°":5249,"à¦ħà¦£":5250,"à¦²à¦ķà¦ª":5251,"à¦ķà¦¤à¦®":5252,"à¦¨à¦ĵà¦ĸ":5253,"à¦¯à¦¬à§Łà¦¸":5254,"Ġà¦ľà¦²à¦ĵ":5255,"Ġà¦ľà¦²à¦ļà¦°":5256,"Ġà¦ľà¦²à¦Ľà¦Ł":5257,"Ġà¦ħà¦ªà¦ª":5258,"à¦¿à¦ĥ,":5259,"à¦ĩà¦¨à¦ķ":5260,"Ġà¦Ńà¦°à¦Ľ":5261,"à§Ģ,âĢĿ":5262,"à¦Ńà¦¬à§İ":5263,"Ġà¦ķà¦®à¦£":5264,"à§ģâĢĻ,":5265,"à§ģ,âĢĿ":5266,"à¦¤à¦¤à¦¸":5267,"à¦¼à§ĩà¥¤âĢĻ":5268,"Ġà¦«à¦²à¦Ł":5269,"Ġà¦ĩà¦¨à¦¡":5270,"à¦°à¦ķà¦®à¦ĩ":5271,"Ġà¦¸à¦®à§Łà¦Ł":5272,"à¦¸à¦«à¦²à¦¤":5273,"Ġà¦¶à¦¤à¦Ĺ":5274,"à¦¨à¦¸à¦ĩ":5275,"à¦¾âĢĻ-":5276,"Ġà¦īà§İà¦¸à¦¬à¦Ĺ":5277,"à¦ķà¦¥à¦ķ":5278,"à¤Ł":5279,"à¦¬à¦¹à¦®":5280,"à¦¨à¦ªà¦ŀ":5281,"here":5282,"Ġà¦¹à¦ĩà¦¹à¦ĩ":5283,"ine":5284,"Ġà¦Ĩà§Łà¦¤à¦¨":5285,"ate":5286,"Ġà¦Ĩà¦Łà¦¤à¦²":5287,"ition":5288,"ish":5289,"omp":5290,"ass":5291,"ĠAI":5292,"Ġà¦ľà¦¨à¦ªà¦¦à¦¬":5293,"à¦ĩà¦°à¦ķà¦®à¦ĩ":5294,"Ġà¦®à¦¦à¦¨à¦¬":5295,"Ø§Ø":5296,"Ġà§§à§¯à§¦à§«":5297,"Ġà¦Ĩà¦ĵà¦°à¦¤":5298,"!âĢ¦":5299,")âĢĵ":5300,"12":5301,"TI":5302,"but":5303,"hat":5304,"ia":5305,"ie":5306,"ning":5307,"ove":5308,"Ã©":5309,"Ùħ":5310,"æĹ":5311,"Ġ#":5312,"Ġal":5313,"Ġro":5314,"à¦°à¦ĵà§Ł":5315,"à¦¨à¦ł":5316,"à¦¨à¦°à¦ķà¦®":5317,"à¦¤à¦ĺ":5318,"à¦¤à¦²à¦¬":5319,"à¦²à¦£":5320,"à¦ķà¦¬à¦¨":5321,"à¦¯à¦ªà¦¨":5322,"à¦¬à¦ļà¦°":5323,"à¦®à¦ľà¦¨":5324,"à¦®à¦¬à¦¤":5325,"Ġà¦ķà¦¤à¦°à¦ķà¦®":5326,"Ġà¦¸à¦²à¦¤":5327,"à¦¸à¦®à¦ķ":5328,"Ġà¦Ĩà¦£à¦¬":5329,"à¦¦à¦Ļ":5330,"à¦Łà¦¤à¦°":5331,"Ġà¦®à¦°à¦¹":5332,"à¦ªà¦¬à¦¨":5333,"à¦ªà¦ľà¦¨":5334,"à¦ªà¦Łà¦ķ":5335,"à§Ģ!âĢĿ":5336,"Ġà¦¹à¦¸à¦ª":5337,"à¦ľà¦īà¦¦":5338,"à¦ĸà¦°à¦¤":5339,"à¦ĸà¦Ńà¦°":5340,"à¦·à¦ĸ":5341,"à¦¡à¦¤":5342,"à¦ļà¦¦à¦¶":5343,"à¦¹à¦Ĺà¦¨":5344,"Ġà¦¶à¦ľ":5345,"Ġà¦¶à¦°à¦¶":5346,"à¦ĵà¦Ľ":5347,"Ġà¦ıà¦ķà¦§":5348,"Ġà¦ıà¦ķà¦¶à¦¤":5349,"Ġà¦Ľà¦²à¦ķ":5350,"Ġà¦Ĩà¦®à¦°à¦£":5351,"à¦łà¦«":5352,"à¦łà¦Ĺà§ľ":5353,"Ġà¦īà¦ľà¦²":5354,"à¦¾à¦ģ!":5355,"à¦ĤâĢĶ":5356,"Ġà¦«à¦ľà¦°":5357,"Ġà¦ĸà¦²à¦¨":5358,"à¦¬à¦¨à¦ļ":5359,"Ġà¦ıà¦ĩà¦Ĺ":5360,"à¦ŀà¦¦":5361,"à¦¿,-":5362,"à¦ľà¦¨à¦ķà¦Ń":5363,"à¦«à¦²à¦¤":5364,"à¦°à¦¬à¦¸à¦Ń":5365,"à¦¤à¦°à¦²":5366,"à¦¬à¦°à¦¸":5367,"à¦¬à¦°à¦ĵ":5368,"à¦°à¦ķà¦ķ":5369,"à¦·à¦£à¦¤":5370,"Ġà¦¬à¦¨à¦°":5371,"Ġà¦ªà¦¥à¦¶":5372,"Ġà¦ħà¦¸à¦®à§Ł":5373,"à¦ħà¦§à¦°":5374,"Ġà¦¹à¦¤à¦¶":5375,"Ġà¦¶à¦¬à¦¦":5376,"à¦¿à¦Ĥ!":5377,"à¦¯à¦¬à¦ĩà§Ł":5378,"Ġà¦ľà¦²à¦¨":5379,"à¦¨à¦¬à¦¹":5380,"à¦§à¦¨à¦®":5381,"à¦ĩà¦¨à¦°":5382,"ĠâĢĶ-":5383,"Ġà¦¬à¦ĩà¦¸":5384,"Ġà¦¬à¦Ľà¦°à¦Ĺ":5385,"à¦®à¦£à¦¬":5386,"à¦°à¦ªà¦ŀ":5387,"à§įâĢĮâĢį":5388,"à¦ıà¦ķà¦ĸ":5389,"à¦ļà¦ķà¦ļà¦ķ":5390,"Ġà¦ĩà¦¨à¦¶":5391,"à§°à¦®à¦£":5392,"à¦ľà¦²à¦§":5393,"Ġà¦¸à¦®à§Łà¦®à¦¤":5394,"à¦ĺà¦°à¦Ĺ":5395,"Ġà¦ıà¦ķà¦ĩà¦°à¦ķà¦®":5396,"à§ĩâĢ¦)":5397,"à¦¸à¦¹à¦®à¦°":5398,"Ġà¦ªà¦°à¦¶à¦®à¦£":5399,"Ġà¦Ĩà¦ĩà¦¨à¦ľ":5400,"Ġà¦¸à§İà¦ļà¦°":5401,"à¦Łà¦¸à¦ħ":5402,"Ġà¦¨à¦Ĺà¦°à¦¬":5403,"à¦Ĩà¦ļà¦®à¦ķ":5404,"Ġpro":5405,"ome":5406,"Ġà¤¸":5407,"Ġhis":5408,"ĠPohela":5409,"à§ĩâĢĿâĢĵ":5410,"à§§à§¯à§©":5411,"à§§à§¯à§¬":5412,"ĠTH":5413,"Ġà§§à§¯à§¯à§«":5414,"Ġà¦īà¦Ńà§Łà¦ĩ":5415,"Ġà§¦à§¨":5416,"Ġà¦ªà¦°à¦ªà¦°à¦ĩ":5417,"Ġà¦Łà¦¹à¦²à¦¦":5418,"éŁ¿éŁ¿éŁ¿éŁ¿éŁ¿éŁ¿éŁ¿éŁ¿éŁ¿éŁ¿éŁ¿éŁ¿éŁ¿éŁ¿éŁ¿éŁ¿éŁ¿éŁ¿éŁ¿éŁ¿éŁ¿éŁ¿éŁ¿éŁ¿éŁ¿éŁ¿éŁ¿éŁ¿éŁ¿éŁ¿éŁ¿éŁ¿":5419,"à§§à§¯à§«à§¨":5420,"11":5421,"14":5422,"16":5423,"24":5424,";âĢĶ":5425,"IN":5426,"iver":5427,"por":5428,"uc":5429,"Ð»":5430,"ÙĪ":5431,"à°":5432,"Ġle":5433,"Ġáĥ":5434,"à¦¾/":5435,"à§ĩ...âĢĿ":5436,"à¦°à¦ħ":5437,"à¦¨à¦Ĺà¦¤":5438,"à¦¤à¦ªà¦¨":5439,"à¦¤à¦ªà¦¤":5440,"à¦¯à¦¤à¦¨":5441,"à¦¯à¦ªà¦¦":5442,"à¦¯à¦ªà¦ķ":5443,"à¦¬à¦ĺ":5444,"à¦¬à¦®à§Ł":5445,"à¦®à¦°à¦¸":5446,"à¦®à¦¹à¦¸":5447,"Ġà¦ķà¦ĵ":5448,"à¦¸à¦ľà¦²":5449,"à¦¸à¦¯à¦ľ":5450,"Ġà¦Ĩà¦ĩà¦ľ":5451,"à¦Łà¦ªà¦¤à¦Ļ":5452,"Ġà¦¨à¦¬à¦ª":5453,"Ġà¦®à¦«":5454,"à¦ªà¦¬à¦°":5455,"Ġà¦¤à¦²à¦¬":5456,"Ġà¦¹à¦°à¦¹":5457,"Ġà¦¹à¦Łà¦¬":5458,"Ġà¦¹à¦°à¦Ĺ":5459,"à¦ľà¦®à¦¹":5460,"à¦¶à¦ªà¦°à¦®":5461,"à¦¼à§ĩ)":5462,"à¦Ĺà¦®à¦¯":5463,"à¦Ĺà¦®à§Ł":5464,"Ġà¦¯à¦¤à¦¨":5465,"à¦¡à¦²à¦ķ":5466,"à¦ļà¦ķà¦¤":5467,"Ġà¦ķà¦°à¦¦":5468,"à¦¹à¦°à¦ķ":5469,"à¦£à¦ĸ":5470,"à¦£à§Ł":5471,"Ġà¦ľà¦¹à¦°":5472,"Ġà¦°à¦ĵà¦¯":5473,"à¦łà¦ĸ":5474,"à¦¼à¦¾à¦ĥ":5475,"à¦¼à¦¾âĢ¦":5476,"Ġà¦¥à¦ķà¦¥à¦ķ":5477,"Ġà¦ĸà¦°à¦¸":5478,"Ġà¦ħà¦¨à¦§":5479,"à¦¾à¥¤âĢĶ":5480,"Ġà¦§à¦¨à¦¬":5481,"à¦¬à¦¨à¦¹":5482,"à¦¼à¦¿âĢĵ":5483,"à§İà¦°":5484,"à¦īà¦¶":5485,"à¦īà¦Łà¦°":5486,"à¦ľà¦¨à¦ª":5487,"à¦ľà¦¨à¦§":5488,"à¦ľà¦¨à¦¬à¦°":5489,"à¦ľà¦¨à¦ªà¦¦à¦¬":5490,"à¦¬à¦°à¦ļà¦¨":5491,"à¦Ĩà¦·":5492,"à¦Ĩà¦Łà¦ķ":5493,"Ġà¦ľà¦¨à¦ªà¦¥":5494,"âĢĵâĢĿ":5495,"à¦¨à¦¤à¦¤":5496,"Ġà¦¬à¦¨à¦ªà¦¥":5497,"à¦¤à¦¬à¦¯":5498,"à¦ķà¦¤à¦Ł":5499,"Ġà¦ľà¦²à¦®à¦Ĺ":5500,"Ġà¦¸à¦°à¦Ľ":5501,"Ġà¦īà¦ªà¦ªà¦¤":5502,"à¦§à¦¨à¦Ł":5503,"à¦ĩà¦²à¦«à¦²à¦ķ":5504,"Ġà¦ħà¦ªà¦¤":5505,"à¦ªà¦¦à¦ļ":5506,"à¦ıà¦ĩà¦ĸ":5507,"Ġà¦ħà¦ķà¦®":5508,"Ġà¦°à¦Ļà¦ļà¦Ļ":5509,"à¦¨à¦ķà¦ķ":5510,"à¦¨à¦ķà¦£":5511,"à§ģâĢĻà¥¤":5512,"Ġà¦ħà¦Ĺà¦Ń":5513,"à¦·à¦ķà¦¶":5514,"à§įâĢĮâĢĻ":5515,"à¦ıà¦ķà¦¶":5516,"à¦ıà¦ķà¦¥":5517,"Ġà¦ıà¦ķà¦ľà¦¨à¦ĵ":5518,"à¦¬à¦ķà¦£":5519,"Ġà¦¶à¦¤à¦¦à¦²":5520,"Ġà¦¦à¦°à¦ĸ":5521,"à§¦à§©":5522,"à§¦à§¯":5523,"à§¨à§¬":5524,"à§¨à§¯":5525,"Ġà¦®à¦ľà¦¦":5526,"Ġà¦ªà¦¶à¦²":5527,"à§ĩâĢ¦à¥¤âĢĿ":5528,"à¦ķà¦°à¦£à¦ª":5529,"à¦¬à¦¹à¦£":5530,"à§©à§§":5531,"ans":5532,"à¦¾à¦ĥâĢĵ":5533,"à¦¾âĢ¦âĢĻ":5534,"Ġà¦¸à§İà¦ļ":5535,"Ġà¦¸à§İà¦Ń":5536,"à¦¬à¦ľà¦¨à¦¦":5537,"à¦¿âĢ¦à¥¤":5538,"à§Ńà§®":5539,"ons":5540,"Ġà¦¦à¦ĸà¦²à¦¦":5541,"Ġtheir":5542,"à§ĩ,âĢĿâĢĶ":5543,"Ġcl":5544,"Ġà§ªà§¦à§¦":5545,"Ġlike":5546,"ult":5547,"à¦·à¦²à¦§":5548,"Ġ196":5549,"Ġcont":5550,"ãģ®":5551,"Ġà¦¹à¦ľà¦°à¦¤":5552,"Ġà¦¸à¦¦à¦²à¦¬à¦²":5553,"Ġcollective":5554,"æĹ¥":5555,",âĢĵ":5556,"13":5557,"15":5558,"20":5559,"23":5560,"ck":5561,"gal":5562,"per":5563,"ya":5564,"ÙĨ":5565,"Ùİ":5566,"à§ĩ)à¥¤":5567,"à§įâĢĶ":5568,"à¦¨à¦ªà¦°":5569,"à¦¨à¦¦à¦¯":5570,"à¦¨à¦§à¦°":5571,"à¦¤à§İ":5572,"à¦¤à§İà¦ķ":5573,"à¦²à¦ķà¦²":5574,"à¦ķà¦¬à¦²":5575,"à¦¯à¦£":5576,"à¦¯à¦°à¦ķ":5577,"à¦¯à¦¬à¦²":5578,"à¦¬à¦ķà¦¬":5579,"à¦¼!âĢĻ":5580,"à§ĭâĢĿà¥¤":5581,"à¥Ĥ":5582,"à¥¤âĢĶâĢĺ":5583,"à¦¸à¦¤à¦°":5584,"à¦¸à¦ªà¦¨":5585,"Ġà¦Ĩà¦ĩà¦ķ":5586,"Ġà¦¨à¦¬à¦¸":5587,"à¦ªà¦²à¦¬":5588,"à¦ªà¦ļà¦°":5589,"à§Ģ)":5590,"à¦Ľà¦®":5591,"Ġà¦ıà¦¤à¦¬":5592,"Ġà¦ıà¦®à¦ª":5593,"à¦ľà¦ªà¦°":5594,"à¦ľà¦ĺ":5595,"à¦ľà¦¸à¦®":5596,"à¦ľà¦®à§Ł":5597,"à¦ĸà¦ķà¦ķ":5598,"Ġà¦ħà¦¤à¦¬à¦¡":5599,"à¦Ĺà¦ªà¦°":5600,"à¦·à¦²à¦¤":5601,"Ġà¦¯à¦ľà¦®":5602,"à¦§à¦ľ":5603,"à¦§à¦¬à¦ª":5604,"à¦¡à¦¡":5605,"à¦¡à¦ĵà§Ł":5606,"Ġà¦Ĺà¦°à¦¬":5607,"Ġà¦°à¦ľà¦¸":5608,"à§ĩà¥¤)":5609,"à¦Ńà¦ª":5610,"à¦Ńà¦ªà¦¤":5611,"Ġà¦ıà¦ķà¦ĺà¦£":5612,"à¦łà¦ĩ":5613,"à¦łà¦ķà¦°":5614,"à¦łà¦¨à¦Ł":5615,"Ġà¦īà¦ĩà¦ķ":5616,"à¦¾à¦ģ?âĢĻ":5617,"à§Ĥà¥¤":5618,"Ġà¦ĵà¦®à¦°":5619,"à§ľà¦¹":5620,"Ġà¦§à¦²":5621,"âĢĻ?":5622,"Ġà¦®à¦¨à¦ľ":5623,"à¦®à¦¨à¦¦":5624,"à¦Ŀà¦Ł":5625,"à¦īà¦ªà¦ļ":5626,"à¦ľà¦¨à¦Ł":5627,"à¦ľà¦¨à¦ľ":5628,"à¦ªà¦¨à¦¤":5629,"à¦ıà¦·":5630,"à¦°à¦ķà¦°à¦£":5631,"à¦Ĩà¦ĸ":5632,"Ġà¦¹à¦²à¦Ł":5633,"à¦ĺà¦ª":5634,"Ġà¦ĩà¦¶à¦¤":5635,"Ġà¦ľà¦¨à¦¯":5636,"Ġà¦ľà¦¨à¦¶à¦ķ":5637,"à¦¬à¦²à¦Ł":5638,"à¦·à¦£à¦Ł":5639,"à¦·à¦£à¦¹":5640,"à¦ķà¦²à¦ľ":5641,"Ġà¦ħà¦¸à¦¦":5642,"Ġà¦ĵà¦łà¦¤":5643,"à¦¤à¦¨à¦ĵ":5644,"à¦ķà¦Łà¦®à¦¯":5645,"à¦ħà¦°à¦¬":5646,"à¦¸à¦¬à¦Ł":5647,"à¦°à¦¸à¦Ĺ":5648,"Ġà¦ħà¦¦à¦ķ":5649,"à¦¦à¦¨à¦ĩ":5650,"à¦Ĺà¦²à¦ĩ":5651,"à¦Ĺà¦²à¦ª":5652,"Ġà¦ľà¦²à¦ĩ":5653,"Ġà¦ľà¦²à¦¤à¦°à¦Ļ":5654,"à¦²à¦¤à¦®":5655,"à¦®à¦¤à¦Ń":5656,"à¦°à¦ľà¦Ĺà¦¤":5657,"à¦¨à¦¬à¦ľà¦¨":5658,"à¦ĸà¦²à¦¨":5659,"Ġà¦ķà¦²à¦°":5660,"à¦²à¦¬à¦¦":5661,"à¦®à¦ķà¦Ń":5662,"à¦¶à¦¨à¦ĩ":5663,"à¦ļà¦²à¦®":5664,"Ġà¦ľà¦®à¦¬":5665,"à¦¾âĢĶ-":5666,"à§İà¦¸à¦ķà¦¦":5667,"Ġà§·":5668,"à¦¦à§Łà¦¬":5669,"Ġà¦ĵà¦ĩà¦¦":5670,"à¦®à¦£à¦¤":5671,"à¦¢à¦ª":5672,"Ġà¦ªà¦¤à¦ŀ":5673,"Ġà¦Ĩà¦¦à¦°à¦£":5674,"Ġà¦Ĺà§ľà¦¨":5675,"Ġà¦¦à¦²à¦Ľ":5676,"Ġà¦ķà¦ĸà¦¨à¦ĵà¦¬":5677,"Ġà¦°à¦ķà¦®à¦Ł":5678,"à¦¼à¦¾,âĢĿ":5679,"Ġà¦¹à¦°à¦·":5680,"Ġà¦¸à¦Ńà¦¯":5681,"âĢĻ,âĢĻ":5682,"Ġà¦Ĺà¦£à¦¸":5683,"à¤µ":5684,"à¦īà¦²à¦¦":5685,"Ġà§¨à§¦à§¦":5686,"à§ªà§¦":5687,"à¦ľà§Łà¦Ĺ":5688,"à¦ľà¦Ĺà§İà¦ķ":5689,"ond":5690,"Ġà¦¢à¦²à¦¢à¦²":5691,"Ġà¦°à¦¥à¦¯":5692,"ater":5693,"à¦¯à¦¶à¦¸":5694,"oug":5695,"à¦ĩà¦ľà¦¨à¦ĩ":5696,"à¦®à¦Ŀà¦®":5697,"Ġno":5698,"Ġà¦¨à¦ĸà¦¦à¦°":5699,"ical":5700,"ĠâĢ¦à¥¤":5701,"Ġà¤ª":5702,"Ġà¤¬":5703,"Ġà§§à§¯à§ªà§©":5704,"igo":5705,"Ġà¦īà¦ĩà¦¥":5706,"Ġà¦§à¦ªà¦§à¦ª":5707,"à¦ıà¦¨à¦ı":5708,"ÂŃÂŃÂŃÂŃÂŃÂŃÂŃÂŃ":5709,"à¦¸à¦ĸà¦¨à¦ĵ":5710,"Ġà¦®à¦ļà¦®à¦ļ":5711,"à§§à§¯à§Ńà§§":5712,"æĹ¥ãģ®":5713,"18":5714,"22":5715,"30":5716,"?âĢ¦":5717,"bor":5718,"ne":5719,"pt":5720,"ta":5721,"ue":5722,"we":5723,"Ú©":5724,"Ġë":5725,"à§ĩà¥¥":5726,"à¦°à¦ªà¦¨":5727,"à¦°à¦Ĺà¦¨":5728,"à¦°à¦Ŀà¦°":5729,"à¦¿/":5730,"à¦¤à¦®à¦ķ":5731,"à¦²à¦ªà¦¦":5732,"à¦²à¦®à¦§":5733,"à¦ķà¦Ŀ":5734,"à§ģà¥¥":5735,"à¦¬à¦¥":5736,"à¦®à¦ķà¦²":5737,"à¦®à¦Ĺà¦¨":5738,"à¦®à¦¸à¦²":5739,"à¦¼à§Ī":5740,"Ġà¦Ĩà¦ĩà¦¯":5741,"Ġà¦Ĩà¦īà§ľ":5742,"Ġà¦¨à¦¨à¦¦":5743,"à¦ªà¦Ľà¦¨":5744,"à¦ªà§Łà¦¸":5745,"Ġà¦¦à¦²à¦¨":5746,"Ġà¦¦à¦¶à¦¬":5747,"Ġà¦¤à¦¸à¦¬":5748,"Ġà¦ıà¦°à¦ĵ":5749,"à¦ľà¦²à¦ķ":5750,"à¦¶à¦¡":5751,"à¦¶à¦°à¦®":5752,"à¦ĸà¦ªà¦¤":5753,"à¦¼à§ĩ:":5754,"à¦·à¦·":5755,"à¦§à¦¬à¦¨":5756,"à¦§à¦¶à¦ķ":5757,"à¦¡à¦¬à¦ªà¦ķ":5758,"à¦ļà¦ªà¦¦à¦¸":5759,"à¦¹à¦ªà¦°":5760,"à¦£à¦²":5761,"à¦£à¦ªà¦°":5762,"à¦¥à¦°à¦¹à¦°":5763,"Ġà¦ļà¦¯":5764,"Ġà¦°à¦ĩ":5765,"Ġà¦°à¦£à¦¨":5766,"Ġà¦°à¦¥à¦¬":5767,"à¦łà¦ĵ":5768,"Ġà¦īà¦«":5769,"à¦ĤâĢ¦":5770,"Ġà¦ħà¦¨à¦Łà¦¨":5771,"Ġà¦ªà¦°à¦Ĺ":5772,"Ġà¦ĺà¦·à¦Ł":5773,"à¦¬à¦¨à¦²à¦¤":5774,"Ġà¦®à¦¨à¦¯":5775,"à¦īà¦ŀ":5776,"à¦īà¦¦à¦¯":5777,"à¦īà¦ĩà¦¯":5778,"à¦īà¦ľà¦ª":5779,"à¦ľà¦¨à¦Ĺà¦£":5780,"à¦«à¦¦":5781,"à¦ıà¦ª":5782,"à¦ıà¦ľ":5783,"à¦ıà¦¡":5784,"âĢĵà¥¤":5785,"Ġà¦ıà¦¸à¦ª":5786,"à¦°à¦®à¦¥":5787,"à¦ĥ-":5788,"à¦¨à¦¤à¦¤à¦°":5789,"à¦ķà¦²à¦¹":5790,"Ġà¦ªà¦¥à¦¯":5791,"à¦ķà¦Łà¦¸":5792,"à¦ħà¦¬à¦²":5793,"à¦ħà¦²à¦ķ":5794,"à¦ħà¦¬à¦¤":5795,"Ġà¦ħà¦®à¦¤":5796,"à¦¬à¦¤à¦ķ":5797,"Ġà¦ĺà¦°à¦ľ":5798,"à§ĩâĢĶ-":5799,"à¦¯à¦¬à¦ļ":5800,"Ġà¦ľà¦²à¦®":5801,"Ġà¦ľà¦²à¦¢":5802,"Ġà¦®à¦¹à¦¸":5803,"à¦°à¦¹à¦Ĺ":5804,"Ġà¦īà¦ªà¦®à¦¹":5805,"Ġà¦īà¦ªà¦ķà¦¥":5806,"à¦°à¦ľà¦ķ":5807,"à¦²à¦¨à¦Ĺ":5808,"Ġà¦ħà¦ªà¦¹à¦°à¦£":5809,"à¦¶à¦¨à¦Ĺ":5810,"à¦®à¦¯à¦ľ":5811,"à¦ªà¦¦à¦Ĺ":5812,"à¦ªà¦¦à¦ĵ":5813,"Ġà¦ħà¦¥à¦ĩ":5814,"à¦Ńà¦¬à¦ķ":5815,"à¦Ńà¦¬à¦ĩ":5816,"à¦¨à¦ķà¦¶":5817,"Ġà¦Ĺà¦°à¦Ĺà¦°":5818,"à¦¯à¦®à§Łà¦¤":5819,"à¦ªà¦¥à¦ļ":5820,"à¦ıà¦ķà¦¨":5821,"à¦¤à¦®à¦ľ":5822,"Ġà¦Ĳà¦¤à¦°":5823,"Ġà¦²à¦ķà¦¡":5824,"Ġà¦ħà¦¬à¦¸à¦°à¦ª":5825,"Ġà¦Īà¦®":5826,"Ġà¦Ĺà§ľà¦Ĺà§ľ":5827,"à¦¬à¦¶à¦°":5828,"Ġà¦ıà¦ķà¦ĩà¦¸":5829,"à¦¾âĢĻâĢĵ":5830,"à¦¼âĢĶâĢĻ":5831,"à¦Łà¦«à¦°à¦®":5832,"à¦£à¦ķà¦£":5833,"Ġà¦ªà¦°à¦®à¦ª":5834,"Ġà¦¸à¦°à¦²à¦°":5835,"Ġà¦Ĩà§ľà¦·":5836,"à¦ªà§ľà¦¶":5837,"ank":5838,"à¦¾à¦ĥâĢĶ":5839,"Ġà¦ľà¦Ĺà§İà¦ķ":5840,"à¦¾âĢĿ,":5841,"Ġà¦²à§ľà¦Ľ":5842,"à¦¿?âĢĿâĢĶ":5843,"ens":5844,"Ġà¦ķà¦¬à¦°à¦ĸ":5845,"Ġthere":5846,"à¦¶à¦¦à¦Ń":5847,"Ġà¦ķà¦¦à¦®à¦¤à¦²":5848,"Ġà¦Ńà¦¬à¦¨à¦Ł":5849,"Ġà¦¸à¦«à¦²à¦Ń":5850,"Ġà¦®à¦°à¦£à¦¶":5851,"à¦²à¦ĵà¦Ń":5852,"Ġhad":5853,"à¦ľà¦Ńà¦¬à¦¨":5854,"ĠBe":5855,"Ġlife":5856,"Ġex":5857,"etect":5858,"Ġà§§à§¯à§ªà§«":5859,"Ġà§§à§¯à§¯à§¨":5860,"ign":5861,"à¦£à¦Ĺà¦¤à¦®":5862,"Ġà§§à§Ńà§ªà§©":5863,"âĢĶâĢĶâĢĶâĢĶ":5864,"ĠGod":5865,"Ġà¦ĵà¦²à¦Łà¦ª":5866,"Ġà¦¥à¦ĩà¦¥à¦ĩ":5867,"ĠĠĠĠĠĠĠĠĠĠĠĠĠĠĠĠ":5868,"Ġitself":5869,"âĢķâĢķâĢķâĢķâĢķâĢķâĢķâĢķ":5870,"Ġà¦Ńà¦°à¦£à¦ª":5871,"âĢ¨Ċ":5872,"Ġindigo":5873,"21":5874,"25":5875,"RO":5876,"ek":5877,"for":5878,"ial":5879,"low":5880,"ood":5881,"Ġà§Ł":5882,"à¦¨à¦ķà¦¤à¦ķ":5883,"à¦¤à¦£":5884,"à¦¤à¦ķà¦²":5885,"à¦¤à¦¦à¦°":5886,"à¦²à¦¨à¦¬":5887,"à¦ķà¦¸à¦¨":5888,"à¦ķà¦°à¦ķà¦®":5889,"à¦ķà¦¥à¦¨":5890,"à¦¬à¦ķà¦²":5891,"à¦¬à¦¬à¦¤":5892,"à¦®à¦ªà¦¨":5893,"à¦¼âĢĿà¥¤":5894,"Ġà¦¬à¦ª":5895,"Ġà¦¬à¦ķà¦²":5896,"Ġà¦¸à¦ķà¦°":5897,"Ġà¦ªà¦Łà¦ķ":5898,"à¦¸à¦ľà¦¨":5899,"à¦¸à¦°à¦¸":5900,"à¦¸à¦¨à¦¬":5901,"Ġà¦Ĩà¦¹à¦²":5902,"Ġà¦Ĩà¦Łà¦¬":5903,"à¦¦à¦«":5904,"à¦¦à¦ĺà¦°":5905,"à¦Łà¦ĺ":5906,"Ġà¦®à¦°à¦¨":5907,"à¦ĩà¦Ŀ":5908,"à¦ĩà¦®à¦²":5909,"à¦ªà¦¦à¦°":5910,"à¦ªà¦Łà¦²":5911,"Ġà¦¦à¦ĩà¦¯":5912,"Ġà¦¤à¦£":5913,"Ġà¦ıà§Ł":5914,"Ġà¦ıà¦ĺà¦°":5915,"Ġà¦¹à¦ĩà§Ł":5916,"à¦ĸà¦®à§Ł":5917,"à¦¼à§ĩâĢ¦à¥¤":5918,"Ġà¦ħà¦¹à¦²":5919,"à§Łà¦ľà¦¨":5920,"à¦·à¦Ľ":5921,"à¦§à§ľà¦ķ":5922,"Ġà¦ķà¦°à¦®à¦°":5923,"à¦¹à¦§":5924,"Ġà¦Ĺà¦¸":5925,"à¦¥à¦Ľ":5926,"à¦¥à¦°à¦¬":5927,"Ġà¦Ńà¦Ĺà¦°":5928,"à¦Ńà¦°à¦£":5929,"à¦Ńà¦ŀ":5930,"Ġà¦Ľà¦ª":5931,"Ġà¦Ľà¦²à¦ļ":5932,"à¦ĤâĢĵ":5933,"Ġà¦¬à¦²à¦¶":5934,"Ġà¦ĵà¦®à¦²":5935,"Ġà¦ħà¦¨à¦Ĺ":5936,"Ġà¦ªà¦°à¦Ľ":5937,"Ġà¦ªà¦°à¦ļ":5938,"à¦¬à¦¨à¦¤":5939,"à¦¬à¦¨à¦¶":5940,"Ġà¦®à¦¨à¦ª":5941,"Ġà¦®à¦¨à¦®à¦°":5942,"à¦®à¦¨à¦°":5943,"à¦®à¦¨à¦Ĺà¦°":5944,"Ġà¦ıà¦ĩà¦¡à¦¸":5945,"à¦ŀà¦°":5946,"à§İà¦¨":5947,"à§İà¦Ł":5948,"à¦īà¦²à¦ķ":5949,"à¦īà¦ªà¦ķ":5950,"à¦¿,âĢĶ":5951,"à¦ľà¦¨à¦°":5952,"à¦«à¦°à¦ķ":5953,"à¦¤à¦°à¦¯":5954,"Ġà¦¸à¦¬à¦¸":5955,"à¦¬à¦°à¦«":5956,"Ġà¦Łà¦ĩà¦Ł":5957,"à¦Ĩà§ľ":5958,"à¦ĺà¦ļ":5959,"Ġà¦ĩà¦®à¦²":5960,"Ġà¦ĩà¦®à¦°":5961,"Ġà¦Ŀà¦®à¦Ŀà¦®":5962,"à¦¬à¦²à¦¦":5963,"Ġà¦ħà¦¬à¦Ĺà¦¤":5964,"Ġà¦¬à¦¨à¦ļ":5965,"à§ĭà¦ģ,":5966,"Ġà¦Ĩà¦Ĺà¦°à¦¬":5967,"à¦ķà¦Łà¦²":5968,"à¦ħà¦ķà¦¸":5969,"à¦¸à¦¬à¦¹":5970,"à¦¸à¦¬à¦¶à¦¤":5971,"à¦²à¦ķà¦®à¦²":5972,"à¦¬à¦¤à¦¶":5973,"à¦¦à¦¨à¦¹":5974,"à¦¿à¦ĤâĢĵ":5975,"à¦¦à¦°à¦ª":5976,"à¦Ĺà¦²à¦¸":5977,"Ġà¦ľà¦²à¦ļ":5978,"Ġà¦īà¦ªà¦¶":5979,"Ġà¦īà¦ªà¦¶à¦®":5980,"à¦¨à¦¬à¦¬à¦¨":5981,"à¦¯à¦ķà¦¥":5982,"à¦ļà¦¨à¦ķ":5983,"Ġà¦¸à¦¹à¦¨":5984,"à¦ķà¦¬à¦ļ":5985,"à¦ªà¦¦à¦Ł":5986,"Ġà¦ĵà¦ªà¦°à¦ĵ":5987,"à§İà¦¸à¦Ļ":5988,"Ġà¦¬à¦ĩà¦ĵ":5989,"à¦·à¦ķà¦¥":5990,"à¦¯à¦®à¦ŀ":5991,"à§įâĢĮ!":5992,"à¦ıà¦ķà¦¸à¦®à§Ł":5993,"à¦Łà¦²à¦Ĺ":5994,"à¦ļà¦ķà¦¦":5995,"à¦¢à¦ķ":5996,"à§°à¦ļà¦£":5997,"Ġà¦Ĩà¦§à¦¬":5998,"Ġà¦¨à¦¬à¦¤à¦°":5999,"Ġà¦¬à§ľà¦²":6000,"à¦®à¦¸à¦ľ":6001,"à¦°à¦®à¦£à¦Ł":6002,"à§Ŀà¦ļ":6003,"à¦®à¦¹à¦ķ":6004,"à§ĩâĢ¦.":6005,"à¤£":6006,"à¤¸":6007,"à¤ľ":6008,"Ġà¦ľà§Łà¦¯":6009,"hes":6010,"Ġà¦Ĩà¦ĩà¦¨à¦¶":6011,"ink":6012,"Ġà¦¸à§İà¦ªà¦¥":6013,"à¦¨à§Łà¦¨à¦¶":6014,"à§Ńà§¨":6015,"Ġà¦Ĩà¦Łà¦ļà¦²":6016,"iss":6017,"ary":6018,"Ġà¦ĸà¦°à¦ĸà¦°":6019,"à§ĭâĢĻâĢĶ":6020,"Ġà¦¨à¦°à¦ķà¦¬":6021,"Ġà¦ĩà¦®à¦ªà¦¸":6022,"Ġfrom":6023,"Ġà¦ķà§ľà¦ķà§ľ":6024,"ings":6025,"ĠAnd":6026,"Ġà§§à§¯à§¯à§ª":6027,"Ġbeauty":6028,"ays":6029,"Ġà¦Ĺà¦²à¦¦à¦ĺà¦°":6030,"ost":6031,"Ġà¦Ľà§Łà¦Ł":6032,"Ġknow":6033,"Ġwho":6034,"Ġà¦¶à¦°à¦¶à¦¯":6035,"ON":6036,"aj":6037,"ach":6038,"ff":6039,"from":6040,"hol":6041,"ll":6042,"ng":6043,"tle":6044,"ual":6045,"ures":6046,"Ñĥ":6047,"×Ļ":6048,"ĊĊ":6049,"ĠJ":6050,"Ġà¦Ļ":6051,"à¦¾...âĢĿ":6052,"à¦°à¦°à¦ķ":6053,"à¦¨à¦ļà¦ķ":6054,"à¦¤à¦ªà¦°":6055,"à¦¤à¦ĸà¦¤":6056,"à¦¤à¦¸à¦°":6057,"à¦²à¦¦à¦°":6058,"à¦²à¦®à¦°":6059,"à¦²à¦¦à¦¹":6060,"à¦ķà¦ķà¦°":6061,"à¦ķà¦¸à¦®":6062,"à¦ķà¦ªà¦Ł":6063,"à¦¯à§Łà¦¨":6064,"à¦¯à¦Ĺà¦£":6065,"à¦¯à¦ľà¦Ĺà¦¤":6066,"Ġà¦¬à¦®à¦¨":6067,"Ġà¦¬à¦ľà¦°":6068,"Ġà¦¬à¦ªà¦£":6069,"à¦¸à¦¹à¦¨":6070,"à¦¦à¦¬à¦ª":6071,"à¦Łà¦ªà¦°":6072,"à¦Łà¦¤à¦®":6073,"Ġà¦¨à¦°à¦ª":6074,"Ġà¦®à¦ĵà¦ķ":6075,"à¦ĩà¦īà¦°":6076,"à¦ªà¦«":6077,"à¦ªà¦¸à¦®":6078,"à¦ªà§°":6079,"à§ĢâĢĿà¥¤":6080,"Ġà¦¦à§°":6081,"Ġà¦¤à¦Łà¦°":6082,"Ġà¦ıà¦®à¦¤":6083,"Ġà¦¹à¦ĩà¦Ľ":6084,"à¦¶à¦°à¦£":6085,"à¦¶à¦ķà¦¤":6086,"à¦¶à¦®à¦°":6087,"à¦ĸà¦®à¦¨":6088,"à¦ĸà¦°à¦¬":6089,"à¦ĸà¦²à¦¤":6090,"à¦ĸà¦Ńà¦Ļ":6091,"à¦Ĺà¦°à¦¤":6092,"à¦Ĺà¦¤à¦°":6093,"à¦Ĺà¦¸à¦¨":6094,"à¦Ĺà¦ªà¦¥":6095,"à¦·à¦®à¦¯":6096,"Ġà¦¯à¦¸":6097,"à¦§à¦¸à¦®":6098,"à¦§à¦§à¦°":6099,"à¦§à¦Ńà¦°":6100,"à¦ļà¦ĵ":6101,"à¦ļà¦¤à¦®":6102,"à¦¹à¦¬à¦²":6103,"Ġà¦Ĺà¦°à¦¹":6104,"à¦£à¦ĺ":6105,"à¦£à¦¸à¦Ļ":6106,"Ġà¦¶à¦¤à¦°":6107,"Ġà¦ļà¦ĸ":6108,"Ġà¦ļà¦®à¦ļ":6109,"à¦Ńà¦¡":6110,"à¦Ńà¦ĵ":6111,"Ġà¦ıà¦ķà¦ļà¦ķ":6112,"Ġà¦ıà¦ķà¦ĺà¦°":6113,"à¦¾à¦ģâĢĵ":6114,"Ġà¦¬à¦²à¦¨":6115,"Ġà¦Ĩà¦°à¦ª":6116,"Ġà¦²à¦ĩ":6117,"Ġà¦²à¦ĵ":6118,"Ġà¦ħà¦¨à¦¬":6119,"Ġà¦ħà¦¨à¦®à¦¨":6120,"ĠâĢ¢":6121,"Ġà¦¸à¦®à¦ķà¦ķ":6122,"Ġà¦ĺà¦°à¦£":6123,"à¦¼à¦¿à¥¤âĢĻ":6124,"Ġà¦®à¦¨à¦°":6125,"Ġà¦®à¦¨à¦Ń":6126,"à¦ªà¦°à¦²":6127,"à¦¿à¥¤à¥¤":6128,"Ġà¦ıà¦ĩà¦ĩ":6129,"Ġà¦ıà¦ĩà¦®à¦¤":6130,"à¦ŀà¦¬à¦²":6131,"à§İà¦ªà¦¦":6132,"à¦īà¦łà¦¤":6133,"à¦ıà¦¹":6134,"à¦Ĩà¦¸à¦¤":6135,"Ġà¦ķà¦¥à¦ķà¦ł":6136,"à¦ĺà¦·":6137,"à¦ĺà¦Ń":6138,"Ġà¦ĩà¦īà¦ķ":6139,"Ġà¦ĩà¦ĵà¦°":6140,"Ġà¦ĩà¦Łà¦¸":6141,"Ġà¦ĩà¦¨à¦¬à¦ķ":6142,"Ġà¦ħà¦¬à¦¦à¦®":6143,"à¦°à¦®à¦¦":6144,"Ġà¦¬à¦¨à¦¦":6145,"Ġà¦¬à¦¨à¦ªà¦°":6146,"Ġà¦¬à¦¨à¦ľà¦Ļ":6147,"à§ĭà¦ģ-":6148,"Ġà¦Ĩà¦¬à¦¡":6149,"Ġà¦Ĩà¦Ĺà¦®":6150,"Ġà¦¨à¦¤à¦®":6151,"Ġà¦Ĺà¦²à¦Ĺ":6152,"à¦ķà¦Łà¦¤à¦®":6153,"à¦ħà¦«à¦²":6154,"à¦¤à¦¬à¦ī":6155,"à¦¤à¦¬à§Łà¦¸":6156,"Ġà¦ıà¦²à¦®":6157,"à¦¾à¦ĤâĢĶ":6158,"à¦¦à¦¨à¦®":6159,"à¦¦à¦¨à¦Ł":6160,"à¦¦à¦¨à¦ª":6161,"à¦¿à¦Ĥ?":6162,"à¦¯à¦¬à¦ĩà¦¯":6163,"à¦Ĺà¦²à¦¦":6164,"à¦Ĺà¦²à¦Ĺ":6165,"Ġà¦ľà¦²à¦ªà¦¥":6166,"Ġà¦ľà¦²à¦¦à¦¸":6167,"à¦Ĩà¦®à¦²":6168,"Ġà¦ħà¦¤à¦¦":6169,"Ġà¦ħà¦¤à¦ĸ":6170,"Ġà¦ħà¦¤à¦Ĺ":6171,"à¦¹à¦¸à¦ķ":6172,"Ġà¦īà¦ªà¦ķà¦£":6173,"à¦°à¦ľà¦Ń":6174,"à¦¯à¦ķà¦£":6175,"Ġà¦ķà¦²à¦ª":6176,"à¦²à¦¬à¦£":6177,"à¦°à¦¦à¦®":6178,"Ġà¦¸à¦¹à¦®à¦¤":6179,"à¦ªà¦¦à¦ĩ":6180,"à¦¸à¦¨à¦Ń":6181,"ĠâĢĶâĢľ":6182,"Ġà¦¬à¦ĩà¦ªà§ľ":6183,"à¦°à¦ĵà¦ĩ":6184,"à¦·à¦¤à¦ķ":6185,"à¦¨à¦ķà¦¯":6186,"à¦¬à¦¦à¦¤":6187,"à¦¸à¦°à¦Ĺ":6188,"Ġà¦ıà¦°à¦ļ":6189,"à§ĩ!)":6190,"Ġà¦«à¦²à¦Ĺ":6191,"à§Łà¦¨à¦ªà¦°":6192,"Ġà¦ĩà¦¨à¦¹":6193,"à§°à¦ķà¦²":6194,"à§°à¦¥à¦®":6195,"à¦ľà¦²à¦ľ":6196,"Ġà¦¸à¦ķà¦²à¦ĩ":6197,"à¦¸à¦«à¦°":6198,"à¦¯à¦¸à¦Ń":6199,"à¦¥à¦°à¦ĸà¦£":6200,"Ġà¦īà§İà¦°":6201,"Ġà¦°à¦ķà¦®à¦«":6202,"Ġà¦¦à¦¶à¦¤à¦²":6203,"Ġà¦Ĺà¦£à¦ªà¦¤":6204,"Ġà¦¦à¦®à¦ķà¦²":6205,"Ġà¦ľà§Łà¦²":6206,"à¦ıà¦ĸà¦¨à¦ķ":6207,"à¦Ĺà¦£à¦¤à¦¨":6208,"ana":6209,"Ġà¦ķà¦Łà¦ķà¦Ł":6210,"ination":6211,"à¦¶à¦°à§İ":6212,"à¦¤à¦ĸà¦¨à¦ĵ":6213,"Ġà¦ıà¦°à¦ªà¦°à¦ĩ":6214,"à¦ħà¦¬à¦¸à¦°":6215,"Ġthey":6216,"ism":6217,"Ġà¦¨à§ľà¦²":6218,"Ġà¦Ĩà¦ĸà§ľ":6219,"à¦Ŀà¦ķà¦Ŀà¦ķ":6220,"Ġà§©à§§":6221,"Ġch":6222,"Ġbut":6223,"Ġà¦ķà¦¸à¦°à¦¤":6224,"ile":6225,"ick":6226,"Ġà§ªà§«":6227,"ĠĠĊĠĠĠĠĠĠ":6228,"ĠBen":6229,"Ġà¦®à¦Īà¦¨à¦ķ":6230,"à¦¨à¦®à§Łà¦¤":6231,"Ġà¦ķà¦¨à¦ķà¦ļ":6232,"Ġà§¦à§ª":6233,"áĥĺ":6234,"ĠHe":6235,"ose":6236,"Ġ197":6237,"Ġwhich":6238,"à¦°à¦Ĺà¦²à¦Ń":6239,"Ġà¦«à¦¸à¦«à¦°":6240,"ough":6241,"26":6242,"27":6243,"28":6244,";-":6245,"?)":6246,"CO":6247,"UR":6248,"are":6249,"led":6250,"na":6251,"yan":6252,"ÑĤ":6253,"ÙĬ":6254,"âĤ":6255,"Ġ&":6256,"à¦¾à¥¥":6257,"à¦¾Â·Â·Â·":6258,"à§ĩà§Ģ":6259,"à§ĩà¦ĥà¥¤":6260,"à¦°à¦°à¦¥":6261,"à¦°à¦ªà¦¦":6262,"à¦°à¦ĭà¦£":6263,"à§įà¦ģ":6264,"à§įâĢĵ":6265,"à¦¿âĢĮ":6266,"à¦¿ÂŃ":6267,"à¦¨à¦¸à¦¤":6268,"à¦¤à¦¸à¦¨":6269,"à¦²à¦ĵà§Ł":6270,"à¦²à¦¹à¦°":6271,"à¦ķà¦¦à¦²":6272,"à¦ķà¦Ŀà¦²à¦ķ":6273,"à¦¯à¦°à¦¤":6274,"à¦¯à¦¸à¦¬":6275,"à¦¯à¦ķà¦¤":6276,"à¦¯à¦ªà¦¤":6277,"à¦¬à§İà¦¸à¦°":6278,"à¦®à¦ĵà§Ł":6279,"à¦®à¦ªà¦ķ":6280,"Ġà¦ķà¦ĸ":6281,"Ġà¦ķà¦ķà¦Ł":6282,"Ġà¦¬à¦Łà¦²":6283,"Ġà¦¸à¦ĩà¦Ľ":6284,"à¦¸à¦ķà¦°":6285,"à¦¸à¦¨à¦ĵ":6286,"à¦¸à¦ĵà§Ł":6287,"à¦¸à¦¦à¦¦":6288,"Ġà¦Ĩà¦ªà¦ķ":6289,"Ġà¦Ĩà¦ĩà¦ª":6290,"à¦¦à¦¡":6291,"à¦¦à¦ļà¦¯":6292,"à¦¦à¦ķà¦ķ":6293,"à¦Łà¦°à¦¶":6294,"à¦Łà¦®à¦¸":6295,"Ġà¦¨à¦°à¦ĸ":6296,"Ġà¦®à¦°à¦®à¦°":6297,"à¦ĩà¦ªà¦Ł":6298,"à¦ªà¦ĺ":6299,"à¦ªà¦¬à¦¦":6300,"Ġà¦¦à¦¬":6301,"à¦Ľà¦Ń":6302,"à¦Ľà¦ķà¦Ł":6303,"à¦Ľà¦²à¦¨":6304,"Ġà¦¤à¦ķà¦¤à¦ķ":6305,"Ġà¦ıà¦®à¦¬":6306,"à¦ľà¦ªà¦¦":6307,"à¦¶à¦¬à¦°":6308,"à¦¼à§ĩ?âĢĿ":6309,"à¦·à§ľ":6310,"à¦·à¦¤à¦¨":6311,"à¦·à¦°à¦ľ":6312,"Ġà¦¯à¦·":6313,"à¦§à¦®à¦¨":6314,"à¦ļà¦ļ":6315,"à¦ļà¦¢":6316,"à¦ļà¦¶à¦®":6317,"Ġà¦ķà¦°à¦ª":6318,"à¦¹à¦«":6319,"Ġà¦Ĺà¦Ł":6320,"à¦£à¦¤à¦®":6321,"à¦£à¦ļà¦°":6322,"à¦£à¦§à¦°":6323,"Ġà¦ļà¦ĩ":6324,"à¦ĵà¦·":6325,"à¦Ńà¦²à¦Ĺ":6326,"Ġà¦ıà¦ķà¦¬à¦°":6327,"Ġà¦ıà¦ķà¦ļà¦²":6328,"Ġà¦Ĩà¦®à¦ľà¦¨à¦¤":6329,"Ġà¦īà¦¯":6330,"à¦¾à¦ģà¥¤âĢĿ":6331,"Ġà¦¬à¦²à¦¬à¦¤":6332,"Ġà¦²à¦Ľ":6333,"Ġà¦²à¦ķà¦Ł":6334,"Ġà¦ĵà§İ":6335,"Ġà¦ĵà¦ľà¦¸":6336,"Ġà¦«à§Łà¦¸":6337,"Ġà¦ĸà¦Ļ":6338,"à§ľà¦¨à¦ķ":6339,"à¦°à¦¤à¦¯":6340,"à¦°à¦¤à¦ªà¦ķ":6341,"Ġà¦ħà¦¨à¦®":6342,"à¦ŀà¦¬":6343,"à¦ŀà¦Ń":6344,"à¦ľà¦¨à¦Ĺ":6345,"à¦°à¦¬à¦ļà¦¨":6346,"à¦ıà¦¤à¦Ł":6347,"Ġà¦Ĩà¦²à¦ķ":6348,"Ġà¦Ĩà¦²à¦ªà¦¥":6349,"à¦¬à¦°à¦°":6350,"Ġà¦Ĩà¦¸à¦¨à¦Ł":6351,"à¦Ĩà¦ĺ":6352,"à¦Ĩà¦²à¦¤":6353,"à¦Ĩà¦ķà¦¸":6354,"Ġà¦®à¦¤à¦Ł":6355,"Ġà¦¡à¦¬":6356,"Ġà¦¡à¦²à¦«":6357,"à¦ĺà¦¤à¦°":6358,"Ġà¦ĩà¦Ĺà¦²":6359,"à¦¼à¥¤âĢ¦":6360,"Ġà¦ħà¦¬à§Ł":6361,"à¦¬à¦ªà¦¦":6362,"à¦°à¦®à¦Ł":6363,"à¦°à¦®à¦ĵ":6364,"à¦ĥ?":6365,"Ġà¦¬à¦¨à¦Ł":6366,"Ġà¦ħà¦¸à¦¤à¦°":6367,"Ġà¦ĵà¦łà¦Ľ":6368,"à¦¤à¦¨à¦ļ":6369,"à¦ķà¦°à¦Ľ":6370,"à¦ħà¦¬à¦°":6371,"à¦ħà§°":6372,"à¦ħà¦¬à¦¹":6373,"à§ĩ?âĢĶ":6374,"à§ĩ?âĢ¦":6375,"Ġà¦Ĩà¦ķà¦¨":6376,"Ġà¦ħà¦°à¦«":6377,"Ġà¦Ĩà¦¶à¦°":6378,"à¦¦à¦¨à¦¦":6379,"à¦¦à¦¨à¦ªà¦¤":6380,"Ġà¦¬à¦°à¦·":6381,"à§ĩâĢĶâĢĿ":6382,"à¦¦à¦°à¦Ń":6383,"Ġà¦ľà¦²à¦ªà¦°":6384,"Ġà¦¸à¦°à¦Ĺà¦°à¦®":6385,"Ġà¦®à¦¹à¦ķ":6386,"Ġà¦®à¦¹à¦®":6387,"à¦°à¦¹à¦¤":6388,"à¦¹à¦¸à¦Ł":6389,"à¦°à¦ľà¦¤":6390,"à¦°à¦²à¦®":6391,"à¦¿à¦ĥ!":6392,"Ġà¦¸à¦¹à¦§à¦°":6393,"à¦¹à¦²à¦¹":6394,"Ġà¦ĩà¦¤à¦°à¦¬":6395,"Ġà¦°à¦Ļà¦ļà¦Ł":6396,"à¦¦à§Łà¦¤":6397,"à¦¤à¦²à¦Ĺ":6398,"Ġà¦¬à¦ĩà¦ª":6399,"Ġà¦ªà¦¦à¦¤":6400,"Ġà¦ªà¦¦à¦¦à¦²":6401,"à¦°à¦ªà¦²":6402,"à¦¯à¦®à¦ĩ":6403,"à¦ªà¦¥à¦¹":6404,"à¦ıà¦ķà¦Ĺ":6405,"à¦ıà¦ķà¦¦à¦²":6406,"à¦ıà¦ķà¦ľà¦¨à¦ķ":6407,"à¦¤à¦®à¦®":6408,"Ġà¦ħà¦²à¦®":6409,"Ġà¦Ĳà¦ĸ":6410,"Ġà¦ĩà¦¨à¦¸à¦ª":6411,"à§°à¦¶":6412,"à§°à¦£":6413,"?âĢĻâĢĶ":6414,"!âĢĿ,":6415,"à¦¸à¦«à¦¡":6416,"Ġà¦¶à¦¤à¦Ń":6417,"Ġà¦īà¦ªà¦°à¦ĩ":6418,"Ġ(âĢĺ":6419,"Ġà¦īà§İà¦ĸ":6420,"Ġà¦ĸà¦¬à¦°à¦ĩ":6421,"Ġà¦Ĩà¦ªà¦¶":6422,"à¦°à¦Ĺà¦®":6423,"à¦¼à§ĢâĢĶ":6424,"Ġà¦¦à¦°à¦¦à¦°":6425,"à§¦à§®":6426,"à§Ŀà¦Ń":6427,"Ġà¦¸à¦¦à¦Ĺ":6428,"Ġà¦§à¦¨à¦°à¦¤":6429,"à§¨à§Ń":6430,"à§¨à§®":6431,"Ġà¦Ĺà¦£à¦¹à¦¤":6432,"Ġà¦īà§ľà¦²":6433,"à¤¬":6434,"à¦ķà¦°à¦£à¦°":6435,"à¦ķà¦°à¦£à¦¬":6436,"à¦¦à¦¸à¦ĩ":6437,"à¦°à¦«à¦°à¦®":6438,"à¦ļà§Łà¦ķ":6439,"Ġà¦ļà¦Łà¦ļà¦Ł":6440,"Ġà¦Ĩà¦ĩà¦¨à¦Ĺà¦¤":6441,"Ġà¦¸à§İà¦ķà¦°":6442,"Ġà¦Ĩà¦«à¦Ĺ":6443,"à§Ńà§§":6444,"ont":6445,"Ġà¦Ĩà¦Łà¦ľà¦¨":6446,"à§®à§«":6447,"Ġà¦Ķà§İà¦¸":6448,"à¦Ńà§Łà¦ķ":6449,"à¦īà¦¡à¦¸":6450,"Ġà¦Ĩà¦ĩà¦ĵà¦Ł":6451,"ars":6452,"Ġà§©à§«à§¦":6453,"Ġac":6454,"Ġsp":6455,"à§ĭâĢ¦à¥¤":6456,"à¦¿âĢĿâĢĵ":6457,"Ġà¦ĸà¦¨à¦ĸà¦¨":6458,"Ġà¦Ĺà¦Ĺà¦¨à¦ļ":6459,"Ġà¦¶à¦°à§İà¦¬":6460,"ĠCh":6461,"à¦¯à¦ľà¦¨à¦ķà¦Ń":6462,"à¦§à¦¸à¦ļ":6463,"ĠDe":6464,"Ġà§¦à§§":6465,"Ġà§¦à§©":6466,"Ġà¦¦à¦¹à¦°à¦®":6467,"Ġà¦ļà¦ªà¦²à¦¤":6468,"à§ģà§įà¦ģ":6469,"Ġcount":6470,"intu":6471,"æŃĵæŃĵæŃĵæŃĵæŃĵæŃĵæŃĵæŃĵæŃĵæŃĵæŃĵæŃĵæŃĵæŃĵæŃĵæŃĵ":6472,"à§§à§¯à§ªà§Ń":6473,"ĠUniver":6474,"Ġà¦ļà¦®à¦ļà¦®":6475,"ĠBengal":6476,"29":6477,"37":6478,"ew":6479,"ful":6480,"gr":6481,"ik":6482,"sity":6483,"to":6484,"Â¦":6485,"Ø´":6486,"Ġ'":6487,"Ġed":6488,"Ġall":6489,"à¦°à¦¡à¦¬":6490,"à¦¨à¦ľà¦²":6491,"à¦¨à¦īà¦¦":6492,"à¦¨à¦ĸà¦ļ":6493,"à¦¤à¦ļà¦²":6494,"à¦¤à¦¶à¦¤":6495,"à¦ķà¦®à¦¨":6496,"à¦ķà¦ĵà¦¯":6497,"à¦ķà¦ªà¦¤":6498,"à§ģ'":6499,"à§ģâĢĺ":6500,"à¦¯à¦·":6501,"à¦¯à¦¶à¦ķ":6502,"à¦¯à§°":6503,"à¦¯à¦¹à¦¤":6504,"à¦¬à¦ĵà¦¯":6505,"à¦¬à¦Ĺà¦¤à¦Ń":6506,"à¦®à¦¸à¦¤":6507,"Ġà¦¸à¦Łà¦ķ":6508,"Ġà¦¸à¦ĵà¦Ĺ":6509,"à¥¤]":6510,"Ġà¦ªà¦²à¦²":6511,"à¦¸à¦Ńà¦°":6512,"à¦¸à¦¸à¦¹":6513,"Ġà¦Ĩà¦Łà¦¤":6514,"Ġà¦Ĩà¦īà¦²":6515,"à¦¦à¦ķà¦°":6516,"à¦¦à¦¶à¦ķ":6517,"à¦¦à¦¶à¦®":6518,"à¦Łà¦®à¦¨":6519,"à¦Łà¦¸à¦¨":6520,"à¦Łà¦®à¦°":6521,"Ġà¦®à¦Ĺà¦¡":6522,"à¦ĩà¦¡à¦²":6523,"à¦ªà¦®à¦¨":6524,"à§ĢâĢ¦âĢĿ":6525,"Ġà¦¤à¦¸à¦²":6526,"Ġà¦ıà¦Ĺà¦¤":6527,"Ġà¦¹à¦°à¦¬":6528,"Ġà¦¹à¦ĵà¦¨":6529,"à¦ľà¦®à¦¨":6530,"à¦ľà¦¦à¦£":6531,"à¦¶à¦®à¦¤":6532,"à¦¶à¦®à¦¯":6533,"à¦¶à¦ªà¦¤":6534,"Ġà¦ħà¦ªà¦¨":6535,"à¦Ĺà§Ł":6536,"à¦Ĺà¦Ĺà¦¤":6537,"à¦Ĺà¦¦à¦¤":6538,"Ġà¦¯à§İà¦¸":6539,"à¦£à¦¬à¦¦":6540,"à¦¥à¦ļ":6541,"Ġà¦¶à¦¬à¦¨à¦®":6542,"Ġà¦ļà§Łà¦¨":6543,"Ġà¦°à¦Ĺà¦¡":6544,"à¦ĵà¦ĵ":6545,"Ġà¦Ľà¦Ĺà¦¨":6546,"Ġà¦Ĩà¦®à¦ļ":6547,"à§ĥà§į":6548,"ĠĠĠ":6549,"à¦¼à¦¾âĢĻ,":6550,"à¦¾à¦ģâĢ¦":6551,"Ġà¦Ĩà¦°à¦¨à¦²":6552,"Ġà¦²à¦ĸ":6553,"Ġà¦²à¦¹":6554,"Ġà¦«à§Ł":6555,"Ġà¦«à¦°à¦«à¦°":6556,"à¦°à¦¤à¦Ł":6557,"Ġà¦ħà¦¨à¦²à¦¸":6558,"Ġà¦ªà¦°à¦®à¦¹":6559,"Ġà¦ĺà¦¸":6560,"à¦¬à¦¨à¦Ĺà¦°":6561,"à¦¼à¦¿âĢ¦":6562,"Ġà¦®à¦¨à¦Ĺ":6563,"à¦īà¦ĸ":6564,"à¦ľà¦¨à¦¹":6565,"à¦°à¦¬à¦ĩ":6566,"à¦ıà¦¨à¦ľ":6567,"Ġà¦Łà¦²à¦Ľ":6568,"à¦Ĩà¦ĩà¦¸":6569,"à¦ĺà¦«":6570,"Ġà¦ĩà¦¶à¦°":6571,"Ġà¦ľà¦¨à¦®à¦¨":6572,"à§Ī,":6573,"Ġà¦ıà¦¬à§ľ":6574,"âĢĵ!":6575,"Ġà¦¹à§Łà¦°":6576,"Ġà¦¬à¦¨à¦Ĺ":6577,"à¦ķà¦²à¦¤":6578,"à¦ķà¦²à¦°à¦¬":6579,"à§ĩà¦ģ,":6580,"à¦ķà¦°à¦²":6581,"à¦ħà¦ªà¦®":6582,"à¦°à¦¨à¦¬":6583,"Ġà¦Ĩà¦ķà¦Ľ":6584,"à¦°à¦¸à§İ":6585,"Ġà¦īà¦¦à¦Ĺà¦¤":6586,"à¦¦à¦¨à¦¬":6587,"à¦¦à¦¨à¦§":6588,"à¦¦à¦¨à¦ĵ":6589,"Ġà¦¬à¦°à¦ªà¦ķ":6590,"à¦¨à¦ĵà¦ĩ":6591,"à¦¦à¦°à¦²":6592,"à¦°à¦¹à¦ĵ":6593,"à¦§à¦ķà¦¦":6594,"à¦§à¦ķà¦°à¦£":6595,"à¦°à¦ľà¦¦":6596,"à¦¨à¦¬à¦¯":6597,"à¦¨à¦¬à¦¸à¦¤":6598,"à¦¯à¦ķà¦°à¦£":6599,"Ġà¦ħà¦ªà¦²":6600,"Ġà¦ħà¦ªà¦¹":6601,"Ġà¦ħà¦ªà¦¦à¦¸":6602,"Ġà¦Ĩà¦¤à¦ª":6603,"à¦¿à¦ĥâĢĶ":6604,"à¦°à¦ªà¦°à¦¨":6605,"âĢ¦à¥¤âĢĿ":6606,"à¦ıà¦ĩà¦¤":6607,"à¦ıà¦ĩà¦ĩ":6608,"Ġà¦¬à¦¹à¦¨à¦ķ":6609,"Ġà¦¬à¦ĩà¦ĩ":6610,"Ġà¦ªà¦¦à¦Ł":6611,"à¦¸à¦®à¦¬":6612,"à§İà¦ķà¦ļ":6613,"à¦¤à¦ķà¦¥":6614,"à¦¸à¦°à¦ŀ":6615,"à¦ªà¦¥à¦¯":6616,"à¦ªà¦¥à¦ļà¦²":6617,"à¦ıà¦ķà¦ªà¦°":6618,"à§ĩ!âĢĶ":6619,"à¦ļà¦ķà¦¡":6620,"à¦°à¦Ńà¦°":6621,"Ġà¦Ĳà¦¹":6622,"à¦ªà¦ķà¦ķ":6623,"à¦¶à¦ķà¦ķ":6624,"à§°à¦¦":6625,"à§°à¦¥":6626,"Ġà¦¶à¦¤à¦¶à¦¤":6627,"Ġà¦Ĩà¦¡à¦®":6628,"à¦¯à¦¦à¦¸":6629,"à¦¾!âĢ¦":6630,"Ġà¦Ĩà¦Ļà¦Ł":6631,"à¦°à¦Ĺà¦ŀ":6632,"à¦°à¦ľà¦¨à¦ķ":6633,"Ġà¦ĺà¦¨à¦ĺà¦Ł":6634,"Ġà¦ıà¦¨à¦ľà¦¯":6635,"à§ĭâĢĶâĢĻ":6636,"à¦°à¦®à¦£à¦ªà¦¥":6637,"à§¦à§ª":6638,"à¦¦à¦®à¦¬à¦¨":6639,"à¦²à¦®à¦¹":6640,"à¦ķà¦¦à¦£":6641,"à¦łà¦ķà¦¯":6642,"à¤·":6643,"à¤Ĺ":6644,"à¤ļ":6645,"à¦¤à¦¦à¦¶":6646,"à¦®à¦¦à¦¤":6647,"à¦°à¦°à¦Ļ":6648,"Ġà¦°à¦¸à¦¸":6649,"Ġà¦ľà§Łà¦ķ":6650,"Ġà¦®à¦¦à¦¤":6651,"à¦¿âĢĻ-":6652,"à§©à§¨":6653,"à§©à§®":6654,"Ġà¦¹à¦ĩà¦ĵ":6655,"Ġà¦Ĩà¦ĩà¦¨à¦ķ":6656,"à§ªà§Ń":6657,"à¦ľà¦Ĺà¦ŀ":6658,"Ġà¦ıà¦ķà¦¨à¦ľà¦°":6659,"à¦Īà¦®":6660,"à§ĩâĢĻ-":6661,"Ġà¦Ńà¦Ĺà¦¬à¦¨":6662,"ence":6663,"ather":6664,"ature":6665,"ern":6666,"à§¬à§«":6667,"Ġà¦Ĩà¦Łà¦¶":6668,"âĢ¦âĢĿâĢĶ":6669,"arg":6670,"Ġà§©à§«":6671,"Ġà§©à§Ń":6672,"edic":6673,"à¦¾,âĢĿâĢĶ":6674,"Ġà¦®à¦°à¦£à¦ķ":6675,"ase":6676,"Ġà¦¨à¦Łà¦¬à¦°":6677,"Ġà§ªà§¦":6678,"Ġà¤Ĩ":6679,"Ġhim":6680,"ĠAr":6681,"à¦¬à¦°à¦²à¦¹à¦°":6682,"Ġà§§à§®à§«à§Ń":6683,"Ġà§§à§¨à§¦à§¦":6684,"ety":6685,"ĠRup":6686,"Ġà¦¹à¦°à¦«à¦Ĺ":6687,"igh":6688,"Ġà¦§à¦ķà¦§à¦ķ":6689,"own":6690,"à¦¶à¦§à¦°à¦¦":6691,"oss":6692,"Ġà¦¬à¦Ľà¦°à¦ķ":6693,"Ġà¦ªà¦ļà¦¨à¦¶":6694,"Ġà¦¢à¦ķà¦¢à¦ķ":6695,"Ġà¦¬à¦°à¦¬à§°":6696,"Ġmany":6697,"ĠIndian":6698,"ĠUniversity":6699,"Ġà¦Ľà¦Ĺà¦¨à¦²":6700,"!âĢĵ":6701,"31":6702,"34":6703,"35":6704,"AI":6705,"SI":6706,"de":6707,"ix":6708,"ire":6709,"ms":6710,"ness":6711,"oci":6712,"pen":6713,"ss":6714,"ts":6715,"ther":6716,"Â«":6717,"Â»":6718,"Ñĭ":6719,"à«":6720,"Ġif":6721,"à¦°à¦²à¦ķ":6722,"à¦°à¦¯à¦¤":6723,"à¦¤à§Ł":6724,"à¦¤à§°":6725,"à¦²à¦®à¦¤":6726,"à¦²à¦§à¦°":6727,"à¦²à¦°à¦Ļ":6728,"à¦²à¦ĸà¦£":6729,"à¦ķà¦ĵà§Ł":6730,"à¦ķà¦¨à¦ķ":6731,"à¦ķà¦ļà¦°":6732,"à¦¯à¦¡":6733,"à¦¬à¦¤à¦°":6734,"à¦¬à¦®à¦¤":6735,"à¦¬à¦¹à¦¸":6736,"à¦¬à¦¹à¦°":6737,"à¦¬à¦īà§Ł":6738,"à¦®à¦°à¦¨":6739,"à¦®à¦ªà¦¦":6740,"à¦®à¦ļà¦°à¦£":6741,"à¦®à¦Ĺà¦¤à¦Ń":6742,"à§ĭ),":6743,"Ġà¦¬à§°":6744,"Ġà¦¬à¦ľà¦²":6745,"Ġà¦¬hol":6746,"Ġà¦¸à§ľ":6747,"Ġà¦ªà¦®":6748,"à¦¸à¦¥":6749,"à¦¸à¦¯à¦¨":6750,"Ġà¦Ĩà¦ĸà¦°":6751,"à¦¦à§ľ":6752,"à¦¦à¦¬à¦¨":6753,"à¦¦à¦¨à¦¤à¦¤":6754,"à¦Łà¦§":6755,"à¦Łà¦ķà¦²":6756,"Ġà¦¨à¦°à¦¸":6757,"Ġà¦¨à¦¬à¦ķ":6758,"Ġà¦®à¦²à¦¤":6759,"à¦ĩà¦§":6760,"à¦ĩà¦£":6761,"à¦ĩà¦¥":6762,"à¦ĩà¦¸à¦¨":6763,"à¦ĩà¦¸à¦Ł":6764,"à¦ĩà¦ļà¦Ł":6765,"à¦ªà¦®à¦£":6766,"à¦ªà¦¯à¦ľ":6767,"à¦ªà¦ľà¦Ļ":6768,"à§Ģ),":6769,"Ġà¦¦à¦§":6770,"à¦Ľà§Ł":6771,"à¦Ľà¦ķà¦ĩ":6772,"à¦Ľà¦²à¦Ľà¦²":6773,"Ġà¦¤à¦¯":6774,"Ġà¦ıà¦¥":6775,"Ġà¦ıà¦¤à¦°":6776,"Ġà¦ıà¦¨à¦¸":6777,"Ġà¦¹à¦°à¦¨":6778,"Ġà¦¹à¦¦à¦¯":6779,"Ġà¦¹à¦ķà¦¸":6780,"à¦ľà¦ķà¦²":6781,"à¦ľà¦°à¦¨":6782,"à¦¶à¦®à§Ł":6783,"à¦¶à¦²à¦Ĺ":6784,"à¦¶à¦°à¦ķà¦°":6785,"à¦ĸà¦¬à¦¨":6786,"à¦¼à§ĩà¦¾":6787,"âĢĲ":6788,"à¦Ĺà¦®à¦¸":6789,"à¦Ĺà¦ĺà¦¨":6790,"à¦Ĺà¦¶à¦¯":6791,"à§Łà¦ª":6792,"à¦·à¦ªà¦²":6793,"à¦·à¦¬à¦°à¦£":6794,"Ġà¦¯à¦ĸ":6795,"à¦§à¦°à¦¤":6796,"à¦§à¦¬à¦°":6797,"à¦§à¦¤à¦®":6798,"à¦ļà¦«":6799,"à¦ļà¦°à¦®":6800,"Ġà¦ķà¦°à¦¸":6801,"Ġà¦Ĺà¦Ľ":6802,"Ġà¦Ĺà¦Ĺ":6803,"à¦Ńà¦ķà¦°":6804,"Ġà¦ıà¦ķà¦Ľ":6805,"Ġà¦Ľà¦ĩ":6806,"Ġà¦Ĩà¦®à¦¡":6807,"à¦łà¦Ŀ":6808,"à¦łà¦ļà¦ķ":6809,"à¦łà¦Ńà¦°":6810,"à¦¼à¦¾âĢĿ":6811,"Ġà¦īà¦¶à¦ķ":6812,"à¦Ļà§ľ":6813,"Ġà¦¥à¦ķ":6814,"Ġà¦Ĩà¦°à¦¬à¦°":6815,"Ġà¦ĵà¦®à¦¨":6816,"Ġà¦ĵà¦°à¦®":6817,"âĢĶ?âĢĻ":6818,"à§ľà¦¶":6819,"Ġà¦ħà¦¨à¦¶à¦¨":6820,"Ġà¦§à¦ĩà¦°":6821,"Ġà¦ªà¦°à¦®à¦¬":6822,"Ġà¦¸à¦®à¦®":6823,"Ġà¦¸à¦®à¦ħà¦§":6824,"à¦¬à¦¨à¦ķà¦¥":6825,"à¦¼à¦¿;":6826,"à¦¿à¥¤âĢĵ":6827,"à§İà¦ļ":6828,"à§İà¦ªà¦¨":6829,"à¦īà¦ĵ":6830,"à¦īà¦¬à¦¨":6831,"à¦īà¦¤à¦°":6832,"à¦īà¦ĩà¦¨":6833,"à¦īà§İà¦¸à¦°":6834,"à¦ľà¦¨à¦¸":6835,"à¦°à¦¬à¦ª":6836,"à¦ªà¦¨à¦ķ":6837,"à¦¬à¦°à¦ŀ":6838,"Ġà¦Ĩà¦¸à¦Ļ":6839,"à¦Ĩà¦¨à¦Ĺ":6840,"à¦Ĩà¦²à¦Ĺ":6841,"Ġà¦ķà¦¥à¦®":6842,"ĠâĢľâĢ¦":6843,"Ġà¦ľà¦¨à¦¬":6844,"Ġà¦ľà¦¨à¦ķà¦²":6845,"Ġà¦ıà¦¬à¦¡":6846,"ĠĠĊĊ":6847,"Ġà¦¬à¦¸à¦°":6848,"Ġà¦¬à¦¨à¦ķ":6849,"à¦ķà¦²à¦Ĺ":6850,"Ġà¦ħà¦¸à¦®à¦¤":6851,"à¦¤à¦¨à¦Ł":6852,"à¦¤à¦¨à¦Ĺ":6853,"à¦ķà¦°à¦°":6854,"à¦ķà¦°à¦ĵ":6855,"à¦ħà§Łà¦¨":6856,"Ġà¦ıà¦ĸà¦¨à¦¤":6857,"Ġà¦ħà¦®à¦²à¦¤":6858,"à¦¿à¦ĤâĢ¦":6859,"Ġà¦¸à¦°à¦¦":6860,"Ġà¦ħà¦¤à¦ķ":6861,"Ġà¦ħà¦¤à¦¶à¦¤":6862,"Ġà¦īà¦ªà¦¬à¦¨":6863,"à¦¨à¦¬à¦¬":6864,"à¦¨à¦¬à¦Ĺ":6865,"à¦®à¦ķà¦¹":6866,"à¦°à¦¦à¦Ĺ":6867,"Ġà¦ħà¦ªà¦ĺ":6868,"Ġà¦¸à¦¹à¦®à¦°à¦£":6869,"âĢ¦)":6870,"à¦ļà¦²à¦Ĺ":6871,"à¦ļà¦²à¦ļ":6872,"Ġà¦ĵà¦°à¦ĵ":6873,"à¦¸à¦¨à¦¦":6874,"à¦ĩà¦¨à¦¸à¦ª":6875,"Ġà¦Ńà¦°à¦Ĺ":6876,"Ġà¦°à¦Ļà¦Ł":6877,"Ġà¦°à¦Ļà¦ĵ":6878,"à¦¾?âĢ¦":6879,"à¦Ńà¦¬à¦ĵ":6880,"à¦·à¦¤à¦Ł":6881,"Ġà¦ªà¦¦à¦ª":6882,"Ġà¦ªà¦¦à¦®à¦°":6883,"à¦¤à¦ķà¦°à¦¬":6884,"Ġà¦ħà¦Ĺà¦®":6885,"à¦Ĺà¦°à¦ª":6886,"Ġà¦ħà¦ªà¦°à¦ľà¦¨":6887,"à¦ªà¦¥à¦Ł":6888,"à¦ªà¦¥à¦Ń":6889,"à¦¤à¦¤à¦¤":6890,"à¦ıà¦ķà¦ª":6891,"Ġà¦ħà¦²à¦ķà¦Ł":6892,"Ġà¦Ĳà¦²":6893,"à§°à¦²":6894,"à¦ľà¦²à¦ª":6895,"Ġà¦¸à¦®à§Łà¦¸":6896,"à¦¬à¦¬à¦¶":6897,"Ġà¦¶à¦¤à¦ª":6898,"Ġà¦¶à¦¤à¦ļ":6899,"Ġà¦īà¦ľà¦¬":6900,"à¦ķà¦¨à¦¸":6901,"Ġà¦Īà¦ľ":6902,"Ġà¦Ĺà§ľà¦Ľ":6903,"Ġà¦Ĩà¦¹à¦®à¦¦":6904,"à¦¸à¦ķà¦¶":6905,"à¦ªà¦¸à¦ĩ":6906,"Ġà¦°à¦ķà¦®à¦Ń":6907,"Ġà¦¬à§ľà¦°":6908,"Ġà¦¬à§ľà¦¸à§ľ":6909,"à¦ĩà¦Łà¦¸":6910,"à¦ĩà¦Łà¦Ĺ":6911,"à¦«à¦²à¦ĩ":6912,"Ġà¦¸à¦¹à¦ľà¦¬":6913,"à¦°à¦®à¦£à¦Ń":6914,"à¦ıà¦¬à¦®":6915,"à§¦à§¨":6916,"à§¦à§«":6917,"à¦®à¦°à¦£à¦¶à¦ķ":6918,"Ġà¦¶à¦¹à¦°à¦ĩ":6919,"Ġà¦Ĺà¦¹à¦¨à¦¤":6920,"à¦°à¦°à¦ŀ":6921,"à¦ķà¦Ĺà¦£":6922,"à¦¥à¦ķà¦Ń":6923,"à¦ķà¦ľà¦¨à¦ĵ":6924,"Ġà¦®à¦¶à¦ķà¦°":6925,"Ġà¦ħà¦Łà¦²à¦¤":6926,"à¦¸à¦¹à¦¬":6927,"Ġtw":6928,"à¦¿âĢĻâĢĵ":6929,"à§©à§«":6930,"à§ªà§¨":6931,"à§ªà§§":6932,"Ġà¦ľà§ľà¦¤":6933,"à¦®à¦®à¦Ń":6934,"à¦¿âĢ¦âĢĻ":6935,"à¦¬à¦°à¦£à¦ķ":6936,"à§ĩâĢĻâĢĵ":6937,"ony":6938,"Ġà¦¸à¦«à¦Ł":6939,"Ġà¦Ńà¦°à¦¸à¦¨":6940,"Ġà¦²à§ľà¦¤":6941,"à¦¯à¦Ĺà¦łà¦¨":6942,"ata":6943,"à§¬à§¯":6944,"ord":6945,"Ġà¦¨à§ľà¦¤":6946,"Ġà¦¨à§ľà¦¬":6947,"ara":6948,"arning":6949,"Ġà¦¬à¦¶à¦¬à¦°":6950,"à¦Ĩà¦¤à¦Ļ":6951,"Ġab":6952,"Ġap":6953,"à¦¾?âĢĿâĢĶ":6954,"Ġà¦ļà§ľà¦¤":6955,"Ġcan":6956,"Ġà§§à§¯à§Ńà§©":6957,"ice":6958,"à¦¼à¦¿à¦Ĥ-":6959,"ĠPart":6960,"Ġà§§à§¦à§¦à§¦":6961,"vel":6962,"Ġà§§à§®à§¬à§¦":6963,"à§§à§¯à§¨":6964,"ĠMan":6965,"ĠTh":6966,"Ġà¦¸à¦¦à¦°à¦ĺ":6967,"ĠRah":6968,"ĠDetect":6969,"ung":6970,"Ġà¦¶à¦¶à¦§à¦°":6971,"agore":6972,"Ġà§¯à§¦":6973,"Ġà§§à§¯à§¬à§ª":6974,"Ġonly":6975,"à¦ķà¦¸à¦¬à¦ľ":6976,"ack":6977,"Ġdeath":6978,"Ġà¦¤à§İà¦¸à¦¤":6979,"ĠTHE":6980,"à¦ķà¦°à¦£à¦°à¦ļà¦¯":6981,");":6982,".âĢĻ":6983,"32":6984,"33":6985,"?âĢĵ":6986,"ED":6987,"ER":6988,"My":6989,"NA":6990,"aw":6991,"act":6992,"by":6993,"cle":6994,"der":6995,"ob":6996,"pH":6997,"ph":6998,"sha":6999,"uch":7000,"ves":7001,"yes":7002,"ÃĹ":7003,"Ðº":7004,"à®":7005,"à´":7006,"áĢ":7007,"ä¸":7008,"åĵ":7009,"Ġ)":7010,"ĠÑ":7011,"ĠÑģ":7012,"ĠÂ«":7013,"à¦¾...":7014,"à§ĩà¦¾-":7015,"à¦°à¦²à¦¤":7016,"à§įâĢĻà¥¤":7017,"à¦¨à¦ªà¦¨":7018,"à¦¨à¦°à¦¸":7019,"à¦¨à¦¶à¦ķ":7020,"à¦¨à¦ªà¦Ł":7021,"à¦¨à¦ĺà¦¨":7022,"à¦¤à¦ŀ":7023,"à¦¤à¦ļà¦¨":7024,"à¦¤à¦Ĺà¦£":7025,"à¦¤à¦ĺà§ľ":7026,"à¦²à¦ªà¦¨":7027,"à¦²à¦¨à¦ĵ":7028,"à¦ķà¦Ļ":7029,"à¦ķà¦ªà¦°":7030,"à¦ķà¦®à§Ł":7031,"à§ģâĢ¦âĢĿ":7032,"à§ģâĢ¦à¥¤":7033,"à¦¯à¦®à¦ķ":7034,"à¦¯à¦Ĺà¦°":7035,"à¦¬à¦Łà¦¬":7036,"à¦¬à¦ĩà¦Ł":7037,"à¦¬à¦ĩà¦¤":7038,"à¦¬à¦Ńà¦°":7039,"à¦¬à¦®à¦¶":7040,"à¦¬à¦Ĺà¦£":7041,"à¦®à¦®à¦Ĺ":7042,"Ġà¦ķà¦·à¦¤":7043,"à§ĭ)":7044,"à§ĭâĢĿâĢĶ":7045,"Ġà¦¬à¦¶à¦¤":7046,"Ġà¦¸à¦ªà¦¥":7047,"Ġà¦¸à§°":7048,"à¥¤(":7049,"à¥¤âĢľ":7050,"Ġà¦ªà¦·":7051,"Ġà¦ªà§°":7052,"Ġà¦ªà¦ĩà¦¡":7053,"Ġà¦ªà¦ªà¦ķà¦°":7054,"à¦¸à¦¬à¦°":7055,"à¦¸à¦¦à¦¨":7056,"à¦¦à¦¸à¦®":7057,"à¦¦à¦¬à¦ķ":7058,"à¦Łà¦¸à¦®":7059,"à¦Łà¦¸à¦¹":7060,"Ġà¦¨à¦°à¦¬à¦²":7061,"Ġà¦¨à¦¦à¦¨à¦¦":7062,"Ġà¦®à§°":7063,"à¦ĩà¦ķà¦²":7064,"à¦ĩà¦²à¦ķ":7065,"à¦ĩà¦ĵà§Ł":7066,"à¦ĩà¦®à¦¸":7067,"à¦ĩà¦¸à¦®à¦¯":7068,"à¦ĩà¦īà¦ľ":7069,"à¦ĩà¦Ĺà¦ŀ":7070,"à¦ªà¦¬à§Łà¦¸":7071,"à§Ģà¦ĥ":7072,"Ġà¦¦à¦ľ":7073,"Ġà¦¦à¦¶à¦¨":7074,"Ġà¦¦à¦°à¦Ĺ":7075,"à¦Ľà¦ļ":7076,"Ġà¦¤à¦¦à¦¬":7077,"Ġà¦¤à¦ªà¦¶":7078,"Ġà¦ıà¦¨à¦Ĺ":7079,"Ġà¦¹à§ľà¦ķ":7080,"à¦ľà¦ŀ":7081,"à¦ľà¦¤à¦¬":7082,"à¦ľà¦¤à¦¤":7083,"à¦ľà¦¸à¦¤":7084,"à¦ľà¦ĸà¦®":7085,"à¦¶à¦ķà¦Ł":7086,"à¦ĸà¦ĵà¦¯":7087,"à¦Ĺà¦¹à¦¨":7088,"à¦Ĺà¦¯à¦ľ":7089,"à§Łà¦¡à¦«":7090,"à¦·à¦¨à¦ĵ":7091,"à¦·à¦¦à¦°":7092,"à¦·à¦ªà¦¤":7093,"Ġà¦¯à§İ":7094,"à¦§à¦Ĺà¦²":7095,"à¦§à¦¹à¦¸":7096,"à¦¡à¦¬à¦¬":7097,"à¦ļà¦®à¦¤":7098,"à¦¹à¦ĵà¦¯":7099,"à¦ģâĢĻ,":7100,"à¦£à¦Ľ":7101,"à¦£à¦²à¦¤":7102,"à¦£à¦¬à¦ķ":7103,"à¦£à¦¸à¦¹":7104,"à¦£à¦Ńà¦Ł":7105,"Ġà¦¶à¦¤à¦°à¦ŀ":7106,"Ġà¦°à¦ĵà§Ł":7107,"Ġà¦°à¦Ĺà¦°":7108,"Ġà¦°à¦£à¦®":7109,"à§ĩà¥¤âĢĶ":7110,"à¦Ńà¦ľà¦¨à¦ķ":7111,"Ġà¦ıà¦ķà¦¬à¦¸":7112,"Ġà¦Ĩà¦®à¦¤à¦²":7113,"à¦łà¦¤à¦°":7114,"à¦¼à¦¾:":7115,"à¦¼à¦¾?âĢĻ":7116,"à¦¼à¦¾âĢĻà¥¤":7117,"Ġà¦īà¦ŀ":7118,"Ġà¦īà¦®à¦°":7119,"Ġà¦īà¦¸à¦ĸ":7120,"à¦Ļà¦¡":7121,"à§ĩ,âĢĵ":7122,"Ġà¦¬à¦²à¦ķ":7123,"Ġà¦²à¦²à¦¨":7124,"Ġà¦²à¦¬à¦Ļ":7125,"Ġà¦ĵà¦ªà¦¨":7126,"Ġà¦ĵà¦¨à¦¨":7127,"Ġà¦«à¦°à¦¹":7128,"Ġà¦ĸà¦¬":7129,"Ġà¦ĸà¦¨à¦ķ":7130,"âĢĶâĢĵ":7131,"ĠâĢĮ":7132,"Ġà¦ªà¦°à¦ľ":7133,"Ġà¦ªà¦°à¦£":7134,"Ġà¦ªà¦°à¦ªà¦ķ":7135,"à¦¾,-":7136,"à¦¾,âĢĶ":7137,"Ġà¦¸à¦®à¦ªà¦°":7138,"Ġà¦ĺà¦°à¦®":7139,"à¦¬à¦¨à¦ĸ":7140,"à¦¼à¦¿âĢĻ":7141,"à¦®à¦¨à¦¤à¦°":7142,"à§İà¦ªà¦²":7143,"à¦īà¦«":7144,"à¦īà¦¤à¦²":7145,"à¦īà¦ªà¦¯":7146,"à¦ľà¦¨à¦¯":7147,"à¦°à¦¬à¦£à¦ķ":7148,"à¦¤à¦°à¦¶":7149,"à¦ªà¦¨à¦¬":7150,"à¦ıà¦°à¦ĵ":7151,"à¦¬à¦°à¦ľ":7152,"Ġà¦Łà¦¨à¦ķ":7153,"à¦Ĩà¦°à¦ķ":7154,"à¦Ĩà¦ĩà¦¯":7155,"à¦Ĩà¦ªà¦¡":7156,"à¦Ĩà¦²à¦¸":7157,"Ġà¦īà¦łà¦ļ":7158,"Ġà¦ĩà¦«":7159,"Ġà¦ĩà¦ķà¦¨":7160,"Ġà¦ľà¦¨à¦ĩ":7161,"Ġà¦ľà¦¨à¦¬à¦¹":7162,"à¦¬à¦²à¦¸":7163,"à¦¬à¦²à¦ª":7164,"à¦¬à¦²à¦Ĺ":7165,"Ġà¦łà¦¨":7166,"à¦·à¦£à¦ª":7167,"Ġà¦ļà¦²à¦ķ":7168,"Ġà¦¬à¦¨à¦¨":7169,"Ġà¦¬à¦¨à¦ª":7170,"Ġà¦ħà¦¸à¦¬à¦°":7171,"Ġà¦Ĺà¦²à¦²":7172,"à¦ħà¦Ĺà¦£":7173,"à¦²à¦ķà¦Ĺ":7174,"à¦¬à¦¤à¦¸":7175,"Ġà¦Ĩà¦¨à¦¯":7176,"Ġà¦Ĩà¦¨à¦ļ":7177,"Ġà¦ıà¦²à¦ĩà¦¡":7178,"Ġà¦Ĩà¦¶à¦ķ":7179,"Ġà¦īà¦¦à¦Ń":7180,"Ġà¦¹à¦¤à¦¦à¦°":7181,"Ġà¦ħà¦¦à¦°":7182,"à¦¦à¦¨à¦¨à¦Ĺà¦°":7183,"Ġà¦¬à¦°à¦ĩ":7184,"à¦Ĺà¦²à¦ĵ":7185,"à¦Ĺà¦²à¦®à§Ł":7186,"Ġà¦¸à¦¨à¦ķ":7187,"à¦Ĺà¦¤à¦ĩ":7188,"à¦¹à¦¸à¦ĵ":7189,"Ġà¦īà¦ªà¦¢":7190,"à¦Ľà¦¨à¦Ł":7191,"à¦¨à¦¬à¦¶":7192,"à¦¨à¦¬à¦§à¦°":7193,"à¦²à¦¬à¦¶":7194,"à¦§à¦¨à¦¸":7195,"à¦ĩà¦²à¦ĸ":7196,"à¦ĩà¦²à¦Ĺ":7197,"Ġà¦ħà¦ªà¦¸à¦°":7198,"à¦®à¦²à¦Ń":7199,"à¦¹à¦°à¦ª":7200,"à¦ļà¦²à¦Ń":7201,"à¦ķà¦¬à¦ķ":7202,"à¦ĩà¦¨à¦²":7203,"à¦¼à§ĭâĢĶ":7204,"à¦¼à§ĭâĢĻ":7205,"Ġà¦¬à¦¹à¦°à¦®à¦ª":7206,"à¦¦à§Łà¦ĵ":7207,"à¦Ĺà¦¨à¦¸":7208,"à¦·à¦¤à¦¸":7209,"à¦¨à¦ķà¦·":7210,"à¦¶à¦¬à¦ķ":7211,"à¦¸à¦°à§İ":7212,"à¦ıà¦ķà¦¯":7213,"à§ĩ!âĢ¦":7214,"Ġà¦ħà¦¶à¦ķ":7215,"à¦ªà¦ķà¦¦":7216,"Ġà¦ĩà¦¨à¦Ńà¦²à¦Ń":7217,"Ġà¦ıà¦ķà¦¬à¦Ľà¦°":7218,"à§°à¦ĩ":7219,"à§°à¦¹à¦£":7220,"Ġà¦¸à¦®à§Łà¦ĵ":7221,"à¦¸à¦«à¦Łà¦ĵà¦¯":7222,"Ġà¦Īà¦Ļ":7223,"à¦¯à¦°à¦ļà¦¨":7224,"à¦¬à¦¯à¦ľ":7225,"à¦¯à¦¦à¦¶":7226,"à¦¨à¦¸à¦ķ":7227,"à¦¨à¦¸à¦ª":7228,"à¦¨à¦¸à¦¹":7229,"à¦¨à¦¸à¦¹à¦ķ":7230,"Ġà¦¨à¦¬à¦ļ":7231,"à¦¨à¦°à¦Ļ":7232,"Ġà¦Ĩà¦ªà¦Ĺ":7233,"à¦¼à§Ģ-":7234,"à¦ĩà¦Łà¦Ł":7235,"à¦ĩà¦Łà¦¹":7236,"à¦¯à¦¥à¦Ń":7237,"Ġà¦ķà¦·à¦²":7238,"Ġà¦¹à¦°à¦°":7239,"Ġà¦ķà¦¨à¦ľ":7240,"à¦Łà¦¨à¦Ĺà¦°":7241,"Ġà¦ķà¦²à¦ķà¦¬":7242,"à¦ªà¦£à¦ķ":7243,"Ġà¦Ĺà¦£à¦¬":7244,"Ġà¦Ĺà¦£à¦Ĩà¦¨":7245,"Ġà¦¬à¦īà¦¬":7246,"à¤ª":7247,"à¤¶":7248,"à¦ķà¦°à¦£à¦¯":7249,"Ġà¦Ĺà¦¹à¦¬à¦°":7250,"à¦¯à¦Ńà¦Ļ":7251,"à¦°à¦°à¦ļà¦¨":7252,"Ġà¦¸à¦°à¦²à¦®à¦¤":7253,"à¦·à§Łà¦¬à¦¸":7254,"Ġà¦ľà§Łà¦ľà§Łà¦ķ":7255,"à¦£à¦¬à¦§":7256,"à¦¦à¦ķà¦£":7257,"à¦¤à¦¸à¦ĩ":7258,"à§«à§«":7259,"ance":7260,"à§ªà§«":7261,"inal":7262,"Ġà¦Ĩà¦ļà¦°à¦£à¦ķ":7263,"Ġà¦Ĩà§Łà¦¶":7264,"à§¯à§¨":7265,"ret":7266,"à¦¶à¦Ĺà¦Ļ":7267,"Ġà¦ĸà¦°à¦ļà¦ĵ":7268,"à§¬à§Ń":7269,"Ġà¦Ĩà¦Łà¦ļ":7270,"à§®à§¬":7271,"Ġà¦Ķà¦°":7272,"Ġà¦Ŀà§ľà¦ķ":7273,"Ġà¦Ĩà¦ĩà¦¸à¦¬":7274,"ard":7275,"à¦¦à¦ªà¦¤à¦¨":7276,"à¦¸à¦ķà¦²à¦ĩ":7277,"à§ģà¦Ĥ-":7278,"ound":7279,"ould":7280,"à¦¼à§ĩâĢĶâĢĻ":7281,"ands":7282,"Ġfl":7283,"à¦ħà¦ªà¦²à¦ķ":7284,"à¦ħà¦ªà¦Ľà¦¨":7285,"Ġà§§à§¯à§Ńà§«":7286,"Ġà¦ļà¦°à¦£à¦§":7287,"Ġnow":7288,"ĠSoci":7289,"Ġà¦¨à¦ĵà¦ľ":7290,"à¦£à¦ļà¦ŀ":7291,"Ġà¤ī":7292,"Ġà¤Ĺ":7293,"Ġdo":7294,"ĠPintu":7295,"Ġà¦ĩà¦īà¦ıà¦¸à¦¬":7296,"à§§à§¯à§®":7297,"à¦¨à§Łà¦¨à¦ķ":7298,"use":7299,"usion":7300,"urav":7301,"à¦®à¦«à¦²à¦ķ":7302,"eth":7303,"ĠRo":7304,"ĠDi":7305,"Ġà¦ĸà§ľà¦Ĺ":7306,"Ġà¦ĸà§ľà¦ĸà§ľ":7307,"Ġà§§à§Ńà§«à§¬":7308,"Ġà§§à§Ńà§Ńà§®":7309,"Ġbec":7310,"Ġbeen":7311,"rah":7312,"Ġà¦¸à¦®à¦Ŀà¦¦":7313,"Â·Â·Â·âĢĻ":7314,"Ġnever":7315,"Ġà¦¬à¦°à¦ķà¦¤à¦īà¦²":7316,"Ġwere":7317,"Ġ****":7318,"Ġà¦°à¦¸à¦¬à¦¤":7319,"Ġà¦Ĭà¦¨à¦¸à¦¤":7320,"ĠâĢĶâĢĶâĢĶ-":7321,"Ġcould":7322,"Ġà¦Ĩà¦īà¦¸à¦¹":7323,"erson":7324,"ºçľºçľºçľºçľºçľºçľºçľºçľ":7325,"·çľ·çľ·çľ·çľ·çľ·çľ·çľ·çľ":7326,"Ġwork":7327,"Ġà§ªà§¦à§¦à§ª":7328,"Ġà¦Ĩà¦ĩà¦ķà¦¨":7329,"Ġà¦Łà¦ĩà¦Łà¦®":7330,"åĵį":7331,"Ġà¦°à¦Ĺà¦°à¦Ĺ":7332,",à¥¤":7333,".à¥¤":7334,"36":7335,"39":7336,"AD":7337,"AR":7338,"II":7339,"In":7340,"ai":7341,"az":7342,"cl":7343,"ec":7344,"eop":7345,"hin":7346,"oT":7347,"oat":7348,"sh":7349,"ster":7350,"the":7351,"uhin":7352,"ven":7353,"Ð¿":7354,"à¨":7355,"Ġê":7356,"Ġus":7357,"Ġour":7358,"à§ĩâĢĮ":7359,"à§įâĢ¦":7360,"à¦¿à§Ģ":7361,"à¦¨à¦¬à¦²":7362,"à¦¤à¦¤à¦¨":7363,"à¦¤à¦¸à¦®à¦¸":7364,"à¦²à¦ªà¦°":7365,"à¦²à¦¬à¦ª":7366,"à¦²à¦®à¦¯":7367,"à¦²à¦°à¦ķà¦®":7368,"à¦²à¦Łà¦¨":7369,"à¦²à¦ªà¦®":7370,"à¦²à¦¶à¦¯":7371,"à¦ķà¦°à¦®":7372,"à¦ķà¦¦à¦°":7373,"à¦ķà¦Ĺà¦¤":7374,"à¦ķà¦®à¦£":7375,"à¦ķà¦ªà¦¥":7376,"à¦ķà¦¨à¦Ł":7377,"à¦ķà¦¸à¦ª":7378,"à¦ķà¦¸à¦Ł":7379,"à¦¯à¦ĺ":7380,"à¦¯à¦Ńà¦¬":7381,"à¦¯à¦«à¦²":7382,"à¦¬à¦¬à¦²":7383,"à¦¬à¦®à¦¹":7384,"à¦¬à¦īà¦¯":7385,"à¦®à¦¸à¦Ļ":7386,"à¦®à¦ľà¦²":7387,"à¦®à¦ªà¦£":7388,"à¦®à¦ĺà¦¨":7389,"à¦¼),":7390,"Ġà¦ķà¦Ľ":7391,"Ġà¦ķà¦ĵà§Ł":7392,"Ġà¦ķà¦Łà¦¨":7393,"Ġà¦¬à¦¶à¦®":7394,"Ġà¦¸à¦°à¦¬à¦¤":7395,"à¥ĥ":7396,"Ġà¦ªà¦¦à¦°":7397,"Ġà¦Ĩà¦¦à¦¨":7398,"Ġà¦Ĩà¦¹à¦°":7399,"Ġà¦Ĩà¦ļà¦²":7400,"Ġà¦Ĩà¦Łà¦²":7401,"à¦¦à§°":7402,"à¦¦à¦Ńà¦°":7403,"à¦¦æĹ¥ãģ®":7404,"à¦Łà¦°à¦Ł":7405,"à¦Łà¦¬à¦ķ":7406,"à¦Łà¦ĺà¦°":7407,"Ġà¦¨à¦¹à¦°":7408,"Ġà¦¨à¦Łà¦°":7409,"Ġà¦¨à¦°à¦¹à¦°":7410,"Ġà¦¨à¦¬à¦¤à¦®":7411,"à¦ĩà¦ı":7412,"à¦ĩà¦¤à¦²":7413,"à¦ĩà¦¥à¦¨":7414,"à¦ªà¦®à¦²":7415,"à¦ªà¦¢":7416,"à¦ªà¦¹à¦¤":7417,"à§ĢâĢĻâĢĶ":7418,"à¦Ľà¦®à¦Ľà¦®":7419,"Ġà¦ıà¦ľà¦²":7420,"à¦ľà§İ":7421,"à¦ľà¦¤à¦²":7422,"à¦ĸà¦«":7423,"à¦ĸà¦ľà¦¨à¦ķ":7424,"à¦¼à§ĩâĢĿ":7425,"à¦Ĺà¦°à¦ĵ":7426,"à¦Ĺà¦¸à¦®":7427,"à¦Ĺà¦«à¦²":7428,"à¦Ĺà¦£à¦¨":7429,"à¦Ĺà¦ľà¦¨à¦ķ":7430,"à§Łà¦®à¦Ĺ":7431,"à¦·à¦ļà¦¨":7432,"à¦·à¦°à¦ĩ":7433,"à¦·à¦¸à¦ķ":7434,"à¦·à¦ĩà§Ł":7435,"à¦§à¦ĸ":7436,"à¦§à¦®à¦ķ":7437,"à¦§à¦ªà¦¤":7438,"à¦§à§°":7439,"à¦¡à¦¯":7440,"à¦¡à¦²à¦¸":7441,"à¦ļà¦Ĺà¦¤":7442,"Ġà¦ķà¦°à¦Ĺ":7443,"à¦¹à¦¡":7444,"à¦¹à¦²à¦ķ":7445,"Ġà¦Ĺà¦ľà¦¬":7446,"à¦ģà¥¤":7447,"à¦£à¦ªà¦¤":7448,"à¦£à¦¬à¦¯à¦ľ":7449,"à¦¥à¦ĸ":7450,"à¦¥à¦²à¦¨":7451,"à¦¥à¦¸à¦®":7452,"Ġà¦¶à§Ł":7453,"Ġà¦¶à¦ĵ":7454,"Ġà¦¶à¦¬à¦°":7455,"Ġà¦¶à§Łà¦¨":7456,"Ġà¦ļà§ľà¦ķ":7457,"Ġà¦Ńà§ľ":7458,"Ġà¦°à¦¸à¦ķà¦·":7459,"à¦ĵà¦¸":7460,"à¦Ńà¦²à¦ķ":7461,"Ġà¦ıà¦ķà¦ªà¦°":7462,"Ġà¦ıà¦ķà¦ıà¦ķà¦Ł":7463,"Ġà¦Ĩà¦®à¦¹":7464,"à¦¼à¦¾à¦ģ":7465,"à¦¼à¦¾?âĢĿ":7466,"à¦¼à¦¾à¦ĥà¥¤":7467,"Ġà¦īà¦Ń":7468,"Ġà¦īà¦Ľà¦²":7469,"Ġà¦¬à¦²à¦Ĺ":7470,"Ġà¦ĵà¦¸à¦®":7471,"Ġà¦ĸà¦ĩà§Ł":7472,"âĢĶà¥¤":7473,"à§ľà¦ľ":7474,"à¦°à¦¤à¦Ń":7475,"à¦¾à¥¤âĢĵ":7476,"à¦ĸà¦¨à¦ķ":7477,"Ġà¦¸à¦®à¦ª":7478,"Ġà¦¸à¦®à¦¦à¦°":7479,"à¦¬à¦¨à¦°à¦ķ":7480,"âĢĻ)":7481,"à¦¿à¥¤)":7482,"à¦Ŀà¦Ļ":7483,"Ġà¦ıà¦ĩà¦ľ":7484,"à§İà¦¶à¦ķ":7485,"à¦īà¦¬à¦²":7486,"à¦īà¦ªà¦¤":7487,"à¦īà¦ªà¦¹":7488,"à¦ľà¦¨à¦®à¦¤":7489,"à¦«à¦®":7490,"à¦«à¦ĵ":7491,"à¦«à¦°à¦®":7492,"à¦°à¦¬à¦ĵ":7493,"à¦°à¦¬à¦¤à¦®":7494,"Ġà¦Ĩà¦²à§Ł":7495,"à¦¬à¦°à¦®":7496,"à¦¬à¦°à¦®à¦¯":7497,"à¦¬à¦°à¦¸à¦Ń":7498,"à¦°à¦ķà¦¬":7499,"Ġà¦Łà¦¸à¦Ł":7500,"Ġà¦Łà§Łà¦²":7501,"à¦Ĩà¦¬à¦¦":7502,"à¦Ĩà¦ĩà¦ª":7503,"Ġà¦®à¦¤à¦¨à¦ĩ":7504,"à¦ĺà¦ªà¦¥":7505,"Ġà¦ĩà¦Ľ":7506,"Ġà¦ĩà¦¸à¦®":7507,"Ġà¦ĩà¦īà¦¡":7508,"Ġà¦ĩà¦Ńà¦¨":7509,"Ġà¦ĩà¦«à¦¤":7510,"Ġà¦ľà¦¨à¦¸à¦¨":7511,"à¦¬à¦²à¦¹":7512,"à¦¬à¦²à¦Ń":7513,"Ġà¦ıà¦¸à¦ıà¦¸à¦¸":7514,"à¦ķà¦²à¦¸":7515,"Ġà¦Ĺà¦²à¦¬":7516,"à¦¤à¦¨à¦¯":7517,"à¦ķà¦Łà¦Ĺ":7518,"à¦ħà¦²à¦¸":7519,"à¦ħà¦°à¦«":7520,"à¦ħà¦¹à¦®":7521,"à¦ħà¦ĸà¦£":7522,"à¦¸à¦¬à¦¦":7523,"à§ĭà¥¤âĢĵ":7524,"à§ĭà¥¤âĢ¦":7525,"à¦¬à¦¤à¦¤":7526,"à¦°à¦¸à¦¦":7527,"à¦¤à¦¬à¦¸":7528,"Ġà¦Ĩà¦¶à¦¯":7529,"à¦¾à¦ĤâĢĻ":7530,"Ġà¦¹à¦¤à¦ĩ":7531,"à¦¦à¦¨à¦®à¦¯":7532,"Ġà¦¬à¦°à¦ª":7533,"Ġà¦¬à¦°à¦Ĺ":7534,"à¦¨à¦ĵà¦ª":7535,"à¦¨à¦ĵà§Ł":7536,"Ġà¦ĺà¦°à¦ĩ":7537,"Ġà¦ĺà¦°à¦ĵ":7538,"à¦¿à¦Ĥ!âĢĿ":7539,"à§ĩâĢĶ?âĢĻ":7540,"à¦Ĺà¦²à¦®":7541,"Ġà¦ľà¦²à¦§à¦°":7542,"Ġà¦¸à¦°à¦¯":7543,"Ġà¦®à¦¹à¦¬":7544,"Ġà¦®à¦¹à¦°à¦®":7545,"à¦°à¦¹à¦®":7546,"à¦°à¦¶à¦®à¦¨":7547,"à¦¯à¦ķà¦¬":7548,"à¦°à¦²à¦¹à¦°":7549,"Ġà¦ķà¦²à¦®à¦ķ":7550,"à¦²à¦¬à¦ķ":7551,"à¦¶à¦¨à¦¸":7552,"Ġà¦Ĩà¦¤à¦¶":7553,"âĢ¦âĢ¦.":7554,"Ġà¦īà¦¤à¦·":7555,"à¦¸à¦¨à¦Ł":7556,"à¦ĩà¦¨à¦¹":7557,"à¦¾âĢĶâĢĿ":7558,"à¦¹à¦²à¦¦":7559,"à¦¹à¦²à¦Ł":7560,"à¦¼à§ĭ?":7561,"à¦Ńà¦¬à¦ªà¦°":7562,"à¦¦à§Łà¦ĩ":7563,"Ġà¦ķà¦®à¦ľ":7564,"à¦·à¦¤à¦®":7565,"à¦¬à¦¦à¦®":7566,"à§ģâĢĻâĢĶ":7567,"à§İà¦ķà¦£":7568,"à¦¤à¦ķà¦ķ":7569,"à¦¤à¦ķà¦¦":7570,"à¦®à¦£à¦ĩ":7571,"à¦®à¦£à¦ĵ":7572,"à¦·à¦ķà¦Ĺà¦£":7573,"à¦¯à¦®à¦ª":7574,"à¦ıà¦ķà¦«":7575,"à¦¤à¦®à¦¦":7576,"Ġà¦Ĳà¦Ł":7577,"Ġà¦Ĳà¦¸à¦¬":7578,"à¥¤âĢĻâĢĶ":7579,"à¥¤âĢĻâĢĻ":7580,"à¥¤âĢĻâĢĿ":7581,"Ġà¦ĩà¦¨à¦ª":7582,"à¦¬à¦ķà¦¨":7583,"à§ĩ;âĢĶ":7584,"Ġà¦¸à¦®à§Łà¦¹":7585,"à¦®à§Łà¦²":7586,"à§ĩâĢĵà¥¤":7587,"à§ĩâĢĵâĢĵ":7588,"Ġà¦Ĺà¦¤à¦ľà¦¨":7589,"à¦¨à¦Ĺà¦£":7590,"à¦°à¦Ĺà¦®à¦¨":7591,"Ġà¦īà§İà¦¸à¦®":7592,"à§¦à§Ń":7593,"à¦¦à¦®à¦ľ":7594,"Ġà¦¦à¦¶à¦Ĺ":7595,"à¦¼âĢĶâĢĺ":7596,"Ġà¦ķà¦²à¦ķà¦£":7597,"à¦®à¦¹à¦°à¦®":7598,"à¦®à¦¹à¦¨à¦¨":7599,"à¦¹à¦°à¦£à¦Ĺ":7600,"à¦¹à¦°à¦£à¦ĵ":7601,"Ġà¦¬à¦īà¦ĵ":7602,"à§ĩâĢ¦à¥¤âĢĻ":7603,"à¤Ń":7604,"à¦¦à¦¸à¦¹":7605,"à¦°à¦¬à¦²à¦¤à¦°":7606,"à¦®à¦ªà¦ŀ":7607,"à¦¸à¦¹à¦ļà¦°":7608,"à¦ļà§Łà¦ªà¦¤":7609,"Ġà¦ľà¦Ĺà¦¤à¦Ł":7610,"à§©à§¬":7611,"à§©à§¯":7612,"Ġà¦·à¦Ł":7613,"Ġà¦·à¦£":7614,"à¦¬à¦Łà¦¦":7615,"Ġà¦¨à¦°à¦ĵà¦¯":7616,"à¦Ĩà¦Ĺà¦¸":7617,"Ġà¦īà¦ªà¦¨à¦¯":7618,"Ġà¦Ĩà¦ļà¦°à¦£à¦¬":7619,"Ġà¦Ĩà¦ļà¦°à¦£à¦ĩ":7620,"à¦¬à¦ľà¦¨à¦¬":7621,"ree":7622,"reat":7623,"à¦¿âĢ¦?âĢĿ":7624,"à§ĩâĢĻ;":7625,"Ġà¦ļà¦°à¦®à¦Ń":7626,"à§Ńà§¦":7627,"à§Ńà§¬":7628,"à¦¤à¦ĸà¦¨à¦ķ":7629,"one":7630,"Ġà¦ĸà¦°à¦ļà¦Ł":7631,"Ġà¦²à§ľà¦¬":7632,"à¦Ĩà¦¶à¦Ļ":7633,"ends":7634,"Ġà¦°à¦¥à¦ļà¦ķ":7635,"ality":7636,"attle":7637,"Ġà¦Ńà¦Ĺà¦¬à¦Ĺà¦ŀ":7638,"Ġà¦Ĩà¦Łà¦ĺ":7639,"à§®à§Ń":7640,"à§ģâĢĶâĢĻ":7641,"Ġthese":7642,"Ġà¦ĩà¦Łà¦Ń":7643,"à¦£à¦¦à¦£":7644,"Ġwhen":7645,"Ġà§©à§ª":7646,"Ġà§©à§¦à§¦":7647,"Ġà¦ķà¦¦à§°":7648,"Ġsm":7649,"Ġsub":7650,"à¦īà¦¬à¦ĵà¦¯":7651,"à§Ģà¦Ĥ,":7652,"Ġbre":7653,"Ġmot":7654,"Ġfam":7655,"Ġother":7656,"à§·à§·":7657,"Ġà¦ļà¦°à¦£à¦¤à¦²":7658,"ĠSt":7659,"let":7660,"Ġà¤®":7661,"Ġà¤ľ":7662,"Ġà¦ķà¦¦à¦®à¦Ĺ":7663,"ĠPh":7664,"Ġà§§à§¨à§®à§®":7665,"ĠME":7666,"Ġlong":7667,"Ġliter":7668,"Ġlove":7669,"ĠTagore":7670,"ally":7671,"alluc":7672,"ural":7673,"Ġà§§à§¯à§ªà§¨":7674,"Ġthy":7675,"Ġà§§à§¯à§¯à§©":7676,"Ġà§§à§©à§«à§¦":7677,"Ġà§¦à§«":7678,"Ġà§¦à§®":7679,"Ġà¦°à¦ĵà¦¶à¦¨":7680,"ade":7681,"áĥĲ":7682,"à¦īà¦ªà¦²à¦¬":7683,"à¦Ńà§İà¦¸à¦¤":7684,"Ġà¦ķà¦°à¦¤à¦²à¦Ĺà¦¤":7685,"Ġref":7686,"Ġà¦¬à¦Ĺà¦²à¦¦":7687,"Ġà¦·à§ľà¦ĭà¦¤":7688,"Ø§Ø±":7689,"Ø§ÙĦ":7690,"Ġà¦ĸà¦¨à¦¨à¦ķ":7691,"Ġheart":7692,"à¦ıà¦®à¦ıà¦¸":7693,"Ġà§§à§¯à§©à§©":7694,"Ġà¦°à¦Ĺà¦ļà¦Ł":7695,"Ġtrans":7696,"Ġà¦«à¦¸à¦«à¦¸":7697,"Ġà§§à§¯à§§à§ª":7698,"à¦ĩà¦¨à¦«à¦°à¦®":7699,"Ġà¦¤à§İà¦¸à¦®":7700,"TION":7701,"port":7702,"ĠRupsha":7703,"ĠDetective":7704,"Ġà¦ĩà¦ķà¦¨à¦®":7705,"Ġà¦Łà¦¸à¦Łà¦¸":7706,"allucination":7707,"38":7708,"40":7709,"43":7710,"45":7711,"EN":7712,"Ode":7713,"],":7714,"]à¥¤":7715,"ail":7716,"co":7717,"col":7718,"den":7719,"ex":7720,"fore":7721,"hi":7722,"ja":7723,"jun":7724,"ject":7725,"lan":7726,"less":7727,"oc":7728,"ru":7729,"sy":7730,"uk":7731,"ved":7732,"wn":7733,"ym":7734,"¿½":7735,"Â°":7736,"Ð¼":7737,"Ùģ":7738,"Ùĩ":7739,"ï¿½":7740,"Ġ]":7741,"Ġ|":7742,"ĠÕ":7743,"Ġâ":7744,"Ġ!âĢĻ":7745,"Ġen":7746,"Ġver":7747,"Ġout":7748,"à§ĩà¦¾à¥¤":7749,"à§ĩà¦¾,":7750,"à¦¿)à¥¤":7751,"à¦¿à¥¥":7752,"à¦¿...âĢĿ":7753,"à¦¨à¦ļà¦¨":7754,"à¦¨à¦ĩà¦¨":7755,"à¦¤à¦¬à¦²":7756,"à¦¤à¦¸à¦Ļ":7757,"à¦¤à¦ľà¦²":7758,"à¦²à¦¬à¦¤":7759,"à¦²à¦ªà¦ķ":7760,"à¦²à¦®à§Ł":7761,"à¦ķà¦®à¦°":7762,"à¦ķà¦®à¦ª":7763,"à¦¯à¦¦à¦°":7764,"à¦¯à¦®à¦°":7765,"à¦¯à¦ľà¦¯":7766,"à¦¯à¦¹à¦®":7767,"à¦¯à¦ĸà¦£":7768,"à¦¬à§İà¦ķ":7769,"à¦¬à¦®à¦£":7770,"à¦¬à¦īà¦®":7771,"à¦®à¦ħà¦¨":7772,"à¦¼âĢ¦à¥¤":7773,"Ġà¦ķà¦ªà¦°":7774,"Ġà¦ķà¦ĵà¦¯":7775,"Ġà¦ķà¦¸à¦¬":7776,"Ġà¦ķà¦¸à¦°à§İ":7777,"Ġà¦¬à¦¦à¦¹":7778,"Ġà¦¸à¦ĩà¦¯":7779,"Ġà¦¸à¦§à¦¬":7780,"Ġà¦¸à§Łà¦²":7781,"Ġà¦¸à¦Īà¦¦":7782,"Ġà¦ªà¦ĩ":7783,"Ġà¦ªà¦¹à¦°":7784,"à¦¸à¦¬à¦²":7785,"à¦¸à¦ļà¦°":7786,"Ġà¦Ĩà§°":7787,"Ġà¦Ĩà¦īà¦°":7788,"à¦¦à¦°à¦¤":7789,"à¦¦à¦ķà¦¦":7790,"à¦Łà¦®à¦Łà¦®":7791,"Ġà¦¨à¦°à¦¬":7792,"Ġà¦¨à¦°à¦¦":7793,"Ġà¦¨à¦¨à¦¸":7794,"Ġà¦®à¦ķà¦°":7795,"Ġà¦®à¦¸à¦¨à¦¦":7796,"à¦ĩà¦®à¦¤":7797,"à¦ªà¦Ńà¦°":7798,"à§Ģà§ĩ":7799,"à¦Ľà¦ĵà¦¯":7800,"à¦Ľà¦ªà¦Ł":7801,"Ġà¦¤à¦ĸà¦²":7802,"Ġà¦ıà¦Ļ":7803,"Ġà¦ıà¦°à¦®à¦§":7804,"à¦ľà¦¬à¦°":7805,"à¦ľà¦¬à¦²":7806,"à¦ľà¦¯à¦¨":7807,"à¦ľà¦ĺà¦°":7808,"à¦ľà¦ķà¦¦":7809,"à¦¶à¦²à¦ķ":7810,"à¦¼à§ĩâĢĶâĢľ":7811,"Ġà¦ħà¦ĵ":7812,"Ġà¦ħà¦ĸà¦¨":7813,"à¦Ĺà¦°à¦¬":7814,"à¦Ĺà¦°à¦¸":7815,"à¦Ĺà¦®à¦¤":7816,"à¦Ĺà¦¸à¦¹":7817,"à§Łà¦ľ":7818,"à§Łà¦ĸ":7819,"à§Łà¦ľà¦¨à¦¦":7820,"à¦·à¦¤à¦°":7821,"à¦·à¦°à¦®":7822,"à¦·à¦¸à¦®":7823,"à¦§à¦Ĺà¦¤":7824,"à¦¡à¦¬à¦ª":7825,"à¦¡à§Łà¦¨":7826,"à¦¡à¦Ńà¦¨":7827,"à¦ļà¦°à¦¬":7828,"à¦ļà¦²à¦ķ":7829,"à¦ļà¦°à¦¦":7830,"à¦ļà¦ľà¦¨à¦ķ":7831,"à¦¹à¦®à¦§":7832,"à¦¹à¦²à¦¬à¦¶à¦¤":7833,"Ġà¦Ĺà§İ":7834,"Ġà¦Ĺà¦Łà¦Ĺ":7835,"Ġà¦¶à¦łà¦¤":7836,"Ġà¦ļà¦®à¦¤":7837,"Ġà¦ļà¦ĩà¦²":7838,"Ġà¦ļà¦°à¦ª":7839,"Ġà¦°à¦®à¦ľ":7840,"Ġà¦°à¦£à¦¬":7841,"à¦Ńà¦°à¦¦":7842,"à¦Ńà¦¸à¦¸":7843,"Ġà¦ıà¦ķà¦¶à¦Ł":7844,"Ġà¦Ľà¦ĩà¦¯":7845,"Ġà¦Ľà¦²à¦Ľ":7846,"à¦łà¦§":7847,"à¦łà¦²à¦Ĺ":7848,"à¦¼à¦¾!âĢĿ":7849,"Ġà¦īà¦Ľ":7850,"à¦Ĥ!":7851,"à¦Ĥ)":7852,"Ġà¦¬à¦²à¦¦à¦°":7853,"Ġà¦²à¦Łà¦¬":7854,"Ġà¦ĵà¦ĺà¦°":7855,"Ġà¦ĸà¦°à¦¦":7856,"Ġà¦ĸà¦¸à¦²":7857,"Ġà¦ĸà¦Ĺà¦®":7858,"à§ľà¦ª":7859,"à¦°à¦¤à¦ĵ":7860,"Ġà¦§à¦¨à¦¦":7861,"Ġà¦¸à¦®à¦°à¦¬":7862,"Ġà¦ĺà¦¨à¦ķ":7863,"Ġà¦ĺà¦°à¦ķà¦¨":7864,"à¦¬à¦¨à¦¨":7865,"à¦¬à¦¨à¦²":7866,"âĢĻ.":7867,"âĢĻà¥¤âĢĿ":7868,"à¦¼à¦¿à¥¤âĢĿ":7869,"à¦¼à¦¿?âĢĻ":7870,"à¦°à¦£à¦ľ":7871,"à¦¿à¥¤âĢĺ":7872,"à¦Ŀà¦ª":7873,"à¦īà¦°à¦¨":7874,"à¦īà¦²à¦Ĺ":7875,"à¦īà¦ªà¦¶":7876,"à¦īà§İà¦°":7877,"à¦«à¦Ŀà¦®":7878,"à¦°à¦¬à¦²à¦¤":7879,"à¦°à¦¬à¦¹à¦®":7880,"à¦¤à¦°à¦¥":7881,"à¦¤à¦°à¦ľà¦Ĺà¦¤":7882,"à¦ªà¦¨à¦¸":7883,"à¦ªà¦¨à¦Ł":7884,"à¦ªà¦¨à¦ĵ":7885,"à¦ıà¦¤à¦Ĺ":7886,"à¦ıà¦°à¦ªà¦°à¦ĩ":7887,"Ġà¦Ĩà¦²à¦¯":7888,"Ġà¦Ĩà¦²à¦®à¦ķ":7889,"Ġà¦Ĩà¦²à¦®à¦Ĺ":7890,"Ġà¦Ĩà¦²à¦¬à§İ":7891,"Ġà¦¸à¦¬à¦ķà¦¥":7892,"à¦Ĩà¦®à¦¨":7893,"à¦Ĩà¦°à¦¶":7894,"à¦Ĩà¦ĩà¦²":7895,"à¦Ĩà¦¸à¦ķ":7896,"à¦Ĩà¦¦à¦®":7897,"à¦Ĩà¦¹à¦¤":7898,"à¦Ĩà¦ĩà¦¡":7899,"ĠâĢĺâĢĶ":7900,"Ġà¦®à¦¤à¦ķ":7901,"Ġà¦Ĩà¦Ľà¦°":7902,"Ġà¦Ĩà¦Ľà¦¨":7903,"Ġà¦Ĩà¦Ľà¦²":7904,"à¦ĺà¦¤":7905,"à¦ĺà¦ĵ":7906,"Ġà¦ĩà¦¬à¦¨":7907,"Ġà¦ĩà¦¶à¦ķ":7908,"Ġà¦ĩà¦¹à¦ķ":7909,"Ġà¦ľà¦¨à¦ļ":7910,"Ġà¦Ŀà¦Ŀ":7911,"Ġà¦ªà¦¡à¦ķ":7912,"Ġà¦§à¦°à¦¨à¦Ł":7913,"à¦¬à¦²à¦¯":7914,"à§ģà¦ģ-":7915,"à§ģà¦ģà¦ģ":7916,"Ġà¦łà¦ķà¦¬":7917,"à¦¬à¦ªà¦Ł":7918,"à¦·à¦£à¦ľ":7919,"Ġà¦Ĩà¦Ĺà¦®à¦£":7920,"à¦ķà¦²à¦Ł":7921,"à¦ķà¦²à¦ĩ":7922,"Ġà¦ªà¦¥à¦ľ":7923,"Ġà¦ħà¦¸à¦®à¦°":7924,"Ġà¦ħà¦¸à¦«à¦²":7925,"à¦¤à¦¨à¦®":7926,"à¦ķà¦Łà¦®":7927,"à¦ķà¦Łà¦®à§Ł":7928,"à¦ķà¦°à¦ĸ":7929,"à¦ħà¦¸à¦¤":7930,"à¦ħà¦ªà¦¬":7931,"à¦²à¦ķà¦¥":7932,"Ġà¦Ĩà¦¨à¦®":7933,"Ġà¦Ĩà¦¨à¦ª":7934,"Ġà¦Ĩà¦¨à¦²à¦ķ":7935,"Ġà¦ħà¦°à¦ľ":7936,"à¦ķà¦¤à¦²":7937,"à¦°à¦¥à¦®à¦ľ":7938,"à¦°à¦¥à¦®à¦Ń":7939,"Ġà¦ħà¦¦à¦®à¦¨":7940,"Ġà¦ħà¦¦à¦²à¦¬":7941,"à¦¦à¦¨à¦°à¦¤":7942,"Ġà¦¬à¦°à¦²":7943,"Ġà¦¬à¦°à¦ĸ":7944,"à¦¿à¦Ĥ!âĢĻ":7945,"Ġà¦ľà¦²à¦¶":7946,"Ġà¦ľà¦²à¦Ĺ":7947,"Ġà¦¸à¦¨à¦¦à¦ªà¦¤":7948,"Ġà¦ħà¦Ńà¦ķ":7949,"Ġà¦®à¦¹à¦¨":7950,"à¦°à¦¹à¦¬":7951,"à¦°à¦¹à¦°à¦¤":7952,"à¦¨à¦¬à§İ":7953,"à¦¯à¦ķà¦¨":7954,"Ġà¦ķà¦²à¦¶":7955,"à¦²à¦¬à¦¸à¦¨":7956,"à¦²à¦¨à¦ª":7957,"à¦ĩà¦²à¦ĩ":7958,"à¦ĩà¦²à¦ª":7959,"à¦°à¦¦à¦¦":7960,"Ġà¦ħà¦ªà¦ļ":7961,"Ġà¦ħà¦ªà¦¶à¦ķ":7962,"Ġà¦¸à¦¹à¦®":7963,"âĢ¦?âĢĻ":7964,"à¦ķà¦¬à¦ĩ":7965,"à¦°à¦¯à¦ľ":7966,"à¦¸à¦¨à¦ļ":7967,"à¦ĩà¦¨à¦¡":7968,"à¦¹à¦²à¦®à§Ł":7969,"à¦¼à§ĭ!":7970,"à§İà¦¸à¦ķà¦°":7971,"à¦¿?âĢĶ":7972,"Ġà¦¨à§Łà¦Ł":7973,"Ġà¦°à¦Ļà¦Ĺ":7974,"Ġà¦°à¦Ļà¦¹":7975,"à¦¦à§Łà¦ľ":7976,"à¦¦à§Łà¦Ĺ":7977,"Ġà¦ªà¦¦à¦¦":7978,"à¦¬à¦¦à¦®à¦¨":7979,"à¦®à¦£à¦ķà¦¨":7980,"à¦°à¦ªà¦¤à¦¨":7981,"à¦¦à¦²à¦Ł":7982,"à¦¦à¦²à¦ª":7983,"à¦¬à¦¸à¦®à¦ķ":7984,"Ġà¦«à¦²à¦²":7985,"Ġà¦Ĳà¦ļ":7986,"à¦ªà¦ķà¦¨":7987,"Ġà¦ıà¦ķà¦¦à¦£":7988,"à¦®à¦¬à¦¡":7989,"à§°à¦ª":7990,"à§°à¦§":7991,"à¦ľà¦²à¦¸":7992,"à¦ħà¦¨à¦Ļ":7993,"à§ģà¥¤âĢĵ":7994,"Ġà¦Ĩà¦§à¦®à¦°":7995,"à¦¹à¦¨à¦²":7996,"à¦¸à¦«à§ľ":7997,"Ġà¦Īà¦·à¦¦":7998,"à¦¯à¦°à¦Ļ":7999,"Ġ(!)":8000,"à§ĩâĢĵ!":8001,"à¦¸à¦ķà¦Ĺ":8002,"à¦¸à¦ķà¦¦à¦²":8003,"à¦¼à§ģâĢĶ":8004,"Ġà¦¬à§ľà¦¬":8005,"Ġà¦¬à§ľà¦¶":8006,"Ġà¦¬à¦ķà¦ļ":8007,"à¦¾âĢĻ;":8008,"Ġà¦ªà¦²à¦¸":8009,"à¦¾âĢĵà¥¤":8010,"à¦¦à¦®à¦Ĺ":8011,"Ġà¦ķà¦¨à¦¡":8012,"Ġà¦ķà¦¨à¦Ńà¦¯":8013,"Ġà¦Ĩà¦Ńà¦°à¦£":8014,"à¦ªà¦£à¦¨":8015,"Ġà¦¨à¦°à¦®à¦¤":8016,"à¦²à¦Ĺà¦ŀ":8017,"Ġà¦§à¦¨à¦ªà¦¤":8018,"Ġà¦ħà¦Łà¦²à¦Ń":8019,"à¦¶à¦²à¦ĵ":8020,"à¦¬à¦ĩà¦Ĺ":8021,"à¤¼":8022,"à¦ķà¦¸à¦Ń":8023,"Ġà¦Ĺà¦°à¦®à¦ķ":8024,"à¦¤à¦ªà¦ŀ":8025,"à¦ķà¦ľà¦¨à¦ĩ":8026,"à¦¥à¦²à¦ªà¦¦":8027,"à¦¿à¥¤âĢĻâĢĿ":8028,"Ġtold":8029,"à¦¨à¦ªà¦¤à¦¨":8030,"à¦¿âĢĻ;":8031,"Ġà¦ıà¦°à¦ķà¦®à¦Ł":8032,"Ġà¦ıà¦°à¦ķà¦®à¦Ń":8033,"à¦¨à¦ļà¦£":8034,"à¦¾âĢ¦.":8035,"ins":8036,"Ġà¦¶à¦ªà¦¥à¦¬":8037,"Ġà¦Ĩà¦ļà¦°à¦£à¦Ł":8038,"à¦Īà¦¨":8039,"Ġà¦ľà¦Ĺà§İà¦¸":8040,"à¦¸à¦Ńà¦¬à¦¨":8041,"alc":8042,"ale":8043,"alf":8044,"à§¬à§®":8045,"ital":8046,"à¦¾!âĢĿâĢĶ":8047,"Ġà¦¨à¦Ĺà¦°à¦ķ":8048,"Ġwhere":8049,"Ġwould":8050,"Ġà§©à§¨":8051,"Ġà§©à§©":8052,"Ġà§©à§®":8053,"Ġà¦Ńà¦°à¦¤à¦®":8054,"à¦ļà¦®à§İà¦ķ":8055,"Ġsh":8056,"à¦īà¦¬à¦Ĺ":8057,"à¦īà¦¬à¦ĵà§Ł":8058,"Ġcur":8059,"Ġà¦¨à¦°à¦ķà¦ķ":8060,"esc":8061,"Ġbet":8062,"à¦ĩà¦«à¦¸":8063,"à¦ĩà¦«à¦°à¦®":8064,"à¦ľà¦¦à¦°à¦¬":8065,"Ġfe":8066,"Ġfur":8067,"Ġà§§à§¯à§Ńà§¦":8068,"Ġà§§à§¯à§Ńà§¨":8069,"à¦¤à¦ļà¦°à¦¬":8070,"Ġà¦ĺà¦·à¦²":8071,"Ġà¦ĺà¦·à¦Ľ":8072,"Ġpr":8073,"omb":8074,"ict":8075,"ĠInt":8076,"Ġà¤¹":8077,"Ġdr":8078,"Ġdy":8079,"Ġhalf":8080,"Ġà§«à§¦à§¦":8081,"à¦¼à¦¿à¦Ĥà¥¤":8082,"ĠAn":8083,"ĠAyan":8084,"ions":8085,"ĠPro":8086,"à§ľà¦²à¦£":8087,"Ġà§§à§¨à§¯à§§":8088,"rop":8089,"à¦¶à¦Ĺà¦¤à¦Ń":8090,"à¦£à¦¸à¦ŀ":8091,"à¦īà¦łà¦¬":8092,"ury":8093,"ames":8094,"Ġà§§à§¯à§ªà§®":8095,"Ġthan":8096,"Ġà¦®à¦¤à¦²à¦¬à¦Ł":8097,"Ġà§¦à§¯":8098,"Ġà§§à§Ńà§«à§Ń":8099,"Ġà¦¸à¦²à¦®à¦¨":8100,"ident":8101,"irit":8102,"irst":8103,"ĠLond":8104,"Ġres":8105,"Ġreal":8106,"ations":8107,"ï»¿âĢĻ":8108,"Ġà¦®à¦¦à¦¨à¦®":8109,"Ġà¦ľà¦¹à¦°à¦¤":8110,"Ġà§§à§¯à§®à§Ń":8111,"opt":8112,"Ġhere":8113,"à¦ľà¦°à¦£à¦®à§Ł":8114,"Ġstip":8115,"Ġà§§à§¯à§©à§¨":8116,"Ġà§§à§¯à§©à§®":8117,"ĠØª":8118,"à¦®à§İà¦²":8119,"ĠÐ¿":8120,"Ġits":8121,"à¦¦à¦ļà§Łà¦¨":8122,"able":8123,"istory":8124,"ĠYou":8125,"Ġà§§à§¯à§¨à§§":8126,"Ġà§§à§¯à§¨à§¯":8127,"à¤¹à¤°":8128,"à¦Ķà¦¦":8129,"ugg":8130,"ized":8131,"ÂŃÂŃÂŃÂŃÂŃÂŃÂŃÂŃÂŃÂŃÂŃÂŃÂŃÂŃÂŃÂŃ":8132,"ĠBeauty":8133,"×Ļ×":8134,"Ġà¦¨à¦°à¦ªà¦¶":8135,"áĥĺáĥ":8136,"ledge":8137,"Ġà¦ħà¦¬à§Łà¦¬à¦¹":8138,"ĠSociety":8139,"ĠDiya":8140,"áĥĲáĥ":8141,"Ġà¦¬à¦¦à¦¹à¦ľà¦®":8142,"Ġà¦Ĺà¦Łà¦Ĺà¦Ł":8143,"Ġà¦ħà¦¦à¦²à¦¬à¦¦à¦²":8144,"ĠLondon":8145,"Ġstipends":8146,"42":8147,"44":8148,"AL":8149,"ATION":8150,"Fi":8151,"GO":8152,"IoT":8153,"aug":8154,"ga":8155,"iat":8156,"ious":8157,"ls":8158,"les":8159,"ric":8160,"ring":8161,"rish":8162,"rough":8163,"ten":8164,"tain":8165,"vas":8166,"way":8167,"£áĥ":8168,"Â¤":8169,"Ã¡":8170,"Ð´":8171,"ÑĮ":8172,"Ø¯":8173,"ÙĲ":8174,"à±":8175,"Ġ/":8176,"ĠX":8177,"ĠZ":8178,"Ġent":8179,"Ġra":8180,"Ġill":8181,"Ġess":8182,"Ġup":8183,"à¦¾..":8184,"à§ĩà§į":8185,"à¦°à¦°à¦¶":8186,"à¦°à¦ļà¦ķ":8187,"à§įà¥¤âĢĻ":8188,"à¦¿à§į":8189,"à¦¿..":8190,"à¦¨à§ľ":8191,"à¦¨à¦Ĺà¦²":8192,"à¦¨à¦®à¦²":8193,"à¦¤à¦ł":8194,"à¦¤à¦ĵà¦¯":8195,"à¦¤à¦¹à¦¤":8196,"à¦¤à¦·à¦Ł":8197,"à¦²à¦¸à¦¬":8198,"à¦²à¦ªà¦Ł":8199,"à¦²à¦īà¦¦":8200,"à¦ķà¦·à¦£":8201,"à¦ķà¦¶à¦ķ":8202,"à¦ķà¦ľà¦¬":8203,"à§ģâĢĮ":8204,"à¦¯à¦Ľ":8205,"à¦¯à¦²à¦ķ":8206,"à¦¯à¦§à¦¨":8207,"à¦¯à¦¦à§Ł":8208,"à¦¯à¦¶à¦¬":8209,"à¦¬à¦Ĺà¦²":8210,"à¦¬à¦®à¦¸":8211,"à¦¬à¦īà¦Ł":8212,"à¦®à¦¢":8213,"à¦®à§°":8214,"à¦®à¦Ĺà¦ľ":8215,"à¦®à¦Ńà¦°":8216,"à¦®à¦·à¦ª":8217,"à¦¼âĢĻ-":8218,"à¦¼âĢĿâĢĶ":8219,"Ġà¦ķà¦¦à¦²":8220,"Ġà¦ķà¦ĩà¦¬":8221,"à§ĭ...":8222,"à§ĭ...âĢĿ":8223,"Ġà¦¬à¦¨à¦¤":8224,"Ġà¦¬à¦¢":8225,"Ġà¦¬à¦ĸà¦°":8226,"Ġà¦¬à¦°à¦¬à¦°":8227,"Ġà¦¸à§İà¦¸":8228,"Ġà¦¸à¦¸à¦ª":8229,"Ġà¦¸à¦¶à¦Ļ":8230,"Ġà¦¸à§İà¦¸à¦Ļ":8231,"à¥¤\"":8232,"Ġà¦ªà¦Ĺ":8233,"à¦¸à§İà¦ķ":8234,"à¦¸à¦ļà¦ķ":8235,"à¦¸à§°":8236,"à¦¸à¦¨à¦¤à¦¨":8237,"Ġà¦Ĩà¦ļà¦ķ":8238,"Ġà¦Ĩà¦īà¦¡":8239,"à¦¦à¦²à¦ķ":8240,"à¦¦à¦ªà¦¦":8241,"à¦¦à¦¤à¦²":8242,"à¦Łà¦°à¦¦":8243,"à¦Łà¦°à¦ĵ":8244,"à¦Łà¦¬à¦¸":8245,"à¦Łà¦Ńà¦°":8246,"à¦Łà¦®à¦¡":8247,"Ġà¦¨à¦¬à¦¤":8248,"Ġà¦¨à¦°à¦¹à¦¤":8249,"Ġà¦®à¦°à¦ľ":8250,"Ġà¦®à¦Ĺà¦¨":8251,"à¦ĩà¦²à¦¨":8252,"à¦ĩà¦«à¦²":8253,"à¦ĩà¦ªà¦²":8254,"à¦ĩà¦ľà¦Ł":8255,"à¦ĩà¦¶à¦Ł":8256,"à¦ªà¦°à¦¤":8257,"à¦ªà¦ķà¦Ł":8258,"à¦ªà¦¸à¦¨":8259,"à¦ªà¦ľà¦²":8260,"à¦ªà¦£à¦¤":8261,"à§ĢâĢĿâĢĶ":8262,"Ġà¦¦à¦¦à¦°":8263,"Ġà¦ıà¦£":8264,"Ġà¦ıà¦¨à¦Ł":8265,"Ġà¦¹à¦Ĺ":8266,"Ġà¦¹à¦«à¦®":8267,"à¦ľà¦Ĺà¦¨":8268,"à¦ľà¦®à¦°":8269,"à¦ľà¦ĺà¦¨":8270,"à¦¶à¦¸à¦®":8271,"à¦¶à¦Ńà¦°":8272,"à¦ĸà¦Ŀ":8273,"âĢĭ":8274,"Ġà¦ħà¦°à¦¸":8275,"Ġà¦ħà¦Ĺà¦¨":8276,"Ġà¦ħà¦¹à¦¨":8277,"à¦Ĺà¦ľà¦¨":8278,"à¦Ĺà¦¬à¦¦":8279,"à¦Ĺà¦®à¦£":8280,"à¦Ĺà¦łà¦ķ":8281,"à§Łà¦¸à¦Ļ":8282,"à¦·à¦Ĺà¦£":8283,"Ġà¦¯à¦®à¦²":8284,"Ġà¦¯à¦®à¦°":8285,"Ġà¦¯à§İà¦ªà¦°":8286,"à¦§à§ľ":8287,"à¦§à¦°à¦¦":8288,"à¦§à¦ªà¦¥":8289,"à¦¡à¦²à¦Ł":8290,"à¦ļà¦¹":8291,"à¦ļà¦°à¦ķ":8292,"à¦ļà¦°à¦¨":8293,"à¦ļà¦ªà¦¦":8294,"à¦ļà§°":8295,"à¦¹à¦°à¦¬":8296,"à¦¹à¦ľà¦¨à¦ķà¦Ń":8297,"Ġà¦Ĺà¦¬à¦°":8298,"à¦ģ,":8299,"à¦£à¦®à¦¨":8300,"à¦£à¦ªà¦¨":8301,"à¦£à¦ļà¦¨":8302,"à¦£à¦ķà¦¥":8303,"à¦¥à¦ľà¦¨":8304,"à¦¥à¦°à¦ĵ":8305,"Ġà¦¶à¦¤à¦°à¦Ļ":8306,"Ġà¦ľà¦ł":8307,"Ġà¦ľà¦Ĺà¦ľ":8308,"Ġà¦Ńà¦ľà¦®":8309,"Ġà¦°à¦¸à¦®":8310,"Ġà¦°à¦Łà¦²":8311,"Ġà¦°à¦Ĺà§ľ":8312,"à¦ĵà¦«":8313,"à¦ĵà¦°à¦ķà¦®":8314,"à§ĩà¥¤\"":8315,"à§ĩà¥¤[":8316,"à§ĩà¥¤âĢľ":8317,"Ġà¦ıà¦ķà¦¡":8318,"Ġà¦ıà¦ķà¦ķà¦Ń":8319,"Ġà¦Ĩà¦®à¦Ł":8320,"à¦łà¦ł":8321,"à¦łà¦¨à¦ķ":8322,"Ġà¦īà¦ĩà§Ł":8323,"à¦Ĥ/":8324,"à¦Ļà¦Ł":8325,"Ġà¦Ĩà¦°à¦Ń":8326,"Ġà¦²à¦ĩà¦Ľ":8327,"Ġà¦²à¦ĩà§Ł":8328,"Ġà¦²à¦ķà¦¬à¦ķ":8329,"Ġà¦ĵà¦«":8330,"Ġà¦ĵà¦ľà¦°":8331,"Ġà¦ĸà§İà¦¨":8332,"âĢĶ\"":8333,"à¦°à¦¤à¦¸":8334,"à¦°à¦¤à¦ĩ":8335,"à¦°à¦¤à¦ª":8336,"à¦°à¦¤à¦ķà¦°":8337,"Ġà¦ħà¦¨à¦¬à¦§":8338,"à¦¾à¥¤..":8339,"ĠâĢŀ":8340,"Ġà¦ªà¦°à¦ľà¦¨":8341,"Ġà¦¸à¦®à¦ªà¦¦":8342,"Ġà¦¸à¦®à¦®à¦°":8343,"âĢĻâĢ¦":8344,"à¦¼à¦¿!âĢĿ":8345,"Ġà¦®à¦¨à¦¶":8346,"Ġà¦®à¦¨à¦¨à¦¯":8347,"à¦®à¦¨à¦®":8348,"à¦ªà¦°à¦ªà¦°":8349,"à¦ªà¦°à¦®à¦£":8350,"à¦ªà¦°à¦¬à¦¶":8351,"à¦Ŀà¦Ĺà¦¡":8352,"Ġà¦ıà¦ĩà¦¸":8353,"à§İà¦«":8354,"à¦īà¦ĩà¦²":8355,"à¦īà¦ªà¦¦":8356,"à¦«à¦¥":8357,"à¦°à¦¬à¦¯":8358,"à¦°à¦¬à¦°à¦£":8359,"à¦°à¦¬à¦¦à¦¨":8360,"à¦ıà¦¶":8361,"à¦ıà¦ķà¦°":8362,"à¦ıà¦¨à¦ķ":8363,"à¦¬à¦°à¦Ļ":8364,"Ġà¦Łà¦¬à¦Ĺ":8365,"Ġà¦Łuhin":8366,"à¦Ĩà¦°à¦¤":8367,"à¦Ĩà¦«":8368,"à¦Ĩà¦ĵà¦¯":8369,"à¦Ĩà¦°à¦¨":8370,"à¦Ĩà¦²à¦¬":8371,"à§Į?":8372,"Ġà¦¹à¦²à¦ĩ":8373,"à¦ĺà¦¯":8374,"à¦ĺà¦¦à¦°":8375,"à¦ĺà¦¢":8376,"Ġà¦ĩà¦¸à¦°":8377,"Ġà¦ĩà¦īà¦ľ":8378,"Ġà¦ĩà¦īà¦¸":8379,"Ġà¦ľà¦¨à¦°":8380,"Ġà¦ľà¦¨à¦¬à¦¸à¦¤":8381,"Ġà¦Ŀà¦ķà¦®":8382,"à§ĪâĢĵ":8383,"à¦¼à¥¤âĢĶâĢĻ":8384,"Ġà¦ıà¦¬à¦®":8385,"à¦¬à¦²à¦ļ":8386,"à¦¬à¦²à¦¤à¦®":8387,"Ġà¦łà¦Ĺ":8388,"à¦¬à¦ªà¦£":8389,"Ġà¦ıà¦¸à¦ıà¦®à¦ıà¦¸":8390,"à¦°à¦®à¦ŀ":8391,"à¦ĥâĢĻ":8392,"Ġà¦¢à¦ª":8393,"Ġà¦Ĩà¦Ĺà¦°à¦¤à¦²":8394,"à¦ķà¦²à¦¬":8395,"à¦ķà¦Łà¦ĩ":8396,"à¦ķà¦°à¦Ĺ":8397,"à§ĭ,âĢĻ":8398,"à¦ħà¦¡":8399,"à¦ħà¦ªà¦¤":8400,"à¦ħà¦§à¦®":8401,"à¦ħà¦¨à¦¬à¦¦":8402,"à¦°à¦¥à¦ª":8403,"Ġà¦ħà¦®à¦²à¦ķ":8404,"à¦¬à¦¤à¦ª":8405,"à¦¬à¦¤à¦ļ":8406,"à¦°à¦¨à¦®":8407,"à¦°à¦¨à¦Ł":8408,"Ġà¦Ĩà¦¨à¦°":8409,"Ġà¦Ĩà¦¨à¦ıà¦ķ":8410,"à¦°à¦¸à¦ľ":8411,"à¦°à¦¸à¦°à¦®":8412,"à¦¤à¦¬à¦ĩ":8413,"Ġà¦ıà¦²à¦Ĺ":8414,"Ġà¦ıà¦²à¦Ĺà¦°":8415,"Ġà¦Ĩà¦¶à¦°à¦«":8416,"à¦¨à¦ĵà¦¨":8417,"Ġà¦ĺà¦°à¦ª":8418,"à¦¿à¦Ĥ)":8419,"à¦Ĺà¦²à¦ļ":8420,"à¦Ĺà¦²à¦ļà¦ķ":8421,"Ġà¦ľà¦²à¦¤":8422,"Ġà¦ľà¦²à¦ľà¦¨":8423,"Ġà¦ħà¦Ńà¦¬":8424,"Ġà¦®à¦¹à¦¦":8425,"à¦Ĺà¦¤à¦¦":8426,"à¦°à¦¹à¦Ļ":8427,"à¦®à¦¤à¦ĵ":8428,"Ġà¦ķà¦°à¦¬à¦ĩ":8429,"Ġà¦ķà¦¬à¦·à¦®":8430,"Ġà¦īà¦ªà¦Ľ":8431,"à¦°à¦ľà¦®":8432,"à¦¨à¦¬à¦Ľà¦°":8433,"à¦°à¦¶à¦¨":8434,"à¦°à¦¶à¦¤":8435,"à¦ĸà¦²à¦Ń":8436,"à¦¯à¦ķà¦Ń":8437,"à¦°à¦²à¦¸à¦Ń":8438,"Ġà¦ķà¦²à¦¨":8439,"Ġà¦ķà¦²à¦ľ":8440,"à¦²à¦¬à¦°à¦£":8441,"à¦²à¦¬à¦¦à¦¨":8442,"à¦²à¦¨à¦¦":8443,"à¦²à¦¨à¦¹":8444,"à¦²à¦¨à¦ķà¦°":8445,"à§ĩ-âĢĺ":8446,"à¦§à¦¨à¦ª":8447,"Ġà¦ħà¦ªà¦¯":8448,"à¦¶à¦¨à¦®":8449,"à¦¶à¦¨à¦ª":8450,"Ġà¦ıà¦¤à¦¸à¦¬":8451,"âĢ¦âĢĻà¥¤":8452,"à¦ķà¦¬à¦¦à¦²":8453,"à¦ªà¦¦à¦¶":8454,"à¦ªà¦¦à¦¸à¦Ļ":8455,"à¦¸à¦¨à¦¸":8456,"à¦¸à¦¨à¦Ĺ":8457,"à¦¸à¦¨à¦ªà¦¤":8458,"à¦ĩà¦¨à¦ľ":8459,"Ġà¦ħà¦ļà¦²à¦¤":8460,"à¦ıà¦ĩà¦Ĺ":8461,"à¦ıà¦ĩà¦¸à¦¬à¦ĩ":8462,"à§Ģ,âĢĻ":8463,"à¦¹à¦²à¦ĩ":8464,"à¦¹à¦²à¦ª":8465,"à§İà¦¸à¦®":8466,"Ġà¦¨à§Łà¦ķ":8467,"à¦¦à§Łà¦ª":8468,"à¦¤à¦²à¦ª":8469,"Ġà¦¯à¦¤à¦¸à¦¬":8470,"Ġà¦¯à¦¤Åĵ":8471,"Ġà¦¬à¦ĩà¦ªà¦¡":8472,"à¦°à¦ĵà¦°à¦ĩ":8473,"à¦·à¦¤à¦ĩ":8474,"à¦¨à¦ķà¦¥":8475,"à¦¨à¦ķà¦°à¦£":8476,"Ġà¦¬à¦Ľà¦°à¦Ł":8477,"à¦®à¦£à¦¸":8478,"à¦®à¦£à¦Ń":8479,"Ġà¦ħà¦Ĺà¦¸":8480,"âĢĮâĢĮ":8481,"à¦¸à¦°à¦·":8482,"à¦¯à¦®à¦¹":8483,"à§įâĢĮâĢĵ":8484,"à§įâĢĮâĢ¦":8485,"à¦ıà¦ķà¦°à¦ķà¦®":8486,"à¦¬à¦¸à¦Ļ":8487,"à¦¤à¦®à¦¸":8488,"Ġà¦ħà¦²à¦¸à¦Ń":8489,"à¦°à¦Ńà¦ķ":8490,"Ġà¦ħà¦¶à¦¥":8491,"Ġà¦Ĳà¦¯":8492,"à¦¶à¦ķà¦ĵ":8493,"à§Łà¦¨à¦¶":8494,"Ġà¦ĩà¦¨à¦«à¦°":8495,"à¦°à¦ķà¦®à¦Ń":8496,"à§°à¦ļ":8497,"à¦ľà¦²à¦®":8498,"à¦ľà¦²à¦ļà¦ķ":8499,"?âĢĻ-":8500,"Ġà¦Ĩà¦§à¦²":8501,"Ġà¦Ĩà¦§à¦¸":8502,"Ġà¦Ĩà¦§à¦¶":8503,"Ġà¦Ĩà¦§à¦®à¦¯":8504,"Ġà¦Ĩà¦§à¦ĺà¦¨":8505,"à¦¹à¦¨à¦¦":8506,"à¦¹à¦¨à¦ª":8507,"Ġà¦Ńà¦¬à¦Ń":8508,"à¦®à§Łà¦¦":8509,"Ġà¦Ĩà¦ļà¦®à¦¨":8510,"à¦¾!âĢĶ":8511,"Ġà¦īà¦²à¦«":8512,"Ġà¦Ĺà¦¤à¦¯":8513,"Ġà¦īà§İà¦¸à¦¬à¦ĩ":8514,"à¦¨à¦Ĺà¦®":8515,"Ġà¦Ĩà¦¹à¦¤à¦¦":8516,"Ġà¦¨à¦¬à¦Ĺ":8517,"Ġà¦¦à¦²à¦ĩ":8518,"à¦ªà¦¸à¦ª":8519,"Ġà¦ļà¦ķà¦®":8520,"à¦¼à§Ģ?":8521,"Ġà¦ĺà¦¨à¦¶":8522,"Ġà¦ĺà¦¨à¦ĺ":8523,"à¦Łà¦°à¦°":8524,"Ġà¦ķà¦·à¦Ľ":8525,"à¦®à¦¸à¦¹":8526,"Ġà¦¬à¦Łà¦®":8527,"à¦Ĩà¦°à¦Ĩà¦ĩ":8528,"à¦°à¦®à¦£à¦¸à¦Ļ":8529,"à¦Ĺà¦¬à¦§":8530,"à¦ľà¦¬à¦ªà¦¨":8531,"à¦¿!)":8532,"Ġà¦§à¦¨à¦§":8533,"à¦¹à¦°à¦£à¦ĩ":8534,"à¦¨à¦Ńà¦¨":8535,"à¦¾à¥¤âĢĻâĢĻ":8536,"à¦¿âĢĵâĢĵ":8537,"Ġà¦¨à¦ľà¦°à¦¬à¦¨":8538,"à¦¼à¦Ĥ,":8539,"Ġà¦¬à¦īà¦Ŀ":8540,"à§ĩâĢ¦âĢ¦":8541,"à¦®à¦¶à¦°à¦£":8542,"à¦ķà¦¶à¦¤":8543,"à¤§":8544,"à¤ģ":8545,"à¤ł":8546,"Ġà¦¶à¦¹à¦°à¦®à§Ł":8547,"à¦®à¦ľà¦¡":8548,"à¦®à¦¦à¦ª":8549,"Ġà¦ķà§Łà¦Ł":8550,"à¦ļà¦°à¦£à¦¶":8551,"à¦ļà¦°à¦£à¦ĵ":8552,"à¦°à¦«à§İ":8553,"à¦¤à¦ªà¦²":8554,"à¦ķà¦Ĺà¦ŀ":8555,"à¦ĩà¦Ńà¦¸":8556,"à¦ķà¦ľà¦¨à¦¦":8557,"à¦·à§Łà¦Ń":8558,"à¦¬à¦¹à¦Ń":8559,"Ġà¦ľà§Łà¦®":8560,"à¦¨à¦¶à¦Ł":8561,"à¦ļà§Łà¦¹":8562,"Ġà¦ķà¦²à¦®à¦ĩ":8563,"Ġà¦ķà¦²à¦®à¦ĵ":8564,"à¦¿âĢĻ!":8565,"à¦Ĩà¦ķà¦¬à¦°":8566,"à¦¬à¦Łà¦Ł":8567,"Ġà¦Ĩà¦ĩà¦¨à¦¸à¦Ļ":8568,"à§«à§¨":8569,"à§«à§§":8570,"any":8571,"à¦¾âĢ¦à¥¤âĢĿ":8572,"à§ĩ!âĢĿâĢĶ":8573,"à¦¶à¦¤à¦§à¦¨":8574,"Ġà¦¸à§İà¦®":8575,"Ġà¦¶à¦ªà¦¥à¦Ĺ":8576,"Ġà¦Ĩà¦ļà¦°à¦£à¦ĵ":8577,"à¦¬à¦ľà¦¨à¦°":8578,"à¦¬à¦ľà¦¨à¦¹":8579,"read":8580,"Ġà¦Ĩà¦«à¦°":8581,"à¦¬à§Łà¦ĩ":8582,"à¦¬à¦°à¦¤à¦ª":8583,"à§Ńà§©":8584,"Ġà¦ľà¦Ĺà¦Ł":8585,"Ġà¦ľà¦Ĺà¦¦à¦²à¦ª":8586,"à¦ıà¦®à¦¨à¦ĵ":8587,"à¦¾âĢĿ-":8588,"à¦ħà¦¬à¦¸à¦¨":8589,"Ġà¦ıà¦¡à¦Ń":8590,"Ġà¦Ĩà¦Łà¦¦":8591,"Ġthem":8592,"Ġà¦Ŀà§ľà¦Ŀ":8593,"ita":8594,"Ġà¦Ĩà¦ĩà¦¸à¦²":8595,"Ġà¦Ĩà¦ĩà¦ĵà¦¨":8596,"ora":8597,"Ġwater":8598,"Ġà§©à§¬":8599,"Ġà¦Ĺà¦ľà¦¦à¦¨":8600,"Ġà¦Ńà¦°à¦¤à¦ķ":8601,"à¦¿.-":8602,"Ġag":8603,"Ġà¦ıà¦ķà¦¶à¦Ń":8604,"Ġcha":8605,"Ġcomp":8606,"à¦¿!âĢĿâĢĶ":8607,"à¦¸à¦ķà¦²à¦ķ":8608,"ount":8609,"Ġà¦ĭà¦£à¦Ĺ":8610,"Ġmust":8611,"à¦Ĩà¦§à¦ĸ":8612,"Ġà¦ľà¦¨à¦¸à¦®à¦°":8613,"Ġà¦°à¦¤à¦¨à¦¦":8614,"à¦ĩà¦«à¦¯":8615,"à§¨à§¦à§¦à§§":8616,"Ġfar":8617,"Ġà¦ļà¦°à¦£à¦¸":8618,"Ġà¦¶à¦¨à¦¶à¦¨":8619,"à¦¤à¦ļà¦°à¦¦":8620,"Ġpla":8621,"omm":8622,"ĠSe":8623,"ĠSh":8624,"ĠSar":8625,"Ġà¦ĩà¦¹à¦ľ":8626,"Ġà¦¨à¦ĵà¦Ĺ":8627,"Ġà¤°":8628,"Ġdis":8629,"Ġhor":8630,"Ġhallucination":8631,"à¦ħà¦ªà¦°à¦¦":8632,"Ġà§§à§®à§¦à§§":8633,"à§ĩâĢĿ,":8634,"à¦īà§İà¦¸à¦¬à¦®":8635,"ĠBut":8636,"ĠBang":8637,"Ġà§§à§¯à§«à§¦":8638,"ross":8639,"Ġà¥¤à¥¤":8640,"Ġà¦®à¦Īà¦¨à¦ĵ":8641,"olog":8642,"ĠMar":8643,"ĠMem":8644,"Ġlo":8645,"Ġlul":8646,"Ġà¦¨à¦ķà¦²à¦ķ":8647,"Ġep":8648,"Ġà§§à§¯à§ªà§¦":8649,"ĠRO":8650,"ĠDE":8651,"ĠDedic":8652,"Ġà§§à§¯à§¯à§§":8653,"Ġà¦īà¦Ńà§Łà¦ķ":8654,"Ġà§¦à§¬":8655,"igital":8656,"Ġtoo":8657,"ĠNGO":8658,"Ġgod":8659,"Ġà¦¨à¦ľà¦°à¦Ł":8660,"ĠLet":8661,"ĠLect":8662,"à¦ħà¦¹à¦Ļ":8663,"Ġà¦īà¦ĩà¦²à¦ķ":8664,"Ġrec":8665,"Ġread":8666,"ode":8667,"Ġà¦Ĺà¦łà¦¨à¦ķ":8668,"Ġyour":8669,"Ġà§§à§¯à§®à§§":8670,"Ġà§§à§¯à§®à§©":8671,"Ġà§§à§¯à§®à§«":8672,"Ġà§§à§¯à§®à§ª":8673,"Ġà§§à§¯à§®à§¬":8674,"Ġà§§à§¯à§®à§¯":8675,"Ġà¦·à§ľà¦ľ":8676,"Â·Â·Â·à¥¤":8677,"Ġneigh":8678,"laby":8679,"ĠWi":8680,"Ġà§§à§¯à§¬à§¯":8681,"ĠÐº":8682,"indu":8683,"Ġà¦ªà¦łà¦¨à¦ª":8684,"ĠUS":8685,"Ġval":8686,"Ġseem":8687,"Ġorig":8688,"Ġà¦®à¦Łà¦°à¦¶":8689,"ĠÙħ":8690,"ĠÙĨ":8691,"ĠâĢĶâĢĶâĢĶâĢĵ":8692,"ĠâĢĶâĢĶâĢĶâĢĶâĢĶâĢĶâĢĶ":8693,"aven":8694,"Ġany":8695,"ÐµÑĢ":8696,"ĠIndia":8697,"Ġà¦Ĩà¦īà¦Łà¦ª":8698,"angu":8699,"TEM":8700,"---":8701,"à§§à§¯à§¬à§¨":8702,"Ġcontin":8703,"ney":8704,"à¦¸à¦¹à¦¨à¦¶":8705,"âĤĤ":8706,"Ġà¦²à¦Ľà¦®à¦¨":8707,"ĠBengali":8708,"Ġtwo":8709,"Ġapp":8710,"ersonal":8711,"eople":8712,"Ġà¦¶à¦ĵà¦ķà¦¤":8713,"Ġfamil":8714,"Ġà¦²à¦Łà¦¬à¦¹à¦°":8715,"Ġlullaby":8716,"ĠDedicated":8717,"ĠLectures":8718,"\"âĢĶ":8719,")!":8720,"-âĢĻ":8721,".,":8722,"41":8723,"?-":8724,"AT":8725,"CT":8726,"DI":8727,"GH":8728,"MS":8729,"OR":8730,"RE":8731,"UGH":8732,"aurav":8733,"be":8734,"bo":8735,"dom":8736,"ech":8737,"ft":8738,"han":8739,"hit":8740,"hing":8741,"io":8742,"iy":8743,"ied":8744,"ium":8745,"ks":8746,"me":8747,"mal":8748,"nung":8749,"oon":8750,"pr":8751,"pect":8752,"ran":8753,"so":8754,"side":8755,"ty":8756,"vol":8757,"ways":8758,"ward":8759,"xx":8760,"ÑĪ":8761,"×¢":8762,"Ø¨":8763,"Øª":8764,"ØŃ":8765,"à²":8766,"áŀ":8767,"ìĿ":8768,"ĊĠĠ":8769,"Ġ1":8770,"Ġ7":8771,"Ġz":8772,"ĠÎ":8773,"Ġà§İà¦ķ":8774,"Ġer":8775,"Ġqu":8776,"Ķáĥ":8777,"ķ×":8778,"à¦¾à§į":8779,"à¦¾âĢį":8780,"à¦¾ï»¿":8781,"à¦°à¦¨à¦¤":8782,"à¦°à¦°à¦¸":8783,"à¦°à¦Ŀà¦²à¦¸":8784,"à¦¿Â¤":8785,"à¦¨à¦ŀ":8786,"à¦¨à¦¦à¦°":8787,"à¦¨à¦°à¦¦":8788,"à¦¨à¦®à¦£":8789,"à¦¨à¦¸à¦Ļ":8790,"à¦¨à¦®à¦ľ":8791,"à¦¤à¦²à¦ķ":8792,"à¦¤à¦«à¦²":8793,"à¦¤à¦¸à¦¹":8794,"à¦²à¦Ĺà¦¤":8795,"à¦²à¦Ĩà¦¨":8796,"à¦²à¦ĺà¦¡":8797,"à¦²à§İà¦ľ":8798,"à¦ķà¦ľà¦®":8799,"à§ģ),":8800,"à¦¯à¦°à¦¬":8801,"à¦¯à¦ľà¦²":8802,"à¦¬à¦·":8803,"à¦¬à¦¬à¦¨":8804,"à¦¬à¦§à¦¨":8805,"à¦¬à¦ľà¦°":8806,"à¦¬à¦ľà¦¨à¦ķ":8807,"à¦¬à¦ľà§Ł":8808,"à¦¬à§İà¦¸à¦²":8809,"à¦®à¦¦à¦¨":8810,"à¦®à¦łà¦¤":8811,"à¦¼âĢ¦âĢĿ":8812,"à¦¼âĢĻâĢĶ":8813,"à¦¼...":8814,"à¦¼)à¥¤":8815,"Ġà¦ķà¦ľ":8816,"Ġà¦ķà¦ķà¦ª":8817,"à§ĭà¦¾":8818,"à§ĭà§į":8819,"à§ĭà¦ĥ,":8820,"Ġà¦¬à¦ĸà¦¶":8821,"Ġà¦¸à¦§":8822,"Ġà¦¸à¦°à¦®":8823,"Ġà¦¸à¦¦à¦¨":8824,"Ġà¦¸à¦²à¦Ļ":8825,"Ġà¦¸à¦ªà¦¸à¦ª":8826,"Ġà¦ªà¦¨à¦°":8827,"Ġà¦ªà¦ĩà¦ª":8828,"à¦¸à¦¤à¦¨":8829,"à¦¸à¦¦à¦°":8830,"à¦¸à¦ļà¦²":8831,"à¦¸à¦°à¦ĵ":8832,"Ġà¦Ĩà¦īà¦¨":8833,"à¦¦à¦ľà¦¨":8834,"à¦¦à¦Ĺà¦²":8835,"à¦¦à¦ľà¦Ĺà¦¤":8836,"à¦¦à¦ľà¦Ĺà§İ":8837,"à¦Łà§Ł":8838,"à¦Łà¦Ŀ":8839,"à¦Łà¦ªà¦¤":8840,"à¦Łà¦ªà¦¦":8841,"à¦Łà¦ļà¦ķ":8842,"à¦Łà¦ķà¦Łà¦ķ":8843,"Ġà¦¨à¦°à¦²":8844,"Ġà¦¨à¦²à¦Ł":8845,"Ġà¦¨à¦ĵà¦°":8846,"Ġà¦®à¦®à¦²":8847,"Ġà¦®à¦¦à¦ķ":8848,"à¦ĩà§ľ":8849,"à¦ĩà¦°à¦¨":8850,"à¦ĩà¦®à¦°":8851,"à¦ĩà¦®à¦ª":8852,"à¦ĩà¦ľà¦¨à¦ķ":8853,"à¦ĩà¦īà¦Ł":8854,"à¦ªà§İ":8855,"à¦ªà¦®à¦¤":8856,"à¦ªà¦¶à¦¬":8857,"à§Ģ]":8858,"à§ĢâĢĶâĢľ":8859,"Ġà¦¦à¦®à¦Ł":8860,"à¦Ľà¦ĸ":8861,"Ġà¦¤à¦ŀ":8862,"Ġà¦ıà¦ªà¦°":8863,"Ġà¦¹à¦¸à¦¨":8864,"Ġà¦¹à¦ķà¦¦":8865,"Ġà¦¹à¦Ĺà¦¸":8866,"à¦ľà¦²à¦¤":8867,"à¦ľà¦Ĺà¦£":8868,"à¦ľà¦¬à¦ªà¦£":8869,"à¦¶à¦°à¦¦":8870,"à¦¶à¦ķà¦¬":8871,"à¦¼à§ĩ!âĢĿ":8872,"Ġà¦ħà¦¯à¦¯":8873,"à¦Ĺà¦«":8874,"à¦Ĺà¦ķà¦°":8875,"à¦Ĺà¦¤à¦¬":8876,"à¦Ĺà¦¸à¦°":8877,"à¦Ĺà¦¢":8878,"à¦Ĺà¦ķà¦¨":8879,"à§Łà¦®à¦ķ":8880,"à§Łà¦¨à¦ķ":8881,"à¦·à¦®à¦£":8882,"à¦§à¦§":8883,"à¦§à¦°à¦ķ":8884,"à¦§à¦¬à¦²":8885,"à¦§à¦°à¦²":8886,"à¦§à¦¬à¦¬":8887,"à¦§à¦¸à¦¹":8888,"à¦¡à¦ĸ":8889,"à¦¡à¦§":8890,"à¦¡à¦£":8891,"à¦¡à¦ľà¦¨":8892,"à¦¡à¦¸à¦®":8893,"à¦¡à¦¸à¦ĵ":8894,"à¦ļà¦¶à¦¬":8895,"à¦ļà§Łà¦¨":8896,"à¦ļà¦ĺà¦°":8897,"à¦ļà¦¬à¦Ł":8898,"à¦¹à¦¬à¦°":8899,"à¦¹à¦ªà¦¤":8900,"à¦¹à¦ķà¦¦":8901,"à¦¹à¦Ńà¦Ļ":8902,"Ġà¦Ĺà¦®à¦ķ":8903,"à¦ģà¦ģ":8904,"à¦£à¦¢":8905,"à¦£à¦Ĺà¦ŀ":8906,"à¦¥à¦£":8907,"à¦¥à¦ķà¦°":8908,"à¦¥à¦°à¦ĩ":8909,"à¦¥à¦¬à¦¦":8910,"à¦¥à¦®à§Ł":8911,"à¦¥à¦²à¦Ĺ":8912,"Ġà¦¶à¦·":8913,"Ġà¦¶à¦ł":8914,"Ġà¦¶à¦°à¦¨":8915,"Ġà¦¶à¦ĸà¦Ł":8916,"Ġà¦¶à¦°à¦¸à¦¨":8917,"Ġà¦ľà¦ªà¦®":8918,"Ġà¦ļà¦°à¦¨":8919,"Ġà¦ļà¦°à¦Ľ":8920,"Ġà¦Ńà¦²à¦ķ":8921,"Ġà¦Ńà¦£à¦ĩ":8922,"Ġà¦°à¦ĩà¦¤":8923,"Ġà¦°à¦ľà¦¬":8924,"Ġà¦°à¦ĩà¦Ľ":8925,"Ġà¦°à¦¶à¦®":8926,"Ġà¦°à¦ļà§Ł":8927,"à¦ĵà¦¨à¦ķ":8928,"à§ĩà¥¤-":8929,"Ġà¦ıà¦ķà¦ł":8930,"Ġà¦ıà¦ķà¦¤à¦°":8931,"Ġà¦ıà¦ķà¦¶à¦¬":8932,"Ġà¦ıà¦ķà¦¸à¦ª":8933,"Ġà¦ıà¦ķà¦°à¦Ļ":8934,"Ġà¦Ľà¦°à¦ķ":8935,"Ġà¦Ĩà¦®à¦¸":8936,"Ġà¦Ĩà¦®à¦¸à¦¤":8937,"à¦łà¦¯":8938,"à¦łà¦ĸà¦£":8939,"à¦¼à¦¾à¦¾":8940,"à¦¼à¦¾!âĢĻ":8941,"Ġà¦īà¦ĩà¦¶":8942,"à¦Ĥ?":8943,"à¦ĤâĢĻ":8944,"à§Ĥà§į":8945,"Ġà¦¬à¦²à¦ĩ":8946,"Ġà¦²à¦¬à¦¨":8947,"Ġà¦²à¦ĩà¦²":8948,"Ġà¦ĵà¦¥":8949,"Ġà¦ĵà¦¨à¦²":8950,"Ġà¦«à¦·":8951,"Ġà¦«à¦Łà¦«à¦Ł":8952,"Ġà¦ĸà¦°à¦¶":8953,"à§ľà¦°":8954,"à§ľà¦¦":8955,"à§ľà¦ĩ":8956,"à§ľà¦ļ":8957,"à§ľà¦«":8958,"Ġà¦ħà¦¨à¦¶":8959,"Ġà¦¹à¦¯à¦°à¦¤":8960,"Ġà¦¸à¦®à¦ľ":8961,"Ġà¦¸à¦®à¦°à¦ķ":8962,"Ġà¦¸à¦®à¦°à¦¸":8963,"à¦¬à¦¨à¦ļà¦°":8964,"à¦¬à¦¨à¦ķà¦£":8965,"âĢĻâĢĶâĢĺ":8966,"à¦¼à¦¿âĢĿ":8967,"Ġà¦®à¦¨à¦¹":8968,"à¦ªà¦°à¦¨":8969,"à¦ªà¦°à¦¯":8970,"à¦¿à¥¤-":8971,"à¦¿à¥¤[":8972,"à¦Ŀà¦¸":8973,"à¦Ŀà¦¦":8974,"à¦Ŀà¦¨à¦¦":8975,"à¦ŀà¦¨":8976,"à¦ŀà¦ķà¦°":8977,"à§İà¦Ĺà¦¤":8978,"à¦īà¦§":8979,"à¦īà¦Ĺà¦²":8980,"à¦īà¦¨à¦Ł":8981,"à¦īà¦²à¦Ł":8982,"à¦īà¦ľà¦Ł":8983,"à¦īà¦ªà¦Ĺ":8984,"à¦ľà¦¨à¦ªà¦¦":8985,"à¦°à¦¬à¦¶":8986,"à¦¤à¦°à¦ĸ":8987,"à¦¤à¦°à¦ľà¦¨":8988,"à¦ªà¦¨à¦¦":8989,"à¦ªà¦¨à¦ĩ":8990,"à¦ªà¦¨à¦¸à¦°":8991,"à¦ıà¦¥":8992,"à¦ıà¦¤à¦ĩ":8993,"Ġà¦Ĩà¦²à¦Ļ":8994,"Ġà¦¸à¦¬à¦¤":8995,"Ġà¦¸à¦¬à¦®":8996,"à¦¬à¦°à¦¨":8997,"à¦¬à¦°à¦®à§Ł":8998,"Ġà¦Łà§Ł":8999,"à¦Ĩà¦¨à¦ķ":9000,"à¦Ĩà¦¸à¦®":9001,"à¦Ĩà¦ªà¦ķ":9002,"à¦Ĩà¦ĩà§Ł":9003,"à¦Ĩà¦Łà¦Ł":9004,"à¦Ĩà¦«à¦¸":9005,"Ġà¦¡à¦Ļ":9006,"Ġà¦¡à¦Łà¦ª":9007,"Ġà¦¹à¦²à¦ĵ":9008,"Ġà¦īà¦łà¦¨":9009,"à¦ĺà¦ĩ":9010,"à¦ĺà¦°à¦£":9011,"à¦ĺà¦®à§Ł":9012,"à¦ĺà¦Ńà¦°":9013,"ĠâĢľâĢĺ":9014,"Ġà¦ĩà¦Łà¦ķ":9015,"Ġà¦ĩà¦Łà¦ª":9016,"Ġà¦ľà¦¨à¦°à¦¬":9017,"à¦¼à¥¤-":9018,"à¦¼à¥¤à¥¤":9019,"à§ģà¦ģâĢĻ":9020,"âĢĵ?":9021,"à¦·à¦£à¦¬":9022,"à¦·à¦£à¦ªà¦¦":9023,"Ġà¦ļà¦²à§İà¦¶à¦ķ":9024,"à¦°à¦®à¦®":9025,"à¦°à¦®à¦§à¦°":9026,"à¦ĥâĢ¦":9027,"Ġà¦¬à¦¨à¦¬à¦¨":9028,"à§ĭà¦ģâĢ¦)":9029,"Ġà¦Ĩà¦Ĺà¦°à¦ĵà¦¯":9030,"à§ĩà¦ģâĢĻ,":9031,"à¦ķà¦°à¦¨":9032,"à§ĭ,-":9033,"à¦ħà¦¨à¦¬":9034,"à¦ħà¦ļà¦²":9035,"à¦ħà¦ªà¦Ł":9036,"à¦ħà¦¥à¦°":9037,"à¦ħà¦¬à¦ļ":9038,"à¦ħà¦¬à¦ľ":9039,"à§ĩ?)":9040,"à§ĩ?âĢĵ":9041,"à¦¸à¦¬à¦¸à¦®à¦¯":9042,"Ġà¦ħà¦®à¦²à¦¬":9043,"à¦²à¦ķà¦¤":9044,"à¦¬à¦¤à¦¬":9045,"Ġà¦Ĩà¦¨à¦ľ":9046,"à¦¤à¦¬à¦¸à¦®":9047,"Ġà¦Ĩà¦ªà¦¨à¦ľà¦¨à¦¦":9048,"Ġà¦īà¦¦à¦¬":9049,"à¦¾à¦Ĥ!âĢĻ":9050,"à¦ķà¦¤à¦¤":9051,"Ġà¦¶à¦¬à¦¯":9052,"à¦¦à¦¨à¦ķà¦ķ":9053,"Ġà¦ĺà¦°à¦¬à¦¨":9054,"Ġà¦ĺà¦°à¦Ńà¦°":9055,"à¦¯à¦¬à§İ":9056,"à¦¯à¦¬à§°":9057,"à¦¦à¦°à¦Ĺ":9058,"à¦Ĺà¦²à¦ªà¦¥":9059,"Ġà¦ľà¦²à¦¬à¦¨":9060,"Ġà¦ľà¦²à¦¸à¦®":9061,"Ġà¦ľà¦²à¦ļà¦ķ":9062,"Ġà¦ľà¦²à¦ľà¦²":9063,"Ġà¦¸à¦°à¦Ĺà¦®":9064,"à¦°à¦¹à¦ĩ":9065,"Ġà¦ķà¦¬à¦·":9066,"Ġà¦ķà¦¬à¦Ľà¦°":9067,"Ġà¦īà¦ªà¦²":9068,"à¦°à¦ľà¦¡":9069,"à¦¨à¦¬à¦¦à¦¨":9070,"à¦¯à¦ķà¦ķ":9071,"à¦¯à¦ķà¦¶":9072,"à¦°à¦²à¦¬":9073,"à¦°à¦²à¦Ļ":9074,"Ġà¦ķà¦²à¦ĺà¦°":9075,"à¦²à¦¬à¦¹à¦¨à¦ķ":9076,"à¦²à¦¨à¦Ł":9077,"à¦²à¦¨à¦ĸ":9078,"à¦²à¦¨à¦®à¦¯":9079,"à¦²à¦¨à¦ķà¦¶":9080,"à¦§à¦¨à¦Ńà¦Ļ":9081,"à¦¯à¦¤à¦¤":9082,"à¦°à¦¦à¦¸":9083,"à¦®à¦¯à¦¨":9084,"Ġà¦¸à¦¹à¦¶":9085,"âĢ¦?âĢĿ":9086,"à¦ªà¦¤à¦®":9087,"à¦ļà¦²à¦²":9088,"à¦ļà¦²à¦Ľ":9089,"à¦ļà¦²à¦ĸ":9090,"à¦ķà¦¬à¦ľ":9091,"à¦ªà¦¦à¦ľà¦¨à¦ķ":9092,"à¦¸à¦¨à¦¹":9093,"Ġà¦ĵà¦ªà¦°à¦ĵà¦¯":9094,"à¦¨à¦¨à¦¦":9095,"à¦ĩà¦¨à¦ĩ":9096,"à¦ĩà¦¨à¦¬à¦¨":9097,"Ġà¦ľà¦®à¦¦à¦Ĺ":9098,"à¦¹à¦²à¦Ĺ":9099,"à¦¹à¦²à¦ĵ":9100,"à¦Łà¦ķà¦¯":9101,"à¦Łà¦ķà¦®":9102,"à¦Łà¦ķà¦¥":9103,"à¦Łà¦ķà¦®à§Ł":9104,"à§İà¦¸à¦ĩ":9105,"Ġà¦ħà¦ķà¦£":9106,"à¦¿?âĢ¦":9107,"Ġà¦°à¦Ļà¦ĩ":9108,"Ġà¦ķà¦®à¦¸":9109,"Ġà¦ªà¦¦à¦®":9110,"Ġà¦ªà¦¦à¦ªà¦²":9111,"à¦¿à¦ģ-":9112,"Ġà¦¤à¦°à¦²à¦¤":9113,"Ġà¦¶à¦¹à¦°à¦ª":9114,"Ġà¦¶à¦¹à¦°à¦ĵ":9115,"à¦¤à¦ķà¦¨":9116,"à¦¤à¦ķà¦®":9117,"à¦¤à¦ķà¦ļ":9118,"à¦®à¦£à¦Ł":9119,"à¦®à¦£à¦ª":9120,"à¦¿âĢĶ-":9121,"à¦¿âĢĶâĢĿ":9122,"à¦°à¦ªà¦¶":9123,"à¦·à¦ķà¦ĵ":9124,"Ġà¦Ľà¦¬à¦Ľà¦°":9125,"Ġà¦ħà¦ªà¦°à¦£":9126,"Ġà¦ħà¦ªà¦°à¦ªà¦ķ":9127,"à¦¸à¦°à¦Ł":9128,"à¦¸à¦°à¦²à¦¤":9129,"à¦¸à¦°à¦ĺà¦°":9130,"à¦¯à¦®à¦ĵ":9131,"à¦ıà¦ķà¦ķà¦¥":9132,"à¦ıà¦ķà¦ĩà¦Ń":9133,"à¦¬à¦¸à¦²":9134,"à¦Łà¦²à¦Ł":9135,"Ġà¦ħà¦®à¦²à¦ª":9136,"à¦¤à¦®à¦¹à¦²":9137,"Ġà¦«à¦²à¦¦":9138,"Ġà¦«à¦²à¦ĩ":9139,"Ġà¦«à¦²à¦¬à¦¤":9140,"Ġà¦ħà¦²à¦ª":9141,"à¦¼à§ĩ,âĢĿ":9142,"à¦°à¦Ńà¦®à¦¯":9143,"Ġà¦²à¦ķà¦ª":9144,"à¦ľà¦²à¦°à¦Ļ":9145,"Ġà¦Ĩà¦¸à¦²à¦Ł":9146,"Ġà¦Ĩà¦§à¦¹":9147,"Ġà¦Ĩà¦§à¦ªà§ľ":9148,"Ġà¦¸à¦®à§Łà¦Ĺ":9149,"à¦®à§Łà¦ķ":9150,"à¦ķà¦¨à¦«":9151,"à¦¯à¦°à¦ľà¦¨":9152,"Ġ(?)":9153,"à¦¾!)":9154,"à§ĩâĢĵâĢľ":9155,"à¦¥à¦°à¦ĸ":9156,"à¦¨à¦¸à¦ŀ":9157,"Ġà¦¤à¦²à¦¸":9158,"Ġà¦¦à¦²à¦ĵ":9159,"à¦Łà¦¬à¦¡":9160,"à¦Łà¦¬à¦ĩà¦¯":9161,"à¦¬à¦¶à¦¸":9162,"Ġà¦Ĩà¦ªà§İà¦ķ":9163,"Ġà¦ļà¦ķà¦ĸà§ľ":9164,"à¦°à¦Ĺà¦Ł":9165,"à¦°à¦ľà¦¨à¦ĩ":9166,"Ġà¦īà§İà¦¸à¦Ł":9167,"Ġà¦Ńà§Łà¦ĵ":9168,"Ġà¦Ńà§Łà¦Ń":9169,"Ġà¦¸à¦¹à¦ľà¦¤à¦°":9170,"Ġà¦ıà¦¨à¦Ń":9171,"Ġà¦¬à§Łà¦²":9172,"à§ĭâĢĶ-":9173,"à¦®à¦¸à¦ļ":9174,"à¦°à¦®à¦£à¦¸":9175,"à¦¾âĢĻ?":9176,"?âĢĿâĢĵ":9177,"à¦¾;-":9178,"à¦§à¦¬à¦ĵ":9179,"à¦Łà¦¨à¦®":9180,"Ġà¦¦à¦¶à¦Ń":9181,"à§Ŀà¦ª":9182,"Ġà¦¸à¦¦à¦Ĺà¦¤":9183,"Ġà¦Ĺà¦£à¦ħà¦Ń":9184,"à¦łà¦ķà¦ĩ":9185,"à¦łà¦ķà¦¸à¦®":9186,"à¦°à§Łà¦¹":9187,"à§Ģ?âĢĶ":9188,"Ġà¦īà§ľà¦¨à¦ļà¦£":9189,"à§ĩà¥¤âĢĻâĢĿ":9190,"à¦¾à¥¤âĢĻâĢĿ":9191,"à¦¶à¦²à¦Ĺà¦¤":9192,"à¦¿âĢĵà¥¤":9193,"à¦®à¦¶à¦ķà¦°":9194,"à¦®à¦¶à¦¹à¦°":9195,"à¤¡":9196,"à¤Ľ":9197,"à¦ķà¦¸à¦¹":9198,"à¦ķà¦°à¦£à¦Ł":9199,"à¦¿;âĢĶ":9200,"Ġà¦®à¦²à§Ł":9201,"à§§à§§à§":9202,"à¦·à§Łà¦°":9203,"à¦¸à¦¹à¦ķ":9204,"à¦¸à¦¹à¦ķà¦°":9205,"à¦£à¦¨à¦Ĺà¦°":9206,"Ġà¦Ĩà§ľà¦¤":9207,"à¦¡à¦¬à¦¡":9208,"Ġà¦¬à¦¸à¦¨à¦ĸ":9209,"Ġà¦®à¦¦à¦¦":9210,"à¦¤à¦¸à¦ŀ":9211,"Ġà¦Ĭà¦ł":9212,"à§ªà§®":9213,"à§ªà§¯":9214,"Ġà¦Ĳà¦ķà¦®à¦¤":9215,"inc":9216,"à¦¦à¦¬à¦Ĺà¦ŀ":9217,"à¦¦à¦¶à¦ªà¦¦":9218,"Ġà¦¨à¦Ĺà¦°à¦ª":9219,"Ġà¦Ĩà¦ļà¦°à¦£à¦Ĺ":9220,"à¦Īà¦ķ":9221,"à¦¨à§Łà¦¨à¦ĩ":9222,"reated":9223,"à¦¿âĢ¦.":9224,"à¦¬à¦°à¦¤à¦¤":9225,"à§Ńà§Ń":9226,"à¦¯à¦ķà¦°à¦Ń":9227,"à¦ķà¦ĸà¦¨à¦ĩ":9228,"à¦¨à¦¬à¦ľà¦Ĺà¦¤":9229,"atri":9230,"Ġà¦Ńà¦Ĺà¦¬à§İ":9231,"à¦¶à¦¹à¦°à¦Ł":9232,"Ġà¦Ĩà¦ĩà¦¨à¦¤":9233,"ise":9234,"ised":9235,"orial":9236,"arm":9237,"à¦ħà¦²à¦Ļ":9238,"Ġà¦Ńà¦°à¦¤à¦ª":9239,"Ġà¦Ńà¦°à¦¤à¦Ĺ":9240,"à¦¿.âĢĻ":9241,"à¦¯à¦°à¦ķà¦®à¦Ń":9242,"Ġspe":9243,"Ġchar":9244,"à¦ĭà¦ľ":9245,"à§Īà¦ĥâĢĵ":9246,"Ġà¦ľà¦Ĺà§İà¦¬":9247,"à¦¬à¦Ĺà¦ŀ":9248,"Ġà¦Ĺà¦łà¦¨à¦®":9249,"Ġbir":9250,"ouse":9251,"Ġà¦ĭà¦£à¦®":9252,"Ġmore":9253,"Ġà¦®à§İà¦¸à¦ľ":9254,"andita":9255,"à¦¬à¦Ľà¦°à¦ĸ":9256,"Ġà¦Ĩà¦°à¦¬à¦¸à¦®":9257,"Ġown":9258,"à¦¶à¦¹à¦°à¦¤à¦²":9259,"à¦¿âĢĿ,":9260,"à¦Ńà¦¸à¦ŀ":9261,"Ġpo":9262,"Ġper":9263,"Ġple":9264,"Ġpeople":9265,"omes":9266,"ĠSun":9267,"Ġà¦®à¦¹à¦°à¦°à¦®":9268,"Ġoff":9269,"ĠâĢ¦âĢĿ":9270,"Ġà¦ĩà¦¹à¦ľà¦Ĺà¦¤":9271,"ĠIN":9272,"Ġà¦ıà¦®à¦Ĩà¦°à¦Ĩà¦ĩ":9273,"ley":9274,"ingale":9275,"Ġà¤¦":9276,"Ġdra":9277,"Ġà¦ķà¦¦à¦®à¦«":9278,"Ġà§«à§ª":9279,"ĠAb":9280,"ĠAc":9281,"ĠAs":9282,"ĠAt":9283,"ĠPr":9284,"ĠPur":9285,"ĠPaurav":9286,"Ġà§§à§¦à§®":9287,"Ġà¦ķà¦²à¦¤à¦²":9288,"à¦ĸà¦¬à¦°à¦¦":9289,"Ġà¦°à¦£à¦Ń":9290,"Ġà¦ĩà¦īà¦ª":9291,"ĠBhar":9292,"Ġ[âĢĺ":9293,"Ġinte":9294,"Ġà§§à§¯à§«à§§":9295,"Â·Â·Â·Â·":9296,"ĠComp":9297,"ĠCult":9298,"olo":9299,"ĠMy":9300,"ute":9301,"utta":9302,"Ġà§¬à§¬":9303,"Ġà§Ńà§§":9304,"Ġà§Ńà§«":9305,"Ġà¦¥à¦²à¦¥à¦²":9306,"à¦ıà¦ķà¦ĩà¦¸à¦Ļ":9307,"Ġeyes":9308,"ĠTr":9309,"urch":9310,"à¦ªà¦Ļà¦ķ":9311,"oth":9312,"à§ĩ):":9313,"Ġà§§à§¯à§ªà§§":9314,"ĠRam":9315,"à¦¤à¦ĸà¦°à¦ļ":9316,"Ġthrough":9317,"ĠDo":9318,"ction":9319,"Ġà§¦à§Ń":9320,"Ġà§¨à§¦à§§à§¦":9321,"Ġbefore":9322,"Ġà¦¸à¦¯à¦¤à¦¨":9323,"áĥĶáĥ":9324,"Ġà§®à§¦":9325,"cho":9326,"idual":9327,"ĠNight":9328,"Ġgen":9329,"Ġgreat":9330,"ower":9331,"Ġà¦Ĺà¦²à¦¦à¦ĺ":9332,"ĠHow":9333,"ĠLiter":9334,"ĠLangu":9335,"à§Ģ?âĢĿâĢĶ":9336,"âĢ¦.âĢĿ":9337,"à¦Ĭà¦¨à¦¸à¦¤":9338,"Ġà§§à§¯à§®à§¦":9339,"Ġà§§à§¯à§®à§®":9340,"ages":9341,"Ġà¦¯à¦¬à¦¨à¦°":9342,"ters":9343,"ĠEd":9344,"Ġà¦ĩà¦¨à¦«à¦°à¦®":9345,"ourney":9346,"empt":9347,"à¦¸à¦®à¦¤à¦²":9348,"Ġà¦Ĩà¦ªà¦¦à¦Ł":9349,"Ġà§¯à§®":9350,"Ġà¦ħà¦ķà¦²à¦Ļ":9351,"ube":9352,"ĠWe":9353,"ĠWhere":9354,"à§§à§Ńà§«à§¬":9355,"Ġà§§à§¯à§¬à§¦":9356,"Ġà§§à§¯à§¬à§«":9357,"Ġà¦ħà¦ĺà¦Łà¦¨à¦ĺà¦Łà¦¨":9358,"ume":9359,"umar":9360,"Ġone":9361,"anta":9362,"ĠÐ²":9363,"Ġà§§à§¯à§¦à§Ń":9364,"Ġwithout":9365,"à¦ķà¦ľà¦®à¦ķà¦ª":9366,"abu":9367,"Ġà¦Ĭà¦¨à¦ļà¦²":9368,"Ġjust":9369,"Ġjourney":9370,"Ġà¦®à¦Łà¦®à¦Ł":9371,"Ġà§§à§¯à§§à§§":9372,"à¦ıà¦«à¦ĵ":9373,"Ð¾Ð»":9374,"à¦¬à§İà¦¸à¦®":9375,"ĠIndo":9376,"Ġà¦°à¦¦à¦¬à¦¦à¦²":9377,"Ġà¦ħà§Łà¦¨à¦ķ":9378,"ĠĠĠĊĠĠ":9379,"afi":9380,"afÃ©":9381,"Ø§Øª":9382,"à§§à§¯à§¬à§«":9383,"ĠTHRO":9384,"éŁ¿éŁ¿éŁ¿éŁ¿éŁ¿éŁ¿éŁ¿éŁ¿éŁ¿éŁ¿éŁ¿éŁ¿éŁ¿éŁ¿éŁ¿éŁ¿éŁ¿éŁ¿éŁ¿éŁ¿éŁ¿éŁ¿éŁ¿éŁ¿éŁ¿éŁ¿éŁ¿éŁ¿éŁ¿éŁ¿éŁ¿éŁ¿éŁ¿éŁ¿éŁ¿éŁ¿éŁ¿éŁ¿éŁ¿éŁ¿éŁ¿éŁ¿éŁ¿éŁ¿éŁ¿éŁ¿éŁ¿éŁ¿éŁ¿éŁ¿éŁ¿éŁ¿éŁ¿éŁ¿éŁ¿éŁ¿éŁ¿éŁ¿éŁ¿éŁ¿éŁ¿éŁ¿éŁ¿éŁ¿":9385,"Ġlearning":9386,"ween":9387,"weet":9388,"ankar":9389,"Ġknowledge":9390,"Ġcountry":9391,"æŃĵæŃĵæŃĵæŃĵæŃĵæŃĵæŃĵæŃĵæŃĵæŃĵæŃĵæŃĵæŃĵæŃĵæŃĵæŃĵæŃĵæŃĵæŃĵæŃĵæŃĵæŃĵæŃĵæŃĵæŃĵæŃĵæŃĵæŃĵæŃĵæŃĵæŃĵæŃĵ":9392,"Ġabout":9393,"velop":9394,"ĠRahim":9395,"rahm":9396,"Ġsubur":9397,"Ġvery":9398,"Ġbetween":9399,"uggest":9400,"Ġessay":9401,"Ġplace":9402,"ĠROAD":9403,"Ġà¦ªà¦ĩà¦ªà¦ĩ":9404,"à¦¡à¦¸à¦ĵà¦ħà§°":9405,"ĠNightingale":9406,"ĠTHROUGH":9407,"!..":9408,"%-":9409,"'s":9410,")âĢĶ":9411,",âĢĶâĢĺ":9412,",âĢĻâĢĶ":9413,"-âĢľ":9414,"47":9415,"50":9416,";âĢĵ":9417,"?à¥¤":9418,"AB":9419,"AP":9420,"LMS":9421,"MO":9422,"OC":9423,"Pro":9424,"RI":9425,"Re":9426,"ST":9427,"Se":9428,"Sp":9429,"Th":9430,"Tube":9431,"au":9432,"aun":9433,"aid":9434,"ace":9435,"ake":9436,"ber":9437,"cy":9438,"ches":9439,"ere":9440,"fter":9441,"ho":9442,"hil":9443,"lo":9444,"land":9445,"lic":9446,"mp":9447,"ool":9448,"ped":9449,"rus":9450,"rid":9451,"rul":9452,"ses":9453,"uja":9454,"vent":9455,"wer":9456,"yo":9457,"Ã¤":9458,"Ã¼":9459,"Ð²":9460,"Ð·":9461,"Õ¥":9462,"Ø³":9463,"à¯":9464,"åķ":9465,"æĭ":9466,"ï¼":9467,"Ġ6":9468,"ĠÂ·Â·Â·":9469,"Ġart":9470,"Ġri":9471,"Ġend":9472,"Ġ10":9473,"ĠÚ©":9474,"ĠØ§ÙĦ":9475,"ĭľ":9476,"à¦¾à¦¿":9477,"à§ĩ(":9478,"à§ĩà§ĭ":9479,"à§ĩÂŃ":9480,"à¦°à¦ł":9481,"à¦°à¦°à¦¤":9482,"à¦°à¦°à¦®":9483,"à¦°à¦īà¦ĩà¦¨":9484,"à§įà§į":9485,"à§įâĢĿ":9486,"à§įâĢĻ-":9487,"à§įâĢĻâĢĶ":9488,"à¦¿âĢĿ-":9489,"à¦¨à¦°à¦ª":9490,"à¦¨à¦ĸà¦°":9491,"à¦¨à¦ľà§Ł":9492,"à¦¨à¦¡à¦°":9493,"à¦¤à¦®à¦¤":9494,"à¦¤à¦®à¦°":9495,"à¦¤à¦¶à¦ķ":9496,"à¦¤à¦¸à¦¤":9497,"à¦¤à¦ªà¦Ł":9498,"à¦¤à¦¦à¦¸":9499,"à¦¤à§İà¦ªà¦°":9500,"à¦¤à¦°à¦¤à¦®":9501,"à¦²à¦·":9502,"à¦²à¦°à¦ķ":9503,"à¦²à¦«à¦²":9504,"à¦²à¦ªà§ľ":9505,"à¦ķà§İ":9506,"à¦ķà¦ķà¦¬":9507,"à¦ķà¦ĺà¦¨":9508,"à¦ķà¦Ĩà¦īà¦Ł":9509,"à§ģ.":9510,"à§ģà§ĩ":9511,"à§ģâĢĿà¥¤":9512,"à§ģâĢ¦âĢĻ":9513,"à¦¯à¦ľà¦®":9514,"à¦¬à¦Ĺà¦¨":9515,"à¦¬à¦īà¦ķ":9516,"à¦¬à¦®à¦ª":9517,"à¦¬à§Łà¦®":9518,"à¦®à¦°à¦¬":9519,"à¦®à¦¤à¦°":9520,"à¦®à¦īà¦¨":9521,"à¦®à¦¦à¦Ĺ":9522,"à¦®à¦Īà¦¨":9523,"à¦¼âĢĿ-":9524,"à¦¼à¥¥":9525,"à§ĭ..":9526,"à§ĭà¥¥":9527,"à§ĭà¦ĥ!":9528,"Ġà¦¬à¦°à¦¨":9529,"Ġà¦¬à¦°à¦¸":9530,"Ġà¦¬à¦°à¦¬à¦§":9531,"Ġà¦¬abu":9532,"Ġà¦¸à¦¦à§Ł":9533,"Ġà¦¸à¦¶à¦ķ":9534,"Ġà¦¸à¦¸à¦Ļ":9535,"Ġà¦¸à¦¦à¦®":9536,"Ġà¦¸à¦¸à¦¸":9537,"Ġà¦¸à¦¦à§Łà¦¤":9538,"Ġà¦ªà¦ł":9539,"à¦¸à¦§":9540,"à¦¸à¦¯à¦¤":9541,"à¦¸à¦Ńà¦Ļ":9542,"à¦¸à§ľà¦ķ":9543,"Ġà¦Ĩà¦¥":9544,"Ġà¦Ĩà¦¬à¦²":9545,"Ġà¦Ĩà¦ĩà¦¤":9546,"Ġà¦Ĩà¦ĩà§Ł":9547,"Ġà¦Ĩà¦ľà¦¨à¦¬":9548,"à¦¦à¦°à¦¸":9549,"à¦¦à¦²à¦¬":9550,"à¦¦à¦®à¦ķ":9551,"à¦¦à¦Ĺà¦¨":9552,"à¦¦à¦¤à¦¤":9553,"à¦¦à¦ªà¦Ł":9554,"à¦¦à¦²à¦¬à¦¦":9555,"à¦Łà¦ł":9556,"à¦Łà¦¬à¦¨":9557,"à¦Łà¦®à§Ł":9558,"à¦Łà¦Ĺà¦£":9559,"Ġà¦¨à¦ĵà¦¯":9560,"Ġà¦¨à¦§à¦°":9561,"Ġà¦¨à¦²à¦Ľ":9562,"Ġà¦¨esc":9563,"Ġà¦®à¦ľà¦¨":9564,"Ġà¦®à¦¶à¦ķ":9565,"Ġà¦®à¦ķà¦¦":9566,"Ġà¦®à¦²à¦®à¦²":9567,"à¦ĩà¦¨à¦ĵ":9568,"à¦ĩà¦²à¦¬":9569,"à¦ĩà¦¶à¦¨":9570,"à¦ĩà¦ªà¦¥":9571,"à¦ĩà¦¸à¦ķ":9572,"à¦ĩà¦·à¦Ĺ":9573,"à¦ªà¦ł":9574,"à¦ªà¦ªà¦¨":9575,"à¦ªà§İà¦¸":9576,"à¦ªà§İà¦ķ":9577,"à¦ªà¦ļà¦ķ":9578,"à¦ªà¦¸à¦²":9579,"à¦ªà¦¸à¦¤":9580,"à¦ªankar":9581,"Ġà¦¦à¦²à¦¤":9582,"Ġà¦¦à¦®à¦²":9583,"à¦Ľà¦ľ":9584,"à¦Ľà¦§à¦°":9585,"Ġà¦¤à¦¸à¦°":9586,"Ġà¦¤à¦Łà¦Ń":9587,"Ġà¦ıà¦Ĺà¦²":9588,"Ġà¦ıà¦ľà¦°":9589,"Ġà¦ıà¦¨à¦²":9590,"Ġà¦¹à§ľ":9591,"Ġà¦¹à¦°à¦ķ":9592,"Ġà¦¹à¦Ĺà¦²":9593,"Ġà¦¹à¦Łà¦ķ":9594,"à¦ľà¦Ŀ":9595,"à¦ľà¦¦à¦°":9596,"à¦ľà¦®à¦¤":9597,"à¦ľà¦®à¦¯":9598,"à¦ľà¦Ńà¦ķ":9599,"à¦¶à¦£":9600,"à¦¶à¦ĺ":9601,"à¦¶à¦¬à¦¤":9602,"à¦¶à¦¬à¦¦":9603,"à¦¶à¦®à¦¶":9604,"à¦¼à§ĩâĢĻ,":9605,"à¦¼à§ĩà¦ĥà¥¤":9606,"âĢĬ":9607,"Ġà¦ħà¦°à¦®":9608,"Ġà¦ħà¦ķà¦Ł":9609,"Ġà¦ħà¦°à¦¥":9610,"Ġà¦ħà¦¶à¦¬":9611,"à¦Ĺà¦¬à¦²":9612,"à¦Ĺà¦¶à¦ķ":9613,"à¦Ĺà¦§à¦°":9614,"à¦Ĺà¦¦à¦ķ":9615,"à¦Ĺà¦§à¦¦":9616,"à§Łà¦®à¦¨":9617,"à§Łà¦ķà¦°":9618,"à¦·à¦ķà¦¬":9619,"à¦·à¦¸à¦Ł":9620,"à¦·à¦¸à¦¹":9621,"Ġà¦¯à¦¡":9622,"Ġà¦¯à§İà¦ķ":9623,"à¦§à¦ķà¦²":9624,"à¦§à¦¸à¦¤":9625,"à¦¡à¦¬à¦²":9626,"à¦¡à¦¬à¦¸":9627,"à¦¡à¦ķà¦Ń":9628,"à¦ļà¦·":9629,"à¦ļà¦°à¦¤":9630,"à¦ļà¦¤à¦¨":9631,"à¦ļà¦ķà¦Ł":9632,"à¦ļà¦ĵà§ľ":9633,"à¦¹à¦ķà¦¤":9634,"à¦¹à¦ĵà§Ł":9635,"à¦¹à¦§à¦¨":9636,"à¦¹à¦²à¦¬à¦¶":9637,"Ġà¦Ĺà¦¥":9638,"Ġà¦Ĺà¦°à¦¦":9639,"Ġà¦Ĺà¦ľà¦¸":9640,"Ġà¦Ĺà¦ľà¦Ĺ":9641,"Ġà¦Ĺà§Łà¦²":9642,"à¦ģâĢĻ":9643,"à¦ģâĢĵ":9644,"à¦ģà¥¤âĢĻ":9645,"à¦£à¦°à¦ķ":9646,"à¦£à¦¬à¦¤":9647,"à¦£à¦ľà¦¯":9648,"à¦£à¦ªà¦¦à¦ķ":9649,"à¦¥à¦¦à¦°":9650,"à¦¥à¦®à¦ķ":9651,"à¦¥à¦¸à¦¨":9652,"à¦¥à¦°à¦ļ":9653,"à¦¥à¦¦à¦£":9654,"à¦¥à¦°à¦¥à¦°":9655,"Ġà¦¶à¦£":9656,"Ġà¦¶à¦®à¦¨":9657,"Ġà¦¶à¦¶à¦ķ":9658,"Ġà¦ľà¦£":9659,"Ġà¦ľà¦ľà¦¸":9660,"Ġà¦ľà¦°à¦ľà¦°":9661,"Ġà¦ļà¦Ļ":9662,"Ġà¦ļà¦ķà¦°":9663,"Ġà¦ļà¦¬à§İ":9664,"Ġà¦Ńà¦°à¦¤à¦°":9665,"Ġà¦Ńà§İà¦°":9666,"Ġà¦°à¦²":9667,"Ġà¦°à¦¸à¦°":9668,"Ġà¦°à§Łà¦¨":9669,"Ġà¦°à¦¸à¦Ł":9670,"Ġà¦°à¦£à¦¦":9671,"Ġà¦°à¦²à¦°":9672,"à¦ĵà¦ªà¦°":9673,"à¦ĵà¦ľà¦¨":9674,"à¦ĵà¦ĺà¦°":9675,"à¦ĵà¦²à¦ľ":9676,"à¦Ńà¦ļ":9677,"à¦Ńà¦¹":9678,"à¦Ńà¦°à¦ª":9679,"Ġà¦ıà¦ķà¦¢":9680,"Ġà¦ıà¦ķà¦ķà¦£":9681,"Ġà¦ıà¦ķà¦§à¦°à¦£":9682,"Ġà¦Ľà¦ĵà¦¯":9683,"Ġà¦Ľà¦°à¦°":9684,"Ġà¦Ĩà¦®à¦ª":9685,"à¦łà¦ĺ":9686,"à¦łà¦¶à¦¬":9687,"à¦¼à¦¾)":9688,"à¦¼à¦¾âĢ¦âĢĿ":9689,"Ġà¦īà¦ĩà¦ª":9690,"Ġà¦īà¦ĩà¦¦":9691,"Ġà¦īà¦¶à¦ĸ":9692,"à¦¾à¦ģà¦¾":9693,"à¦¾à¦ģâĢĿà¥¤":9694,"à¦Ļà¦®à§Ł":9695,"à§ĤâĢĵ":9696,"à§Ĥà¦ĥ":9697,"Ġà¦Ĩà¦°à¦¦":9698,"Ġà¦Ĩà¦°à¦«":9699,"Ġà¦Ĩà¦°à¦ªà¦¨":9700,"Ġà¦Ĩà¦°à¦ĺ":9701,"Ġà¦²à¦ĸà¦¨":9702,"Ġà¦²à¦Ĩ":9703,"Ġà¦²à¦¦à¦ķ":9704,"Ġà¦²à¦¸à¦¸":9705,"Ġà¦²à¤¹à¤°":9706,"Ġà¦ĸà¦°à¦¤":9707,"Ġà¦ĸà¦¸à¦®":9708,"Ġà¦ĸà¦¸à¦¤":9709,"âĢĶà¥¤âĢĻ":9710,"à§ľà¦ĸ":9711,"à§ľà¦ªà¦¤":9712,"à¦°à¦¤à¦ļ":9713,"Ġà¦ªà¦°à¦Ń":9714,"Ġà¦ªà¦°à¦®à¦¤":9715,"à¦ĸà¦¨à¦¨":9716,"Ġà¦¸à¦®à¦²":9717,"Ġà¦¸à¦®à¦°à¦¨":9718,"Ġà¦ĺà¦°à¦®à¦¯":9719,"Ġà¦ĺà¦¨à¦¬à¦¸à¦¤":9720,"à¦¬à¦¨à¦®à§Ł":9721,"à¦¬à¦¨à¦®à¦°à¦£":9722,"âĢĻ:":9723,"âĢĻ?âĢĿ":9724,"à¦¼à¦¿âĢĻà¥¤":9725,"Ġà¦®à¦¨à¦¬":9726,"Ġà¦®à¦¨à¦®à¦¤":9727,"Ġà¦®à¦¨à¦ªà¦Ł":9728,"Ġà¦®à¦¨à¦Ńà¦°":9729,"Ġà¦®à¦¨à¦Ĺà¦¡":9730,"Ġà¦®à¦¨à¦¨à¦ļ":9731,"Ġà¦®à¦¨à¦ķà¦£":9732,"Ġà¦®à¦¨à¦Ĺà§ľ":9733,"à¦®à¦¨à¦§":9734,"à¦ªà¦°à¦ĩ":9735,"à¦°à¦£à¦°":9736,"à¦°à¦£à¦¸":9737,"à¦°à¦£à¦¦":9738,"à¦°à¦£à¦¶":9739,"à¦°à¦£à¦ľà¦¨":9740,"à¦°à¦£à¦¬à¦¬":9741,"Ġà¦ıà¦ĩà¦¡":9742,"à¦ŀà¦ĩ":9743,"à§İà¦ªà¦Ł":9744,"à§İà¦Ĩà¦¤":9745,"à§İà¦ļà¦®à¦ķ":9746,"à¦īà¦Ŀ":9747,"à¦īà¦°à¦ķ":9748,"à¦īà¦¦à§Ł":9749,"à¦īà¦ĩà¦Ł":9750,"à¦īà¦ªà¦¬":9751,"à¦īà§ľà¦¨":9752,"à¦¿,âĢĿâĢĶ":9753,"à¦«à¦Ĺ":9754,"à¦«à¦«":9755,"à¦«à¦ĵà¦¯":9756,"à¦°à¦¬à¦°à¦¤":9757,"à¦¤à¦°à¦ªà¦¤":9758,"à¦¤à¦°à¦ĸà¦£":9759,"à¦ªà¦¨à¦Ĺà¦°":9760,"à¦ıà¦ľà¦¨":9761,"à¦ıà¦¸à¦ª":9762,"à¦ıà¦«à¦¸":9763,"Ġà¦Ĩà¦²à¦¹":9764,"Ġà¦Ĩà¦²à¦¬à¦¤":9765,"Ġà¦Ĩà¦²à¦®à¦¦":9766,"à¦¬à¦°à¦·":9767,"à¦¬à¦°à¦Ń":9768,"à¦¬à¦°à¦Ŀ":9769,"à¦¬à¦°à¦ķà¦¤":9770,"à¦°à¦ķà¦ĩ":9771,"Ġà¦Ĩà¦¸à¦¹":9772,"Ġà¦Łà¦Ł":9773,"Ġà¦Łà¦Ĺ":9774,"Ġà¦Łà¦²à¦ķ":9775,"âĢĿ.":9776,"âĢĿ?":9777,"à¦Ĩà¦ŀ":9778,"à¦Ĩà¦°à¦®":9779,"à¦Ĩà¦¨à¦¤":9780,"à¦Ĩà¦Ĺà¦¤":9781,"à¦Ĩà¦ĩà¦°":9782,"à¦Ĩà¦ªà¦Ł":9783,"à¦Ĩà¦ĩà¦Ł":9784,"à¦Ĩà¦ĩà¦¤":9785,"à¦Ĩà¦§à¦¬":9786,"à¦Ĩà¦¹à¦°à¦£":9787,"à¦Ĩà¦¬à¦¹":9788,"à¦Ĩà¦ªà¦²":9789,"à¦Ĩà¦¶à¦¯":9790,"à¦Ĩà¦¦à¦¬":9791,"à¦Ĩà¦ĩà¦ľ":9792,"à¦Ĩà¦ĩà¦¶":9793,"à§ĮâĢĵ":9794,"Ġà¦¡à¦«":9795,"Ġà¦¹à¦²à¦°":9796,"Ġà¦¹à¦²à¦®":9797,"à¦ĺà¦¹":9798,"à¦ĺà§İ":9799,"à¦ĺà¦Ĺà¦²":9800,"à¦ĺà¦®à§Łà¦¤":9801,"Ġà¦ĩà¦§":9802,"Ġà¦ĩà¦Ĺà¦¨":9803,"Ġà¦Ŀà¦°à¦ª":9804,"à§Īà¦Ĥ":9805,"à¦¼à¥¤[":9806,"à¦¼à¥¤âĢĶ":9807,"à¦¬à¦²à¦¶":9808,"à¦¬à¦²à¦¤à¦°":9809,"à§ģà¦ģ!":9810,"à§ģà¦ģà¦ĥ":9811,"à§ģà¦ģâĢ¦":9812,"âĢĵâĢĻ":9813,"Ġà¦ħà¦¬à¦Ľ":9814,"Ġà¦łà¦®à¦ķ":9815,"à¦·à¦£à¦¯":9816,"à¦·à¦£à¦¦":9817,"à¦·à¦£à¦¸à¦¹":9818,"Ġà¦¬à¦¸à¦¨à¦Ĺ":9819,"à¦¨à¦¤à¦ĩ":9820,"Ġà¦¬à¦¨à¦¶":9821,"à¦ķà¦²à¦Ń":9822,"à¦ķà¦²à¦¬à¦¨":9823,"à¦ķà¦²à¦¬à¦¦":9824,"Ġà¦¨à¦¤à¦¶":9825,"à¦ķà¦°à¦ª":9826,"à¦ķà¦°à¦ľ":9827,"à§ĭ,âĢĶ":9828,"à§ĭ,âĢĿâĢĶ":9829,"à¦ħà¦ľà¦°":9830,"à¦ħà¦¯à¦¥":9831,"à¦ħà¦ķà¦¥":9832,"à¦ħà¦ľà§Ł":9833,"à¦ħà¦¨à¦Łà¦¨":9834,"à§ĩ?-":9835,"à§ĩ??":9836,"à¦¸à¦¬à¦¸":9837,"à¦¸à¦¬à¦Ĺ":9838,"à¦¸à¦¬à¦§":9839,"à¦¸à¦¬à¦ķà¦Ł":9840,"à¦¸à¦¬à¦¸à¦®à§Ł":9841,"à§ĭà¥¤âĢĺ":9842,"Ġà¦¤à¦¬à¦ķ":9843,"Ġà¦ħà¦®à¦¸":9844,"Ġà¦ħà¦®à¦°à¦ķ":9845,"Ġà¦ħà¦®à¦°à¦¦":9846,"Ġà¦ħà¦®à¦°à¦ª":9847,"à¦²à¦ķà¦ĩ":9848,"à¦²à¦ķà¦¡":9849,"à¦¬à¦¤à¦ĵ":9850,"à¦°à¦¨à¦ķ":9851,"Ġà¦Ĩà¦¨à¦¹":9852,"à¦¤à¦¬à¦Ł":9853,"à¦¤à¦¬à¦Ń":9854,"à¦¤à¦¬à¦®à¦¨":9855,"à¦¤à¦¬à¦¦à¦²":9856,"Ġà¦ıà¦²à¦¸":9857,"Ġà¦īà¦¦à¦ķ":9858,"Ġà¦īà¦¦à¦°à¦ª":9859,"à¦ķà¦¤à¦ĩ":9860,"Ġà¦¶à¦¬à¦Ĺà¦¨":9861,"Ġà¦ħà¦¦à¦²":9862,"Ġà¦¬à¦°à¦ĵ":9863,"à¦¨à¦ĵà¦°":9864,"Ġà¦ĺà¦°à¦Ń":9865,"à¦¯à¦¬à¦ĩà¦¤":9866,"à¦¦à¦°à¦ĩ":9867,"à¦¦à¦°à¦ŀ":9868,"à¦Ĺà¦²à¦¨":9869,"à¦Ĺà¦²à¦Ń":9870,"à¦Ĺà¦²à¦ķà¦°":9871,"Ġà¦ľà¦²à¦ķà¦²":9872,"Ġà¦ľà¦²à¦Ŀà§ľ":9873,"Ġà¦°à¦ķà¦¬":9874,"à¦Ĩà¦®à¦Ĺ":9875,"à¦Ĩà¦®à¦°à¦£":9876,"Ġà¦¸à¦°à¦ĸ":9877,"Ġà¦¸à¦°à¦ªà¦ŀ":9878,"Ġà¦®à¦¹à¦«":9879,"Ġà¦ħà¦¤à¦¸":9880,"Ġà¦ħà¦¤à¦ĩ":9881,"à¦Ĺà¦¤à¦¸":9882,"à¦Ĺà¦¤à¦ĵ":9883,"à¦²à¦¤à¦ĩ":9884,"à¦°à¦¹à¦¹":9885,"à¦°à¦¹à¦°à¦ķ":9886,"à¦°à¦¹à¦Ńà¦°":9887,"Ġà¦ıà¦®à¦¨à¦¤":9888,"à¦®à¦¤à¦²à¦¬":9889,"à¦¹à¦¸à¦®":9890,"Ġà¦īà¦ªà¦Ĺà¦¤":9891,"à¦°à¦ľà¦¯":9892,"à¦°à¦ľà¦°à¦®à¦£":9893,"à¦¨à¦¬à¦¬à¦°":9894,"Ġà¦ķà¦²à¦Ĺ":9895,"à¦²à¦¨à¦¨":9896,"à¦²à¦¨à¦¶":9897,"à¦²à¦¨à¦°à¦¤":9898,"à¦§à¦¨à¦°":9899,"à¦§à¦¨à¦¦":9900,"à¦ļà¦¨à¦Ńà¦Ļ":9901,"à¦®à¦ķà¦°à¦£à¦ĵ":9902,"à¦ĩà¦²à¦ĵ":9903,"à¦¯à¦¤à¦²":9904,"à¦¯à¦¤à¦Ł":9905,"à¦¯à¦¤à¦ĵ":9906,"à¦°à¦¦à¦£":9907,"Ġà¦¹à¦łà¦¤":9908,"à¦¿à¦ĥâĢĵ":9909,"Ġà¦¸à¦¹à¦°":9910,"Ġà¦ħà¦§à¦®à¦ķ":9911,"Ġà¦īà¦¤à¦¥":9912,"à¦¸à¦¨à¦ªà¦°":9913,"à¦ĩà¦¨à¦¶":9914,"à¦ĩà¦¨à¦·":9915,"Ġà¦ľà¦®à¦ľ":9916,"à¦ıà¦ĩà¦°":9917,"à¦¹à¦²à¦®":9918,"à¦¹à¦²à¦®à¦¯":9919,"à¦¹à¦²à¦Ńà¦°":9920,"à¦¼à§ĭà¦ĥ":9921,"ĠâĢĶâĢĻ":9922,"à¦¿-âĢĺ":9923,"à¦Łà¦ķà¦ĩ":9924,"à¦Łà¦ķà¦ļ":9925,"à¦Łà¦ķà¦ĵ":9926,"à§İà¦¸à¦¹":9927,"à¦¿?..":9928,"Ġà¦¬à¦¹à¦¤":9929,"Ġà¦īà¦¨à¦Ĩà¦¶":9930,"Ġà¦¨à§Łà¦¨à¦Ńà¦°":9931,"Ġà§°":9932,"à¦¾?âĢĶ":9933,"à¦¾?âĢĵ":9934,"à¦¦à§Łà¦ĸ":9935,"Ġà¦ķà¦®à¦²à¦ķ":9936,"à¦¤à¦²à¦ľ":9937,"à¦¤à¦²à¦ĸ":9938,"à¦¤à¦²à¦§":9939,"à¦°à¦ĵà¦°":9940,"à¦°à¦ĵà¦¨":9941,"Ġà¦ªà¦¦à¦²":9942,"Ġà¦ªà¦¦à¦ªà¦¥":9943,"à¦¸à¦®à¦·":9944,"Ġà¦¬à¦Ľà¦°à¦ĵ":9945,"à§ģâĢĻâĢĵ":9946,"à¦¶à¦¬à¦¬":9947,"à¦¤à¦ķà¦ª":9948,"à¦ªà¦¥à¦ķ":9949,"à§įâĢĮâĢĮ":9950,"à§įâĢĮà¥¤âĢĻ":9951,"Ġà¦ħà¦®à¦²à¦§":9952,"à¦¤à¦®à¦§":9953,"à¦¤à¦®à¦Ń":9954,"Ġà¦«à¦²à¦Ń":9955,"Ġà¦«à¦²à¦ķà¦Ł":9956,"à¦°à¦Ńà¦¬à¦¨":9957,"Ġà¦ħà¦¶à¦¤":9958,"Ġà¦Ĳà¦¦":9959,"à¦ªà¦ķà¦Ĺ":9960,"à¦®à¦¬à¦§":9961,"à¦¶à¦ķà¦ĩ":9962,"à¦¸à¦²à¦ĸ":9963,"à¦¬à¦ķà¦ª":9964,"à¦¬à¦ķà¦ĵ":9965,"à§°à§Ł":9966,"à§°à¦¬à¦¨":9967,"à§°à¦ªà¦°":9968,"à§°à¦¬à¦²":9969,"à¦ľà¦²à¦Ľ":9970,"à¦ľà¦²à¦ĸ":9971,"!âĢĿà¥¤":9972,"Ġà¦Ĩà¦§à¦®à¦£":9973,"à¦·à¦°à¦°":9974,"à¦ĸà¦¬à¦ĩ":9975,"à¦¬à¦¬à§İ":9976,"à¦¬à¦¬à¦¶à¦¤":9977,"Ġà¦¶à¦¤à¦§à¦®":9978,"à¦¯à¦¸à¦¹":9979,"à¦¯à¦¸à¦ŀ":9980,"Ġ(âĢľ":9981,"Ġà¦īà¦²à¦Łà¦ª":9982,"à§ĩâĢĵâĢĻ":9983,"Ġà¦īà§İà¦ķà¦²":9984,"Ġà¦īà§İà¦ªà¦²":9985,"à¦¨à¦¸à¦¦":9986,"à¦¨à¦¸à¦Ń":9987,"à¦¨à¦Ĺà¦ŀ":9988,"Ġà¦¨à¦¬à¦§":9989,"Ġà¦¨à¦¬à¦ķà¦²":9990,"Ġà¦¨à¦¬à¦īà¦¦":9991,"à¦ªà¦¸à¦¹":9992,"à¦Łà¦¬à¦ĩà§Ł":9993,"à¦¬à¦¶à¦¤à¦ĩ":9994,"Ġà¦ļà¦ķà¦°à¦¬à¦°à¦¤":9995,"à¦°à¦Ĺà¦Ŀ":9996,"à¦¼à§ĢâĢĻ":9997,"à¦²à¦Ľà¦¬":9998,"à¦ĩà¦Łà¦ª":9999,"Ġà¦¸à¦¹à¦ľà¦¸à¦°à¦²":10000,"à¦Łà¦°à¦Ĺà¦¤":10001,"Ġà¦¦à¦°à¦ķà¦·":10002,"à¦ĩà¦¤à¦¸":10003,"à¦ķà¦ķà¦£":10004,"Ġà¦¬à¦Łà¦ª":10005,"à¦Ĩà¦ľà¦Ĺ":10006,"à¦·à¦®à¦Ń":10007,"à¦ıà¦¬à¦®à¦¸":10008,"à¦¾âĢĻ!":10009,"à¦¾âĢĻ!âĢĿ":10010,"à¦ľà¦¸à¦ªà¦¤":10011,"à¦²à¦¸à¦Ł":10012,"à¦¯à¦¯à¦ľ":10013,"à¦¿!âĢĵ":10014,"à¦ªà¦£à¦ĵ":10015,"à¦²à¦®à¦¶à¦²":10016,"Ġà¦¨à¦°à¦®à¦Ń":10017,"Ġà¦§à¦°à¦¨à¦§":10018,"à¦²à¦Ĺà¦¡":10019,"Ġà¦¸à¦¦à¦Ń":10020,"Ġà¦īà§İà¦¸à¦¬à¦ķ":10021,"Ġà¦īà§İà¦¸à¦¬à¦®à¦£":10022,"Ġà¦§à¦¨à¦Ń":10023,"Ġà¦Ĺà¦£à¦²":10024,"Ġà¦Ĺà¦£à¦ķ":10025,"à¦®à¦Ĺà¦£":10026,"à¦®à¦Ĺà§ľ":10027,"Ġà¦ķà¦ªà¦ļ":10028,"à¦®à¦¹à¦¦":10029,"à¦²à¦Łà¦¨à¦Ĺà¦ŀ":10030,"à¦Ĩà¦²à¦¹":10031,"à¦¹à¦°à¦£à¦Ł":10032,"à¦¨à¦Ńà¦¸":10033,"à¦¶à¦²à¦¯":10034,"à¦¶à¦²à¦ĩ":10035,"Ġ:-":10036,"Ġà¦ªà¦°à¦®à¦®":10037,"à¦¯à¦ªà¦²":10038,"à§ĩâĢ¦?âĢĿ":10039,"à§ĩâĢ¦..":10040,"à¦¬à¦Ľà¦°à¦ĩ":10041,"à§ĩ?âĢĻâĢĶ":10042,"à¤¥":10043,"Ġà¦ķà§Łà¦ľà¦¨":10044,"à¦°à¦ĸà¦£":10045,"à¦ıà¦¸à¦¬à¦ķ":10046,"Ġà¦°à¦¸à¦§":10047,"à¦·à§Łà¦ĩ":10048,"à¦ĩà¦¡à¦¬":10049,"Ġà¦ľà§Łà¦¦":10050,"à¦¬à¦Ńà¦ķ":10051,"à§ĭ!âĢĶ":10052,"à¦ļà¦Łà¦ªà¦Ł":10053,"à¦ĺà¦¨à¦ĸ":10054,"Ġà¦ķà¦²à¦®à¦ļ":10055,"à¦¤à¦Ńà¦Ļ":10056,"Ġà¦ľà¦Ĺà¦¤à¦ķ":10057,"Ġà¦®à¦¦à¦®à¦¤":10058,"à¦¿âĢĻ?":10059,"head":10060,"Ġà¦Ĭà¦§":10061,"Ġà¦Ĭà¦·à¦°":10062,"à¦ĺà¦²à¦¦":10063,"Ġà¦Ĩà¦ĩà¦¨à¦ª":10064,"Ġà¦Ĩà¦ĩà¦¨à¦Ĺ":10065,"Ġà¦¨à¦°à¦ªà¦¤":10066,"à§ĩ:-":10067,"anc":10068,"ani":10069,"à§ªà§¬":10070,"à¦¾à¦ĥ!âĢĻ":10071,"à¦¾âĢ¦âĢ¦":10072,"à¦¾âĢ¦à¥¤âĢĻ":10073,"iness":10074,"à¦¦à¦¶à¦ľà¦¨":10075,"à¦¶à¦¤à¦¬à¦°":10076,"à¦īà¦¦à¦ĺ":10077,"Ġà¦¶à¦ªà¦¥à¦ªà¦¤":10078,"Ġà¦ªà¦²à¦ķà¦¹":10079,"à¦¬à¦£à¦§":10080,"à¦²à§Łà¦Ĺ":10081,"Ġà¦®à¦¨à¦¨à¦¶à¦ķ":10082,"à¦¿?âĢĻâĢĶ":10083,"Ġà¦ħà¦¨à¦²à¦¶":10084,"à¦Īà¦·à§İ":10085,"à¦¨à§Łà¦¨à¦®":10086,"à¦¬à¦ľà¦¨à¦¨":10087,"à¦¬à¦ľà¦¨à¦¹à¦¤":10088,"à¦¬à¦ľà¦¨à¦¸à¦®à¦ķ":10089,"à¦Ĺà¦°à¦£à¦ĩ":10090,"à¦¿âĢ¦à¥¤âĢĿ":10091,"à¦¿âĢ¦âĢĿà¥¤":10092,"Ġà¦ĩà¦¸à¦¸":10093,"à¦¼!âĢ¦":10094,"à§Ńà§«":10095,"à¦¨à¦®à¦ŀ":10096,"à¦ĩà¦ªà¦Ĺ":10097,"Ġà¦ĸà¦°à¦ļà¦ĩ":10098,"Ġà¦ıà¦¡à¦ĵà¦¯":10099,"ense":10100,"Ġà¦°à¦¥à¦ļ":10101,"ala":10102,"ating":10103,"ative":10104,"à¦¯à§Łà¦ķ":10105,"à§¬à§©":10106,"à§®à§¦":10107,"à¦ªà¦Ĺà¦ª":10108,"à¦Łà¦¦à¦·":10109,"Ġà¦ĩà¦Łà¦Ĺ":10110,"ited":10111,"Ġà¦Ĩà¦ĩà¦ļ":10112,"Ġà¦ħà¦¬à¦¨à¦®":10113,"Ġà¦Ĩà¦ĸà¦ĸ":10114,"à§İà¦ªà§°":10115,"Ġwal":10116,"Ġwant":10117,"à¦ıà¦¸à¦ıà¦¸à¦¸":10118,"Ġà¦Ńà¦¬à¦¨à¦Ĺ":10119,"Ġsin":10120,"Ġslow":10121,"à¦ıà¦¤à¦¸à¦¬":10122,"Ġà¦ļà§ľà¦Ľ":10123,"Ġà¦ļà§ľà¦ļà§ľ":10124,"Ġcor":10125,"Ġcall":10126,"Ġcattle":10127,"Ġcreated":10128,"à¦Ĺà¦¸à¦ĩ":10129,"Ġà¦¬à¦ĩà¦Łà¦ĩ":10130,"Ġà¦ľà¦Ĺà§İà¦¦":10131,"Ġà¦ķà¦ĩà¦°à¦¤":10132,"Ġbel":10133,"Ġà¦«à¦Łà¦ķà¦Ł":10134,"Ġmur":10135,"Ġmay":10136,"Ġmix":10137,"Ġà¦¬à¦°à¦«à¦ª":10138,"...âĢĻ":10139,"Ġfather":10140,"Ġfirst":10141,"à¦ħà¦ªà¦¹":10142,"Ġà§§à§¯à§Ńà§ª":10143,"Ġà§§à§¯à§Ńà§¬":10144,"à§ĭâĢ¦âĢĻ":10145,"Ġà¦ļà¦°à¦£à¦ļ":10146,"ĠOn":10147,"ĠOr":10148,"ĠOff":10149,"Ġpur":10150,"Ġpart":10151,"ĠSE":10152,"ĠSen":10153,"ics":10154,"icro":10155,"ĠâĢ¦.":10156,"ĠIf":10157,"ĠIs":10158,"lex":10159,"Ġà¦ľà¦¨à¦Ĺà¦£à¦®à¦¨":10160,"ingdom":10161,"Ġà¤¤":10162,"Ġà¤µ":10163,"Ġà¤ħ":10164,"Ġà¤ĸ":10165,"Ġà¤Ľ":10166,"Ġà¤Ŀ":10167,"Ġdist":10168,"Ġdown":10169,"Ġdrop":10170,"Ġhand":10171,"Ġhum":10172,"Ġhands":10173,"à¦Ĩà¦ĩà¦ĵà¦Ł":10174,"Ġà§«à§¬":10175,"Ġà§«à§¦à§¦à§¦":10176,"Ġà¦ĵà¦ľà¦¨à¦¹":10177,"à¦Ńà¦°à¦¤à¦¬":10178,"à¦ıà¦ķà¦¬à¦Ľà¦°":10179,"Ġà¦Ĺà¦Ĺà¦¨à¦Ľ":10180,"ĠPH":10181,"ĠParg":10182,"ĠPuja":10183,"Ġà¦²à¦Ļà¦ĺà¦¨":10184,"Ġà¦ĩà¦īà¦ıà¦«à¦ĵ":10185,"ĠBrit":10186,"ĠBrahm":10187,"Ġint":10188,"Ġà§§à§¯à§«à§ª":10189,"à§§à§¨à§«":10190,"Ġà¦ªà¦¤à¦¨à¦¶":10191,"Ġà§§à§¨à§¦":10192,"à§§à§¯à§¦":10193,"à§§à§¯à§§à§":10194,"Ġà¦ĵà¦¹à¦¹":10195,"Ġà¦Ńà¦Łà¦Ńà¦Ł":10196,"elves":10197,"olar":10198,"olume":10199,"Ġà§Ńà§¦":10200,"à§§à§¦à§¦":10201,"Ġequ":10202,"ĠTO":10203,"à¦¶à¦¶à¦§à¦°":10204,"à¦īà¦łà¦²":10205,"à¦¼âĢ¦âĢĻ":10206,"urga":10207,"ots":10208,"ĠDr":10209,"ĠDurga":10210,"Ġà¦®à¦¤à¦²à¦¬à¦¬":10211,"Ġà¦®à¦¤à¦²à¦¬à¦ĵ":10212,"Ġbeg":10213,"iment":10214,"Ġà¦ĵà¦°à¦ķà¦®à¦Ł":10215,"ĠNew":10216,"ĠNaz":10217,"ĠNandita":10218,"Ġà¦ªà¦¦à¦¯à¦¨":10219,"Ġgo":10220,"Ġgu":10221,"Ġgrow":10222,"Ġà¦¸à§ľà¦ķà¦ªà¦¥":10223,"à¦¶à¦Ńà¦¬à¦¨":10224,"Ġà§§à§«à§¦":10225,"ĠHouse":10226,"Ġà¦īà¦ĩà¦ł":10227,"Ġrem":10228,"osop":10229,"Ġà¦¬à¦°à¦ķà¦¨":10230,"odern":10231,"à¦·à¦²à¦ªà¦°":10232,"Ġà§§à§ªà§¦à§¦":10233,"ĠGand":10234,"Ġà¦§à§ľà¦®à§ľ":10235,"à¦Ĭà¦·":10236,"Ġnew":10237,"ĠEng":10238,"rest":10239,"resent":10240,"ops":10241,"arth":10242,"Ġ19à§ª":10243,"Ġher":10244,"ĠWhat":10245,"Ġà¦Ĩà¦ĩà¦¸à¦¸":10246,"à¦¡à¦īà¦ĩà¦¥":10247,"Ġà§§à§¯à§©à§ª":10248,"Ġà§§à§¯à§©à§¯":10249,"Ġà§§à§¯à§¬à§¨":10250,"ipon":10251,"Ġà¦¸à¦°à¦¬à§İ":10252,"Ġà¦ľà¦¬à¦°à¦¦à¦ĸà¦²":10253,"Ġà§§à§¯à§¦à§¯":10254,"istic":10255,"ĠThere":10256,"Ġsec":10257,"Ġcons":10258,"ived":10259,"ivide":10260,"Ġadopt":10261,"ĠVer":10262,"ĠVolume":10263,"Ġjoy":10264,"ĠÙ¾":10265,"aste":10266,"à§ģà§ģà§ģ":10267,"Ġà¦ķà¦ĩà¦²à¦ľ":10268,"à¦īà¦Ńà§Łà¦ĩ":10269,"ogn":10270,"Ð¾Ð²":10271,"à¦Ķà¦·à¦§":10272,"à§§à§¯à§Ńà§«":10273,"Ġà¦Ĩà¦ĩà¦Ľà¦¸":10274,"ritical":10275,"Ġrhy":10276,"à¦ĩà¦·à¦·":10277,"Ġamong":10278,"Ġimport":10279,"Ġalso":10280,"Ġalways":10281,"à§§à§¯à§©à§¯":10282,"Ġlet":10283,"à¦ľà¦¨à¦Ĺà¦£à¦®à¦¨":10284,"Ġexp":10285,"ĠĠĠĠĠĠĠĠĠĠĠĠĠĠĠĠĠĠĠĠĠĠĠĠĠĠĠĠĠĠĠĠ":10286,"âĢķâĢķâĢķâĢķâĢķâĢķâĢķâĢķâĢķâĢķâĢķâĢķâĢķâĢķâĢķâĢķ":10287,"à¦¦à¦«à¦¤à¦°":10288,"ĠHere":10289,"COP":10290,"URE":10291,"ontu":10292,"Ġspirit":10293,"Ġedition":10294,"ĠArjun":10295,"à«į":10296,"Ġà¦Ĺà¦Ĺà¦¨à¦¬":10297,"ĠPartition":10298,"ĠÑģÐ»":10299,"ĠRohit":10300,"Ġà¦°à¦¸à¦ķà¦·à¦¹":10301,"Ġtransit":10302,"à¦Ĥ)]":10303,"Ġdyn":10304,"ĠYouTube":10305,"Ġillusion":10306,"ready":10307,"Ġdisc":10308,"ĠMemorial":10309,"ĠUSB":10310,"Ġoriginal":10311,"Ġcontinu":10312,"Ġfamily":10313,"echn":10314,"ĠPaurava":10315,"Ġà¦ħà¦ĺà¦Łà¦¨à¦ĺà¦Łà¦¨à¦ªà¦Ł":10316,"velopment":10317,"uggestion":10318,"rush":10319,"Ġà¦¨escafÃ©":10320,"Ġmurm":10321,"ĠNazrul":10322,"osophy":10323,"!\"":10324,")âĢĻ":10325,",,":10326,"-,":10327,".)":10328,"/âĢĻ":10329,"46":10330,"48":10331,"49":10332,"51":10333,"?âĢ¦.":10334,"Ar":10335,"ATE":10336,"Boss":10337,"DE":10338,"IF":10339,"Int":10340,"ITI":10341,"Joy":10342,"LE":10343,"Ripon":10344,"TA":10345,"VR":10346,"VIN":10347,"aus":10348,"air":10349,"bi":10350,"bed":10351,"ble":10352,"bel":10353,"che":10354,"cury":10355,"count":10356,"du":10357,"eg":10358,"eo":10359,"eor":10360,"ear":10361,"ered":10362,"egr":10363,"gnung":10364,"has":10365,"hip":10366,"hana":10367,"ien":10368,"ka":10369,"king":10370,"my":10371,"mer":10372,"med":10373,"mlet":10374,"not":10375,"oom":10376,"ple":10377,"personal":10378,"rand":10379,"ram":10380,"rist":10381,"rong":10382,"rvas":10383,"sa":10384,"tick":10385,"ues":10386,"uff":10387,"va":10388,"vi":10389,"wam":10390,"word":10391,"wise":10392,"yst":10393,"yanta":10394,"zen":10395,"¼Î":10396,"Ã¶":10397,"ÃŁ":10398,"Ïģ":10399,"Ïĥ":10400,"Ïħ":10401,"Ð±":10402,"Ñĩ":10403,"Ñĸ":10404,"Ò¯":10405,"Õ½":10406,"ÖĢ":10407,"×ĵ":10408,"×ŀ":10409,"Ø®":10410,"Ø¹":10411,"ÙĤ":10412,"Ùĳ":10413,"Ú¯":10414,"ÛĴ":10415,"à¬":10416,"âģ":10417,"Ġ0":10418,"Ġ8":10419,"Ġ}":10420,"Ġà§İà¦ª":10421,"Ġà§İà¦ªà¦°":10422,"Ġign":10423,"ĠÃĹ":10424,"Ġident":10425,"ĨĴ":10426,"Ŀáĥ":10427,"łáĥ":10428,"Ġà¦ģ":10429,"Ġà¦ŀ":10430,"à¦¾à§ĭ":10431,"à¦¾à¦¾à¦ģ":10432,"à¦¾à§ĩ,":10433,"à¦¾à§ĩ?":10434,"à¦¾ÂŃ":10435,"à¦¾à§įà¦ģ":10436,"à§ĩà¦¿":10437,"à§ĩà§ģ":10438,"à§ĩï»¿":10439,"à¦°à¦īà¦¦":10440,"à¦°à¦¡à¦ķ":10441,"à¦°à¦Ŀà¦¡":10442,"à§į?âĢĻ":10443,"à¦¿à¦¿":10444,"à¦¿âĢį":10445,"à¦¨à¦®à¦ķ":10446,"à¦¨à¦¶à¦¬":10447,"à¦¨à¦¸à¦°":10448,"à¦¨à¦¦à¦²":10449,"à¦¨à¦ĩà¦¤":10450,"à¦¨à¦®à¦§":10451,"à¦¨à¦ªà¦²":10452,"à¦¨à¦°à¦ķà¦£":10453,"à¦¤à¦¦à¦²":10454,"à¦¤à¦¯à¦¶":10455,"à¦¤à§İà¦ªà¦°à¦¤":10456,"à¦²å":10457,"à¦²à¦°à¦¸":10458,"à¦²à¦Ĺà¦¨":10459,"à¦²à¦¦à¦²":10460,"à¦²à¦ªà¦¡":10461,"à¦²à¦Ŀà¦°":10462,"à¦²à¦ªà¦²":10463,"à¦²à¦¦à¦ķ":10464,"à¦²à¦¡à¦°":10465,"à¦²à¦°à¦¤à¦¨":10466,"à¦ķà¦ªà¦¨":10467,"à¦ķà¦ķà¦²":10468,"à¦ķà¦¤à¦¨":10469,"à¦ķà¦¦à¦¨":10470,"à¦ķà¦Ĺà¦¨":10471,"à¦ķà¦ľà¦²":10472,"à¦ķà¦¸à¦®à¦¯":10473,"à¦ķà¦°à¦¤à¦²":10474,"à§ģ+":10475,"à§ģ/":10476,"à§ģâĢĶâĢľ":10477,"à¦¯à¦¤à¦¬":10478,"à¦¯à¦²à¦¤":10479,"à¦¯à¦¹à¦¸":10480,"à¦¯à¦¦à¦¯":10481,"à¦¯à¦ļà¦¨":10482,"à¦¯à¦¨à¦¨":10483,"à¦¯à¦ĺà¦°":10484,"à¦¯à¦²à¦Ĺ":10485,"à¦¯à¦ĺà¦¨":10486,"à¦¯à¦¶à¦°":10487,"à¦¯à¦ĸà¦ļ":10488,"à¦¯à¦ĺà§ľ":10489,"à¦¬à¦ĸà¦¨":10490,"à¦¬à¦¸à¦¬":10491,"à¦¬à¦¯à¦¨":10492,"à¦¬à¦Łà¦ķ":10493,"à¦¬à¦¶à¦¬":10494,"à¦¬à¦¸à¦°":10495,"à¦¬à¦¬à¦¸":10496,"à¦¬à¦ľà¦²":10497,"à¦¬à¦Łà¦°":10498,"à¦¬à¦ĩà¦¬":10499,"à¦®à¦°à¦¹":10500,"à¦®à¦®à¦£":10501,"à¦®à¦¦à¦²":10502,"à¦®à¦¬à¦¸":10503,"à¦®à¦¦à¦¨à¦¬":10504,"à¦¼..":10505,"à¦¼à§Īà¦ĥ":10506,"à¦¼âĢĿâĢĵ":10507,"à¦¼...âĢĿ":10508,"à¦¼âĢĿ,":10509,"Ġà¦ķà¦¤à¦°":10510,"Ġà¦ķà¦ªà¦¨":10511,"Ġà¦ķà¦¬à¦¤":10512,"Ġà¦ķà¦ĩà¦¯":10513,"Ġà¦ķà¦ĩà¦®":10514,"à§ĭà§ĭ":10515,"à§ĭâĢĻ-":10516,"à§ĭ)à¥¤":10517,"à§ĭâĢĿ,":10518,"Ġà¦¬à¦ĵà¦¯":10519,"Ġà¦¬à¦ĵà§Ł":10520,"Ġà¦¬à¦Łà¦ķ":10521,"Ġà¦¬à¦ķà¦¨":10522,"Ġà¦¬à¦īà¦¨":10523,"Ġà¦¬à¦°à¦¬à¦£":10524,"Ġà¦¬un":10525,"Ġà¦¸à¦£":10526,"Ġà¦¸à¦Ĺà¦¨":10527,"Ġà¦¸à¦ĺà¦¨":10528,"à¥¤/":10529,"Ġà¦ªà¦²à¦¤":10530,"Ġà¦ªà¦ļà¦¤":10531,"Ġà¦ªà¦¬à¦¨à¦ķ":10532,"à¦¸à§Ł":10533,"à¦¸à¦ªà¦°":10534,"à¦¸à¦°à¦®":10535,"à¦¸à¦Ĺà¦¤":10536,"à¦¸à¦°à¦¹":10537,"à¦¸à¦²à¦¨":10538,"à¦¸à¦°à¦¦":10539,"à¦¸à¦¸à¦®":10540,"à¦¸à¦ªà¦¥":10541,"à¦¸à¦Łà¦¬":10542,"à¦¸à¦Łà¦°":10543,"à¦¸à¦Łà¦¨":10544,"à¦¸à¦¦à¦¸":10545,"à¦¸à¦°à¦¬à¦°":10546,"à¦¸à¦ĸà¦£":10547,"à¦¸à¦°à¦¸à¦¤":10548,"Ġà¦Ĩà¦ĸà¦¨":10549,"Ġà¦Ĩà¦§à¦ķ":10550,"Ġà¦Ĩà¦īà¦²à¦¦":10551,"à¦¦à¦¦à¦°":10552,"à¦¦à¦¶à¦¨":10553,"à¦¦à¦ªà¦¥":10554,"à¦Łà¦¥":10555,"à¦Łà¦Ļ":10556,"à¦Łà¦ŀ":10557,"à¦Łà¦¬à¦¦":10558,"à¦Łà¦®à¦£":10559,"à¦Łà¦ªà¦Ł":10560,"à¦Łà¦¨à¦¦":10561,"à¦Łà¦¬à¦¯":10562,"à¦Łà¦¸à¦ķ":10563,"à¦Łà¦®à¦¹":10564,"à¦Łà¦Ŀà¦¨":10565,"à¦Łà¦£à¦ª":10566,"Ġà¦¨à¦¹à¦²":10567,"Ġà¦¨à¦ĩà¦ķ":10568,"Ġà¦¨à¦Łà¦¬":10569,"Ġà¦¨à¦ĩà¦¬":10570,"Ġà¦¨à¦²à¦ĸ":10571,"Ġà¦¨à¦¬à¦ªà¦¤":10572,"Ġà¦®à¦¬":10573,"Ġà¦®à¦Ń":10574,"Ġà¦®à¦ĩà¦²":10575,"Ġà¦®à¦ĩà¦¨":10576,"Ġà¦®à¦Ĺà¦°":10577,"Ġà¦®à¦Łà¦°":10578,"Ġà¦®à¦Ľà¦²":10579,"Ġà¦®à¦łà¦¬":10580,"Ġà¦®à¦°à¦ľà¦Ĺà¦¤":10581,"à¦ĩà¦¬à¦¨":10582,"à¦ĩà¦ķà¦¤":10583,"à¦ĩà¦Łà¦²":10584,"à¦ĩà¦¢":10585,"à¦ĩà¦ĺà¦°":10586,"à¦ĩà¦Ŀà¦°":10587,"à¦ĩà¦¶à¦¤":10588,"à¦ĩà¦ĵà¦¨":10589,"à¦ĩà¦¦à¦¹":10590,"à¦ªà¦Ĺà¦¤":10591,"à¦ªà¦¦à¦¯":10592,"à¦ªà¦ļà¦¨":10593,"à¦ªà¦Ĺà¦¨":10594,"à¦ªà¦¶à¦ķ":10595,"à¦ªà¦²à¦¸":10596,"à¦ªà¦ªà¦²":10597,"à§ĢâĢĻ-":10598,"à§ĢâĢĿâĢĵ":10599,"Ġà¦¦à¦ĸà¦¨":10600,"Ġà¦¦à¦¹à¦²":10601,"à¦Ľà¦¹":10602,"à¦Ľà¦¤à¦°":10603,"à¦Ľà¦¤à¦®":10604,"Ġà¦¤à¦ļ":10605,"Ġà¦¤à¦¹":10606,"Ġà¦¤à¦Ļ":10607,"Ġà¦¤à¦°à¦¸":10608,"Ġà¦¤à¦®à¦²":10609,"Ġà¦¤à¦Łà¦¦":10610,"Ġà¦¤à§İà¦ª":10611,"Ġà¦¤à¦ĵà¦¬":10612,"Ġà¦ıà¦®à¦¡":10613,"Ġà¦ıà¦§à¦°à¦¨":10614,"Ġà¦ıà¦¤à¦°à¦ķà¦®":10615,"Ġà¦¹à¦īà¦¨":10616,"Ġà¦¹à¦Łà¦¨":10617,"à¦ľà¦£":10618,"à¦ľà¦«":10619,"à¦ľà¦¬à¦¦":10620,"à¦ľà¦°à¦Ł":10621,"à¦¶à¦ªà¦°":10622,"à¦¶à¦ŀ":10623,"à¦¶à¦¦à¦°":10624,"à¦¶à¦¤à¦®":10625,"à¦¶à¦ªà¦ķ":10626,"à¦¶à¦²à¦Ł":10627,"à¦¶à¦¸à¦¹":10628,"à¦¶à¦Ĺà¦¡":10629,"à¦¶à§Łà¦Ĺ":10630,"à¦¶à¦Ńà¦Ļ":10631,"à¦¶à§Łà¦ķ":10632,"à¦ĸà¦ķà¦Ł":10633,"à¦ĸà¦°à¦¸":10634,"à¦ĸà¦ķà¦ĩ":10635,"à¦ĸà¦ĺà¦£":10636,"à¦¼à§ĩâĢĻà¥¤":10637,"à¦¼à§ĩ),":10638,"Ġà¦ħà¦°à¦¤":10639,"Ġà¦ħà¦ķà¦¬":10640,"Ġà¦ħà¦£à¦¨":10641,"Ġà¦ħà¦Ľà¦²":10642,"à¦Ĺà¦ªà¦¨":10643,"à¦Ĺà¦¬à¦°":10644,"à¦Ĺà¦ĵà¦¯":10645,"à¦Ĺà¦ķà¦²":10646,"à¦Ĺà¦ħ":10647,"à¦Ĺà¦°à¦¨":10648,"à¦Ĺà¦¦à¦°":10649,"à¦Ĺà§°":10650,"à¦Ĺà¦£à¦ķ":10651,"à¦Ĺà¦¸à¦¦":10652,"à¦Ĺà¦¦à¦Ĺà¦¦":10653,"à§Łà¦ķà¦¦":10654,"à¦·à¦ĺ":10655,"à¦·à¦¬à¦²":10656,"à¦·à¦°à¦¶":10657,"à¦·à¦®à§Ł":10658,"à¦·à¦Ńà¦°":10659,"à¦·à¦²à¦Ĺ":10660,"à¦·à¦¦à¦Ĺ":10661,"à¦·à¦ľà¦¨à¦ķ":10662,"à¦·à¦¸à¦¸":10663,"Ġà¦¯à¦ļ":10664,"Ġà¦¯à¦®à¦ķ":10665,"Ġà¦¯à¦®à¦¸":10666,"Ġà¦¯à¦¤à¦¬à¦¡":10667,"à¦§à¦£":10668,"à¦§à¦ľà¦¨":10669,"à¦§à¦¤à¦°":10670,"à¦§à¦°à¦¥":10671,"à¦§à¦¬à¦ķ":10672,"à¦§à¦¦à¦Ĺ":10673,"à¦¡à¦®à¦¯":10674,"à¦¡à¦¸à¦¨":10675,"à¦¡à¦¨à¦ķ":10676,"à¦¡à¦¨à¦®":10677,"à¦ļà¦ľ":10678,"à¦ļà¦Ŀ":10679,"à¦ļà§İ":10680,"à¦ļà¦ĵà¦¯":10681,"à¦ļà¦ħ":10682,"à¦ļà¦¨à¦ĵ":10683,"à¦ļà¦°à¦ķà¦®":10684,"à¦ļà¦®à§Ł":10685,"Ġà¦ķà¦°à¦°":10686,"Ġà¦ķà¦°à¦ķ":10687,"à¦¹à¦°à¦¤":10688,"à¦¹à¦ĺ":10689,"à¦¹à¦ķà¦²":10690,"à¦¹à¦²à¦¤":10691,"à¦¹à¦¤à¦¤":10692,"à¦¹à¦ķà¦ª":10693,"à¦¹à¦¬à¦¶à¦¤":10694,"Ġà¦Ĺà¦¢":10695,"Ġà¦Ĺà§°":10696,"Ġà¦Ĺà¦ľà¦®":10697,"Ġà¦Ĺà¦Ĺà¦²à¦¸":10698,"Ġà¦Ĺà¦ªà¦Ĺà¦ª":10699,"à¦ģ?":10700,"à¦ģà¦¾":10701,"à¦£à¦ķà¦²":10702,"à¦£à¦°à¦¸":10703,"à¦£à¦ªà¦¦":10704,"à¦£à¦ªà¦¥":10705,"à¦£à¦£à¦ķ":10706,"à¦£à¦Ńà¦¯":10707,"à¦¥à¦Ļ":10708,"à¦¥à¦¨à¦ĵ":10709,"à¦¥à¦°à¦ª":10710,"à¦¥à¦ªà¦¥":10711,"à¦¥à¦§à¦°":10712,"à¦¥à¦ķà¦¦":10713,"Ġà¦¶à¦°à¦¬":10714,"Ġà¦¶à¦°à¦ķ":10715,"Ġà¦¶à¦®à¦¸":10716,"Ġà¦¶à¦®à¦¶":10717,"Ġà¦¶à¦°à¦¬à§İ":10718,"Ġà¦ľà¦ķ":10719,"Ġà¦ľà¦ĸ":10720,"Ġà¦ľà¦®à¦¨":10721,"Ġà¦ľà¦°à¦¥":10722,"Ġà¦ľà¦ĵà§Ł":10723,"Ġà¦ľà¦īà¦¨":10724,"Ġà¦ľà¦Ĺà¦¬":10725,"Ġà¦ļà¦¶":10726,"Ġà¦ļà¦ķà¦¬":10727,"Ġà¦ļà¦Łà¦²":10728,"Ġà¦ļà¦ªà¦Ł":10729,"Ġà¦ļà¦ªà¦ļ":10730,"Ġà¦Ńà¦®":10731,"Ġà¦Ńà¦°à¦¨":10732,"Ġà¦Ńà¦ľà¦¸":10733,"Ġà¦Ńà¦ľà¦¤":10734,"Ġà¦Ńà¦īà¦ľ":10735,"Ġà¦Ńà¦¨à¦Ńà¦¨":10736,"Ġà¦°à¦ĸ":10737,"Ġà¦°à¦Ńà¦¸":10738,"à¦ĵà¦Ĺà¦°":10739,"à¦ĵà¦ĩà¦Ł":10740,"à¦ĵà¦°à¦«":10741,"à¦Ńà¦¶":10742,"à¦Ńà¦Ń":10743,"à¦Ńà¦ľà¦¨":10744,"à¦Ńà¦¨à¦¤":10745,"à¦Ńà¦¶à¦ķ":10746,"à¦Ńà¦£à¦ĩ":10747,"à¦Ńà¦°à¦£à¦Ń":10748,"Ġà¦ıà¦ķà¦Ĺà¦²":10749,"Ġà¦ıà¦ķà¦®à¦£":10750,"Ġà¦ıà¦ķà¦Ľà¦¤":10751,"Ġà¦Ľà¦¶":10752,"Ġà¦Ĩà¦®à¦ĺ":10753,"à§ĥâĢĮ":10754,"à¦łà¦¬à¦°":10755,"à¦łà¦¤à¦²":10756,"à¦łà¦®à§Ł":10757,"à¦¼à¦¾/":10758,"à¦¼à¦¾âĢĶâĢĺ":10759,"à¦¼à¦¾âĢĻâĢĶ":10760,"Ġà¦īà¦®à¦®":10761,"Ġà¦īà¦ĵà¦®":10762,"à¦¾à¦ģ?âĢĿ":10763,"à¦¾à¦ģâĢĻ,":10764,"à¦Ĥ;":10765,"à¦ĤâĢ¦à¥¤":10766,"à¦Ļà¦¶":10767,"à¦Ļà¦Ĺ":10768,"à§ĩ,âĢ¦":10769,"Ġà¦¬à¦²à¦ľ":10770,"Ġà¦¬à¦²à¦¹":10771,"Ġà¦Ĩà¦°à¦¬à¦¦":10772,"Ġà¦²à¦Ĺà¦¬à¦Ĺ":10773,"Ġà¦ĵà¦Ļ":10774,"Ġà¦ĵà¦²à¦¨":10775,"Ġà¦ĸà¦ĩà¦¯":10776,"Ġà¦ĸà§ľà¦¬":10777,"âĢĶ?":10778,"à§ľà¦¤à¦°":10779,"à§ľà¦ĺà¦°":10780,"à¦°à¦¤à¦Ĺ":10781,"Ġà¦ħà¦¨à¦ªà¦¨":10782,"à¦¾à¥¤-":10783,"à¦¾à¥¤[":10784,"Ġà¦§à¦¨à¦²":10785,"Ġà¦§à¦®à¦§":10786,"ĠâĢį":10787,"Ġà¦ªà¦°à¦¹":10788,"Ġà¦ªà¦°à¦Ĺà¦£":10789,"à¦ĸà¦¨à¦Ł":10790,"à¦ĸà¦¨à¦ª":10791,"Ġà¦¸à¦®à¦®à¦¨":10792,"Ġà¦ĺà¦²":10793,"à¦¬à¦¨à¦®à¦¯":10794,"âĢĻ/âĢĻ":10795,"à¦¼à¦¿?âĢĿ":10796,"Ġà¦®à¦¨à¦¤":10797,"Ġà¦®à¦¨à¦ļ":10798,"à¦®à¦¨à¦ª":10799,"à¦®à¦¨à¦ĵ":10800,"à¦ªà¦°à¦¹à¦°":10801,"à¦ªà¦°à¦¶à¦®à¦£":10802,"à¦°à¦£à¦ª":10803,"à¦°à¦£à¦ļ":10804,"à¦°à¦£à§Łà¦Ĺ":10805,"à¦¿à¥¤\"":10806,"à¦¿à¥¤(":10807,"à¦Ŀà¦°à¦Ľ":10808,"à¦Ŀà¦Ĺà¦Ļ":10809,"Ġà¦ıà¦ĩà¦¦":10810,"à§İà¦¦":10811,"à§İà¦¹":10812,"à§İà¦«à¦¨":10813,"à¦īà¦ĺ":10814,"à¦īà§İà¦ķ":10815,"à¦īà¦ªà¦®":10816,"à¦īà¦ªà¦ľ":10817,"à¦īà§İà¦ªà¦²":10818,"à¦īà§İà¦ķà¦£":10819,"à¦ľà¦¨à¦Ń":10820,"à¦ľà¦¨à¦ªà¦°":10821,"à¦ľà¦¨à¦Ĺà¦¨":10822,"à¦«à¦¶":10823,"à¦«à¦£":10824,"à¦«à¦Ŀ":10825,"à¦«à¦°à¦¸":10826,"à¦«à¦ľà¦²":10827,"à¦°à¦¬à¦²à¦¬":10828,"à¦°à¦¬à¦£à¦®":10829,"à¦¤à¦°à¦°":10830,"à¦¤à¦°à¦¨":10831,"à¦¤à¦°à¦ļ":10832,"à¦¤à¦°à¦ķà¦£":10833,"à¦ªà¦¨à¦Ĺ":10834,"à¦ªà¦¨à¦Ń":10835,"à¦ªà¦¨à¦¤à¦®":10836,"à¦ªà¦¨à¦ķà¦¥":10837,"à¦ıà¦¯":10838,"à¦ıà¦¨à¦Ł":10839,"à¦ıà¦Ĺà¦ľ":10840,"à¦ıà¦Ĩà¦ĩà¦¯":10841,"Ġà¦Ĩà¦²à¦ľ":10842,"Ġà¦¸à¦¬à¦°":10843,"Ġà¦¸à¦¬à¦²à¦¤":10844,"à¦°à¦ķà¦ļ":10845,"à¦°à¦ķà¦ĵ":10846,"à¦°à¦ķà¦ĸà¦£":10847,"Ġà¦Łà¦¸":10848,"Ġà¦Łà¦ªà¦¨":10849,"âĢĿà§ĩ":10850,"à¦Ĩà¦Ĺà¦¨":10851,"à¦Ĩà¦²à¦Ł":10852,"à¦Ĩà¦¬à¦¡":10853,"à¦Ĩà¦īà¦¶":10854,"Ġà¦ķà¦¥à¦¯":10855,"ĠâĢĺâĢ¦":10856,"à§ĮâĢĶ":10857,"Ġà¦¡à¦¯":10858,"Ġà¦¡à¦®à¦°":10859,"Ġà¦¹à¦²à¦ª":10860,"Ġà¦¹à¦²à¦§à¦°":10861,"à¦ĺà¦Ŀ":10862,"à¦ĺà¦°à¦ķ":10863,"à¦ĺà¦¬à¦¤":10864,"à¦ĺà¦°à¦¦":10865,"à¦ĺà¦®à¦¯":10866,"à¦ĺà¦Ĺà¦°":10867,"à¦ĺà¦ĸà¦£":10868,"Ġà¦ĩà¦®à¦¤":10869,"Ġà¦ĩà¦ľà¦°":10870,"Ġà¦ĩà¦Łà¦¬":10871,"Ġà¦ĩà¦«à¦°":10872,"Ġà¦ĩà§Łà¦°":10873,"Ġà¦ľà¦¨à¦¦":10874,"à§Ī!":10875,"à§Īà¦ģ":10876,"à¦¼à¥¤âĢĺ":10877,"Ġà¦§à¦°à¦¨à¦ĵ":10878,"à§ģà¦ģâĢĶ":10879,"à§ģà¦ģà¥¤âĢĻ":10880,"âĢĵâĢĺ":10881,"ĠĠĊĠĊ":10882,"à¦·à¦£à¦¤à¦°":10883,"à¦·à¦£à¦¯à¦¨":10884,"Ġà¦ıà¦¸à¦Ľ":10885,"Ġà¦ļà¦²à¦¨à¦¸à¦ĩ":10886,"à¦¼,âĢĿâĢĶ":10887,"à¦°à¦®à¦Ĺ":10888,"à¦°à¦®à¦¦à¦¤":10889,"à¦°à¦®à¦¬à¦¶à¦¤":10890,"Ġà¦¬à¦¨à¦²":10891,"Ġà¦¬à¦¨à¦ľà¦¨":10892,"Ġà¦¬à¦¨à¦ļà¦°":10893,"Ġà¦¬à¦¨à¦Ĺà¦®à¦¨":10894,"à§ĭà¦ģâĢĶ":10895,"à§ĭà¦ģâĢĻ,":10896,"Ġà¦Ĩà¦¬à¦ķ":10897,"Ġà¦Ĩà¦Ĺà¦·":10898,"à¦ķà¦²à¦°":10899,"à¦ķà¦²à¦ļ":10900,"à¦ķà¦²à¦¨à¦Ĺ":10901,"Ġà¦ħà¦¸à¦®à¦¤à¦²":10902,"Ġà¦Ĺà¦²à¦«":10903,"à¦¤à¦¨à¦°":10904,"à¦¤à¦¨à¦¸":10905,"à¦¤à¦¨à¦ª":10906,"à§ĩà¦ģà¥¤":10907,"à§ĩà¦ģâĢĻà¥¤":10908,"à¦ķà¦Łà¦ª":10909,"à¦ķà¦Łà¦ĵ":10910,"à¦ķà¦Łà¦¬à¦¤":10911,"à¦ķà¦°à¦¸":10912,"à¦ķà¦°à¦ĩ":10913,"à¦ķà¦°à¦¹":10914,"à¦ħà¦ĵ":10915,"à¦ħà¦¬à¦¨":10916,"à¦ħà¦Ŀ":10917,"à¦ħà¦ķà¦²":10918,"à¦ħà¦¨à¦ķ":10919,"à¦ħà¦¬à¦ķ":10920,"à¦ħà¦ľà¦¯":10921,"à¦ħà¦¸à¦®à¦¯":10922,"à§ĩ?\"":10923,"à§ĩ?!âĢĿ":10924,"à§ĭà¥¤-":10925,"à¦°à¦¥à¦¸":10926,"Ġà¦ħà¦®à¦ĺ":10927,"à¦²à¦ķà¦ĵà¦¯":10928,"à¦¬à¦¤à¦²":10929,"à¦¬à¦¤à¦°à¦£":10930,"Ġà¦Ĩà¦¨à§Łà¦¨":10931,"Ġà¦Ĩà¦ķà¦ļ":10932,"à¦°à¦¸à¦ª":10933,"à¦¤à¦¬à¦¦":10934,"à¦¾à¦ĤâĢ¦":10935,"à¦¾à¦ĤâĢĮ":10936,"à¦¾à¦Ĥ!âĢĿ":10937,"à¦¾à¦ĤâĢĻ-":10938,"Ġà¦¶à¦¬à¦Ł":10939,"Ġà¦¶à¦¬à¦Ĺ":10940,"à¦¦à¦¨à¦¨":10941,"à¦¦à¦¨à¦ļà¦ķ":10942,"Ġà¦ĺà¦°à¦¹":10943,"à¦¿à¦Ĥà¥¤âĢĻ":10944,"à¦¿à¦Ĥ?âĢĿ":10945,"à¦¿à¦ĤâĢĻâĢĶ":10946,"à§ĩâĢĶ!":10947,"à§ĩâĢĶâĢĶ":10948,"à¦¯à¦¬à¦¦à¦²":10949,"à¦Ĺà¦²à¦¬à¦Ł":10950,"à¦Ĺà¦²à¦ľà¦¨à¦ķ":10951,"Ġà¦ľà¦²à¦¬à¦°":10952,"Ġà¦ľà¦²à¦ĺ":10953,"Ġà¦ľà¦²à¦®à¦£":10954,"Ġà¦ħà¦Ńà¦Ļ":10955,"Ġà¦®à¦¹à§ľ":10956,"à¦°à¦¹à¦®à¦¤":10957,"à¦°à¦¹à¦°à¦ĩ":10958,"à¦°à¦¹à¦¨à¦ķ":10959,"à¦°à¦¹à¦°à¦Ł":10960,"à¦®à¦¤à¦ĩ":10961,"Ġà¦īà¦ªà¦ª":10962,"Ġà¦īà¦ªà¦²à¦¦":10963,"à¦°à¦ľà§Łà¦¨":10964,"à¦¨à¦¬à¦ĩ":10965,"à¦¨à¦¬à¦¤à¦°":10966,"à¦ĸà¦²à¦®":10967,"Ġà¦ķà¦²à¦¬":10968,"Ġà¦ķà¦²à¦®à¦ª":10969,"à¦²à¦¬à¦Ł":10970,"à¦²à¦¬à¦ĵ":10971,"à¦²à¦¨à¦Ĺà¦°":10972,"à¦²à¦¨à¦®à§Ł":10973,"à¦§à¦¨à¦²":10974,"à¦ļà¦¨à¦¦":10975,"à¦®à¦ķà¦®à¦²":10976,"à¦®à¦ķà¦¥à¦¨":10977,"à¦ĩà¦²à¦¡":10978,"à¦ĩà¦²à¦Łà¦¦":10979,"à¦¯à¦¤à¦¦à¦£":10980,"à¦°à¦¦à¦Ł":10981,"Ġà¦ħà¦ªà¦¶":10982,"Ġà¦ħà¦ªà¦ķà¦²":10983,"Ġà¦ħà¦ªà¦¶à¦¨":10984,"à¦®à¦²à¦¤à¦°":10985,"à¦¶à¦¨à¦¶":10986,"à¦¶à¦¨à¦¹":10987,"Ġà¦ıà¦¤à¦ľà¦¨":10988,"Ġà¦¸à¦¹à¦¤":10989,"Ġà¦¸à¦¹à¦Ĺ":10990,"Ġà¦¸à¦¹à¦¬à¦¤":10991,"âĢ¦!":10992,"âĢ¦?":10993,"à¦ļà¦²à¦ĵ":10994,"à¦ķà¦¬à¦Ľà¦°":10995,"à¦°à¦¯à¦ª":10996,"à¦ªà¦¦à¦²":10997,"à¦ªà¦¦à¦§":10998,"à¦¸à¦¨à¦¯à¦¨":10999,"Ġà¦ķà¦¤à¦²":11000,"à¦ĩà¦¨à¦ª":11001,"Ġà¦Ńà¦°à¦°à¦°":11002,"Ġà¦ħà¦ļà¦°":11003,"à¦ıà¦ĩà¦®":11004,"à¦ıà¦ĩà¦ľà¦¨":11005,"Ġà¦ĺà¦Łà¦®":11006,"Ġà¦ħà¦ľà¦²":11007,"Ġà¦ħà¦ľà¦ªà¦¥":11008,"à¦Łà¦ķà¦°à¦£":11009,"à§İà¦¸à¦¤":11010,"à¦¿?ï»¿âĢĻ":11011,"Ġà¦¬à¦¹à¦ĩ":11012,"Ġà¦°à¦Ļà¦¤":11013,"Ġà¦°à¦Ļà¦®":11014,"Ġà¦°à¦Ļà¦ª":11015,"à¦Ńà¦¬à¦¦":11016,"à¦¦à§Łà¦¦":11017,"à¦¦à§Łà¦ªà¦Ł":11018,"à¦¦à§Łà¦Ĺà¦£":11019,"à¦Ĺà¦¨à¦¹":11020,"Ġà¦ķà¦®à¦ĵ":11021,"Ġà¦ķà¦®à¦«":11022,"Ġà¦ķà¦®à¦¬à¦¯":11023,"à¦¤à¦²à¦¦":11024,"à¦°à¦ĵà¦ªà¦°":11025,"à¦¨à¦ķà¦ļ":11026,"Ġà¦ªà¦¦à¦Ľ":11027,"Ġà¦ªà¦¦à¦¹":11028,"à¦¸à¦®à¦Ŀ":11029,"Ġà¦¶à¦°à¦¬à¦¨":11030,"à¦¶à¦¬à¦ĩ":11031,"à¦¶à¦¬à¦ļà¦¨":11032,"à§Ģà¥¤âĢĵ":11033,"à¦¤à¦ķà¦¹":11034,"Ġà¦®à¦°à¦Ĺ":11035,"à¦®à¦£à¦Ĺ":11036,"à¦®à¦£à¦¸à¦®":11037,"Ġà¦ħà¦Ĺà¦ª":11038,"à¦¿âĢĶ?âĢĻ":11039,"Ġà¦Ĺà¦°à¦°":11040,"Ġà¦Ĺà¦°à¦ľà¦¨":11041,"à¦ĩà¦°à¦Ļ":11042,"à§ģà¦ĥ!":11043,"à¦·à¦ķà¦¨":11044,"à¦·à¦ķà¦Ĺ":11045,"à¦·à¦ķà¦®à¦£":11046,"Ġà¦ħà¦ªà¦°à¦Ł":11047,"à¦¸à¦°à¦°":11048,"à¦¦à¦²à¦¦":11049,"à¦¯à¦®à¦¬":11050,"à¦¯à¦®à¦¶":11051,"à¦ªà¦¥à¦²":11052,"à¦ªà¦¥à¦ĩ":11053,"à¦ªà¦¥à¦ª":11054,"à§įâĢĮ?":11055,"à§įâĢĮ!âĢĻ":11056,"à¦¤à¦¤à¦¦":11057,"à¦ıà¦ķà¦ļ":11058,"à¦ıà¦ķà¦Ŀ":11059,"à¦Łà¦²à¦®":11060,"à¦Łà¦²à¦ľ":11061,"à¦Łà¦²à¦®à¦²":11062,"à¦Łà¦²à¦Łà¦²":11063,"à¦¤à¦®à¦¬":11064,"Ġà¦«à¦²à¦ľ":11065,"à¦ļà¦ķà¦ĵ":11066,"à¦°à¦Łà¦¨":11067,"à¦ªà¦ķà¦ĵ":11068,"Ġà¦²à¦ķà¦Ĺ":11069,"à¦®à¦¬à¦ĩà¦Ĺ":11070,"à¦¶à¦ķà¦°à¦ķ":11071,"à¦¢à¦Ļ":11072,"à¦¸à¦²à¦¡à¦°":11073,"Ġà¦ĩà¦¨à¦²":11074,"à§°à¦¯à¦ľ":11075,"à§ĩ;âĢĵ":11076,"à¦ľà¦²à¦Ł":11077,"à¦ľà¦²à¦ĵ":11078,"à¦ħà¦¨à¦¡":11079,"à¦ħà¦¨à¦Ń":11080,"!âĢĿâĢĵ":11081,"à¦ªà¦Łà¦Ń":11082,"Ġà¦Ĩà¦§à¦«":11083,"à¦¹à¦¨à¦Ĺ":11084,"à¦¹à¦¨à¦Ń":11085,"à¦¹à¦¨à¦ľà¦²":11086,"à¦ľà¦°à¦Ĺ":11087,"à¦¨à¦¦à¦¶":11088,"Ġà¦Ńà¦¬à¦¬à¦²":11089,"Ġà¦°à¦¬à¦°à¦¬":11090,"Ġà¦¶à¦¤à¦¯":11091,"Ġà¦¶à¦¤à¦¸à¦¹à¦¸":11092,"à¦ķà¦¨à¦Ĺ":11093,"à¦ķà¦¨à¦ľà¦°":11094,"à¦¯à¦¸à¦¦":11095,"à¦¯à¦¸à¦ĸ":11096,"Ġà¦Īà¦·":11097,"Ġà¦Īà¦¦à¦Ĺ":11098,"Ġà¦Īà¦Ĺà¦²à¦ķ":11099,"Ġà¦¬à¦²à¦¬à§İ":11100,"Ġà¦Ĩà¦¦à¦°à¦®":11101,"Ġà¦Ĩà¦¦à¦®à¦ķ":11102,"à¦Ĺà¦ľà¦¬":11103,"à¦Ĺà¦ľà¦¸":11104,"à¦Ĺà¦ľà¦ĩ":11105,"à¦Ĺà¦ľà¦ļ":11106,"Ġ(âĢĶ":11107,"Ġà¦Ĺà§ľà¦²":11108,"Ġà¦Ĺà¦¤à¦ķà¦²":11109,"à¦¨à¦Ĺà¦Ĺ":11110,"Ġà¦¨à¦¬à¦¤à¦°à¦Ļ":11111,"Ġà¦¦à¦²à¦ª":11112,"Ġà¦¦à¦²à¦Ń":11113,"Ġà¦ĸà¦¬à¦°à¦Ĺ":11114,"à¦¸à¦ķà¦®":11115,"à¦¸à¦ķà¦Ń":11116,"à¦¼à§ģâĢĵ":11117,"Ġà¦¬à§ľà¦ľ":11118,"à¦°à¦Ĺà¦łà¦¨":11119,"à¦¼à§Ģ!":11120,"Ġà¦ĺà¦¨à¦¤à¦°":11121,"à¦«à¦²à¦¸":11122,"Ġà¦Ńà§Łà¦Ł":11123,"Ġà¦Ńà§Łà¦ĩ":11124,"à§ĭâĢĶâĢĿ":11125,"Ġà¦ĭà¦®à¦¨":11126,"Ġà¦ĭà¦¤à¦¨":11127,"à¦®à¦¸à¦Ń":11128,"Ġà¦¬à¦Łà¦¨":11129,"à¦ªà¦·à¦ľ":11130,"à¦Ĩà¦ľà¦¬":11131,"à¦°à¦®à¦£à¦¯":11132,"Ġà¦¬à¦ķà¦¸":11133,"?âĢĿ,":11134,"?âĢĿà¥¤":11135,"à¦ľà¦¸à¦°à¦ķ":11136,"à§¦à§¬":11137,"à¦Ĺà¦¬à§İà¦¸":11138,"Ġà¦¤à¦¤à¦¸":11139,"à¦¼à¦¾à¥¤âĢ¦":11140,"à¦ľà¦¬à¦ĩ":11141,"Ġà¦¦à¦¶à¦ĸ":11142,"à¦¼âĢĶ-":11143,"Ġà¦¨à¦°à¦®à¦¸":11144,"à¦²à¦Ĺà¦¹":11145,"à¦²à¦Ĺà¦£":11146,"à¦Ĺà¦®à¦ĩ":11147,"à¦Ĺà¦®à¦ĵ":11148,"Ġà¦ľà¦¬à¦ľà¦¬":11149,"à§Ŀà¦¸":11150,"à§Ŀà¦¤à¦°":11151,"à¦®à¦°à¦£à¦¶":11152,"à¦®à¦°à¦£à¦¹":11153,"Ġà¦ĵà¦ķà¦¥":11154,"âĢĻ,-":11155,"à¦¼?)":11156,"à¦¼?âĢ¦":11157,"Ġà¦Ĺà¦£à¦ª":11158,"Ġà¦Ĺà¦£à¦¹":11159,"Ġà¦Ĺà¦£à¦¸à¦®":11160,"Ġà¦Ĺà¦£à¦ķà¦¬à¦°":11161,"Ġà¦ıà¦¸à¦¬à¦ĵ":11162,"à¦¨à¦¯à¦ľ":11163,"à¦łà¦ķà¦®":11164,"à¦łà¦ķà¦ª":11165,"à¦łà¦ķà¦ĵ":11166,"à§Łà¦¤à¦ĩ":11167,"à¦Ĩà¦²à¦ĸ":11168,"à¦ľà¦®à¦ľà¦®":11169,"à¦¡à¦²à¦ª":11170,"à¦²à¦¯à¦¬à¦¨":11171,"Ġà¦ªà¦°à¦®à¦¶":11172,"à¦¼à¦Ĥà¥¤":11173,"Ġà¦¬à¦īà¦¡":11174,"à§ĩâĢ¦âĢĿà¥¤":11175,"à¦®à¦¶à¦¤à¦¬":11176,"à¦¬à¦ĩà¦ªà¦¤":11177,"à¤¢":11178,"à¤ĺ":11179,"à¦¦à¦Ĺà¦£":11180,"à¦ķà¦¸à¦¦":11181,"à¦ķà¦°à¦£à¦¹":11182,"à¦®à¦ľà¦ķ":11183,"à¦®à¦ľà¦Ĺà¦¤":11184,"à§ĩ?âĢĿà¥¤":11185,"Ġà¦Ĺà¦°à¦®à¦Ł":11186,"à¦ķà¦Ĺà¦®à¦¨":11187,"Ġà¦¸à¦°à¦²à¦ª":11188,"Ġà¦¸à¦°à¦²à¦ļ":11189,"à¦ĩà¦Ńà¦¨":11190,"à¦¥à¦ķà¦·":11191,"à¦¥à¦²à¦ļ":11192,"à¦¥à¦²à¦ªà¦¥":11193,"à¦ıà¦¸à¦¬à¦ĵ":11194,"Ġà¦ħà¦Łà¦ªà¦Ł":11195,"à¦®à¦ªà¦²":11196,"à¦Łà¦Ľà¦¡":11197,"Ġà¦°à¦¸à¦ľ":11198,"à¦·à§Łà¦ļ":11199,"Ġà¦ľà§Łà¦ª":11200,"Ġà¦ľà§Łà¦¶":11201,"Ġà¦ľà§Łà¦¢":11202,"à¦£à¦¬à¦Ļ":11203,"à¦¨à¦¶à¦°":11204,"à¦¡à¦¬à¦ľ":11205,"à¦¡à¦¬à¦ľà¦¨à¦¨":11206,"à¦¦à¦ķà¦ĵ":11207,"à¦ıà¦ĸà¦¨à¦¤":11208,"à¦¿à¥¤âĢĻâĢĻ":11209,"Ġà¦ļà¦¨à¦ļà¦¨":11210,"à¦ļà§Łà¦Ł":11211,"à¦Ĺà¦£à¦®":11212,"à¦¯à§İà¦ĩ":11213,"Ġà¦¬à¦ľà¦¦":11214,"Ġà¦¬à¦ľà¦ª":11215,"Ġà¦®à¦¦à¦¬":11216,"Ġà¦®à¦¦à¦ĵ":11217,"à§©à§¦à§¦":11218,"à§©à§Ń":11219,"à¦²à¦Ńà¦Ļ":11220,"Ġà¦Ĭà¦¨à¦¤":11221,"Ġà¦Ĭà¦¨à¦ªà¦ŀ":11222,"Ġà¦ıà¦°à¦ķà¦®à¦ĵ":11223,"Ġà¦Ĩà¦ĩà¦¨à¦®":11224,"Ġà¦¨à¦°à¦ļà¦¨":11225,"à§«à§®":11226,"anan":11227,"à§ªà§ª":11228,"à¦¾âĢ¦âĢĿâĢĶ":11229,"à¦Ĩà¦Ĺà¦®à¦¨":11230,"inis":11231,"à¦ľà§Łà¦ĩ":11232,"à¦ľà§Łà¦§":11233,"Ġà¦ĵà¦ªà¦°à¦¤à¦²":11234,"à¦¦à¦¬à¦®":11235,"à¦¦à¦¶à¦¦":11236,"Ġà¦¸à§İà¦ª":11237,"à¦¾?âĢĻâĢĶ":11238,"Ġà¦¶à¦ªà¦¥à¦ĩ":11239,"Ġà¦¶à¦ªà¦¥à¦¬à¦¦":11240,"Ġà¦ĩà¦²à¦°":11241,"Ġà¦ĩà¦²à¦¶":11242,"Ġà¦ªà¦²à¦ķà¦¬":11243,"Ġà¦Ĩà¦ļà¦°à¦£à¦Ĺà¦¤":11244,"Ġà¦®à¦¨à¦¨à¦Ĺà¦°":11245,"Ġà¦®à¦¨à¦¨à¦ļà¦°":11246,"à¦¼âĢĵà¥¤":11247,"à¦ĩà¦®à¦ªà¦¸":11248,"à§Łà¦®à¦®":11249,"à¦Īà¦°":11250,"à¦¬à¦ľà¦¨à¦ª":11251,"ren":11252,"éŁ¿åĵį":11253,"!âĢĻâĢĿ":11254,"à¦¯à¦¹à¦ĩ":11255,"à¦¿âĢ¦..":11256,"à¦¯à¦Łà¦ķà¦°":11257,"à§ĩâĢĻ!":11258,"Ġà¦ļà¦°à¦®à¦°":11259,"à¦¬à¦°à¦¤à¦¨":11260,"à§Ńà§¯":11261,"à§ĢâĢĶâĢĻ":11262,"à¦¾âĢĿ!":11263,"onom":11264,"Ġà¦¸à¦«à¦°à¦¸à¦Ļ":11265,"à¦ħà¦¬à¦Ĺ":11266,"Ġà¦Ńà¦Ĺà¦ĵà¦¯":11267,"Ġà¦ıà¦¡à¦®à¦¨":11268,"ena":11269,"ene":11270,"enus":11271,"alm":11272,"alt":11273,"alley":11274,"ates":11275,"atur":11276,"ercury":11277,"à¦¯à§Łà¦ĩ":11278,"à§®à§¯":11279,"âĢ¦âĢĿà¥¤":11280,"Ġà¦Ķà¦·":11281,"Ġà¦Ķà¦¡":11282,"Ġà¦Ķà¦¦à¦°":11283,"à¦ªà¦Ĺà¦ŀ":11284,"Ġthems":11285,"Ġà¦Ŀà§ľà¦¬":11286,"Ġà¦Ŀà§ľà¦ľà¦²":11287,"à¦Ĺà¦Ńà¦¬à¦¨":11288,"Ġà¦ĩà¦Łà¦ĸ":11289,"its":11290,"itation":11291,"Ġà¦ħà¦¬à¦¨à¦®à¦¨":11292,"à§ĭ?âĢĿ,":11293,"à¦¯à¦®à§Łà¦Ń":11294,"arb":11295,"arn":11296,"arre":11297,"ards":11298,"ariness":11299,"à¦ĵà¦ĩà¦°à¦ķà¦®":11300,"Ġà¦°à¦«à¦¤":11301,"à¦Ĳà¦¨":11302,"à¦Ĳà¦Ł":11303,"Ġwind":11304,"Ġwrit":11305,"Ġwine":11306,"Ġà§©à§¯":11307,"Ġà¦¬à¦¦à¦ĸ":11308,"Ġà¦¬à¦¦à¦Ń":11309,"Ġafter":11310,"à¦Ĩà¦¨à¦®à¦¨":11311,"à¦¯à¦°à¦ķà¦®à¦ĩ":11312,"Ġshe":11313,"Ġsil":11314,"Ġsun":11315,"Ġsha":11316,"Ġske":11317,"Ġsong":11318,"Ġsuch":11319,"Ġsweet":11320,"Ġcult":11321,"Ġà¦¨à¦°à¦ķà¦¦à¦°":11322,"à¦ĭà¦Ĺà¦¬":11323,"Ġà¦ľà¦Ĺà§İà¦®à§Ł":11324,"eside":11325,"Ġbell":11326,"Ġback":11327,"Ġbattle":11328,"Ġbalc":11329,"Ġboth":11330,"Ġbeside":11331,"Ġà¦¨à¦¹à¦¬à§İ":11332,"ouch":11333,"Ġmen":11334,"Ġmind":11335,"Ġmons":11336,"Ġmiss":11337,"Ġmade":11338,"à¦Ĩà¦§à¦ľà¦¨":11339,"Ġà¦°à¦¤à¦¨à¦²":11340,"anda":11341,"à¦ĩà¦«à§Ł":11342,"Ġà¦®à¦°à¦£à¦ª":11343,"Ġà¦®à¦°à¦£à¦«":11344,"Ġà¦®à¦Ĺà¦ľà¦ķ":11345,"Ġà¦¬à¦°à¦«à¦¶":11346,"Ġà¦¬à¦°à¦«à¦Ŀà¦°":11347,"éŁ¿éŁ¿éŁ¿éŁ¿éŁ¿éŁ¿":11348,"à¦¶à¦¸à¦ľ":11349,"Ġflow":11350,"Ġfret":11351,"à¦²à¦ĵà¦²":11352,"Ġà¦¬à§İà¦¸à¦¦":11353,"Ġà¦ªà¦¥à¦ļà¦²à¦¤":11354,"Ġover":11355,"ild":11356,"ility":11357,"Ġà§§à§¯à§Ńà§¯":11358,"à§ĭâĢ¦à¥¤âĢĿ":11359,"à¦ħà¦ľà¦Ĺà¦°":11360,"ĠOF":11361,"à¦¿âĢĿ!":11362,"Ġpre":11363,"Ġpain":11364,"Ġpalm":11365,"ĠSa":11366,"ĠSm":11367,"ĠSp":11368,"ĠSy":11369,"ĠSir":11370,"ĠSuk":11371,"ĠSTEM":11372,"Ġà¦¨à¦ĸà¦Ĺ":11373,"asant":11374,"Ġà§ªà§¨":11375,"Ġà§ªà§Ń":11376,"Ġà§ªà§®":11377,"à¦£à¦°à¦ļà¦¯":11378,"Ġà¦ĺà§ľà¦ĺà§ľ":11379,"ĠâĢ¦..":11380,"ĠII":11381,"ĠĠĊĠĠĠĠĠ":11382,"à¦ĸà¦Ĺà¦¹":11383,"ingu":11384,"à¦¥à¦ªà¦ŀ":11385,"Ġdel":11386,"Ġdid":11387,"Ġdem":11388,"Ġdetect":11389,"Ġdays":11390,"Ġà¦ķà¦¦à¦®à¦ª":11391,"Ġhas":11392,"Ġhap":11393,"Ġhold":11394,"Ġhome":11395,"Ġholo":11396,"Ġhaun":11397,"Ġà§«à§¨":11398,"Ġà§«à§«":11399,"à¦¼à¦¿à¦Ĥ,":11400,"ĠAng":11401,"ĠPM":11402,"ĠPl":11403,"ĠPun":11404,"ĠPra":11405,"ĠPap":11406,"ĠPublis":11407,"Ġà§§à§¦à§§":11408,"à¦ļà¦ľà¦¨à¦ĩ":11409,"Ġà¦°à¦£à¦¸":11410,"Ġà¦°à¦£à¦¹":11411,"Ġà¦ĩà¦īà¦¥":11412,"Ġà§§à§®à§¦":11413,"Ġà§§à§®à§¦à§¦":11414,"Ġà§§à§®à§©à§©":11415,"Ġà§§à§®à§¯à§©":11416,"Ġà§§à§®à§¬à§¯":11417,"Ġà§§à§®à§Ńà§©":11418,"à§§à§¨à§©à§ª":11419,"Ġà¦ķà¦¤à¦¬à¦¡":11420,"à§§à§¯à§¯à§":11421,"rok":11422,"rook":11423,"ĠCo":11424,"ĠCent":11425,"ĠCol":11426,"ĠCity":11427,"ĠCSI":11428,"ĠCrook":11429,"à¦¡à¦¸à¦ĵà¦¯":11430,"à§ģâĢĵà¥¤":11431,"elt":11432,"olation":11433,"ĠMr":11434,"ĠMed":11435,"Ġlight":11436,"Ġlater":11437,"Ġlost":11438,"Ġà§¬à§ª":11439,"Ġà§¬à§®":11440,"Ġà§Ńà§¨":11441,"à¦¯à¦²à¦¹à¦°":11442,"à§ĩâĢĻ,âĢĻ":11443,"à§ĩ!âĢĻâĢĻ":11444,"à§ĩ!âĢĻâĢĿ":11445,"à¦Ĺà¦łà¦¨à¦ķ":11446,"à¦Ĺà¦łà¦¨à¦Ł":11447,"Ġec":11448,"Ġease":11449,"Ġeves":11450,"Ġecho":11451,"Ġearth":11452,"ĠTw":11453,"ĠThat":11454,"Ġà¦ľà¦¨à¦ªà¦¦à¦ķ":11455,"usi":11456,"usyanta":11457,"Ġà¦¹à¦¨à¦¨à¦ª":11458,"urous":11459,"other":11460,"à§ĩ);":11461,"Ġà§§à§¯à§ªà§¬":11462,"ĠRaj":11463,"à¦ľà¦¹à¦°à¦¤":11464,"Ġthink":11465,"Ġthose":11466,"ĠDNA":11467,"ĠDusyanta":11468,"à¦ªà¦¶à¦¨à¦Ł":11469,"Ġà¦¹à¦°à¦£à¦ķ":11470,"Ġà¦®à¦¤à¦²à¦¬à¦ĸ":11471,"Ġà§§à§©à§¬":11472,"Ġà§§à§©à§Ńà§§":11473,"à¦¶à¦ªà¦¥à¦¬à¦¦":11474,"Ġà¦ĸà§ľà¦®":11475,"Ġà§¨à§¦à§¬":11476,"Ġà§¨à§¦à§«à§¦":11477,"à¦Ĩà¦ĩà¦¨à¦¸":11478,"adem":11479,"à¦¼?âĢĿâĢĶ":11480,"Ġà¦¦à¦°à¦¦à¦¸":11481,"áĥĿáĥ":11482,"à¦īà¦ªà¦Ń":11483,"Ġà§®à§«":11484,"cha":11485,"à§ĭâĢ¦âĢĿâĢĶ":11486,"à§ģâĢ¦.":11487,"Ġgold":11488,"Ġgood":11489,"à¦¸à§İà¦ªà¦¥":11490,"à¦¸à§İà¦ļà¦°":11491,"Ġà¦¸à¦®à¦¤à¦²à¦Ń":11492,"Ġà§§à§«à§¦à§¦":11493,"Ġà§§à§«à§«à§«":11494,"à¥¤âĢ¦.":11495,"ĠHer":11496,"ĠHar":11497,"ĠHind":11498,"ĠHistory":11499,"à¦¤à¦ļà¦°à¦°":11500,"ĠLal":11501,"ĠLED":11502,"à¦¼à§Ģà¥¤âĢĿ":11503,"à¦ħà¦¹à¦ŀ":11504,"Ġà¦īà¦ĩà¦ķà¦²":11505,"Ġrep":11506,"osity":11507,"Ġforg":11508,"à¦¬à¦ľà¦Ĺà¦¤à¦ķ":11509,"à¦¯à¦Łà¦ķà¦¦":11510,"à¦īà¦ªà¦°à¦¨":11511,"ular":11512,"à¦¦à¦®à¦¨à¦ķ":11513,"ational":11514,"Ġà§§à§¬à§«à§¬":11515,"Ġà¦¹à¦ľà¦®à¦¶à¦ķ":11516,"ĠGo":11517,"ĠGeor":11518,"Ġyet":11519,"à¦Ĭà¦¨à¦¬":11520,"à¦Ĩà¦ļà¦°à¦£à¦ķ":11521,"Ġà¦Ĩà¦ªà¦¸à¦¹":11522,"Ġneed":11523,"Ġneare":11524,"tern":11525,"Ø§ÛĮ":11526,"Ø§Ùħ":11527,"à¤¤à¤°":11528,"Ġweariness":11529,"empor":11530,"Ġà§¯à§ª":11531,"Ġà¦Ĩà¦īà¦Łà¦¬à¦ķ":11532,"Ġà¦¨à¦¬à¦°à¦¸":11533,"à§§à§Ńà§«à§Ń":11534,"à§§à§Ńà§¯à§©":11535,"à¦¡à¦īà¦ĩà¦ļà¦Ĺ":11536,"à¤ķà¤°":11537,"Ġà§§à§¯à§©à§§":11538,"Ġmyself":11539,"Ġà¦ĩà¦¤à¦°à¦ľà¦¨":11540,"Ġwhose":11541,"ĠØ±":11542,"ĠØŃ":11543,"ummer":11544,"à¦Ĩà¦īà¦Łà¦¡":11545,"à¤²à¦Ľ":11546,"Ġà¦¨à¦¬à¦¦à¦®":11547,"Ġà¦¶à¦¤à¦ªà¦¥à¦¬":11548,"ribut":11549,"Ġvill":11550,"Ġà§§à§¯à§¨à§¨":11551,"Ġà§§à§¯à§¨à§Ń":11552,"Ġà§§à§¯à§¨à§¬":11553,"à¸±":11554,"à¸²":11555,"à¸ģ":11556,"à¸Ļ":11557,"Ġsep":11558,"Ġconf":11559,"oreword":11560,"Ġà¦¡à¦ľà¦¨à¦ĸ":11561,"gegnung":11562,"ividual":11563,"lish":11564,"Ð°Ñģ":11565,"ĠForeword":11566,"ĠÙĦ":11567,"Ġà¦®à¦ĩà¦§":11568,"à§©à§©à§©à§©":11569,"asty":11570,"harma":11571,"Ġà¦Ĺà¦¤à¦¬à¦Ľà¦°":11572,"Ġà§§à§¯à§§à§¬":11573,"Ġdeep":11574,"ryan":11575,"uthor":11576,"ÐµÑģ":11577,"Ð¾Ð·":11578,"Ġà¦ıà¦ĩà¦ļà¦ıà¦¸à¦¸":11579,"à§§à§¯à§Ńà§¦":11580,"ÑĢÐ°":11581,"Ġìĭľ":11582,"Ġà¦Ĩà¦īà¦Łà¦²":11583,"à§§à§¯à§ªà§©":11584,"àª°":11585,"eping":11586,"Ġrun":11587,"Ġà¦¶à¦ķà¦Łà¦¬":11588,"âĢ¦âĢ¦âĢ¦âĢ¦":11589,"izon":11590,"izarre":11591,"Ġ×¨":11592,"Ġ×Ķ":11593,"Ġatt":11594,"Ġunder":11595,"Ġindividual":11596,"Ġà§§à§§à§Ń":11597,"Ġsoft":11598,"Ġimage":11599,"Ø§Ø¯":11600,"Ġroad":11601,"Ġproject":11602,"à§§à§¯à§©à§®":11603,"ĠáĥĽ":11604,"Ġclass":11605,"Ġ1967":11606,"galow":11607,"à¦Ŀà¦Łà¦ªà¦Ł":11608,"Ġà§·à§·":11609,"ptic":11610,"ĠBegegnung":11611,"form":11612,"hesis":11613,"ission":11614,"Ġknown":11615,"ĊĊĊ":11616,"âĤĨ":11617,"Ġà¦ļà¦ĩà¦²à¦¬":11618,"ĠChurch":11619,"ĠDevelopment":11620,"Â¦à¦¾":11621,"Ġà¦«à§Łà¦¸à¦²":11622,"à¦¤à§Łà¦Ńà¦¸":11623,"à§§à§¯à§¨à§ª":11624,"actory":11625,"yesha":11626,"à¦¡à¦¬à¦¬à¦§":11627,"Ġà¦ĵà¦¨à¦¨à¦ķ":11628,"Ġà¦ĩà¦¨à¦Ńà¦²à¦Ńà¦¡":11629,"Ġflies":11630,"Ġà¤īà¤ł":11631,"Ġdoes":11632,"à§§à§¯à§®à§«":11633,"uravas":11634,"Ġbecomes":11635,"ºçľºçľºçľºçľºçľºçľºçľºçľºçľºçľºçľºçľºçľºçľºçľºçľ":11636,"·çľ·çľ·çľ·çľ·çľ·çľ·çľ·çľ·çľ·çľ·çľ·çľ·çľ·çľ·çľ·çľ":11637,"ship":11638,"alityà¦¯":11639,"Ġsmall":11640,"Ġbreast":11641,"ĠâĨĴ":11642,"à¦ªà¦¨à¦¸à¦°à¦¶":11643,"Ġfever":11644,"ĠIntegr":11645,"Ġdrink":11646,"augh":11647,"iatic":11648,"rishna":11649,"à¦¨à§ľà¦¬à§ľ":11650,"à¦Ĩà¦²à¦¬à§İ":11651,"ommun":11652,"ĠSelect":11653,"Ġgods":11654,"Ġneighbor":11655,"Ġvalue":11656,"Ġappro":11657,"print":11658,"à¦ħà¦¨à¦¬à¦°à¦¤":11659,"Ġspeak":11660,"Ġpleasant":11661,"ĠAsiatic":11662,"Â·Â·Â·Â·âĢĻ":11663,"ĠCulture":11664,"ĠMyra":11665,"Ġgener":11666,"ĠLanguages":11667,"Ġjourneyed":11668,"Ġsuburbs":11669,"æĭŃ":11670,"Ġmixed":11671,"ĠOffice":11672,"Ġhuman":11673,"ĠPargiter":11674,"ĠBritish":11675,"Ġequalityà¦¯":11676,"Ġbegin":11677,"ĠGandhar":11678,"ĠEnglish":11679,"Ġimportant":11680,"Ġdynasty":11681,"Ġmurmurous":11682,"rvasi":11683,"ystem":11684,"âģł":11685,"Ġignor":11686,"Ġà¦¬ungalow":11687,"Ġà¦ļà¦ªà¦ļà¦ª":11688,"Ġà¦§à¦®à¦§à¦®":11689,"Ġthemselves":11690,"Ġbalcony":11691,"ĠSukumar":11692,"Ġhappen":11693,"Ġhaunt":11694,"ĠCrookes":11695,"Ġeaseful":11696,"ĠGeorge":11697,"Ġnearer":11698,"!/":11699,"!?":11700,"%à¥¤":11701,"',":11702,"'à¥¤":11703,"'ll":11704,"):":11705,")âĢĶâĢĻ":11706,"+âĢĻ":11707,",\"":11708,"00":11709,"110":11710,"53":11711,"54":11712,"56":11713,":-":11714,"?\"":11715,"??":11716,"?!âĢĿ":11717,"?âĢĶ-":11718,"AM":11719,"AN":11720,"AY":11721,"And":11722,"Aryan":11723,"Big":11724,"Bang":11725,"CU":11726,"Cor":11727,"CTE":11728,"Comp":11729,"Digital":11730,"En":11731,"FI":11732,"For":11733,"Go":11734,"Gest":11735,"GEN":11736,"HU":11737,"Hy":11738,"Hel":11739,"HAT":11740,"IM":11741,"IR":11742,"IT":11743,"IU":11744,"IV":11745,"It":11746,"LL":11747,"Let":11748,"LED":11749,"OL":11750,"OP":11751,"OST":11752,"Pr":11753,"PRO":11754,"QR":11755,"RU":11756,"SR":11757,"St":11758,"She":11759,"Sak":11760,"STEM":11761,"Solar":11762,"TUR":11763,"Un":11764,"VE":11765,"Where":11766,"What":11767,"YAB":11768,"aud":11769,"ban":11770,"bus":11771,"bid":11772,"bour":11773,"com":11774,"cess":11775,"cap":11776,"ched":11777,"chen":11778,"comp":11779,"cene":11780,"dle":11781,"ding":11782,"del":11783,"day":11784,"digital":11785,"ey":11786,"eal":11787,"ele":11788,"ears":11789,"fi":11790,"gen":11791,"ges":11792,"hut":11793,"hood":11794,"host":11795,"ij":11796,"ier":11797,"iosity":11798,"jan":11799,"ker":11800,"know":11801,"lu":11802,"lit":11803,"mi":11804,"mat":11805,"mar":11806,"nan":11807,"nter":11808,"night":11809,"oo":11810,"ox":11811,"ole":11812,"ored":11813,"pp":11814,"ps":11815,"pid":11816,"rs":11817,"rite":11818,"rings":11819,"sp":11820,"sil":11821,"suggestion":11822,"ti":11823,"tal":11824,"tes":11825,"tur":11826,"uv":11827,"uit":11828,"val":11829,"vens":11830,"vitation":11831,"with":11832,"water":11833,"xp":11834,"ype":11835,"¦ģ":11836,"¨Ø±":11837,"°ë":11838,"½Ð°":11839,"Î±":11840,"Îµ":11841,"ÏĢ":11842,"ÏĦ":11843,"Ð¹":11844,"Õ¡":11845,"Õ«":11846,"Õ¸":11847,"Õ¿":11848,"×¨":11849,"×ľ":11850,"Ø¶":11851,"Ùı":11852,"à©":11853,"à³":11854,"àµ":11855,"à¶":11856,"à·":11857,"â¦ģ":11858,"å¿":11859,"ê°":11860,"ìĨ":11861,"ĊĠ":11862,"Ġ4":11863,"Ġà§İà¦¸":11864,"Ġut":11865,"Ġlect":11866,"Ġà°":11867,"ĠÑĤ":11868,"ĠQR":11869,"ıãģ":11870,"ķë":11871,"ķáĥĶáĥ":11872,"Ŀ¼":11873,"Ġà¦Ĥ":11874,"à¦¾'":11875,"à¦¾]":11876,"à¦¾à¦¼":11877,"à¦¾à§ĩà¦ģ":11878,"à¦¾à¦¾à¦ģ,":11879,"à¦¾âĢķ":11880,"à¦¾à¦¾à¦ģ?":11881,"à§ĩ]":11882,"à§ĩà¦¼":11883,"à§ĩÂ·Â·Â·":11884,"à§ĩà§įà¦ģ":11885,"à§ĩÂ·Â·Â·âĢĻ":11886,"à¦°à¦°à¦¹":11887,"à¦°à¦Ĺà¦ľ":11888,"à¦°à¦īà¦¨":11889,"à¦°à¦«à¦²":11890,"à¦°à¦°à¦®à¦£":11891,"à¦°à¦ĺà¦¨":11892,"à¦°à¦īà¦ľ":11893,"à¦°à¦ħà¦®":11894,"à¦°à¦ĺà¦£":11895,"à¦°à¦ĺà¦¡":11896,"à¦°à¦ĭà¦¤":11897,"à¦°afi":11898,"à§į;":11899,"à§įà¦¾":11900,"à§įà¥¤âĢĿ":11901,"à§įï¿½":11902,"à¦¿à¦¼":11903,"à¦¿Â·":11904,"à¦¨à¦ĸà¦¨":11905,"à¦¨à¦¸à¦¬":11906,"à¦¨à¦°à¦¥":11907,"à¦¨à¦ķà¦¤":11908,"à¦¨à¦²à¦¬":11909,"à¦¨à¦®à¦°":11910,"à¦¨à¦ıà¦¬":11911,"à¦¨à¦ĩà¦¬":11912,"à¦¨à§Łà¦¤":11913,"à¦¨à¦Ŀà¦°":11914,"à¦¨à¦ĸà¦£":11915,"à¦¨à¦ľà¦Ĺà¦¤":11916,"à¦¨à¦īà¦¤":11917,"à¦¤à¦Ŀ":11918,"à¦¤à¦ķà¦Ł":11919,"à¦¤à¦¹à¦¸":11920,"à¦¤à¦Ĺà¦¨":11921,"à¦¤à¦ĺà¦°":11922,"à¦¤à¦§à¦°":11923,"à¦¤à¦¹à¦°à¦£":11924,"à¦¤à¦¸à¦®à¦¯":11925,"à¦¤à¦Ľà¦¬":11926,"à¦¤à¦¥à¦ķ":11927,"à¦¤à¦¶à¦¯":11928,"à¦¤à§İà¦ª":11929,"à¦¤à¦°à¦¤à¦²":11930,"à¦²à§ľ":11931,"à¦²à¦ľà¦¨":11932,"à¦²à¦ı":11933,"à¦²à¦Ĩ":11934,"à¦²à¦¬à¦²":11935,"à¦²à¦¤à¦¬":11936,"à¦²à¦¸à¦«":11937,"à¦²à¦®à¦¸":11938,"à¦²à¦¦à¦¸":11939,"à¦²à¦¥à¦¤":11940,"à¦²à¦Ĺà¦¤à¦Ń":11941,"à¦ķà¦·à¦¤":11942,"à¦ķà¦§à¦°":11943,"à¦ķà¦łà¦ķ":11944,"à¦ķà¦Ĩà¦²":11945,"à¦ķà¦ªà¦°à¦®":11946,"à¦ķà¦°à¦®à§Ł":11947,"à§ģ]":11948,"à§ģà¦¾":11949,"à§ģà§ĭ":11950,"à§ģà§ĥ":11951,"à§ģâĢĿâĢĶ":11952,"à§ģ...":11953,"à¦¯à¦¦à¦¨":11954,"à¦¯à¦°à¦®à¦£":11955,"à¦¯à¦ªà¦£":11956,"à¦¬à¦«":11957,"à¦¬à¦ĵà§Ł":11958,"à¦¬à¦¦à§Ł":11959,"à¦¬à¦®à¦Ĺ":11960,"à¦¬à¦£à¦ķ":11961,"à¦¬à¦īà¦°":11962,"à¦¬à§İà¦ª":11963,"à¦¬à¦īà¦¬":11964,"à¦¬à¦ľà¦Ĺà§İà¦ķ":11965,"à¦®à¦°à¦®":11966,"à¦®à¦Ĺà¦²":11967,"à¦®à§Łà¦¨":11968,"à¦®à¦¹à¦¨":11969,"à¦®à¦ľà¦¯":11970,"à¦®à§Ŀ":11971,"à¦®à¦Ŀà¦°":11972,"à¦®à¦ļà¦Ł":11973,"à¦®à¦ľà¦¨à¦ķ":11974,"à¦®à¦Ńà¦Ļ":11975,"à¦®à¦°à¦¹à¦¸":11976,"à¦®à¦°à¦ľà¦²":11977,"à¦¼(":11978,"à¦¼à§Į":11979,"à¦¼à§ģà¦ĥ":11980,"à¦¼à§įâĢĮ":11981,"à¦¼à§ĭà¥¤âĢĻ":11982,"Ġà¦ķà¦Łà¦²":11983,"Ġà¦ķà¦ĩà§Ł":11984,"Ġà¦ķà¦ľà¦¨à¦ķ":11985,"Ġà¦ķà¦®à¦¨à¦¸":11986,"Ġà¦ķØ§Ø":11987,"à§ĭ.":11988,"à§ĭà¦¾à¦ģ":11989,"à§ĭâĢĮ":11990,"à§ĭâĢĿâĢĵ":11991,"Ġà¦¬à¦¤à¦°":11992,"Ġà¦¬à¦ķà¦Ł":11993,"Ġà¦¬à¦ĩà¦¨":11994,"Ġà¦¬à§Łà¦¨":11995,"Ġà¦¬à¦¦à¦¤":11996,"Ġà¦¬à¦ķà¦²à¦®":11997,"Ġà¦¬à¦¨à¦¤à¦²":11998,"Ġà¦¸à¦·":11999,"Ġà¦¸à¦¥":12000,"Ġà¦¸à¦ĩà¦²":12001,"Ġà¦¸à¦ªà¦Ł":12002,"Ġà¦¸à¦ĩà¦Ł":12003,"Ġà¦¸à¦ĩà¦¸":12004,"Ġà¦¸à¦²à¦«":12005,"à¥Į":12006,"à¥¤..":12007,"Ġà¦ªà§İ":12008,"Ġà¦ªà¦¹à¦²":12009,"Ġà¦ªà¦Ĺà¦¡":12010,"à¦¸à¦Ŀ":12011,"à¦¸à¦°à¦¬":12012,"à¦¸à¦ħ":12013,"à¦¸à¦¦à¦¯":12014,"à¦¸à¦°à¦¶":12015,"à¦¸à¦¦à§Ł":12016,"à¦¸à¦¸à¦Ļ":12017,"à¦¸à¦§à¦¬":12018,"à¦¸à¦ľà¦®":12019,"à¦¸à¦īà¦¦":12020,"à¦¸à¦ħà¦²":12021,"à¦¸à¦ĺà¦Ł":12022,"Ġà¦Ĩà¦ķà¦²":12023,"Ġà¦Ĩà¦ļà¦¨":12024,"Ġà¦Ĩà¦ļà¦°":12025,"Ġà¦Ĩà¦ĩà¦®":12026,"Ġà¦Ĩà¦īà¦¸":12027,"Ġà¦Ĩà¦ªà¦¦à¦ķ":12028,"à¦¦à¦¥":12029,"à¦¦à§İ":12030,"à¦¦à¦¬à¦²":12031,"à¦¦à¦ķà¦²":12032,"à¦¦à¦Ĺà¦¤":12033,"à¦¦à¦²à¦¤":12034,"à¦¦à¦Ľà¦¨":12035,"à¦¦à¦®à¦°":12036,"à¦¦à¦¬à¦¸":12037,"à¦¦à¦®à¦¬":12038,"à¦¦à¦ľà¦²":12039,"à¦¦à¦ĩà¦¯":12040,"à¦¦à¦Ĺà¦®":12041,"à¦¦à¦ĩà§Ł":12042,"à¦¦à¦Ńà¦Ļ":12043,"à¦¦à¦Ńà¦ķ":12044,"à¦¦à¦°à¦¤à¦°":12045,"à¦¦à¦°à¦¤à¦®":12046,"à¦Łà¦£":12047,"à¦Łà¦¬à¦°":12048,"à¦Łà¦Ĩ":12049,"à¦Łà¦ķà¦¤":12050,"à¦Łà¦²à¦¤":12051,"à¦Łà¦®à¦¯":12052,"à¦Łà¦°à¦ĩ":12053,"à¦Łà¦¨à¦ķ":12054,"à¦Łà¦ªà¦¥":12055,"à¦Łà¦°à¦ļ":12056,"à¦Łà¦¨à¦Ĺ":12057,"à¦Łà¦Ĺà¦¬à¦Ĺ":12058,"Ġà¦¨à¦ľà¦¨":12059,"Ġà¦¨à¦¬à¦²":12060,"Ġà¦¨à¦°à¦¶":12061,"Ġà¦¨à¦®à¦ķ":12062,"Ġà¦¨à¦²à¦Ĺ":12063,"Ġà¦¨à¦°à¦°":12064,"Ġà¦¨à¦²à¦ª":12065,"Ġà¦¨à¦¬à¦²à¦¤":12066,"Ġà¦¨à¦Łà¦Ł":12067,"Ġà¦¨à¦Ńà¦¨":12068,"Ġà¦¨à¦ľà¦¦":12069,"Ġà¦¨à¦¬à¦²à¦¬":12070,"Ġà¦®à¦Ŀ":12071,"Ġà¦®à§İ":12072,"Ġà¦®à¦ķà¦¬":12073,"Ġà¦®à¦«à¦²":12074,"Ġà¦®à¦Łà¦¨":12075,"Ġà¦®à¦¦à¦Ĺ":12076,"à¦ĩà¦¨à¦¤":12077,"à¦ĩà¦ķà¦°":12078,"à¦ĩà¦ĸà¦¤":12079,"à¦ĩà¦ķà¦¬":12080,"à¦ĩà¦Ĺà¦¨":12081,"à¦ĩà¦¤à¦®":12082,"à¦ĩà¦Łà¦¬":12083,"à¦ĩà¦®à¦Ł":12084,"à¦ĩà¦ľà¦®":12085,"à¦ĩà¦ļà¦¬":12086,"à¦ĩà¦¶à¦¦":12087,"à¦ĩà¦²à¦¬à¦ķ":12088,"à¦ªà¦ªà¦°":12089,"à¦ªà¦¬à¦²":12090,"à¦ªà¦¸à¦¬":12091,"à¦ªà¦§à¦¨":12092,"à¦ªà¦Ĺà¦°":12093,"à¦ªà¦¸à¦°":12094,"à¦ªà¦§à¦°":12095,"à¦ªà¦Ńà¦¯":12096,"à¦ªà¦¶à¦¯":12097,"à¦ªà¦¶à¦Ł":12098,"à¦ªà§İà¦¸à¦Ļ":12099,"à§Ģ/":12100,"à§Ģà§Ģ":12101,"à§Ģà¦ģ":12102,"à§Ģà¦ĥà¥¤":12103,"à§Ģ)à¥¤":12104,"Ġà¦¦à¦®à¦¯":12105,"Ġà¦¦à¦°à¦ĵ":12106,"Ġà¦¦à¦®à¦¬":12107,"Ġà¦¦à¦¹à¦¤":12108,"Ġà¦¦à¦°à¦¶à¦¨":12109,"à¦Ľà¦Ļ":12110,"à¦Ľà¦ľà¦¨":12111,"Ġà¦¤à¦ľ":12112,"Ġà¦¤à¦¶":12113,"Ġà¦¤à¦Ĺ":12114,"Ġà¦¤à¦ķà¦²":12115,"Ġà¦¤à¦ĸà¦¤":12116,"Ġà¦¤à¦°à¦ľ":12117,"Ġà¦¤à¦Ľà¦°":12118,"Ġà¦¤à¦¥à¦¨":12119,"Ġà¦¤à¦¦à¦ª":12120,"Ġà¦¤à¦«à¦¸":12121,"Ġà¦¤à¦°à¦ľà¦®":12122,"Ġà¦ıà¦¤à¦¨":12123,"Ġà¦ıà¦Ĺà¦¨":12124,"Ġà¦ıà¦¹à¦¨":12125,"Ġà¦¹à¦°à¦®":12126,"Ġà¦¹à¦¦à§Ł":12127,"Ġà¦¹à§ľà¦¹":12128,"à¦ľà¦°à¦ķ":12129,"à¦ľà¦ĵà§Ł":12130,"à¦ľà¦¹à¦¸":12131,"à¦ľà¦®à¦ķ":12132,"à¦ľà¦¹à¦°":12133,"à¦ľà¦ļà¦ķ":12134,"à¦ľà§°":12135,"à¦ľà¦®à¦¨à¦¸":12136,"à¦ľà¦ªà¦°à¦®":12137,"à¦ľà¦¬à¦¦à¦²":12138,"à¦ľà¦²à¦ķà¦£":12139,"à¦ľà¦¸à¦°à¦ŀ":12140,"à¦¶à¦ł":12141,"à¦¶à§İ":12142,"à¦¶à¦ªà¦¨":12143,"à¦¶à¦¬à¦²":12144,"à¦¶à¦¤à¦¬":12145,"à¦¶à¦Ĺà¦²":12146,"à¦¶à¦ļà¦°":12147,"à¦¶à¦Ŀà¦°":12148,"à¦¶à¦¤à¦Ń":12149,"à¦¶à¦°à¦Ļ":12150,"à¦¶à¦Ŀà¦¡":12151,"à¦ĸà¦ŀ":12152,"à¦ĸà¦°à¦¹":12153,"à¦ĸà¦¸à¦®":12154,"à¦ĸà¦°à¦Ĺ":12155,"à¦ĸà¦¶à¦¯":12156,"âĢĥ":12157,"âĢŀ":12158,"Ġà¦ħà¦Łà¦ķ":12159,"Ġà¦ħà¦ĩà¦¬":12160,"Ġà¦ħà¦Ŀà¦°":12161,"Ġà¦ħà¦ĵà¦°":12162,"à¦Ĺà¦¨à¦ĵ":12163,"à¦Ĺà¦°à¦²":12164,"à¦Ĺà¦¹à¦°":12165,"à¦Ĺà¦ªà¦¦":12166,"à¦Ĺà¦¦à¦²":12167,"à¦Ĺà¦®à¦¬":12168,"à¦Ĺà¦ķà¦®":12169,"à§Łà¦§":12170,"à§Łà¦¡":12171,"à§Łà¦¬à¦°":12172,"à§Łà¦¨à¦¤":12173,"à§Łà¦¨à¦ĵ":12174,"à§Łà¦®à¦¤":12175,"à§Łà¦®à§Ł":12176,"à§Łà¦ķà¦°à¦£":12177,"à§Łà¦°à¦¨à¦®":12178,"à¦·à¦®à¦¨":12179,"à¦·à¦¸à¦°":12180,"à¦·à¦°à¦ļ":12181,"à¦·à¦«à¦²":12182,"à¦·à¦¦à¦¸":12183,"Ġà¦¯à¦®à¦®":12184,"à¦§à¦Ŀ":12185,"à¦§à¦«":12186,"à¦§à¦ĵà¦¯":12187,"à¦§à¦¨à¦¤":12188,"à¦§à¦°à¦ª":12189,"à¦§à¦ļà¦°":12190,"à¦§à¦Ĺà¦£":12191,"à¦§à¦¶à¦°":12192,"à¦¡à¦°à¦¦":12193,"à¦¡à¦¹à¦°":12194,"à¦¡à¦°à¦Ł":12195,"à¦¡à¦®à§Ł":12196,"à¦¡à¦¸à¦¹":12197,"à¦¡à¦Ĩà¦ª":12198,"à¦ļà¦¬à¦¨":12199,"à¦ļà¦®à¦¯":12200,"à¦ļà¦Łà¦ķ":12201,"à¦ļà¦®à¦°":12202,"à¦ļà¦¬à¦ķ":12203,"à¦ļà¦ªà¦Ł":12204,"à¦ļà¦¬à¦ĩ":12205,"à¦ļà¦ªà¦²":12206,"à¦ļà¦Ĺà¦¡":12207,"à¦ļà¦¶à¦°":12208,"Ġà¦ķà¦°à¦ŀ":12209,"Ġà¦ķà¦°à¦ķà¦°":12210,"Ġà¦ķà¦°à¦®à¦ļ":12211,"à¦¹à¦°à¦¸":12212,"à¦¹à¦¤à¦¬":12213,"à¦¹à¦²à¦¬":12214,"à¦¹à¦¹à¦°":12215,"à¦¹à¦¨à¦¨":12216,"à¦¹à¦®à¦¸":12217,"à¦¹à¦ĩà¦¬":12218,"à¦¹à¦®à¦¶":12219,"à¦¹à¦ĺà¦¨":12220,"à¦¹à¦°à¦ķà¦°":12221,"Ġà¦Ĺà¦°à¦¸":12222,"Ġà¦Ĺà¦¹à¦°":12223,"Ġà¦Ĺà¦«à¦°":12224,"à¦ģ!":12225,"à¦£à¦¥":12226,"à¦£à¦®à¦¤":12227,"à¦£à¦¨à¦¬":12228,"à¦£à¦°à¦¶":12229,"à¦£à¦¸à¦¨":12230,"à¦£à¦ļà¦ķ":12231,"à¦£à¦®à¦§":12232,"à¦£à¦ĺà¦¨":12233,"à¦£à¦°à¦Ļ":12234,"à¦£à¦Ńà¦Ļ":12235,"à¦£à¦Ńà¦ķ":12236,"à¦£à¦Ńà§Ł":12237,"à¦¥à¦ľ":12238,"à¦¥à¦·":12239,"à¦¥à¦°à¦¤":12240,"à¦¥à¦¬à¦°":12241,"à¦¥à¦Ĺà¦¤":12242,"à¦¥à¦¤à¦¤":12243,"à¦¥à¦°à¦Ń":12244,"à¦¥à¦ļà¦°":12245,"à¦¥à¦¸à¦ķ":12246,"à¦¥à¦²à¦Ł":12247,"à¦¥à¦¬à¦§":12248,"à¦¥à¦°à¦ªà¦Ł":12249,"Ġà¦¶à¦¤à¦®":12250,"Ġà¦¶à§°":12251,"Ġà¦¶à¦£à¦¨":12252,"Ġà¦¶à¦°à¦¬à¦°":12253,"Ġà¦¶à¦Łà¦Ĺ":12254,"Ġà¦ľà¦°à¦¦":12255,"Ġà¦ļà¦°à¦¸":12256,"Ġà¦ļà¦°à¦¦":12257,"Ġà¦ļà¦ªà¦¸":12258,"Ġà¦ļà¦°à¦Ĺ":12259,"Ġà¦Ńà¦·":12260,"Ġà¦Ńà¦ŀ":12261,"Ġà¦Ńà¦°à¦ķ":12262,"Ġà¦Ńà¦ķà¦¤":12263,"Ġà¦Ńà¦²à¦¤":12264,"Ġà¦Ńà¦ĩà¦²":12265,"Ġà¦Ńà¦¬à¦¦":12266,"Ġà¦Ńà¦¬à¦¸":12267,"Ġà¦Ńà§İà¦¸à¦¨":12268,"Ġà¦°à¦°":12269,"Ġà¦°à¦¬à¦¨":12270,"Ġà¦°à¦¹à¦²":12271,"Ġà¦°à¦¸à¦¤":12272,"Ġà¦°à¦Łà¦¤":12273,"Ġà¦°à¦¸à¦ķ":12274,"Ġà¦°à¦ĩà¦¯":12275,"Ġà¦°à¦®à¦¸":12276,"Ġà¦°à¦¸à¦ª":12277,"Ġà¦°à¦¸à¦®à¦¯":12278,"Ġà¦°à¦®à¦ª":12279,"Ġà¦°à¦¨à¦ľ":12280,"Ġà¦°afi":12281,"à¦ĵà¦§":12282,"à¦ĵà¦ķà¦¥":12283,"à¦ĵà¦ıà¦¸":12284,"à§ĩà¥¤]":12285,"à§ĩà¥¤âĢĶâĢĻ":12286,"à¦Ńà¦Ľ":12287,"à¦Ńà¦·":12288,"à¦Ńà¦£":12289,"à¦Ńà¦°à¦ķ":12290,"à¦Ńà¦¨à¦ķ":12291,"Ġà¦ıà¦ķà¦ķà¦Ł":12292,"Ġà¦ıà¦ķà¦ıà¦ķ":12293,"Ġà¦ıà¦ķà¦¸à¦¤":12294,"Ġà¦ıà¦ķà¦¸à¦Ł":12295,"Ġà¦Ľà¦°":12296,"Ġà¦Ľà¦ķà¦Ł":12297,"Ġà¦Ľà§Łà¦¨":12298,"Ġà¦Ľà¦ĩà¦Ł":12299,"Ġà¦Ĩà¦®à¦ĩ":12300,"Ġà¦Ĩà¦®à¦ĵ":12301,"Ġà¦Ĩà¦®à¦Ŀ":12302,"Ġà¦Ĩà¦®à¦«":12303,"à§ĥâĢĻ":12304,"à¦łà¦²":12305,"à¦łà¦¬à¦¨":12306,"à¦łà¦°à¦¸":12307,"à¦łà¦ķà¦¬":12308,"à¦łà¦ªà¦¥":12309,"à¦łà¦ļà¦°":12310,"à¦łà¦¨à¦Ĺ":12311,"à¦łà¦¨à¦ĩ":12312,"à¦łà¦ĸà¦¡":12313,"ĠĠâĢ¨Ċ":12314,"à¦¼à¦¾âĢĶâĢľ":12315,"à¦¼à¦¾âĢĻ-":12316,"à¦¼à¦¾),":12317,"à¦¼à¦¾âĢ¦à¥¤":12318,"à¦¼à¦¾âĢ¦à¥¤âĢĻ":12319,"Ġà¦īà¦ĸ":12320,"Ġà¦īà¦ĺ":12321,"Ġà¦īà¦¨à¦¬":12322,"Ġà¦īà§°":12323,"Ġà¦īà¦·à¦°":12324,"Ġà¦īà¦Łà¦ª":12325,"Ġà¦īà¦ĩà¦¡":12326,"Ġà¦īà¦Ĺà¦¡":12327,"Ġà¦īà¦ĩà¦«":12328,"à¦¾à¦ģà¦ģ":12329,"à¦¾à¦ģ!âĢĿ":12330,"à¦¾à¦ģâĢĻà¥¤":12331,"à¦Ĥà¥¤âĢĻ":12332,"à¦Ļà¦°à¦¹":12333,"à¦Ļà¦¨à¦ĩ":12334,"à§Ĥ!":12335,"Ġà¦¥à¦¨":12336,"Ġà¦¥à¦ª":12337,"Ġà¦¥à¦ªà¦¥à¦ª":12338,"Ġà¦¬à¦²à¦ªà§Ł":12339,"Ġà¦Ĩà¦°à¦Ł":12340,
[...]
