#version: 0.2
à ¦
à §
Ġ à¦
à¦ ¾
à§ ĩ
à¦ °
à§ į
à¦ ¿
à¦ ¨
à¦ ¤
à¦ ²
à¦ ķ
à¦ ¯
à§ ģ
à¦ ¬
à¦ ¼
à¦ ®
à§ ĭ
Ġà¦ ķ
Ġà¦ ¬
Ġà¦ ¸
à ¥
à¥ ¤
à¦ ¸
Ġà¦ ª
Ġà¦ Ĩ
à¦ ¦
à¦ Ł
Ġà¦ ¨
Ġà¦ ®
à¦ ª
à¦ ĩ
à§ Ģ
à¦ Ľ
Ġà¦ ¦
à¦ ľ
Ġà¦ ¹
Ġà¦ ¤
Ġà¦ ı
à¦ ¶
à¦¼ à§ĩ
Ġà¦ ħ
à¦ ĸ
à¦ Ĺ
à¦ ·
à¦ §
â Ģ
à¦ ¡
Ġà¦ ¯
à¦ ļ
à¦ ¹
Ġà¦ķ à¦°
à§ Ł
Ġà¦ Ĺ
à¦ £
à¦ ģ
à¦ ¥
Ġà¦ ¶
Ġà¦ ľ
Ġà¦ ļ
Ġà¦ Ń
Ġà¦ °
à§ĩ à¥¤
à¦ ĵ
à¦ Ń
Ġà¦ı à¦ķ
à¦¼ à¦¾
à§ ĥ
Ġ č
Ġà¦ Ľ
Ġ Ġč
Ġà¦Ĩ à¦®
à¦ ł
Ġà¦ ī
à¦ Ĥ
à§ Ĥ
à¦¾ à¦ģ
à¦ Ļ
Ġà¦ ²
Ġà¦ ĵ
Ġà¦ ¥
à§ĩ ,
Ġà¦¬ à¦²
Ġà¦ «
Ġà¦Ĩ à¦°
Ġà¦ ĸ
à¦° à¦¤
Ġà¦ħ à¦¨
à¦¾ à¥¤
Ġà¦¹ à¦¯
Ġà¦ª à¦°
Ġà¦ §
âĢ Ķ
Ċ č
Ġà¦¸ à¦®
à¦¾ ,
Ġ âĢ
à¦¬ à¦¨
à¦¼ à¦¿
à§ ľ
à¦ĸ à¦¨
Ġà¦ ĺ
Ġà¦® à¦¨
à¦ª à¦°
Ġà¦ıà¦ķ à¦Ł
à¦° à¦£
Ġà¦ı à¦ĩ
à¦¿ à¥¤
à¦® à¦¨
à¦ Ŀ
à¦ľ à¦¨
à¦ ŀ
à¦¤ à¦°
à¦ «
à¦ ī
à¦¿ ,
à¦ª à¦¨
Ġà¦Ĩ à¦²
à§ İ
à¦ Ĩ
à¦° à¦¬
à¦ ı
à¦° à¦ķ
âĢ Ŀ
Ġà¦¸ à¦¬
à¦¬ à¦°
Ġà¦ Ł
Ġà¦¬à¦² à¦²
Ġà¦Ĩ à¦¸
č Ċč
Ġà¦Ĩ à¦Ľ
âĢ Ļ
Ġà¦ķ à¦¥
à¦¼ à¥¤
Ġà¦¹ à¦²
Ġà¦ī à¦ł
ĠâĢ ľ
Ġà¦ ¡
à§ Ī
Ġà¦ ĩ
Â ł
Ġà¦ª à¦¡
à¦ ĺ
Ġà¦® à¦¤
Ġà¦¸ à¦Ļ
à¦ĵ à¦¯
à§ Į
Ġà¦¹ à¦¬
Ġà¦ľ à¦¨
Ġà¦§ à¦°
Ġà¦ Ŀ
ĠĠč Ċč
à¦¬ à¦²
Ġà¦ı à¦¬
à¦¼ ,
Âł Âł
ĠâĢ ĺ
à¦¬ à¦ª
Ġà¦ħ à¦¬
Ġà¦ķà¦° à¦¤
à§ģ à¦ģ
Ġà¦ļ à¦²
à¦° à¦®
Ġà¦ ł
à¦· à¦£
à¦¨ à¦¤
Ġà¦ķà¦° à¦²
Ġà¦ı à¦¸
Ġà¦® à¦§
âĢ ĵ
Ġà¦¬ à¦¸
Ġà¦Ĩ à¦ľ
à¦¤ à¦¨
à¦ ĥ
Ġà¦ ¢
à§ĭ à¦ģ
à¦ ħ
Ġà¦¬ à¦¨
Ġà¦¨ à¦¤
à¦ķ à¦²
Ġà¦Ĩ à¦¬
Ġà¦ħ à¦®
Ġà¦ª à¦¥
Ġà¦Ĩ à¦Ĺ
Ġà¦Ĩà¦® à¦°
Ġà¦Ĺ à¦²
à¦ķ à¦°
Ġà¦¨ à¦¯
Ġà¦¹ à§Ł
Ġà¦ĵ à¦ł
à¦ķ à¦Ł
à¦¸ à¦¬
Ġà¦ħ à¦¸
à¦¯ à¦¬
à¦° à¦¨
à¦° à¦¥
à§ĭ à¥¤
Ġà¦¤ à¦¬
à§ĩ à¦ģ
Ġà¦Ĩ à¦ķ
à§ĭ ,
à¦¾ à¦Ĥ
à¦² à¦ķ
à¦¤ à¦¬
à¦° à¦¸
à¦¨ à¦¬
Ġà¦Ĩ à¦ªà¦¨
à¦ķ à¦¤
Ġà¦¤ à¦ĸà¦¨
Ġà¦Ĩ à¦¶
à¦¦ à¦¨
Ġà¦ı à¦ĸà¦¨
à¦°à¦¥ à¦®
Ġà¦¬ à¦°
Ġà¦¹ à¦¤
à§ĩ ?
Ġà¦¸ à¦¤
Ġà¦ı à¦²
Ġà¦Ĩ à¦¨
Ġà¦ħ à¦¦
à¦Ĩ à¦®
Ġà¦ķà¦° à¦Ľ
Ġà¦ī à¦¦
Ġà¦ħ à¦°
à¦¦ à¦°
à¦¾ -
Ġà¦ľ à¦²
à¦Ĺ à¦²
Ġà¦ħ à¦Ń
à¦² à¦¤
à¦Ĺ à¦¤
Ġà¦¶ à¦¬
Ġà¦¸à¦® à¦¯
à¦¦ à¦¯
à¦¶ à¦¨
Ġà¦¸ à¦¨
à¦¿ à¦Ĥ
Ġà¦ħ à¦¤
à¦¯ à¦ķ
à¦® à¦¤
à¦§ à¦ķ
à¦° à¦¹
Ġà¦ĺ à¦°
Ġà¦¯ à¦¦
Ġà¦° à¦ķ
Ġà¦īà¦ł à¦²
à¦ļ à¦¨
à¦² à¦¨
Ġà¦ķà¦° à¦¬
à¦¹ à¦¸
Ġà¦ī à¦ª
Ġà¦® à¦¹
Ġà¦¸ à¦°
à¦° à¦¶
à¦° à¦¯
à¦¨ à¦ĵ
à¦¬ à¦¤
Ġà¦¯ à¦ĸà¦¨
à¦ĸ à¦¤
à¦Ľ à¦¨
à¦ĩ à¦²
à¦® à¦²
à¦¯ à¦¤
à¦² à¦¬
à¦ĸ à¦²
à§ĩ âĢĶ
à¦§ à¦¨
à¦° à¦ľ
à¦® à¦¯
Ġà¦¨ à¦¦
à¦° à¦¦
Ġà¦¬ à¦¡
ÂłÂł ÂłÂł
Ġà¦ı à¦®à¦¨
Ġà¦ħ à¦ª
à¦° à¦²
à¦¼ à§ĭ
Ġà¦ħ à¦§
Ġà¦ķ à¦²
à¦ļ à¦²
à¦ª à¦¤
à¦ĵ à§Ł
Ġà¦¸ à¦¹
Ġà¦¹ à¦ļ
à¦® à¦ķ
à¦° à¦ĩ
Ġà¦ķ à¦ĸà¦¨
Ġà¦Ĩ à¦¤
Ġà¦ı à¦¤
à¦¹ à¦°
Ġà¦ī à¦¤
à¦¿ à¦ĥ
Ġà¦ĵ à¦°
à¦¸ à¦¨
à¦ĩ à¦¨
Ġà¦ħ à¦ļ
Ġà¦Ń à¦°
Ġà¦¶ à¦ķ
Ġà¦ľ à¦®
à¦ķ à¦¬
à¦ı à¦ĩ
Ġà¦ķ à¦£
à¦¨ à¦¨
à§ĩ -
à¦° à¦ªà¦°
Ġà¦ķ à¦¬
Ġà¦¹ à¦ł
à¦Ń à¦¬
à¦¸ à¦®
Ġà¦Ĺ à¦¡
Ġà¦ı à¦ĸ
à¦¿ -
à¦Ł à¦ķ
Ġà¦ª à§ľ
à§Ģ ,
Ġà¦ī à¦¨
Ġà¦ĩ à¦¤
Ġà¦ħ à¦ľ
à¦¹ à¦²
Ġà¦ĵ à¦ªà¦°
à¦Ľ à¦°
âĢ ¦
Ġà¦ĺ à¦Ł
à¦¯ à¦¨
Ġà¦ Ĳ
Ġà¦¬ à¦¹
Ġà¦ķ à¦¤
Ġà¦ķ à¦®
à¦¤ à¦²
Ġà¦¬à¦² à¦¤
à¦¾ âĢĶ
Ġà¦Ľ à¦¡
à¦Ĺ à¦¨
Ġà¦¤ à¦°
Ġà¦¬ à¦¯
Ġà¦° à¦Ļ
Ġà¦¸ à¦ķ
Ġà¦ī à§İ
Ġà¦¬ à¦Ľà¦°
à¦Ĺ à¦°
Ġà¦ı à¦Ĺ
Ġà¦¸à¦® à¦¸
Ġà¦¯ à¦¤
Ġà¦ª à¦¦
à¦® à¦°
à¦¸ à¦°
à§ĩ !
Ġà¦ı à¦Ł
Ġà¦¦ à¦°à¦ľ
à¦° à¦Ń
à¦° à¦ĵ
Ġà¦Ń à¦¯
Ġà¦¶ à¦°
à¦¶ à¦¬
âĢ ľ
à¦¦ à§Ł
à¦ª à¦¦
Ġà¦ī à¦ļ
à¦ª à¦¥
à¦¿ ?
à¦¼à§ĩ à¥¤
Ġà¦¨ à§Ł
Ġà¦ħà¦® à¦²
Ġà¦ħ à¦Ĺ
âĢ Į
Ġà¦ħ à¦¥
à¦ı à¦ķ
à¦¾ ?
Ġà¦Ĺ à¦¨
Ġà¦ı à¦°
Ġà¦Ĩà¦° à¦ĵ
à¦¨ à¦ķ
à§Ģ à¥¤
Ġà¦Ĺ à¦°
à¦® à¦£
Ġà¦ħ à¦ķ
à¦¦ à¦²
Ġà¦Ĺ à¦Ń
Ġà¦¶ à¦¹à¦°
à¦¬ à¦¸
Ġà¦¬ à¦ĩ
Ġà¦® à¦°
Ġà¦ħ à¦ªà¦°
à¦· à¦¤
à¥¤ âĢĿ
à§į âĢĮ
à¦° à¦ª
à¦Ł à¦²
à¦ĩ à¦°
Ġà¦Ľ à¦¬
Ġà¦« à¦²
à¦¬ à¦¦
à¦¯ à¦®
à¦· à¦ķ
à¦¸ à¦¤
à¦ļ à¦¯
à§İ à¦ķ
à¦Ŀ à¦¤
à¦¿ à¦ģ
à§ §
à§ģ ,
à¦¤ à¦ķ
à¦° à¦Ł
Ġà¦² à¦ķ
à§ģ à¦ĥ
à¦¨ à¦Ł
à¦¿ âĢĶ
Ġà¦¬à¦² à¦Ľ
Ġà¦ĵ à¦ĩ
à¦ļ à¦ķ
à¦ħ à¦¨
à¦¼à§ĩ ,
à¦¤ à¦®
à¦¯à¦¬ à¦¸
à¦¾ !
Ġà¦ĩ à¦¨
à¦¸ à¦²
à¦² à¦²
à¦ª à¦ķ
à¦ľ à¦²
à¦® à¦¬
Ġà¦ħà¦¨ à¦¨
Ġà¦Ĩà¦¨ à¦¨
Ġč Ċč
à¦°à¦¬ à¦¤
à¦· à¦¯
Ġà¦ħ à¦¶
à¦¯à¦¬ à¦¹
à¦¶ à¦ķ
à¦¨ à¦¦
à¦¸ à¦Ļ
à¦ļ à¦°
Ġà¦Ĩ à¦§
à¦¬ à¦ķ
à§ĩ ;
à¦£ à¦¤
Ġà¦° à¦¬
Ġà¦ıà¦ķ à¦¦
à¦ĩ à¦ķ
à¦ ¢
Ġà¦ķ à¦¯
à¦¤ à¦¤
à§Ł à¦¨
à¦° à¦ļ
à¦° à¦Ľ
à¦°à¦ķ à¦®
à§ģ âĢĻ
Ġà¦ĩ à¦ļ
Ġà¦ħà¦¬ à¦¸
Ġà¦Ĩà¦¸ à¦Ľ
à¦§ à¦¤
à¦¯ à¦¸
à¦¬ à¦¬
à¦¹ à¦¨
Ġà¦ıà¦ķ à¦ľà¦¨
Ġà¦ī à¦ªà¦°
Ġà¦ħ à¦²
Ġà¦Ń à¦¬
Ġà¦ıà¦ķ à¦¬
à§Į à¦ģ
Ġà¦Ĩà¦¸ à¦²
Ġà¦Ĩà¦ľ à¦ķ
Ġà¦Ĩ à¦¡
Ġà¦ħ à¦Ļ
à¦ª à¦Ł
à¦¯ à¦¦
à¦¬ à¦¯
à¦ľ à¦°
à§ĩà¥¤ âĢĿ
à§ °
à¦ĩ à¦¯
Ġà¦ħà¦¬ à¦¶
à¦¼ à§ģ
à¦ķ à¦¨
Ġà¦¶ à¦¤
! âĢĿ
Ġà¦° à¦¹à¦¸
Ġà¦ª à¦¤
à¦ĸ à¦¬
à¦¸ à¦«
à¦¸ à¦ķ
Ġà¦¨ à¦¬
Ġà¦Ĺ à¦¤
à§ģ à¥¤
à¦ĺ à¦°
Ġà¦Ŀ à¦°
Ġà¦¸ à¦ķà¦²
Ġà¦ī à¦²
Ġà¦¦ à¦²
à§§ à§
Ġà¦¬ à¦¦à¦²
à¦Ł à¦¤
Ġà¦Ĩ à¦ļ
à¦· à¦°
Ġà¦ī à¦ľ
Ġà¦¤ à¦²
à§ģ -
à¦§ à¦°
Ġà¦ī à¦¡
Ġà¦ª à¦ķ
à¦¥ à¦¨
à¦¨ à¦²
à¦¼à¦¾ ,
Ġà¦° à¦¯
à¦¼ à§Ģ
? âĢĿ
à¦¨ à¦¸
à¦ĩ à¦¤
à¦Ĩ à¦ľ
à¦ĸ à¦Ľ
à¦ª à¦¸
à¦¬ à¦¶
à¦¯ à¦¥
Ġà¦¹ à¦ĵà¦¯
Ġà¦ħà¦¥ à¦ļ
à¦¨ à¦°
Ġà¦Ĩ à¦Ļ
à¦° à¦ľà¦¨
Ġ à¥¤
à¦ĩ à¦Ł
Ġà¦Ĩ à¦¯
à¦¨ à¦Ĺ
Ġà¦Ĩ à¦¦
Ġà¦ĵ à¦¦
à¦¯ à¦°
Ġ (
à¥¤ âĢĻ
à¦¥ à¦°
Ġà¦Ĺ à§ľ
à¦« à¦²
ÂłÂłÂłÂł ÂłÂłÂłÂł
à¦Ĺ à¦ľ
à¦ª à¦·
Ġà¦¸à¦¹ à¦ľ
Ġà¦ķ à¦ł
Ġà¦ħ à¦«
Ġà¦¸à¦® à§Ł
à§İ à¦¸
Ġà¦Ĩ à¦¹
Ġà¦ı à¦¦
à¦ª à¦¡
à¦¨à¦¬ à¦¤
Ġà¦Ĩà¦¸ à¦¬
Ġà¦¬à¦² à¦¬
à¦° à¦§
à¦ī à¦²
Ġ ,
à¦Ŀ à¦²
à¦¼à¦¾ à¥¤
Ġà¦¤ à¦¥
à¦Ĩ à¦°
à¦Ł à¦¬
? âĢĻ
Ġà¦ ĭ
Ġà¦ľ à¦¡
à¦² à¦Ľ
à§ĩ âĢĵ
Ġà¦ıà¦ķ à¦ĩ
à¦°à¦¹ à¦£
à¦ı à¦ķà¦Ł
à¦ľ à¦¤
Ġà¦ıà¦ĸà¦¨ à¦ĵ
à¦ī à¦¨
à¦ĩ à¦¬
Ġà¦ĺ à¦¨
à¦Ń à¦°
Ġà¦° à¦ĩà¦²
Ġà¦Ľ à§ľ
à¦° à¦Ĺ
à¦Ĺ à¦¬
Ġà¦ĸ à¦¬à¦°
Ġà¦Ĩ à¦Łà¦ķ
Ġà¦Ľ à¦¨
Ġà¦ı à¦¨
à¦°à¦® à¦£
à¦· à¦®
ĠâĢ ĵ
à¦ķ à¦¶
Ġà¦ķ à¦¨
à¦¿ !
Ġà¦¦ à¦°à¦ķ
Ġà¦ķ à¦·
Ġà¦ĺà¦Ł à¦¨
Ġà¦ª à¦²
Ġà¦Ĩà¦¸ à¦¤
à¦ľ à¦¸
à¦ľ à¦¯
Ġà¦¤à¦ĸà¦¨ à¦ĩ
à¦¯ à¦ĩ
à¦ı à¦¬
Ġà¦¯ à¦¥
à¦® à§Ł
Ġà¦°à¦ķ à¦®
à¦§ à¦¬
Ġà¦¦ à¦¶
Ġà¦Ĳ à¦¤
à¦ķ à¦ķ
Ġà¦īà§İ à¦¸
à¦¹ à¦¤
à¦ķ à¦¦
à§ĭ âĢĶ
à¦® à¦¸
Ġà¦ķà¦ĸà¦¨ à¦ĵ
Ġà¦¤ à¦¤
à¦ı à¦°
à¦ķ à¦¡
à¦¨ à¦¯
à¦· à¦®à¦¤
à¦¾ ;
Ġà¦¸ à¦ļ
Ġà¦ħà¦¦ à¦®
Ġà¦¹ à¦°
à§ ¨
à¦Ĩ à¦²
Ġà¦¦ à¦°
Ġà¦Ĩ à¦Ń
Ġ à§§à§
à¦¾ âĢĵ
à¦¯ à¦¯
Ġà¦¬ à¦Ł
Ġà¦ļ à¦°
Ġà¦¬ à¦ķ
Ġà¦ľ à¦°
Ġà¦¸ à¦°à¦ķ
Ġà¦Ĺ à¦£
Ġà¦¨ à¦°à¦®
à¦Ĩà¦® à¦°
Ġà¦ħà¦¥ à¦¬
à¦ľ à¦¬
Ġà¦ªà¦° à¦¬à¦°
Ġà¦¯ à¦¨
à§ĭ ?
à¦Ł à¦¨
à§Ģ -
Ġà¦¬ à§Ł
Ġà¦¸à¦¬ à¦ļ
à¦¸à¦¬ à¦ĩ
à¦® à¦§
Ġà¦ķ à¦²à¦ķ
Ġà¦ļ à¦ķ
à¦¦ à¦®
Ġà¦Ń à§Ł
âĢĶ âĢľ
à¦Ł à¦°
à¦® à¦Ł
Ġ âĢĶ
à§ĭ -
Ġà¦¸ à¦ŀ
Ġà¦Ĩ à¦¦à¦°
Ġà¦¬ à¦ī
à¦® à¦°à¦£
à¦² à¦®
Ġà¦Ń à¦¦
Ġà¦ľ à¦¯
à¦ŀ à¦¤
à¦² à¦¯
à¦Ĺ à¦®
à¦² à¦Ĺ
à¦ª à¦£
Ġà¦ħ à¦Łà¦²
à¦¶ à¦ª
à¦¾à¥¤ âĢĿ
à¦² à¦¸
Ġà¦ıà¦¸ à¦¬
Ġà¦° à¦ĵ
à¦¹ à¦°à¦£
Ġà¦ĵ à¦ķ
à¦¨ à¦ĩ
à¦² à¦Ł
Ġà¦īà¦ł à¦¤
âĢ ĺ
Ġà¦° à¦¸
Ġà¦¬ à§ľ
Ġà¦īà¦ª à¦¸
à¦¼ ?
Ġà¦īà§İ à¦¸à¦¬
Ġà¦§ à¦¨
à¦® à¦Ĺ
à¦ĩ à¦Ľ
à¦ĸ à¦°
Ġà¦¸à¦¤ à¦¤
à¦¸ à¦®à¦¯
Ġà¦° à¦ļà¦¨
à¦® à¦¹
à¦¸ à¦ª
à¦¹ à¦ł
à¦° à§Ł
Ġà¦īà¦ł à¦Ľ
à¦¦ à¦¸
à¦¼ âĢĶ
à¦Ŀ à¦°
Ġà¦² à¦¡
à¦¹ à¦¯
Ġà¦Ĩà¦ľ à¦ĵ
à¦¼ -
à¦Ĩ à¦ªà¦¨
à¦ł à¦¨
à¦¡ à¦²
Ġà¦² à¦ľ
à¦Ł à¦«
à¦°à¦¹ à¦°
Ġà¦ıà¦ķ à¦¸à¦Ļ
Ġà¦¸ à¦Ń
Ġà¦ Ī
Ġà¦Ĩ à¦ª
à§Ł à¦¤
à¦¨ à¦Ń
Ġà¦ª à¦¶
Ġà¦¦ à¦ķ
à¦ľ à¦ķ
à¦¾ âĢĻ
à¦¥ à¦ķ
Ġà¦§à¦° à¦¨
à¦¸ à¦Ł
Ġà¦Ĩ à¦ĵà¦¯
Ġà¦ļà¦² à¦Ľ
Ġà¦ķ à¦ª
à¦Ĺ à¦Ľ
à¦¯ à¦ª
Ġà¦§à¦° à¦²
à§ ¦
à¦° à¦°
Ġà¦ħà¦¸ à¦®
à¦Ĩ à¦ķ
Ġà¦ħ à¦ŀ
à¦ļ à¦¡
Ġà¦¨ à¦®
à¦² à¦®à¦²
à¦¤ à¦Ł
Ġà¦® à¦ľ
à¦¬ à¦Ľ
Ġà¦¬à¦¸ à¦²
à¦ķ à¦°à¦£
Ġà¦ªà¦° à¦®
Ġà¦¨ à¦¨
Ġà¦¶ à¦¹
à¦¬ à¦ļ
Ġà¦® à¦ŀ
Ġà¦¸à¦¬ à¦ĩ
Ġà¦ī à¦ªà¦¨
à¦¶ à¦²
à¦¿ ;
à¦¾à¦ģ ,
Ġà¦ªà¦¦ à¦ķ
à§ «
Ġà¦ıà¦ķ à¦®
Ġà¦°à¦ĵ à¦¶à¦¨
à¦Ń à¦¯
à ¤
à¦ł à¦ķ
- -
Ġà¦® à¦²
à¦ķ à¦¸
à¦Ľ à¦¬
Ġà¦¨ à¦ľà¦°
Ġà¦® à¦£
Ġà¦¯ à¦ľ
à¦¬ à¦¹
Ġà¦ī à¦·
à¦¼ ;
Ġà¦ľ à¦¬
à¦¬ à¦£
Ġà¦¸à¦® à¦¨
à¦¬ à¦ĩ
à§Ģ ?
à¦ł à¦¸
à¦ª à¦²
Ġ t
à¦ī à¦ķ
Ġà¦ļ à¦®à¦ķ
à§ĩ? âĢĿ
Ġà¦¥ à¦®à¦ķ
à¦¿ âĢĵ
Ġà¦ı à¦Ń
à¦ķ à¦Ľ
Ġà¦ª à¦ŀ
Ġà¦Ĺ à¦°à¦®
Ġà¦ĵ à¦Ł
à¦ľ à¦®
à¦ķ à¦¥
à¦ª à¦ļ
à¦· à¦¦
à¦¾à¥¤ âĢĻ
Ġà¦¦ à¦®
à¦ķ à¦ľà¦¨
à¦ī à¦¯
Ġà¦ī à¦°
à¦¹ à¦®
à§ĩà¥¤ âĢĻ
Ġà¦ĺ à¦£
à§ĩ âĢ¦
à¦£ à¦¨
Ġà¦ľ à§Ł
à¦¶ à¦®
Ġà¦Ĺ à¦¬
Ġà¦Ĺ à¦®
Ġà¦īà¦ł à¦¬
à¦¤ à¦ª
à¦Ŀ à¦ĸ
à¦ı à¦¸à¦¬
à¦ĩ à¦Ń
à¦ı à¦Ł
Ġà¦Ĺ à¦¹
à¦® à¦¶
à¦¤ à¦¨à¦¤
à¦® à¦¦
à¦£ à¦¬
Ġà¦Ŀ à¦²à¦®à¦²
à¦ĩ à§Ł
à¦° à¦ĸ
à¦¼ à¦Ĥ
Ġà¦® à¦¸
à¦ķ à¦Ń
à¦° à¦Ĺà¦¤
à¦° à¦¬à¦¨
Ġà¦¸à¦° à¦²
Ġà¦ªà§ľ à¦²
à¦¦ à¦Ĺ
à¦ĩ à¦¡
Ġà¦¯à¦¤ à¦ĩ
Ġà¦ļ à¦¡
Ġà¦ħ à¦Ł
Ġà¦Ĳ à¦ķ
Ġà¦¤à¦° à¦Ļ
à¦ĵ à¦°
Ġà¦ľ à¦Ł
à¦ı à¦ĸà¦¨
Ġà¦ıà¦ķ à¦¤
Ġà¦Ń à¦Ļ
à¦¥ à¦²
à¦¤ à¦¦
à¦ļ à¦¤
à¦¨ à¦¶
Ġà¦ļ à¦¨
à§ Ŀ
Ġà§§à§ ¯
à¦¬ à¦Ń
à¦¿à¥¤ âĢĿ
à¦ı à¦ĸ
à§ ©
à¦® à¦ª
Ġà¦Ĩà¦° à¦®
à¦ĺ à¦¨
Ġà¦ĵ à¦ĸ
à¦¿ âĢĻ
à¦² à¦Ń
h e
à¦Ľ à¦²
Ġà¦² à¦®
à§ Ń
à§ĭ !
à¦ħ à¦°
à¦¶ à¦¯
Ġà¦ªà¦° à¦¶
à¦ª à¦®
à¦¯ à¦Ń
à¦¬ à¦§
à¦¸ à¦¹
à¦® à¦ľ
Ġà¦ħ à¦°à¦£
Ġà¦ľ à¦Ĺà¦¤
à¦¯ à§İ
Ġà¦ļà¦² à¦¤
à¦¸ à¦Ľ
à¦Ĺ à¦£
à¦¼à¦¿ à¥¤
à¦¤ à¦¹
Ġà¦¸ à¦ª
à¦Ł à¦Ľ
à¦ļ à¦Ł
Ġà¦®à¦¤ à¦¨
Ġà¦¨ à¦ķ
Ġà¦ļà¦² à¦²
Ġà¦¸ à¦¦
à¦ľà¦¨ à¦ķ
Ġà¦ª à¦Ľà¦¨
à¦ĥ à¥¤
Ġà¦¸ à¦ł
Ġà¦ħ à¦¹
Ġà¦ĵ à¦¯
à¦ī à¦Ł
à¦ķ à¦ĩ
Ġà¦° à¦®à¦£
i n
à§ ª
Ġà¦¬ à¦ľ
à¦ĩ à¦¸
à¦ľ à¦Ľ
à¦°à¦¬ à¦²
à¦ľ à¦Ł
Ġà¦¬à¦¸ à¦¨
à¦ķ à¦£
à¦² à¦ª
Ġà¦« à¦°
Ġà¦¹ à¦¸
à¦ķ à¦Ĺ
à¦ļ à§Ł
à¦Ĩ à¦Ĺ
à¦° à¦«
à¦· à§Ł
, âĢĿ
Ġà¦Ĩ à¦ĺ
à¦· à¦Ł
Ġà¦Ĩ à¦ĩà¦¨
Ġà¦¨ à¦¡
Ġà¦ª à¦£
à¦Ł à¦Ł
à¦ĺ à¦²
Ġà¦ħà¦¤ à¦ıà¦¬
à¦® à¦¡
à¦¬ à¦¡
Ġà¦¨ à¦Ĺà¦°
à¦ī à¦°
Ġà¦¸à¦¬ à¦ķ
Ġà¦¨ à¦·
Ġà¦īà¦ª à¦²à¦¬
à¦¨ à¦ª
Ġà¦¹ à¦ĩ
a n
à¦¬ à¦Ł
Ġà¦ħà¦ľ à¦¸
Ġà¦Ĩ à¦ķà¦°
à¦¥ à¦®
à¦¦ à¦Ł
Ġà¦ ·
Ġà¦Ĩ à¦¨à¦¤
à¦° à¦¦à¦°
Ġà¦ī à§ľ
âĢĿ à¥¤
à§ĩ :
à¦ķ à¦®
Ġà¦ıà¦®à¦¨ à¦ķ
à¦¦ à¦ķ
Ġà¦® à¦®à¦¤
à¦¨ à¦ļ
à¦¶ à¦°
à¦®à¦¨ à¦ĩ
à¦² à¦ļ
à¦¶ à¦¤
à¦Ł à¦®
à¦§ à¦¹à¦¯
à¦ī à¦¦
Ġà¦ĩ à¦²
à¦ľ à§Ł
Ġà¦Ŀ à¦¡
à§ĩ? âĢĻ
à¦¤ à¦Ń
à¦¤ à¦¸
à¦Ń à¦Ļ
à¦£ à¦ķ
Ġà¦ĩ à¦¯
Ġà¦ķ à§Ł
à¦°à¦¬ à¦°
Ġà¦¸ à¦ľ
Ġà¦ľ à¦Ļ
à¦Ł à¦ª
à¦ľ à¦Ĺ
à¦Ľ à¦¤
Ġà¦ĵ à¦ª
Ġà¦ª à¦²à¦ķ
Ġà¦¬à¦ĩ à¦¯
à¦ĩ à¦®
à¦ĸ à¦ķ
à¦¶ à¦Ł
à¦¨ à¦Ľ
à¦Ĺ à¦¡
Ġà¦² à¦¤
Ġà¦ħà¦¤ à¦²
Ġà¦¸ à§İ
Ġà¦® à¦¶
Ġà¦Ń à¦ķ
à¦¬ à¦®
. .
à¦° à¦Ļ
à¦ĩ à¦ľ
à¦¼à¦¿ ,
Ġà¦ª à¦¯
Ġ -
Ġà¦¹ à¦¨
Ġà¦ħà¦® à¦°
à¦¤à¦¬ à¦¤
à¦¬à¦² à¦¤
à¦¤ à¦ĸà¦¨
à¦ķ à¦ļ
Ġà¦Ŀ à¦¨
o n
âĢ¦ âĢĿ
à¦ª à¦Ľ
à¦°à¦¸ à¦Ļ
Ġà¦§ à¦°à¦¤
à§ĩ à¦¾
Ġà¦ļà¦² à¦¬
à¦¨ à§Łà¦¨
à¦¬à¦² à¦Ľ
à§ĩ! âĢĿ
Ġà¦īà§İ à¦ª
à¦¶ à¦Ĺ
Ġà¦¶ à¦ªà¦¥
à¦¬ à¦ľ
Ġà¦ļ à¦Ł
à¦¸à¦¬ à¦ķ
r e
Ġà¦ħà¦¨ à¦²
à¦¿à¥¤ âĢĻ
Ġà¦¶ à¦Ļ
Ġà¦ķà¦¤ à¦Ł
Ġà¦Ĺ à¦Ļ
Ġà¦¬à¦¸ à¦¤
Ġà¦ĭ à¦·
à¦¤ à¦ĩ
Ġà¦° à¦ļ
Ġà¦® à¦¯
Ġà¦Ĩ à§ľ
à¦¯ à¦®à¦¯
à¦® à¦ļ
Ġà¦®à¦¨ à¦¨
à¦¦ à¦¬
à¦°à¦ķ à¦²
Ġà¦Ī à¦¶
Ġà¦ħà¦¸ à¦¹
à¦Ĺ à¦°à¦£
à¦¬ à¦ľà¦¨
à¦¦ à¦¶
à¦¥ à¦¤
Ġà¦¸à¦® à¦°
à¦ħ à¦¤
à¦ħ à¦¸
Ġà¦ Ĭ
à¦¼ !
à¦¥ à¦¬
à¦¬à¦² à¦ľ
à¦°à¦® à¦¶
à¦² à¦ľ
à§Ģ !
Ġà¦Ĩà¦ļ à¦°à¦£
Ġà¦ľ à¦Ĺ
Ġà¦Ĩà¦¬ à¦¦
Ġà¦ª à¦Ł
Ġà¦ķ à¦ļ
à¦ķ à§ľ
Ġà¦° à§Ł
Ġà¦ĩ à¦¸
Ġà¦ı à¦°à¦ķà¦®
Ġà¦® à¦¦
Ġà¦ļ à¦¤
Ġà¦ĸ à¦¸
à¦¯ à¦Ł
Ġà¦ĸ à¦°à¦ļ
à¦® à¦Ľ
Ġà¦ķ à¦«
Ġà¦ķ à¦®à¦²
Ġà¦¤à¦ĸà¦¨ à¦ĵ
Ġ à§¨
Ġà¦¤ à¦¨
Ġà¦ıà¦ķ à¦¸
Ġà¦¹ à¦ĵà§Ł
à¦¯à¦¤ à¦®
à¦ª à§ľ
à¦® à¦®
Ġà¦¬ à¦Ļ
a t
Ġà¦ĩ à¦Ļ
Ġà¦¹à§Ł à¦¤
Ġà¦ķà¦² à¦®
à¦ī à§Ł
à§ĭà¥¤ âĢĿ
à¦¾ à¦ĥ
à¦ħ à¦ļ
a l
à¦¼ âĢĵ
ÂłÂł Âł
à¦¨ à¦®
à§ ¬
à¦¾ :
à¦Ĩ à¦¶
à¦¤ à¦Ĺ
Ġà¦ª à¦¨
à¦ī à¦¡
à¦Ń à¦ķ
à¦¼à¦¾ -
Ġà¦®à¦¨ à¦¸
Ġà¦« à¦¸à¦²
Ġà¦¸à¦¹ à¦¯
Ġà¦ªà¦° à¦¸
à¦ķ à¦ª
Ġà¦¬à¦¹ à¦¨
à¦ħ à¦¬
à¦Łà¦« à¦°
Ġà¦Ĩ à§Ł
à¦ķ à¦ĸà¦¨
à¦¯ à¦ľ
à¦ļ à¦¬
à¦Ĩà¦ľ à¦ķ
à¦ī à¦ľ
à¦¯ à¦ķà¦°
à¦Ĩ à¦¬
à¦¬à¦² à¦¨
Ġà¦« à¦Ł
Ġà¦° à¦ľà¦¤
âĢĻ à¥¤
à¦¯ à¦ĸà¦¨
à¦¬ à¦°à¦¤
Ġà¦ıà¦¤ à¦Ł
Ġt he
à¦¸ à¦¦
à¦¿? âĢĿ
à¦¨à¦¬ à¦ľ
Ġà¦¸ à¦¤à¦°
Ġà¦Ĩà¦¸ à¦¨
Ġà¦ıà¦¤ à¦ķ
ĠĠč Ċ
Ġà¦¸à¦® à¦Ĺ
Ġà¦¸à¦¹ à¦®à¦°
à¦ĸ à¦Ł
à§Ł à¦®
à¦¬à¦¨ à¦¯
Ġà¦ķ à¦¹
Ġà¦ħà¦¬ à¦§
Ġà¦ıà¦ĩ à¦¸à¦¬
à¦ı à¦¸
à¦¨ à¦ľà¦¨
Ġà¦° à¦ŀ
à¦ľà¦¨ à¦¶
Ġà¦Ĩ à¦¬à¦°
à¦ıà¦ķ à¦¦
Ġà¦ķ à¦Ł
à¦¸à¦® à§Ł
à¦² à§Ł
à¦Ĺ à¦Ń
à¦² à¦ĩ
à¦ĩ à¦ª
Ġ !
Ġà¦ı à¦¡
e r
à¦¤ à¦ľ
Ġà¦ļ à¦°à¦®
à¦® à¦ªà¦°
à¦ĸ à¦£
Ġà¦ıà¦¤ à¦¦
Ġà¦¬à¦¸ à¦¬
Ġà¦ħ à¦¬à¦²
à¦¸ à¦ķà¦²
à¦« à¦Ł
i s
à¦ Ĳ
à¦¯à¦¬ à¦¤
Ġà¦ĺ à¦¡
e n
Ġ '
Ġà¦ħ à¦¬à¦¨
Ġà¦ļ à¦®
à¦ı à¦®à¦¨
Ġ o
Ġà¦ķ à¦ķ
Ġà¦Ł à¦°
à¦Ń à¦¬à¦¤
à§ ¯
à¦ı à¦Ń
à¦°à¦¥à¦® à¦¬
i t
Ġà¦¢ à¦²
à¦¾ âĢĿ
à¦ļ à§ľ
à¦°à¦¤ à¦°
Ġà¦ı à¦°à¦ªà¦°
Ġà¦ľ à§ľ
Ġà¦®à¦¨ à¦Ł
à¦¬ à¦°à¦£
à¦¾ âĢ¦
à¦¾? âĢĻ
à¦¦ à¦¤
à¦Ļ à¦²
Ġà¦¬à¦ĩ à§Ł
à¦Ľ à¦Ł
à¦ħ à¦¬à¦¶
Ġà¦Ŀ à¦²à¦ķ
à¦£ à¦¦
à¦¨ à¦¹
à¦² à¦¦
à¦Ń à§Ł
Ġà¦ĵ à¦·
! âĢĻ
Ġà¦ķ à¦¡
à¦ĵ à¦ĩ
Ġà¦ĸ à¦£
à§ĩâĢĶ âĢľ
Ġà¦Ĩ à¦ªà¦¤
Ġà¦° à¦¤
Ġà¦Ĩà¦² à¦®
à¦¯ à¦Ĺ
Ġà¦¨ à¦ĩà¦²
Ġà¦® à¦Ļ
à¦¡ à¦¬
à¦¾à¦ģ à¥¤
Ġ s
Ġà¦Ĩà¦® à¦¨
Ġà¦Ĺ à¦łà¦¨
Ġà¦ľà¦¨ à¦¨
à¦¬ à§Ł
à¦ī à¦¸
à¦² à¦«
Ġ Ġ
à¦¶ à¦¹à¦°
Ġà¦ħ à¦®à¦¨
à¦Ĩ à¦¸
à¦Ŀ à¦¬
à§ ®
à§ĭ ?âĢĿ
Ġà¦ļ à¦°à¦£
à¦ľ à¦ª
à§ĩ âĢĻ
Ġà¦ľà¦¨ à¦¸
à¦¶ à¦¦
à¦ļ à¦°à¦£
Ġà¦ħà¦¬ à¦¹
à¦ª à¦Ĺ
Ġà¦Ń à¦°à¦¸
à¦Ĺ à¦łà¦¨
Ġà¦Ĩà¦® à¦²
Ġà¦ Ķ
à¦¹ à¦ķ
Ġà¦¬ à¦ŀ
à¦¾! âĢĿ
Ġà¦Ĩ à¦ĵà§Ł
Ġà¦Ń à¦Ĺà¦¬
Ġà¦ıà¦ķ à¦¥
à¦¬à¦¨ à¦ķ
à¦¸ à¦¸
à¦ħ à¦®
Ġà¦¸ à¦ĸ
Ġà¦° à¦«
à¦Ń à¦¨
Ġà¦¨ à¦ķà¦¶
Ġà¦² à§ľ
Ġ :
à¦« à¦°
Ġ ?
Ġà¦ªà¦¦ à¦ļ
à¦¸à¦¤ à¦¤
à¦¯ à¦ĵ
Ġà¦Ĩ à¦Ł
Ġà¦¸ à¦¹à¦¸
Ġà¦ļ à¦¶à¦®
à¦ª à¦¯
Ġà¦ĩ à¦Ł
à§Ł à¦Ĺ
Ġà¦ĩ à¦¶
Ġà¦Ĩà¦¨ à¦²
Ġà¦ıà¦ķà¦¦ à¦®
Ġà¦ļ à¦ŀ
Ġà¦Ŀ à¦°à¦¨
à¦¦ à¦¦
Ġà¦° à¦ľ
Ġà¦®à¦¨ à¦ķ
Ġà¦Ĩà¦° à¦ľ
à¦¯ à¦¹
à¦°à¦¸ à¦°
à¦¤ à¦°à¦£
à¦ª à¦¬
Ġà¦ĩ à¦ŀ
Ġà¦ħà¦¬ à¦¦
à¦¤à¦° à¦Ļ
Ġà¦ªà¦¥ à¦ļà¦²
Ġà¦Ĩà¦¤ à¦Ļ
Ġà¦¨ à¦¹
Ġà¦° à¦¹
à¦ĩ à¦ļ
à¦Ł à¦Ĺ
Ġà¦ĩ à¦īà¦¨
à¦¯ à§Ł
Ġà¦¤ à¦ªà¦¸
Ġà¦¶ à¦¸
Ġà¦Ĩ à¦ĸ
à¦ª à¦¶
à¦ı à¦¸à¦¬à¦ĩ
à§ĭ ;
à¦¦ à¦¹
Ġà¦ıà¦ķ à¦²
à¦¤ à¦Ľ
Ġà¦ª à¦¬
Ġà¦Ĺ à¦ľ
Ġà¦Ń à¦°à¦¤
Ġ ;
Ġà¦¬à¦Ł à¦Ĺ
à¦¡ à¦¨
à¦¸ à¦Ń
à¦¸à¦² à¦®
à¦§ à¦®
Ġà¦° à¦¤à¦¨
à§İ à¦ª
à¦ĺ à¦¶
Ġà¦¯à¦¤ à¦Ł
à¦°à¦ļ à¦£
ÂłÂłÂłÂłÂłÂłÂłÂł ÂłÂłÂłÂł
Ġà¦® à¦¡
à¦ı à¦¤
Ġà¦¨ à¦ĩ
à¦¼à¥¤ âĢĿ
Ġà¦īà¦¦ à¦¯
Ġà¦īà¦ª à¦¯
Ġà¦Ĭ à¦°
à¦¿ âĢ¦
Ġà¦ıà¦®à¦¨ à¦ĩ
à¦¦ à¦ª
Ġà¦¦ à¦ĸà¦²
à¦° à¦·
à¦· à¦¬
âĢ į
à¦ĺ à¦®
Ġà¦ľà¦Ĺ à§İ
Ġ a
à¦Ł à¦¸
à¦ħ à¦¦
Ġà¦¯ à¦®
à¥ ¥
à¦¸ à¦°à¦£
à¦® à¦ŀ
à¦ªà¦ķ à¦¥
Ġà¦ļà¦® à§İà¦ķ
à§Ģ âĢĶ
Ġà¦¤ à¦ªà¦¨
Ġà¦¨à¦¬ à¦ľ
Ġà¦ıà¦ķ à¦¶
Ġà¦ĩ à¦®
Ġà¦Ĩ à¦¨à¦¬
à¦ĩ à¦«
Ġà¦ħà¦ª à¦®
à¦ķ à¦ł
Ġà¦¬ à¦ªà¦¨
à¦ħ à¦¶
à¦¿? âĢĻ
à¦® à¦ĩ
à¦ĸ à¦¸
Ġà¦ĭ à¦¤
à¦² à¦¬à¦¨
Ġà¦¬ à¦¦
Ġà¦Ĩ à¦ĩ
Ġà¦° à¦¥
Ġà¦ıà¦ĩ à¦Ń
à¦Ŀ à¦ķ
Ġà¦ĭ à¦£
Ġ c
à¦Ľ à¦ª
Ġà¦¶ à¦¤à¦ķ
Ġà¦īà¦ª à¦¹
à¦°à¦¥à¦® à¦¤
à¦ķ à¦¶à¦¨
Ġà¦Ŀ à¦ķ
Ġà¦ħ à¦¯
Ġà¦° à¦¹à¦®
à§ĩ, âĢĿ
Ġà¦¦ à¦¯
Ġà¦ıà¦ķ à¦ķ
Ġà¦ıà¦ķ à¦ª
Ġà¦® à¦°à¦£
Ġà¦Ĩà¦¬ à¦¹
à¦ľ à¦¦
Ġà¦ħ à¦ļà¦²
Ġà¦Ĩà¦ľ à¦ĩ
Ġà¦īà¦ª à¦ķ
Ġo f
Ġà¦ľà¦² à¦¬
à¦ĩ à¦¦
Ġà¦¸à¦® à¦¤
à§İ à¦ĩ
à¦¬ à¦Ĺ
Ġà¦ıà¦ķ à¦¸à¦®à¦¯
Ġà¦ıà¦ĸà¦¨ à¦ĩ
Ġà¦ıà¦ĩ à¦°à¦ķà¦®
âĢĻ ,
o r
à¦¾? âĢĿ
Ġà¦¦ à¦¤
Ġà¦ĩ à¦¹
à¦¸ à¦°à¦ķ
à¦¡ à¦°
Ġà¦ī à¦Ńà¦¯
à¦°à¦£ à¦¯
e s
à¦Ľ à¦Ĺ
Ġà¦Ń à¦Ĺ
Ġà¦ĺà¦° à¦Ł
Ġà¦ķà¦² à¦°à¦¬
à¦Ĺ à¦¦
Ġ m
à§į à¥¤
à¦°à¦¤ à¦¬à¦°
Ġà¦¬à§Ł à¦¸
Ġ w
à§ģ âĢĶ
Ġà¦² à¦¯
Ġà¦ħà¦¬ à¦ķ
à¦¬ à¦¤à¦¨
Ġà¦¨ à¦°
à¦¯ à¦¶
à¦Ĺ à¦¸
à§İ à¦ªà¦°
a r
à¦¯ à¦°à¦ķà¦®
Ġà¦Ĩà¦° à¦£
à§ģ !
à¦¿ !âĢĿ
Ġà¦ľà¦¨ à¦®
à¦ħ à¦Ń
Ġà¦° à¦®
Ġà¦¸ à¦«à¦²
Ġà¦ı à¦®
Ġà¦Ĩà¦¬ à¦Ľ
Ġà¦ľà¦² à¦°
Ġà¦° à¦¶
à¦ī à¦ĩ
à¦Ł à¦ĸ
Ġ b
à¦¿ :
Ġà¦¸ à¦°à¦¸
Ġà¦Ĳ à¦¶
à§İ à¦¸à¦¬
à¦¬ à¦ªà¦¨
à¦ĵ à¦¡
à¦ĩ à¦ľà¦¨
à¦ľ à¦Ĺà¦¤
à¦Ĺ à¦Ł
Ġà¦² à¦²
à¦Ĩ à¦¤
à¦ ĭ
Ġà¦Ĩ à¦«
Ġà¦ĵ à¦¡
Ġà¦īà¦² à¦Ł
à¦ı à¦Ĺ
Ġà¦¬ à¦¶
Ġà¦° à¦£
à¦ī à¦¤
Ġà¦ıà¦ĩ à¦Ł
Ġà¦Ĩà¦² à¦¤
Ġà¦¸à¦® à¦¬
à¦® à¦Ń
à¦· à¦ª
Ġà¦¶ à¦¯
Ġà¦Ĩà¦° à¦¬
Ġà¦ļà¦ķ à¦ļà¦ķ
à¦ĩ à¦¶
Ġà¦ĩ à¦¸à¦²
à¦¶ à¦ĩ
à¦· à¦¸
à§ģ à¦Ĥ
Ġà¦¤ à¦¤à¦ķ
à¦« à¦²à¦¨
à¦¿ .
Ġà¦Ĺ à¦¦
à¦ħ à¦²
à¦Ĩ à¦¨à¦¨
Ġà¦¦ à¦¡
à¦¹ à§İ
Ġà¦Ŀ à§ľ
à¦° à¦ļà¦²
à§ģ ?
à¦Ĩ à¦ļ
Ġà¦¯ à¦¯
Ġà¦ĵ à¦Ĺ
Ġ p
Ġà¦Ľ à¦¯
Ġà¦¦à¦¶ à¦Ł
Ġà¦¹à§Ł à¦¨
à¦Ĺ à¦Ĺ
à¦¹ à¦¬
Ġà¦¬à¦ī à¦¦
à¦¿ âĢĿ
Ġà¦ķ à¦¦
à¦ļ à¦®
an d
à¦Ļ à¦¤
in g
Ġà¦Ľ à¦²
à¦¾, âĢĿ
à¦ī à¦ł
à¦Ĩ à¦§
Ġà¦¬à¦° à¦«
e d
Ġà¦ª à¦°à¦¤
à¦ħ à¦ª
à¦¯à¦® à§Ł
à¦°à¦¤ à¦®
Ġà¦ķ à¦ĩ
Ġà¦ªà¦° à¦¦
Ġà¦Ĩà¦¶ à¦Ļ
Ġà¦Ŀà¦ķ à¦Ŀà¦ķ
à¥¤ à¥¤
à¦ĵ à¦¨
à¦Ĩ à¦¨
à§Ł à¦ķ
à§Ł à¦¬
à¦ħ à¦Ĺ
Ġà¦īà¦ª à¦Ń
Ġà¦® à¦Ĺ
à¦ħ à¦ľ
à¦ĵ à¦²
Ġà¦ªà¦° à¦¨
à¦® à¦²à¦¤
à¦Ĺ à¦ķ
à¦· à¦ĩ
Ġà¦Ĩà¦Ĺ à¦®à¦¨
Ġ f
à¦Ł à¦¦
o u
Ġà¦ıà¦ķ à¦ĸ
à¦® à¦Ŀ
Ġà¦¹ à¦ĵ
à¦¶ à¦¸
Ġà¦ªà§ľ à¦Ľ
à¦ªà¦ķ à¦¥à¦¨
Ġà¦¤ à¦ķ
Ġà¦ı à¦°à¦ĩ
à¦¼à§ĩ -
Ġà¦ħ à¦²à¦ķ
Ġà¦§ à¦°à¦¬
Ġà¦ľà¦¨ à¦¤
ÂłÂłÂłÂłÂłÂłÂłÂł ÂłÂłÂłÂłÂłÂłÂłÂł
.. .
à¦ª à¦ĩ
Ġà¦Ń à¦¬à¦¨
i on
à¦ľà¦¨ à¦¤
à¦ĺ à¦Łà¦¨
Ġà¦¤ à§İà¦ķ
Ġà¦Ĺ à¦Ĺà¦¨
Ġà¦¸à¦¬ à¦¸à¦®à¦¯
à¦¤ à¦¶
à¦ķ à¦ĵ
à¦°à¦¸ à¦¨
à¦· à¦¨
Ġà¦¶ à¦¨
Ġà¦ıà¦ķ à¦°
à¦¯à¦¬ à¦¦
à§ ·
à¦ª à¦ľ
Ġà¦īà¦ª à¦¦
i c
à¦® à¦ĵ
à¦ľ à¦ĩ
Ġà¦¥ à¦®
âĢĶ âĢĺ
à¦ħ à¦ķ
Ġà¦¤ à¦ª
à¦¶ à¦¹
Ġà¦¹à¦¤ à¦Ń
à¦ıà¦ķ à¦ľà¦¨
Ġà¦¹ à¦ķ
Ġà¦§ à¦°à¦£
Ġà¦ªà§ľ à¦¤
Ġà¦¶ à¦«
à¦Ń à¦°à¦¤
à¦®à¦¨ à¦¸
Ġ à§©
Ġà¦ķ à¦¬à¦°
Ġà¦¬ à¦§
à§Ī à¦ĥ
à¦ķà¦¸ à¦ĩ
Ġ "
Ġà¦ħ à¦·
à¦¨ à¦ľ
à¦ĩ à¦ĸ
Ġà¦ħ à¦¬à¦°
à¦£ à¦Ĺ
Ġà¦°à¦ĵ à¦¨
a s
Ġ d
Ġà¦Ĩ à§Łà¦¨
Ġà¦Ĺà¦£ à¦¤à¦¨
à¦ķ à¦¹
à¦¼ à§į
Ġà¦® à¦®
Ġà¦ī à¦ķ
à¦¬ à¦Ľà¦°
Ġà¦¬ à¦°à¦£
Ġà¦¸ à¦¸
Ġà¦¸ à¦«
à¦¼à¦¿ à¦Ĥ
à¦ķ à¦«
à¦¿à¦Ĥ -
à¦Łà¦« à¦Ł
à¦¦ à¦Ľ
à¦ĸ à¦ĸ
Ġà¦ĵ à¦¸à¦¬
Ġà¦§ à¦®à¦ķ
à¦¸ à¦ĩ
à¦Ĩ à¦ª
à¦ĺ à¦¦
à¦¿à¦Ĥ ,
Ġà¦ĩ à¦ī
Ġà¦Ŀ à¦Ĺà¦¡
Ġà¦Ľ à¦Ł
Ġà¦Ŀ à¦²à¦¸
Ġà¦ħà¦¬ à¦¤
) ,
Ġà¦Ĩ à¦ł
Ġà¦¹ à¦ĩà¦²
Ġà¦² à§Ł
Ġà¦ıà¦ĩ à¦ĸ
à¦°à¦¬ à¦£à¦¤
Ġà¦Ĩà¦ļ à¦®à¦ķ
à¦¨ à¦Ĺà¦°
à¦ķ à¦·
à¦¸ à¦ĵ
Ġà¦¯ à¦¬
Ġ Âł
à¦² à¦°
Ġà¦¨ à¦Ł
Ġà¦® à§İà¦¸
à¦ħ à¦¨à¦¨
Ġà¦¤ à¦¦
Ġà¦Ĩà¦¬ à¦¶
Ġà¦ĺà¦Ł à¦²
Ġà¦¤à¦¤ à¦ĩ
à§ĭ âĢĵ
à¦¼à¦¾ âĢĶ
à¦ī à¦ļ
à¦Ń à¦¸
à¦ļ à¦Ľ
Ġ h
âĢį à§į
Ġà¦® à¦¦à¦¨
à¦£ à¦®
Ġà¦Ľ à¦Łà¦«à¦Ł
Ġà¦ħà¦¨ à¦¬à¦¦
à§İ à¦¸à¦°
Ġà¦¦ à¦Ĺ
à¦£ à¦¬à¦¨
Ġà¦ħà¦Ĺ à¦£
Ġà§§à§¯ à§Ń
Ġà¦ĭ à¦Ĺ
à¦¤ à¦ļ
à¦ľ à¦Ļ
Ġà¦ªà¦° à¦ĩ
à§ľ à¦¤
Ġà¦¬à¦ĩ à¦Ł
) à¥¤
Ġà¦ĸ à¦¡
Ġà¦¯à¦¤ à¦¦
à¦¬ à§ľ
à¦ħ à¦ªà¦°
Ġà¦Ĩà¦¬ à¦°à¦£
l e
à¦® à¦¸à¦®
Ġà¦ķ à¦¦à¦®
à¦¦ à¦£
à¦Ĺ à¦ĩ
Ġà¦ħà¦¨ à¦¬à¦°à¦¤
Ġà¦¥à¦® à¦¥à¦®
à¦¦ à¦ĩ
Ġà¦¦ à¦¶à¦ķ
Ġà¦¹ à¦Ł
Ġà¦° à¦¨
à¦ī à¦®
à¦¸à¦® à¦¸
à§ĩ âĢĿ
à¦² à¦ĵ
Ġà¦ħà¦§ à¦°
Ġà¦ħà¦¬à¦² à¦®
Ġà¦ķ à¦Ń
à¦· à¦Ń
Ġà¦² à¦¹à¦°
à¦ĺ à¦£
Ġà¦ķà¦² à¦Ļ
Ġà¦ıà¦¤ à¦ĩ
à¦¸ à¦¡
Ġà¦« à¦ķ
à¦¬ à¦¸à¦¨
Ġà¦¸ à¦¦à¦¸
à¦¡ à¦ķ
à¦¤ à¦ĵ
Ġà¦¨ à§ľ
Ġà¦² à¦¨
à¦Ĩ à¦¯
à¦Ĩ à¦ĩ
Ġà¦Ĩà¦ķ à¦¸
Ġà¦¨ à¦²
à¦ļ à¦¸
Ġà¦ĸ à¦°
à¦¾ à¦ĥà¥¤
à¦¯ à¦Ļ
à¦¬ à¦ĵ
Ġà¦Ĩ à¦Łà¦Ł
à§Ģ âĢĵ
Ġà¦Ĺ à¦¤à¦ķ
Ġà¦ı à¦¯
Ġà¦¤à¦° à¦«
à§Ģ à¦Ĥ
Ġà¦ķà¦¤ à¦¦
à¦² à¦ĸ
à¦Ŀ à¦¡
à¦· à¦ªà¦°
Ġà¦ıà¦ķ à¦Ĺ
Ġà¦ıà¦ķ à¦¦à¦²
Ġà¦ĵ à§Ł
à§Ģ âĢĻ
à¦ľ à¦§
à¦Ļ à¦¨
Ġà¦®à¦¸ à¦ľ
à¦ļ à¦¶
à¦ĵ à¦¦
à¦¬à¦¨ à¦Ł
Ġà¦¶ à¦¶
à¦ı à¦²
à¦¹à¦°à¦£ à¦¸
Ġà¦ı à¦Ľ
Ġà¦ļ à§ľ
à¦ĵ à¦Ĺ
Ġà¦Ĩà¦Ľ à¦¡
Ġà¦ªà¦¥ à¦ļ
à¦°à¦¥ à¦°
v e
à¦¶ à¦Ŀ
Ġà¦Ĩà¦° à¦¤
à¦ī à¦¬
o m
à¦· à¦Ĺ
à¦ł à¦¤
Ġà¦ĩ à¦ľ
Ġà§¨ à§¦
Ġà¦¦ à¦«
à¦£ à¦°
Ġà¦² à¦Ļ
à¦Ĩ à¦¹
Ġà¦ıà¦®à¦¨ à¦Ń
Ġà¦Ŀà¦° à¦Ŀà¦°
Ġà¦ªà¦Ł à¦Ń
Ġà¦ķ à¦²à¦¤
à¦¿, âĢĿ
âĢĻ -
Ġà¦ħà¦¥ à¦°
Ġà¦Ĩà¦¹ à¦¤
Ġà¦¤ à¦°à¦²
à¦§ à¦Ł
Ġà¦Ĺ à¦¹à¦¨
à¦ķà¦² à¦®
Ġà¦ķà¦¤ à¦ķ
Ġà¦¶à¦° à§İ
Ġ à¤
à¦ĸ à¦¬à¦°
Ġà¦¥ à¦°à¦¥à¦°
Ġà¦¸ à¦²
à¦ľ à¦ĵ
à¦ĸ à¦¯
à¦ĸ à¦Ĺ
à¦¡ à¦¬à¦¦
à¦¬à¦° à¦²
Ġà¦§à¦° à¦Ľ
Ġà¦ı à¦ª
âĢĻ âĢĶ
à¦²à¦Ľ à¦²
c t
à§ĭ !âĢĿ
Ġà¦ł à¦ķ
Ġ l
à¦Ĺ à¦ł
Ġà¦ªà¦° à¦ķ
Ġà¦¯à¦¤ à¦ķ
Ġt h
Ġ in
à¦ı à¦¦
à¦ħ à¦§
à¦¯ à¦ŀ
Ġà¦¬ à¦£
à§ľ à¦¨
à¦Ł à¦ĵà¦¯
Ġà¦ħ à¦£
à¦°à¦¬ à¦£
à§ĭ à¦Ĥ
à§Ł à¦²
Ġà¦Ľ à¦¤
à¦ł à¦¶
Ġà¦ĸ à¦¨
à¦ı à¦ķà¦¬
Ġà¦ħà¦¬ à¦¸à¦°
à¦ Ī
Ġà¦ª à¦Ļ
à§Ł à¦¸
à¦¼à¦¿ -
à¦ķ à¦¬à¦°
à¦ĵ à¦¤
à§ĩ- -
Ġ n
Ġ and
à¦ķ à¦ĸ
Ġà¦¦ à¦£
à¦¤à¦° à¦Ł
à¦° à¦ŀ
à§ĭ âĢ¦
à¦ª à¦ķà¦²
Ġà¦¦ à¦®à¦¨
à¦¤à¦ĸà¦¨ à¦ĩ
à¦ķ à¦ľ
Ġà¦ķ à¦Ļ
à¦¼à§ĩ âĢĶ
à¦£ à¦Ń
Ġà¦Ľ à¦¦
à¦Ŀ à¦¨
Ġà¦¸à¦¹ à¦ķà¦°
à§Ģ ;
Ġà¦¹ à¦ĩà¦¤
Ġà¦ªà¦° à¦ĵ
Ġà¦§ à¦¡
à¦° à¦¸à¦¬
à¦¡ à¦Ĺ
à§ľ à¦ķ
à¦ĺ à¦ķ
Ġà¦ħà¦¬ à¦ļ
à¦Ĺ à¦®à¦¨
Ġà¦ī à¦Ĺ
Ġà¦ĵ à¦¸
Ġà¦¹à¦¤à¦Ń à¦®
à¦¨ à¦®à¦¯
à¦¦ à¦ĵ
à¦°à¦® à¦¹
Ġà¦Ī à¦¦
à¦¤ à¦²à¦¤
Ġà¦ª à¦¹
à¦ĸ à¦ļ
Ġà¦§ à¦¨à¦¤
à¦°à¦£ à¦¤
à¦ī à§İà¦¸à¦¬
à¦Ĩ à¦¦
à§Ł à¦¬à¦¦
à¦¤à¦° à¦ķ
Ġà¦ĺà¦Ł à¦¬
à¦¬ à§İ
à¦¹ à¦¦
Ġà¦ī à¦§
Ġà¦Ĩà¦¨ à¦Ľ
à¦·à¦° à¦Ĺ
à¦ķ à¦®à¦¤
à¦ī à¦ªà¦¸
Ġà¦¨ à¦Ĺ
Ġà¦¨ à¦®à¦¸
Ġà¦¦ à¦ĩ
à¦¶ à¦Ĺà¦¤
à¦§ à¦²
à¦£ à¦ª
Ġà¦° à¦ľà¦¨
à¦°à¦£ à¦¨
Ġà¦Ĩà¦¸ à¦°
Ġà¦ļà¦² à¦®
Ġà¦¬à¦ĩ à¦Ľ
Ġà¦ħà¦² à¦¸
Ġà¦ªà¦¥ à¦ª
à¦Ł à¦Ń
à¦¬à¦² à¦®
à¦¦à¦° à¦ľ
à¦·à¦ķ à¦¦
Ġ I
à§ľ à¦Ľ
Ġà¦ĩà¦¨ à¦¸
à¦¬ à¦ļà¦¨
Ġà¦ķ à§ľ
Ġà¦¸à¦« à¦²à¦¤
Ġà§§à§¯à§Ń à§§
à¦¼ :
Ġà¦® à¦¥
à¦¾âĢĶ âĢľ
à§« à§¨
à¦¯ à¦°à¦¸
Ġà¦¹ à¦ĩà¦¯
Ġà¦ľà¦² à¦ª
Ġà¦¤à¦°à¦« à¦¦
à¦® à¦ļà¦¨
à§Ł à¦°
à¦« à¦¸
Ġà¦ľà¦² à¦§
à¦°à¦¶ à¦¸
à§ĭ :
Ġà¦Ľ à¦²à¦Ľà¦²
à¦¨à¦¤ à¦®
Ġà¦ľà¦² à¦ľ
Ġà¦¨ à¦¥
à¦ª à¦ª
à¦ķà¦Ł à¦ķ
Ġà¦¸ à¦¡
Ġà¦® à¦ľà¦¬
Ġà¦¶ à¦®
Ġà¦ıà¦ķ à¦°à¦ķà¦®
Ġà¦¸à¦¬ à¦Ł
à¦ħà¦¤ à¦ıà¦¬
à¦¨ à¦¸à¦®
Ġà¦¦ à¦¸
à§Ł à¦¦
à¦¥ à¦ª
Ġà¦¸à¦° à¦²à¦¤
à¦¨à¦ĵ à¦¦
à¦Ĺ à¦ª
à¦¡ à¦Ł
âĢĿ âĢĶ
Ġà¦¯à¦ĸà¦¨ à¦ĩ
Ġà¦ªà§ľ à¦¬
Ġà¦ħà¦² à¦Ļ
à¦ķ à¦¯
Ġà¦Ĺ à¦¯
à¦Ĥ ,
Ġà¦®à¦¹ à¦°
, âĢĻ
s t
Ġà¦ĵ à¦ľà¦¨
à¦ªà¦Ł à¦ª
ĠĠčĊ Ġč
à¦¸ à¦ĸ
à¦¬à¦¨ à¦§
à¦Ĩ à¦Ļ
à¦§à¦¨ à¦ķ
Ġà¦¬à¦ĩ à¦¤
Ġà¦¤à¦¤ à¦Ł
o l
à¦¨ à¦ĸ
Ġà¦¦ à¦¹à¦¨
-- -
à¦¬ à¦Ļ
à¦¸ à¦Ĺ
à¦Ĺ à¦ŀ
à¦ł à¦°
Ġà¦īà§İ à¦¸à¦°
* *
Ġà¦¸ à¦¦à¦°
à¦¸ à¦¹à¦¸
Ġà¦¨ à¦ĸ
à¦Ľ à¦ķ
à§Ĥ à¦ģ
Ġà¦ľà¦¨ à¦Ĺ
Ġà¦ĭ à¦¦
o t
r a
à¦¬ à¦¬à¦°
à¦¸ à¦¯
Ġà¦ı à¦ľ
Ġà¦Ł à¦²à¦®à¦²
Ġà¦ľà¦¨ à¦Ĺà¦£
à§ĭà¥¤ âĢĻ
à¦¼à§ĩ ?
Ġà¦² à¦¬à¦£
à¦ıà¦ķ à¦ĩ
à§° à¦¤
à¦² à¦Ļ
à¦¯ à¦¬à¦°
à¦¡ à¦ª
Ġà¦ªà¦° à¦ªà¦°
à¦ľà¦¨ à¦ĩ
Ġà¦īà¦ª à¦ľ
Ġà¦Ī à¦°
Ġà¦Ĩ à¦ŀ
Ġà¦¨ à¦ķà¦²
à¦ĩ à¦ĩ
à¦ľ à¦ķà¦°
à¦¼à¥¤ âĢĻ
Ġà¦®à¦¹ à§İ
Ġà¦¬ à¦Łà¦¬
à¦Ĩ à¦¸à¦²
à¦ĺ à¦Ł
Ġt o
al l
à¦¯ à¦²
à§ĭ ?âĢĻ
à¦Ł à¦ĩ
Ġà¦¤ à¦«
Ġà¦Ľ à¦²à¦¨
à¦ĺ à¦¡
à¦ħ à¦®à¦²
Ġà¦Ĩà¦¶ à¦ª
à¦¿à¦Ĥ à¥¤
Ġ à§§
à¦ĩ à¦¸à¦¬
à¦¶ à¦ĵ
Ġà¦ķà¦° à¦£
à¦°à¦¤ à¦²
à¦°à¦ķ à¦Ł
Ġà¦ĺà¦Ł à¦¤
Ġ A
Ġ à§«
à¦¦ à¦®à¦¯
à¦Ĺ à¦¯
à¦¹ à§Łà¦¤
Ġà¦¬à¦¹ à¦®
à¦Ĳ à¦¤
à¦¤ à¦§
à¦ļ à§Łà¦¤
à¦¹ à§Ł
à¦£ à¦¯
Ġà¦ıà¦ķ à¦ľ
à§§à§ ¯
à¦ľà¦Ĺ à§İ
Ġb e
Ġà¦¶ à¦ĸ
Ġà¦ªà¦° à¦²
à§ľ à¦²
à¦¬à¦² à¦²
Ġà¦īà¦ª à¦ķà¦°à¦£
Ġà¦ķà¦² à¦ķà¦²
Ġà¦Ńà¦° à¦ª
Ġà¦· à¦¡
Ġà¦¬ à§İà¦¸à¦°
à¦ľ à¦¡
à¦ļ à¦ľà¦¨
Ġà¦¥ à¦²
Ġà¦ľà¦¨ à¦ª
Ġà¦¨ à¦°à¦ķ
Ġà¦¤ à¦¦à¦¨
Ġà¦¡ à¦Ĺ
Ġà¦¨à§Ł à¦¨
ĠĠ ĠĠ
Ġ P
à¦¬ à¦¹à¦¨
Ġà¦ª à¦¤à¦¨
à¦· à¦ĵ
en t
u t
Ġà¦¨ à¦¬à¦¦
à¦« à¦¨
à¦Ĩ à¦¡
Ġà¦¬à¦¨ à¦Ń
Ġ e
Ġà¦¸ à¦¯à¦¤
à¦Ľ à¦¡
à¦· à¦Ļ
Ġà¦ªà¦¥ à¦Ł
Ġà¦¸à¦¹ à¦ª
Ġ à§ª
à¦¨ à¦¶à¦¨
à¦§ à¦¦
Ġà¦¯ à¦¶
à¦¹ à¦Ł
à¦£ à¦Ĺà¦¤
Ġà¦ĵ à¦¹
à¦ī à¦ª
à¦°à¦² à¦¯
Ġà¦ķà¦¤ à¦Ĺ
i l
à¦Ĺ à§ľ
à¦§ à¦¸
Ġà¦Ł à¦²
Ġà¦ĩ à¦¦
Ġà§§à§ ©
à¦® à¦ķà¦°
à¦Ł à¦¹
à¦· à¦ľ
à§ĩà¥¤ à¥¤
à¦² à¦®à¦¨
à¦® à¦®à¦¤
Ġà¦ķ à¦¨à¦¸
Ġà¦ĵ à¦Ń
à¦Ĩ à¦Ľ
à¦¬à¦² à¦ĩ
Ġà¦ħà¦ªà¦° à¦ķ
à¦¨ à¦¬à¦°
à¦ĸ à¦®
Ġà¦¥ à¦°
à¦®à¦¨ à¦Ł
Ġà¦¡ à¦²
Ġà¦®à¦¤ à¦ĩ
à§ĭ, âĢĿ
à¦¾! âĢĻ
à¦ķ à¦®à¦²
à¦¯ à¦ļ
à§ĭ âĢĻ
à¦ª à¦Ļ
à¦ª à¦ŀ
Ġà¦¤ à¦®
à¦¶ à¦Ļ
à¦· à¦ķà¦°
Ġà¦² à¦£
Ġà¦ĺ à§ľ
à¦Ĺà¦ľ à¦ªà¦¤
Ġà¦¤à¦¤ à¦¦
Ġ B
à¦¶ à¦ªà¦¥
à¦§ à¦¶
à¦¡ à¦®
Ġà¦ıà¦ķ à¦¯
Ġà¦®à¦¤ à¦¬
Ġà¦¸à¦¹ à¦ķ
à¦¥ à¦¹
à¦¤ à¦¯
à¦¤ à¦¥
à¦¼ âĢ¦
à¦¼ à§ģ,
à¦® à¦¹à¦¤
Ġà¦¹ à¦ĩà¦¬
Ġà¦Ń à¦Ł
à¦ħ à¦«
à¦ľ à¦ªà¦¥
à¦£ à¦¸
Ġà¦« à¦¡
à§° à¦¹
Ġ M
Ġà¦ī à¦ĩà¦²
Ġà¦¡ à¦ķ
Ġà¦Ŀ à¦Ł
à¦ĭ à¦·
à¦® à§ľ
Ġà¦ª à¦ļ
Ġà¦® à¦¶à¦²
à¦¶ à§Ł
à¦ł à¦ķà¦ķ
Ġà¦Ĩà¦² à¦Ĺ
à§į -
Ġà¦¸ à¦«à¦°
à¦¶ à¦Ń
à¦ªà¦° à¦®
Ġà¦īà¦ª à¦®
à¦Ĺà¦ľ à¦Ł
i g
Ġ /
à¦¥ à¦¸
ĠâĢ ¦
Ġà¦ĺ à¦·
Ġà¦ħà¦ª à¦¬
Ġ S
à¦ Ĭ
à¦¨ à§Ł
à¦£ à¦ļ
Ġà¦ľ à¦²à¦ķ
Ġà¦ĩ à¦īà¦°
à¦¦à¦¨ à¦¶
Ġà¦ľà¦² à¦¦
Ġà¦ĺà¦Ł à¦Ľ
Ġà¦Ĺà¦£ à¦®
à¦ª à¦ĵ
à¦¥ à¦ķà¦¤
Ġà¦Ŀ à¦°à¦Ľ
Ġà§§à§¯ à§«à§¨
à¦°à¦¬ à¦§
Ġà¦ķà¦ĸà¦¨ à¦ĩ
à¦¨ à¦¤à¦°
Ġà¦¨ à¦¬à¦ķ
à¦¡ à¦¸
à¦¹ à¦¨à¦¬
Ġà¦ļ à¦£
Ġà¦ħà¦¸ à¦Ń
Ġà¦ªà¦¦ à¦§
e l
à¦ĩ à¦Ĺ
à¦Ĺ à¦ĵ
à¦§ à¦ķà¦¤
à¦¬à¦¨ à¦¬
à¦Ĩ à¦ĩà¦¨
Ġà¦¬à¦° à¦ŀ
à§ĩâĢ¦ âĢĿ
Ġà¦Ķ à¦ªà¦¨
e t
Ġ is
à¦° à¦ĸà¦°
à¦¨ à¦¡
à¦¤ à¦ªà¦ķ
à¦¼ à§Ģà¥¤
à¦® à¦ĸ
Ġà¦¹ à¦¤à¦¬
à§§à§ ¦
u n
à§ĩ à¦¾à¦ģ
à¦¸ à¦ªà¦¤
à¦ĩ à¦¹
Ġà¦ı à¦ĵ
à¦£ à¦Ł
Ġà¦®à¦¨ à¦¨à¦¶
à¦ī à¦¶à¦¨
à¦ħ à¦°à¦£
Ġà¦ĸà¦¬à¦° à¦Ł
à§Ŀ à¦¤
à¦¼ à§Ģ,
Ġà¦¬ à¦®
à§Ģ ?âĢĻ
Ġà¦ĸ à¦Ł
Ġà¦¸à¦® à¦·
ÂłÂłÂłÂłÂłÂłÂłÂł Âł
Ġà¦ħà¦Ń à¦¯
Ġà¦Ĩà¦« à¦¸
à¦® à¦«
Ġà¦¦ à§Ł
à¦¼à¦¾ !
à¦¬à¦¨ à¦®
Ġà¦ĩ à¦°
Ġà¦ıà¦ĸà¦¨ à¦ķ
Ġà¦ķà¦² à¦¸
Ġà§§à§ ¦
Ġ .
Ġ re
à§ĩ )
à¦ķ à¦°à¦¬
à¦Ł à¦¬à¦²
Ġà¦¦ à¦°à¦¬
Ġà¦ļ à¦ĵà¦¡
à¦Ń à¦°à¦¶
à¦·à¦£ à¦¸
à¦¯à¦¬ à¦§
à¦Ĺà¦² à¦Ł
Ġà¦®à¦¹ à¦¤
à§ĩâĢĶ âĢĺ
Ġà¦Ĩ à¦ĩà¦¡
Ġà¦² à¦ĺ
Ġà¦ıà¦ĩ à¦¬
à¦« à¦¡
a y
Ġà¦ķ à¦¤à¦¬
Ġà¦® à¦°à¦¤
à¦ĩ à¦°à¦ķà¦®
Ġà¦ħ à¦ĸà¦£
à¦§ à¦ĩ
Ġà¦ļ à¦¬
à¦Ĥ à¥¤
Ġà¦Ĩà¦° à¦ķ
à¦ľà¦¨ à¦¨
Ġà¦¹à¦² à¦¦
Ġà¦¨ à¦ĵ
à¦¼à§ĩ ;
Ġà¦ħ à§Łà¦¨
Ġà¦Ĺ à¦£à¦¤
à¦ĵ à¦Ł
à¦Ļ à¦°
à¦Ļ à¦¬
à¦°à¦ªà¦° à¦ĵ
Ġà¦Ĳ à¦¨
Ġà¦īà§İ à¦ķà¦£
à¦®à¦£ à¦¦
Ġà¦¶à¦°à§İ à¦ļà¦¨
Ġ T
à§ģ âĢĵ
à¦· à§İ
à¦¹ à¦ĩ
Ġà¦Ĺ à¦ł
à¦¤à¦° à¦ĩ
Ġà¦®à¦¹ à¦²
ÂłÂłÂłÂł Âł
ĠÂł ĠÂł
à¦¿ '
Ġà¦Ĩ à¦·
à¦ĸ à¦®à¦¯
Ġà¦² à¦¬
Ġà¦² à¦Ĺ
à¦°à¦® à¦°
Ġà¦¤à¦ĸà¦¨ à¦ķ
à§į ,
à¦§ à¦Ń
Ġà¦ªà¦° à¦¬
Ġà¦ħà¦¬ à¦ľ
Ġà¦¶à¦¹à¦° à¦Ł
à¦° à¦¡
à¦² à¦¡
à¦¯ à¦ľà¦¨
à¦ı à¦ķà¦¤
ÂłÂłÂłÂł ÂłÂłÂł
à¦¸à¦ķ à¦·
_ _
à¦¾ âĢ¦âĢĿ
à¦° à¦ļà¦¨
à¦¯ à¦®à¦¨à¦¸
Ġà¦¨ à¦¸
Ġà¦¦ à¦®à¦ķ
Ġà¦¤ à¦°à¦ķ
Ġà¦ħ à¦Ŀ
à¦Ń à¦Ł
à¦°à¦¤ à¦¨
Ġà¦¸à¦® à¦ķ
Ġà¦Ĩà¦Ĺ à¦²
à§ĩ! âĢĻ
à¦®à¦¬ à¦Ļ
à¦ļà§Ł à¦ĩ
u r
Ġ à§Ń
Ġà¦ħ à¦¡
à¦£ à¦ªà¦£
Ġà¦ī à¦Ńà§Ł
à¦ī à¦Ĺ
à¦¨à¦¬ à¦¦
ÂłÂłÂłÂł ÂłÂł
Ġà¦ıà¦ķà¦ľà¦¨ à¦ķ
Ġà¦¸à¦ķà¦² à¦ķ
Ġà¦ķà¦¨ à¦«
à§¦ à§¦
à§į !
Ġà¦¦ à¦°à¦¦
Ġà¦¹ à¦¦
à¦Ĺ à¦¬à¦¤
à¦Ń à¦¦
à§ľ à¦¬
à¦ªà¦° à¦ķ
à¦ªà¦° à¦¬à¦°
Ġà¦ľà¦¨ à¦ªà¦¦
à¦¬à¦² à¦¬
à¦ĥ ,
Ġà¦ľà¦² à¦¸
Ġà¦ĩà¦¤ à¦¸
Ġ g
Ġà¦ħ à¦°à¦¬
à¦ķà¦° à¦¶
à¦Ĩà¦ľ à¦ĵ
à¦¾âĢĻ à¥¤
à¦¨ à¦®à¦¨
à¦¼ ?âĢĿ
à¦¸ à¦ļ
à¦¸ à§İ
à¦Ł à¦ĵà§Ł
Ġà¦¸à¦¬ à¦ľ
Ġà¦īà¦ª à¦¤
Ġà¦¬à¦ī à¦®
à¦° à¦ĺ
à¦¬ à¦°à¦ķ
à¦¼ à§ĭ,
à¦® à¦ļà¦°
Ġà¦¸ à¦ĩ
à¦ª à¦Ŀ
à¦ª à¦¤à¦¨
à¦Ĺ à¦Ļ
à¦·à¦£ à¦ķ
à¦°à¦¹ à¦¸
à¦²à¦¨ à¦®
Ġà¦Ĩà¦¹ à¦¬
c e
æ Ń
à¦° à¦Ŀ
à¦² à¦¶
à¦¼à§ĩ !
Ġà¦Ĺ à¦ŀ
à¦Ŀ à¦ªà¦¥
à¦ī à¦ªà¦°
âĢĵ âĢĵ
Ġà¦Ŀà¦¨ à¦Ŀà¦¨
Ġà¦ħà¦¬à¦¨ à¦¤
æŃ ĵ
i m
Ġà¦ķ à¦¸
Ġà¦¸ à¦¯
à¦ª à¦¶à¦¨
à¦¼à¦¾ ?
à¦ªà¦° à¦¦
à¦ħ à¦¥
à¦ħ à¦Ļ
à¦°à¦¹à¦£ à¦¯
à¦¾à¦ĥ ,
æŃĵ æŃĵ
c h
à¦¯ à¦ķà¦²
à¥ į
à¦¸ à¦°à¦²
à¦ĸ à¦¦
à¦¹ à¦Ń
Ġà¦Ĩà¦® à¦Ĺ
at ion
á ĥ
à¦£ à¦¹
Ġà¦² à¦Ń
Ġà¦ı à¦ľà¦¨
à¦Ĺ à¦¹
à¦Ń à¦¬à¦¨
à¦Ŀ à¦°à¦¨
Ġà¦ľà¦¨ à¦ľ
à¦ĩà¦¨ à¦Ł
Ġà¦ĩà¦¨ à¦ľ
Ġà¦¬ à¦¬
à¦¸ à¦ŀ
à¦Ł à¦ĵ
à¦¹ à¦Ļ
Ġà¦² à¦°
à¦°à¦¸ à¦®
à§° à¦ķ
à§ĭâĢĶ âĢľ
à¤ ¾
Ġà¦ľà§Ł à¦Ĺ
o s
o w
à¦ĸ à¦¡
à¦§ à¦Ľ
à¦¹ à¦£
à¦¾ )
à¦¨ à¦Ńà¦°
à¦¯ à¦§
à¦¸ à¦ľ
Ġà¦¨ à¦Ń
à¦§ à¦ĵ
Ġà¦Ľ à¦ķ
Ġà¦ħà¦¬ à§Łà¦¬
Ġà¦¦à¦¶ à¦®
i d
à¦¨ à¦·
à¦² à¦Ĺà¦°
à¦¬ à¦°à¦¬
à¦ª à¦¹
à¦¶ à¦«
à¦¡ à¦¶
Ġà¦¶ à¦ĵ
à¦ł à¦ª
à¦¤à¦¬ à¦ķ
Ġà¦¦à¦® à¦¬à¦¨
Ġ R
à§ĩ à¦ĥ
Ġà¦¬ à¦ļà¦¨
Ġà¦¨ à¦ľ
à¦¶ à¦Ľ
à¦¶ à¦¶
Ġà¦ľ à¦®à¦¤
Ġà¦¸à¦® à¦Ŀ
Ġà¦Ĩà¦² à¦ªà¦¨
à¦°à¦ľ à¦¬
à¦¨à¦ķ à¦¥
à¦¬à¦ķ à¦¦
à¦¤ à¦ĸ
à¦Ĺ à¦¬à¦¨
à¦· à¦ľà¦¨
âĢ ķ
Ġà¦ĵ à¦¨
Ġà¦ĵ à¦®
à¦¦à¦° à¦¬à¦¨
à¦°à¦ªà¦° à¦ĩ
à¦¿âĢĶ âĢľ
à§§à§ Ń
Ġà¦Ĩà¦ĸ à¦¡
à§ Ĺ
Ġà¦ķ à¦¬à¦²
Ġà¦ķ à¦¨à¦°
à¦¡ à¦Ń
à¦Ń à¦ľ
Ġà¦Ł à¦ķà¦Łà¦ķ
à¦¬à¦¤ à¦ĩ
Â Ń
Ġ ĠĠč
à§ģ à¥¤âĢĿ
à¦¬ à¦Ĺà¦¤
Ġà¦Ĩ à¦¦à¦²
Ġà¦® à¦°à¦®
à¦· à¦§
à¦ļ à¦ĩ
Ġà¦ıà¦ķ à¦ļ
Ġà¦ĵ à¦°à¦ķà¦®
à¦ī à¦·
à¦°à¦ķ à¦°
à¦°à¦® à¦¬à¦°
Ġà¦Ī à¦·à§İ
Ġà¦¹à¦ķ à¦ļà¦ķ
à¦¤ à¦Ńà¦°
à§ģ ;
à¦¼ !âĢĿ
Ġà¦ķ à¦¨à¦ķ
Ġà¦Ĩ à¦īà¦Ł
à¦ĩ à¦ĵ
Ġà¦ĸ à¦²
Ġà¦ĸ à§ľ
à¦ħ à¦¥à¦¬
u s
à¦¼ ?âĢĻ
Ġà¦¯ à¦ķ
à¦·à¦£ à¦ĩ
Ġà¦ķà¦¤ à¦ĸ
Ġà¦¦à¦² à¦ªà¦¤
Ġà¦ĸà¦¸ à¦ĸà¦¸
à¦¾ âĢĿà¥¤
à¦² à¦ªà¦¤
à¦¼ à§ĭà¥¤
à¦¦ à¦Ń
Ġà¦ı à¦«
Ġà¦Ń à¦¸
à¦ħ à¦ľà¦¸
à¦¸à¦¹ à¦ľ
à¦¿ âĢ¦âĢĿ
à¦² à¦¹
à¦¼ à§Ĥ
à¦® à¦¹à¦²
Ġà¦¹ à¦ĩà§Ł
Ġà¦ı à¦¶
à¦¬à¦° à¦Ł
Ġà¦īà¦¦ à§Ł
à¦¿- -
ÂłÂłÂłÂłÂłÂłÂłÂł ÂłÂłÂł
ÂłÂłÂłÂłÂłÂłÂłÂłÂłÂłÂłÂł ÂłÂłÂł
Ġth at
Ġà¦¶à¦ĵ à¦ķà¦¤
i ve
v er
à§ĭ âĢ¦âĢĿ
Ġà¦® à¦°à¦¬
Ġà¦¹ à¦¨à¦¨
Ġà¦¤ à¦¸
à¦¶ à¦¬à¦¨
à¦§ à¦ķà¦°
Ġà¦Ĩà¦ķ à¦¬à¦°
Ġà¦ľà¦® à¦ľà¦®
Ġà§§à§ ®
Ġà§§à§¯ à§ª
à§ĩ âĢĿà¥¤
à¦° à¦ªà¦¤
Ġà¦Ń à¦°à¦¦
Ġà¦¬à¦² à¦°
Ġà¦« à¦£
à¦¤à¦¨ à¦Ń
à¦ķà¦² à¦¨
à¦ıà¦ĩ à¦¸à¦¬
Ġà¦ķà¦® à¦ª
à§įâĢĮ à¥¤
à§° à¦¬
Ġ à§¬
à¦® à¦°à¦ķ
Ġà¦ķ à¦ļà¦ķ
à¦Ľ à¦¦
Ġà¦¹ à¦°à¦£
à¦§ à¦°à¦¨
à¦¥ à¦Ĺ
Ġà¦¶ à¦ª
Ġà¦ľ à¦ŀ
Ġà¦ļ à¦ª
Ġà¦¸à¦¬ à¦¸à¦®à§Ł
Ġà¦īà¦ª à¦²à¦ķ
à¦®à¦£ à¦¸
à§§à§ ¨
Ġw h
Ġ it
à§ĩ à¦Ĥ
à¦° à¦®à¦¨
à¦¤ à¦Ĺà¦¤
à¦¬ à¦ŀ
à¦¬ à¦¦à¦²
à¦ª à¦ķà¦°
Ġà¦¤ à¦Ł
à¦ļ à¦²à¦¤
à¦¼à¦¾ âĢĵ
Ġà¦« à¦¨
Ġà¦ħà¦¬ à¦Ĺ
Ġà¦Ĭ à¦·
ÂłÂłÂłÂłÂłÂłÂłÂłÂłÂłÂłÂł ÂłÂł
o d
à§ĩ à§Ĺ
à§ģ :
à¦® à¦§à¦¨
Ġà¦ª à¦¬à¦¨
à¦£ à¦ĵ
Ġà¦° à¦ĺ
Ġà¦ıà¦ĩ à¦ľà¦¨
à¦¤à¦° à¦ĵ
à¦°à¦¬ à¦®à¦¯
Ġà¦¬à¦ī à¦¯
ĠĠčĊ ĠĠč
ÂłÂłÂłÂłÂłÂłÂłÂłÂłÂłÂłÂł Âł
i f
ç ľ
Ġà¦¬ à¦¦à¦¨
Ġà¦ľ à¦ª
Ġà¦§ à¦¸
à¦°à¦£ à¦ķ
à¦Ŀ à¦ŀ
à¦ĩà¦² à¦Ł
Ġà¦ıà¦®à¦¨ à¦Ł
Ġà¦ķà¦® à¦¬
Ġà¦īà§İ à¦ªà¦¤
à¦ıà¦ķ à¦¸
Ġà¦¶à¦¤ à¦ªà¦¥
Ġà¦¨à¦¬ à¦¬à¦°
à¦¤ à¦¡
à¦ķ à¦¤à¦°
à¦¯ à¦ªà¦Ł
à¦¼ à¦ĥ
à¦ľ à¦ķà¦¨
à¦¼à§ĩ âĢĵ
Ġà¦ħ à¦¯à¦¤
à¦§ à¦ª
Ġà¦¶ à¦°à¦¤
Ġà¦ļ à¦ķà¦²
à¦Ĥ -
Ġà¦¸à¦® à¦¤à¦²
à¦¬à¦° à¦ĩ
Ġà¦Ĺà¦² à¦¦
à¦Ĺà¦¤ à¦Ń
à¦¿à¦ĥ à¥¤
ÂłÂłÂłÂłÂłÂłÂłÂł ÂłÂł
Ġà¦¬à¦ī à¦ķ
u l
à¦¯ à¦ļà¦°
Ġà¦ķ à¦ªà¦Ł
Ġà¦¸ à¦ľà¦²
Ġà¦Ĩ à¦ªà¦¸
à¦Ł à¦Ĺà¦²
à¦¹ à¦ª
Ġà¦Ĩà¦² à¦¸
à¦ĺ à¦¬
à¦·à¦£ à¦¶
Ġà¦¸à¦¹ à¦¨à¦¶
à¦Łà¦¤ à¦ĩ
Ġà¦°à¦¸ à¦Ĺ
Ġ C
à¦¾ '
à¦¤ à¦¬à¦°
à§ģ âĢ¦
Ġà¦ħ à¦ĺ
à¦ĵ à¦¹
Ġà¦ĸ à¦ļ
à¦Ŀ à§ľ
Ġà¦Ĩà¦¨ à¦®à¦¨
Ġà¦¬à¦ĩ à¦Ĺ
Ġà¦«à¦² à¦¶
Ġà¦Ķ à¦°à¦¸
Ġ |
à¦¨ à¦®à§Ł
à¦® à¦¹à¦°
à¦¦ à¦¬à¦¦
à§Ģ ?âĢĿ
Ġà¦¦ à¦²à¦¬
Ġà¦ľ à¦®à¦²
Ġà¦« à¦¤
à¦°à¦£ à¦Ł
âĢĿ âĢĵ
Ġà¦¬à¦²à¦² à¦¤
à¦¾- -
Ġà¦¸à¦¹ à¦ļà¦°
Ġà¦Ĺà¦£ à¦¨
Ġà¦Ńà§Ł à¦Ļ
a m
Ġà¦Ĩ à¦ªà¦¡
à¦ĸ à¦ķà¦¦
à¦· à¦¹
Ġà¦¶ à¦°à¦£
Ġà¦ľ à¦Ĺà¦¨
Ġà¦Ń à¦£
Ġà¦Ľ à§Ł
à¦¬à¦¨ à¦¦
Ġà¦Ŀ à¦Ļ
à¦¤à¦¨ à¦¶
Ġà¦¹à¦° à¦«
Ġà§§à§¯ à§¯
ĠĠčĊ ĠĠĠč
à¦¥à¦ª à¦°à¦¤
à¦ħà¦¥ à¦ļ
, -
à¦¿ )
à¦¤ à¦§à¦¨
à¦¯ à¦¸à¦®
à¦¬ à¦¦à¦¨
Ġà¦¶ à¦ļ
à¦ĵ à¦ķ
à¦Ń à¦Ĺ
à¦Ń à¦²à¦Ń
Ġà¦ĵ à¦²
Ġà¦ĩ à¦ķ
Ġà¦Ŀ à¦ŀ
à¦¸à¦¬ à¦¶
à¦²à¦¨ à¦ķ
à§§ à§§
à¦°à¦« à¦¤
Ġ à¥¥
à¦¬ à¦ķà¦°
Ġà¦¸ à¦ļà¦²
Ġà¦¸ à¦«à¦Ł
Ġà¦¸ à¦¶à¦¸
Ġà¦ı à¦ŀ
à¦¥ à¦Ł
Ġà¦Ń à¦²
à¦ł à¦¬
Ġà¦« à¦Łà¦ķ
à¦« à¦¤
à¦Ĩ à§Ł
Ġà¦Ł à¦ª
à¦¨à¦¬ à¦¸
à§Ģà¥¤ âĢĿ
Ġà¦ĩà¦¨ à¦«
Ġà¦Ĺà§ľ à¦¤
Ġà¦Ĩà¦¹ à¦°à¦£
à¦ľà¦¸ à¦Ń
Ġà¦°à¦ķà¦® à¦ĩ
. âĢĿ
Ġ D
Ġà¦¸ à¦°à¦¬à¦°
à¥¤ âĢĺ
Ġà¦ı à§ľ
à¦· à¦¶
à¦ļ à¦¤à¦°
à§Ł à¦£
à¦¼à¦¾ à¦Ĥ
à¦ł à¦Ł
Ġà¦Ł à¦®
à¦ıà¦ķ à¦¸à¦Ļ
à¦¿ âĢĿà¥¤
à¦¼ âĢĻ
Ġà¦ķ à¦¦à¦°
à¦ª à¦²à¦ķ
à¦ľ à¦¶
à¦Ĺ à¦²à¦ķ
Ġà¦¯ à¦¤à¦¬
à¦Ļ à¦Ľ
à¦¬à¦° à¦¹
Ġà¦ļà¦² à¦¨
à¦°à¦® à¦¬
à¦ķà¦² à¦ķ
Ġà¦ħà¦¹ à¦Ļ
Ġà¦§à¦¨à¦¤ à¦¨
à¦ķ à¦°à¦ķ
à¦¦ à¦°à¦®
à¦Ľ à¦¯
à¦¶ à¦ļ
à¦Ĺ à¦ļ
à¦£ à¦ĩ
Ġà¦ıà¦ķ à¦«
Ġà¦ĵ à§ľ
Ġà¦ľà¦¨ à¦ķ
Ġà¦ħà¦® à¦Ļ
Ġà¦ħà¦® à¦°à¦¤
à¦¨à¦ĵ à¦Ń
Ġà¦ķà¦® à¦Ľ
Ġà¦¶à¦¤ à¦¬à¦°
Ġà§§à§ ¨
à¦¶ à¦ľ
Ġà¦« à¦°à¦¸
Ġà¦ĸ à¦¤
Ġà¦Ł à¦ķ
Ġà¦¬à¦¨ à¦¬
Ġà¦īà¦ª à¦ļ
Ġà¦ķà¦¤ à¦ķà¦Ĺ
à¤ °
Ġ à§¯
à¦ķ à¦°à¦¤
Ġà¦¨ à¦¬à¦¯
Ġà¦¦ à¦²à¦¨
à§Ł à¦ĩ
à¦Ĩ à¦¦à¦°
à¦°à¦® à¦¯
à§įâĢĮ ,
Ġà¦°à¦ĵà¦¶à¦¨ à¦ķ
h a
Ġ N
à¦¬ à¦ķà¦Ł
à¦® à¦ķà¦²
Ġà¦® à¦ķ
Ġà¦° à¦ª
à¦ĵ à§ľ
Ġà¦Ĩà¦® à¦¦
à§ĩ, âĢĻ
Ġà¦ħà¦¨ à¦°
Ġà¦ħà¦¨ à¦¡
à¦°à¦£ à¦Ń
à¦ľà¦¨ à¦¦
à¦ī à§ľ
à¦ı à¦®
à¦®à¦ķ à¦°à¦£
Ġà¦ĩà¦¸ à¦®à¦¤
l y
r o
à¦¨ à¦¬à¦¨
à¦¸ à¦ĺ
Ġà¦® à¦Ĺà¦ľ
à¦Ľ à¦¤à¦²
à¦ĸ à¦ª
à¦§ à¦Ĺ
à¦Ń à§İà¦¸
à¦ł à¦¦
Ġà¦ī à¦¥à¦²
Ġà¦« à¦°à¦®
Ġà¦ħà¦¨ à¦¸
à¦¬à¦¨ à¦ĩ
à¦« à¦ķ
Ġà¦Ĩà¦² à¦«
à§İ à¦¸à¦ķ
à¦ı à¦¨
à¦ı à¦ķà¦²
à¦²à¦ķ à¦¨
à¦¤à¦¬ à¦¡
Ġà¦ĺà¦° à¦Ĺ
Ġà¦¸à¦° à¦ŀ
Ġà¦ħà¦ª à¦²à¦ķ
Ġà¦ķà¦² à¦¹
Ġà¦ıà¦ķà¦ĩ à¦Ń
à¦°à¦®à¦£ à¦ķ
à¦®à¦Ľ à¦®
âĢķ âĢķ
à¦ķ à¦Ĩà¦ª
Ġà¦² à¦ĩà¦¯
Ġà¦² à¦¹à¦®
Ġà¦Ĩà¦° à¦¶
Ġà¦ĸ à¦¦
à¦°à¦£ à§Ł
à¦ľà¦¨ à¦¬
Ġà¦ħà¦¬ à¦¯
à¦ħ à¦¦à¦®
Ġà¦¯à¦¤ à¦ĸ
Ġà¦ħà¦¶ à¦°
Ġà¦Ĩà¦¹ à¦®
à¦¦à¦°à¦® à¦¹à¦²
à¦¨ à¦ªà¦¥
à¦® à¦Ļ
Ġà¦® à¦Ľ
Ġà¦ī à¦¹
à¦ī à¦ªà¦¨
à¦ħ à¦¹
à¦¨à¦¬ à¦¸à¦®
à¦ĩà¦¨ à¦Ĺ
à¦¿âĢĻ à¥¤
à¦¬à¦® à¦ŀ
à¦¬à¦ľ à¦Ĺà¦¤
it y
Ġà¦ħ à¦¯à¦¥
Ġà¦ıà¦ķ à¦Ŀ
Ġà¦ıà¦ķ à¦¤à¦²
âĢĿ ,
Ġà¦Ĩà¦¸ à¦ķ
à¦ĺ à¦¤à¦®
Ġà¦ħà¦¬ à¦¸à¦¨
à¦²à¦ķ à¦£
à¦¦à¦¨ à¦ķ
Ġà¦ħà¦ª à¦ļà¦¯
Ġà¦īà§İ à¦ķ
à¦ªà¦ķ à¦¦
à¦¿! âĢĻ
à¦Ĺà¦® à¦ŀ
c i
à§ĩ /
à¦¬ à¦¶à¦ķ
à¦ĩ à¦¨à¦¬
Ġà¦¤ à¦¡
à¦¹ à¦®à¦¯
Ġà¦§ à¦ķ
à¦ªà¦° à¦¶
à¦¤à¦° à¦¸
Ġà¦¡ à¦°
à¦ĺ à¦¸
Ġà¦ıà¦¤ à¦Ĺ
Ġà¦ħà¦ļ à¦ŀ
Ġà§§à§ «
à¦·à§Ł à¦ķ
à¦² à¦§à¦¨
Ġà¦¬ à¦¦à¦®
Ġà¦¹ à¦®
à¦¶ à¦§
à¦ļ à¦Ń
à¦¹ à¦ļà¦°
Ġà¦ľ à§Łà¦¨
Ġà¦ī à¦ĩ
Ġà¦² à¦¸
Ġà¦² à¦ŀ
à¦°à¦¤ à¦ķ
Ġà¦ĺ à¦°à¦¬
à¦°à¦£ à¦ĵ
Ġà¦Ł à¦ªà¦ķ
Ġà¦ļà¦² à¦ļ
à¦ħ à¦ŀ
Ġà¦Ĩà¦Ĺ à¦¨
Ġà¦ªà¦Ł à¦ļ
Ġh a
à¦² à¦ĺ
à¦® à¦®à¦°
Ġà¦¬ à¦¤
Ġà¦¬ à¦Ĺà¦²
Ġà¦¸ à¦ľà¦¨
à¦ª à¦ªà¦¤
à¦¡ à¦¬à¦°
Ġà¦¯ à¦¬à¦¨
à¦¥ à¦ªà¦°
Ġà¦ľ à¦¸
Ġà¦° à¦Ł
Ġà¦ī à¦®
à§Ĥ -
Ġà¦² à¦Ł
Ġà¦®à¦¨ à¦®
à¦°à¦£ à¦Ĺ
à¦¤à¦° à¦¬
à§İ à¦ªà¦¤
Ġà¦®à¦¤ à¦²à¦¬
Ġà¦īà¦ª à¦¬
Ġà¦īà§İ à¦ķà¦°
Ġf or
à¦° à¦ªà¦¥
à¦® à¦ĺ
Ġà¦¬ à¦¹à¦°
à¦¦ à¦ªà¦¤
Ġà¦® à¦ł
Ġà¦® à§Łà¦²
à¦£ à¦®à¦¯
Ġà¦ľ à¦¹
à¦¾à¦ģ -
Ġà¦¬à¦²à¦² à¦ķ
à¦°à¦® à¦¥
à¦¸à¦¬ à¦ĸ
à¦Ĺà¦¤ à¦ķ
à¦ªà¦¦ à¦ķ
Ġà¦ħà¦ªà¦° à¦¦
Ġà¦«à¦² à¦¸
Ġà¦ľà¦Ĺ à¦¦
à¦ĭ à¦£
Ġn ot
à§ĩ à¥¥
à¦¨ à¦«
à¦ķ à¦¸à¦Ļ
à¦¯ à¦Ĺà¦¤
à¦ľ à¦Ń
Ġà¦ħ à¦ĸ
à¦§ à¦¹à§Ł
à¦ļ à¦ŀ
Ġà¦ıà¦ķ à¦ĺ
Ġà¦Ľ à¦®à¦Ľà¦®
Ġà¦« à¦¯
Ġà¦Ĩà¦¸ à¦®
à¦¨à¦ĵ à¦°à¦ķà¦®
Ġà¦· à¦·
es s
** **
i r
à¦° à¦¦à¦¯
à¦ª à¦Ń
à§Ģ âĢĿ
Ġà¦¦ à§ľ
à¦ľ à¦ĸà¦¬à¦°
à¦¶ à¦°à¦¤
à¦ļ à¦¬à¦°
Ġà¦ī à¦ĩà¦¨
Ġà¦§ à¦¬
à¦¾, âĢĻ
à¦°à¦¬ à¦ķ
à¦°à¦¬ à¦ļ
Ġà¦Ł à¦¨
Ġà¦Ł à¦¯
à¦¨à¦¤ à¦²
Ġà¦ħà¦¸ à¦¨
à¦¯à¦¬ à¦¯
Ġà¦Ĩà¦¨ à¦Ĺ
Ġà¦¬à¦ī à¦Ł
... âĢĿ
Ġà¦¦à¦« à¦¤à¦°
à¦² à¦Ŀ
à¦¬ à¦¸à¦®
Ġà¦ª à§°
Ġà¦ª à§Łà¦¸
Ġà¦¦ à¦ª
à¦ľ à¦¤à¦¨
Ġà¦ı à¦·
Ġà¦ı à¦£
à¦¥ à¦ĩ
à¦¤à¦° à¦ª
à¦Ĩ à¦ļà¦°à¦£
Ġà¦¸à¦¬ à¦ĸ
à¦°à¦® à¦¤
Ġà¦Ĩà¦ľ à¦¬
à¦ķà¦² à¦Ļ
à¦°à¦¶ à¦ķ
Ġà¦ħà¦ķ à¦ªà¦Ł
à¦¨à¦Ł à¦¨
Ġà¦Ĩà¦§ à¦ĸ
à¦Ŀà¦² à¦®à¦²
Ġà¦ľà§Ł à¦§
Ġs t
i v
l a
Ġ G
à¦ķ à¦§
Ġà¦ª à¦¦à¦¯
à¦§ à¦¹
Ġà¦ıà¦ķ à¦¨
Ġà¦ıà¦ķ à¦¸à¦®à§Ł
Ġà¦Ĩà¦Ľ à§ľ
Ġà¦ĩ à¦¡
âĢĵ âĢĻ
à¦¨à¦ĵ à¦Ł
à¦ıà¦ĩ à¦ļ
âĢ¦ à¥¤
à§§à§ «
à¤ ¤
à¦² à¦§
Ġà¦ķ à¦®à¦¤
Ġà¦¨ à¦°à¦°
à¦ª à¦ĸ
à¦ĸ à¦ĩ
à¦Ĩ à¦°à¦ĵ
à¦°à¦¬ à¦¦
Ġà¦ĩ à¦®à¦¨
Ġà¦ľà¦¨ à¦¸à¦®
Ġà¦¬à¦° à¦¦
à¦ıà¦ĩ à¦Ń
à¦¨à¦¦ à¦£
Ġ H
à¦¯ à¦¬à¦¨
à¦¬ à¦®à¦¯
à¦® à¦Ĺà¦¤
Ġà¦ª à¦Łà¦²
à¦Ľ à§ľ
Ġà¦¤ à¦°à¦¬
à¦ĸ à¦ķà¦°
Ġà¦° à¦¡
à§ģà¦ģ à¥¤
Ġà¦Ĩà¦ľ à¦®à¦²
à¦®à¦¸à¦® à¦°
! !
e m
Ġ y
à¦¾ à§ĩ
à§į âĢį
à¦¸ à¦®à¦¤
à¦ĩ à¦ĵà¦¯
Ġà¦ı à¦Ĩà¦ĩ
à¦£ à¦¶
Ġà¦« à¦²à¦¨
à¦¾à¥¤ à¥¤
Ġà¦ıà¦ĩ à¦®
Ġà¦¬à¦° à¦·
à¦¾âĢĻ ,
Ġà¦¦à¦Ĺ à¦¦à¦Ĺ
à¦Ĭ à¦°
Ġà¦§à¦¬ à¦§à¦¬
n d
à¦® à¦ªà¦¤
Ġà¦ķ à¦¨à¦Ł
Ġà¦Ĩ à¦ĩà¦¸
à¦¦ à¦®à¦¨
Ġà¦¨ à¦®à¦¨
Ġà¦® à§Łà¦¦
à¦ļ à¦ª
à¦¥ à¦°à¦Ł
Ġà¦ļ à¦Łà¦ķ
Ġà¦ī à¦¬
Ġà¦¬à¦²à¦² à¦Ĩà¦®
Ġà¦Ŀ à¦Łà¦ķ
à¦ħ à¦®à¦¨
Ġà¦ĵà¦ł à¦²
Ġà¦ħà¦¸ à§İ
à¦°à¦¥à¦® à¦Ł
Ġà¦īà¦¦ à¦Ĺ
Ġà¦īà¦¦ à¦ĺ
à¦¶à¦¨ à¦Ł
Ġà¦īà¦¤ à¦Ļ
Ġà¦ķà¦¤ à¦ĩ
Ġà¦ªà¦¦ à¦¬
Ġà¦ħà¦ķ à¦¥
Ġà¦¶à¦¤ à¦ķà¦°
à¦ķ à§Ł
à¦ķ à¦ı
Ġà¦¨ à¦¬à¦¬
Ġà¦ħ à¦°à¦¨
à¦§ à¦¨à¦¬
à¦¹ à¦¹
à¦¼à¦¾ âĢĻ
Ġà¦ī à¦¥
Ġà¦« à¦²à¦¤
à¦¬à¦¨ à¦¦à¦°
à¦°à¦ķ à¦¨
Ġà¦ªà¦¥ à¦ĩ
à¦ķà¦° à¦¦
Ġà¦ıà¦®à¦¨ à¦ĵ
à§§à§ ©
Ġà¦Ĺà¦£ à¦ªà¦°
à¤ ¿
-- --
à¦¿âĢĻ ,
he r
ĠĠĠĠ ĠĠĠĠ
ay a
Ġ E
à¦² à¦¥
à¦® à¦īà¦¦
à¦¹ à¦°à¦¨
à§ĥ -
Ġà¦ĸ à¦¨à¦¨
âĢĻ âĢĵ
à¦ĺ à¦Ĺ
à¦ĺ à§ľ
à¦ħ à¦¬à¦¸
Ġà¦ħà¦§ à¦®
à¦ªà¦¦ à¦¬
à§įâĢĮ -
Ġà¦¶à¦¤ à¦¦à¦²
à§§à§ ¬
Ġà§§à§ Ń
à¦ķà¦ľà¦¨ à¦ķ
à¦ıà¦ĸà¦¨ à¦ĩ
Ġà¦ĸà¦¸ à¦¡
Ġà§¨ à§§
Ġc on
à¦Ī à¦¶
; -
u re
Ġ =
Ġ à§®
à¦¨ à¦ļà¦°
à¦¤ à¦ľà¦¨
à¦¯ à¦§à¦°
Ġà¦¸ à§ľà¦ķ
à¦¦ à¦ĺà¦°
à¦ª à¦¬à¦¯
à¦¶ à¦ķà¦°
Ġà¦ıà¦ķ à¦Ń
à¦Ŀ à¦Ľ
Ġà¦¸à¦¬ à¦²
à¦ĺ à¦¬à¦¦
Ġà¦Ĺà§ľ à¦¬
Ġà¦ıà¦¨ à¦ľ
Ġà¦¹à¦ĩ à¦ļà¦ĩ
à¦Ĳ à¦ķ
à¦¨ à¦ªà¦¤
à¦¬ à¦ī
Ġà¦¸ à¦ªà¦¨
Ġà¦¸ à¦ªà¦ķ
Ġà¦Ĩ à¦ľà¦¨
Ġà¦¨ à¦¬à¦°
à¦ľ à¦¹
à¦· à¦°à¦£
à¦§ à¦Ĺà¦®
à¦¥ à¦Ń
à¦°à¦£ à¦®à¦¯
à¦ľà¦¨ à¦ĵ
à§İ à¦¸à¦²
à¦ı à¦°à¦ªà¦°
Ġà¦ĩ à¦īà¦Ł
à¦°à¦¥à¦® à¦¦
à¦¦à¦¯ à¦¨
Ġà¦ľà¦® à¦Ľ
Ġà¦īà§İ à¦ªà¦¨
Ġà¦ªà¦¦ à¦ķà¦°
Ġà¦¨à¦¬ à¦®
à¦¨à¦¸ à¦ªà¦Ł
a g
e ct
r om
à¦¨ à¦ľà¦¨à¦ķ
à¦¤ à¦¸à¦®
Ġà¦¬ à¦ķà¦¬
à¦¦ à¦°à¦¬
Ġà¦¦ à¦ĸ
Ġà¦ħ à¦Ĺà¦¤
à¦¹ à¦ķà¦°
à¦£ à¦¶à¦ķ
Ġà¦ĵ à¦²à¦Ł
Ġà¦« à¦²à¦ķ
Ġà¦« à¦ľà¦²
Ġà¦§ à¦®à¦¨
Ġà¦Ł à¦¨à¦Łà¦¨
Ġà¦¬à¦¸ à¦Ľ
Ġà¦ħà¦ª à¦¸
à¦°à¦² à§Ł
à§ģà¥¤ âĢĻ
à¦°à¦®à¦¶ à¦ĩ
Ġà¦Ķ à¦·à¦§
Ġà¦ľà¦²à¦ķ à¦£
Ġ L
à¦² à¦ĵà¦¯
à¦® à¦ªà¦¨
Ġà¦¸ à¦Ł
à¦ĩ à¦ŀ
à¦¶ à¦§à¦°
à¦¶ à¦Ńà¦ķ
à¦ĸ à¦Ń
à¦· à¦°à¦¤
à¦¥ à¦¯
Ġà¦Ł à¦¹à¦²
à¦ĺ à¦°à¦Ł
à¦ħ à¦Łà¦²
à¦°à¦¸ à¦Ń
à¦§à¦¨ à¦¹
âĢ¦ âĢĻ
à¦¦à§Ł à¦ķ
à¦¼à§ĩà¥¤ âĢĿ
Ġà¦Ĩà¦§ à¦ĺà¦£
Ġà¦ķà¦ĸà¦¨à¦ĵ à¦ĩ
Ġà¦ļà¦Ł à¦ªà¦Ł
à¦ķà¦ĸà¦¨ à¦ĵ
is t
Ġà¦Ĺà¦łà¦¨ à¦®
à¦¬à§Ł à¦¸
Ġà¦Ńà¦°à¦¤ à¦¬
ĠM aya
i p
à¦¨ à¦¸à¦¨
à¦¤ à¦«
à¦¯ à¦®à¦¨
à¦¯ à¦Łà¦ķ
à¦¬ à§°
à¦® à¦®à¦¯
Ġà¦¬ à¦¦à¦°
à¦ĸ à¦ĵ
à¦¡ à¦«
à¦ĵ à¦ł
Ġà¦¬à¦² à¦¯
Ġà¦®à¦¨ à¦¤
à¦ı à¦«
Ġà¦ħà¦¸ à¦®à¦¯
à¦²à¦¤ à¦²
Ġà¦¤à¦² à¦¦
Ġà¦Ķ à¦¦
i k
Ġ Ð
Ġ on
à¦¨ à¦§
à§ģ '
Ġà¦¸ à¦ĩà¦¤
à¦¦ à¦®à§Ł
Ġà¦¹ à¦ľà¦®
à¦¡ à¦ī
à¦ļ à¦Ĺ
à¦ĵ à¦ĸ
Ġà¦ĵ à¦¸à¦®
à¦ī à¦¹
à¦¼à¥¤ à¥¤
à¦¬à¦ª à¦¤
Ġà¦ħà¦¬ à¦®
à¦®à¦£ à¦°
Ġà§§à§¯ à§¬
o p
Ġ an
à¦¨ à¦°à¦®
à¦¤ à¦ķà¦¤
à¦² à¦ķà¦Ł
à¦¯ à¦ªà¦°
Ġà¦® à¦«à¦¸
à¦ľ à§ľ
Ġà¦ħ à¦ķà¦²
à¦Ĺ à¦Ĺà¦¨
à¦§ à¦°à¦£
à¦¹ à¦Ĺ
à§ĩà¥¤ âĢĺ
à¦ĵ à¦ª
à¦Ń à¦²
à¦¼à¦¾ ;
à¦« à¦®
à¦Ĩ à¦¸à¦¨
à¦°à¦¬ à¦¸
à¦°à¦ķ à¦£
Ġà¦Ł à¦¬
Ġà¦ĩ à¦¨à¦ķ
à¦ħ à¦¸à¦®
à¦Ĺà¦¤ à¦®
à¦ľà¦² à¦Ń
à§° à¦¸
à¦¼à§ģ à¥¤
Ġà¦¨à¦¬ à¦ľà¦¨
à¦Łà¦¬ à¦ĩ
Ġà¦¦à¦¶ à¦ľà¦¨
Ġà§§à§ ª
à¦®à¦Ł à¦®
Ġà¦īà§İà¦¸à¦¬ à¦®
Ġà¦§à¦¨ à¦¸à¦®
à¦ıà¦ĸà¦¨ à¦ĵ
l d
Ø §
à§ĩ .
à¦¤ à¦®à¦¯
à¦¯ à¦ªà¦¥
à¦¼ âĢĶâĢľ
à¦¸ à¦ł
Ġà¦ª à¦ª
à¦¦ à¦ĸ
Ġà¦¹ à¦ľ
Ġà¦Ĺ à¦ļ
Ġà¦ıà¦ķ à¦®à¦¤
Ġà¦§ à¦ª
à¦°à¦£ à¦ĩ
à¦°à¦® à¦ľ
à¦¾à¦Ĥ ,
à¦¨à¦¬ à¦ķ
à¦¼à§ģ -
!âĢĿ âĢĶ
en d
ÂłÂłÂłÂłÂłÂłÂłÂłÂłÂłÂłÂłÂłÂłÂłÂł Âł
æŃĵæŃĵ æŃĵæŃĵ
à¦¯ à¦ĸ
Ġà¦® à¦¸à¦²
Ġà¦¦ à¦¨
Ġà¦¦ à¦¹
Ġà¦¹ à¦ĩà¦Ľ
à¦Ĺ à¦°à¦®
Ġà¦Ĺ à¦®à¦¨
à¦£ à¦§
Ġà¦¶ à¦Ł
à¦Ń à¦°à¦¯
Ġà¦ĵ à¦¤
Ġà¦§ à¦¬à¦²
Ġà¦¸à¦® à¦¬à¦¯
à¦¼à¦¿ âĢĶ
à¦°à¦£ à§Łà¦¨
à¦ī à§İà¦¸
Ġà¦¸à¦¬ à¦Ĺ
à¦·à¦£ à¦®
à¦ıà¦ĩ à¦ĸ
Ġà¦ħà¦ľ à¦ª
Ġà¦ķà¦¤ à¦ľà¦¨
à§° à¦¨
à§° à¦®
à§§à§ ª
Ġà¦¶à¦¹ à¦°à¦¤à¦²
à§« à§¦
à¦ķà¦Ľ à¦Ł
Ġà¦ħà¦¹ à¦°à¦¹
à¦ĭ à¦¤
Ġà§¨à§¦ à§¦
Ġà¦Łà¦² à¦Łà¦²
Ġà§§à§¯à§¯ à§¦
à¦¡à¦ī à¦ĩà¦ļ
Ð ¾
à¦¤ à¦ļà¦°
à§ģ !âĢĿ
Ġà¦¸ à§Ł
à¥¤ '
à¦ĸ à¦®à¦£
à¦Ĺ à¦Ńà¦Ļ
à§Ł à¦Ń
Ġà¦ĵ à¦¬
Ġà¦« à¦¸à¦ķ
Ġà¦§ à§ľ
à¦ľà¦¨ à¦®
à¦Ĩ à¦Ł
Ġà¦¬à¦²à¦² à¦®
à¦ıà¦ĩ à¦¬
à¦ıà¦ĩ à¦Ł
à¦¤à¦² à¦Ł
Ġà¦ħà¦ķ à¦¸
Ġà§§à§¯ à§®
is m
a d
Ġ v
Ġà¦¬ à¦°à¦®
Ġà¦¸ à¦°à¦¬
Ġà¦Ĩ à¦ĩà¦²
à¦¶ à¦¤à¦²
Ġà¦ľ à¦ĺà¦¨
à¦¾à¦ģ ?
à¦¬à¦¨ à¦¸
à¦°à¦£ à¦¬
à¦®à¦¨ à¦¨
à¦¬à¦° à¦Ĺ
Ġà¦¬à¦²à¦² à¦¬
?âĢĿ âĢĶ
à¦Ŀà¦° à¦Ŀà¦°
Ġà¦Ĩà¦ĩ à¦¸à¦ķ
Ġ un
à¦° à¦ĺà¦°
à¦¿ à¦¾
à¦¨ à¦®à¦¤
à¦¯ à¦¦à¦²
à¦¦ à¦§
à¦ª à¦¬à¦¤
à¦ľ à¦ĸ
Ġà¦¹ à¦«à¦®
à¦· à¦¤à¦¬
Ġà¦ħà¦¨ à¦Ń
Ġà¦ªà¦° à¦ª
Ġà¦§ à¦ķà¦²
à¦ī à¦£
à¦ı à¦Ľ
Ġà¦¸à¦¬ à¦¥
à¦°à¦® à¦§
à¦¤à¦¨ à¦ķ
Ġà¦ħà¦¸ à¦¤
à¦¨à¦¬ à¦¸à¦Ń
Ġà¦ľà¦² à¦§à¦°
à¦®à¦¤ à¦¤
Ġà¦ħà¦ª à¦Ľà¦¨
Ġà¦¸à¦¹ à¦ľà¦²à¦Ń
âĢ¦ .
Ġà¦ĩà¦¨ à¦Ń
Ġà¦¬à¦ī à¦°
Ġn e
Ġà¦ķà¦¨à¦ķ à¦¨
h t
u m
à¦¨ à¦ľà¦Ł
à¦¬ à¦§à¦°
à¦¬ à¦īà¦¦
à¦¼ )
à§ĭ âĢĿ
Ġà¦ķ à¦ĩà¦°
Ġà¦ª à¦łà¦¨
Ġà¦Ĩ à¦¹à¦¸
Ġà¦® à¦°à¦²
à¦ľ à¦ķà¦¤
à¦ļ à¦®à¦ķ
Ġà¦Ĺ à¦«
à¦£ à¦«
Ġà¦° à¦£à¦ķ
à¦¿à¦Ĥ âĢĻ
à¦°à¦¦ à¦ķ
à¦¼à§ĭ -
Ġà¦Ńà§Ł à¦ķ
Ġà§§à§¯ à§¨
in d
à¦¾âĢĿ âĢĶ
n t
u p
Ġ W
à¦° à¦ĵà¦¯
à¦° à¦§à¦°
à¦® à¦·
Ġà¦¬ à¦Ľ
Ġà¦¸ à¦ļà¦°
Ġà¦Ĩ à¦ĩà¦Ł
Ġà¦Ĩ à¦ĵà¦¤
à¦Ł à¦¯
Ġà¦¤ à¦¬à¦²
à¦· à¦ķà¦¤
Ġà¦ľ à¦¹à¦°
Ġà¦Ń à¦ľ
Ġà¦« à¦¸
à¦°à¦¤ à¦¬
âĢĶ âĢĶ
Ġà¦¸à¦® à¦Ń
ĠâĢ Ļ
Ġà¦Ł à¦Ĺà¦¬
Ġà¦¡ à¦¯
à¦ħ à¦¤à¦²
à¦ħ à¦®à¦°
à¦¯à¦¤ à¦ķ
Ġà¦ħà¦ľ à¦¯
à¦¤à¦ķ à¦°à¦£
à§ĭ! âĢĻ
an t
it h
à§ĩâĢĿ âĢĶ
Ġà¦¨à§ľ à¦¬à§ľ
Ġà¦¨à¦ľ à¦°à¦¦
Ġà¦¦à¦²à¦¬ à¦¦
a b
à¦° à¦§à¦¨
à¦¤ à¦Ŀà¦°
à¦¯ à¦Ŀ
à¦¯ à¦°à¦¶
à¦¯ à¦¸à¦¨
Ġà¦ķ à¦¦à¦¬
Ġà¦¸ à¦ĵà¦¯
Ġà¦Ĩ à¦ªà¦¦
à¦ľ à¦ľ
Ġà¦Ń à¦ľà¦¨
Ġà¦° à¦ļà¦¯
à¦Ń à¦®
Ġà¦ĸ à¦ª
à¦¤à¦° à¦Ń
à¦¿, âĢĻ
à¦Ĩ à¦°à¦ľ
à¦ı à¦¤à¦¦
Ġà¦ĩ à¦¤à¦°
Ġà¦ĩ à¦ĵà¦°
à¦ĺ à¦Ľ
à¦¼, âĢĿ
à¦·à¦£ à¦Ĺ
à¦ĩà¦¨ à¦¸
à¦®à¦£ à¦ķ
Ġà¦«à¦² à¦ª
Ġà¦¦à¦² à¦Ł
à¤ ¨
Ġà¦ľà¦¨à¦¸ à¦ļ
es t
Ġà¦Łà¦Ĺà¦¬ à¦Ĺ
à§ĩ '
à¦ķ à¦®à¦¯
à¦¬ à¦ĸ
Ġà¦ķ à¦ľà¦¨
Ġà¦¯ à¦¤à¦¨
à¦ļ à¦¦
à¦ļ à¦¤à¦²
à¦¥ à¦¬à¦¹
à¦ĵ à¦®
à¦Ļ à¦ķ
Ġà¦¥ à¦¤
à§ĩ, -
ĠâĢ Ŀ
à¦¬à¦¨ à¦¬à¦¤
Ġà¦ĺ à¦·à¦¤
à¦¿à¥¤ à¥¤
à¦ı à¦°à¦ĩ
Ġà¦ķà¦¥ à¦ķ
à¦Ĺà¦² à¦ª
Ġà¦¬à¦ĩ à¦®
à¦ľà¦² à¦¦
Ġà¦īà¦² à¦Ļ
à¦¬à¦¶ à¦¤
Ġà¥¤ à¥¤
Ġà¦ıà¦ķà¦ĩ à¦¸à¦Ļ
Ġà¦ĺà¦¨ à¦ĺà¦¨
à¦°à¦Ĺ à¦£
Ġà¦ĸà¦¬à¦° à¦¦
à¦ľà¦® à¦¹à¦²
Ġà¦Ĩà§ľ à¦®
à¦¯à¦ĸà¦¨ à¦ĩ
à¦Ĩà¦§ à¦Ł
Ġà¦®à¦Ĺ à¦§
il l
Ġà¦¬à¦ķà¦¬ à¦ķ
r i
à¦¨ à¦ľà¦°
à¦¤ à¦ªà¦¸
à¦² à¦ķà¦°
à¦² à¦ľà¦¯
à¦¯ à¦¨à¦¤
Ġà¦¸ à¦°à¦¤
Ġà¦¹ à¦ĩà¦¨
à¦¶ à¦ĸ
Ġà¦ħ à¦ĩ
à¦ĸ à¦¶
à¦ĸ à¦ªà¦¤
à¦§ à¦¯
à¦ł à¦¹
à¦ŀ à¦ª
à¦Ĩ à¦Ń
Ġà¦Ĩà¦¸ à¦Ĺà¦°
à¦ħ à¦§à¦°
Ġà¦¬à¦¨ à¦¸
Ġà¦ħà¦¸ à¦Ļ
à¦°à¦¸ à¦¹
Ġà¦ıà¦¤ à¦ĸ
Ġà¦īà¦¤ à¦²
Ġà¦ħà¦ľ à§Ł
à§ĩ; -
Ġà¦Ĩà¦¦ à¦¤
Ġà¦¹à¦° à¦·
à¤ ķ
Ġà¦ļà¦®à¦ķ à¦ª
Ġy ou
Ġ k
à§ĩ âĢĻà¥¤
à¦² à¦ªà¦¥
à¦¯ à¦¤à¦°
Ġà¦ķ à¦®à¦¨
Ġà¦¬ à¦Ĺ
à¦Ł à¦ķà¦°
à¦ļ à¦²à¦¬
Ġà¦Ĺ à¦ª
Ġà¦ļ à¦ªà¦²
à¦Ļ à¦ļ
Ġà¦² à¦¹
à¦®à¦¨ à¦ķ
à¦¸à¦¬ à¦ľ
Ġà¦ľà¦² à¦¦à¦¸
à¦¯à¦¤ à¦ĩ
à¦®à¦ķ à¦¥
Ġà¦ķà¦¤ à¦ķà¦Ł
à¦¢ à¦²
Ġà¦ĭ à¦ľ
Ġà¦ĭ à¦Ĺà¦¬
Ġà¦ıà¦¸à¦¬ à¦ĩ
à¤ ²
Ġà¦īà§ľ à¦¨
re s
ar t
Ġb y
= =
a c
º çľ
Ġ Ø
à¦¨ à¦§à¦°
à¦¯ à¦ľà¦¨à¦ķ
à§ģ à§į
à¦¬ à¦¦à¦°
à¥¤ "
à¦¸ à¦ĵà¦¯
Ġà¦® à§Ł
Ġà¦¤ à§İ
Ġà¦ħ à¦¹à¦¨
Ġà¦ķà¦° à¦¨
Ġà¦° à¦Ĺ
à¦« à¦¸à¦²
Ġà¦Ł à¦®à¦Łà¦®
Ġà¦ĩ à¦¨à¦Ł
à¦ħ à¦¯
à¦ħ à¦·
à¦²à¦ķ à¦§
à¦¨à¦¬ à¦®à¦¨
à¦ķà¦¤ à¦ķ
Ġà¦ħà¦¤ à¦Ł
Ġà¦Ĳ à¦¤à¦°
Ġà¦Ĺà¦Ń à¦°
Ġà¦¬à¦ĩ à¦ķ
Ġà¦ĵà¦ĩ à¦Ł
à§§à§ ®
à¦īà¦² à¦¦
à¦ķà¦¶ à¦ª
à¦®à§Ł à¦ķà¦°
à§« à§Ń
à§© à§¦
Ġa s
à¦ķà¦ľ à¦®à¦ķ
Ġha ve
o re
· çľ
Ð °
Ġ he
à¦¤ à¦ªà¦¨
à¦² à¦®à¦£
à¦ķ à¦§à¦°
à¦® à¦¥
Ġà¦¬ à§İà¦¸
à¦¦ à¦ľ
à¦Ł à¦ķà¦²
à¦ª à¦¦à¦°
Ġà¦¤ à§İà¦ª
à¦· à¦ªà¦¥
à¦¥ à¦ĵ
Ġà¦ļ à¦°à¦ķ
Ġà¦Ń à¦¬à¦¤
à§ĩà¥¤ '
Ġà¦ĸ à¦¯
Ġà¦®à¦¨ à¦ĸ
à¦¤à¦° à¦Ĺ
à¦« à§ľ
à¦Ĩ à¦¸à¦¬
à¦°à¦® à¦ķ
à¦·à¦£ à¦ĵ
à¦ħ à¦ªà¦®
à¦ħ à¦¸à¦¹
Ġà¦ľà¦² à¦°à¦Ļ
à¦Ĺà¦² à¦¬
à¦¶à¦¨ à¦ķ
Ġà¦īà¦ª à¦¡
Ġà¦ħà¦ª à¦¦
Ġà¦ľà¦® à¦¶
à¦ªà¦¦ à¦¸
Ġà¦¸à¦®à§Ł à¦ĩ
Ġà¦¯à¦ľ à¦®
Ġà¦īà§ľ à¦¤
à¦¾à¦ĥ !
Ġà¦¸à¦°à¦¸ à¦¤
Ġà¦ªà¦Ļ à¦ķ
ºçľ ºçľ
a k
e re
à ¸
à¦¤ à§ľ
à¦¤ à¦ķà¦°
à¦® à¦°à¦¸
à¦® à¦ļà¦ķ
Ġà¦ķ à¦¶
Ġà¦¸ à¦Ĺ
Ġà¦¸ à¦°à¦£
Ġà¦Ĩ à¦īà¦²
Ġà¦¨ à¦Ĺà¦¦
à¦ĩ à¦¸à¦Ļ
Ġà¦Ĺ à¦°à¦ľ
à¦£ à¦ļà¦¨
Ġà¦ľ à¦¬à¦°
Ġà¦ľ à¦ĸà¦®
Ġà¦ĸ à¦¤à¦®
âĢĶ âĢĻ
à¦¼à¦¿ ?
à§ľ à¦®
à¦Ĩ à¦°à¦¬
à¦¬à¦ª à¦ķ
Ġà¦ħà¦¬ à¦¤à¦°à¦£
Ġà¦¢ à¦Ļ
Ġà¦ħà¦¸ à¦¹à¦¯
à¦§à¦¨ à¦ĩ
Ġà¦ķà¦¬ à¦ľ
âĢĮ à§į
Ġà¦ªà¦¤ à¦Ļ
à¦°à¦ľà¦¨ à¦¨
à§¨ à§¦
à¦łà¦ķ à¦ĸ
Ġà¦Ķ à¦ľ
Ġa re
Ġà§© à§¦
as s
as t
Ġd e
Ġà¦ĸà¦Ł à¦ĸà¦Ł
âĢĵâĢĵ âĢĵâĢĵ
Ġà¦¸à¦«à¦Ł à¦ĵà¦¯
·çľ ·çľ
à¦¨ à¦ĺà¦°
à¦ķ à¦ļà¦ķ
à¦® à¦¶à¦ķ
Ġà¦¨ à¦°à¦¨
à¦ĩ à¦ıà¦°
Ġà¦¤ à¦°à¦£
à¦ĸ à§ľ
à¦§ à¦¬à¦¦
âĢ ī
à¦ļ à¦ķà¦°
Ġà¦¶ à¦²
Ġà¦Ń à¦°à¦²
Ġà¦ī à¦ĩà¦ķ
à¦ī à¦Ńà¦¯
âĢĿ -
Ġà¦¬à¦²à¦² à¦«
Ġà¦Ŀ à¦°à¦¤
à¦ĥ âĢĵ
Ġà¦¬à¦¨ à¦®
à¦¦à¦° à¦Ł
à¦ªà¦¤ à¦Ļ
à¦¾âĢĻ âĢĶ
Ġà¦Ŀà¦Ł à¦ªà¦Ł
Ġ [
à§ĩ ...
à¦¬ à¦ľà¦Ĺà§İ
à¦® à¦®à¦¨
à¦® à¦ĵà¦¯
Ġà¦ķ à¦ĵ
Ġà¦¸ à¦°à¦®
à¥ Ģ
à¦ĩ à¦ħà¦ķ
à¦¡ à¦¹
à¦¹ à¦¬à¦§
Ġà¦¶ à¦°à¦¬à¦¤
Ġà¦° à¦¸à¦¨
à§ĩà¥¤ "
à¦ĵ à¦¬
Ġà¦ıà¦ķ à¦§à¦°à¦¨
Ġà¦ī à¦¸
à¦¾à¦ģ !
Ġà¦ĵ à¦®à¦°
à¦ªà¦° à¦¬
à¦¤à¦° à¦«
à¦°à¦¬ à¦Ĺ
à¦°à¦¬ à¦®à§Ł
Ġà¦¸à¦¬ à¦¶
à§Ī -
Ġà¦ĩ à¦·
Ġà¦ªà¦¥ à¦¹
Ġà¦Ĩà¦Ĺ à¦¤
Ġà¦Ĺà¦² à¦¤
à¦¨à¦¬ à¦¹
Ġà¦īà¦ª à¦ªà¦¤
à¦¬à¦¤ à¦®
à¦¯à¦¤ à¦¦
à¦·à¦¤ à¦Ĺ
à¦·à¦ķ à¦ķ
à¦¥à¦° à¦Ĺ
Ġà¦¬à¦Ł à¦¤à¦²
à¦®à¦Ĺ à¦ŀ
Ġà¦¶à¦¹ à¦°à¦ķ
Ġà¦Ĺà¦® à¦Ĺà¦®
at e
Ġs o
Ġm an
ÂłÂłÂłÂłÂłÂłÂłÂłÂłÂłÂłÂłÂłÂłÂłÂł ÂłÂł
T he
s e
à¦¤ à¦¤à¦°
Ġà¦ķ à¦²à¦¨
Ġà¦¸ à¦¦à¦¯
à¥ ĩ
Ġà¦Ĩ à§Łà¦¤
à¦Ł à¦¶
à¦Ł à¦¡
Ġà¦ı à¦¹
à¦¶ à¦ľà¦¨
Ġà¦ħ à¦ĺà¦Łà¦¨
à¦¡ à¦ľ
à¦¹ à¦ľà¦¨à¦ķ
à¦£ à¦¬à¦°
à¦¥ à¦¶
Ġà¦° à¦¸à¦¬
Ġà¦Ĩà¦® à¦¤
Ġà¦² à¦ĵ
Ġà¦ĸ à¦°à¦Ĺ
à¦Ŀ à¦²à¦ķ
Ġà¦¡ à¦¬à¦²
Ġà¦ĩ à¦Ľ
Ġà¦ĩ à¦ľà¦°
Ġà¦ĩ à¦®à¦ª
Ġà¦Ŀ à¦ª
Ġà¦¬à¦¨ à¦²à¦¤
Ġà¦ªà¦¥ à¦ĺ
à¦¨à¦¬ à¦ķà¦²
Ġà¦ľà¦² à¦ĸ
à¦¶à¦¨ à¦®
à¦°à¦² à¦¸
Ġà¦ħà¦§ à¦¸
à¦¸à¦¨ à¦ķ
à¦ªà¦¥ à¦Ĺ
à¦ıà¦ķ à¦¸à¦®à¦¯
Ġà¦¬à¦ĩ à¦ªà¦¤
à¦¤à¦ķ à¦¡
Ġà¦īà¦ªà¦° à¦¨
Ġà¦¦à¦² à¦Ĺà¦¤
à¦ķà¦¸ à¦ľ
à¦ĩà¦ľ à¦¡
Ġà¦ĸà¦¸ à§ľ
ĠĠčĊ ĠĠ
er s
Ġo r
o g
p p
p t
t u
à¦° à§İ
à¦¨ à¦ĺ
à¦¯ à¦®à¦£
à¦¼ âĢĿ
Ġà¦ª à¦ļà¦¨
à¦Ł à¦ļ
Ġà¦® à¦ĩ
à¦Ľ à¦¸
à¦Ľ à¦ĩ
Ġà¦¤ à¦¤à¦¬
à¦§ à¦ļ
à¦¹ à¦ľ
à¦¹ à¦ĵ
Ġà¦Ĺ à¦¤à¦°
Ġà¦ıà¦ķ à¦¹
Ġà¦Ĩà¦® à¦¬
à¦Ĩ à¦īà¦Ł
à¦¬à¦° à¦ª
Ġà¦¬à¦²à¦² à¦Ń
Ġà¦ľà¦¨ à¦®à¦¤
à¦·à¦£ à¦ľà¦¨
à¦¤à¦¨ à¦ĩ
à¦¸à¦¬ à¦ļ
à¦¤à¦¬ à¦¬
Ġà¦ľà¦² à¦Ľ
à¦¨à¦ĵ à¦ķ
à¦¨à¦ĵ à¦®à¦¤
à¦²à¦¬ à¦§
à§ĩ- --
Ġà¦ªà¦¦ à¦¤à¦²
Ġà¦¬à¦ĩ à¦ĸ
à¦¤à¦ķ à¦£
Ġà¦ĩà¦¨ à¦²
à¦¶à¦ķ à¦¦
à¦Ĩà¦ľ à¦ĩ
à¦Ĺà¦ľ à¦Ĺ
Ġà¦Ĩà¦ĩ à¦¶
Ġà¦ıà¦ĩà¦°à¦ķà¦® à¦ĩ
Ġm e
ic h
q u
à¦¨ à¦¬à¦ª
à¦¤ à¦®à¦¨
à¦ķ à¦Ńà¦°
à¦¬ à¦ķà¦²
à¦® à§İ
Ġà¦¸ à¦²à¦ľ
à¦¸ à¦°à¦¸
à¦¦ à¦®à¦¸
Ġà¦¨ à¦ª
Ġà¦® à¦ľà¦²
à¦Ľ à¦Ľ
Ġà¦¹ à¦°à¦®
Ġà¦¤ à§ľ
âĢ Ĳ
à¦¡ à¦ļ
à¦¹ à¦¶
Ġà¦¬à¦² à¦¦
à¦ªà¦° à¦¸
à¦¤à¦° à¦®
à¦¤à¦° à¦ķà¦®
à¦Ĩ à¦¸à¦Ľ
Ġà¦ĩ à§Ł
à§Į à¥¤
à¦ĩà¦² à¦¸
à¦¾âĢĶ âĢĺ
Ġà¦¬à¦Ľà¦° à¦ĸ
à¦ªà¦¦ à¦ª
à¦¬à¦¸ à¦¤
à¦¬à¦¶ à¦°
à¦ķà¦ķ à¦¥
à¦·à§Ł à¦Ł
ÂłÂłÂłÂłÂłÂłÂłÂłÂłÂłÂłÂłÂłÂłÂłÂł ÂłÂłÂł
ÂŃ ÂŃ
Ġà§§à§¯à§ª à§Ń
Ð µ
Ñ Ģ
Ġ O
à¦¾ /
à¦² à¦ľà¦²
à¦¬ à¦ĩà¦¯
à¦® à¦°à¦¤
Ġà¦ª à¦ľ
à¦¦ à¦°à¦ķ
à¦Ł à¦ľà¦¨
Ġà¦® à¦ļ
à¦ľ à¦¬à¦¨
Ġà¦¹ à¦īà¦ķ
Ġà¦ı à¦¨à¦ķ
Ġà¦ı à¦¤à¦¬à¦¡
Ġà¦ħ à¦¶à¦¨
Ġà¦ľ à¦®à¦ķ
à¦Ń à¦¤
Ġà¦ī à¦ĩà¦¶
à¦°à¦¬ à¦ŀ
Ġà¦ķà¦¥ à¦¨
Ġà¦¡ à¦ľà¦¨
Ġà¦ĩ à¦¬
à¦²à¦ķ à¦¦
Ġà¦ľà¦² à¦Ľà¦¬
Ġà¦īà¦ª à¦Ĺ
à¦²à¦¬ à¦¶à¦¤
à¦¦à§Ł à¦Ł
à¦ıà¦ķ à¦®
à§įâĢĮ !
à¦°à¦ļ à¦²à¦¨
Ġà¦ħà¦² à¦¸à¦¤
à¦ľà¦¸ à¦ľ
le ct
Ġà§« à§¦
Ġe x
ĠT he
âĢķâĢķ âĢķâĢķ
a in
g e
ã ģ
Ġ --
à¦¨ à¦ķà¦²
à¦² à¦¬à¦°
à¦² à¦®à¦¤
à¦® à¦¬à¦¨
à¦® à¦°à¦¨
à¦® à¦ªà¦¥
Ġà¦¬ à¦°à¦¬
Ġà¦¸ à¦Ĺà¦°
Ġà¦Ĩ à¦ĵà¦¡
à¦¦ à¦ļ
à¦¦ à¦¬à¦°
Ġà¦® à¦ĵà¦²
à¦ĩ à¦ī
à§Ģ :
à¦ľ à¦ļ
à¦¼à§ĩ âĢ¦
à¦ĸ à¦§
Ġà¦¶ à¦°à¦®
Ġà¦ıà¦ķ à¦²à¦¬
Ġà¦Ľ à¦®
à¦ł à¦Ń
Ġà¦ī à¦¤à¦°
Ġà¦ī à¦¸à¦ķ
à¦¾à¦ģ à¥¤âĢĻ
à¦¬à¦¨ à¦ªà¦¥
à¦« à¦²à¦ķ
à¦Ĩ à¦¬à¦°
à¦ı à¦¤à¦ķ
âĢĻ !
Ġà¦ĩ à¦Ń
à¦ĺ à¦Łà¦ķ
à¦ħ à¦Ł
Ġà¦Ĩà¦Ĺ à¦¸
Ġà¦Ĺà¦² à¦¨
à¦¯à¦¬ à¦ĩ
Ġà¦ħà¦Ń à§Ł
à¦°à¦¦ à¦¤
Ġà¦ķà¦® à¦ĩ
Ġà¦®à¦° à¦Ľ
Ġà¦ĵà¦ĩ à¦°à¦ķà¦®
ÂłÂłÂłÂłÂłÂłÂłÂł ÂłÂłÂłÂłÂłÂłÂłÂłÂłÂłÂłÂł
Ġt r
à¦·à§Ł à¦Ĺ
Ġà§¨ à§¨
Ġà§¨ à§ª
à§ĩâĢĻ ,
Ġw as
à¦¯à¦¶ à¦¸
Ġà¦Ĩà¦« à¦ľ
el f
Ġà§§à§¦ à§¦
Ð¾ Ð
h ing
u st
à¦¤ à¦¤à¦®
à¦ķ à¦¸à¦®
à¦ķ à¦¢
à§ĭ à¦ĥ
Ġà¦¬ à¦ĩà¦²
à¦¸ à¦¨à¦¬
Ġà¦ª à§Ł
à¦¦ à¦¡
à¦Ł à¦ľ
Ġà¦¨ à¦²à¦ķ
Ġà¦¨ à¦¨à¦¦
à¦ĩ à¦¸à¦²
à¦Ľ à¦²à¦¤
Ġà¦ı à¦°à¦®à¦§
à¦¶ à¦°à¦ķ
Ġà¦ħ à¦¤à¦°
à¦ĸ à¦ľ
à¦Ĺ à¦¶
à¦¡ à¦¤
à¦ļ à¦£
à¦£ à¦Ńà¦°
à¦¥ à¦¦
Ġà¦¶ à¦°à¦¦
à¦Ń à¦Ĺà¦¬
Ġà¦ªà¦° à¦ĸ
à¦¬à¦¨ à¦ĵ
à¦¬à¦¨ à¦ļà¦ķ
à¦¼à¦¿ !
à¦ı à¦°à¦ķà¦®
à¦¬à¦° à¦ĵ
Ġà¦¬à¦²à¦² à¦¦
Ġà¦Ŀ à¦²
à¦ĥ -
à¦¦à¦° à¦¦
à¦®à¦¤ à¦²
à¦°à¦¹ à¦¨
à¦°à¦¹ à¦¸à¦¨
à¦®à¦² à¦¬
à¦§à¦¨ à¦¸à¦Ļ
Ġà¦¸à¦¹ à¦¬
Ġà¦¬à¦ĩ à¦¬
à§ģà¦ĥ à¥¤
à§Łà¦¨ à¦¯
à¦¬à¦¬ à¦Ļ
Ġ( âĢĺ
Ġà¦¸à¦®à§Ł à¦Ł
Ġà¦¬à§ľ à¦¦
Ġà¦§à¦¨ à¦ŀ
Ġà¦Ĭ à¦¨
Ġc om
Ġà¦ıà¦ķà¦ª à¦²à¦ķ
Ġà¦Ńà¦Ĺ à¦¬à¦¤
Ġw ith
Ġà¦ªà¦°à¦ªà¦° à¦ĩ
Ġit s
! )
i a
Ġ F
Ġ __
à¦° à¦ªà¦¨
à¦° à¦ļà¦°
à¦¨ à¦ĵà¦¯
à¦¨ à¦Ĺà¦¤
à¦¨ à¦°à¦ķà¦®
à¦¬ à¦ªà¦°
à¦® à¦ł
à¦® à¦¬à¦²
à¦® à¦¤à¦¨
Ġà¦¸ à¦ļà¦ķ
à¦¸ à¦°à¦¤
à¦Ł à¦°à¦Ĺ
Ġà¦¦ à¦ªà¦¦à¦ª
Ġà¦ı à¦¨à¦°
âĢ ¢
à¦¡ à¦ĵ
Ġà¦¯ à¦®à¦ľ
à¦¹ à¦°à¦ķ
à¦£ à¦ķà¦°
à¦£ à¦¸à¦®
Ġà¦ľ à¦Łà¦²
Ġà¦Ń à¦¨
Ġà¦Ń à¦°à¦£
Ġà¦² à¦ĩà§Ł
Ġà¦ĸ à¦Łà¦ķ
Ġà¦®à¦¨ à¦ĵ
à¦¤à¦° à¦¦
à¦« à¦ª
Ġà¦Ĩà¦² à¦¬
Ġà¦¸à¦¬ à¦ķà¦Ł
Ġà¦Ł à¦Ļ
Ġà¦ľà¦¨ à¦¶
à§ģà¦ģ ,
Ġà¦Ĺà¦² à¦Ľ
Ġà¦ĵà¦ł à¦¬
Ġà¦īà¦¦ à¦°
à¦°à¦¹ à¦°à¦Ĺ
Ġà¦īà¦ª à¦®à¦¹
Ġà¦ħà¦ª à¦ļà§Ł
Ġà¦īà§İ à¦«
à¦¦à§Ł à¦¸
à¦ħà¦¨ à¦²
à¦¬à¦ķ à¦ķ
à¦¬à¦ķ à¦¥
Ġà¦Ĩà¦¦ à¦®
Ġà¦¸à¦¹à¦ľ à¦Ń
à¦¼- -
en ce
Ġà§§à§© à§§à§Ń
' '
h ar
m ent
Ġ r
à¦¾ .
à¦¨ à¦¥
à¦¤ à¦°à¦¤
à¦¤ à¦ļà¦ķ
à¦² à¦ŀ
à¦¯ à¦¯à¦¨
à¦® à¦²à¦ķ
à¥¤ (
à¦¸ à¦¶
Ġà¦Ĩ à¦ĩà¦ľ
Ġà¦¨ à¦¬à¦¨
à¦ľ à¦²à¦¬
à¦¶ à¦®à¦¯
à¦· à¦²
à¦· à¦¸à¦¦
à¦§ à¦ļà¦¨
à§Ł à¦¤à¦®
à¦£ à¦¬à¦¦
à¦ł à¦Ĺ
à¦ł à¦Ĺà¦¡
Ġà¦¥ à¦ķ
à¦°à¦£ à¦®
à¦ŀ à¦ķ
à¦¤à¦° à¦ľ
à¦ī à¦¦à¦¯
à¦ı à¦®à¦¨à¦ĩ
Ġà¦¸à¦¬ à¦°à¦ķà¦®
Ġà¦ħà¦¸ à¦¹à¦¨
à¦²à¦ķ à¦ķ
Ġà¦ħà¦Ń à¦¦
à¦¿à¦Ĥ âĢĶ
à¦ļà¦¨ à¦ķ
à¦°à¦¦ à§Ł
à¦ĩà¦¨ à¦ķ
à¦ĩà¦¨ à¦®
Ġà¦¤à¦¤ à¦ĸ
à§¦ à§«
Ġà¦Ĩà¦ĩà¦¨ à¦ľ
Ġs e
ou ld
Ġin d
Ġwh ich
Ġà¦¤à§İà¦ª à¦°à¦¤
o st
Ġ K
Ġ all
à¦¾ à¥¥
à§ĩ à§ĩ
à¦¨ à¦ķà¦°
à¦¤ à¦¤à¦¨
à¦¤ à¦¦à¦¨
à¦ķ à¦ªà¦ķ
à¦¯ à¦Ĺà¦£
à§ģ à§ģ
à§ģ ?âĢĿ
à¦¬ à¦ļà¦ķ
Ġà¦¸ à§İà¦ķ
à¥¤ âĢ¦
à¦¸ à¦ķà¦°
Ġà¦Ĩ à¦Łà¦ª
à¦Ł à¦°à¦¶
à¦Ł à¦Ĩà¦ª
Ġà¦® à¦Ĺà¦¨
Ġà¦® à¦²à¦®
Ġà¦® à¦²à¦¯
Ġà¦¹ à¦¡
Ġà¦¤ à¦°à¦¤à¦°
Ġà¦¤ à§İà¦ªà¦°
à¦¶ à¦®à¦¨
à¦ļ à¦²à¦¨
à§Ł à¦ªà¦°
à¦£ à¦²
à¦¥ à¦ªà¦¤
Ġà¦¶ à§Łà¦¤
Ġà¦ľ à¦¤
Ġà¦ıà¦ķ à¦®à¦¨
Ġà¦ıà¦ķ à¦ķà¦¥
à¦ł à¦®
Ġà¦ī à¦¶
Ġà¦ĵ à¦°à¦ĩ
à¦°à¦¤ à¦¤
Ġà¦ħà¦¨ à¦¤
à¦ı à¦Ĩà¦ĩ
Ġà¦Ł à¦²à¦¤
Ġà¦ĩ à¦®à¦°
à¦ħ à¦²à¦¸
Ġà¦Ĩà¦¶ à¦«
à¦®à¦¤ à¦®
à¦°à¦¹ à¦¶
Ġà¦ķà¦¬ à¦ļ
Ġà¦¨à§Ł à¦¤
Ġà¦ħà¦Ĺ à¦Ń
à¦ľà¦² à¦°
à¦¸à¦ķ à¦¦
Ġà¦¦à¦² à¦¬à¦²
Ġà¦ĭ à¦ķ
à§¨ à§«
Ġà§§à§¯ à§©
Ġà¦¹à¦ĩ à¦¹à¦ĩ
Ġà¦īà§ľ à¦Ľ
Ġà¦¹à¦¨ à¦¹à¦¨
is ha
ĠĠ ĠĠčĊč
Ġp ro
1 0
i e
t h
Ñ ģ
Ø ±
à¦¾ âĢĮ
à¦¯ à¦ªà¦¨
à¦¯ à¦Łà¦¨
à§ģ ?âĢĻ
à¦® à¦¦à¦°
Ġà¦Ĩ à¦ī
Ġà¦¨ à¦Ĺà¦£
Ġà¦® à¦°à¦¦
à¦ľ à¦®à¦£
à¦ľ à¦§à¦°
Ġà¦¤ à¦Ľà¦¨
Ġà¦¤ à¦¨à¦¯
Ġà¦ħ à¦¹à¦°
à¦§ à¦§à¦°
à¦ļ à¦¦à¦¶
à¦¹ à¦¬à¦¨
à¦¹ à¦¨à¦ķ
à¦¹ à¦®à§Ł
à¦Ń à¦§
à¦Ń à¦°à¦¸
à¦ł à¦ķà¦¦
Ġà¦ī à¦Ł
Ġà¦Ĩà¦° à¦¨
Ġà¦¸à¦® à¦®
à¦¬à¦¨ à¦ª
à¦¬à¦¨ à¦Ńà¦°
à§ľ à¦Ŀ
Ġà¦ĺ à¦Łà¦ķ
à¦ŀ à¦§à¦°
à§İ à¦¬
à¦Ĩ à¦·
à¦Ĩ à§ľ
Ġà¦¬à¦²à¦² à¦¹
Ġà¦ªà¦¥ à¦Ń
à¦¸à¦¬ à¦®
Ġà¦ħà¦¤ à¦¸
Ġà¦ľà¦® à¦¬
à¦°à¦ª à¦Ł
à¦ªà¦ķ à¦Ń
à¦ľà¦² à¦§
à¦¾à¦ģ, âĢĿ
à¦¬à¦ĩ à§Ł
Ġà¦¸à§İ à¦¤
Ġs p
Ġs u
or d
Ġm y
ou s
Ġin t
à§ĩà§Ĺ à¦ģ
Ġà¦Ķà¦°à¦¸ à¦ľ
Ġà¦§à§ľ à¦«à§ľ
Ġà¦¥à¦¤ à¦®à¦¤
Ġà¦¤à¦Ľà¦¨ à¦Ľ
à ª
à¦¨ à¦ľà¦²
à¦² à¦ªà¦¦
à¦¼ à¦ĥà¥¤
à¦® à¦¸à¦¨
à¦® à¦¶à¦²
à¦® à¦ĺà¦Ł
Ġà¦ķ à¦ŀ
Ġà¦¸ à¦ĩà¦¬
à¦¸ à¦ľà¦¨
à¦¸ à¦¹à¦¯
à¦¦ à¦ĺ
à¦¦ à¦¹à¦¨
Ġà¦¨ à¦¶
à¦ĩ à¦Ļ
à¦ľ à¦ĺ
Ġà¦¤ à¦¹à¦¬
Ġà¦ħ à¦¤à¦¨
à¦¡ à¦ķà¦°
à§Ł à¦Ł
à¦£ à¦£
Ġà¦ıà¦ķ à¦ĺà¦£
Ġà¦ĺ à¦°à¦ķ
Ġà¦ıà¦ĩ à¦ļ
à¦®à¦¨ à¦Ń
à¦Ŀ à¦®
à¦ŀ à¦¸
à¦ī à¦ĩà¦¯
à¦ī à¦Ńà§Ł
Ġà¦Ĩà¦² à¦¨
à¦Ĩ à§Łà¦¨
à¦°à¦¬ à¦Ń
à¦ı à¦ª
Ġà¦¬à¦²à¦² à¦°
Ġà¦ĩ à¦¸à¦°
à¦·à¦£ à¦Ł
à¦ĥ !
Ġà¦ªà¦¥ à¦ĵ
à¦ķà¦° à¦Ł
à¦ķà¦° à¦Ń
Ġà¦ľà¦² à¦Ń
à¦Ĺà¦² à¦¦
à¦¹à¦¸ à¦ĩ
à¦®à¦² à¦Ĺ
à¦°à¦ľ à¦²
à¦ļà¦² à¦Ł
à¦ĩà¦¨ à¦«
à¦ıà¦ķ à¦ĸ
à¦ıà¦ķ à¦¦à¦®
à¦°à¦®à¦£ à¦ª
à§¨ à§¨
Ġà¦Ĩà¦ª à¦²
à§ĩ?âĢĿ âĢĶ
Ġà¦¦à¦® à¦¦à¦®
à¦¥à¦² à¦ľ
à§ª à§«
Ġà¦Ĩà¦ĩà¦¨ à¦ķ
Ġthe y
Ġa b
Ġp H
Ġf rom
ig ht
**** ****
Ġà¦¨à¦¬à¦¬ à¦§
Ġ ì
à¦¾ à¦¾
à¦² à¦Ńà¦°
à§ģ !âĢĻ
Ġà¦¬ à¦ļ
Ġà¦¸ à¦¶à¦¬
Ġà¦Ĩ à¦¤à¦°
à¦ª à¦§
à¦¶ à¦ļà¦¨
Ġà¦ħ à¦ķà¦°
à¦¡ à¦ĩ
Ġà¦Ĺ à¦¤à¦¬
Ġà¦¶ à¦¬à¦°
Ġà¦ļ à¦¯
Ġà¦ļ à¦·
Ġà¦Ĩà¦® à¦²à¦ķ
Ġà¦ĵ à¦¤à¦ª
Ġà¦ħà¦¨ à¦Łà¦¨
à¦¬à¦¨ à¦Ĺ
à¦¼à¦¿ âĢĵ
Ġà¦ķà¦°à¦¤ à¦²
à¦°à¦® à§Ł
à¦¨à¦¤ à¦¨
à¦¨à¦¤ à¦¤
Ġà¦¬à¦¨ à¦ľ
Ġà¦¨à¦¤ à¦ľ
Ġà¦ªà¦¥ à¦Ĺ
Ġà¦Ĺà¦² à¦Ĺà¦²
à¦ķà¦Ł à¦¬à¦°
à¦§à¦ķ à¦ķ
à¦°à¦¹ à¦¬
à¦²à¦¨ à¦ĩ
à¦§à¦¨ à¦Ĺ
Ġà¦ķà¦² à¦°
à¦¸à¦® à¦Ĺ
Ġà¦ħà¦ľ à¦Ĺà¦°
Ġà¦ªà¦¦ à¦¸
à¦¤à¦® à¦¶
à¦°à¦Ĺ à¦®
à§¨ à§§
à§¨ à§Ń
à¦¨à¦Ń à¦Ļ
à¤ ¹
à¦¦à¦Ĺ à¦¦
à¦¿âĢĻ âĢĶ
à¦¬à¦Ł à¦Ĺ
on g
à¦¬à¦ľà¦¨ à¦¦
Ġà¦Ĭ à¦¨à¦¬
Ġà§¨ à§«
it ion
ou r
à¦Ĺà¦ł à¦¨à¦Ĺ
à¦Ĺà¦ª à§İ
Ġà§§ à§§
Ġà¦¸à¦«à¦Ł à¦ĵà§Ł
, âĢĵ
o ve
Ġ al
à¦¨ à¦®à¦Ĺ
à¦² à¦ļà¦°
à¦ķ à¦¤à¦¬
à¦¯ à¦Ĺà¦¨
à§ģ âĢĿ
à¦¬ à¦ļà¦°
Ġà¦ķ à¦¸à¦®
Ġà¦¸ à¦ķà¦°
à¥ ģ
à¦Ł à¦ķà¦Ł
Ġà¦® à¦ľà¦¨
à¦ª à¦®à¦¯
Ġà¦¦ à¦¶à¦¬
Ġà¦¹ à¦°à¦¤
Ġà¦ħ à¦¹à¦®
à¦Ĺ à¦§
à¦Ĺ à¦°à¦¦
à¦· à¦§à¦°
à¦§ à¦®à¦¯
à¦§ à¦¶à¦¤
à§Ł à¦¹
à§Ł à¦ĵ
à¦Ń à¦¶
Ġà¦ĵ à¦Ŀ
Ġà¦¥ à¦ĩ
Ġà¦¬à¦² à§Ł
à¦¾à¥¤ âĢĺ
à§ľ à¦¯à¦¨
à¦¤à¦° à¦¯
à¦¤à¦° à¦¬à¦Ļ
à¦ī à¦¥
à§İ à¦ľ
Ġà¦¸à¦¬ à¦¦
Ġà¦Ł à¦ªà¦Łà¦ª
à¦ĺ à¦ľ
Ġà¦§à¦° à¦®
à¦¬à¦² à¦ķ
Ġà¦ıà¦¬ à¦¡
à¦°à¦® à¦ª
à¦°à¦® à¦ĩ
à¦ķà¦² à¦¸
à¦²à¦ķ à¦ļ
à¦°à¦¸ à¦¤
Ġà¦ľà¦² à¦ĵ
à¦²à¦¨ à¦¸
à¦ļà¦² à¦®
Ġà¦ķà¦® à¦ªà¦ķ
à§ģâĢĻ -
Ġà¦īà¦ªà¦° à¦ĩ
à§° à¦¯
à¦īà¦² à¦°
Ġà§§à§ ¬
à¤ ¯
an s
Ġà¦ķà§Ł à¦²
à¦ıà¦¸ à¦¸
Ġà¦°à¦® à¦°à¦®
à¦ĩà¦ľà¦¨ à¦ĩ
ic al
ct ion
Ġà¦ķà¦ļà¦ķ à¦ļ
Ġà¦¬à¦Ľ à¦°à¦ĩ
a p
i b
i z
k h
r y
r it
u al
Ð »
Ù Ĩ
à¦° à¦Ĺà¦²
à¦¤ à¦£
à¦¤ à¦ļà¦¨
à¦¤ à¦®à¦ķ
à¦² à¦¤à¦°
à¦ķ à¦¤à¦¨
à¦® à¦°à¦®
Ġà¦ķ à¦·à¦¤
Ġà¦ķ à¦¤à¦°à¦ķà¦®
Ġà¦¸ à¦¶
Ġà¦¸ à¦ĵà¦¦
Ġà¦Ĩ à¦ĵ
à¦¦ à¦Ļ
à¦¦ à¦«
à¦Ł à¦°à¦¸
Ġà¦¨ à¦ļ
Ġà¦® à§Łà¦¨
à¦ª à¦¬à¦°
Ġà¦¤ à¦²à¦¬
à¦Ĺ à¦®à¦¯
à¦¡ à¦ĵà¦¯
à¦¹ à¦ĸ
Ġà¦ķà¦° à¦®
à§Ł à¦£à¦¤
Ġà¦Ĺ à¦¦à¦Ĺà¦¦
à¦£ à¦ľ
à¦Ń à¦²à¦¬
Ġà¦ıà¦ķ à¦¤à¦°à¦«
à¦¼à¦¾ à¥¤âĢĻ
Ġà¦ī à¦¯
Ġà¦ĵ à¦¥
Ġà¦« à§ľ
Ġà¦ªà¦° à¦®à¦¹
à¦ŀ à¦¦
à¦ŀ à¦¬à¦²
à¦ī à§İà¦ª
Ġà¦Ĩà¦² à¦Ļ
à¦Ĩ à¦ĺ
Ġà¦¬à¦²à¦² à¦ª
à§Ī à¥¤
Ġà¦ĩ à¦¸à¦®
ĠâĢĺ âĢĺ
à¦°à¦® à¦¥à¦°
Ġà¦ľà¦² à¦¢
Ġà¦ľà¦² à¦Ľà¦Ł
à¦°à¦¶ à¦®
Ġà¦ħà¦ª à¦Ł
Ġà¦ħà¦ª à¦ķà¦°
à¦ıà¦ĩ à¦°à¦ķà¦®
Ġà¦Ĳ à¦¸à¦¬
Ġà¦īà§İ à¦ķà¦Ł
Ġà¦ħà¦Ĺ à¦£à¦¨
à¦ıà¦ķ à¦ķ
à¦ıà¦ķ à¦¥
Ġà¦¶à¦¹à¦° à¦Ĺ
à§İà¦ķ à¦®
Ġà¦ĵà¦ĩ à¦¸à¦¬
à¦ķà¦¦ à¦®
à§Ģ- -
Ġà¦Ī à¦ª
Ġà¦¶à¦¹ à¦°à¦¬
à¦¬à¦¹ à¦®
,âĢĿ âĢĶ
Ġà¦· à¦£
à¦¾âĢĿ âĢĵ
Ġà¦°à¦¤à¦¨ à¦ķ
Ġà¦ľà¦Ĺà§İ à¦Ł
ou g
Ġà¦®à¦¦à¦¨ à¦ķ
res s
b ut
c on
Ġ +
Ġ 1
Ġ j
à¦° à¦Ĺà¦°
à¦¨ à¦ĩà¦²
à¦² à¦ķà¦²
à¦² à¦ľà§Ł
à¦¼ à§įâĢĮ
Ġà¦¬ à¦ª
Ġà¦¬ à¦Ń
à¦¦ à¦¨à¦¬
à¦¦ à¦®à¦¤
Ġà¦¨ à¦¬à¦¸
à¦ª à¦¬à¦¨
à¦ª à¦Łà¦²
à§Ģ !âĢĿ
à¦Ľ à¦²à¦Ľà¦²
Ġà¦ħ à¦¢
à¦· à¦°à¦¹
à¦¡ à¦¦
à¦£ à¦¤à¦°
Ġà¦° à¦®à¦¨
Ġà¦° à¦ĩà¦¬
à§ĩ, âĢĶ
à¦¬à¦¨ à¦¶
Ġà¦ĺ à¦¨à¦¤
à¦ī à¦Łà¦°
à¦Ĩ à¦°à¦£
à¦Ĩ à¦²à¦¤
à¦°à¦¬ à¦²à¦Ń
à¦°à¦ķ à¦¦
âĢĻ !âĢĿ
à§Ī à¦ĥà¥¤
Ġà¦ĩ à¦Ĺ
à¦°à¦® à¦¸
à¦·à¦£ à¦¤
à¦·à¦£ à¦Ń
à¦¨à¦¤ à¦¤à¦°
à¦¤à¦¨ à¦ĵ
à¦ħ à¦¬à¦¹
à¦²à¦ķ à¦Ń
Ġà¦Ĩà¦ªà¦¨ à¦®à¦¨
à¦ķà¦¤ à¦Ł
à¦¯à¦ķ à¦¥
à¦°à¦¯ à¦¨
à¦¬à¦¤ à¦¶
Ġà¦¸à¦¹ à¦¨
Ġà¦¸à¦¹ à¦¦
à¦¸à¦¨ à¦¯à¦¨
à¦Ńà¦¬ à¦ķ
Ġà¦ªà§ľ à¦¨
Ġà¦Ĳ à¦¦
Ġà¦Ĳ à¦Ł
Ġà¦Ĳ à¦°à¦ķà¦®
Ġà¦°à¦Ļ à¦Ł
à¦ªà¦¥ à¦¹
à¦ıà¦ķ à¦ľ
à¦®à¦£ à¦Ĺ
Ġà¦Ĩà¦§ à¦Ł
à§ĩâĢĵ âĢĻ
Ġà¦¦à¦¶ à¦¦
à§¨ à§ª
Ġà¦¦à¦° à¦ĸ
Ġà¦°à¦¸ à¦¸
à§« à§¬
à¤ Ĥ
an g
Ġà¦· à§ľà¦¯à¦¨
Ġà¦¸à§İ à¦Ń
à§Ģ! âĢĻ
or y
Ġb ut
à¦¿âĢĿ âĢĶ
ing s
Ġà¤ ¸
ĠB o
os s
if e
Ġà¦ļà¦Łà¦ķ à¦¦
æŃĵæŃĵæŃĵæŃĵ æŃĵæŃĵæŃĵæŃĵ
a ch
Å ĵ
Ð ½
à¦¿ ...
à¦¤ à¦®à¦£
à¦² à¦£
à¦² à¦ĺà¦°
à¦ķ à¦¸à¦¬
à¦¯ à¦¤à¦¨
à¦¯ à¦Ńà¦°
Ġà¦ķ à¦ĩà¦¤
Ġà¦¸ à¦ªà¦¤
à¦¸ à¦®à¦¨
Ġà¦ª à¦¸
Ġà¦ª à¦¸à¦°
à¦Ł à¦§à¦°
à¦ª à¦²à¦¬
à¦ľ à¦ªà¦¤
Ġà¦¤ à¦¯
à¦ĸ à¦¢
à¦Ĺ à¦°à¦ķ
à¦Ĺ à¦¹à¦¨
à¦Ĺ à¦«à¦²
à¦§ à¦ªà¦°
à¦§ à¦¨à¦ĵ
à¦§ à¦¬à¦¤
à¦¹ à¦ļ
Ġà¦° à¦ĩ
Ġà¦ıà¦ķ à¦§
à¦¼à¦¾ âĢ¦
Ġà¦² à¦ĩ
Ġà¦ĵ à¦§
Ġà¦« à¦ĸà¦°
à¦°à¦¤ à¦Ń
Ġà¦§ à¦®
à¦¬à¦¨ à¦°
à¦¬à¦¨ à¦ľ
à¦¬à¦¨ à¦¡
à§ľ à¦Ĺ
à¦Ŀ à¦¬à¦¯
à¦ī à¦¨à¦²
à§İ à¦¶
à¦Ĩ à¦ªà¦¦
à¦Ĩ à¦¬à¦Ľ
Ġà¦¬à¦²à¦² à¦¸
Ġà¦¬à¦²à¦² à¦Ĩà¦ªà¦¨
Ġà¦¹à¦² à¦ĺà¦°
à§ģà¦ģ à¥¤âĢĻ
Ġà¦Ĩà¦ľ à¦®
à¦ħ à¦²à¦ķ
à¦ķà¦Ł à¦°
à¦°à¦¨ à¦Ĺà¦°
Ġà¦Ĩà¦¶ à¦¯
Ġà¦ħà¦¤ à¦²à¦¸
Ġà¦®à¦¹ à¦®
Ġà¦¸à¦° à¦·
Ġà¦ıà¦¤ à¦¸à¦¬
Ġà¦ĵà¦° à¦«
à¦ªà¦ķ à¦ķ
à¦¤à¦¤ à¦¤
à¦¸à¦« à¦²à¦¤
Ġà¦¦à¦² à¦Ĺ
à¦¼à¦¾, âĢĿ
Ġà¦¸à¦®à§Ł à¦ķ
Ġà¦ıà¦ķà¦ĩ à¦°à¦ķà¦®
à§ĭâĢĶ âĢĺ
Ġà¦§à¦¨ à¦Ń
Ġà¦°à¦ĵà¦¶à¦¨ à¦¦
Ġà¦¸à¦°à¦² à¦Ń
Ġà¦ªà¦°à¦¶ à¦®à¦£
Ġà¦ıà¦°à¦ķà¦® à¦ĩ
à§¬ à§¦
à¦¿?âĢĿ âĢĶ
à¦¨à¦ľà¦¨ à¦ĩ
à¦Ĳ à¦¶
Ġà¦ıà¦ķà¦¦à¦® à¦ĩ
Ġà¦Ĺà¦ľ à¦Ĺà¦ľ
Ġà¦¤à¦ªà¦¨ à¦¬
Ġc an
Ġc ol
à¦ķà¦ĵ à¦¦
à¦Ī à¦¦
à§§à§¯ à§Ń
ĠR e
Ġà¦Ľà§Ł à¦Ł
Ġà¦¹à¦ľ à¦°à¦¤
isha kh
i es
Ù Ħ
Ġ U
Ġ V
Ġ à§·
Ġ im
à¦¨ à¦°à¦ķ
à¦¤ à¦ªà¦¥
à¦ķ à¦¨à¦ķ
à¦ķ à¦ªà¦Ł
à¦¯ à§İà¦ķ
à¦¬ à¦Ĺà¦£
à¦® à¦ľà¦¨
à¦® à¦Ĺà¦¨
à¦® à¦ĺà¦°
à¦® à§İà¦¸
à§ĭ âĢĿà¥¤
Ġà¦¸ à¦¸à¦®
à¦¸ à¦ľà¦²
Ġà¦ª à¦Łà¦ķ
Ġà¦Ĩ à¦ĸà¦°
à¦¦ à¦ĺà¦¨
à¦Ľ à¦ĵ
Ġà¦¦ à¦²à¦ķ
Ġà¦¹ à¦ª
Ġà¦¤ à¦°à¦¤
Ġà¦¤ à§İà¦¸
Ġà¦ı à¦¥
à¦¶ à¦®à¦¤
Ġà¦ħ à¦ľà¦¨
à¦§ à¦¡
à§Ł à¦¶
à¦£ à§Ł
à¦£ à¦ķà¦²
à¦ĵ à¦ľ
à¦Ń à¦ľà¦¨à¦ķ
à§ĩ, âĢĵ
Ġà¦ĸ à¦ĩ
Ġà¦ĸ à¦°à¦¸
Ġà¦ħà¦¨ à¦Ĺ
à¦¬à¦¨ à¦Ń
à¦¬à¦¨ à¦²à¦¤
Ġà¦ıà¦ĩ à¦°
Ġà¦ıà¦ĩ à¦Ĺ
à§İ à¦¸à¦¨
à¦Ĩ à¦¸à¦¤
à¦ı à¦¨à¦ľ
âĢĿ !
à¦¬à¦° à¦¨
à¦¬à¦° à¦·
Ġà¦¡ à¦²à¦«
Ġà¦Ĩà¦¬ à¦¹à¦®
Ġà¦ħà¦¸ à¦¤à¦¤
à¦¯à¦¬ à¦ĩà§Ł
à¦¨à¦¬ à¦ļ
Ġà¦¶à¦¬ à¦¦
à¦ļà¦¨ à¦ľà¦Ļ
Ġà¦Ńà¦° à¦Ľ
Ġà¦ķà¦® à¦°
à¦°à¦Ń à¦Ļ
à¦°à¦ĵ à¦¶à¦¨
Ġà¦ĩà¦¨ à¦¡
à¦ľà¦² à¦ª
à§° à¦ľ
Ġà¦¶à¦¤ à¦¶
à§¨ à§®
Ġà¦Ĺà¦£ à¦ľ
Ġà¦¬à¦ī à¦ł
Ġà¦ªà¦¶ à¦®
à¦¬à¦¹ à¦£
à§ĩâĢ¦ à¥¤
Ġà¦ľà§Ł à¦¯
à¦®à¦¦ à¦ķ
à§ª à§¨
à§ª à§Ń
Ġà¦ļà¦Ł à¦ľà¦²à¦¦
it er
Ġà¦°à¦¥ à¦¯
Ġà¦¬à¦¶ à¦¬à¦°
ou nt
Ġh as
à§°à¦¹ à¦£
Ġà¦ľà¦¬à¦° à¦¦à¦¸
lect ive
ĠBo ishakh
! '
. âĢĻ
a ct
o he
y a
Ġ ×
à¦ Ķ
à¦¨ à¦°à¦¤
à¦¨ à¦Ŀ
à¦¨ à¦¡à¦°
à¦ķ à¦Ŀ
à¦¬ à¦¤à¦°
à¦¼ à§Ī
à¦¸ à¦ªà¦¨
Ġà¦Ĩ à¦Łà¦²
Ġà¦Ĩ à¦ĩà¦°
à¦¦ à¦¬à¦ª
à¦¦ à¦¸à¦®
Ġà¦¨ à¦¬à¦ª
Ġà¦® à¦°à¦¸
Ġà¦® à¦°à¦¶
à¦ª à¦ļà¦°
à¦ĩ à¦ªà¦°
à§Ģ âĢ¦
à¦ľ à¦Ńà¦¬à¦¨
Ġà¦¹ à¦°à¦²
Ġà¦¤ à¦ķà¦®
à¦¼à§ĩ :
à¦ĸ à¦°à¦¤
à¦Ĺ à¦°à¦¬
à¦· à¦¤à¦²
à¦¡ à¦²à¦ķ
à¦£ à¦ł
à¦£ à¦®à¦¨
Ġà¦¶ à¦¤à¦°
à¦¼à¦¾ à¥¤âĢĿ
Ġà¦¬à¦² à¦Ł
Ġà¦« à¦¸à¦«
Ġà¦®à¦¨ à¦¨à¦ķ
à¦°à¦£ à¦ªà¦¤
Ġà¦ıà¦ĩ à¦¸à¦®à¦¯
à¦¤à¦° à¦²
à¦¤à¦° à¦¹
à¦ī à¦²à¦ķ
Ġà¦Ĩà¦² à¦ĸ
à¦Ĩ à¦°à¦¤
à¦°à¦ķ à¦°à¦£
à¦¬à¦° à¦¦
Ġà¦¬à¦²à¦² à¦¨
à¦¬à¦² à¦¦
âĢĵ âĢľ
Ġà¦¬à¦¨ à¦«
Ġà¦¬à¦¨ à¦ªà¦¥
Ġà¦ħà¦¸ à¦¦
à¦²à¦ķ à¦ª
à¦°à¦¸ à¦Ĺ
Ġà¦ħà¦¦ à¦ķ
Ġà¦ľà¦² à¦Ńà¦°
à¦²à¦¬ à¦ķ
à¦§à¦¨ à¦Ł
à¦°à¦ľ à¦¤
à¦°à¦¦ à¦²
Ġà¦ħà¦ª à¦ķ
Ġà¦Ĳ à¦ĸ
Ġà¦¬à¦Ľà¦° à¦Ĺ
à¦ªà¦¦ à¦ļ
Ġà¦ħà¦Ĺ à¦¸
à¦·à¦¤ à¦ļ
Ġà¦«à¦² à¦Ł
à¦¿âĢĶ âĢĺ
Ġà¦ĵà¦ĩ à¦ĸ
Ġà¦¶à¦¤ à¦ª
à¦¨à¦¸ à¦ĩ
à¦°à¦®à¦£ à¦ĩ
à§¨ à§¬
à¦ľà¦¬ à¦§
Ġà¦Ĩà¦ª à¦¶
à¦Łà¦® à¦¹à¦²
on e
Ġà¦ľà¦Ĺ à§İà¦ķ
Ġà¦°à¦¹ à¦®à¦¤
ou nd
Ġà¦ķà¦¬à¦° à¦¸
Ġd o
Ġth is
Ġà§ª à§¦
ow n
id e
ci al
ĠĠĠĠĠĠĠĠ ĠĠĠĠĠĠĠĠ
! âĢĵ
1 2
d v
e ar
i al
r u
t er
u b
u e
v en
Ù ħ
Û Į
æ Ĺ
à§ ±
à¦¤ à¦¤à¦ķ
à¦² à¦Ĺà¦¤
à¦² à¦¸à¦®
à¦² à¦ļà¦ķ
à¦ķ à¦Ļ
à¦ķ à¦¸à¦¨
à¦¬ à¦¥
à¦¬ à¦®à¦¨
à¦¬ à¦ķà¦¬
Ġà¦ķ à¦ļà¦²
Ġà¦¸ à¦¶à¦°
à¦¦ à¦ķà¦¤
à¦¦ à¦¶à¦Ł
Ġà¦® à¦Ł
à¦ĩ à¦Ŀ
à¦ĩ à¦īà¦¨
à¦ľ à¦¶à¦ķ
Ġà¦¤ à¦®à¦¸
à¦ĸ à¦°à¦ļ
à¦Ĺ à¦¤à¦°
à¦· à¦Ľ
Ġà¦¯ à¦¸
à¦ļ à¦ķà¦¤
à¦¹ à¦ĵà¦¯
à¦¹ à¦Ńà¦°
Ġà¦Ĺ à¦°à¦²
à¦£ à¦¬à¦¤
à¦¥ à¦¡
Ġà¦¶ à¦¤à¦¬
à¦ĵ à¦Ľ
à¦ĵ à¦Ń
à¦Ń à¦ª
à¦Ń à¦ĩ
à¦Ń à¦ľà¦¨
Ġà¦ıà¦ķ à¦°à¦¤
à¦ł à¦ĸ
Ġà¦« à¦²à¦¬
Ġà¦ħà¦¨ à¦¶à¦¨
Ġà¦ªà¦° à¦Ľ
âĢĶ âĢĿ
Ġà¦®à¦¨ à¦ª
à¦°à¦£ à¦¹
à¦ľà¦¨ à¦¸
à¦ľà¦¨ à¦Ł
à¦ľà¦¨ à¦ķà¦Ń
à¦ī à¦¨à¦Ł
à¦¿, -
Ġà¦¬à¦²à¦² à¦¯
Ġà¦¬à¦²à¦² à¦Ĩà¦®à¦°
à¦ĺ à¦¤à¦°
à§Į -
Ġà¦Ŀ à¦°à¦¬
Ġà¦¬à¦¸ à¦¤à¦¬
à¦¤à¦¨ à¦Ł
Ġà¦¬à¦¨ à¦Ĺ
Ġà¦ªà¦¥ à¦¨
à¦¤à¦¬ à¦¯
à¦Ĺà¦² à¦®à¦¯
à¦¿à¦Ĥ !
à¦Ľà¦¨ à¦¦
à¦¯à¦¤ à¦¤
à¦ķà¦¬ à¦ļ
à¦¿- --
Ġà¦ħà¦ľ à¦°
Ġà¦ĵà¦ªà¦° à¦ĩ
à¦°à¦Ń à¦°
à¦ªà¦¦ à¦ĵ
à¦ıà¦ķ à¦¶
Ġà¦¬à¦ĩ à¦ªà§ľ
à¦ļà¦ķ à¦£
à¦¬à¦ķ à¦£
à¦¹à¦¨ à¦²
Ġà¦¨à¦¬ à¦ļ
Ġà¦ļà¦ķ à¦®à¦ķ
Ġà¦¬à¦ī à§Ł
Ġà¦°à¦¸ à¦¦
à§ĩâĢ¦ âĢĻ
Ġà§§à§¯ à§¦à§«
à¦¨à¦ª à¦ŀ
à¦ľà§Ł à¦ķ
à¦¬à¦ľà¦¨ à¦ª
Ġà¦ĵà¦· à¦§
Ġs om
à§ĩâĢĻ âĢĶ
Ġl ife
ĠI nd
à¦īà¦ª à¦¹
ĠT h
Ġà¦ľà¦¨à¦ªà¦¦ à¦¬
Ġà¦ĸà¦ļ à¦ĸà¦ļ
Ġà¦ıà¦ķà¦Ŀ à¦²à¦ķ
Ġcol lective
ohe la
) âĢĵ
1 6
1 7
c c
u d
Ð ¸
Ù Ī
Ú ©
Ġ ë
à§į âĢĻ
à¦¨ à¦Ĩà¦®
à¦² à¦¨à¦¬
à¦² à¦®à¦°
à¦ķ à¦ķà¦²
à¦¯ à¦®à¦¤
à¦¯ à¦ªà¦¤
à¦¯ à¦ªà¦¦
à¦¬ à¦ĩà¦¨
à§ĭ âĢĻà¥¤
Ġà¦ķ à¦ĩà¦²
Ġà¦¬ à¦ľà¦°
Ġà¦ª à§Łà¦²
Ġà¦Ĩ à¦«à¦Ł
Ġà¦® à¦Łà¦ķ
Ġà¦ı à§Ł
à¦¶ à¦¡
Ġà¦ħ à§Ł
à¦Ĺ à¦°à¦¤
à¦Ĺ à¦¸à¦¨
à¦Ĺ à¦Ńà¦°
à¦§ à¦ľ
à¦§ à¦¸à¦®
à¦§ à¦ľà¦¯
à¦¹ à¦¨à¦¦
à¦£ à¦®à§Ł
Ġà¦Ń à¦¡
Ġà¦° à¦®à¦²
Ġà¦° à¦Łà¦¨
à§ĩà¥¤ âĢ¦
Ġà¦ī à¦Łà¦ķ
Ġà¦ī à¦ľà¦²
Ġà¦ī à¦Ľà¦²
Ġà¦ĵ à¦ľ
Ġà¦ĵ à§ľà¦¨
Ġà¦ĸ à¦Ĺ
Ġà¦ħà¦¨ à§ľ
Ġà¦§ à§°
à¦ī à¦Ń
à¦ī à¦ŀ
Ġà¦Ĩà¦² à¦ª
à¦Ĩ à¦ł
à¦°à¦ķ à¦¯
Ġà¦¬à¦²à¦² à¦¶
Ġà¦ķà¦¥ à¦ŀ
Ġà¦ķà¦¥ à¦ķà¦¤
Ġà¦ĩ à¦¹à¦²
à¦¬à¦² à§Ł
Ġà¦ħà¦¬ à¦Ĺà¦¤
à¦ķà¦² à¦¤
à¦ķà¦² à¦¹
à¦ķà¦² à¦°à¦¬
à¦¤à¦¬ à¦°à¦£
à¦ķà¦¤ à¦¦
à¦¦à¦¨ à¦¦
Ġà¦¬à¦° à¦¯
Ġà¦¸à¦¨ à¦¦
à¦§à¦ķ à¦¦
à¦°à¦¹ à¦ķ
à¦°à¦¹ à¦°à¦£
Ġà¦ĺà¦° à¦¦
à¦¸à¦® à¦°
Ġà¦Ĳ à¦°
à¦¦à§Ł à¦¬
à¦Łà¦² à¦Ĺ
Ġà¦«à¦² à¦®
à§ģ, âĢĿ
à¦ļà¦ķ à¦¦
Ġà¦ĩà¦¨ à¦¶
Ġà¦ľà¦° à¦®à¦¨
Ġà¦¶à¦¹ à¦°à¦ľ
à¤ ®
Ġà¦ľà§Ł à¦¦
à¦²à¦ļ à¦²à¦¨
à¦ľà§Ł à¦Ĺ
on tu
Ġthe re
is e
à¦ıà¦®à¦¨ à¦ķ
Ġs h
Ġw ill
ar y
Ġà¦°à¦£ à¦ľ
Ġd is
Ġh is
Ġà§ª à§«
Ġà¦ļà¦ª à¦²à¦¤
ik e
ab le
æĹ ¥
2 3
2 4
T E
Ġ )
Ġ *
Ġ J
Ġ at
à¦° à¦°à¦ķ
à¦¨ à¦®à¦¸
à¦¤ à¦Ļ
à¦¤ à¦ªà¦¦
à¦¤ à§İà¦ķ
à¦² à¦¹à¦°
à¦® à¦ĵà§Ł
Ġà¦Ĩ à¦ĩà¦ļ
à¦Ł à¦°à¦¬
Ġà¦® à¦ĸ
à¦ª à¦ľà¦¨
à¦ª à¦¸à¦®
à§Ģ âĢĻà¥¤
à§Ģ à¥¥
Ġà¦¦ à¦ĩà§Ł
à¦ľ à¦²à¦ķ
à¦¶ à¦ķà¦²
à¦· à¦°à¦ķ
à¦ļ à¦Ļ
à¦ļ à¦¤à¦®
à¦¹ à¦¤à¦¤
à§Ł à¦ľà¦¨
Ġà¦Ĺ à¦°à¦¬
Ġà¦Ĺ à¦ľà¦²
à¦£ à¦ªà¦¨
à¦£ à¦¤à¦®
Ġà¦¶ à§Łà¦¨
Ġà¦ľ à¦łà¦°
Ġà¦° à¦¦
à¦Ń à¦ªà¦¤
Ġà¦Ľ à¦ª
à¦ł à¦«
à¦ł à¦¤à¦®
Ġà¦² à¦ĩà¦¬
Ġà¦« à¦ľà¦°
Ġà¦ħà¦¨ à¦§
à¦¾à¥¤ "
Ġà¦ªà¦° à¦°
à¦¬à¦¨ à¦ļ
Ġà¦®à¦¨ à¦®à¦°
à¦¿à¥¤ "
à¦Ŀ à¦Ł
à¦ľà¦¨ à¦Ĺ
à¦ŀ à¦°
à¦« à¦²à¦¤
à¦ĺ à¦ª
Ġà¦ľà¦¨ à¦¹
Ġà¦Ŀ à¦Ĺà§ľ
à§ĭà¦ģ -
à¦ħ à¦¬à¦²
Ġà¦ªà¦¥ à¦ķ
à¦ķà¦Ł à¦®à¦¯
à¦¯à¦¬ à¦¶à¦¤
à§ĭ, âĢĻ
à¦²à¦ķ à¦¬
à¦¨à¦¬ à¦¬
Ġà¦ľà¦² à¦¨
Ġà¦ľà¦² à¦ĩ
Ġà¦ľà¦² à¦ªà¦¥
à¦¶à¦¨ à¦ĩ
à¦°à¦¹ à¦¤
Ġà¦ĺà¦° à¦ľ
à¦²à¦¬ à¦£
à¦ĩà¦¨ à¦°
à¦¹à¦² à¦¦
Ġà¦¶à¦° à§İà¦ķ
à¦ªà¦¥ à¦ļ
à¦¨à¦ķ à¦ķ
à¦¤à¦® à§Ł
à§° à¦¬à¦¨
à§° à¦¥à¦®
à¦ªà¦¸ à¦¦
à¦¯à¦° à¦ļà¦¨
Ġà¦ķà¦¨ à¦Ń
à¦Ĩà¦² à¦®
à¦Ĩà¦² à¦¸
Ġà¦Ī à¦Ĺà¦°
à¦¾âĢĻ âĢĵ
Ġà¦īà¦ªà¦¨ à¦¯
à¤ µ
à¤ Ł
à¦·à¦¦ à¦Ĺ
à¦¬à¦Ń à¦Ļ
à¦¸à¦¹ à¦®à¦°
in k
Ġà¦¸à§İ à¦ļ
Ġà¦®à¦¶ à¦Ĺ
Ġà¦Ĩà¦ļà¦°à¦£ à¦¬
Ġà§¨ à§¬
Ġc h
Ġà¦Ŀà¦ķ à¦®à¦ķ
à¦ľà¦¦ à¦£
Ġw or
Ġà¦®à¦Ĺ à¦§à¦°
Ġà¦®à¦¦à¦¨ à¦®
à§ĩâĢĿ âĢĵ
à§§à§¯ à§«à§¨
ĠP ohela
ut h
Ġe ver
Ġà§§à§© à§§à§¬
Ġà¦¸à¦¬à¦¸à¦®à§Ł à¦ĩ
Ġwh o
---- ----
ºçľºçľ ºçľºçľ
âĢĵâĢĵâĢĵâĢĵ âĢĵâĢĵâĢĵâĢĵ
·çľ·çľ ·çľ·çľ
ãģ ®
Ġits elf
Ġà¦¥à¦ķ à¦¥à¦ķ
, âĢĶ
1 5
1 8
1 9
2 0
a f
a u
a w
p l
Ñ ĥ
Ġ à§Ł
Ġ ---
à¦° à¦ħ
à¦° à¦ªà¦¦
à¦¿ à¥¥
à¦¤ à¦ĺ
à¦¤ à¦ĺà¦¡
à¦ķ à¦°à¦ķà¦®
à¦¯ à¦£
à¦¯ à¦°à¦ķ
à¦¬ à§İà¦¸à¦°
Ġà¦¸ à¦ªà¦°
à¥ ĭ
à¥¤ âĢĵ
à¦¸ à¦¤à¦°
Ġà¦Ĩ à¦ĩà¦ķ
Ġà¦® à¦ļà¦ķ
à¦ª à¦ķà¦¤
à¦ľ à¦®à¦¨
Ġà¦¤ à¦Łà¦¸
Ġà¦ħ à¦Ľ
Ġà¦ħ à¦¹à¦²
à¦ĸ à¦Ńà¦°
à¦· à¦ļ
à¦· à¦«
à¦· à¦¸à¦ķ
âĢ ¨
Ġà¦¯ à§İà¦¸
Ġà¦¯ à¦¶à¦¸
à¦ļ à¦ķà¦²
à§Ł à¦ļ
à¦¥ à¦°à¦ķ
Ġà¦¶ à¦ķà¦Ł
Ġà¦¶ à¦®à¦¶
Ġà¦ļ à¦ļ
à¦ĵ à¦¸
à¦ĵ à¦¸à¦¬
à¦Ń à¦°à¦£
à¦Ń à¦¨à¦²
Ġà¦ıà¦ķ à¦ĸà¦£
Ġà¦Ľ à¦²à¦ķ
Ġà¦ī à¦ĩà¦¸
Ġà¦² à¦²à¦¨
Ġà¦² à¦ĩà¦²
Ġà¦ĸ à¦ŀ
Ġà¦ĸ à¦²à¦¨
Ġà¦¸à¦® à¦ľà¦¦
à§ľ à¦¸
à¦¿à¥¤ âĢĺ
Ġà¦Ĩà¦² à¦Ł
à§İ à¦°
à§İ à¦ķà¦°
Ġà¦¸à¦¬ à¦¸
à¦¬à¦° à¦ļ
Ġà¦¹à¦² à¦ķ
Ġà¦¹à¦² à¦«
à¦¬à¦² à¦ª
à¦°à¦® à¦²
à¦ħ à¦¬à¦¤
Ġà¦ħà¦¸ à¦ļ
à¦¨à¦¬ à¦¯
à¦¨à¦¬ à¦ľà¦¨
à¦ķà¦¤ à¦ĩ
à¦Ĩà¦® à¦²
Ġà¦ľà¦² à¦Ł
à¦²à¦¤ à¦®
à¦°à¦¹ à¦Ł
à¦²à¦¨ à¦Ĺ
à¦°à¦¶ à¦®à¦¨
à¦®à¦² à¦Ń
à¦²à¦¬ à¦¦
Ġà¦Ĩà¦¤ à¦¤
Ġà¦¹à¦ł à¦ķ
à¦Ńà¦¬ à¦ĩ
à¦Ńà¦¬ à¦ªà¦°
à¦Ĺà¦° à¦ª
à¦°à¦ĵ à¦°
à¦ªà¦¥ à¦ļà¦²
à¦¼à§ĩà¥¤ âĢĻ
Ġà¦Ĺà¦¨ à¦Ĺà¦¨
à§Ģà¥¤ âĢĻ
à¦¬à¦¸ à¦Ļ
Ġà¦¬à¦ĩ à¦ª
à¦°à¦ķà¦® à¦ĩ
à¦ĺà¦° à¦Ĺ
Ġà¦Ĩà¦¹ à¦®à¦¦
à§¨ à§©
Ġà¦¬à§ľ à¦ĩ
Ġà¦¸à¦Ń à¦¯
Ġà¦Ī à¦®
à§© à§©
he n
Ġà¦®à¦¶ à¦ķà¦°
re d
à¦īà¦¡ à¦¸
is h
à¦¬à§Ł à¦¬
à¦¿âĢĿ âĢĵ
âĢįà§į âĢį
à¦°à¦¬à¦£ à¦¶à¦ķ
et ect
à¦ĩà¦°à¦ķà¦® à¦ĩ
Ġà¦īà¦Ńà§Ł à¦ĩ
us e
ul t
æĹ¥ ãģ®
' à¥¤
1 1
1 3
1 4
2 2
2 5
; âĢĵ
? "
a h
c y
w e
w ay
Ã ©
Ġ #
Ġ le
à§ĩ ),
à¦¨ à¦®à¦£
à¦¤ à¦¬à¦¨
à¦² à¦Ŀà¦°
à¦ķ à¦¬à¦¨
à¦ķ à¦¦à¦°
à¦¯ à¦¸à¦Ļ
à¦¬ à¦ľà¦¯
à¦¼ âĢĿà¥¤
à¦® à¦¹à¦¸
Ġà¦¬ à¦°à¦ķ
à¥ Ĥ
à¥¤ )
à¦¸ à¦¯à¦ľ
à¦ľ à§Łà¦¨
à¦ľ à¦®à¦¹
à¦ľ à¦īà¦¦
Ġà¦¹ à¦Łà¦²
Ġà¦¤ à¦ªà¦¤
Ġà¦ı à¦¤à¦¬
à¦¶ à¦°à¦®
à¦¶ à¦®à¦£
à¦¼à§ĩ âĢĻ
à¦· à¦¡
à¦· à¦®à¦¯
à¦· à¦²à¦§
à¦¹ à¦Ĺà¦¨
Ġà¦ķà¦° à¦®à¦°
Ġà¦Ĺ à§Łà¦¨
à¦ĵ à¦·
à¦ł à¦ĩ
à¦ł à¦ļ
à¦¾à¦ģ âĢ¦
Ġà¦¬à¦² à¦ª
Ġà¦ħà¦¨ à¦®
Ġà¦®à¦¨ à¦Ń
Ġà¦ıà¦ĩ à¦¤
Ġà¦ıà¦ĩ à¦ĩ
à¦ŀ à¦Ń
à¦ªà¦¨ à¦Ł
à§İ à¦ļ
à¦Ĩ à¦ĸ
à¦Ĩ à¦Łà¦ķ
à¦ı à¦¡
Ġà¦¬à¦²à¦² à¦ıà¦ĩ
Ġà¦¡ à¦¨
Ġà¦ĩ à¦£
à¦¬à¦² à¦°
Ġà¦¢ à¦ķ
à¦ħ à¦ļà¦²
à¦ħ à¦ķà¦¸
Ġà¦¨à¦¤ à¦®
Ġà¦ªà¦¥ à¦¶
Ġà¦Ĩà¦Ĺ à¦®
Ġà¦ĵà¦ł à¦¤
à¦ķà¦Ł à¦¤à¦®
Ġà¦Ĩà¦ķ à¦£
à¦°à¦¥à¦® à¦ľà¦¨
à¦¶à¦¨ à¦Ĺ
Ġà¦ĺà¦° à¦Ľ
Ġà¦ĺà¦° à¦ĸ
à¦²à¦¨ à¦ļ
Ġà¦īà¦ª à¦ķà¦¥
Ġà¦īà¦ª à¦ķà¦£
Ġà¦®à¦¹ à¦ķ
Ġà¦¸à¦° à¦Ľ
à¦¨à¦ĵ à¦°
à¦ĩà¦² à¦«à¦²à¦ķ
à¦§à¦¨ à¦®
à¦§à¦¨ à¦¶
à¦ļà¦² à¦Ľ
à¦®à¦ķ à¦Ń
à¦ªà¦¦ à¦ĩ
à§įâĢĮ âĢĮ
à¦ľà¦² à¦¸
Ġà¦ħà¦² à¦°
à¦¸à¦« à¦²
à¦Ĺà¦ľ à¦ĸ
Ġà¦ĸà¦¬à¦° à¦ĵ
Ġà¦¦à¦¶ à¦°à¦¥
à¦®à¦¸ à¦ľ
à¦®à¦¸ à¦ļ
Ġà¦¬à§ľ à¦¬
à¦¥à¦ķ à¦Ń
à§ĩâĢ¦ )
à¦¤à¦¦ à¦¶
Ġà§§à§¯ à§«
he d
à§ª à§¦
re t
Ġà§¨ à§®
à§ĭ?âĢĿ âĢĶ
à¦¶à¦¦ à¦Ń
Ġà¦°à¦¤à¦¨ à¦¬
à§İà¦ª à§°
à¦ľà¦¦ à¦°à¦¬
Ġw e
ar n
ou t
à¦®à¦Ŀ à¦®
ic t
Ġà¦łà¦ķ à¦łà¦ķ
ĠI n
Ġà¦ľà¦¨à¦Ĺà¦£ à¦ķ
ĠA I
Ġe m
os e
Ġà¦¸à¦®à¦Ŀ à¦¦
Ġà¦ķà¦ªà¦Ł à¦¤
à§įâĢį âĢĮ
Ġcon t
Ġà¦ĵà¦²à¦Ł à¦ª
Ø§ Ø
Ġà¦®à¦ļ à¦®à¦ļ
dv ik
Ġà¦®à¦ĸ à¦®à¦²
' ,
, --
- âĢĺ
2 1
3 0
e p
f f
g al
p er
p or
Ġ ĠĠčĊč
Ġ à§¦
Ġ áĥ
à¦¾ ),
à¦¾ )à¥¤
à¦° à¦Ŀà¦°
à¦¿ âĢĮ
à¦¨ à¦ªà¦¨
à¦¤ à¦ªà¦°
à¦¯ à¦¦à¦°
à¦¬ à§İà¦¸
à¦® à¦ªà¦¦
à¦® à¦«à¦²
à§ĭ à§ĩ
Ġà¦ķ à¦ĵà¦¯
Ġà¦ķ à¦ĩà¦¬
Ġà¦¬ à¦īà¦²
Ġà¦¬ à¦ļà¦¸
Ġà¦¸ à¦ĺà¦¨
à¦¸ à¦¬à¦¨
à¦¸ à§ľ
à¦¸ à¦Ńà¦°
Ġà¦Ĩ à¦£à¦¬
à¦Ł à¦¤à¦°
Ġà¦¨ à¦ĵà¦°
Ġà¦® à¦°à¦¨
Ġà¦® à¦Łà¦°
à¦ĩ à¦ļà¦°à¦£
à§Ģ à¦ĥ
Ġà¦¦ à¦¦
Ġà¦¤ à¦ĸ
à¦¶ à¦²à¦¤
à¦ĸ à¦²à¦¨
à¦Ĺ à¦°à¦ľ
à¦§ à¦¬à¦°
à¦ļ à¦ªà¦²
à¦ļ à¦¶à¦®
à¦ļ à¦ĵà¦¡
à¦¹ à¦®à¦¨
Ġà¦Ĺ à¦Ł
à¦£ à¦²à¦¤
Ġà¦¶ à¦¶à¦¬
Ġà¦ľ à¦ľ
Ġà¦Ń à¦°à¦¬
à§ĩà¥¤ )
à¦¼à¦¾ --
à¦ł à¦ĵ
à§Ĥ à¥¤
à¦Ļ à¦Ł
Ġà¦¬à¦² à¦¨
Ġà¦§ à¦²
Ġà¦¸à¦® à¦¦
ĠâĢ Į
à¦¼à¦¿ ;
à¦¼à¦¿ âĢĻ
Ġà¦®à¦¨ à¦ľ
à¦ľà¦¨ à¦¹
à¦ľà¦¨ à¦ªà¦¦à¦¬
à¦ŀ à¦Ĺ
à¦ī à¦¤à¦°
à¦ī à¦ªà¦ķ
à¦Ĩ à¦°à¦ķ
à¦°à¦¬ à¦ļà¦¨
à¦°à¦ķ à¦¥
Ġà¦¡ à¦Ł
Ġà¦®à¦¤ à¦Ń
Ġà¦Ŀ à¦®
à¦°à¦® à¦®
à¦·à¦£ à¦ª
à¦·à¦£ à¦¹
à¦ħ à¦£
à¦ħ à¦¬à¦°
Ġà¦ªà¦¥ à¦°
à¦ķà¦Ł à¦®
Ġà¦ħà¦¸ à¦®à¦¤
à¦¨à¦¬ à¦®
à¦¦à¦¨ à¦®
Ġà¦¹à¦¤ à¦ļà¦ķ
Ġà¦Ĩà¦¨ à¦¸
Ġà¦ľà¦² à¦®
à¦Ĺà¦² à¦¸
à¦Ĺà¦² à¦Ĺ
Ġà¦īà¦ª à¦¶à¦®
Ġà¦¸à¦° à¦¦
à¦°à¦² à¦®
à¦ļà¦² à¦Ĺ
Ġà¦¸à¦¹ à¦§à¦°
Ġà¦Ĩà¦¤ à¦¶à¦¬
à§Ģ, âĢĿ
Ġà¦Ĳ à¦¹
à¦¤à¦² à¦Ĺ
Ġà¦ħà¦Ĺ à¦®
Ġà¦ıà¦° à¦ļ
à¦¬à¦¦ à¦°à¦¬
Ġà¦ĵà¦ĩ à¦Ń
à¦ļà¦ķ à¦ļà¦ķ
Ġà¦ıà¦ķà¦ľà¦¨ à¦ĩ
Ġà¦Ńà¦¬ à¦ĺ
à§° à¦¦
à§° à¦Ń
Ġà¦¤à¦² à¦ª
à¦¥à¦¨ à¦¯
à¦°à¦ľà¦¨ à¦ķ
à§¨ à§¯
Ġà¦¦à¦° à¦¦à¦°
Ġà¦īà§İà¦¸à¦¬ à¦Ĺ
à¦¾âĢĻ -
à¤ ľ
à¦ķà¦¸ à¦Ń
Ġà¦Ĩà¦ĩà¦¨ à¦¶
Ġà¦¸à§İ à¦ķà¦°
re at
re ed
à¦¼! âĢĻ
at h
at ed
at ure
à¦¾âĢ¦ à¥¤
Ġà¦°à¦ľ à¦¤à¦ķ
Ġa pp
à¦Łà¦¸ à¦ħ
à¦Ŀà¦ķ à¦Ŀà¦ķ
ar d
Ġp r
Ġà§© à§«
à¦¬à¦°à¦² à¦¹à¦°
Ġth an
à¦¬à§İ à¦¸à¦²
Ġà¦¨à¦ĸ à¦¦à¦°
all y
Ġbe t
el l
Ġon e
ĠĠčĊĠĠ Ġ
- '
2 6
2 7
2 8
2 9
I N
c k
f or
p h
Ñ Ĥ
Ġ à§°
à§ »
à¦° à¦°à¦¥
à¦° à¦²à¦ķ
à§į à§į
à¦¿ /
à¦¨ à¦ł
à¦¨ à¦ı
à¦¨ à¦¸à¦°
à¦ķ à¦ĺà¦°
à¦¯ à¦·
à¦¬ à¦°à¦¬à¦°
à¦¼ /
à¦® à¦¬à¦°
Ġà¦¸ à¦Łà¦ķ
Ġà¦¸ à§°
à¦¦ à¦ĸà¦²
à¦Ł à¦ªà¦¤à¦Ļ
à¦ª à¦«
à¦ĩ à¦®à¦¤
à¦ĩ à¦²à¦¨
à¦ĩ à¦ľà¦²
à¦ĩ à¦¡à¦²
à¦ľ à¦ªà¦°
à¦ľ à¦ķà¦²
Ġà¦¤ à¦ľ
Ġà¦ı à¦®à¦¤
Ġà¦ı à¦°à¦ĵ
à¦¶ à¦ªà¦°à¦®
Ġà¦ħ à¦«à¦²
à¦Ĺ à¦°à¦¸
à¦Ĺ à¦ĺà¦¨
à¦§ à¦¤à¦°
à¦¡ à¦²à¦¸
à¦ļ à¦ļ
à¦¹ à¦ªà¦°
à¦¹ à¦²à¦ķ
à¦£ à¦Ńà¦ķ
Ġà¦ļ à¦ĸ
Ġà¦° à¦ĵà¦¯
Ġà¦° à¦Ĺà¦¡
à¦¼à¦¾ âĢĿ
à§ĥ à¦Ĥ
Ġà¦Ĩà¦® à¦¸
à¦ł à¦ķà¦°
Ġà¦ī à¦Ĺà¦°
Ġà¦ªà¦° à¦ľ
Ġà¦¸à¦® à¦ķà¦ķ
ĠâĢ ŀ
à§ľ à¦Ł
Ġà¦®à¦¨ à¦¯
à¦ľà¦¨ à¦ľ
à¦¤à¦° à¦ŀ
à¦ī à¦¤à¦²
à¦°à¦¬ à¦¹à¦®
à¦ı à¦·
à¦ĺ à¦¸à¦®à¦¯
Ġà¦§à¦° à¦¨à¦Ł
Ġà¦Ŀ à¦°à¦£
à¦¬à¦² à¦¯
à¦°à¦® à¦¦
Ġà¦ıà¦¸ à¦®à¦¯
Ġà¦Ĩà¦ľ à¦Ĺ
Ġà¦¬à¦¨ à¦°
Ġà¦¬à¦¨ à¦ľà¦Ļ
Ġà¦ĵà¦ł à¦Ľ
à¦ķà¦Ł à¦²
à¦¾à¦Ĥ -
à¦¨à¦¬ à¦¶
à¦¨à¦¬ à¦Ĺ
Ġà¦Ĩà¦ªà¦¨ à¦ľà¦¨
à¦¦à¦¨ à¦ĩ
à¦¦à¦° à¦²
Ġà¦ľà¦² à¦¹
à¦Ĺà¦² à¦¨
Ġà¦¶à¦¬ à¦¬
à¦¶à¦¨ à¦ĵ
à¦ĩà¦² à¦¶
Ġà¦ħà¦ª à¦¦à¦¸
à¦Ńà¦¬ à§İ
âĢ¦ à¥¤âĢĿ
Ġà¦ķà¦® à¦£
Ġà¦īà§İ à¦ĸ
à§Ģà¥¤ à¥¤
Ġà¦²à¦ķ à¦¡
à§° à¦ļ
Ġà¦¶à¦¤ à¦Ń
Ġà¦¸à¦ķà¦² à¦ĩ
Ġà¦¤à¦² à¦¸
à¦¯à¦¥ à¦Ń
Ġà¦¸à¦®à§Ł à¦®à¦¤
Ġà¦ĸà¦¬à¦° à¦ĩ
à¤ ¦
à¦®à¦¦ à¦¤
Ġà¦ľà¦Ĺà¦¤ à¦Ł
à¦Ĺà¦£ à¦¤à¦¨
à¦¶à¦° à§İ
on s
âĢ¦âĢĿ âĢĶ
Ġà¦ļà¦Ł à¦ļà¦Ł
at er
à¦ħà¦¬ à¦¸à¦°
à¦¯à¦ľ à¦Ĺà¦¤
à¦Ĺà¦Ń à¦¬à¦¨
Ġà¦¢à¦² à¦¢à¦²
à¦¾âĢĿ ,
Ġà¦Ĩà¦Ł à¦ľà¦¨
Ġà¦ĩà¦Ł à¦¸
à¦¿âĢ¦ à¥¤
Ġà¦¦à¦ĸà¦² à¦¦
Ġa r
Ġc l
à§ĩ,âĢĿ âĢĶ
Ġà¦¸à¦«à¦² à¦Ń
à¦Ĩà¦ļ à¦®à¦ķ
à¦īà¦ł à¦¤
ic e
Ġà¦®à¦¦à¦¨ à¦¦
Ġà§¨à§¦ à§§à§¨
Ġà§¨à§¦ à§§à§§
Ġà¤ ª
Ġn o
ol og
ig o
Ġà¦¨à¦ĵ à¦¶
Ġà§Ń à§¦
ce pt
ow er
Ġà§® à§¦
Ġà¦Łà¦¹à¦² à¦¦
um an
== ==
oug h
; âĢĶ
e k
f rom
m a
n e
o k
t le
Ø ´
à§ĩ à§Ģ
à§ĩ )à¥¤
à¦¨ à¦¸à¦¬
à¦¨ à¦ıà¦°
à¦¯ à¦ļà¦ķ
à¦¬ à¦¹à¦¤
à¦¼ ),
à¦® à¦ªà¦ķ
à¦® à¦®à§Ł
Ġà¦ķ à§°
Ġà¦¬ à¦°à¦¨
Ġà¦¬ à¦Łà¦²
Ġà¦¸ à¦ĩà¦¯
Ġà¦Ĩ à¦£
à¦¦ à¦¬à¦¨
à¦¦ à¦¶à¦®
Ġà¦® à¦ª
Ġà¦® à§ľ
Ġà¦® à¦ĵà¦ķ
à¦ª à¦ªà¦°
à¦ª à¦Łà¦ķ
à¦ª à¦¬à§Łà¦¸
à¦ĩ à¦®à¦¸
à¦ĩ à¦¶à¦Ł
à§Ģ )
Ġà¦¦ à¦ĩà¦¯
à¦ľ à¦°à¦£
à¦ľ à¦¸à¦®
Ġà¦ı à¦ĺà¦°
Ġà¦ħ à§°
Ġà¦ħ à¦¤à¦¬à¦¡
à¦ĸ à¦ķà¦ķ
à¦Ĺ à¦®à¦ķ
à¦¡ à¦¡
à¦ļ à¦ĸ
à¦ļ à¦ĵ
à¦£ à¦¬à¦¸
Ġà¦° à¦¥à¦¬
à¦ĵ à¦«
Ġà¦ıà¦ķ à¦ĺà¦°
à¦¾à¦ģ âĢĻ
à§ĩ, --
Ġà¦ĸ à§Ł
Ġà¦¸à¦® à¦ªà¦°
à¦ľà¦¨ à¦Ĺà¦£
à¦¤à¦° à¦¶
à¦« à¦¦
à¦ī à¦«
à¦ī à¦ªà¦¤
à¦ī à¦¦à§Ł
à¦ªà¦¨ à¦¤
à§İ à¦²
à¦Ĩ à¦¹à¦¤
à¦°à¦¬ à¦¬
à¦ı à¦ĵ
à¦ı à¦¤à¦Ł
à¦°à¦ķ à¦ķ
à¦¬à¦° à¦¸
à¦¬à¦° à¦«
Ġà¦¹à¦² à¦Ł
Ġà¦ĩ à¦¥
Ġà¦ĩ à¦¬à¦¨
Ġà¦ĩ à¦¶à¦¤
Ġà¦ĩ à¦¨à¦¬à¦ķ
Ġà¦ľà¦¨ à¦¶à¦ķ
Ġà¦Ŀ à¦®à¦Ŀà¦®
à¦¬à¦² à¦¸
à¦·à¦£ à¦ľ
à¦ħ à¦¬à¦¨
à¦ħ à¦¸à¦¤
à¦¸à¦¬ à¦¹
Ġà¦Ĩà¦ķ à¦¨
à¦¦à¦¨ à¦ª
à¦°à¦¥à¦® à¦ľ
à§ĩ? "
Ġà¦ıà¦² à¦¸
Ġà¦Ĩà¦¨ à¦¯
Ġà¦ľà¦² à¦®à¦Ĺ
à¦Ĺà¦² à¦¬à¦¨
à¦²à¦¨ à¦ĵ
à¦ĩà¦² à¦ĸ
à¦°à¦ľ à¦Ń
à¦°à¦ľ à¦Ĺà¦¤
à¦®à¦¯ à¦ľ
Ġà¦ħà¦ľ à¦®
Ġà¦ĵà¦ªà¦° à¦ĵ
Ġà¦¬à¦¹ à¦°à¦®à¦ª
Ġà¦Ĺà¦° à¦Ĺà¦°
à¦®à¦£ à¦¤
Ġà¦®à¦° à¦ļ
Ġà¦ħà¦ªà¦° à¦£
à¦·à¦¤ à¦®
à¦°à¦ª à¦²
à¦°à¦ª à¦ķ
à¦¬à¦¦ à¦®
à¦¯à¦® à¦ŀ
à§° à¦§
à¦ķà¦¨ à¦¸
Ġà¦Ĺà§ľ à¦Ĺà§ľ
Ġà¦ĺà¦¨ à¦ĺ
Ġà¦ĺà¦¨ à¦ĺà¦Ł
à¦°à¦®à¦£ à¦¬
à¦¹à¦¤ à¦Ń
Ġà¦Ĩà¦Ń à¦°à¦£
à¦ľà¦¬ à¦ī
Ġà¦ķà¦²à¦ķ à¦¬
à¦¦à¦® à¦¬à¦¨
Ġà¦ªà¦¶ à¦²
à¤ ª
Ġà¦®à¦² à§Ł
à§© à§¨
à§© à§Ń
à§© à§ª
à§© à§¯
à¦ļà§Ł à¦ķ
Ġà¦Ĩà¦ĩà¦¨ à¦¸
Ġà¦¸à§İ à¦ļà¦°
Ġà¦®à¦¦ à¦¨à¦¬
al ity
er n
Ġo ur
Ġà¦ıà¦°à¦ªà¦° à¦ĩ
à¦¾âĢ¦ âĢĻ
Ġà¦ľà¦¨à¦¸ à¦Ń
Ġà¦°à¦ľ à¦¤à¦¬
Ġa m
à¦ĩà¦« à¦¯
à¦¾?âĢĿ âĢĶ
à¦Ĩà¦¤ à¦Ļ
Ġà¦Ĩà¦« à¦Ĺ
Ġà¦Ńà¦¬à¦¨ à¦Ł
Ġà§© à§«à§¦
Ġà¤ ¬
à¦ĸà¦¬à¦° à¦Ł
Ġl ove
Ġl ike
Ġth ings
st ra
ra d
à§§à§¯ à§¬
à¦¶à¦¶ à¦¤à¦ķ
à¦¡à¦Ń à¦£
Ġà¦ĸà¦² à¦ĸà¦²
Ġha d
ĠG od
Ġtr ans
Ġ__ __
Ġind igo
! âĢĶ
) ;
A I
l ed
o c
o y
o od
t her
à °
á Ģ
Ġ Ñ
à¦° à¦ĵà§Ł
à¦° à¦ļà¦ķ
à§į âĢĵ
à¦¿ )à¥¤
à¦¤ à§°
à¦¤ à¦ªà¦²
à¦¤ à¦Ĺà¦£
à¦¤ à¦¶à¦¤
à¦² à¦ªà¦°
à¦² à¦ªà¦®
à¦ķ à¦ªà¦°
à¦ķ à¦Ŀà¦²à¦ķ
à¦¯ à¦¬à¦²
à¦¯ à§Łà¦¨
à¦¬ à¦ĺ
à¦¬ à¦Łà¦¬
à¦® à¦ľà¦²
à¦® à¦§à¦°
Ġà¦¬ à¦ĸ
Ġà¦¬ à¦ķà¦¶
Ġà¦¸ à¦¦à¦¨
Ġà¦¸ à¦ĵà§Ł
à¥¤ ]
à¦¸ à¦®à¦ķ
Ġà¦ª à¦ªà¦ķà¦°
Ġà¦Ĩ à¦ĵà§ľ
à¦¦ à¦ªà¦¦
à¦¦ à¦Ńà¦°
à¦Ł à¦ªà¦°
à¦Ł à¦¤à¦®
Ġà¦® à¦«
à¦Ľ à¦Ń
Ġà¦¦ à¦¬
Ġà¦¦ à¦§
à¦ľ à¦¦à¦°
Ġà¦¹ à¦Łà¦¬
Ġà¦¤ à¦°à¦®
Ġà¦ı à¦§
Ġà¦ı à¦®à¦¬
Ġà¦ı à¦¨à¦¸
à¦¶ à¦°à¦£
à¦¶ à§Łà¦¨
Ġà¦ħ à¦°à¦ķ
à¦Ĺ à¦§à¦°
à¦· à¦ľà¦¨à¦ķ
à¦§ à¦ªà¦¤
à¦¹ à¦«
Ġà¦ķà¦° à¦¹
à§Ł à¦ľ
Ġà¦Ĺ à¦Ĺ
Ġà¦Ĺ à¦Łà¦Ĺ
à¦£ à¦ļà¦°
à¦¥ à¦Ľ
à¦¥ à¦°à¦¬
à¦ĵ à¦ĵ
à¦Ń à¦ĵ
à¦¼à¦¾ à¦ģ
à¦¼à¦¾ à¦ĥ
à¦ł à¦ľ
à¦ł à¦¨à¦Ł
Ġà¦ĸ à§ľà¦ķ
à¦°à¦¤ à¦ķà¦°
Ġà¦ħà¦¨ à¦¬
à¦¬à¦¨ à¦ļà¦°
à§ľ à¦¦
Ġà¦®à¦¨ à¦ĩ
Ġà¦®à¦¨ à¦Ĺ
à¦ľà¦¨ à¦®à¦¤
à¦ī à¦ĩà¦¨
à¦ı à¦ľ
à¦¬à¦° à¦ļà¦¨
Ġà¦Ł à¦Ĺà¦°
Ġà¦¬à¦²à¦² à¦ıà¦ķà¦Ł
Ġà¦ĩ à¦ķà¦¨
Ġà¦ĩ à¦°à¦Ĺ
Ġà¦®à¦¤ à¦ª
Ġà¦ıà¦¸ à¦ª
à¦¤à¦¨ à¦¬
Ġà¦¨à¦¤ à¦¶
à¦¯à¦¬ à¦ĩà¦¯
à¦¤à¦¬ à¦®
à¦°à¦¸ à¦¦à¦¨
à¦¨à¦¬ à¦¸à¦¤
à¦¦à¦¨ à¦Ĺ
Ġà¦Ĩà¦¨ à¦ķ
Ġà¦īà¦¦ à¦Ń
à¦Ĺà¦² à¦Ľ
à¦¿à¦Ĥ âĢĿ
à¦°à¦¹ à¦ĵ
à¦°à¦¶ à¦¯
à¦°à¦¶ à¦¬
à¦¯à¦¤ à¦²
Ġà¦ħà¦ª à¦²
Ġà¦ĵà¦° à¦ĵ
à¦ıà¦ĩ à¦°
à¦ıà¦ĩ à¦¤
âĢ¦ âĢ¦
Ġà¦ıà¦Ĺ à¦ľ
Ġà¦ªà¦¦ à¦¤
à¦¸à¦° à¦ĺà¦°
à¦ıà¦ķ à¦¦à¦²
Ġà¦¬à¦ĩ à¦ĩ
à¦¯à¦® à¦ĩ
à¦¤à¦ķ à¦°à¦¬
à¦¶à¦ķ à¦ķ
à¦¬à¦ķ à¦¨
à§ĩ; âĢĶ
Ġà¦ıà¦ķà¦ľà¦¨ à¦ĵ
Ġà¦ıà¦ķà¦¬ à¦Ľà¦°
à¦¸à¦ķ à¦Ĺ
Ġà¦Ĩà¦ļ à¦®
à¦ĩà¦Ł à¦¸
à¦ĩà¦Ł à¦Ĺ
Ġà¦Ĩà¦¦ à¦ª
Ġà¦Ĩà¦¦ à¦°à¦£
à¦°à¦¹à¦£ à¦ķ
Ġà¦¹à¦° à¦°
Ġà¦¦à¦° à¦¶à¦¨
Ġà¦Ńà¦¦ à¦ķ
à¤ £
à¤ ¬
à¤ Ĺ
à§© à§§
à¦¿âĢĻ !
à¦¿âĢĻ -
Ġà¦Ĩà¦ĩà¦¨ à¦Ĺà¦¤
à¦ľà¦Ĺ à¦ŀ
à¦ľà¦Ĺ à§İà¦ķ
à¦¤à¦ĸà¦¨ à¦ĵ
Ġà¦°à¦ľà¦¤ à¦¦
Ġà¦ķà¦Ł à¦®à¦Ł
en gal
it al
Ġà¦ļà¦°à¦£ à¦¤à¦²
Ġà¦Ĩà¦Ł à¦ļà¦²
Ġà¦Ĩà¦ĩ à¦ĵà¦Ł
à§ģ! )
à¦ĭ à¦¦
Ġà¦Ĺà¦Ĺà¦¨ à¦ļ
Ġà§© à§¨
Ġà¦¨à§ľ à¦Ľ
Ġl iter
à¦Ī à¦¨
Ġà¦¨à¦Ĺ à¦°à¦ķ
ĠA dvik
Ġbe c
ĠB e
ĠB engal
à¦Ĭ à¦·
Ġà¦¹à¦ľ à¦¸à¦¨
Ġà¦§à¦ª à¦§à¦ª
Ġà§¨à§¦à§¦ à§¯
âĢĶâĢĶ âĢĶâĢĶ
Ġk n
Ġà¦°à¦¸à¦¬ à¦¤
âĢķâĢķâĢķâĢķ âĢķâĢķâĢķâĢķ
à§§à§¯à§Ń à§§
Ġà¦Ĺà¦Łà¦Ĺ à¦Ł
3 1
3 2
3 4
A R
a v
c le
m s
m at
y an
Ð º
Ġ ..
Ġ ...
Ġ if
à¦¾ à§į
à¦¾ ...
à§ĩ âĢĮ
à§ĩ ..
à§ĩ ...âĢĿ
à¦° à¦Ĺà¦¨
à¦¨ à¦¸à¦¤
à¦¨ à¦¶à¦ķ
à¦¨ à¦ªà¦Ł
à¦¨ à¦ĺà¦¨
à¦¨ à§Łà¦¬
à¦¤ à¦Ŀ
à¦ķ à¦¬à¦²
à¦ķ à¦¦à¦²
à¦¯ à¦ªà¦ķ
à¦¬ à¦ĩà¦Ł
à§ĭ )
Ġà¦¬ à¦ķà¦°
Ġà¦¬ à§°
Ġà¦¸ à¦°à¦¸à¦°
à¦¸ à§ľà¦ķ
à¦¦ à¦ļà¦¯
Ġà¦¨ à¦Łà¦°
Ġà¦® à¦ķà¦¬
à¦ª à¦Ĺà¦¤
à¦ª à¦¬à¦¦
à¦ª à§°
à¦ĩ à¦§
à¦ĩ à¦ªà¦Ł
à¦ĩ à¦ļà¦Ł
à¦Ľ à§Ł
à¦Ľ à¦²à¦¨
Ġà¦¹ à¦Łà¦¤
Ġà¦ı à¦Ńà¦°
Ġà¦ı à¦®à¦ª
à¦¶ à¦¸à¦®
Ġà¦ħ à¦ªà¦¨
Ġà¦ħ à¦®à¦¨à¦ĩ
à¦ĸ à¦¹
à¦ĸ à¦²à¦¤
à¦ĸ à¦ľà¦¨à¦ķ
à¦Ĺ à¦®à§Ł
à¦· à¦ĸ
à¦¡ à¦ĵà§Ł
à¦ļ à¦²à¦ķ
Ġà¦ķà¦° à¦ľ
Ġà¦ķà¦° à¦£à¦ķ
à§Ł à¦¤à¦¨
Ġà¦¶ à¦¬à¦¨à¦®
Ġà¦ļ à¦®à¦ļ
à¦Ń à¦ŀ
à§ĥ à§į
Ġà¦ī à¦«
Ġà¦ī à¦ĩà¦¦
à¦Ĥ âĢĶ
à¦Ĥ âĢĻ
à§Ĥ ,
Ġà¦¬à¦² à¦¶
à¦°à¦¤ à¦Ł
à¦°à¦¤ à¦ĵ
Ġà¦§ à¦¨à¦¬
à¦¬à¦¨ à¦¨
à¦¬à¦¨ à¦¹
à§ľ à¦¹
à¦ŀ à¦¬
à¦ī à¦¶
à¦ī à¦Łà¦¨
à¦ī à¦ľà¦Ł
à¦Ĩ à¦«
à¦Ĩ à¦ĩà¦¡
à¦°à¦ķ à¦¬
Ġà¦Ł à§Łà¦²
âĢĻ )
Ġà¦ĩ à¦Ĺà¦²
à¦ĺ à¦·
Ġà¦®à¦¤ à¦¨à¦ĩ
Ġà¦ľà¦¨ à¦®à¦¨
Ġà¦Ŀ à¦°à¦²
à¦¬à¦² à¦Ł
Ġà¦¬à¦¨ à¦Ł
à¦ķà¦² à¦¬
Ġà¦ħà¦® à¦¤
Ġà¦ħà¦® à¦²à¦ķ
Ġà¦ªà¦¥ à¦¯
Ġà¦Ĺà¦² à¦²
à¦ķà¦° à¦²
à¦ķà¦° à¦ĵ
à¦ķà¦Ł à¦¸
à¦¸à¦¬ à¦Ł
Ġà¦ħà¦¸ à¦¤à¦°
Ġà¦ħà¦¸ à¦®à¦°
à¦¨à¦¬ à¦§à¦°
à¦ķà¦¤ à¦®
à¦¦à¦¨ à¦¹
à¦¦à¦¨ à¦ĵ
Ġà¦¬à¦° à¦²
Ġà¦¬à¦° à¦ªà¦ķ
à¦¦à¦° à¦Ń
à¦Ĺà¦² à¦®
à¦®à¦¤ à¦Ń
à¦°à¦¹ à¦ĩ
Ġà¦¸à¦° à¦Ĺà¦°à¦®
à¦Ľà¦¨ à¦Ł
à¦Ľà¦¨ à¦ª
à¦®à¦² à¦¦
à§ĩâĢĶ âĢĻ
Ġà¦ħà¦ª à¦¤
Ġà¦ħà¦ª à¦ª
Ġà¦ħà¦ª à¦¹à¦°à¦£
Ġà¦ķà¦² à¦Ł
Ġà¦¸à¦¹ à¦®à¦¤
à¦ĩà¦¨ à¦²
Ġà¦°à¦Ļ à¦¬
Ġà¦°à¦Ļ à¦§à¦¨
Ġà¦īà§İ à¦°
Ġà¦¯à¦¤ à¦Ĺ
à§ĩ! '
à¦ªà¦¦ à¦Ł
à¦ªà¦¦ à¦Ĺ
à¦ªà¦¥ à¦Ł
à¦ıà¦ķ à¦ª
Ġà¦ħà¦ªà¦° à¦ªà¦ķ
à§įâĢĮ âĢĶ
Ġà¦«à¦² à¦¦
Ġà¦«à¦² à¦Ĺ
à§İà¦ķ à¦£
à¦¤à¦ķ à¦¦
à¦¤à¦¤ à¦¸
à¦¯à¦¸ à¦Ń
Ġà¦ªà¦¤ à¦ŀ
à¦¨à¦¸ à¦¹
à¦¨à¦° à¦°
à¦Łà¦¬ à¦¡
à¦°à¦®à¦£ à¦Ł
Ġà¦ķà¦· à¦²
Ġà¦¬à¦ķ à¦Ľ
à§ĭ- -
Ġà¦¬à§ľ à¦²
à¤ ·
à¤ ¸
à§ĩâĢ¦ .
Ġà¦ľà§Ł à¦²
Ġà¦ľà§Ł à¦ķ
Ġà¦Ĺà¦¹ à¦¬à¦°
Ġà¦ļà¦¨ à¦®à¦¨
à¦¬à¦Ń à¦ķ
à§© à§«
he re
in tu
à¦°à¦« à¦°à¦®
à¦¬à¦ľà¦¨ à¦¨
Ġà¦Ĩà§Ł à¦¤à¦¨
Ġthe se
en er
Ġs ol
Ġà¦Ńà¦Ĺ à¦¬à¦¦
Ġm ost
Ġà¦ıà¦® à¦ı
à¦ħà¦² à¦Ļ
Ġp art
à¦¾,âĢĿ âĢĶ
ion s
Ġh im
Ġh uman
Ġà¦ħà¦¬à¦¸à¦° à¦ª
à¦¬à§İ à¦¸à¦®
Ġà¦ķà§ľ à¦ķà§ľ
ra g
Ġà§« à§¦à§¦
Ġre s
__ __
id ual
ver s
Ġà§¬ à§¦
am e
Ġà§§à§¯à§¯ à§«
ak e
ĠInd ia
etect ive
reed om
Ġà¦ĩà¦ķà¦¨ à¦®
3 3
3 5
a re
d er
e c
e g
h y
i le
i ya
l l
m an
n ess
p H
p ect
â Ĥ
Ġ Â
à§ĩ |
à¦° à¦¡à¦¬
à¦° à¦ĭà¦£
à¦¨ à¦ļà¦¨
à¦¨ à¦ıà¦ĩ
à¦¤ à¦ªà¦¤
à¦² à¦Ĺà¦²
à¦² à¦§à¦°
à¦² à¦®à¦§
à¦² à¦ĸà¦£
à¦ķ à¦Ĺà¦£
à¦¯ à¦ĺ
à¦¯ à¦¸à¦¬
à¦¯ à¦²à¦ķ
à¦¯ à¦¹à¦¤
à§ģ )
à¦¼ âĢ¦âĢĿ
à¦® à¦¤à¦°
à¦® à¦Ĺà¦°
Ġà¦¬ à¦ªà¦£
à¦¦ à¦¶à¦ķ
à¦¦ à¦ķà¦£
à¦Ł à¦§
Ġà¦® à¦Ŀ
Ġà¦® à¦Ĺà¦ľà¦Ł
Ġà¦® à¦°à¦®à¦°
à¦ª à¦®à¦£
à¦ª à§Łà¦¸
à¦ĩ à¦®à¦¨
à¦ĩ à¦®à¦²
à¦ĩ à¦¸à¦Ł
à¦ĩ à¦īà¦°
à§Ģ âĢ¦âĢĿ
à§Ģ âĢĻ,
à¦Ľ à¦ļ
Ġà¦¹ à¦¦à¦¯
Ġà¦ı à¦Ļ
Ġà¦ı à¦Ĺà¦¤
Ġà¦ı à¦§à¦°à¦¨
à¦¼à§ĩ ?âĢĿ
à¦· à¦¬à¦°à¦£
à¦§ à¦®à¦¨
à¦§ à¦®à¦ķ
Ġà¦¯ à¦ľà¦¨
Ġà¦¯ à§İ
à¦ļ à¦°à¦®
à¦ļ à¦®à¦¤
à¦ļ à¦ªà¦¦à¦¸
Ġà¦ķà¦° à¦¦
Ġà¦ķà¦° à¦ª
à§Ł à¦¸à¦Ļ
Ġà¦Ĺ à¦¸
à¦£ à¦ĸ
à¦£ à¦ªà¦ķ
à¦£ à¦¸à¦Ļ
à¦¥ à¦ļ
à¦¥ à¦¸à¦®
Ġà¦ľ à¦Ń
Ġà¦ıà¦ķ à¦ķà¦Ń
Ġà¦Ľ à¦Łà¦ķ
Ġà¦Ľ à¦²à¦ļ
à¦ł à¦¤à¦°
Ġà¦ī à¦Ľ
Ġà¦ī à§°
à¦Ĥ âĢĵ
à¦Ĥ âĢ¦
à¦Ļ à§ľ
Ġà¦² à¦¬à¦Ļ
Ġà¦ĵ à¦ľà¦¸
à§ĩ, ---
Ġà¦ħà¦¨ à¦®à¦¨
à¦¾à¥¤ âĢ¦
à§ľ à¦Ń
à§ľ à¦Ļ
Ġà¦®à¦¨ à¦°
à¦ªà¦° à¦®à¦£
à¦®à¦¨ à¦°
à¦®à¦¨ à¦¦
à¦ľà¦¨ à¦¬à¦°
à¦« à¦£
à¦ī à¦ĸ
à¦ī à¦¬à¦¨
à¦ªà¦¨ à¦ķ
à§İ à¦¸à¦¤
Ġà¦¸à¦¬ à¦®
Ġà¦Ł à¦¨à¦ķ
Ġà¦Ł à¦²à¦Ľ
Ġà¦¬à¦²à¦² à¦ļà¦²
âĢĻ à¥¤âĢĿ
Ġà¦ĩ à¦®à¦¤
à¦ĺ à¦ļ
Ġà¦ľà¦¨ à¦¯
à¦¬à¦ª à¦¦
à¦°à¦® à¦¶à¦ķ
Ġà¦ł à¦ķà¦¬
à¦¤à¦¨ à¦¯
Ġà¦¢ à¦ķà¦¢
à¦ħ à¦ĺ
à¦ħ à¦¥à¦°
à¦ħ à¦Ĺà¦£
Ġà¦ħà¦® à¦°à¦¦
à¦ķà¦° à¦Ľ
Ġà¦Ĩà¦¶ à¦°
à§ĩ? âĢĵ
à¦¾- --
à¦¿à¦Ĥ )
Ġà¦ħà¦¤ à¦ĸ
à¦²à¦¨ à¦¶
Ġà¦īà¦ª à¦¶
Ġà¦®à¦¹ à¦¡
à¦ĩà¦² à¦Ĺ
à¦§à¦¨ à¦Ńà¦ľà¦¨
à¦°à¦ľ à¦°
à¦°à¦ľ à¦ķ
Ġà¦ķà¦² à¦ľ
à¦ļà¦² à¦Ń
à¦°à¦ĩ à¦¬
Ġà¦Ĩà¦¤ à¦ª
à¦ıà¦ĩ à¦ĩ
à¦¸à¦® à¦·
Ġà¦¬à¦¹ à¦¨à¦ķ
à¦Ĺà¦¨ à¦¸
Ġà¦°à¦Ļ à¦²
Ġà¦ªà¦¦ à¦ª
à¦°à¦Ń à¦ŀ
à¦ªà¦¥ à¦Ń
à¦¬à¦¸ à¦Ń
Ġà¦¬à¦ĩ à¦¸
Ġà¦¬à¦ĩ à¦ıà¦°
à¦Łà¦² à¦®
Ġà¦«à¦² à¦ĵ
à¦·à¦ķ à¦¥
à¦ľà¦² à¦ľ
Ġà¦Ĩà¦§ à¦ª
Ġà¦Ĩà¦¡ à¦®
à§° à¦¶
Ġà¦¶à¦¤ à¦Ĺ
!âĢĿ ,
Ġà¦¨à¦¬ à¦¤à¦°
à¦¬à¦¶ à¦Ļ
Ġà¦¸à¦®à§Ł à¦¸
Ġ, âĢĶ
à¦Łà¦¬ à¦ī
Ġà¦ĺà¦¨ à¦¶
à¦®à§Ł à¦¤
à¦²à¦Ĺ à¦ŀ
à¦¹à¦°à¦£ à¦ĩ
Ġà¦®à¦ľ à¦¦
à¦¿; -
Ġà¦°à¦ĵà¦¶à¦¨ à¦ĩ
à¤ ¶
à¤ ļ
à§ĩâĢ¦ à¥¤âĢĿ
à¦£à¦¨ à¦Ĺà¦°
Ġà¦ħà¦Ł à¦²à¦¤
Ġà¦Ĳà¦ķ à¦®à¦¤
à¦ıà¦ĸà¦¨ à¦ķ
Ġà§§à§¯ à§§à§Ń
à¦¿âĢĻ âĢĵ
he s
à§Ń à§¦
à¦¯à¦Ń à¦Ļ
à¦¸à¦¹ à¦¬
in e
à¦·à§Ł à¦¬à¦¸
Ġà¦ªà¦²à¦ķ à¦¹
re e
Ġà¦Ĭ à¦¹
Ġthe ir
ĠĠčĊ Ġ
à¦¸à¦ķà¦² à¦ĩ
en s
à¦ıà¦®à¦¨ à¦Ł
Ġà¦ľà§ľ à¦¤
à¦¬à¦°à¦£ à¦ķ
Ġs up
Ġà¦ļà¦°à¦£ à¦§
à¦ļà¦°à¦£ à¦¶
Ġà¦Ķ à§İà¦¸
Ġa g
Ġà¦ĩà¦® à¦ªà¦¸
à¦ĩà¦« à¦¸
Ġw ere
à¦īà¦ł à¦¬
à¦Ĩà¦¨ à¦®à¦¨
à¦ħà¦Ĺ à¦£à¦¨
Ġà¦¶à¦¨ à¦¶à¦¨
Ġà§© à§¬
Ġà¦¨à¦Ł à¦¬à¦°
Ġà§§à§¯à§Ń à§¦
Ġà¦ĸà¦° à¦ĸà¦°
Ġà¦¶à¦°à§İ à¦¬
Ġà¤ Ĩ
ra v
il y
Ġre l
Ġwh at
ag e
Ġyou r
à¦¦à¦« à¦¤à¦°
Ġà¦ļà¦®à¦ļ à¦®
Ġà¦¢à¦ķà¦¢ à¦ķ
! (
" à¥¤
) -
, ---
- âĢľ
3 7
? '
? âĢĶ
c end
i an
i re
n g
n ot
o T
r ough
u ch
v ed
Â ¦
× Ļ
à «
à ®
â Ĩ
Ġ z
Ġ qu
Ġ Ñģ
à¦¾ ...âĢĿ
à¦¿ à§ĩ
à¦¿ ÂŃ
à¦¨ à¦ªà¦ķ
à¦¤ à¦ļà¦²
à¦¤ à¦ľà¦²
à¦¤ à¦°à¦¤à¦®
à¦ķ à¦ĵà¦¯
à¦ķ à¦¶à¦ķ
à¦¯ à¦°à¦¤
à¦¯ à¦Ĺà¦°
à¦¬ à¦¬à¦¨
à¦¬ à¦¸à¦°
à¦¬ à¦Ńà¦°
à¦¬ à¦ľà¦¨à¦ķ
à§ĭ à¦¾
à§ĭ ...
Ġà¦ķ à¦Ľ
Ġà¦ķ à¦Łà¦¨
Ġà¦ķ à¦ĩà¦Ľ
à¥ ĥ
à¦¸ à¦¬à¦²
à¦¸ à¦°à¦¶
à¦¸ à¦¹à¦¨
à¦¸ à¦¸à¦¹
Ġà¦Ĩ à¦ĩà¦ª
à¦¦ à¦°à¦¤
Ġà¦¨ à¦°à¦¸
Ġà¦¨ à¦ĸà¦°
Ġà¦® à¦ĩà¦¨
Ġà¦® à¦Ĺà¦Ł
à¦ª à¦¤à¦°
à¦ĩ à¦·
à¦ĩ à¦ı
à¦ĩ à¦°à¦¨
à¦ĩ à¦īà¦ľ
à§Ģ âĢĿà¥¤
à¦Ľ à¦®
à¦ľ à¦®à¦¤
à¦ľ à¦ªà¦¦
à¦ľ à¦ĺà¦°
Ġà¦¤ à¦¦à¦¬
Ġà¦¤ à¦ªà¦¶
à¦ĸ à¦¬à¦¨
à¦Ĺ à¦ªà¦¥
à¦Ĺ à¦ľà¦¨à¦ķ
à¦· à¦¦à¦°
à¦· à¦ªà¦¤
à¦§ à¦°à¦¤
à¦§ à¦¬à¦¨
à¦§ à¦¬à¦²
à¦ļ à¦«
à¦¹ à¦ªà¦¤
à§Ł à¦ª
à¦£ à¦ĺ
à¦¥ à¦Ļ
Ġà¦Ń à¦ķà¦¤
Ġà¦° à¦¸à¦®
Ġà¦ıà¦ķ à¦ªà¦°
à¦¼à¦¾ )
Ġà¦Ĩà¦® à¦°à¦£
à¦ł à¦§
à¦Ļ à¦¡
Ġà¦² à¦Łà¦ķ
Ġà¦² à¦ķà¦²à¦ķ
Ġà¦« à¦Łà¦«à¦Ł
Ġà¦« à§Łà¦¸
Ġà¦Ĩà¦° à¦ª
Ġà¦ĸ à¦ļà¦°
Ġà¦§ à¦¨à¦ķ
ĠâĢ ¢
à¦¼à¦¿ âĢ¦
Ġà¦ıà¦ĩ à¦¦
à¦ľà¦¨ à¦ª
Ġà¦Ĩà¦² à¦ķ
Ġà¦Ĩà¦² à¦¯
à§İ à¦«
à¦Ĩ à¦ĩà¦¸
à¦¬à¦° à¦°
Ġà¦¬à¦²à¦² à¦Ĩà¦°
Ġà¦¬à¦²à¦² à¦ıà¦¬
âĢĻ ?
Ġà¦¡ à¦Ļ
à§Ī ,
Ġà¦ĩ à¦«
Ġà¦ĩ à¦īà¦ľ
à¦ĺ à¦«
Ġà¦ļà¦² à¦ķ
à¦·à¦£ à¦¬
Ġà¦ıà¦¸ à¦¸
à¦¤à¦¨ à¦¦
à¦¤à¦¨ à¦Ĺ
Ġà¦¬à¦¨ à¦¶
à¦ķà¦² à¦ľ
Ġà¦Ĩà¦Ĺ à¦®à¦£
à¦²à¦ķ à¦Ĺ
à¦¦à¦¨ à¦§
à¦¦à¦¨ à¦®à¦¯
Ġà¦¬à¦° à¦ĩ
à§ĩ? '
Ġà¦ıà¦² à¦ĩà¦¡
à¦Ĺà¦² à¦®à§Ł
à¦Ĺà¦¤ à¦ĩ
à¦¿à¦Ĥ !âĢĿ
Ġà¦īà¦ª à¦¬à¦¨
Ġà¦īà¦ª à¦¸à¦°
à¦ĩà¦² à¦¹
à¦°à¦¦ à¦®
à¦¨à¦¨ à¦ķ
à¦¸à¦® à¦£
âĢ¦ à¥¤âĢĻ
Ġà¦¬à¦Ľà¦° à¦ĵ
Ġà¦ªà¦¦ à¦®à¦°
à§ĩ! )
à¦¶à¦¬ à¦ķ
à¦ıà¦ķ à¦¯
à¦ıà¦ķ à¦«
à¦¨à¦ķ à¦¶
à¦¨à¦ķ à¦£
Ġà¦¬à¦ĩ à¦ĵ
à¦¤à¦ķ à§ľ
Ġà¦ĵà¦ĩ à¦¦
à¦¹à¦¨ à¦Ĺà¦ŀ
Ġà¦¶à¦¤ à¦¶à¦¤
à¦¸à¦ķ à¦¦à¦²
à¦ĩà¦Ł à¦Ł
à¦¯à¦° à¦Ļ
à¦īà¦² à¦ĵ
à¦°à¦®à¦£ à¦ªà¦¥
Ġà¦Ĺà¦£ à¦¸
Ġà¦¬à§ľ à¦°
à¦¦à¦¸ à¦ĩ
à¦°à¦° à¦Ļ
Ġt e
à§Ŀ à¦Ń
à¦¸à¦¹ à¦¦
Ġà¦¹à¦ĩ à¦ļ
an k
on d
à§ĩ!âĢĿ âĢĶ
Ġà¦Ĩà§ľ à¦·
Ġà¦Ĩà¦ļà¦°à¦£ à¦ķ
at a
at her
à¦¸à¦ķà¦² à¦ķ
Ġo ut
Ġà¦ıà¦°à¦ªà¦° à¦ĵ
à¦²à¦¦ à¦¹
à¦Ńà§Ł à¦ķ
à¦¯à¦Ĺ à¦łà¦¨
Ġà¦Ķ à¦°
Ġà¦²à§ľ à¦Ľ
Ġà¦Ĩà¦Ł à¦¶
Ġà¦Ĩà¦Ł à¦ļ
Ġà¦ĩà¦Ł à¦Ń
Ġà¦Ĩà¦ĩ à¦ı
Ġc ould
Ġof f
Ġp ass
ÂłÂłÂłÂłÂłÂłÂłÂłÂłÂłÂłÂłÂłÂłÂłÂł ÂłÂłÂłÂłÂłÂłÂłÂł
ic k
ic ation
Ġà§© à§§
Ġà§© à§Ń
à¦ħà¦ªà¦° à¦¦
ve l
ol d
Ġà§« à§«
à§§à§¯ à§®
Ġbe ing
il d
ig h
ig ital
ĠS o
à¦¨à§Ł à¦¨à¦ķ
et y
à¦¿' à¥¤
Ġà§Ń à§«
Ġg reat
áĥ ĺ
Ġà§§à§® à§«à§Ń
Ġà¦ĩà¦¨à¦« à¦°à¦®
à¦ıà¦® à¦ıà¦¸
iv idual
ip s
Ġne ver
ac k
Ġab stra
æŃĵæŃĵæŃĵæŃĵæŃĵæŃĵæŃĵæŃĵ æŃĵæŃĵæŃĵæŃĵæŃĵæŃĵæŃĵæŃĵ
Ġwor ld
Ġever y
Ġà¦Ĩà¦ĩà¦ķ à¦¨
âĢ¨ čĊč
way s
Ġkn ow
! "
! âĢ¦
- âĢĻ
3 6
? )
? âĢĵ
T I
a j
a z
a ut
b or
c l
h at
h ol
i ous
j ect
l ow
u g
y st
¿ ½
Â ¤
Ø ¯
ï ¿½
č Ċ
Ġ her
à§ĩ à¦¾,
à¦° à¦²à¦¤
à¦° à¦ĩà¦²
à¦° à¦Ĩà¦¨
à§į âĢĶ
à¦¿ à§Ģ
à¦¨ à¦ļà¦ķ
à¦¤ à§İ
à¦² à¦¬à¦ª
à¦² à¦ļà¦¨
à¦² à¦ªà¦ķ
à¦² à¦°à¦ķà¦®
à¦² à¦Łà¦¨
à¦ķ à¦¨à¦Ł
à¦ķ à¦¸à¦¬à¦ľ
à¦¬ à§İà¦ķ
à¦¬ à¦®à§Ł
à¦¬ à¦®à¦¹
à¦¬ à¦ľà§Ł
à¦¼ âĢĻà¥¤
à¦® à¦®à¦£
à¦® à¦¸à¦²
à¦® à¦¸à¦Ļ
Ġà¦¸ à¦°à¦¬à¦¤
Ġà¦¸ à¦ĵà¦Ĺ
à¦¸ à¦§
à¦¸ à¦¯à¦¨
à¦¸ à§İà¦ķ
Ġà¦Ĩ à¦¹à¦²
à¦¦ à¦²à¦¬
à¦¦ à§°
à¦Ł à¦ĺ
Ġà¦¨ à¦¨à¦¸
Ġà¦¨ à¦°à¦¹à¦°
Ġà¦¨ à¦¦à¦¨à¦¦
Ġà¦® à¦°à¦ķ
Ġà¦® à¦²à¦¤
à¦ª à¦¹à¦°
à¦ª à¦®à§Ł
à¦ª à¦¯à¦ľ
à¦ĩ à¦ĵà§Ł
à¦ĩ à¦ĺà¦°
à¦ĩ à¦¦à¦¹
Ġà¦¦ à¦°à¦Ĺ
à¦ľ à¦ĵà¦¯
à¦ľ à¦¹à¦°
Ġà¦¹ à¦°à¦ª
Ġà¦¤ à¦¸à¦¬
à¦¶ à¦²à¦¯
à¦¶ à¦Ńà¦Ļ
à¦¼à§ĩ !âĢĿ
à¦¼à§ĩ âĢĶâĢľ
Ġà¦ħ à¦ĵ
Ġà¦ħ à¦Ĺà¦¨
à¦ĸ à¦ļà¦°
à¦ĸ à¦®à§Ł
à¦Ĺ à¦ªà¦°
à¦Ĺ à¦ªà¦¤
à¦Ĺ à¦¸à¦®
à¦Ĺ à¦¸à¦¹
à¦§ à¦¸à¦¤
à¦§ à¦¶à¦ķ
à¦§ à¦Ńà¦°
Ġà¦¯ à¦®à¦¦
à¦ļ à¦¢
Ġà¦ķà¦° à¦¸
à§Ł à¦¡à¦«
Ġà¦Ĺ à¦ľà¦¬
Ġà¦¶ à§Ł
Ġà¦¶ à¦¤à¦°à¦Ļ
Ġà¦ľ à¦ªà¦¤
Ġà¦ļ à§ľà¦¤
Ġà¦ļ à¦ĵà§ľ
Ġà¦° à¦°
à¦Ń à¦ķà¦°
à¦Ń à§İà¦¸à¦¤
Ġà¦ıà¦ķ à¦¶à¦¬
Ġà¦ıà¦ķ à¦ıà¦ķà¦Ł
Ġà¦ıà¦ķ à¦¶à¦¤
à¦¼à¦¾ !âĢĿ
à¦¼à¦¾ ?âĢĿ
Ġà¦Ĩà¦® à¦¡
à¦ł à¦ļà¦ķ
Ġà¦ī à¦®à¦°
Ġà¦² à¦ĩà¦¤
Ġà¦ĵ à¦ĺà¦°
Ġà¦« à¦ķà¦«
Ġà¦Ĩà¦° à¦¬à¦¦
à¦°à¦¤ à¦ª
à¦°à¦¤ à¦ļà¦¨
Ġà¦ªà¦° à¦ļ
Ġà¦§ à¦¨à¦¦
Ġà¦¸à¦® à¦ħà¦§
à¦¬à¦¨ à¦¤
à¦¬à¦¨ à¦ĸ
à¦¬à¦¨ à¦Ĺà¦°
à¦ªà¦° à¦Ł
à¦°à¦£ à¦°
à¦°à¦£ à¦ķà¦¬
à¦®à¦¨ à¦®
à¦ľà¦¨ à¦§à¦°
à¦ŀ à¦¬à¦¨
à¦ŀ à¦¸à¦®
à¦ī à¦§
à¦ī à¦ĵ
à¦ī à¦ıà¦°
à¦Ĩ à¦¬à¦¦
à¦Ĩ à¦ĸà¦¡
à¦°à¦¬ à¦ª
à¦°à¦¬ à¦ĵ
à¦ı à¦¤à¦ĩ
à¦¬à¦° à¦¸à¦Ń
Ġà¦Ł à¦ĩà¦Ł
Ġà¦¬à¦²à¦² à¦ĸ
Ġà¦¬à¦²à¦² à¦ıà¦ĸà¦¨
Ġà¦Ĩà¦¸ à¦¨à¦Ł
Ġà¦ĩ à¦īà¦ķ
Ġà¦ĩ à¦¶à¦°
Ġà¦ªà¦¡ à¦ķ
à¦ĺ à¦Ń
à¦ĺ à¦¦à¦²
Ġà¦ľà¦¨ à¦¬
Ġà¦ľà¦¨ à¦¸à¦¨
Ġà¦ľà¦¨ à¦¬à¦¸à¦¤
à¦¬à¦² à¦Ń
à¦°à¦® à¦ĵ
à¦°à¦® à¦¥à¦¨
Ġà¦ł à¦¨
à¦ħ à§Łà¦¨
à¦ħ à¦ĸà¦£
Ġà¦¬à¦¨ à¦¦
Ġà¦ħà¦® à¦¸
Ġà¦ħà¦® à¦²à¦¤
à¦ķà¦Ł à¦®à§Ł
à¦°à¦¨ à¦¬
à¦²à¦ķ à¦®à¦²
à¦¤à¦¬ à¦¸
à¦¤à¦¬ à¦¸à¦®
Ġà¦¹à¦¤ à¦¦à¦°
Ġà¦Ĩà¦¨ à¦ļ
Ġà¦ľà¦² à¦ļà¦°
à¦Ĺà¦² à¦ĩ
à¦Ĺà¦² à¦ĵ
à¦¶à¦¨ à¦¸
à¦¶à¦¨ à¦¶
Ġà¦ħà¦¤ à¦ķ
Ġà¦ħà¦¤ à¦¦
à¦°à¦¹ à¦¹
Ġà¦īà¦ª à§ľ
à¦°à¦¯ à¦¤
à¦ĩà¦² à¦ļ
à¦²à¦¬ à¦¸
à¦²à¦¬ à¦¦à¦²
Ġà¦ħà¦ª à¦ĺ
Ġà¦ķà¦² à¦®à¦Ł
à¦ļà¦² à¦ļ
à¦Ńà¦¬ à¦ĵ
à¦¹à¦² à¦¹
Ġà¦°à¦Ļ à¦¹
Ġà¦īà§İ à¦¸à¦®
à¦¦à§Ł à¦Ĺ
à¦ªà¦¦ à¦¸à¦Ļ
à¦ıà¦ķ à¦¸à¦®à§Ł
à¦®à¦£ à¦¬
à¦¬à¦¸ à¦²
à§įâĢĮ âĢĻ
à¦°à¦ª à¦Ļ
Ġà¦«à¦² à¦²
Ġà¦ĩà¦¨ à¦ª
à¦ªà¦ķ à¦¤à¦°
Ġà¦Ĩà¦§ à¦¬
à§ģâĢĻ ,
à§ģâĢĻ à¥¤
Ġà¦Ńà¦¬ à¦®
à§° à¦ĩ
Ġà¦¦à¦² à¦ĩ
à¦¨à¦¸ à¦Ń
à¦¨à¦° à¦Ļ
à¦ĩà¦Ł à¦¨
Ġà¦Ĩà¦¦ à¦¬
à¦īà¦² à¦Ł
à¦īà¦² à¦Ĺ
à¦Ŀà¦² à¦¸
à¦°à¦®à¦£ à¦¸
à¦°à¦®à¦£ à¦Ń
Ġà¦ķà¦¨ à¦¡
Ġà¦°à¦ķà¦® à¦Ń
à¦®à¦¸ à¦Ń
Ġà¦ľà¦° à§İà¦ķ
Ġà¦¨à¦°à¦® à¦¤
à¦Łà¦¨ à¦®
à¦²à¦® à¦¹
à¦Ĺà¦® à¦Ĺ
Ġà¦§à¦¨ à¦°à¦¤
à¦¡à¦² à¦«
à¦¨à¦Ń à¦¨
Ġà¦¶à¦¹ à¦°à¦ĩ
Ġà¦ľà¦¬ à¦ľà¦¬
Ġà¦¦à¦® à¦ķà¦²
à¦°à¦« à¦°
Ġà¦īà§ľ à¦²
Ġà¦īà§ľ à¦¬
à¦¶à¦¤ à¦ªà¦¥
Ġà¦ĩà¦² à¦¶
on t
à¦¨à§Łà¦¨ à¦¶
Ġà§¨ à§Ń
à¦¾à¦ĥ âĢĵ
Ġà¦ļà¦°à¦® à¦Ń
is s
Ġo ther
à§ĩâĢĻ âĢĵ
Ġà¦²à§ľ à¦¬
Ġa d
ar k
à§ģà¦Ĥ -
Ġp e
Ġf ound
ou b
Ġd es
Ġh or
à¦¤à¦ļ à¦°à¦¬
Ġth ink
à¦£à¦Ń à¦Ł
ra h
Ġbe en
à¦£à¦Ĺà¦¤ à¦®
Ġà¦īà¦ĩà¦² à¦¸à¦¨
Ġà¦ĺà¦· à¦Ľ
à¦®à¦« à¦²à¦ķ
à¦°à¦¡ à¦ĵà¦¯
Ġg r
Ġà¦ķà¦¸ à¦°à¦¤
áĥ Ĳ
ĠR iya
Ġà§§à§¯à§ª à§¨
Ġà¦¹à¦°à¦« à¦Ĺ
ĠD etective
ĠN ot
Ġà¦ĩà¦¸à¦®à¦¤ à¦ķ
ci ence
Ġà§§à§Ń à§«à§¬
Ġon ly
Ð° Ð
ere d
ÂŃÂŃ ÂŃÂŃ
Ġ__ _
******** ********
Ġà¦«à¦¸à¦« à¦¸
Ġsom e
Ġdis c
Ġcl ass
Ġà¦ĸà¦ļà¦° à¦ĸà¦ļà¦°
Ġà¦«à¦ķà¦« à¦ķ
! -
) :
3 9
? -
E R
I oT
e b
e x
h in
r ic
s h
s ha
t ed
v ol
à ´
ä ¸
Ġ X
Ġ Ã
Ġ Ù
Ġ us
Ġ ro
Ġ up
Ġ ÙĨ
ķ ×
à§ĩ à¦¾-
à§ĩ à¦ĥà¥¤
à¦° à¦¡à¦ķ
à§į ?
à¦¨ à§ľ
à¦¨ à¦¦à¦¯
à¦¤ à¦ŀ
à¦¤ à¦¦à¦°
à¦¤ à¦¸à¦¨
à¦¤ à¦¤à¦²
à¦¤ à¦®à¦°
à¦¤ à¦ªà¦Ł
à¦¤ à¦¸à¦ķ
à¦¤ à¦ľà¦¬
à¦² à¦¸à¦¬
à¦² à¦ĵà§Ł
à¦ķ à¦®à¦¨
à¦ķ à¦ķà¦°
à¦ķ à¦ļà¦°
à¦ķ à¦®à§Ł
à¦ķ à¦ıà¦°
à¦¯ à¦ķà¦¤
à¦¯ à¦®à¦ķ
à¦¯ à¦¶à¦ķ
à¦¯ à§°
à§ģ à§Ĥ
à§ģ âĢ¦âĢĿ
à¦¬ à¦ķà¦¤
à¦¬ à¦Ĺà¦²
à¦¬ à¦¬à¦¸
à¦¬ à¦īà¦®
à¦® à¦¬à¦¤
à¦® à¦¸à¦¤
à¦® à¦ĺà¦¨
à¦® à¦·à¦ª
à§ĭ âĢĿ,
Ġà¦ķ à¦ķà¦Ł
Ġà¦¬ hol
à¦¸ à¦¤à¦¨
à¦¸ à¦ķà¦¤
à¦¸ à¦ĵà§Ł
Ġà¦ª à¦·
Ġà¦ª à¦¬à¦®
Ġà¦Ĩ à¦¦à¦¨
Ġà¦Ĩ à¦ĩà¦¬
à¦¦ à¦ķà¦°
à¦¦ à¦²à¦ķ
à¦¦ à¦¤à¦¤
à¦Ł à¦°à¦ķ
à¦Ł à¦¬à¦ķ
Ġà¦¨ à¦ĵà¦²
à¦ª à¦¸à¦¨
à¦ª à¦£à¦¤
à¦ĩ à¦ķà¦²
à¦ĩ à¦ķà¦Ł
à¦ĩ à¦¸à¦®à¦¯
à¦ľ à¦ŀ
à¦ľ à¦¤à¦¤
Ġà¦¹ à¦°à¦¨
Ġà¦ı à¦°à¦¶
à¦¼à§ĩ --
à¦ĸ à¦®à¦¨
à¦Ĺ à§İ
à¦Ĺ à¦¬à¦²
à¦Ĺ à¦Ĺà¦¤
à¦Ĺ à¦£à¦¨
à¦Ĺ à¦¯à¦ľ
à¦§ à¦Ĺà¦²
Ġà¦¯ à¦®à¦²
à¦ļ à¦°à¦ķ
à¦ļ à¦¨à¦¬
à¦ļ à¦Ĺà¦¤
à¦¹ à¦¡
à¦¹ à¦¨à¦¤
à¦¹ à¦Ĺà¦¤
à¦£ à¦ķà¦£
à¦¥ à¦ĸ
à¦¥ à¦ķà¦°
à¦¥ à¦°à¦ļ
Ġà¦¶ à¦ķà¦¤
Ġà¦ľ à¦Ĺà¦ľ
Ġà¦ļ à¦®à¦¤
Ġà¦° à¦¡à¦Ł
à¦Ń à¦¡
à¦Ń à¦£
à¦¼à¦¾ !âĢĻ
Ġà¦Ĩà¦® à¦ļ
à¦ł à¦ł
Ġà¦ī à¦Ń
à¦Ĥ !
Ġà¦ĵ à¦¨à¦²
Ġà¦¥ à¦ª
Ġà¦« à¦°à¦¹
Ġà¦ĸ à¦¨à¦ķ
à¦¬à¦¨ à¦²
à¦¬à¦¨ à¦¸à¦Ļ
à¦¼à¦¿ '
Ġà¦ĺ à¦¸
à¦ªà¦° à¦¨
à¦°à¦£ à¦¶
à¦®à¦¨ à¦Ĺà¦°
à¦ľà¦¨ à¦¯
à¦ŀ à¦ķà¦°
à¦« à¦°à¦®
à¦ī à¦°à¦²
à¦ī à¦ªà¦¦
à¦ī à¦¨à¦¸
à¦¿, --
Ġà¦Ĩà¦² à¦®à¦ķ
Ġà¦Ĩà¦² à¦ªà¦¥
à§İ à¦ªà¦¦
à¦Ĩ à¦ĩà¦²
à¦Ĩ à¦ªà¦¡
à¦Ĩ à¦¬à¦¹
à¦Ĩ à¦Łà¦Ł
à¦°à¦¬ à§İ
à¦°à¦¬ à¦¦à¦¨
Ġà¦¬à¦²à¦² à¦ľ
Ġà¦¬à¦²à¦² à¦ł
à¦¼à¥¤ âĢĺ
Ġà¦¹à¦² à¦ĵà¦¯
Ġà¦¹à¦² à¦«à¦¨
Ġà¦ĩ à¦¹à¦ķ
ĠĠčĊč Ċ
à¦¼, âĢĻ
à¦ĥ âĢĻ
à¦ħ à¦°à¦¬
à¦ħ à¦«à¦²
Ġà¦¬à¦¨ à¦¨
Ġà¦¬à¦¨ à¦ļ
Ġà¦¬à¦¨ à¦¬à¦¨
à¦ķà¦² à¦ķà¦²
à¦ķà¦° à¦¸
Ġà¦¹à§Ł à¦°
à¦ķà¦Ł à¦ĩ
à§ĭà¥¤ "
Ġà¦Ĩà¦ķ à¦Ľ
à¦¤à¦¬ à¦Ĺ
à¦¨à¦¬ à¦¬à¦¨
Ġà¦ħà¦¦ à¦²à¦¬à¦¦à¦²
Ġà¦ħà¦° à¦«
Ġà¦ľà¦² à¦¤
Ġà¦ħà¦¤ à¦¶à¦¤
à¦¯à¦ķ à¦¶
à¦§à¦ķ à¦°à¦£
à¦¹à¦¸ à¦ĵ
à¦¬à¦¤ à¦²
Ġà¦¯à¦ĸà¦¨ à¦¤à¦ĸà¦¨
à¦²à¦¬ à¦¬
Ġà¦ıà¦®à¦¨ à¦¤à¦°
Ġà¦ķà¦² à¦ªà¦¨
à¦¹à¦° à¦·
Ġà¦īà¦¤ à¦¥
à¦ĩà¦¨ à¦·
à¦ĩà¦¨ à¦¹
à¦°à¦ªà¦° à¦¨
Ġà¦¹à¦ł à¦¯
à¦Łà¦ķ à¦¥
âĢ¦ )
Ġà¦Ĳ à¦Ń
Ġà¦°à¦Ļ à¦ĵ
Ġà¦°à¦Ļ à¦ļà¦Ļ
Ġà¦ªà¦¦ à¦¶à¦¬
à¦¸à¦° à¦Ĺ
à§ĩ! âĢĶ
à¦¦à§Ł à¦¤
à¦ıà¦ķ à¦ªà¦°
à¦®à¦£ à¦Ł
à¦®à¦£ à¦ĩ
à¦¦à¦² à¦¬à¦²
à¦·à¦¤ à¦Ł
à¦°à¦ª à¦ŀ
à¦Łà¦² à¦®à¦²
à¦¨à¦Ł à¦°
à¦²à¦² à¦ĵà¦¹
Ġà¦ħà¦¶ à¦ķ
Ġà¦Ĩà¦§ à¦®à¦°
à¦¤à¦¤ à¦¦
à¦¤à¦¤ à¦ĩ
à¦¹à¦¨ à¦ª
Ġà¦ħà¦² à¦Ĺ
à¦ªà¦Ł à¦Ń
à§° à¦¬à¦²
à¦¸à¦« à¦°
Ġà¦¦à¦² à¦ĵ
Ġà¦Ĩà¦Ļ à¦Ł
à¦¨à¦Ĺ à¦®
ÂłÂłÂłÂłÂłÂłÂłÂł ÂłÂłÂłÂłÂłÂłÂłÂłÂłÂłÂłÂłÂłÂłÂł
Ġà¦¸à¦¹à¦ľ à¦¸
à¦¼à¦¾à¥¤ à¥¤
à¦Ĩà¦° à¦Ĩà¦ĩ
à¦°à¦Ĺ à¦ŀ
à¦°à¦®à¦£ à¦¸à¦Ļ
Ġà¦ķà¦¨ à¦Ńà¦¯
Ġà¦ķà¦¨ à¦ķà¦²à¦¤
à¦®à§Ł à¦²
Ġà¦Ĺà¦£ à¦¹à¦¤
à¦ľà¦¬ à¦īà¦¦
Ġà¦¬à¦ī à¦¬
Ġà¦¬à¦ī à¦Ŀ
à¦ªà¦£ à¦¨
à¦ªà¦£ à¦ķ
Ġà¦ħà¦Łà¦² à¦Ń
Ġà¦Ī à¦Ļ
à¦Ĩà¦ķ à¦¸
à¦ķà¦°à¦£ à¦Ĺà¦¤
à¤ §
à¤ Ń
Ġà¦ľà§Ł à¦ľà§Łà¦ķ
à§Ŀ à¦ļ
à§© à§®
à¦®à¦ª à¦ŀ
in al
à¦°à¦« à§İ
à¦¤à¦¸ à¦ĩ
à¦£à¦ķ à¦®à¦²
à¦¬à¦® à¦Ļ
à¦¬à¦ľà¦¨ à¦°
à¦¬à¦ľà¦¨ à¦Ĺ
Ġà¦ĸà¦°à¦ļ à¦ĵ
at ive
à¦Ĩà¦¶ à¦Ļ
à¦ħà¦¬ à¦¸à¦¨
à¦Ĩà¦¬ à¦°à¦£
Ġà¦ıà¦¡ à¦Ń
er t
is hed
Ġ' '
à§¯ à§«
it e
à§ĭ; -
à¦¦à¦ª à¦¤à¦¨
Ġc ount
Ġà¦®à¦°à¦£ à¦ķ
es h
Ġm ore
Ġà¦Ĩà¦« à¦¨
Ġà¦°à¦£ à¦¸
Ġp oss
Ġp ower
à¦ħà¦ª à¦²à¦ķ
Ġf act
Ġf reedom
Ġà¦ĩà¦ī à¦ıà¦¸à¦¬
à¦¤à¦ļ à¦°à¦¦
à§ĩâĢĿ ,
Ġà¦¨à§ľ à¦²
Ġà¦¶à¦¶ à¦§à¦°
Ġà¤ ī
à¦Ī à¦®
Ġà¦¨à¦Ĺ à¦°à¦¬
à§§à§¯ à§ªà§Ń
Ġà¦Ńà¦Ł à¦ļ
ig n
ĠS t
à¦¯à¦ľà¦¨ à¦ķà¦Ń
ĠR ah
Ġà§§à§¯à§ª à§¯
ĠC om
Ġà§§à§¯à§¯ à§¨
Ġà¦§à¦ķ à¦§à¦ķ
Ġcon s
Ġà§§à§¯à§¬ à§Ń
Ġà§§à§¯à§¬ à§®
Ġà§¨à§¦à§¦ à§ª
Ġà§§à§¯à§® à§¯
Ġà¦ªà¦łà¦¨ à¦ª
Ġà¦¤à§İ à¦¸à¦¤
ers on
Ġà¦ªà¦ļà¦¨ à¦¶
Ġà¦¬à¦°à¦¬ à§°
Ġà¦Ńà¦°à¦£ à¦ª
Ġind ividual
Ġint o
Ġà¦¥à¦ĩ à¦¥à¦ĩ
Ġj ust
Ġdo es
ips ism
Ġà¦ħà¦ĵ à¦°à¦¤
ĠNot hing
' -
3 8
4 2
4 3
4 5
E D
O O
R E
b y
c ret
e at
f in
f ul
f ore
j a
l o
o et
p an
p end
s l
s elf
t a
u hin
£ áĥ
Â »
Ð ²
Ð ´
Ñ ĭ
Ø ª
Ġ Y
Ġ `
Ġ ê
Ġ ess
Ġ âĨ
à¦¾ à¦¿
à¦¾ ..
à§ĩ (
à¦¿ ...âĢĿ
à¦¨ à¦ªà¦°
à¦¨ à¦°à¦¦
à¦¨ à¦®à¦ľ
à¦¤ à¦²à¦¬
à¦¤ à¦¦à¦²
à¦¤ à¦¸à¦¤
à¦¤ à¦§à¦°
à¦² à§ľ
à¦² à¦°à¦Ļ
à¦² à¦°à¦¤à¦¨
à¦ķ à¦¥à¦¨
à¦¯ à¦§à¦¨
à¦¯ à¦¹à¦®
à¦¬ à¦¹à¦¸
à¦¬ à¦§à¦¨
à¦¬ à¦®à¦£
à¦¬ à¦®à¦¸
à¦¬ à¦Łà¦Ł
à¦¬ à¦īà§Ł
à¦® à¦¦à¦¨
à¦® à¦°à¦ľ
à¦® à¦Ńà¦ķ
à§ĭ âĢĻ,
à§ĭ âĢĿâĢĶ
à§ĭ ...âĢĿ
Ġà¦¸ à¦ĩà¦Ľ
Ġà¦¸ à§Łà¦²
à¥¤ -
à¥¤ âĢĶ
à¦¸ à¦¨à¦ĵ
à¦¸ à¦ıà¦°
à¦¸ à¦Ńà¦¯
Ġà¦Ĩ à¦ļà¦°
Ġà¦Ĩ à¦īà¦¡
à¦¦ à¦°à¦¸
à¦¦ à¦²à¦¤
à¦¦ à¦Ĺà¦¤
à¦¦ à¦®à¦ķ
à¦¦ à¦ľà¦Ĺà¦¤
à¦Ł à¦¥
à¦Ł à¦¬à¦¸
à¦Ł à¦°à¦Ł
Ġà¦¨ à¦ĵà¦¯
Ġà¦® à¦Ĺà¦¡
Ġà¦® à¦Īà¦¨
à¦ª à¦§à¦°
à¦ª à¦īà¦·
à§Ģ '
à¦ľ à¦¸à¦¨
à¦ľ à¦¤à¦²
à¦ľ à¦ķà¦¦
à¦ľ à¦Ĺà¦£
Ġà¦¤ à¦®à¦²
Ġà¦¤ à¦Łà¦°
à¦¶ à¦¬à¦°
à¦¶ à¦¦à¦°
à¦¶ à¦¤à¦ķ
à¦¶ à¦Ńà¦°
Ġà¦ħ à¦ķà¦²à¦Ļ
à¦ĸ à¦Ŀ
à¦ĸ à¦Ńà¦Ļ
à¦Ĺ à§Ł
à¦Ĺ à¦«
à¦Ĺ à¦°à¦¨
à¦Ĺ à¦®à¦¤
à¦· à¦°à¦ľ
à¦· à¦°à¦Ł
à¦§ à¦§
à¦§ à¦Ĺà¦¤
à¦§ à¦®à¦¤
à¦§ à¦ªà¦¥
à¦§ à¦¤à¦®
à¦¡ à¦Ļ
à¦ļ à¦ľà¦¨à¦ķ
à¦¹ à¦Ńà¦Ļ
à§Ł à¦®à¦¨
à¦£ à¦Ľ
à¦£ à¦®à¦¤
à¦£ à¦®à¦£
à¦£ à¦§à¦°
à¦£ à¦ķà¦¥
à¦ģ à¦ģ
Ġà¦¶ à¦°à¦¶à¦¯
Ġà¦Ń à¦¨à¦Ńà¦¨
Ġà¦° à¦Ĺà¦°
Ġà¦° à¦ĩà¦¤
Ġà¦° à¦ľà¦¬
Ġà¦° à¦£à¦¬
à§ĩà¥¤ (
à¦ĵ à¦²à¦ľ
Ġà¦ıà¦ķ à¦ļà¦²
Ġà¦ıà¦ķ à¦ıà¦ķ
Ġà¦Ľ à¦ĩà¦¯
Ġà¦Ĩà¦® à¦ľà¦¨à¦¤
Ġà¦ī à¦°à¦¸
Ġà¦ī à¦Ńà¦ķ
à¦Ļ à¦Ĺ
Ġà¦² à¦ķà¦Ł
Ġà¦ĵ à¦ħà¦°
Ġà¦ĸ à¦ķ
Ġà¦ĸ à¦¶
Ġà¦ªà¦° à¦®à¦¤
Ġà¦§ à¦¨à¦²
Ġà¦¸à¦® à¦®à¦¨
à¦¾, -
ĠâĢ į
à§ľ à¦ľ
Ġà¦ĺ à¦°à¦®à¦¯
Ġà¦®à¦¨ à¦Ńà¦°
à¦°à¦£ à¦¸
à¦®à¦¨ à¦¤à¦°
à¦Ŀ à¦Ļ
à¦Ŀ à¦Ĺà¦¡
à¦ľà¦¨ à¦°
à¦¤à¦° à¦¨
à¦« à¦¹
à¦« à¦ĵ
à¦« à¦°à¦ķ
à¦ī à¦Ŀ
à¦ī à¦ĩà¦²
à¦ī à¦ľà¦²
à¦ī à¦ªà¦ļ
à¦ī à¦ªà¦¬
à¦ī à§ľà¦¨
à¦ī à§İà¦ķà¦£
à¦ªà¦¨ à¦¬
à¦ªà¦¨ à¦¦
Ġà¦Ĩà¦² à§Ł
à§İ à¦ªà¦¨
à¦Ĩ à¦®à¦¨
à¦Ĩ à¦ľà¦¨
à¦Ĩ à¦°à¦®
à¦Ĩ à¦¸à¦®
à¦Ĩ à¦ĩà¦ª
à¦°à¦¬ à¦²à¦¤
à¦°à¦¬ à¦¤à¦®
à¦ı à¦¯
à¦ı à¦®à¦ľ
à¦°à¦ķ à¦Łà¦Ń
Ġà¦¬à¦²à¦² à¦Ĳ
ĠâĢľ âĢ¦
Ġà¦¡ à¦ľ
Ġà¦ĩ à¦²à¦¸
Ġà¦ĩ à¦Ńà¦¨
Âł ĠÂłĠÂł
à¦ĺ à¦¦à¦°
à§Į ,
Ġà¦ľà¦¨ à¦°
Ġà¦ľà¦¨ à¦¬à¦²
Ġà¦ľà¦¨ à¦ķà¦²
à¦¬à¦² à¦Ĺ
Ġà¦ıà¦¬ à¦Ľà¦°
Ġà¦ħà¦¬ à¦¬
Ġà¦ıà¦¸ à¦Ľ
Ġà¦ıà¦¸ à¦ıà¦¸à¦¸
à¦ħ à¦¬à¦ķ
à¦ħ à¦¸à¦®à¦¯
Ġà¦¬à¦¨ à¦ķ
Ġà¦Ĺà¦² à¦¬
Ġà¦ħà¦¸ à¦¬à¦°
à¦¯à¦¬ à§Łà¦¸
à¦°à¦¥ à¦ķ
à¦¨à¦¬ à¦Ľà¦°
à§ĩ? -
à§ĩ? âĢ¦
Ġà¦Ĩà¦¨ à¦ľ
Ġà¦īà¦¦ à¦¬
Ġà¦ľà¦² à¦ļ
à¦Ĺà¦² à¦°
Ġà¦ħà¦Ń à¦ķ
à¦¶à¦¨ à¦¦
à¦¿à¦Ĥ ?
à¦°à¦¹ à¦®
Ġà¦ĺà¦° à¦ĩ
à¦ļà¦¨ à¦Ńà¦Ļ
à¦¹à¦¸ à¦ķ
à¦¬à¦¤ à¦¸
à§ĩâĢĶ âĢĿ
à¦§à¦¨ à¦ª
Ġà¦ħà¦ª à¦¹
Ġà¦ķà¦² à¦¶
Ġà¦¸à¦¹ à¦®
Ġà¦¸à¦¹ à¦®à¦°à¦£
à¦ĩà¦¨ à¦ľ
à¦ķà¦¬ à¦ķ
Ġà¦ħà¦ľ à¦ªà¦¥
à¦¹à¦² à¦Ł
à¦¹à¦² à¦ª
Ġà¦Ĳ à¦²
Ġà¦ķà¦¤ à¦¶à¦¤
à¦¤à¦² à¦ľ
à¦Ĺà¦¨ à¦ķ
Ġà¦īà§İ à¦ªà¦²
à¦°à¦Ń à¦ķ
à¦¦à§Ł à¦ĩ
à¦¿? "
à¦ıà¦ķ à¦Ĺ
à¦¨à¦ķ à¦¯
Ġà¦¶à¦¹à¦° à¦ĵ
Ġà¦¬à¦ĩ à¦ªà¦¡
à¦¬à¦¦ à¦®à¦¨
à¦¤à¦ķ à¦¥
à¦¤à¦® à¦®
Ġà¦ĩà¦¨ à¦¹
à¦ľà¦² à¦®
Ġà¦Ĩà¦§ à¦¶
à§ĩ; âĢĵ
à¦ķà¦¨ à¦«
à¦¸à¦ķ à¦®
à¦¸à¦ķ à¦¶
Ġà¦īà¦² à¦Łà¦ª
Ġà¦¦à¦² à¦Ľ
Ġ( âĢľ
à¥¤âĢĻ âĢĿ
à¦«à¦² à¦ĩ
Ġà¦¸à¦®à§Ł à¦ĵ
Ġà¦¦à¦¶ à¦Ĺ
à¦®à¦¸ à¦¹
Ġà¦Ĺà¦£ à¦¯
Ġà¦Ĺà¦£ à¦Ĩà¦¨
à¦¹à¦°à¦£ à¦ĵ
Ġà¦ĵà¦ķ à¦¥
Ġà¦°à¦¸ à¦¶
Ġà¦Ī à¦¸
Ġà¦Ĩà¦ª à§İà¦ķ
à§¦ à§§
Ġà¦ªà¦°à¦® à¦ª
Ġà¦°à¦ĵà¦¶à¦¨ à¦ĵ
Ġà¦¨à¦ľà¦° à¦¬à¦¨
à¦ªà¦² à¦ĵà¦¯
Ġt im
à¦²à¦Ń à¦ª
à§Ń à§«
à§Ń à§¬
in t
à§ª à§®
Ġà¦¬à¦¸à¦¨ à¦ĸ
à¦·à§Ł à¦Ń
Ġà¦Ĩà¦ĩà¦¨ à¦Ńà¦Ļ
à¦¨à¦ª à¦¤à¦¨
an ce
à¦¬à¦Ł à¦¦
Ġà¦· à¦Ł
à¦¤à¦¸ à¦ŀ
à¦ĸà¦ķ à¦·
à¦¶à¦Ĺ à¦Ļ
re ad
à¦¦à¦¬ à¦¦à¦²
Ġà¦ľà¦Ĺ à¦¬à¦¨
Ġà§¨ à§©
à§¬ à§§
Ġo ver
it a
Ġs il
à§® à§ª
à¦ªà¦Ĺ à¦ª
Ġà¦²à§ľ à¦¤
Ġ? "
à¦¸à¦Ń à¦¬à¦¨
Ġa ct
Ġà¦¤à¦ªà¦¨ à¦¦
à¦¬à¦Ĺ à¦ŀ
Ġm uch
Ġw ould
Ġw ord
Ġw hen
ar a
ar g
Ġb l
Ġp ur
à¦īà¦ł à¦²
Ġf un
à¦Ńà¦°à¦¤ à¦¬
Ġà§© à§¯
Ġà¦ķà¦¬à¦° à¦Ł
à¦¼à¦¿à¦Ĥ -
Ġà¦ĩà¦ī à¦®
Ġà¦ĩà¦ī à¦ª
Ġà¦ĩà¦ī à¦ıà¦¸
Ġà§§à§¯à§Ń à§«
Ġà§¨à§¦ à§¦à§¦
Ġà¤ ®
à¦Ī à¦°
à¦Ī à¦·à§İ
st ru
ĠP intu
ig ion
Ġre g
Ġà¦ķà¦¤à¦¬ à¦¡
Ġà¦Ĺà¦ł à¦¨à¦ķ
ur al
id ent
Ġà¦Ĩà¦īà¦Ł à¦ª
Ġà¦ĸà§ľ à¦Ĺ
Ġà§§à§¯à§ª à§«
Ġà§¯ à§¯
à§İà¦¸à¦ķ à¦¦
à¦ıà¦¨ à¦ı
ci ety
à¦¶à¦§ à¦°à¦¦
Ġà¦īà¦ĩ à¦¥
ĠE m
Ġà§§à§Ń à§«à§Ń
ag ore
à¦¯à¦Łà¦ķ à¦¦
Ġà§§à§¯à§¬ à§«
op le
Ġan y
Ġà¦¦à¦¹ à¦°à¦®
Ġv al
Ġne w
Ġà§§à§¯à§¨ à§¨
Ġso ciety
Ġà¦Ĭà¦¨ à¦¸à¦¤
Ġcom m
à¦ĩà¦¨à¦« à¦°à¦®
Ġal ways
oug ht
Ġà¦«à¦¸à¦« à¦°
Ġsom et
Ġsh ould
uth or
Ġwho le
ºçľºçľºçľºçľ ºçľºçľºçľºçľ
âĢĵâĢĵâĢĵâĢĵâĢĵâĢĵâĢĵâĢĵ âĢĵâĢĵâĢĵâĢĵâĢĵâĢĵâĢĵâĢĵ
·çľ·çľ·çľ·çľ ·çľ·çľ·çľ·çľ
we en
arn ing
por t
Ġbet ween
Ġar t
ĠÂ «
ĠSo cial
yst em
áĥĲ áĥ
Ġà¦°à¦Ĺà¦° à¦Ĺ
4 0
4 1
4 4
4 7
I I
I S
I n
R A
c o
c he
d en
h il
i ed
n a
p le
u c
v es
Ð ¿
Ù Ĥ
à ¨
á ŀ
ì Ŀ
Ġ Õ
Ġ Ú©
à§ĩ à¦¾à¥¤
à¦° à¦²à¦¬
à§į âĢ¦
à¦¨ à¦¬à¦²
à¦¨ à¦®à¦§
à¦¨ à¦Ĩà¦ªà¦¨
à¦¤ à¦¸à¦Ļ
à¦¤ à¦Ĩà¦Ł
à¦² à¦®à¦¯
à¦² à¦¸à¦¨
à¦² à¦¦à¦²
à¦² à¦ªà¦Ł
à¦² à¦ªà¦²
à¦ķ à¦°à¦®
à¦ķ à¦Ĺà¦¤
à¦ķ à¦®à¦£
à¦¯ à¦¡
à¦¯ à¦®à¦°
à§ģ âĢĿà¥¤
à¦¼ âĢĻ,
à¦¼ )à¥¤
à¦® à¦°à¦¬
à¦® à¦¬à¦¸
à§ĭ '
à§ĭ âĢĻâĢĶ
Ġà¦ķ à¦ľ
Ġà¦ķ à¦ĸ
Ġà¦ķ à¦Łà¦ķ
Ġà¦ķ à¦¦à¦²
Ġà¦ķ à¦ķà¦ª
Ġà¦¬ à¦ķà¦¤
Ġà¦¸ à§ľ
Ġà¦¸ à¦²à¦¤
Ġà¦¸ à¦ªà¦¥
Ġà¦¸ à¦¶à¦ķ
à¦¸ à¦¦à¦¨
à¦¸ à¦ıà¦ķ
à¦¸ à¦ĺà¦°
à¦¸ à¦°à¦¬à¦°
Ġà¦ª à¦²à¦¤
Ġà¦ª à¦²à¦²
Ġà¦Ĩ à¦Łà¦¨à¦®
à¦¦ à§ľ
à¦¦ à¦ªà¦Ł
à¦Ł à§Ł
à¦Ł à¦Ļ
à¦Ł à¦®à¦¨
à¦Ł à¦¸à¦®
à¦Ł à¦®à¦£
à¦Ł à¦¦à¦²
à¦Ł à¦Ńà¦°
à¦Ł à¦®à¦¸
Ġà¦¨ à¦°à¦¬
Ġà¦¨ à¦°à¦ª
Ġà¦¨ à¦ĵà¦Ĺ
Ġà¦® à§ľà¦ķ
à¦ª à¦ĺ
à¦ª à¦Ľà¦¨
à¦ª à¦®à¦²
à¦ª à¦¶à¦¬
à¦ª à¦¸à¦¤
à¦ª à¦ļà¦ķ
à¦ĩ à¦²à¦ķ
à§Ģ /
à§Ģ âĢĿâĢĶ
Ġà¦¦ à¦¦à¦°
à¦ľ à¦¤à¦¬
à¦ľ à¦¬à¦¦
à¦ľ à¦Ńà¦¯
Ġà¦¹ à¦°à¦¹
Ġà¦¤ à¦ŀ
Ġà¦¤ à¦¸à¦²
Ġà¦¤ à¦ķà¦¤à¦ķ
Ġà¦ı à¦¨à¦ĵ
à¦¶ à¦°à¦¥
à¦¶ à¦ªà¦¤
à¦¶ à¦¤à¦®
à¦¶ à¦®à§Ł
à¦ĸ à¦°à¦¦
à¦Ĺ à¦¬à¦°
à¦Ĺ à¦łà¦ķ
à¦· à§ľ
à¦§ à¦¬à¦ª
à¦§ à¦¹à¦¸
à¦§ à¦®à§Ł
à¦¹ à¦§
à¦¹ à¦¬à¦²
à¦¹ à¦²à¦¬à¦¶à¦¤
Ġà¦ķà¦° à¦¯
Ġà¦Ĺ à¦ľà¦°
à¦£ à¦ªà¦¤
à¦£ à¦ļà¦ķ
à¦£ à¦¬à¦ķ
à¦ģ ?
à¦ģ à¦¾
à¦¥ à¦¨à¦ķ
Ġà¦ļ à¦ĩà¦²
Ġà¦° à¦¦à¦¬à¦¦à¦²
à§ĩà¥¤ âĢĵ
à§ĩà¥¤ âĢľ
à¦ĵ à¦ĺà¦°
à¦Ń à¦¹
à¦¼à¦¾ :
à¦¼à¦¾ ?âĢĻ
Ġà¦Ľ à¦Ĺà¦¨
Ġà¦Ĩà¦® à¦Ł
Ġà¦Ĩà¦® à§ľ
Ġà¦Ĩà¦® à¦¤à¦²
à¦ł à¦Ńà¦°
Ġà¦ī à¦¸à¦ĸ
Ġà¦ĸ à¦°à¦¤
à¦°à¦¤ à¦¸
à¦°à¦¤ à¦ªà¦ķ
à¦¾à¥¤ '
Ġà¦ªà¦° à¦ľà¦¨
âĢĶ "
Ġà¦¸à¦® à¦§
Ġà¦¸à¦® à¦ªà¦¦
à¦¬à¦¨ à¦¶à¦ķ
à¦¬à¦¨ à¦ķà¦¥
à¦¼à¦¿ ?âĢĻ
à§ľ à¦¶
Ġà¦ĺ à¦¨à¦ķ
Ġà¦®à¦¨ à¦¬
à¦Ŀ à¦ª
à¦« à¦¥
à¦« à¦Ŀ
à¦ī à¦¬à¦²
à¦ī à¦ªà¦¯
à¦ī à¦ªà¦ľ
à¦ªà¦¨ à¦ĩ
à¦ªà¦¨ à¦Ĺ
Ġà¦Ĩà¦² à¦¬à§İ
à§İ à¦¹
à§İ à¦Ĺà¦¤
à¦Ĩ à¦ķà¦°
à¦Ĩ à¦¨à¦Ĺ
à¦°à¦¬ à¦¹
à¦¬à¦° à¦®à¦¯
Ġà¦¬à¦²à¦² à¦ļ
Ġà¦¬à¦²à¦² à¦ĵ
Ġà¦Ĩà¦¸ à¦Ļ
čĊč Ċč
Ġà¦Ĩà¦Ľ à¦¨
Ġà¦¡ à¦Ĺà¦®à¦Ĺ
Ġà¦ĩ à¦Ĺà¦¨
Ġà¦ĩ à¦¸à¦ª
Ġà¦ĩ à¦«à¦¤
à¦ĺ à¦¯
à¦ĺ à¦ªà¦¥
Ġà¦®à¦¤ à¦ķ
à¦¬à¦² à¦ĵ
à¦¬à¦² à¦¤à¦®
Ġà¦ħà¦¬ à¦¦à¦®
à¦·à¦£ à¦¯
à¦·à¦£ à¦¦
à¦·à¦£ à¦¤à¦°
Ġà¦ıà¦¸ à¦ıà¦®à¦ıà¦¸
âĢĵ âĢĺ
à¦ĥ âĢĶ
à¦ħ à¦ªà¦Ł
à¦ħ à¦ķà¦¥
à¦ħ à¦§à¦®
Ġà¦¬à¦¨ à¦ª
à¦ķà¦² à¦Ń
Ġà¦ªà¦¥ à¦ľ
à¦ķà¦° à¦ª
à¦ķà¦Ł à¦Ĺ
Ġà¦ħà¦¸ à¦®à§Ł
à¦¤à¦¬ à¦§
à¦¤à¦¬ à¦¸à¦¨
à¦°à¦¸ à¦ª
à¦ķà¦¤ à¦²
Ġà¦Ĩà¦¶ à¦®
à¦°à¦¥à¦® à¦ª
Ġà¦¬à¦° à¦Ĺ
Ġà¦¹à¦¤ à¦ļ
Ġà¦Ĩà¦¨ à¦²à¦ķ
Ġà¦ħà¦¦ à¦®à¦¨
à¦Ĩà¦® à¦Ĺ
Ġà¦ľà¦² à¦ļà¦ķ
à¦Ĺà¦² à¦ªà¦¥
Ġà¦ħà¦Ń à¦¬
à¦Ĺà¦¤ à¦¦
Ġà¦¸à¦¨ à¦¦à¦ªà¦¤
à¦¿à¦Ĥ à¥¤âĢĻ
à¦¯à¦ķ à¦Ń
à¦¯à¦ķ à¦°à¦£
à¦°à¦¹ à¦Ĺ
à¦°à¦¹ à¦¨à¦ķ
Ġà¦ĺà¦° à¦¬à¦¨
à¦²à¦¨ à¦¦
Ġà¦ķà¦°à¦¬ à¦ĩ
à¦¹à¦¸ à¦Ł
Ġà¦®à¦¹ à¦¦
à¦°à¦¶ à¦¤
à¦°à¦ľ à¦®
à¦¼à§ĭ !
à¦¼à§ĭ ?
à¦¼à§ĭ âĢĵ
à¦ļà¦² à¦²
à¦ļà¦² à¦ĸ
à¦®à¦ķ à¦¹
à¦¿à¦ĥ ,
à¦¸à¦¨ à¦¸
à¦¸à¦¨ à¦¦
à¦ĩà¦¨ à¦ĩ
à¦ķà¦¬ à¦ĩ
à¦ķà¦¬ à¦¦à¦²
à¦ıà¦ĩ à¦ļà¦¡
Ġà¦ķà¦¬ à¦Ľà¦°
à¦¸à¦® à¦¬
Ġà¦ªà§ľ à¦¶
Ġà¦ħà¦ľ à§Łà¦¦
à¦¹à¦² à¦ĩ
à¦¹à¦² à¦ĵ
Ġà¦ĵà¦ªà¦° à¦¦
âĢ¦ !
âĢ¦ !âĢĻ
Ġà¦ķà¦¤ à¦ľà¦¨à¦ķ
Ġà¦¤à¦° à¦²à¦¤
Ġà¦°à¦Ļ à¦ª
Ġà¦īà§İ à¦¸à¦¬à¦ĩ
Ġà¦¯à¦¤ Åĵ
Ġà¦ªà¦¦ à¦®
Ġà¦ªà¦¦ à¦Ł
Ġà¦ªà¦¦ à¦¦à¦²
à¦®à¦° à¦§
à¦¸à¦° à¦²à¦¤
à§ĩ! (
à¦¦à§Ł à¦ĵ
à¦ªà¦¦ à¦¦
à¦ªà¦¦ à¦¤à¦²
à¦ªà¦¥ à¦ª
à¦¼à§ĩà¥¤ à¥¤
Ġà¦¨à§Ł à¦Ł
à¦ıà¦ķ à¦ľà¦¨à¦ķ
à¦®à¦£ à¦ķà¦¨
à¦·à¦¤ à¦ĩ
à¦ĩà¦° à¦Ļ
à¦¬à¦¦ à¦¤
à¦¯à¦® à§Łà¦¤
à¦·à¦ķ à¦¶
à¦·à¦ķ à¦Ĺà¦£
à¦¤à¦® à¦¸
à¦¤à¦® à¦ľ
à¦¾! '
à¦ªà¦ķ à¦¨
à¦¤à¦¤ à¦ªà¦ķ
à¦¯à¦¸ à¦ŀ
Ġà¦¶à¦¤ à¦§
à¦¸à¦« à¦Łà¦ĵà¦¯
Ġà¦¨à¦¬ à¦Ĺ
à§ģ- -
à¦¼à§Ģ ?
à¦ĩà¦Ł à¦°
à¦ĩà¦Ł à¦¹
à¦¥à¦° à¦ĸà¦£
Ġà¦¸à¦¹à¦ľ à¦¬
à§İà¦¸ à¦¹
Ġà¦¬à¦²à¦¬ à§İ
à¦īà¦² à¦¸
?âĢĻ âĢĶ
à¦°à¦¹à¦£ à¦ĩ
à¦·à¦® à¦Ń
à¦ķà¦¶ à¦¤
Ġà¦ķà¦¨ à¦ľ
à¦®à§Ł à¦¦
à¦§à¦¬ à¦¸à¦®
Ġà¦¦à¦¶ à¦¤à¦²
Ġà¦Ĺà¦£ à¦²
Ġà¦ļà¦ķ à¦®
Ġà¦¬à¦ī à¦Ń
à¦®à¦°à¦£ à¦¶à¦ķ
Ġà¦°à¦¸ à¦§
Ġà¦¬à§ľ à¦ľà¦¨
Ġà¦¬à§ľ à¦¸à§ľ
Ġà¦Ī à¦·
à¦¾âĢĻ !
à§¦ à§¨
à¦ķà¦°à¦£ à¦¯
à¦¶à¦² à§Ł
à¦¿; âĢĵ
à¦łà¦ķ à¦ĩ
à¦¬à¦¹ à¦Ń
à¦ľà¦® à¦ľà¦®
à¦ĩà¦Ń à¦ĵà¦¯
à§© à§¬
à¦¸à¦¹ à¦ķ
à¦¸à¦¹ à¦ļà¦°
à§ª à§©
à§ª à§¯
à¦ļà§Ł à¦ªà¦¤
à¦Ĩà¦Ĺ à¦®à¦¨
à¦¶à¦¤ à¦¦à¦²
Ġà¦ĵà¦ª à¦°à¦¤à¦²
à¦¤à¦ĸà¦¨ à¦ķ
Ġà¦¶à¦ªà¦¥ à¦¬
Ġà¦ļà¦Ł à¦ķà¦²
à¦®à¦ļ à¦°à¦£
à¦¬à¦ľà¦¨ à¦¹
Ġà¦Ĭ à¦·à¦°
Ġà¦Ĩà¦ļà¦°à¦£ à¦ĩ
Ġà¦Ĩà¦ļà¦°à¦£ à¦Ĺ
Ġà¦ķà¦ļ à¦ĵ
Ġà¦®à¦¦ à¦¤
Ġà§¨ à§¯
à¦ªà§ľ à¦¤
à¦®à¦® à¦Ń
Ġà¦°à¦ľà¦¤ à¦ĵ
Ġthe m
à¦ĩà¦ª à¦ĩ
er g
Ġà¦ļà¦°à¦® à¦ªà¦¨
Ġà¦ħà¦¬à¦¨ à¦®à¦¨
it tle
à¦¾âĢ¦ .
!âĢĻ âĢĿ
Ġs k
à¦Ĩà¦¸ à¦Ĺà¦°
à§® à§¦
Ġà¦ļà¦°à¦£ à¦¦
à¦ļà¦°à¦£ à¦ķ
Ġ? '
Ġa c
à¦¸à¦°à¦£ à¦ķ
Ġà¦Ĩà¦ĩ à¦¨à¦¤
Ġc r
Ġà¦®à¦°à¦£ à¦¶
or a
or k
or al
es c
Ġà¦Ńà¦Ĺ à¦¬à¦¨
Ġm en
Ġm ay
Ġm ust
à¦ľà¦Ĺà¦¤ à¦ķ
à¦¿. -
Ġp re
Ġp rom
à¦¿âĢĿ -
and a
à¦īà¦ł à¦Ľ
à¦Ĩà¦§ à¦ĸ
Ġf e
à¦ªà¦ľ à¦Ļ
as on
Ġd oub
à¦¼à¦¿à¦Ĥ ,
à¦¼à¦¿à¦Ĥ à¥¤
Ġh ar
Ġh and
à¦²à¦ĵ à¦Ń
à¦īà¦¬ à¦ĵà¦¯
à¦ĸà¦¬à¦° à¦¦
Ġà¦¸à¦² à¦®à¦¨
Ġl o
Ġl iv
à§ĭâĢ¦ âĢĻ
all en
ĠA n
ĠA r
ĠA nd
Ġà§« à§¬
Ġà¦¥à¦² à¦¥à¦²
ĠP u
Ġe v
Ġe ven
ĠB ut
à¦¼âĢ¦ à¥¤
à¦¼âĢ¦ âĢĻ
Ġà¦īà¦ĩà¦² à¦Ł
Ġre al
Ġà¦¸à¦¯ à¦¤à¦¨
áĥ Ķ
ĠR up
Ġà¦ıà¦« à¦¬
ver y
od y
ul ar
Ġà§¯ à§¦
Ġà§§à§« à§¦
Ġnot hing
iv ide
ag in
ĠÐ º
Ø§ Ø±
Ø§ ÙĦ
Ġà§§à§¯à§¨ à§¯
Ġso cial
Ġman y
Ġtr uth
Ġsu ch
iz ed
ang la
Ġcan not
Ġim agin
ĠĠĠĠĠĠĠĠĠĠĠĠĠĠĠĠ ĠĠĠĠĠĠĠĠĠĠĠĠĠĠĠĠ
ud e
-------- --------
Ġsol ipsism
Ġsup er
à¦¸à¦¹à¦¨ à¦¶
vel op
Ġsomet hing
Ġà¦ıà¦¨à¦ĵ à¦¸
Ġà¦Ľà¦Ĺà¦¨ à¦²
ĠRup sha
. )
5 5
C T
E N
F i
I TI
O N
S B
S I
a ve
b le
b ra
d e
g a
h i
i x
i vers
l ic
l ess
m in
m al
o ver
p e
p r
r ong
s o
t e
t o
t he
w n
w ard
y n
y es
y ond
Î µ
Ñ ĩ
Ñ Ī
Ø ³
Ù ģ
â ģ
Ġ 0
Ġ 6
Ġ à§«à§¨
Ġà¦ £
à¦¾ "
à¦¾ (
à§ĩ à§į
à¦° à¦Ńà¦¬
à§į :
à¦¨ à¦¨à¦¬
à¦¨ à¦ĩà¦¨
à¦¨ à¦ªà¦¦
à¦¨ à¦¸à¦ķ
à¦¨ à¦Ĩà¦°
à¦¤ à¦ĵà¦¯
à¦¤ à¦ķà¦²
à¦¤ à¦¸à¦°
à¦¤ à¦¶à¦ķ
à¦¤ à¦¸à¦¹
à¦² à¦¦à¦°
à¦² à¦¸à¦ķ
à¦ķ à¦ªà¦¨
à¦ķ à¦ħà¦¨
à¦ķ à§°
à¦ķ à¦¸à¦ª
à¦¯ à¦¤à¦¬
à¦¬ à¦®à¦¤
à¦¬ à¦¹à¦°
à¦® à¦®à¦Ĺ
à¦® à¦ļà¦Ł
à¦® à¦Ĺà¦¤à¦Ń
Ġà¦ķ à¦ªà¦°
Ġà¦¬ à¦¨à¦¤à¦²
Ġà¦¸ à¦ĩà¦²
Ġà¦¸ à¦¦à¦Ĺ
Ġà¦¸ à¦ĩà¦ľ
à¥¤ *
à¦¸ à¦¬à¦°
à¦¸ à¦ļà¦²
à¦¸ à¦¦à¦¸
à¦¸ à¦¨à¦¤à¦¨
Ġà¦ª à¦Ĺ
Ġà¦ª à¦¹à¦°
Ġà¦ª à¦ĩà¦ªà¦ĩ
Ġà¦Ĩ à§°
Ġà¦Ĩ à¦Łà¦¬
à¦¦ à¦ľà¦¨
à¦¦ à¦²à¦¨
à¦¦ æĹ¥ãģ®
à¦Ł à¦®à¦°
à¦Ł à¦¶à¦ķ
à¦Ł à¦®à¦Łà¦®
Ġà¦¨ à¦°à¦²
Ġà¦¨ à¦¹à¦°
Ġà¦¨ à§ľà¦¤
Ġà¦® à¦¬
Ġà¦® à¦°à¦¹
Ġà¦® à¦Ĺà¦°
Ġà¦® à¦²à¦®à¦²
à¦ª à§Ł
à¦ª à¦°à¦¤
à¦ª à¦¢
à¦ª à¦¹à¦¤
à¦ĩ à¦£
à¦ĩ à¦¶à¦¨
à¦ĩ à¦¨à¦ĵ
à¦ĩ à¦¤à¦²
à¦ĩ à¦®à¦°
à¦Ľ à¦ķà¦ĩ
à¦ľ à§İ
à¦ľ à¦¬à¦°
à¦ľ à¦Ĺà¦¨
Ġà¦¹ à¦°à¦ķ
à¦¶ à¦ķà¦Ł
à¦¶ à¦²à¦ķ
à¦¶ à¦¨à¦¬
à¦¼à§ĩ à¦¾
à¦¼à§ĩ âĢĿ
à¦¼à§ĩ ?âĢĻ
Ġà¦ħ à¦°à¦¤
Ġà¦ħ à¦°à¦¸
à¦ĸ à¦«
à¦ĸ à¦ķà¦ĩ
à¦· à¦ł
à¦· à¦ļà¦¨
à¦· à¦°à¦ĩ
à¦· à¦¬à¦¦
à¦§ à¦ĸ
à¦§ à¦°à¦²
âĢ ĥ
à¦¡ à¦ĸ
à¦¡ à¦¬à¦ķ
à¦¡ à¦²à¦Ĺ
à¦ļ à¦ł
à¦ļ à¦¶à¦¬
à¦¹ à¦ĩà¦²
à¦¹ à¦ķà¦¦
Ġà¦ķà¦° à¦ķà¦°
à§Ł à¦ĸ
Ġà¦Ĺ à¦Ľ
Ġà¦Ĺ à¦ªà¦Ĺà¦ª
à¦¥ à¦®à¦ķ
à¦¥ à¦¸à¦¨
à¦¥ à¦ķà¦¦
Ġà¦¶ à¦Łà¦Ĺ
Ġà¦¶ à¦łà¦¤
Ġà¦ľ à¦ªà¦®
Ġà¦° à¦²
Ġà¦° à¦¨à¦ķ
Ġà¦° à¦Łà¦²
Ġà¦° à¦¸à¦ķ
Ġà¦° à¦£à¦¨
Ġà¦° à¦ĩà¦ļ
à¦Ń à¦°à¦¦
Ġà¦ıà¦ķ à¦Ľ
Ġà¦ıà¦ķ à¦¤à¦®
Ġà¦ıà¦ķ à¦¶à¦Ł
Ġà¦ıà¦ķ à¦§à¦°à¦£
à¦¼à¦¾ âĢĻà¥¤
Ġà¦Ľ à¦ľà¦¨
à¦ł à¦²
à¦ł à¦¤à¦²
Ġà¦ī à¦ŀ
Ġà¦ī à¦¶à¦ķ
Ġà¦ī à¦ĩà¦®
Ġà¦² à¦¬à¦¨
Ġà¦ĵ à¦ĵ
Ġà¦ĵ à¦Ļ
Ġà¦ĵ à¦®à¦²
Ġà¦¬à¦² à¦ķ
Ġà¦¬à¦² à¦Ĺ
Ġà¦« à¦·
Ġà¦Ĩà¦° à¦°
Ġà¦Ĩà¦° à¦«
Ġà¦Ĩà¦° à¦¬à¦°
à¦¾à¥¤ )
à¦¾à¥¤ âĢĵ
Ġà¦ªà¦° à¦Ĺ
Ġà¦ªà¦° à¦¶à¦¨
Ġà¦§ à¦²à¦¡
âĢĶ -
Ġà¦¸à¦® à¦ľ
à¦¾, --
à§ľ à¦°
à¦ĸà¦¨ à¦ĵ
Ġà¦®à¦¨ à¦Ĺà¦¡
à¦ªà¦° à¦¬à¦¶
à¦°à¦£ à¦¦
Ġà¦ıà¦ĩ à¦¡
à¦¿à¥¤ '
à¦®à¦¨ à¦ľ
à¦ľà¦¨ à¦ªà¦¦
à¦ŀ à¦¨
à¦« à¦¶
à¦« à¦ĵà¦¯
à¦ī à¦¥à¦²
à¦ī à¦ªà¦®
à¦ī à¦¬à¦Ł
à¦ī à§İà¦¸à¦°
à¦ī à¦°à¦¤à¦¨
à§İ à¦Ľà¦²
à¦Ĩ à¦ĵà¦¯
à¦Ĩ à¦°à¦¶
à¦Ĩ à¦¦à¦®
à¦Ĩ à¦ĩà¦¶
à¦Ĩ à¦«à¦¸
à¦°à¦¬ à¦ĩ
à¦°à¦¬ à¦£à¦ķ
à¦ı à¦¶
à¦ı à¦ľà¦¨
à¦ı à¦ķà¦°
à¦ı à¦¨à¦ª
à¦¬à¦° à¦Ļ
Ġà¦Ł à¦®à¦Ł
Ġà¦¬à¦²à¦² à¦¸à¦¬
Ġà¦¬à¦²à¦² à¦ıà¦ĸ
Ġà¦¬à¦²à¦² à¦Ĩà¦Ĺ
čĊč Ċ
Ġà¦Ĩà¦Ľ à¦²
Ġà¦Ĩà¦Ľ à¦®
âĢĻ ;
Ġà¦¡ à¦¬
Ġà¦¡ à¦®
à§Ī âĢĵ
Ġà¦ĩ à¦®à¦ªà¦°
Ġà¦ĩ à¦īà¦¸
à¦ĺ à¦°à¦¬
à¦ĺ à¦®à¦²
à¦ĺ à¦Ńà¦°
à¦°à¦® à¦Ł
à¦°à¦® à¦§à¦°
Ġà¦ł à¦Ĺ
âĢĵ à¥¤
âĢĵ âĢĿ
à¦¤à¦¨ à¦®
à¦ĥ ?
à¦ħ à¦ĩ
à¦ħ à¦Ŀ
à¦ħ à¦¶à¦¨
à¦ħ à¦¬à¦§
à¦ħ à¦¨à¦¬à¦¦
Ġà¦¬à¦¨ à¦ªà¦°
Ġà¦¬à¦¨ à¦Ĺà¦®à¦¨
à¦ķà¦² à¦°
Ġà¦ħà¦® à¦¯
Ġà¦ħà¦® à¦²à¦¬
Ġà¦ªà¦¥ à¦¬
à¦ķà¦° à¦°
à¦ķà¦° à¦Ĺ
à¦¸à¦¬ à¦¦
à¦¯à¦¬ à¦ļ
à¦¯à¦¬ à¦¸à¦¤
à¦°à¦¨ à¦¦
à¦¤à¦¬ à¦ľ
à¦¤à¦¬ à¦¹
à¦¤à¦¬ à§İ
à¦¤à¦¬ à§Łà¦¸
à¦¨à¦¬ à¦¦à¦²
à¦¦à¦¨ à¦Ł
à¦¦à¦¨ à¦ĸ
à¦¦à¦¨ à¦ªà¦¤
Ġà¦¬à¦° à¦ª
Ġà¦¬à¦° à¦ĸ
Ġà¦¹à¦¤ à¦¶
Ġà¦ıà¦² à¦®
à¦Ĩà¦® à¦¤
à¦Ĩà¦® à¦²à¦ķ
Ġà¦ľà¦² à¦¶
Ġà¦ľà¦² à¦ľà¦²
Ġà¦ľà¦² à¦ªà¦Ł
Ġà¦ľà¦² à¦¤à¦°à¦Ļ
Ġà¦¸à¦¨ à¦ķ
à¦¿à¦Ĥ âĢĵ
à¦¿à¦Ĥ âĢ¦
Ġà¦ħà¦¤ à¦Ĺ
à¦®à¦¤ à¦ĩ
à¦§à¦ķ à¦ĩ
Ġà¦®à¦¹ à¦¬
à¦¨à¦ĵ à¦¨
à¦¬à¦¤ à¦ķ
à¦®à¦² à¦¯
à¦ĸà¦² à¦Ń
à¦°à¦ľ à¦Ĺà§İ
à¦°à¦¦ à¦£
Ġà¦ħà¦ª à¦Ń
Ġà¦ħà¦ª à¦¶à¦¨
Ġà¦ħà¦ª à¦¶à¦ķ
à¦°à¦² à¦¹à¦°
à¦¼à§ĭ à¦ĥ
Ġà¦¸à¦¹ à¦Ĺ
Ġà¦īà¦¤ à¦·
à¦¸à¦¨ à¦ĩ
à¦¸à¦¨ à¦Ń
à¦¿- '
à¦Łà¦ķ à¦ķ
à¦Łà¦ķ à¦ĵ
à¦¹à¦² à¦ľà¦¨à¦ķ
Ġà¦Ĳ à¦¯
Ġà¦°à¦Ļ à¦ļà¦Ł
Ġà¦ªà¦¦ à¦¸à¦ŀ
à§ĩ! "
à§ĩ! âĢĵ
à¦¶à¦¬ à¦¦
à¦¦à§Ł à¦ª
à¦¦à§Ł à¦ľ
à¦ªà¦¦ à¦®
à¦¿? -
à¦¨à¦ķ à¦°à¦£
Ġà¦ħà¦ķ à¦£
à¦·à¦¤ à¦ķ
à¦¯à¦® à¦¶
à¦¯à¦® à¦¹
à¦¤à¦ķ à¦ķ
à¦¿âĢĶ âĢĿ
à¦¿âĢĶ âĢĻ
à¦ľà¦² à¦°à¦Ļ
à¦®à¦¬ à¦§
à¦¶à¦ķ à¦ĵ
à¦ĩà¦ķ à¦®
à¦¢ à¦Ļ
à¦¯à¦¸ à¦¹
Ġà¦ħà¦² à¦¸à¦Ń
à¦¯à¦¦ à¦¶
à§° à¦·
à§° à¦£
à¦¸à¦« à¦¡
Ġà¦¨à¦¬ à¦ªà¦°
?âĢĿ ,
?âĢĿ âĢĵ
à¦¨à¦¸ à¦¹à¦ķ
à¦ĩà¦¤ à¦¸
à¦ªà¦¸ à¦¹
à¦¬à¦¶ à¦®
ÂłÂłÂłÂłÂłÂłÂłÂł ÂłÂłÂłÂłÂłÂłÂłÂłÂłÂłÂłÂłÂł
Ġà¦¸à¦¹à¦ľ à¦¤à¦°
Ġà¦ıà¦ķà¦ĩ à¦¸
à¦Ĺà¦¬ à¦§
à¦ķà¦¶ à¦Ł
à¦¿! '
à¦¿! )
à¦§à¦¬ à¦¹
Ġà¦¦à¦¶ à¦Ń
à¦¨à¦¯ à¦ľ
Ġà¦¨à¦°à¦® à¦Ń
à§Ģ- --
à¦¦à¦® à¦Ĺ
Ġà¦¬à¦ī à¦ĵ
Ġà¦¬à¦ī à¦ıà¦°
Ġà¦°à¦¸ à¦ª
à¦®à¦¹ à¦ķ
à¦®à¦¹ à¦¨à¦¨
Ġà¦Ĩà¦ª à¦Ĺ
à§Łà¦¤ à¦ĩ
Ġà¦ķà¦ª à¦ļ
à§¦ à§Ń
Ġà¦ħà¦¸à¦® à¦ŀ
à§« à§©
à¦łà¦ķ à¦ĵ
Ġt w
à¦¿âĢĵ âĢĵ
Ġà¦Ĺà¦°à¦® à¦ķ
à¦ķà¦ľà¦¨ à¦¦
Ġà¦ľà§Ł à¦ª
à¦£à¦¬ à¦§à¦°
à¦ĩà¦¡ à¦¬
à¦¥à¦² à¦Ń
Ġà§§à§¯ à§«à§¦
Ġà§§à§¯ à§§à§®
Ġà¦ľà¦Ĺà¦¤ à¦ķ
à¦Ĩà¦Ĺ à¦¸
Ġà¦¨à¦Ĺà¦° à¦Ĺ
Ġà¦¹à¦ĩ à¦ĵ
à¦¶à¦¤ à¦¬à¦°
à¦ľà¦Ĺ à¦łà¦¨
Ġà¦¸à§İ à¦¬
à¦¨à§Łà¦¨ à¦®
Ġà¦Ĩà¦ļà¦°à¦£ à¦Ĺà¦¤
Ġà¦ľà¦Ĺ à¦Ĺ
Ġà¦ıà¦°à¦ķà¦® à¦Ł
Ġà¦ıà¦°à¦ķà¦® à¦Ń
Ġà¦ĸà¦°à¦ļ à¦Ł
à§¬ à§©
à¦ħà¦¬ à¦Ĺ
Ġà¦ķà¦Ł à¦ķà¦Ł
Ġ! '
Ġà¦ıà¦¡ à¦®
Ġs cience
à§® à§«
à§® à§©
Ġà¦ľà¦¨à¦¸ à¦®à¦ķ
à¦¾!âĢĿ âĢĶ
Ġà¦°à¦« à¦¤
Ġà¦Ńà¦°à¦¤ à¦ķ
à¦ıà¦¤ à¦¸à¦¬
à¦¿âĢ¦ .
Ġà¦¤à¦ªà¦¨ à¦ķ
Ġc ir
Ġc ult
à¦ķà¦¶à¦¨ à¦Ł
Ġà¦ĩà¦¹ à¦ľà¦Ĺà¦¤
Ġm at
Ġm ontu
Ġà¦Ĩà¦« à¦¶
à¦¿. à¥¤
Ġp os
à¦¿âĢĿ ,
à¥¤à¥¤ /
à¥¤à¥¤ âĢĺ
Ġf a
à¦ªà¦ķà¦¥à¦¨ à¦ĩ
Ġà¦ħà¦²à¦ķ à¦ķ
ÂłÂłÂłÂłÂłÂłÂłÂłÂłÂłÂłÂłÂłÂłÂłÂł ÂłÂłÂłÂłÂłÂłÂłÂłÂłÂłÂłÂłÂłÂłÂłÂłÂłÂłÂłÂł
Ġà¦Ńà¦¬à¦¨ à¦Ĺ
ic ism
à¦¶à¦¹ à¦°à¦¤à¦²
as e
as ure
Ġd ra
Ġd if
Ġd ist
Ġà§§à§¯à§Ń à§¨
Ġà¦Ĩà¦¬à¦°à¦£ à¦Ł
Ġà¦ķà¦¦à¦® à¦Ĺ
Ġà¦ķà¦¦à¦® à¦«
à§ĢâĢĻ âĢĶ
om e
Ġà§¨à§¦ à§§à§¦
Ġà§¨à§¦ à§§à§ª
Ġà¤ ħ
Ġà¤ Ĺ
à§ĭ!âĢĿ âĢĶ
Ġl ong
à¦Ĺà¦ł à¦¨à¦ķ
Ġin st
à¦īà§İà¦¸à¦¬ à¦®
ĠI sl
ot s
ot her
Ġto o
ĠA yan
Ġbe aut
Ġbe yond
Ġà¦¨à¦°à¦ķ à¦ķ
ĠP au
Ġà§ª à§Ń
Ġà§ª à§®
à¦īà¦ª à¦¬à¦¨
ĠB har
ĠB angla
ĠM y
ĠM ontu
à¦£à¦ļ à¦ŀ
el y
Ġà§§à§¦ à§¦à§¦
Ġre c
Ġre f
Ġre p
Ġre ason
Ġà¦īà¦Ńà§Ł à¦ķ
Ġg ener
à¦¸à§İ à¦¤
ation s
ation al
áĥ ķ
Ġà¦¶à¦ĵ à¦ķà¦°
Ġà¦Ĺà¦²à¦¦ à¦ĺà¦°
ul la
ci ous
Ġà¦¬à¦Ĺà¦² à¦¦
Ġà¦®à¦¤à¦²à¦¬ à¦Ł
Ġst re
Ġà¦ľà¦¨à¦¸à¦® à¦°
ĠH ind
Ġà¦¸à§ľà¦ķ à¦ªà¦¥
ĠÐ ³
ĠÐ ·
ĠÐ ¿
op e
Ġà§§à§¯à§® à§¦
ĠW i
ĠØ ª
Ðµ ÑĢ
à¦¦à¦ļ à§Łà¦¨
Ð¾Ð »
Ġà§§à§¯à§© à§§
ĠU n
cc ess
Ġat t
cy cle
olog y
Ġtrans cend
Ġliter ature
ĠBengal i
âĤ Ĥ
×Ļ ×
Ġabstra ct
Ġpe ople
Ġtim e
allen ge
ĠPu ja
Ġdif f
ĠPau rav
! [
, '
4 6
4 9
5 0
? à¥¤
G O
T h
V R
a use
c es
c ol
d igital
k n
n ce
p erson
t y
t en
t ion
u es
v est
w ise
x x
y e
y m
| |
Ã ¦
Ù ĩ
â Ī
â ĭ
æ ĭ
Ġ 3
Ġ Z
Ġ Î
Ġ ĠĠčĊĠĠč
Ġà¦ Ļ
à¦¾ ÂŃ
à§ĩ ÂŃ
à¦° à¦«à¦²
à¦° à¦īà¦ĩà¦¨
à§į !âĢĻ
à¦¿ ..
à¦¿ ),
à¦¨ à¦Ĩà¦®à¦°
à¦¨ à¦ªà¦²
à¦¨ à¦®à¦¨à¦¸
à¦¤ à¦ķà¦Ł
à¦¤ à¦²à¦ķ
à¦¤ à¦ĸà¦¤
à¦² à¦°à¦ķ
à¦² à¦¤à¦¨
à¦² à¦²à¦¨
à¦² à¦Ĺà¦¨
à¦² à¦¸à¦«
à¦² à¦¶à¦¯
à¦ķ à¦·à¦£
à¦ķ à¦®à¦°
à¦ķ à¦ªà¦¥
à¦ķ à¦ľà¦¬
à¦ķ à¦¯à¦ľ
à¦ķ à¦Ĩà¦īà¦Ł
à§ģ .
à§ģ âĢĮ
à¦¬ à¦ĵà¦¯
à¦¬ à¦¬à¦²
à¦¬ à¦¬à¦¤
à¦¬ à¦Ĺà¦®
à¦¬ à¦īà¦¯
à¦¼ ...
à¦® à¦ķà¦¤
à¦® à¦¸à¦°
à¦® à¦¦à¦²
à¦® à¦ħà¦¨
à¦® à¦īà¦¨
à§ĭ à¥¥
Ġà¦ķ à¦¨à¦Ĺ
Ġà¦¬ à¦ĸà¦¶
Ġà¦¸ à¦¬à¦¨
Ġà¦¸ à¦¸à¦ª
Ġà¦¸ à¦¦à¦²à¦¬à¦²
à¥¤ à¥¤âĢĻ
à¦¸ à¦ļà¦ķ
à¦¸ à¦Łà¦¨
à¦¸ à¦ĺà¦¨
à¦¸ à¦īà¦¦
Ġà¦ª à¦¦à¦°
Ġà¦ª à¦¨à¦°
Ġà¦ª à¦ļà¦¤
Ġà¦ª à¦ļà¦¬
Ġà¦ª à¦īà¦·
Ġà¦Ĩ à¦Łà¦¤
Ġà¦Ĩ à¦ĵà¦²
à¦¦ à¦¤à¦²
à¦¦ à¦ķà¦¦
à¦Ł à¦¬à¦¨
à¦Ł à¦®à¦¡
Ġà¦¨ à¦²à¦Ł
Ġà¦¨ à¦°à¦ĸ
Ġà¦¨ à¦Ńà¦¸
Ġà¦¨ à¦ĸà¦ļ
Ġà¦¨ à¦¬à¦¤à¦®
Ġà¦¨ à¦°à¦¹à¦¤
Ġà¦® à¦¸à¦¨à¦¦
à¦ª à§İ
à¦ĩ à¦¥
à¦ĩ à¦Ĩà¦®
à¦ĩ à¦ĵà¦°
à¦ĩ à¦ªà¦®
à¦ĩ à¦ľà¦Ł
à¦ĩ à¦¶à¦¤
à¦Ľ à¦®à¦Ľà¦®
Ġà¦¦ à¦Ļ
Ġà¦¦ à¦¸à¦¤
à¦ľ à¦°à¦ķ
à¦ľ à¦¬à¦ª
à¦ľ à¦®à¦°
à¦ľ à¦¸à¦¤
à¦ľ à¦ĺà¦¨
Ġà¦¹ à¦°à¦¬
Ġà¦¹ à¦®à¦ķ
Ġà¦¹ à¦Łà¦ķ
Ġà¦¹ à¦¸à¦ª
Ġà¦¹ à¦ĵà¦¨
Ġà¦ı à¦¤à¦°
à¦¶ à¦£
à¦¶ à¦ªà¦°
à¦¶ à¦²à¦¬
à¦¶ à§Łà¦¤
Ġà¦ħ à¦ĸà¦¨
à¦ĸ à¦°à¦¬
à¦Ĺ à¦¤à¦¬
à¦Ĺ à¦¦à¦°
à¦Ĺ à¦®à¦¸
à¦· à¦²à¦¤
à¦· à¦ķà¦¬
à¦§ à¦ľà¦¨
à¦§ à§°
à¦§ à¦¶à¦°
âĢ ĭ
à¦¡ à¦¸à¦¨
à¦¡ à¦²à¦Ł
Ġà¦¯ à¦ļ
à¦ļ à¦ªà¦¦
à¦ļ à¦¬à¦ķ
à¦ļ à¦¤à¦¤
à¦¹ à¦°à¦¸
Ġà¦ķà¦° à¦®à¦ļ
à§Ł à¦¤à¦°
à§Ł à¦¨à¦ķ
à§Ł à¦®à¦Ĺ
Ġà¦Ĺ à§Ł
Ġà¦Ĺ à¦¤à¦®
Ġà¦Ĺ à¦Ĺà¦²à¦¸
à¦£ à¦°à¦ķ
à¦£ à¦ľà¦¯
à¦¥ à¦°à¦Ń
à¦¥ à¦¬à¦¦
à¦¥ à¦°à¦¥à¦°
Ġà¦¶ à¦£
Ġà¦¶ à¦®à¦¸
Ġà¦ľ à¦°à¦ľà¦°
Ġà¦ļ à¦°à¦¸
Ġà¦ļ à§°
Ġà¦Ń à¦ľà¦¤
Ġà¦° à¦¸à¦°
Ġà¦° à¦ĩà¦Ľ
Ġà¦° à¦ľà¦ķ
Ġà¦° à¦®à¦ľ
Ġà¦° à¦¸à¦¤à¦¤
Ġà¦° à¦¨à¦ľ
Ġà¦° à¦¸à¦ķà¦·
à§ĩà¥¤ à¥¤âĢĻ
à¦ĵ à¦ľà¦¨
à¦ĵ à¦°à¦ķ
à¦ĵ à¦°à¦ĩ
à¦Ń à¦ļ
à¦Ń à¦Ń
à¦Ń à¦²à¦Ĺ
Ġà¦ıà¦ķ à¦ªà¦ķ
Ġà¦ıà¦ķ à¦ķà¦£
à¦¼à¦¾ à¦¾
à¦¼à¦¾ âĢ¦âĢĿ
à¦ł à¦²à¦Ĺ
Ġà¦ī à¦ĩà¦ļ
à§Ĥ à§į
à¦¾à¦ģ à¥¤âĢĿ
Ġà¦² à¦ķà¦¬à¦ķ
Ġà¦ĵ à¦«
Ġà¦ĵ à¦ľà¦°
Ġà¦¬à¦² à¦¹
Ġà¦Ĩà¦° à¦¨à¦¬
Ġà¦ĸ à¦ĩà¦¯
à¦°à¦¤ à¦ĩ
à¦°à¦¤ à¦¨à¦¬
à¦¾à¥¤ (
Ġà¦ªà¦° à¦¹
Ġà¦ªà¦° à¦£
Ġà¦ªà¦° à¦Ń
Ġà¦ªà¦° à¦®à¦°
Ġà¦ªà¦° à¦ªà¦ķ
à¦¾, âĢĶ
ĠâĢ ¨
à¦¬à¦¨ à¦®à¦°à¦£
à¦¬à¦¨ à¦ķà¦£
à¦¼à¦¿ à¥¤âĢĿ
à§ľ à¦ĩ
Ġà¦ĺ à¦°à¦®
Ġà¦ĺ à¦°à¦ķà¦¨
à¦ªà¦° à¦ªà¦°
à¦°à¦£ à¦¸à¦®
Ġà¦ıà¦ĩ à¦¯
à¦ľà¦¨ à¦§
à¦ľà¦¨ à¦Ĺà¦¨
à¦ľà¦¨ à¦Ĺà¦°
à¦¤à¦° à¦ļ
à¦¤à¦° à¦ªà¦¤
à¦« à¦ļ
à¦« à¦«
à¦ī à§İ
à¦ī à¦ĺ
à¦ī à¦°à¦¨
à¦ī à¦®à¦°
à¦ī à¦¬à¦¯
à¦ī à§İà¦°
à¦¿, âĢĶ
à¦ªà¦¨ à¦ķà¦¥
à§İ à¦¨
à§İ à¦¦
à§İ à¦ªà¦Ł
à¦Ĩ à¦ĵ
à¦Ĩ à¦°à¦ĩ
à¦°à¦¬ à¦®
à¦ı à¦Ĩ
à¦ı à¦¸à¦ª
à¦ı à¦°à¦ªà¦°à¦ĩ
à¦°à¦ķ à¦¤
à¦¬à¦° à¦®
à¦¬à¦° à¦ŀ
à¦¬à¦° à¦¦à¦¸
Ġà¦Ł à¦Ł
Ġà¦¬à¦²à¦² à¦¡
Ġà¦¬à¦²à¦² à¦ı
à¦¼à¥¤ (
Ġà¦¹à¦² à¦ĩ
Ġà¦īà¦ł à¦¨
ĠâĢľ âĢĺ
à¦ĺ à¦°à¦ķ
à¦ĺ à¦°à¦¦
Ġà¦ľà¦¨ à¦ĩ
Ġà¦ľà¦¨ à¦¬à¦¹
Ġà¦ħà¦¬ à§Ł
à§ģà¦ģ -
à§ģà¦ģ à¦ģ
à¦·à¦£ à¦Ńà¦Ļ
à¦ħ à¦¡
à¦ħ à¦¸à¦°
à¦ħ à¦ľà¦°
à¦ħ à¦¯à¦¥
Ġà¦¬à¦¨ à¦¹
à¦ķà¦² à¦Ł
à¦ķà¦² à¦¶
à¦ķà¦² à¦¬à¦¦
à¦ķà¦Ł à¦ĵ
à¦¸à¦¬ à¦¶à¦¤
Ġà¦ħà¦¸ à¦«à¦²
à¦°à¦¥ à¦ª
à¦¾à¦Ĥ !
à¦¾à¦Ĥ à¥¤
à¦²à¦ķ à¦ĵ
à¦¤à¦¬ à¦¦
à¦¨à¦¬ à§İ
à¦¦à¦¨ à¦¯
à¦¦à¦¨ à¦¸
à¦¦à¦¨ à¦ªà¦¦
à§ĩ? âĢĶ
à¦Ĩà¦® à¦°à¦£
Ġà¦īà¦¦ à¦Ĺà¦¤
à¦¾- '
à¦Ĺà¦² à¦Ń
à¦Ĺà¦² à¦ķà¦°
à¦Ĺà¦² à¦ľà¦¨à¦ķ
Ġà¦ħà¦Ń à¦Ļ
à¦¶à¦¨ à¦°
à¦¶à¦¨ à¦ª
à¦°à¦¹ à¦Ńà¦°
Ġà¦ĺà¦° à¦ĵ
Ġà¦ĺà¦° à¦ĺà¦°
à¦²à¦¨ à¦¯
à¦²à¦¨ à¦Ł
à¦²à¦¨ à¦ª
à¦²à¦¨ à¦¹
Ġà¦īà¦ª à¦¬à¦°
Ġà¦īà¦ª à¦¦à¦²
Ġà¦īà¦ª à¦°à¦¤à¦²
à¦¬à¦¤ à¦¤
à¦®à¦² à§Ł
à¦¯à¦¤ à¦Ł
à¦§à¦¨ à¦ªà¦¦
à¦°à¦ľ à¦¯
à¦°à¦ľ à¦¬à¦°à¦¦à¦¸
Ġà¦ķà¦² à¦ª
Ġà¦ķà¦² à¦Ĺ
Ġà¦ķà¦² à¦§
Ġà¦Ĩà¦¤ à¦¸
Ġà¦ıà¦¤ à¦ľà¦¨
à¦¿à¦ĥ !
à¦¸à¦¨ à¦ļ
à¦¸à¦¨ à¦ķà¦°
à¦¸à¦¨ à¦ªà¦¤
Ġà¦ħà¦ļ à¦²à¦¤
Ġà¦ľà¦® à¦ľ
à¦ıà¦ĩ à¦ľà¦¨
à¦Ńà¦¬ à¦¸
à¦¸à¦® à¦Ŀ
à§Ģ, -
Ġà¦īà¦¨ à¦ªà¦ŀ
Ġà¦ħà¦ľ à¦²
à¦¹à¦² à¦®à§Ł
Ġà¦ĺà¦Ł à¦®
Ġà¦Ĳ à¦ļ
Ġà¦Ĳ à¦ķà¦¤
Ġà¦¬à¦¹ à¦¤
Ġà¦ķà¦¤ à¦Ń
à¦¾âĢĶ âĢĿ
Ġà¦°à¦Ļ à¦Ĺ
à¦Ĺà¦° à¦ĸ
Ġà¦ªà¦¦ à¦²
Ġà¦ªà¦¦ à¦ªà¦¥
à¦®à¦° à¦Ł
à¦¸à¦° à¦°
à¦¸à¦° à¦ŀ
à¦°à¦ĵ à¦ĩ
à¦°à¦ĵ à¦ªà¦°
à¦°à¦ĵ à¦°à¦ĩ
à¦¦à§Ł à¦ĸ
à¦ªà¦¦ à¦¶
à¦ªà¦¦ à¦ľà¦¨à¦ķ
Ġà¦¨à§Ł à¦ķ
Ġà¦ħà¦®à¦² à¦ª
à¦ıà¦ķ à¦ĩà¦Ń
à¦¨à¦ķ à¦¨
à¦¨à¦ķ à¦¡
à¦®à¦£ à¦ĵ
à¦¦à¦² à¦ĩ
à¦¬à¦¸ à¦ļ
à¦·à¦ķ à¦ĵ
Ġà¦ĩà¦¨ à¦«à¦°
à¦¬à¦ķ à¦®
à§Łà¦¨ à¦¶
Ġà¦īà¦ªà¦° à¦ĵ
Ġà¦Ńà¦¬ à¦Ń
à§° à¦ª
à§° à¦Ĺ
à§° à¦¯à¦ľ
à¦ĸà¦¬ à¦ĩ
à¦¸à¦ķ à¦ķ
à¦¼à§Ģ !
à¦¼à§Ģ âĢĶ
à¦¼à§Ģ âĢĵ
?âĢĿ à¥¤
à¦¨à¦¸ à¦ŀ
à¦¬à¦¶ à¦¸
à¦°à¦ľà¦¨ à¦®
Ġà¦Ĩà¦¦ à¦¬à¦ķ
à¥¤âĢĻ âĢĻ
Ġà¦Ĩà¦¹ à¦¤à¦¦
à¦īà¦² à¦ĩ
à¦°à¦Ĺ à¦łà¦¨
à¦¿! (
Ġà¦ķà¦· à¦Ľ
Ġà¦¦à¦¶ à¦ªà¦¨
Ġà¦īà§İà¦¸ à¦ľ
à¦Ĩà¦² à¦¯
à¦Ĩà¦² à¦Ĺ
à¦¾âĢĵ âĢĻ
Ġà¦¬à¦Ł à¦®
Ġà¦¬à¦Ł à¦ł
Ġà¦Ĺà¦£ à¦ª
Ġà¦Ĺà¦£ à¦®à¦¨
à¦®à¦°à¦£ à¦ķ
à¦²à¦® à¦¶à¦²
à¦¹à¦°à¦£ à¦Ĺ
Ġà¦°à¦¸ à¦®à¦¯
Ġà¦§à¦¨ à¦ªà¦¤
à¦®à¦¹ à¦®
à¦®à¦¹ à¦°à¦®
à¦¦à¦¸ à¦¹
à¦¼âĢĶ âĢĺ
à¦Łà¦« à¦°à¦®
à¦Ĩà¦ķ à¦¬à¦°
à¦ķà¦°à¦£ à¦ķ
à§« à§«
à§« à§ª
à§« à§¯
à¤ ¼
à¤ ģ
à¤ ł
à¦łà¦ķ à¦¯
à¦¾à¥¤âĢĻ âĢĿ
à¦ķà¦ľà¦¨ à¦ĩ
à¦ķà¦ľà¦¨ à¦ĵ
à§ĩà¥¤âĢĻ âĢĿ
à§ĩâĢ¦ à¥¤âĢĻ
Ġà¦ľà§Ł à¦ıà¦°
à¦ıà¦¸à¦¬ à¦ķ
à¦®à¦¦ à¦Ĺ
à¦°à¦ĸ à¦£
à§Ŀ à¦ª
Ġà§§à§¯ à§§à§¯
à§Ń à§§
à§ĭ! !
à¦ħà¦° à¦«
à¦¸à¦¹ à¦ķà¦°
à§ª à§§
à§ª à§ª
à¦²à¦ª à§ľ
à¦·à§Ł à¦ĩ
Ġà¦¨à¦Ĺà¦° à¦Ń
an a
à¦ľà§Ł à¦§
Ġà¦ķà§Ł à¦Ł
Ġà¦ªà¦²à¦ķ à¦¬
Ġ- âĢľ
Ġà¦¶à¦ªà¦¥ à¦Ĺ
Ġà¦¶à¦ªà¦¥ à¦ªà¦¤
à¦¿à¥¤âĢĻ âĢĿ
Ġà¦Ĩà§ľ à¦ļ
à¦¬à¦ľà¦¨ à¦¬
à¦¬à¦ľà¦¨ à¦¸
à¦¦à¦¶ à¦¦
Ġà¦Ĩà¦ļà¦°à¦£ à¦Ł
Ġà¦ľà¦Ĺ à§İà¦¸
à¦ªà§ľ à¦¬
à¦®à¦® à¦ŀ
al k
à§¬ à§«
Ġthe n
à¦¸à¦¦ à¦¦
à¦¸à¦®à§Ł à¦¸
er y
en e
Ġà¦ħà¦¬à¦¨ à¦®
Ġo pp
it c
it ed
it ive
à¦¾âĢĿ -
à¦¾âĢ¦ à¥¤âĢĿ
Ġs am
Ġà¦Ĺà¦łà¦¨ à¦Ĺà¦¤
à¦¶à¦¹à¦° à¦Ł
Ġà¦ļà¦°à¦£ à¦ª
Ġà¦ļà¦°à¦£ à¦ļ
à§ĩâĢĻ -
Ġà¦Ĩà¦Ł à¦¦
Ġà¦Ĩà¦Ł à¦ĺ
Ġà¦Ńà¦°à¦¤ à¦®
à¦¿âĢ¦ âĢĻ
âĢį à§įâĢĮ
Ġa cc
Ġa uthor
à¦ĩà¦« à¦ķ
Ġà¦ĭà¦£ à¦Ĺ
Ġc ent
Ġc ur
Ġc ha
Ġc har
Ġà¦¸à¦®à¦¤ à¦²à¦¬
Ġm et
Ġm em
Ġm ind
ar s
Ġb r
à¦¬à¦ªà¦¨ à¦¦
à¦ĭ à¦Ĺ
Ġp er
Ġp ain
à¦ļà¦® à§İà¦ķ
Ġà¦¬à¦°à¦« à¦ª
à¦ħà¦ª à¦Ľà¦¨
Ġf l
Ġf ind
Ġf ree
ion al
à¦£à¦Ĺ à¦ŀ
Ġd est
à¦¬à¦Ľà¦° à¦ĸ
Ġà§§à§¯à§Ń à§©
Ġà§§à§¯à§Ń à§¬
à¦¬à§ľ à¦¦
Ġà¦ªà¦¥à¦ļ à¦²à¦¤
Ġà§¨à§¦ à§§à§«
Ġà§¨à§¦ à§§à§©
Ġà¤ ¤
Ġà¤ ¨
Ġà¤ °
Ġà¤ ¹
Ġà¤ ķ
Ġà¤ Ŀ
Ġl ulla
à§ĭâĢ¦ à¥¤
à¦Ŀà¦¨ à¦Ŀà¦¨
ĠI nt
** *
à¦ıà¦ķà¦ĩ à¦¸à¦Ļ
ĠA p
Ġà§« à§§
Ġà§« à§©
Ġbe l
ent al
Ġà§ª à§ª
à¦īà¦ª à¦²à¦¬
ĠB rah
ĠM an
ĠâĢ¦ .
ĠâĢ¦ à¥¤
ĠâĢ¦ âĢĿ
un g
ĠT agore
à¦¿' ,
ur n
à§¦à§¦ à§¦
ch n
áĥ £áĥ
ĠR o
à¦¤à¦ĸ à¦°à¦ļ
à¦¬à¦Ĺà¦¤ à¦Ń
Ġà¦¶à¦ĵà¦ķà¦¤ à¦ķ
Ġà§§à§® à§¯
Ġà§§à§¯à§ª à§¦
Ġà§¬ à§«
od u
od ern
Ġà¦Ĺà¦²à¦¦ à¦ĺ
Ġà¦Ĩà¦ªà¦¸ à¦¹
Ġ| '
ĠD ur
Ġà§§à§¨ à§«
Ġà§§à§¨ à§¦à§¦
ĠN az
ĠN GO
ir it
iv en
em ent
Ġy et
Ġcon cept
ip end
ĠÐ ²
Ġà§§à§¯à§® à§§
Ġà§§à§¯à§® à§«
ad e
Ġun der
Ġne g
Ġne igh
Ġà§§à§¯à§¨ à§§
Ġà§§à§¯à§¨ à§©
ĠW IS
Ġà¦¬à¦Ľ à¦°à¦ķ
res ent
Ġà¦¤à§İ à¦¸à¦®
à¦ķà¦ľà¦®à¦ķ à¦ª
Ġhe art
à¦¤à¦°à¦« à¦¦
Ġor ig
ĠThe re
à¦ĩà¦ī à¦Ń
Ð¾Ð ²
har ma
Ġà§§à§¯à§© à§©
ie f
Ġà¦Ĩà¦ī à¦Łà¦²
à¦īà¦Ńà§Ł à¦ĩ
Ġab out
iz ation
rit ical
à¦°à¦Ĺà¦² à¦Ń
con s
ĠU SB
à¦Ķ à¦¦
Ġà¦¶à¦¤à¦° à¦ŀ
ĠTh is
Ġà¦ħà§Ł à¦¨à¦ķ
TE M
rad ition
led ge
Ġà¦Ĺà¦Ĺ à¦¨à¦¬
ĠBe ing
eg r
ĠÑģ Ð»
à¦¬à¦¸à¦° à¦ľà¦¨
Ġknow ledge
čĊ ĠĠč
Ġposs ib
pan y
hil os
Ġev il
velop ment
bra ce
âģ ł
Ġtw o
ĠPaurav a
âĭ ¯
Ġlulla by
! ]
! âĢĺ
' s
- (
. ,
. à¥¤
4 8
? âĢ¦
A L
A TE
I nt
R e
b e
b i
b o
b er
b ody
c ed
d s
e y
g et
g ht
h as
i ent
k an
l es
l and
o b
o int
p ed
p ress
r ul
r ist
s es
t s
u ce
v ing
Â ¸
Ã ¡
Ï Ħ
Ñ Į
Ñ ĸ
× ķ×
Ø ¨
Ù Ĭ
à ¯
à ±
å ķ
ï ¼
Ġ er
Ġ ra
Ġ ent
Ġ end
Ġ ident
Ġ very
à¦¾ à¦¼
à¦¾ âĢį
à¦¾ âĢĲ
à¦¾ Â¤
à§ĩ "
à§ĩ à§ģ
à¦° à¦¨à¦¤
à¦° à¦°à¦¸
à¦° à¦°à¦¶
à¦° à¦īà¦¦
à¦° à¦Ŀà¦¡
à¦° Ã¦
à§į ;
à¦¿ |
à¦¿ à§į
à¦¨ à¦²à¦¬
à¦¨ à¦°à¦Ń
à¦¨ à¦¸à¦²
à¦¨ à¦¸à¦Ļ
à¦¨ à¦®à¦¶
à¦¨ à¦Ĩà¦¸
à¦¤ à¦¬à¦²
à¦¤ à¦¯à¦¶
à¦² à¦ªà¦¨
à¦² à¦Ĩ
à¦² à¦¸à¦¤
à¦² à¦Ĩà¦ªà¦¨
à¦² à§İà¦ľ
à¦ķ à¦ĺ
à¦ķ à¦¨à¦¦
à¦ķ à¦¥à¦ķ
à¦ķ à¦¸à¦Ł
à¦ķ à¦®à¦ª
à¦¯ à¦¦à§Ł
à¦¯ à¦ľà¦²
à¦¯ à¦ľà¦¯
à§ģ à§ĩ
à§ģ à¥¥
à§ģ ...
à¦¬ à¦¤à¦¬
à¦¬ à¦ľà¦°
à¦¬ à¦ĩà¦¤
à¦¬ à¦ĩà¦¬
à¦¬ à¦®à¦ª
à¦¼ âĢĻ-
à¦¼ âĢĿâĢĶ
à¦® à¦Ĩà¦®
à¦® à¦¬à¦¦
à¦® à§°
à¦® à¦Łà¦°
à¦® à¦Ńà¦Ļ
Ġà¦¬ à¦ķà¦²
Ġà¦¬ à¦¶à¦®
Ġà¦¬ à¦°à¦¬à¦°
Ġà¦¬ à§İà¦¸à¦²
Ġà¦¸ à¦¦à§Ł
à¦¸ à¦¥
à¦¸ à¦ªà¦°
à¦¸ à¦°à¦¬
à¦¸ à¦¯à¦¤
à¦¸ à¦°à¦¦
Ġà¦ª à¦®
Ġà¦ª à¦ĸ
Ġà¦ª à¦ł
Ġà¦Ĩ à¦ĩà¦¯
Ġà¦Ĩ à¦īà¦°
à¦¦ à¦ªà¦°
à¦¦ à¦ªà¦¥
à¦¦ à¦ľà¦²
à¦¦ à¦§à¦°
à¦¦ à¦ĩà§Ł
à¦Ł à¦®à¦¤
à¦Ł à¦°à¦¦
à¦Ł à¦ªà¦¤
à¦Ł à¦¸à¦¨
à¦Ł à¦ķà¦Łà¦ķ
Ġà¦¨ à¦°à¦¦
Ġà¦¨ à¦°à¦¬à¦²
Ġà¦¨ à¦¬à¦²à¦¬
Ġà¦¨ à¦ŀà¦°
Ġà¦® à§İ
Ġà¦® à¦¦à¦¬
Ġà¦® à¦Łà¦°à¦¶
à¦ª à¦®à¦¨
à¦ª à¦ķà¦Ł
à¦ĩ à§ľ
à¦ĩ à¦ķà¦°
à¦ĩ à¦¸à¦¨
à¦ĩ à¦ªà¦¥
à¦ĩ à¦Łà¦²
à¦ĩ à¦®à¦Ł
à¦ĩ à¦ªà¦²
à¦ĩ à¦®à¦ª
à¦ĩ à¦ľà¦¨à¦ķ
à¦ĩ à¦īà¦Ł
à¦ĩ à¦ĵà¦¨
à§Ģ )à¥¤
à¦Ľ à¦ľ
à¦Ľ à¦ªà¦Ł
à¦Ľ à¦§à¦°
Ġà¦¦ à¦ľ
Ġà¦¦ à§°
à¦ľ à¦²à¦¤
à¦ľ à¦®à¦¯
Ġà¦¹ à¦¸à¦¨
Ġà¦¹ à¦¦à§Ł
Ġà¦¹ à¦ķà¦¸
Ġà¦¤ à¦ļ
Ġà¦¤ à¦£
Ġà¦¤ à¦ĸà¦¤
Ġà¦¤ à¦«à¦¸
Ġà¦ı à¦Ĺà¦²
Ġà¦ı à¦®à¦¡
à¦¶ à¦¬à¦¤
à¦¶ à¦ķà¦¬
à¦¶ à¦®à¦°
à¦¶ à¦²à¦Ł
à¦¶ à¦Ĺà¦¡
à¦ĸ à¦°à¦ķ
à¦Ĺ à¦ķà¦²
à¦Ĺ à¦ķà¦°
à¦Ĺ à¦¦à¦²
à¦Ĺ à¦¢
à¦Ĺ à§°
à¦Ĺ à¦°à¦¤à¦²
à¦· à¦·
à¦· à¦¤à¦°
à¦· à¦°à¦¬
à¦· à¦¬à¦°
à¦· à¦¸à¦°
à¦· à¦Ńà¦°
à¦· à¦°à¦¸à¦®
à¦§ à¦°à¦¬
à¦§ à¦ĵà¦¯
à¦§ à¦¬à¦ķ
à¦¡ à¦¬à¦ľà¦¨à¦¨
Ġà¦¯ à¦·
Ġà¦¯ à¦£
Ġà¦¯ à¦®à¦¸
à¦ļ à¦ĵà¦¯
à¦ļ à¦¤à¦¨
à¦ļ à¦°à¦¨
à¦ļ à§Łà¦¨
à¦ļ à§°
à¦ļ à¦Ĺà¦¡
à¦¹ à¦ĺà¦°
à§Ł à¦°à¦¤
à§Ł à¦¶à¦ĩ
Ġà¦Ĺ à¦®à¦ķ
à¦£ à¦Ŀ
à¦£ à¦ªà¦¦
à¦£ à¦¸à¦¹
à¦£ à¦²à¦Ļ
à¦£ à¦ªà¦¦à¦ķ
à¦¥ à¦°à¦¤
à¦¥ à¦®à¦¯
à¦¥ à¦°à¦ĵ
à¦¥ à¦Ĺà¦ŀ
Ġà¦¶ à¦ľ
Ġà¦¶ à¦·
Ġà¦¶ à¦ł
Ġà¦ļ à¦ķà¦°
Ġà¦Ń à¦ª
Ġà¦Ń à¦ĩà¦²
Ġà¦° à¦ĵà§Ł
Ġà¦° à¦ľà¦Ĺ
Ġà¦° à¦ĩà¦®
à§ĩà¥¤ -
à¦Ń à¦°à¦ª
Ġà¦ıà¦ķ à¦ļà¦ķ
Ġà¦ıà¦ķ à¦°à¦Ļ
à¦¼à¦¾ /
Ġà¦Ľ à¦ĩ
Ġà¦Ľ à¦°à¦°
Ġà¦Ĩà¦® à¦ľ
Ġà¦Ĩà¦® à¦¹
Ġà¦Ĩà¦® à¦Ŀ
à¦ł à¦ªà¦¥
à¦ł à¦¨à¦ķ
Ġà¦ī à¦¶à¦ĸ
à§Ĥ à¦ĥ
à¦¾à¦ģ âĢĵ
à¦Ļ à¦°à¦¹
Ġà¦² à¦Ľ
Ġà¦² à¦ĸ
Ġà¦² à¦ĸà¦¨
Ġà¦² à¦ĩà¦¨
Ġà¦² à¦Ĺà¦¨
Ġà¦ĵ à¦®à¦¨
Ġà¦¬à¦² à¦¬à¦¨
Ġà¦« à§Ł
Ġà¦« à¦°à¦Ĺ
Ġà¦Ĩà¦° à¦¸
Ġà¦Ĩà¦° à¦Ł
Ġà¦Ĩà¦° à¦Ń
Ġà¦ĸ à¦¬
Ġà¦ĸ à¦¸à¦²
à¦°à¦¤ à¦¯
Ġà¦ħà¦¨ à¦Ļ
Ġà¦ħà¦¨ à¦¬à¦§
Ġà¦ªà¦° à¦Ĺà¦¨
Ġà¦ªà¦° à¦Ĺà¦£
Ġà¦¸à¦® à¦°à¦ķ
à¦¬à¦¨ à¦Ľ
à¦¬à¦¨ à¦«
à¦¬à¦¨ à¦®à¦¯
à¦¼à¦¿ !âĢĿ
à¦¼à¦¿ à¥¤âĢĻ
à§ľ à¦ª
Ġà¦ĺ à¦°à¦¸
Ġà¦ĺ à¦¨à¦¬à¦¸à¦¤
à¦ªà¦° à¦¯
à¦ªà¦° à¦ª
à¦°à¦£ à¦ª
à¦°à¦£ à¦ľà¦¨
à¦¿à¥¤ (
à¦¿à¥¤ âĢ¦
à¦Ŀ à¦¸
à¦Ŀ à¦¦
à¦ľà¦¨ à¦°à¦¸
à¦ŀ à¦®
à¦ŀ à¦ĩ
à¦¤à¦° à¦ĸà¦°
à¦¤à¦° à¦ľà¦Ĺà¦¤
à¦« à¦ľ
à¦ī à¦²à¦¤
à¦ī à¦¸à¦«
à¦ī à¦¸à¦ķ
à¦ī à¦¬à¦Ĺ
à¦ªà¦¨ à¦Ń
Ġà¦Ĩà¦² à¦®à¦Ĺ
à§İ à¦Ł
à§İ à¦ĸ
à¦Ĩ à¦ŀ
à¦Ĩ à¦¤à¦°
à¦Ĩ à¦ªà¦¤
à¦Ĩ à¦§à¦¬
à¦Ĩ à¦ĩà¦ľ
à¦Ĩ à¦¦à¦¬
à¦Ĩ à¦¦à¦¤
à¦°à¦¬ à¦Ł
à¦ı à¦¹
à¦ı à¦Ļ
à¦ı à¦¨à¦ķ
Ġà¦¸à¦¬ à¦°
à¦¬à¦° à¦ľ
à¦¬à¦° à¦Ń
à¦¬à¦° à¦Ńà¦Ļ
Ġà¦Ł à¦¸
Ġà¦Ł à¦«
Ġà¦Ł à¦²à¦¸
Ġà¦¬à¦²à¦² à¦¬à¦²
Ġà¦¬à¦²à¦² à¦ıà¦ķ
âĢĻ âĢĻ
Ġà¦ķà¦¥ à¦ķà¦ł
à¦¼à¥¤ "
Ġà¦¹à¦² à¦°
Ġà¦¹à¦² à¦¬
Ġà¦¹à¦² à¦®
Ġà¦¡ à¦²à¦¤
Ġà¦ĩ à¦ķà¦¬
Ġà¦ĩ à¦Łà¦¬
à¦ĺ à¦²à¦¤
à¦ĺ à¦¢
à¦ĺ à¦°à¦Ľ
Ġà¦ľà¦¨ à¦ªà¦¥
Ġà¦§à¦° à¦ª
Ġà¦Ŀ à¦¨à¦¨
à¦¬à¦ª à¦²
à§ģà¦ģ !
à¦°à¦® à¦Ĺ
à¦·à¦£ à¦¨
à¦·à¦£ à¦¤à¦¤
à¦¤à¦¨ à¦¸à¦¹
à¦ħ à¦ķà¦²
à¦ħ à¦ªà¦¤
à¦ħ à¦¹à¦²
à¦ħ à¦Ńà¦¯
à¦ħ à¦¬à¦ľ
à¦ħ à¦ªà¦¬
à¦ķà¦² à¦Ĺ
à¦ķà¦² à¦¬à¦¨
Ġà¦Ĩà¦¬ à¦¡
Ġà¦ħà¦® à¦°à¦ķ
à¦ķà¦° à¦ĩ
à¦ķà¦° à¦¹
à¦ķà¦Ł à¦¨
à¦¸à¦¬ à¦Ĺ
à¦¸à¦¬ à¦§
à¦¸à¦¬ à¦¸à¦®à¦¯
à¦¯à¦¬ à§İ
à¦°à¦¨ à¦®
à§ĭà¥¤ âĢĺ
à§ĭ, -
à¦²à¦ķ à¦®
à¦²à¦ķ à¦¡
à¦²à¦ķ à¦¥
à¦¤à¦¬ à¦¦à¦²
à¦¤à¦¬ à¦§à¦°
à¦°à¦¸ à¦¦
à¦¨à¦¬ à¦ĩ
à¦¨à¦¬ à¦§
à¦¨à¦¬ à¦¦à¦°à¦¦
à¦¦à¦¨ à¦®à§Ł
à§ĩ? )
Ġà¦ıà¦² à¦Ĺ
Ġà¦Ĩà¦¨ à§Łà¦¨
Ġà¦ħà¦¦ à¦°
Ġà¦īà¦¦ à§Łà¦¨
Ġà¦ľà¦² à¦¯
Ġà¦ľà¦² à¦Ĺ
à¦Ĺà¦² à¦§
à¦Ĺà¦² à¦ļ
à¦Ĺà¦² à¦¹
à¦Ĺà¦² à¦¶à¦Ļ
Ġà¦ħà¦¤ à¦ĩ
à¦®à¦¤ à¦ĵ
à¦§à¦ķ à¦£
Ġà¦ĺà¦° à¦Ń
à¦ļà¦¨ à¦ļ
à¦²à¦¨ à¦ĸ
à¦²à¦¨ à¦Ń
à¦²à¦¨ à¦®à¦¯
à¦²à¦¨ à¦Ĺà¦°
Ġà¦īà¦ª à¦ª
Ġà¦īà¦ª à¦Ĺà¦¤
Ġà¦īà¦ª à¦²à¦¦
Ġà¦¸à¦° à¦ľ
à¦°à¦¯ à¦ľ
à¦¬à¦¤ à¦ª
à¦¬à¦¤ à¦ļ
à¦ĩà¦² à¦ĩ
à¦ĩà¦² à¦¡
à¦¯à¦¤ à¦ĵ
à¦²à¦¬ à¦¦à¦¨
à¦§à¦¨ à¦°
à¦§à¦¨ à¦¸
à¦°à¦ľ à¦¦
à¦°à¦ľ à§Ł
à¦¼à§ĭ âĢĶ
Ġà¦ķà¦² à¦®à¦ļ
Ġà¦¸à¦¹ à¦¶
Ġà¦¸à¦¹ à¦ľà¦¨
à¦¹à¦° à¦°à¦®
à¦¿à¦ĥ âĢĵ
à¦ĩà¦¨ à¦¡
Ġà¦ħà¦ļ à¦ķ
Ġà¦ľà¦® à¦¦à¦Ĺ
à¦ıà¦ĩ à¦®à¦¤
à¦ıà¦ĩ à¦¸à¦¬à¦ĩ
à¦¨à¦¨ à¦¸
à¦¨à¦¨ à¦Ń
à¦¹à¦² à¦®
Ġà¦ĵà¦ªà¦° à¦Ł
âĢ¦ ?âĢĿ
âĢ¦ ..
Ġà¦ķà¦® à¦ľ
Ġà¦ķà¦® à¦«
Ġà¦ķà¦® à¦²à¦ķ
Ġà¦ķà¦® à¦¬à¦¯
à¦¤à¦² à¦®
Ġà¦°à¦Ļ à¦ĩ
à¦Ĺà¦° à¦°
à¦Ĺà¦° à¦ĵ
à¦¸à¦° à¦ĵ
à§ĩ! !
Ġà¦ıà¦Ł à¦®
à¦°à¦Ń à¦¬à¦¨
à¦¦à§Ł à¦®
à¦ªà¦¥ à¦ķ
à¦ªà¦¥ à¦ĩ
à¦¿? '
âĢĮ âĢĮ
à¦ıà¦ķ à¦ķà¦¥
à¦ıà¦ķ à¦§à¦°à¦¨
à¦¾? '
à¦®à¦£ à¦¯
à¦®à¦£ à¦Ń
à¦¬à¦¸ à¦®à¦ķ
à§įâĢĮ ?
à§įâĢĮ âĢ¦
à§įâĢĮ --
à¦Łà¦² à¦Ł
Ġà¦Ľà¦¬ à¦Ľà¦°
à¦·à¦ķ à¦¨
à¦¤à¦ķ à¦¨
à¦¤à¦ķ à¦Ĺ
à¦¤à¦ķ à¦®à¦²
Ġà¦²à¦ķ à¦ª
à¦ļà¦ķ à¦¨
à¦ļà¦ķ à¦Ń
à¦ħà¦¨ à¦¡
à¦¼à§ĩ, âĢĿ
à¦¤à¦® à¦¬
à¦¾! !
à¦¾! âĢ¦
à¦ªà¦ķ à¦®
à¦ªà¦ķ à¦£
à¦¶à¦ķ à¦®
Ġà¦Ĩà¦§ à¦ĺà¦¨
à¦¬à¦ķ à¦¨à¦¶
à§ĩ; --
à¦¢ à¦ª
à§Łà¦¨ à¦¹
à¦¬à¦¬ à¦¶
à¦¹à¦¨ à¦Ĺ
Ġà¦īà¦ªà¦° à¦ķ
Ġà¦ħà¦² à¦®
Ġà¦ħà¦² à¦ª
à¦¯à¦¦ à¦¸
à§° à¦²
à¦¼à§ģ âĢĶ
à¦ķà¦¨ à¦Ĺ
Ġà¦¶à¦¤ à¦ĸ
Ġà¦¶à¦¤ à¦¸à¦¹à¦¸
à¦¸à¦« à¦°à¦®
Ġà¦¨à¦¬ à¦īà¦¦
Ġà¦¨à¦¬ à¦¤à¦°à¦Ļ
Ġà¦īà¦² à¦«
à¦·à¦° à¦°
à¦¼à§Ģ -
à¦¨à¦¸ à¦¦
à¦Ĩà¦ľ à¦¬
à¦Ĩà¦ľ à¦Ĺ
à¦°à¦ľà¦¨ à¦ĩ
à¦ĩà¦Ł à¦¬
à¦ĩà¦Ł à¦Ń
Ġà¦Ĺà§ľ à¦¨
Ġà¦Ĺà§ľ à¦Ľ
à¦Ĺà¦ľ à¦ĩ
à¦Ĺà¦ľ à¦ķà¦²à¦®
à§İà¦¸ à¦ĩ
à¦Łà¦¬ à¦ĩà§Ł
à¦²à¦Ľ à¦¬
à¦°à¦¹à¦£ à¦®
Ġà¦ĸà¦¬à¦° à¦Ĺ
Ġà¦ıà¦¨ à¦ľà¦¯
à¦°à¦®à¦£ à¦¯
à¦®à§Ł à¦¬
Ġà¦°à¦ķà¦® à¦Ł
Ġà¦°à¦ķà¦® à¦«
à§ĭâĢĶ âĢĿ
à§¨ à§¦à§¦
Ġà¦Ĺà¦£ à¦¬
Ġà¦Ĺà¦£ à¦ªà¦¤
Ġà¦Ĺà¦£ à¦¶à¦ķ
Ġà¦¨à¦°à¦® à¦ªà¦¨
à¦ľà¦¬ à¦ľ
à¦ľà¦¬ à¦ªà¦¨
Ġà¦Ńà§Ł à¦Ł
Ġà¦Ńà§Ł à¦Ń
ĠâĢĶ âĢĶâĢĶ
Ġà¦¬à¦ī à¦ĩ
à¦®à¦°à¦£ à¦¯
à¦®à¦°à¦£ à¦¶
Ġà¦ıà¦¸à¦¬ à¦ĵ
à¦¹à¦°à¦£ à¦Ł
Ġà¦°à¦¸ à¦Ł
Ġà¦¬à§ľ à¦®
à¦®à¦¹ à§İ
Ġà¦Ī à¦·à¦¦
Ġà¦§à¦°à¦¨ à¦§
à§¦ à§¬
à¦°à¦° à¦ļà¦¨
Ġà¦ªà¦°à¦® à¦¶
à¤ ¡
à¤ ĺ
-- ---
à¦ķà¦¸ à¦¹
Ġt ri
à¦ľà¦® à¦¶
à§ĩâĢ¦ âĢĿà¥¤
à§ĩâĢ¦ âĢĿâĢĶ
Ġà¦ľà§Ł à¦¬
Ġà¦ľà§Ł à¦®
Ġà¦ľà§Ł à¦Ł
à¦¤à¦ª à¦ŀ
à¦ĩà¦Ń à¦¸
Ġà¦Ĺà¦¹ à¦¨à¦¤
à¦®à¦¶ à¦ķà¦°
à¦®à¦¦ à¦ª
Ġà¦¸à¦°à¦² à¦°
à¦¨à¦¶ à¦Ł
à§Ŀ à¦¸
Ġà§§à§¯ à§©à§¦
à¦²à¦Ń à¦Ļ
he l
à§Ń à§¨
à§Ń à§®
à¦¯à§İ à¦ĩ
à¦Ĺà¦£ à¦ķ
in s
in u
à¦ľà¦Ľ à¦¤
à¦°à¦¬à¦² à¦¤à¦°
Ġà¦«à¦° à¦«à¦°
Ġà¦Ĩà¦ĩà¦¨ à¦ª
Ġà¦Ĩà¦ĩà¦¨ à¦¸à¦Ļ
à¦¬à¦Ł à¦¤à¦²
à¦ľà§Ł à¦¬
à¦ľà§Ł à¦°à¦¥
Ġà¦ķà§Ł à¦ľà¦¨
à¦ľà¦Ĺ à¦¦
Ġà¦¸à§İ à¦®
Ġà¦¸à§İ à¦ª
Ġà¦¸à§İ à¦ªà¦¥
Ġà¦¸à§İ à¦¸à¦Ļ
Ġà¦¶à¦ªà¦¥ à¦ĩ
Ġà¦®à¦¨à¦¨ à¦§
Ġà¦®à¦¨à¦¨ à¦¶à¦ķ
Ġà¦Ĭ à¦§
à¦²à¦ľ à¦«
Ġà¦Ĩà¦ļà¦°à¦£ à¦ĵ
Ġà¦ľà¦Ĺ à¦Ŀà¦®
Ġà¦ĩà¦¸ à¦ķà¦¨
at ing
at ri
à¦īà¦¡ à¦Ĺ
à¦¯à¦ķà¦° à¦Ń
Ġà¦«à¦Ł à¦ķà¦Ł
à¦¨à¦¬à¦ľ à¦Ĺà¦¤
à¦¨à¦ľà¦¨ à¦¨
Ġà¦ļà¦°à¦® à¦ªà¦¤
à¦«à¦Ł à¦ı
à¦Ĳ à¦ĸ
à¦Ĳ à¦¤à¦°
Ġo ld
à§¯ à§®
à¦£à¦¦ à¦£
à¦ĵà¦ĩ à¦ĸ
Ġs m
Ġs in
Ġs us
Ġs ystem
à¦¬à§Ł à¦ĩ
Ġà¦Ķ à¦ļ
Ġà¦Ĩà¦Ł à¦ĸ
Ġà¦Ĩà¦Ł à¦·à¦Ł
Ġà¦Ĩà¦ĸ à§ľ
à¦¿âĢ¦ ?âĢĿ
à¦¿âĢ¦ à¥¤âĢĻ
à¦ĩà¦« à¦°à¦®
à¦¿?âĢĻ âĢĶ
Ġà¦°à¦¥ à¦ļà¦ķ
Ġà¦®à¦°à¦£ à¦«
Ġà¦ĩà¦¹ à¦ľ
Ġm er
Ġm ake
Ġm iss
Ġw om
ar ch
Ġà¦ıà¦® à¦Ĩà¦°
à¦īà¦ĩ à¦¥
Ġb ir
Ġà¦°à¦£ à¦¹
Ġà¦°à¦£ à¦Ń
Ġà¦Ŀà§ľ à¦Ŀà¦ŀ
Ġp la
Ġp oet
à¦¿âĢĿ !
Ġà¦ķà¦¦ à¦®à¦¤à¦²
Ġà¦¬à¦°à¦« à¦¶
Ġf ol
à¦ĺà¦Łà¦¨ à¦ªà¦Ł
à§· à§·
Ġà§© à§®
à§Īà¦ĥ ,
Ġd a
à¦Ĩà¦ĩ à¦ĵà¦Ł
à§Ģà¦Ĥ à¥¤
Ġà§¨à§¦ à§§à§Ń
Ġà§¨à§¦ à§«à§¦
Ġà¤ µ
Ġà¤ ¶
Ġà¤ ĸ
Ġà¤ Ľ
Ġà¤ ľ
ct ure
Ġl ight
Ġl aw
Ġl ater
Ġth rough
ĠI t
Ġà¦¸à¦°à¦²à¦¤ à¦®
Ġà¦ĵà¦ľà¦¨ à¦¹
ol o
Ġà¦¨à¦ĸ à¦¦à¦¨
ot h
à¦¶à¦ĵ à¦ª
Ġà§« à§®
Ġbe fore
ĠP r
ent r
ut ion
Ġe ach
à¦¨à¦¶à¦¨ à¦Ł
ĠB ip
à¦£à¦¸ à¦ŀ
ĠS h
à¦Ĭ à¦¨
el lect
à¦¼à§Ģà¥¤ âĢĿ
Ġre m
Ġre ad
Ġà¦¨à¦ĵ à¦ľ
à¦¿' !
à¦¾âĢ¦âĢĿ âĢĶ
ur ing
Ġà§Ń à§§
Ġg ot
Ġg od
à¦¼?âĢĿ âĢĶ
im ate
os a
os ity
ĠR el
Ġà¦ķà¦¨à¦ķ à¦¦
Ġà¦Ĩà¦īà¦Ł à¦¡
us i
ver se
à§ĭâĢ¦âĢĿ âĢĶ
Ġà§§à§® à§¬à§¦
Ġà§§à§¯à§ª à§®
Ġà§¬ à§¦à§¦
Ġwh ose
Ġà¦ªà¦¬à¦¨ à¦¦
if ic
if ul
if ication
Ġà¦¸à¦®à¦¤à¦² à¦Ń
à¦¾' à¥¤
ci ent
Ġà¦īà¦ĩ à¦Ļ
Ġha pp
Ġà¦¯à¦¬à¦¨ à¦°
Ġà¦ľà¦¹ à¦°à¦ķ
ir st
Ġà¦īà¦ĩà¦¨ à¦ļ
Ġst ru
Ġst ipend
Ġà¦ıà¦ķà¦¨ à¦ľà¦°
!! [
em por
à¦¸à¦®à¦¤ à¦²
Ġà¦ĸà¦¨à¦¨ à¦ķ
Ġà¦¨à¦¬à¦° à¦Ļ
à¦°à¦²à§Ł à¦Ļ
ĠL ED
ist ory
Ġà§§à§¯à§¬ à§ª
à§§à§ª à§«
Ġà§¨à§¦à§¦ à§®
Ġà¦Ĺà¦« à¦°à¦Ĺ
Ġà§§à§¯à§¨ à§¦
Ġà§§à§¯à§¨ à§Ń
ĠW e
ant a
ant s
à§ĩ' à¥¤
ac y
ĠØ ±
ĠØ ´
Ġà¦®à§Ł à¦®à¦¨à¦¸
Ð° Ñģ
Ġhe re
Ġà¦ħà¦ĺà¦Łà¦¨ à¦ĺà¦Łà¦¨à¦ªà¦Ł
Ġex per
Ġà¦Ŀà¦² à¦Ŀà¦²
Ġcom e
Ġcom p
Ġà§§à§¯à§© à§ª
Ġà¦Ĩà¦ī à¦Łà¦¬
Ġà¦Ĩà¦ī à¦¶à¦Ń
Ġsp e
Ġsp irit
Ġsu ccess
Ġint ellect
Ġà¦Ĺà¦¤à¦¬ à¦Ľà¦°
iz on
con t
Ġà¦Ĳà¦°à¦ķà¦® à¦ĩ
ĠRe ality
ub lic
Ġsh all
Ġch ild
Ġch allenge
Ġwor k
af i
af Ã©
au ght
Ġle arning
Ġà¦¬à¦°à¦ķ à¦¤
Ġà§§à§¯à§« à§§
arn a
Ø§Ø ª
Ġapp ro
Ġbet ter
à§» à¦¾
à§» à§ĩ
à§įà§į à§įà§į
==== ====
à¤ª à¤Ł
Ġ____ _
ĠÑ Ī
à¦¾à§į à¦ģ
rag ment
____ ____
Ġag ain
Ġrel igion
à« į
æŃĵæŃĵæŃĵæŃĵæŃĵæŃĵæŃĵæŃĵæŃĵæŃĵæŃĵæŃĵæŃĵæŃĵæŃĵæŃĵ æŃĵæŃĵæŃĵæŃĵæŃĵæŃĵæŃĵæŃĵæŃĵæŃĵæŃĵæŃĵæŃĵæŃĵæŃĵæŃĵ
Ġà¦Łà¦ĩà¦Ł à¦®
sh ip
Ġup on
ĠRah im
cret e
ĠY ou
Ġess ay
ÂłĠÂłĠÂł ĠÂł
Ġsil ent
ìĿ ĺ
à§į: âĢĶ
Ġpos itive
Ġbeaut iful
ĠBhar ata
kn own
âĪ Ĵ
à¦ľà¦¬à¦ª à¦£
à¦Ĩà¦°à¦ĩ à¦ľ
Ġsam osa
ĠDur ga
ĠNaz rul
hilos op
ĠBip ul
Ġstipend s
! --
% -
, /
5 1
5 7
A B
A l
B D
B S
B oss
C om
D igital
E C
H O
I F
J oy
L M
M y
M an
M ontu
M odern
N A
P M
R U
S P
T A
T ub
W ork
a ven
b al
b ed
d ay
e ed
e le
e ep
f t
f ter
f ragment
g g
g an
h it
h rist
i h
i o
i ra
i verse
k ind
l s
l it
m e
m en
m un
n ing
o x
o on
o at
o le
p in
p en
p art
p ose
r at
r ish
s c
t ra
v as
» ¿
Â °
Ã ¤
Ã ¼
Ä ±
Ð ±
Ò ¯
Õ ¥
Õ «
Ö Ģ
× ¢
Ú ¯
à ©
à ¬
à ²
à ¶
å ®
å ¿
ê °
ï »¿
Ġ 7
Ġ en
ŀ ×
Ġà¦ ¾
à§ĩ _
à¦° à¦ł
à¦° à¦°à¦¤
à¦° à¦ĸà¦¨
à¦° à¦°à¦¬
à¦° à¦Ĩà¦®
à¦° à¦Łà¦²
à¦° à¦ļà¦¯
à¦° à¦Ĩà¦°
à¦° à¦ıà¦°
à¦° à¦ħà¦²
à¦° à¦ĺà¦£
à¦° à¦ĺà¦¡
à§į âĢĻà¥¤
à¦¿ âĢĲ
à¦¨ à¦ĸà¦¨
à¦¨ à¦Ĩ
à¦¨ à¦°à¦¸
à¦¨ à¦¦à¦°
à¦¨ à¦ļà¦²
à¦¨ à¦®à¦°
à¦¨ à¦°à¦ª
à¦¨ à¦®à¦¹
à¦¨ à¦ľà¦®
à¦¨ à¦ľà§Ł
à¦¨ à¦ħà¦²
à¦¨ à¦ķà¦¤à¦ķ
à¦¤ à¦¶à¦¯
à¦¤ à¦·à¦Ł
à¦¤ à¦¯à¦ľ
à¦¤ à¦°à¦¤à¦°
à¦¤ à¦ļà¦°à¦£
à¦¤ à¦°à¦¤à¦²
à¦² à¦·
à¦² à¦ı
à¦² à¦ıà¦ĩ
à¦² à¦«à¦²
à¦² à¦ªà¦¡
à¦² à¦ĩà¦¬
à¦² à¦®à§Ł
à¦² à¦¥à¦¤
à¦ķ à¦Ĩ
à¦ķ à¦ªà¦¤
à¦ķ à¦ļà¦¤
à¦ķ à¦ĺà¦¨
à¦¯ à¦Ľ
à¦¯ à¦«
à¦¯ à¦Ńà¦¬
à¦¯ à¦ĺà§ľ
à§ģ /
à§ģ à¦¾
à¦¬ à¦¸à¦¬
à¦¬ à¦Ĺà¦¨
à¦¬ à¦Łà¦°
à¦¬ à¦īà¦ķ
à¦¬ à¦īà¦Ł
à¦¬ à¦īà¦°
à¦¼ à§ĭà¥¤âĢĿ
à¦¼ à§Īà¦ĥ
à¦¼ âĢĿâĢĵ
à¦® à¦°à¦²
à¦® à¦¹à¦¨
à¦® à¦Ĺà¦ľ
à¦® à¦Ńà¦°
à¦® à¦ľà¦¯
à¦® à¦Ŀà¦°
à¦® à¦ĸà¦£
à¦® à¦łà¦¤
à¦® à¦°à¦¹à¦¸
à§ĭ .
à§ĭ âĢĿâĢĵ
Ġà¦ķ à¦ĩà¦¯
Ġà¦ķ à¦ĩà¦®
Ġà¦ķ à¦¸à¦®à¦¸
Ġà¦¬ à¦ĵà¦¯
Ġà¦¬ à¦¦à¦¹
Ġà¦¬ à¦°à¦ķà¦¨
Ġà¦¬ ab
Ġà¦¬ à¦ľà¦¬à¦ľ
Ġà¦¸ à§İà¦¸
à¦¸ à¦ı
à¦¸ à¦¦à¦°
à¦¸ à¦Ĺà¦¤
à¦¸ à¦ªà¦¥
à¦¸ à¦ļà¦°
à¦¸ à§°
à¦¸ à¦°à¦¤à¦®
à¦¸ à¦ĸà¦¨à¦ĵ
Ġà¦ª à¦¦à¦¨à¦ĸ
Ġà¦Ĩ à¦ļà¦ķ
Ġà¦Ĩ à¦ªà¦ķ
Ġà¦Ĩ à¦ĩà¦Ľ
Ġà¦Ĩ à¦ĵà¦°
à¦¦ à¦¥
à¦¦ à¦¦à¦°
à¦¦ à¦¶à¦¨
à¦¦ à¦¶à¦¬
à¦¦ à¦ĩà¦¯
à¦¦ à¦¬à¦§
à¦¦ à¦Ńà¦Ļ
à¦¦ à¦²à¦¬à¦¦
à¦Ł à¦ł
à¦Ł à¦Ŀ
à¦Ł à¦Łà¦²
à¦Ł à¦¬à¦¦
à¦Ł à¦¨à¦Ł
à¦Ł à¦ªà¦Ł
à¦Ł à¦¬à¦¯
à¦Ł à¦®à¦¹
à¦Ł à¦¸à¦¸
Ġà¦¨ à¦¬à¦²
Ġà¦¨ à¦¬à¦¤
Ġà¦¨ à¦§à¦°
Ġà¦¨ à¦Łà¦¬
Ġà¦¨ esc
Ġà¦® à¦ķà¦°
Ġà¦® à§°
Ġà¦® à¦Łà¦¨
Ġà¦® à¦¦à¦Ł
à¦ª à¦¸à¦¬
à¦ª à¦²à¦¤
à¦ª à¦®à¦¤
à¦ª à¦Ĩà¦²
à¦ª à¦Ńà¦¯
à¦ª ank
à¦ĩ à¦ķà¦¬
à¦ĩ à¦ľà¦°
à¦ĩ à¦«à¦²
à¦ĩ à¦ľà¦¯
à¦ĩ à¦īà¦¡
à§Ģ à§į
à§Ģ à¦ģ
à§Ģ âĢĶâĢľ
à§Ģ ),
à¦Ľ à¦ĸ
à¦ľ à¦£
à¦ľ à¦«
à¦ľ à¦¬à¦²
à¦ľ à¦®à¦ķ
à¦ľ à¦łà¦°
à¦ľ à¦ĸà¦®
à¦ľ à¦²à¦ķà¦£
Ġà¦¹ à¦°à¦Ĺ
Ġà¦¹ à¦Łà¦°
Ġà¦¹ à¦°à¦¦à¦®
Ġà¦¤ à¦°à¦ľ
Ġà¦¤ à¦ĵà¦¬
Ġà¦ı à¦ªà¦°
Ġà¦ı à¦¨à¦Ł
Ġà¦ı à¦¨à¦Ĺ
Ġà¦ı à¦¤à¦°à¦ķà¦®
à¦¶ à¦ľà¦²
à¦¶ à¦ļà¦°
à¦¶ à¦ªà¦Ł
à¦¶ à¦¸à¦¹
à¦¼à§ĩ )
à¦¼à§ĩ âĢ¦âĢĻ
Ġà¦ħ à¦°à¦®
Ġà¦ħ à¦¶à¦¬
Ġà¦ħ à¦¯à¦¯
à¦ĸ à¦°à¦¸
à¦ĸ à¦¸à¦®
à¦ĸ à¦°à¦Ĺ
à¦ĸ à¦ĺà¦£
à¦Ĺ à¦®à¦£
à¦Ĺ à¦¬à¦¦
à¦Ĺ à¦¶à¦ķ
à¦Ĺ à¦¸à¦Ļ
à¦Ĺ à¦¦à¦¤
à¦· à¦®à¦¨
à¦· à¦°à¦¶
à¦· à¦¨à¦ĵ
à¦· à¦¹à¦°
à¦· à¦¸à¦®
à¦· à¦®à¦£
à¦§ à¦°à¦ķ
à¦§ à¦¨à¦¤
à¦§ à¦ļà¦ķ
à¦§ à¦Ńà¦ķ
à¦§ à¦¨à¦¤à¦¤
âĢ ŀ
à¦¡ à§Łà¦¨
à¦¡ à¦¬à¦Ń
à¦¡ à¦īà¦ĩà¦¥
à¦ļ à¦ľ
à¦ļ à¦¹
à¦ļ à¦°à¦¤
à¦ļ à¦ªà¦°
à¦ļ à§İ
à¦ļ à¦°à¦¸
à¦ļ à¦Łà¦ķ
à¦ļ à¦ĺà¦°
à¦¹ à¦°à¦¤
à¦¹ à¦ķà¦¤
à¦¹ à¦ªà¦¥
à¦¹ à¦¬à¦¦
à¦¹ à¦ĩà¦¬
à¦¹ à¦ķà¦ķ
à¦¹ à¦®à¦§
Ġà¦ķà¦° à¦ļ
à§Ł à¦ķà¦°
à§Ł à¦¨à¦¬
à§Ł à¦®à¦ķ
Ġà¦Ĺ à¦Ĺà¦²
Ġà¦Ĺ à¦°à¦¦
Ġà¦Ĺ à¦ľà¦¸
à¦£ à¦§à¦¨
à¦£ à¦Ńà¦¯
à¦£ à¦¯à¦ľ
à¦£ à¦ĺà¦Ł
à¦¥ à¦ľ
à¦¥ à¦¬à¦¨
à¦¥ à¦ľà¦¨
à¦¥ à¦²à¦¨
à¦¥ à¦¸à¦°
Ġà¦¶ à¦®à¦¨
Ġà¦¶ à¦ķà¦²
Ġà¦¶ à¦°à¦¨
Ġà¦¶ à¦ĸà¦Ł
Ġà¦ľ à¦¦
Ġà¦ľ à¦ĸ
Ġà¦ľ à¦ĵà¦¯
Ġà¦ľ à¦°à¦¦
Ġà¦ľ à¦ĵà¦¹
Ġà¦ļ à¦°à¦¨
Ġà¦ļ à§Łà¦¨
Ġà¦ļ à¦°à¦Ľ
Ġà¦Ń à¦ľà¦®
Ġà¦° à¦ĩà¦¨
Ġà¦° à§Łà¦¨
Ġà¦° à¦ľà¦¸
Ġà¦° à¦¸à¦®à§Ł
à§ĩà¥¤ --
à¦ĵ à¦¥
à¦Ń à¦°à¦ķ
à¦Ń à¦¬à¦ª
à¦Ń à¦¨à¦¤
Ġà¦ıà¦ķ à¦¡
Ġà¦ıà¦ķ à¦¬à¦¸
Ġà¦ıà¦ķ à¦²à¦Ĺ
Ġà¦ıà¦ķ à¦¸à¦ª
Ġà¦ıà¦ķ à¦ĺà¦¨
Ġà¦ıà¦ķ à¦Ĩà¦§à¦Ł
à¦¼à¦¾ à¦ĥà¥¤
à¦¼à¦¾ âĢĻâĢĶ
à¦¼à¦¾ ---
à§ĥ à¦ĥ
Ġà¦Ľ à¦¸
Ġà¦Ĩà¦® à¦¸à¦¤
à¦ł à¦®à¦¤
à¦ł à¦¶à¦¬
à¦ł à¦ĸà¦£
à¦ł à¦ĸà¦¡
Ġà¦ī à¦Ľà¦¸
à¦Ĥ ;
à§Ĥ ;
à§Ĥ âĢĵ
à¦¾à¦ģ à¦ģ
à¦¾à¦ģ âĢĶ
à¦¾à¦ģ !âĢĿ
Ġà¦² à¦¬à¦¸
Ġà¦² à¦¸à¦¸
Ġà¦¬à¦² à¦ĸ
Ġà¦¬à¦² à¦ªà¦¯
Ġà¦« à¦¨à¦ķ
Ġà¦Ĩà¦° à¦ªà¦¨
Ġà¦Ĩà¦° à¦¬à¦Ń
Ġà¦ĸ à¦ĩà§Ł
Ġà¦ĸ à¦°à¦¤à¦°
à¦°à¦¤ à¦ªà¦°
Ġà¦ħà¦¨ à¦¬à¦ļ
Ġà¦ªà¦° à¦§à¦°
Ġà¦ªà¦° à¦¶à¦ª
Ġà¦ªà¦° à¦®à¦¤à¦¤
Ġà¦§ à¦ĩà¦°
âĢĶ âĢĵ
Ġà¦¸à¦® à¦ª
Ġà¦¸à¦® à¦®à¦°
à¦¬à¦¨ à¦®à§Ł
à¦¼à¦¿ âĢĿ
à§ľ à¦¸à¦®
à¦ĸà¦¨ à¦¶
Ġà¦ĺ à¦°à¦£
Ġà¦®à¦¨ à¦¹
Ġà¦®à¦¨ à¦®à¦¤
Ġà¦®à¦¨ à¦ªà¦Ł
Ġà¦®à¦¨ à¦ķà¦£
à¦ªà¦° à¦ĩ
à¦°à¦£ à¦§
à¦°à¦£ à¦Ĺà¦¤
Ġà¦ıà¦ĩ à¦®à¦¤
à¦¿à¥¤ )
à¦®à¦¨ à¦¤
à¦Ŀ à¦°à¦Ľ
à¦Ŀ à¦Ĺà§ľ
à¦ľà¦¨ à¦¸à¦®
à¦ŀ à¦Ł
à¦ŀ à¦ĵ
à¦ŀ à¦ľà¦¨
à¦ŀ à¦¦à¦ķ
à¦¤à¦° à¦°
à¦¤à¦° à¦ĸà¦£
à¦¤à¦° à¦ľà¦Ĺà§İ
à¦« à¦Ŀà¦®
à¦ī à¦Ľà¦²
à¦ī à¦ªà¦¶
à¦¿, âĢĵ
à¦ªà¦¨ à¦°
à¦ªà¦¨ à¦ļ
à¦ªà¦¨ à¦ĵ
à¦ªà¦¨ à¦Ĺà¦°
Ġà¦Ĩà¦² à¦ľ
Ġà¦Ĩà¦² à¦¹
Ġà¦Ĩà¦² à¦®à¦¦
à§İ à¦®
à§İ à¦ĵ
à¦Ĩ à¦¨à¦¤
à¦Ĩ à¦°à¦¨
à¦Ĩ à¦Ĺà¦¨
à¦Ĩ à¦¸à¦°
à¦Ĩ à¦ĩà¦°
à¦Ĩ à¦¸à¦ķ
à¦Ĩ à¦¨à¦²
à¦Ĩ à¦ªà¦¸
à¦Ĩ à¦ĩà¦Ł
à¦Ĩ à¦¹à¦°à¦£
à¦Ĩ à¦ªà¦²
à¦Ĩ à¦¶à¦¯
à¦°à¦¬ à¦¶
à¦°à¦¬ à¦°à¦£
à¦°à¦¬ à¦ªà¦ķ
à¦°à¦¬ à¦ľà¦¨à¦ķ
à¦ı à¦¥
à¦ı à¦²à¦ķ
à¦ı à¦®à¦¤
à¦°à¦ķ à¦ĩ
âĢĿ ?
Ġà¦¸à¦¬ à¦¤
Ġà¦¸à¦¬ à¦ĵ
à¦¬à¦° à¦§
Ġà¦¬à¦²à¦² à¦²
Ġà¦¬à¦²à¦² à¦Ĩà¦ľ
Ġà¦¬à¦²à¦² à¦Ĩà¦ļ
Ġà¦Ĩà¦¸ à¦¹
âĢĻ âĢ¦
à¦¼à¥¤ '
à¦¼à¥¤ âĢ¦
Ġà¦¹à¦² à¦¨
Ġà¦¹à¦² à¦ĵ
Ġà¦¡ à¦«
Ġà¦ĩ à¦°à¦¤
Ġà¦ĩ à¦ķà¦²
Ġà¦ĩ à¦¹à¦¸
Ġà¦ĩ à¦¸à¦ķ
Ġà¦ĩ à¦¡à¦²
Ġà¦ĩ à¦¸à¦Ł
Ġà¦ĩ à¦Łà¦ª
à¦ĺ à¦ĩ
à¦ĺ à¦ĵ
à¦ĺ à¦Ŀ
à¦ĺ à¦¬à¦¤
à¦ĺ à¦¶à¦ķ
Ġà¦ľà¦¨ à¦¸à¦Ļ
Ġà¦Ŀ à¦¨à¦ķ
à¦¬à¦² à¦¶
à¦¬à¦² à¦¤à¦°
à¦¬à¦² à¦ľà¦²
à¦¼, --
à¦°à¦® à¦¥à¦ķ
Ġà¦ł à¦Ł
à¦·à¦£ à¦ªà¦¦
à¦·à¦£ à¦¸à¦¹
à¦¨à¦¤ à¦¬
à¦¨à¦¤ à¦ĩ
Ġà¦ķà¦°à¦² à¦ķ
Ġà¦ıà¦¸ à¦ĩà¦īà¦Ń
Ġà¦¬à¦¸ à¦°
Ġà¦Ĩà¦ľ à¦°
à¦¤à¦¨ à¦ª
à¦¤à¦¨ à¦¹
à¦¤à¦¨ à¦¤à¦°
Ġà¦¢ à¦ª
à¦ħ à¦¤à¦¨
à¦ħ à¦ķà¦°
à¦ħ à¦¹à¦°
à¦ħ à¦¸à¦¨
à¦ħ à¦¬à¦ļ
à¦ħ à¦¹à¦®
à¦ħ à¦¹à¦Ļ
Ġà¦¬à¦¨ à¦Ľ
Ġà¦¬à¦¨ à¦Ŀ
Ġà¦¬à¦¨ à¦°à¦ķ
Ġà¦¬à¦¨ à¦«à¦²
à¦ķà¦² à¦ª
Ġà¦Ĩà¦¬ à¦ķ
Ġà¦ħà¦® à¦°à¦ª
Ġà¦ªà¦¥ à¦ĸ
Ġà¦Ĩà¦Ĺ à¦°
Ġà¦Ĩà¦Ĺ à¦°à¦¤à¦²
à¦ķà¦Ł à¦Ł
à¦ķà¦Ł à¦ľà¦¨à¦ķ
à¦¸à¦¬ à¦ķà¦Ł
Ġà¦ħà¦¸ à¦°à¦ķ
à¦¯à¦¬ à§°
à¦¯à¦¬ à¦ĩà¦¤
à¦°à¦¨ à¦Ł
à¦°à¦¨ à¦ĩ
à§ĩà¦ģ à¥¤
à§ĭ, âĢĿâĢĶ
à¦²à¦ķ à¦¤
à¦²à¦ķ à¦ĩ
à¦¤à¦¬ à¦Ń
à¦¤à¦¬ à§İà¦¸
à¦°à¦¸ à¦ľ
à¦¨à¦¬ à¦Ł
à¦¨à¦¬ à¦¡
à¦¨à¦¬ à¦¤à¦°
à¦¨à¦¬ à¦¬à¦°
à¦¨à¦¬ à¦Ĺà¦£
Ġà¦Ĩà¦¶ à¦ķ
à¦¦à¦¨ à¦°
à¦¦à¦¨ à¦¬à¦¨
Ġà¦ıà¦ĸà¦¨ à¦¤
à¦°à¦¥à¦® à¦Ń
Ġà¦¬à¦° à¦ľ
Ġà¦¹à¦¤ à¦ĩ
à§ĩ? à¥¤
à§ĩ? !âĢĿ
à§ĩ? ---
Ġà¦ıà¦² à¦Ĺà¦°
Ġà¦Ĩà¦¨ à¦®
Ġà¦ħà¦¦ à¦²
Ġà¦īà¦¦ à¦°à¦¸
à¦¦à¦° à¦ĵ
à¦¦à¦° à¦ŀ
Ġà¦ľà¦² à¦ªà¦°
Ġà¦ľà¦² à¦®à¦¯
Ġà¦ľà¦² à¦¸à¦¤
Ġà¦ľà¦² à¦¶à¦ķ
Ġà¦ľà¦² à¦Ŀà¦°
à¦Ĺà¦² à¦¤
à¦Ĺà¦² à¦ļà¦£
à¦¶à¦¨ à¦¹
à¦¯à¦ķ à¦¬
à¦¯à¦ķ à¦£
à¦®à¦¤ à¦ķ
à¦®à¦¤ à¦ª
à¦§à¦ķ à¦ĵ
à¦°à¦¹ à¦®à¦¤
Ġà¦īà¦łà¦² à¦°
à¦ļà¦¨ à¦Ł
à¦ļà¦¨ à¦ĩ
à¦²à¦¨ à¦¨
à¦¹à¦¸ à¦Ļ
Ġà¦īà¦ª à¦²
Ġà¦īà¦ª à¦Ľ
Ġà¦īà¦ª à¦¢
Ġà¦®à¦¹ à¦¨
Ġà¦¸à¦° à¦Ĺà¦®
à¦¨à¦ĵ à¦ĩ
à¦¨à¦ĵ à§Ł
à¦ĩà¦² à¦ª
à¦ĩà¦² à¦ĵ
à¦®à¦² à¦®
à¦²à¦¬ à¦¸à¦¨
à¦ĸà¦² à¦®
à¦ĸà¦² à¦¹
à¦§à¦¨ à¦Ń
à¦§à¦¨ à¦Ńà¦Ļ
à¦°à¦ľ à¦°à¦®à¦£
à¦°à¦¦ à¦¸
à¦°à¦¦ à¦¦
à¦°à¦¦ à¦Ł
à¦°à¦¦ à¦¶
Ġà¦ıà¦®à¦¨ à¦¸à¦®à¦¯
Ġà¦ħà¦ª à¦¥
Ġà¦ħà¦ª à¦¶à¦¬
à¦°à¦² à¦¸à¦Ń
à¦¼à§ĭ à¦ĥà¥¤
Ġà¦ķà¦² à¦ĺà¦°
Ġà¦ķà¦² à¦¸à¦ĸ
à¦ļà¦² à¦ĵ
Ġà¦¸à¦¹ à¦¤
Ġà¦Ĩà¦¤ à¦¶
à¦¸à¦¨ à¦Ĺ
à¦ķà¦¬ à¦§
à¦¨à¦¨ à¦¨
à¦¨à¦¨ à¦Ĺà¦°
à§ĩ- âĢĺ
à¦¸à¦® à¦ŀ
à¦Łà¦ķ à¦¯
à¦Łà¦ķ à¦ĩ
à¦Łà¦ķ à¦ļ
à§Ģ, âĢĶ
à§Ģ, âĢĻ
Ġà¦īà¦¨ à¦ļà¦²
à¦¹à¦² à¦®à¦¯
à¦¹à¦² à¦Ńà¦°
Ġà¦ķà¦® à¦¸
à¦¤à¦² à¦§
Ġà¦īà§İ à¦ķà¦²
à¦®à¦° à¦ļ
à¦¸à¦° à¦·
à¦¸à¦° à§İ
à§ĩ! -
à§ĩ! ''
à¦°à¦ĵ à¦ķ
à¦¦à§Ł à¦°
à¦¦à§Ł à¦¦
à¦¦à§Ł à¦ªà¦Ł
à¦ªà¦¦ à¦Ĩà¦ªà¦¦
à¦ªà¦¥ à¦°
Ġà¦ħà¦®à¦² à¦¦
Ġà¦ħà¦Ĺ à¦£à¦¤
Ġà¦Ĺà¦° à¦ľà¦¨
à¦®à¦£ à¦¶
Ġà¦ħà¦ķ à¦®
à¦¦à¦² à¦ª
à¦¬à¦¸ à¦¹
Ġà¦®à¦° à¦Łà¦¨
Ġà¦ħà¦ªà¦° à¦Ł
Ġà¦ħà¦ªà¦° à¦ľà¦¨
à§įâĢĮ ;
à¦°à¦ª à¦¶
à¦°à¦ª à¦¤à¦¨
Ġà¦«à¦² à¦ľ
Ġà¦«à¦² à¦¬à¦¤
à¦¬à¦¦ à¦ķ
à¦¯à¦® à¦Ł
à¦¯à¦® à¦ª
à¦¤à¦ķ à¦®
à¦¤à¦ķ à¦ª
à§ģà¦ĥ !
à¦ļà¦ķ à¦®
à¦¤à¦® à¦¦
à¦¤à¦® à¦§
à¦¾! "
Ġà¦ĩà¦¨ à¦ķà¦°
à¦ľà¦² à¦Ľ
à¦ľà¦² à¦Ľà¦¬
Ġà¦ħà¦¶ à¦¥
Ġà¦Ĩà¦§ à¦ĺ
à¦¬à¦ķ à¦ª
à¦£à¦¤ à¦ĩ
à¦ĩà¦ķ à¦¸
à§ģâĢĻ âĢĵ
à¦¯à¦¸ à¦ļ
à¦¬à¦¬ à¦¹
à¦¬à¦¬ à¦¶à¦¤
Ġà¦ħà¦² à¦ĸ
Ġà¦ħà¦² à¦ĵà¦¯
Ġà¦Ĩà¦¸à¦² à¦Ł
à§° à¦ķà¦²
à§° à¦®à¦£
à¦¼à§ģ !
à¦¼à§ģ âĢĵ
Ġà¦¶à¦¤ à¦¦
!âĢĿ âĢĵ
Ġà¦¨à¦¬ à¦§
Ġà¦¨à¦¬ à¦Ń
à¦¼à§Ģ ;
à¦ªà¦¸ à¦ª
à¦ªà¦¸ à¦ĩ
à¦ªà¦¸ à¦ľ
à¦¬à¦¶ à¦°à¦£
à¦¬à¦¶ à¦¤à¦ĩ
à¦°à¦ľà¦¨ à¦¨à¦ķ
à¦ĩà¦Ł à¦ľ
à¦¥à¦° à¦ĸ
à¦¥à¦° à¦Ĺà¦¤
Ġà¦Ĺà§ľ à¦²
à¦«à¦² à¦Ĺ
à¦«à¦² à¦ĵ
ÂłÂłÂłÂłÂłÂłÂłÂł ÂłÂłÂłÂłÂłÂłÂłÂłÂłÂłÂłÂłÂłÂł
à¦Ĺà¦ľ à¦ĵ
à¦Ĺà¦ľ à¦ĸà¦£
Ġà¦¸à¦¹à¦ľ à¦ª
Ġà¦¸à¦®à§Ł à¦Ĺ
à¦īà¦² à¦ªà¦¨
à§ĩâĢĵ âĢĵ
à¦°à¦¹à¦£ à¦ĵ
Ġà¦ıà¦¨ à¦Ĩà¦°à¦ĩà¦ľ
ĠâĢĵ âĢĺ
Ġà¦ªà¦² à¦¸
Ġà¦°à¦ķà¦® à¦ĵ
Ġà¦¦à¦¶ à¦ľà¦¨à¦ķ
à¦ķà¦ķ à¦£
Ġà¦īà§İà¦¸ à¦Ł
Ġà¦īà§İà¦¸ à¦ĩ
Ġà¦ľà¦° à¦¡à¦¨
Ġà¦Ĺà¦£ à¦¶
Ġà¦ķà¦²à¦ķ à¦¬à¦ľ
Ġà¦Ńà§Ł à¦ĩ
Ġà¦Ńà§Ł à¦Ĺ
Ġà¦Ńà§Ł à¦ĵ
à¦Łà¦° à¦°
à¦®à¦°à¦£ à¦¸
à¦®à¦°à¦£ à¦ľ
à¦²à¦® à¦Ĺ
à¦Ĺà¦® à¦ª
à¦Ĺà¦® à¦ľ
à¦Ĺà¦® à¦ĵ
à¦²à¦Ĺ à¦¡
à¦ªà¦£ à¦ĵ
à¦²à¦¸ à¦¹
à¦¹à¦°à¦£ à¦¤
Ġà¦°à¦¸ à¦ľ
Ġà¦°à¦¸ à¦Ń
Ġà¦īà§İà¦¸à¦¬ à¦ļ
Ġà¦Ī à¦Ĺà¦²
Ġà¦Ī à¦¦à¦Ĺ
Ġà¦ªà¦¶ à¦°
à¦ľà¦ķ à¦¸
à¦¾âĢĻ ?
à¦¯à¦ª à¦²
à§¦ à§©
à¦°à¦° à¦ŀ
Ġà¦ªà¦°à¦® à¦§à¦°
Ġà¦¶à¦¹ à¦°à¦®à¦¯
à¦¶à¦² à¦ĩ
à¦¶à¦² à¦ĵ
à§« à§®
à¤ ¥
à¤ Ľ
à¦łà¦ķ à¦Ĺ
à¦ķà¦¸ à¦ĩà¦¤
à¦¬à¦£ à¦ķ
à¦¬à¦£ à¦§
à§Ģ? âĢĵ
Ġt er
Ġt urn
Ġà¦ļà¦®à¦ķ à¦¦
à§ĩ?âĢĿ à¥¤
Ġà¦ıà¦Ń à¦²
à¦·à¦¦ à¦ķ
à¦·à¦¦ à¦¬à¦°
à¦¾à¥¤âĢĻ âĢĻ
à¦¹à¦® à¦¦
à§ĩâĢ¦ ?âĢĿ
à¦ĩà¦Ń à¦Ł
à¦®à¦¶ à¦¯
à¦£à¦¬ à¦Ļ
Ġà¦¸à¦°à¦² à¦ļ
à¦¨à¦¶ à¦°
à¦¿âĢĻ ?
Ġà¦ªà¦°à¦¶ à¦ĸ
à¦Ĺà¦£ à¦®
à¦Łà¦Ľ à¦¡
Ġà¦¸à¦¦ à¦Ĺà¦¤
in es
in ct
in ci
in ess
à¦ķà¦Ĺ à¦®à¦¨
à¦·à§Ł à¦ª
,âĢĿ âĢĵ
an an
an ch
à¦¥à¦® à¦¥à¦®
Ġà¦· à¦ĸà¦¨
à¦¦à¦ķ à¦ĵ
à¦¨à¦ļ à¦ļ
à¦¶à¦° à¦Ļ
à¦ľà§Ł à¦ª
à§ĩ?âĢĻ âĢĶ
à¦Ĺà¦¡ à¦Ĺ
Ġ- '
Ġ- âĢĺ
on y
à¦¨à§Łà¦¨ à¦ĩ
Ġà¦¶à¦ªà¦¥ à¦¬à¦¦
Ġà¦®à¦¨à¦¨ à¦ļà¦°
à¦Ĺà¦°à¦£ à¦ĩ
Ġà¦Ĭ à¦ł
Ġà¦Ĭ à¦·à¦¸
Ġà¦Ĭ à¦¹à¦Ĺ
Ġà¦Ĭ à¦¨à¦ªà¦ŀ
Ġà¦ķà¦ļ à¦¸
à¦ķà§ľ à¦ķ
Ġà¦®à¦¦ à¦®à¦¤
à¦ªà§ľ à¦¶
at is
at tle
at ural
Ġà¦ķà¦²à¦® à¦ĩ
al e
al y
al ism
à¦¼âĢĵ âĢĻ
à¦ķà¦ĸà¦¨ à¦ĩ
Ġthe ms
à¦ıà¦¸ à¦ıà¦¸
à¦ıà¦¸ à¦ıà¦¸à¦¸
à¦ĩà¦ª à¦Ĺ
Ġ! âĢĶ
Ġà¦ıà¦¡ à¦®à¦¨
is ed
is ion
is hes
à¦Ĳ à¦¨
en cy
Ġo wn
à§¯ à§¦
à§¯ à§ª
it s
it ies
it ude
à¦¯à¦Ĺ à¦ļ
Ġs he
Ġs ay
Ġs ha
à§ĭ?âĢĿ ,
Ġà¦ļà¦°à¦£ à¦ķ
Ġà¦ļà¦°à¦£ à¦¸
Ġà¦ļà¦°à¦£ à¦Ĺ
à§ĩâĢĻ ?
à¦ªà¦Ĺ à¦ŀ
Ġà¦Ķ à¦·
Ġà¦Ķ à¦°à¦Ļ
à¦ħà¦® à¦Ļ
Ġà¦ĩà¦Ł à¦Ĺ
Ġà¦Ńà¦°à¦¤ à¦¨
Ġà¦Ńà¦°à¦¤ à¦¸
Ġà¦Ńà¦°à¦¤ à¦ª
Ġà¦Ńà¦°à¦¤ à¦Ń
Ġ; âĢĶ
Ġ; --
à¦¿âĢ¦ âĢĿà¥¤
à¦·à¦¬ à§İ
Ġà¦ľà¦Ĺà§İ à¦¦
Ġà¦ľà¦Ĺà§İ à¦ľ
Ġa way
Ġa fter
à¦Łà¦¸ à¦Ĺ
à¦ĸà¦¸ à¦ĸà¦¸
Ġà¦¬à¦¦ à¦Ń
Ġà¦ĭà¦£ à¦®
Ġà¦ĭà¦£ à¦¶
Ġc a
Ġc or
Ġc are
à¦ķà¦¶à¦¨ à¦ĵ
Ġm ach
Ġm ade
Ġà¦¨à¦° à¦ĵà¦¯
ar r
ar un
ar ily
à¦¿!âĢĿ âĢĶ
Ġà¦ıà¦® à¦Ĩà¦°à¦Ĩà¦ĩ
Ġb ack
à¦¬à¦ªà¦¨ à¦®à¦¯
à¦ĭ à¦Ĺà¦¬
à¦®à¦Ń à¦ľà¦¨
Ġà¦Ĺà¦¦ à¦ĸ
Ġà¦Ŀà§ľ à¦ĩ
Ġp ol
Ġp ri
and ita
ing ly
Ġà¦¬à¦°à¦« à¦Ŀà¦°
ed ic
à¦ħà¦ľ à¦Ĺà¦°
Ġf ar
Ġf ri
Ġf ac
ÂłÂłÂłÂłÂłÂłÂłÂłÂłÂłÂłÂłÂłÂłÂłÂł ÂłÂłÂłÂłÂłÂłÂłÂłÂłÂłÂłÂł
ic s
Ġà¦ķà¦¬à¦° à¦ĸ
as k
Ġd r
Ġd ow
Ġd id
Ġd ark
Ġd ivide
Ġà¦®à§İà¦¸ à¦ľ
Ġh ig
Ġh olo
Ġh istory
Ġà§§à§¯à§Ń à§®
Ġà¦¬à¦ĩà¦Ł à¦ĩ
le x
Ġà¦ļà§ľ à¦ķ
Ġà¦ļà§ľ à¦ķà¦Ĺ
ve re
à¦īà¦¬ à¦ĵà§Ł
Ġà¦ķà¦²à¦¤ à¦²
à¦¿,âĢĿ âĢĶ
Ġà¤ ¦
ct u
Ġl ab
Ġth y
Ġà¦ĸà¦¨ à¦ĸà¦¨
à¦Ī à¦ķ
à¦Ī à¦Ĺà¦°
Ġà¦¦à¦®à¦¨ à¦¨
Ġà¦¨à¦Ĺ à¦°à¦ľ
ĠI N
ol ar
Ġà¦²à¦¬à¦£ à¦ĩà¦²
Ġto ward
Ġà§« à§ª
à§§à§¯ à§¨à§¦
Ġà¦īà¦ªà¦ķà¦°à¦£ à¦Ĺ
Ġà¦¨à§Łà¦¨ à¦ľà¦²
ĠĠĠĠ ĠĠ
ĠP H
ĠP M
ĠP art
ent ial
ut e
ut ure
Ġà¦¨à¦¬à¦¦ à¦®
Ġà§ª à§§
Ġà§ª à§¨
Ġà§ª à§©
Ġà§ª à§¦à§¦
il o
il la
Ġà¦Łà¦² à¦·
Ġà§§à§© à§¨
à¦¶à¦ªà¦¥ à¦¬à¦¦
Ġà¦Ŀà¦Ł à¤ªà¤Ł
ĠS am
ĠS um
à¦Ĭ à¦¨à¦¬
el ves
Ġà¦ĸà¦Ł à¦®à¦Ł
Ġre vol
à§ĩ) :
ĠT arun
ur u
ur ope
à§į! !
à§į! ]
à¦¸à§İ à¦ªà¦¥
à¦¼à§ĩ! '
im ent
ow s
à¦¶à¦¶ à¦§à¦°
à¦·à¦ľà¦¨ à¦¦
à¦·à¦ľà¦¨ à¦ĵ
Ġà¦ĸà§ľ à¦ĸà§ľ
Ġà¦ıà¦« à¦Ĩà¦°à¦Ĩà¦ĩ
Ġà¦¶à¦ĵà¦ķà¦¤ à¦ĵ
Ġà§§à§® à§¦
Ġà§§à§¯à§ª à§§
Ġà§§à§¯à§ª à§ª
Ġwh ile
ĠC on
à§Ģ?âĢĿ âĢĶ
Ġà¦¦à¦²à¦¬ à¦¦à¦²
Ġà¥¥ âĢĿ
ĠD J
ĠD e
ĠD harma
Ġà§§à§¨ à§©
Ġà§¯ à§®
ĠN e
ĠN andita
à¦ħà¦¹ à¦°à¦¹
à¦ªà¦°à¦¶ à¦®à¦£
Ġà¦īà¦ĩ à¦ł
Ġà¦²à¦Ł à¦ªà¦Ł
Ġfor ce
Ġà¦ľà¦¹ à¦°à¦¤
Ġst ill
Ġst ate
Ġst rong
ĠG and
ĠG ang
Ġà¦ªà¦¦à¦¯ à¦¨
ĠH e
em pt
Ġà¦¨à¦¬à¦¬ à¦¸à¦¨
ĠE d
ist ic
ip on
ĠÐ ½
Ġà§§à§¯à§¬ à§¨
Ġà§§à§¯à§¬ à§¦
Ġà§§à§¯à§¬ à§¬
Ġà¦®à¦«à¦¸ à¦¸à¦²
Ġà§§à§ª à§ª
Ø§ Ùħ
à§ĩ. à¥¤
Ġà¦Ĺà¦®à¦¨ à¦ª
Ġà§¨à§¦à§¦ à§§
Ġà§¨à§¦à§¦ à§¨
à¦Ĩà¦Ł à¦ľà¦¨
Ġà§§à§¯à§® à§¨
Ġà§§à§¯à§® à§¬
Ġv an
Ġv ision
Ġv illa
Ġà¦¸à¦°à¦¬ à§İ
Ġà§§à§¯à§¨ à§«
ere st
Ġà¦Ĩà¦īà¦² à¦ļ
ast e
Ġde ath
Ġde velopment
Ġso on
ĠĠčĊĠĠ ĠĠĠč
Ġme ans
Ðµ Ñģ
Ġex c
Ġex ist
Ġà¦ĵà¦ĩà¦°à¦ķà¦® à¦ĩ
Ġtr y
Ġà¦Ĭà¦¨ à¦ļà¦²
Ġwith out
Ġr ather
Ġse e
Ġse em
isha v
Ġpro g
ie w
Ġsu b
Ġint egr
àª °
Ġà¦¶à¦¬à¦° à¦¸
Ġà¦¶à¦¬à¦° à¦¦
Ġà¦ķà¦°à¦¤à¦² à¦Ĺà¦¤
à¤¹ à¤°
Ġal so
Ġà¦¤à§İà¦¸ à§İ
à¦Ķ à¦·à¦§
ear s
ĠTh rough
ÙĪ Ø´
aw n
etect ed
Ġà¦ıà¦¤à¦¬ à¦Ľà¦°
Ġà§§à§¯à§« à§«
Ġà§§à§¯à§« à§®
ict ion
Ġem p
Ġem erg
à§°à¦¦ à§°
Ġpr odu
à¦ľà¦¨à¦Ĺà¦£ à¦®à¦¨
Ġliter ary
âĢķâĢķâĢķâĢķâĢķâĢķâĢķâĢķ âĢķâĢķâĢķâĢķâĢķâĢķâĢķâĢķ
hy s
Ġqu al
Ġpass ion
áĥĺ áĥ
Ġabstra ction
Ġad op
Ġthink ing
Ġgr and
ÂŃÂŃÂŃÂŃ ÂŃÂŃÂŃÂŃ
ĠÃ Ĺ
fin ite
ĠâĨ Ĵ
Ġà¦ªà¦°à¦®à¦¤ à¦¸à¦¹
read y
Ġfun ction
stru ction
ĠEm brace
Ġval ue
Ġval ues
uc ation
čĊčĊč Ċč
Ġac cept
Ġfe el
Ġhar l
over n
âĢĥ čĊč
Ġà¦Łà¦®à¦Ł à¦®à¦Ł
Ġinst inct
ĠIsl am
ĠHind u
Ġdiff ere
æĭ Ń
Ġauthor ity
Ġmem ory
ĠAp arna
ĠRo hit
ĠWIS H
Ġpossib ly
Ġident ity
ĠâĢĶâĢĶâĢĶ âĢĶ
Ġda ily
Ġexper iment
ĠYou Tub
LM S
Ġà¦¬à¦¦à¦¹ à¦ľà¦®
Ġà¦¬ab u
Ġà¦¨esc afÃ©
à¦ªank ar
Ġà¦ľà¦ĵà¦¹ à¦°à¦²
Ġthems elves
Ġfri end
Ġdow ry
Ġhig her
ĠYouTub e
! *
! ..
' !
' --
( !)
) .
, "
. -
5 2
: -
? âĢĺ
A D
A M
A P
A T
A dvik
B ut
C E
I f
I t
M O
O R
O S
O n
P R
P U
P ro
R ed
R ipon
S O
S e
S ha
S TEM
T U
U n
V E
V IN
[ *
] à¥¤
a ce
a pp
a ction
b r
b el
c ra
c ess
c la
c ount
c ern
d om
d am
d esh
e ver
g o
g es
h ip
h usi
i or
i el
i osity
j un
l im
l ant
m ation
n er
o es
o ol
o ff
p ing
p os
p id
r b
r vas
s u
t ic
t ers
t ick
u ra
v a
v o
v in
w ith
w ater
w ork
x t
y anta
z a
³ ´
¿ Ĵ
Ã Ĺ
Î ±
Ï ģ
Ï ħ
Ð ³
Ð ·
Ð ¼
Õ ¡
Õ ¸
× ¨
Ø ¬
Ú Ĩ
Û Ĵ
à µ
à ·
ç ¿Ĵ
é ³´
ĉ čĊč
Ġ &
Ġ 2
Ġ Q
Ġ ed
Ġ ri
Ġ 10
Ġ vers
Ġ ĠâĢ¨
ı ãģ
Ŀ áĥ
Ġà¦ ŀ
à¦¾ _
à¦¾ |
à¦¾ à§ĩà¦ģ
à¦¾ âĢķ
à§ĩ à¦¿
à§ĩ à¦¼
à§ĩ à§ĭ
à¦° à¦¢
à§į '
à§į !âĢĿ
à¦¿ (
à¦¿ "à¥¤
à¦¿ Â¤
à¦¿ âĭ¯
à¦¨ à¦²à¦ķ
à¦¨ à¦®à¦ķ
à¦¨ à¦ıà¦ķ
à¦¨ à¦°à¦Ł
à¦¨ à¦¢
à¦¨ à§İà¦¸
à¦¨ à¦ªà¦¡
à¦¨ à¦ıà¦ķà¦Ł
à¦¨ à¦Ŀà¦°
à¦¨ à¦ıà¦Ł
à¦¨ à¦Ĩà¦¤
à¦¨ à¦īà¦¤
à¦¨ à¦ĺà¦£
à¦¨ à¦ĸà¦ļ
à¦¤ à¦ł
à¦¤ à¦Ĺà¦²
à¦¤ à¦®à¦¤
à¦¤ à¦¹à¦¸
à¦¤ à¦ķà¦¬
à¦¤ à¦Ĺà¦¨
à¦¤ à¦¶à¦¬
à¦¤ à¦Ĺà¦®
à¦¤ à¦ľà¦¨à¦ķ
à¦¤ à§İà¦ªà¦°
à¦² à¦°à¦¬
à¦² à¦°à¦¸
à¦² à¦Ĩà¦®
à¦² à¦ĩà¦²
à¦² à¦¢
à¦² à¦ĩà¦¯
à¦² à¦ıà¦ķà¦Ł
à¦² à¦¹à¦®
à¦² à¦īà¦¦
à¦² à¦ĺà¦¡
à¦ķ à§İ
à¦ķ à¦Ĺà¦²
à¦ķ à¦ĸà¦¤
à¦ķ à¦ĵà§Ł
à¦ķ à¦¸à¦²
à¦ķ à¦Ľà¦¬
à¦¯ à¦ļà¦¨
à¦¯ à¦¹à¦¸
à¦¯ à¦¶à¦¬
à¦¯ à¦¸à¦¤
à¦¯ à¦ħà¦¨
à¦¯ à¦ĩà¦¤
à¦¯ à¦²à¦Ĺ
à¦¯ à¦ĺà¦¨
à¦¯ à¦¶à¦°
à¦¯ à¦ĸà¦£
à¦¯ à¦ĸà¦ļ
à§ģ à§ĥ
à§ģ à§įâĢĮ
à§ģ âĢĶâĢľ
à¦¬ à¦ł
à¦¬ à¦¶à¦¬
à¦¬ à¦®à¦¬
à¦¬ à¦ĺà¦°
à¦¬ à¦īà¦²
à¦¬ à§İà¦ĩ
à¦¬ à¦ľà¦Ĺà§İà¦ķ
à¦¼ .
à¦¼ âĢĻâĢĶ
à¦® à¦¢
à¦® à§Łà¦¨
à¦® à¦Ĩà¦ªà¦¨
à¦® à¦Ńà¦¯
à¦® à¦ľà¦®
à¦® à¦«à¦¸
à¦® à¦°à¦®à¦°
à§ĭ "
à§ĭ à§į
à§ĭ à¦¿
à§ĭ à¦¾à¦ģ
Ġà¦ķ à¦ĩà¦¨
Ġà¦ķ à¦Łà¦²
Ġà¦ķ à¦¹à¦¤
Ġà¦¬ à¦ĵ
Ġà¦¬ à¦¤à¦°
Ġà¦¬ à¦¨à¦¤
Ġà¦¬ à¦°à¦¸
Ġà¦¬ à¦Łà¦ķ
Ġà¦¬ à¦¹à¦²
Ġà¦¬ à¦¢
Ġà¦¬ à¦īà¦¨
Ġà¦¬ à¦·à¦Ł
Ġà¦¸ à¦ĸà¦¨
Ġà¦¸ à¦ªà¦Ł
Ġà¦¸ à¦²à¦Ń
Ġà¦¸ à¦²à¦«
à¥ Į
à¦¸ à¦¸à¦¬
à¦¸ à¦Ĺà¦°
à¦¸ à¦Łà¦¬
à¦¸ à¦ľà¦¨à¦ķ
à¦¸ à¦Ńà¦Ļ
à¦¸ à¦ªà¦°à¦Ł
Ġà¦ª à¦ĩ
Ġà¦ª à¦¢
Ġà¦ª à¦¯à¦°
Ġà¦ª à¦Łà¦¨
Ġà¦ª à¦ªà¦²
Ġà¦Ĩ à¦ķà¦²
Ġà¦Ĩ à¦§à¦ķ
Ġà¦Ĩ à¦ĸà¦¤
Ġà¦Ĩ à§İà¦ķ
Ġà¦Ĩ à¦¢
Ġà¦Ĩ à¦ĩà¦«
à¦¦ à¦¸à¦¨
à¦¦ à¦Ĺà¦®
à¦¦ à¦ľà¦Ĺà§İ
à¦¦ à¦¨à¦¤à¦¤
à¦Ł à¦ŀ
à¦Ł à¦Ĩ
à¦Ł à¦¬à¦°
à¦Ł à¦²à¦¤
à¦Ł à¦ļà¦ķ
à¦Ł à¦¨à¦¦
à¦Ł à¦ĺà¦°
à¦Ł à¦¸à¦¹
à¦Ł à¦ĺà¦¡
Ġà¦¨ à¦ĵà§Ł
Ġà¦¨ à¦¸à¦°
Ġà¦¨ à¦ĩà¦¬
Ġà¦¨ à¦ķà¦¸
Ġà¦¨ à¦ĸà¦ķ
Ġà¦¨ à¦ĸà¦Ĺ
Ġà¦® à¦¹à¦¸
Ġà¦® à¦ĩà¦°
Ġà¦® à¦Ľà¦²
Ġà¦® à¦¦à¦ķ
Ġà¦® à¦Łà¦°à¦¸
à¦ª à¦ł
à¦ª à¦¬à¦²
à¦ª à¦Ĺà¦¨
à¦ª à¦¬à¦¸
à¦ª à¦¶à¦ķ
à¦ª à§İà¦¸
à¦ª à¦²à¦¸
à¦ª à¦¬à¦§
à¦ª à¦Ńà¦Ļ
à¦ĩ à¦Łà¦ķ
à¦ĩ à¦¸à¦ķ
à¦ĩ à¦Ĩà¦°
à¦ĩ à¦Ŀà¦°
à§Ģ à§Ģ
à§Ģ âĢĿâĢĵ
à¦Ľ à¦«
à¦Ľ à¦ĵà¦¯
Ġà¦¦ à¦°à¦®
Ġà¦¦ à¦¶à¦¨
Ġà¦¦ à¦®à¦Ł
à¦ľ à¦°à¦¨
à¦ľ à¦¹à¦¸
à¦ľ à¦ĵà§Ł
à¦ľ à¦¯à¦¨
à¦ľ à¦®à¦Ł
à¦ľ à¦ªà¦¦à¦¬
à¦ľ à¦¸à¦°à¦ŀ
Ġà¦¤ à¦Ľ
Ġà¦¤ à¦¹
Ġà¦¤ à¦Ľà¦°
Ġà¦¤ à¦¥à¦¨
Ġà¦¤ à¦ķà¦¦
Ġà¦¤ à¦Łà¦Ń
Ġà¦ı à¦²à¦ķ
Ġà¦ı à¦°à¦²
Ġà¦ı à¦ľà¦²
Ġà¦ı à¦Ĩà¦°
à¦¶ à¦·
à¦¶ à¦ł
à¦¶ à¦ĺ
à¦¶ à¦¬à¦²
à¦¶ à¦¬à¦ª
à¦¶ à¦¤à¦¬
à¦¶ à¦°à¦¦
à¦¶ à¦ļà¦²
à¦¶ à¦Ŀà¦°
à¦¶ à¦Ĩà¦ĩà¦¨
à¦¶ à¦¬à¦¨à¦®
à¦¼à§ĩ à§ĩ
à¦¼à§ĩ à¦ģ
à¦¼à§ĩ âĢ¦âĢĿ
Ġà¦ħ à¦°à¦¥
Ġà¦ħ à¦Łà¦ķ
Ġà¦ħ à¦ĩà¦¯
Ġà¦ħ à¦£à¦¨
à¦ĸ à¦ŀ
à¦ĸ à¦ĺ
à¦ĸ à¦°à¦®
à¦ĸ à¦²à¦ķ
à¦ĸ à¦¦à¦°
à¦ĸ à¦°à¦¹
à¦ĸ à¦¹à¦°
à¦ĸ à¦ľà¦²
à¦ĸ à¦§à¦°
à¦ĸ à§ľà¦ķ
à¦ĸ à¦ľà¦¨à¦ķà¦Ń
à¦Ĺ à¦ľà¦¨
à¦Ĺ à¦ªà¦¨
à¦Ĺ à¦ĺ
à¦Ĺ à¦®à¦²
à¦Ĺ à¦¹à¦°
à¦Ĺ à¦®à¦°
à¦Ĺ à¦ľà¦²
à¦Ĺ à¦£à¦¤
à¦Ĺ à¦ķà¦¨
à¦Ĺ à¦¶à¦¯
à¦Ĺ à¦¸à¦¦
à¦Ĺ à¦ĸà¦£
à¦· à¦¬à¦¨
à¦· à¦°à¦ĵ
à¦· à¦ªà¦²
à¦· à¦¸à¦¹
à¦§ à§ľ
à¦§ à¦Ŀ
à¦§ à¦°à¦¦
à¦§ à¦°à¦Ľ
à¦§ à¦¬à¦¬
à¦§ à¦Ĺà¦£
âĢ Ĭ
à¦¡ à¦¯
à¦¡ à¦§
à¦¡ à¦¬à¦²
à¦¡ à¦¨à¦ķ
à¦¡ à¦°à¦Ł
à¦¡ à¦¬à¦¬
à¦¡ à¦ĸà¦£
à¦¡ à¦¬à¦ªà¦ķ
à¦¡ à¦ķà¦¨à¦¸
à¦ļ à¦°à¦¬
à¦ļ à¦°à¦¦
à¦ļ à¦¬à¦¯
à¦¹ à¦§à¦¨
à¦¹ à¦ĵà§Ł
à¦¹ à¦¨à¦¨
à¦¹ à¦ĸà¦£
à¦¹ à¦¬à¦¶à¦¤
Ġà¦ķà¦° à¦Ĺ
Ġà¦ķà¦° à¦°à¦¸
à§Ł à¦¦à¦°
à§Ł à¦®à¦®
Ġà¦Ĺ à¦¥
Ġà¦Ĺ à¦¬à¦°
Ġà¦Ĺ à§°
Ġà¦Ĺ à¦ľà¦®
à¦£ à¦ľà¦¨
à¦£ à¦°à¦¥
à¦£ à¦°à¦¶
à¦£ à¦Ĺà¦°
à¦£ à¦ªà¦¥
à¦£ à¦ĺà¦¨
à¦£ à¦£à¦ķ
à¦£ à¦ªà¦¶
à¦£ à¦ľà¦Ĺà¦¤
à¦£ Åĵ
à¦ģ !
à¦ģ ,
à¦ģ -
à¦ģ âĢ¦
à¦¥ à¦®à¦¨
à¦¥ à¦¬à¦²
à¦¥ à¦°à¦ª
à¦¥ à¦¤à¦¤
à¦¥ à¦§à¦°
à¦¥ à¦²à¦Ĺ
à¦¥ à¦²à¦Ł
Ġà¦¶ à¦°à¦ķ
Ġà¦¶ à¦¤à¦®
Ġà¦¶ à¦¶à¦ķ
Ġà¦¶ à§°
Ġà¦¶ à¦°à¦¸à¦¨
Ġà¦ľ à¦Ĺà¦²
Ġà¦ľ à¦ĵà§Ł
Ġà¦ľ à§°
Ġà¦ļ à¦°à¦¤
Ġà¦ļ à¦°à¦ª
Ġà¦ļ à¦ªà¦Ł
Ġà¦Ń à¦·
Ġà¦Ń à¦ŀ
Ġà¦Ń à¦°à¦ķ
Ġà¦Ń à¦²à¦ķ
Ġà¦Ń à¦²à¦¤
Ġà¦° à§ľ
Ġà¦° à¦¦à¦¨
Ġà¦° à¦¸à¦¤
Ġà¦° à¦¸à¦²
Ġà¦° à¦®à¦¸
Ġà¦° à¦¡à¦°
à§ĩà¥¤ âĢĶ
à¦ĵ à¦§
à¦ĵ à¦¬à¦¨
à¦ĵ à¦Ĩà¦®
à¦ĵ à¦ĩà¦Ł
à¦ĵ à§ľà¦¨
à¦Ń à¦Ľ
à¦Ń à¦²à¦ķ
à¦Ń à¦¶à¦ķ
Ġà¦ıà¦ķ à¦ķà¦¤
Ġà¦ıà¦ķ à¦¶à¦°
Ġà¦ıà¦ķ à¦ıà¦ķà¦ľà¦¨
Ġà¦ıà¦ķ à¦ıà¦ķà¦¸à¦®à¦¯
à§ĥ :
à§ĥ à¦¾
Ġà¦Ľ à¦°
Ġà¦Ľ à¦«
Ġà¦Ľ à¦®à¦ķ
Ġà¦Ľ à¦ªà¦Ľ
Ġà¦Ľ à¦ĩà¦ĵà¦¯
Ġà¦Ĩà¦® à¦ķ
Ġà¦Ĩà¦® à¦ª
à¦ł à¦¯
à¦ł à¦¬à¦¨
à¦ł à¦ªà¦°
à¦ł à¦°à¦¸
à¦ł à¦¬à¦¦
à¦ł à¦ļà¦°
à¦ł à¦¨à¦ĩ
à¦ł à¦Ĺà§ľ
à¦ł ç¿Ĵ
Ġà¦ī à¦ķà¦Ł
Ġà¦ī à¦¨à¦¬
Ġà¦ī à¦¶à¦¨
Ġà¦ī à¦ĩà¦¯
Ġà¦ī à¦®à¦¦
à¦Ĥ ?
à¦¾à¦ģ à¦¾
à¦¾à¦ģ ?âĢĿ
à¦¾à¦ģ ?âĢĻ
à¦Ļ à¦¶
Ġà¦² à¦ª
Ġà¦² à¤¹à¤°
Ġà¦ĵ à¦¶
Ġà¦ĵ à¦¤à¦°
Ġà¦ĵ à¦²à¦¨
Ġà¦ĵ à¦ªà¦¥
Ġà¦¥ à¦¸
Ġà¦¥ à¦ªà¦¥à¦ª
Ġà¦¬à¦² à¦¬à¦¤
Ġà¦ĸ à¦Ļ
Ġà¦ĸ à¦²à¦Ł
Ġà¦ĸ à¦¸à¦Ľ
à¦°à¦¤ à¦§
à¦°à¦¤ à¦°à¦Ļ
Ġà¦ħà¦¨ à¦ªà¦¨
à¦¾à¥¤ âĢĶ
Ġà¦¹à¦¯ à¦°à¦¤
Ġà¦§ à¦¬à¦¨
âĢĶ à¥¤
âĢĶ âĢĮ
Ġà¦¸à¦® à¦¬à§Łà¦¸
à¦¾, âĢĵ
à¦¬à¦¨ à¦®à¦¨
à¦¬à¦¨ à¦°à¦ķ
à¦¬à¦¨ à¦Ĺà¦¤
à¦¬à¦¨ à¦¸à¦®
à¦¬à¦¨ à¦¨à¦¦
à¦¬à¦¨ à¦°à¦Ļ
à¦¬à¦¨ à¦°à¦¹à¦¸
à¦¼à¦¿ ?âĢĿ
à§ľ à¦ļ
à§ľ à¦«
à§ľ à¦¤à¦²
à¦ĸà¦¨ à¦ĸ
Ġà¦ĺ à¦¨à¦¨
Ġà¦®à¦¨ à¦¶
Ġà¦®à¦¨ à¦¨à¦¯
Ġà¦®à¦¨ à¦¨à¦ĩ
Ġà¦®à¦¨ à¦¨à¦ļ
Ġà¦®à¦¨ à¦Ĺà§ľ
à¦ªà¦° à¦¹à¦°
à¦°à¦£ à¦ķà¦ķ
Ġà¦ıà¦ĩ à¦¸à¦Ļ
Ġà¦ıà¦ĩ à¦¸à¦¬à¦ĩ
à¦¿à¥¤ âĢĵ
à¦®à¦¨ à¦ª
à¦®à¦¨ à¦§
à¦Ŀ à¦Ń
à¦ľà¦¨ à¦°à¦¤
à¦ŀ à¦ªà¦°
à¦ŀ à¦¤à¦¤
à¦¤à¦° à¦§
à¦¤à¦° à¦ķà¦£
à¦¤à¦° à¦ªà¦¶
à¦« à¦°à¦¸
à¦ī à¦Ľ
à¦ī à¦°à¦ķ
à¦ī à¦Ĺà¦²
à¦ī à¦²à¦¨
à¦ī à¦®à¦Ĺ
à¦ī à¦łà¦¨
à¦ī à¦¥à¦ª
à¦ī à§İà¦ķà¦°
à¦ī à¦°à¦¤à¦¨à¦¬
à¦¿, ---
à¦ªà¦¨ à¦¸
à§İ à¦¸à¦®
à§İ à¦¶à¦ķ
à§İ à¦«à¦¨
à¦Ĩ à¦£
à¦Ĩ à¦Ĩ
à¦Ĩ à¦²à¦ķ
à¦Ĩ à¦Ĺà¦¤
à¦Ĩ à¦²à¦¬
à¦Ĩ à¦¨à¦ķ
à¦Ĩ à¦°à¦ª
à¦Ĩ à¦ķà¦¨
à¦Ĩ à¦¬à¦¶
à¦Ĩ à¦¹à¦¬
à¦Ĩ à§Łà¦°
à¦°à¦¬ à¦¯
à¦°à¦¬ à¦¹à¦¨
à¦ı à§Ł
à¦ı à¦ŀ
à¦ı à¦°à¦ĵ
à¦ı à¦¤à¦Ĺ
à¦°à¦ķ à¦ª
à¦°à¦ķ à¦ĵ
à¦°à¦ķ à¦¦à¦®
âĢĿ âĢĶâĢľ
Ġà¦¸à¦¬ à¦¬
Ġà¦¸à¦¬ à¦°à¦Ļ
à¦¬à¦° à¦ĸ
Ġà¦Ł à¦Ĺ
Ġà¦Ł à§Ł
Ġà¦Ł à¦ªà¦¨
Ġà¦Ł à¦²à¦ķ
Ġà¦Ł à¦¨à¦Ł
Ġà¦Ł uhin
Ġà¦¬à¦²à¦² à¦Ĺ
Ġà¦¬à¦²à¦² à¦¥
Ġà¦¬à¦²à¦² à¦¬à¦¨
Ġà¦¬à¦²à¦² à¦ªà¦°
Ġà¦¬à¦²à¦² à¦ħà¦¨
Ġà¦¬à¦²à¦² à¦¯à¦¦
Ġà¦¬à¦²à¦² à¦Ĩà¦¸
Ġà¦¬à¦²à¦² à¦¦à¦°à¦ľ
Ġà¦¬à¦²à¦² à¦ıà¦ĸà¦¨à¦ĵ
Ġà¦Ĩà¦Ľ à¦°
Ġà¦Ĩà¦Ľ à¦¯
Ġà¦¹à¦² à¦¸
Ġà¦¹à¦² à¦Ĺ
Ġà¦īà¦ł à¦²à¦¤
Ġà¦¡ à¦®à¦°
Ġà¦¡ à¦Łà¦ª
Ġà¦¡ à¦Ĺà¦¡à¦Ĺ
à§Ī !
Ġà¦ĩ à¦¬à¦°
Ġà¦ĩ à¦¬à¦²
Ġà¦ĩ à¦°à¦®
Ġà¦ĩ à¦²à¦¯
à¦ĺ à¦¤
à¦ĺ à¦¹
à¦ĺ à¦ĺ
à¦ĺ à¦ķà¦£
Ġà¦ľà¦¨ à¦ªà¦°
Ġà¦Ŀ à¦ĩ
à¦¬à¦² à¦ļ
à¦¬à¦² à¦Ŀà¦²
ĠâĢĺ )à¥¤
à§ģà¦ģ âĢĻ
Ġà¦ļà¦² à¦¦
à¦°à¦® à¦ļ
à¦°à¦® à¦Ń
à¦°à¦® à¦ªà¦°
à¦°à¦® à¦ŀ
à¦°à¦® à¦¹à¦²
à¦°à¦® à¦ªà¦¦
Ġà¦ł à¦ķà¦²
à¦·à¦£ à¦¸à¦®
à¦·à¦£ à¦¶à¦ķ
à¦·à¦£ à¦°à¦ķà¦®
à¦·à¦£ à¦§à¦°
Ġà¦ķà¦°à¦² à¦«
Ġà¦ıà¦¸ à¦ķ
Ġà¦ıà¦¸ à¦¡
à¦¤à¦¨ à¦¸
à¦ĥ /
à¦ĥ âĢ¦
à¦ħ à§Ł
à¦ħ à¦ªà¦¨
à¦ħ à¦¨à¦¬
à¦ħ à¦ľà§Ł
à¦ħ à¦Ĺà¦¸
à¦ħ à¦¨à¦Łà¦¨
Ġà¦¬à¦¨ à¦¯
Ġà¦¬à¦¨ à¦ľà¦²
Ġà¦¨à¦¤ à¦®à¦¸
Ġà¦ħà¦® à¦ĺ
Ġà¦ªà¦¥ à¦®
Ġà¦ªà¦¥ à¦¦
Ġà¦ªà¦¥ à¦¸à¦Ļ
Ġà¦Ĩà¦Ĺ à¦¡
Ġà¦Ĩà¦Ĺ à¦°à¦ĵà¦¯
Ġà¦Ĺà¦² à¦ª
Ġà¦Ĺà¦² à¦«
à¦ķà¦Ł à¦ª
à¦¸à¦¬ à¦¤
à¦¸à¦¬ à¦¸
à¦¸à¦¬ à¦¸à¦®à§Ł
Ġà¦ħà¦¸ à¦®à¦¸
à¦¯à¦¬ à¦¦à¦²
à¦°à¦¨ à¦¨
à¦°à¦¨ à¦ķ
à¦°à¦¨ à¦ľ
à¦°à¦¥ à¦¯
Ġà¦¤à¦¬ à¦ķ
à¦¾à¦Ĥ âĢĮ
à¦¤à¦¬ à¦Ł
à¦¤à¦¬ à¦ĩ
à¦¤à¦¬ à¦¶
à¦¤à¦¬ à§ľ
à¦¤à¦¬ à¦ķà¦Ĺ
à¦°à¦¸ à¦¡
à¦°à¦¸ à¦°à¦¤
à¦¨à¦¬ à¦Ń
à¦¨à¦¬ à¦¶à¦ķ
à¦¨à¦¬ à¦ļà¦°
à¦¨à¦¬ à¦¶à¦°
à¦ķà¦¤ à¦¤
Ġà¦Ĩà¦¶ à¦¨
à¦¦à¦¨ à¦ļà¦ķ
à¦¦à¦¨ à¦¸à¦¹
à¦°à¦¥à¦® à¦ĩ
Ġà¦¹à¦¤ à¦ľ
à§ĩ? (
Ġà¦ıà¦² à¦¬
Ġà¦īà¦¦ à¦®
Ġà¦ħà¦° à¦²
à¦¦à¦° à¦Ĺ
Ġà¦ľà¦² à¦¬à¦¨
Ġà¦ľà¦² à¦ľà¦¨
Ġà¦ľà¦² à¦«
Ġà¦ľà¦² à¦¬à¦°
Ġà¦ľà¦² à¦ĺ
Ġà¦ľà¦² à¦¬à¦¤
Ġà¦ľà¦² à¦¸à¦®
Ġà¦ľà¦² à¦Łà¦²
Ġà¦ľà¦² à¦ľà¦®
Ġà¦ľà¦² à¦Ľà¦¡
à¦Ĺà¦² à¦¶
à¦Ĺà¦² à¦ĺ
à¦Ĺà¦² à¦®à¦¤
à¦Ĺà¦² à¦¸à¦°
à¦Ĺà¦² à¦ļà¦ķ
à¦Ĺà¦² à¦¤à¦¤
à¦Ĺà¦² à¦Ĺà¦ŀ
à¦Ĺà¦² à¦ĺà¦Ł
à¦²à¦¤ à¦¤
à¦²à¦¤ à¦¦
à¦Ĺà¦¤ à¦¸
à¦Ĺà¦¤ à¦ĵ
à¦¶à¦¨ à¦²
à¦¶à¦¨ à¦¶à¦¨
à¦¶à¦¨ à¦®à¦¯
à¦¯à¦ķ à¦¨
à¦®à¦¤ à¦²à¦¬
à¦°à¦¹ à¦Ļ
à¦°à¦¹ à¦°à¦ĩ
à¦°à¦¹ à¦¨à¦¨
à¦°à¦¹ à¦°à¦Ł
à¦°à¦¹ à¦¨à¦¯
Ġà¦īà¦łà¦² à¦¨
Ġà¦īà¦łà¦² à¦ĵà¦¹
à¦ļà¦¨ à¦®
à¦ļà¦¨ à¦¶
à¦ļà¦¨ à¦ĵ
à¦²à¦¨ à¦°
à¦²à¦¨ à¦ķà¦°
Ġà¦īà¦ª à¦¸à¦®
à¦¨à¦ĵ à¦ª
à¦¨à¦ĵ à¦Ĺà¦¤
Ġà¦¯à¦ĸà¦¨ à¦ķ
à¦ĩà¦² à¦ªà¦¤
à¦®à¦² à¦¸
à¦²à¦¬ à¦Ł
à¦²à¦¬ à¦ĩ
à¦²à¦¬ à¦¶
à¦²à¦¬ à¦Ĺ
à¦²à¦¬ à¦ĵ
à¦§à¦¨ à¦§
à¦§à¦¨ à¦ªà¦¥
à¦§à¦¨ à¦¯à¦ľ
à¦°à¦¦ à¦Ĺ
Ġà¦ħà¦ª à¦¶
Ġà¦ħà¦ª à¦ļ
Ġà¦ħà¦ª à¦Ĺà¦¤
à¦°à¦² à¦Ĺ
Ġà¦ķà¦² à¦¹à¦ĩ
à¦ļà¦² à¦¸à¦®
à¦ªà¦¤ à¦®
Ġà¦Ĩà¦¤ à¦²
Ġà¦Ĩà¦¤ à¦¸à¦¬
à¦¹à¦° à¦ª
à¦¸à¦¨ à¦®
à¦¸à¦¨ à¦Ł
à¦ĩà¦¨ à¦ª
à¦ıà¦ĩ à¦¯
à¦ıà¦ĩ à¦¦
à¦ıà¦ĩ à¦Ĺ
à¦¨à¦¨ à¦¦
à§ĩ- âĢľ
à§ĩ- ---
à¦°à¦ªà¦° à¦ıà¦ķà¦Ł
Ġà¦ķà¦¬ à¦¯
à¦Ńà¦¬ à¦¶à¦ķ
Ġà¦ıà¦ĸ à¦ĸ
à¦¿- âĢĺ
à¦Łà¦ķ à¦®
à¦Łà¦ķ à¦Ĺ
à§Ģ, âĢĵ
à§Ģ, --
Ġà¦īà¦¨ à¦¸à¦¤
Ġà¦ĩà¦¤ à¦°à¦¤
Ġà¦ĵà¦ªà¦° à¦ķ
âĢ¦ ?
âĢ¦ ?âĢĻ
âĢ¦ âĢĿà¥¤
Ġà¦ĺà¦Ł à¦Ł
Ġà¦ķà¦® à¦ĵ
à¦¤à¦² à¦ĸ
à¦¾âĢĶ âĢĻ
à¦Ĺà¦¨ à¦¦
Ġà¦īà§İ à¦¸à¦ķ
Ġà¦¬à¦Ľà¦° à¦Ł
Ġà¦¬à¦Ľà¦° à¦Ńà¦°
à¦Ĺà¦° à¦ļ
Ġà¦ıà¦Ĺ à¦ļ
Ġà¦¯à¦¤ à¦ľà¦¨
Ġà¦¯à¦¤ à¦¸à¦¬
Ġà¦ªà¦¦ à¦¦
Ġà¦ªà¦¦ à¦ĵ
à§ĩ! âĢ¦
à§ĩ! --
à¦°à¦Ń à¦¯
à¦°à¦Ń à¦®à¦¯
à¦°à¦ĵ à¦¨
à¦¦à§Ł à¦Ńà¦°
à¦ªà¦¦ à¦§
à¦ªà¦¦ à¦¹
à¦ªà¦¥ à¦¬
à¦ªà¦¥ à¦¶
à¦ªà¦¥ à¦ĺ
à¦¿? âĢĵ
à¦¿? ''
à¦¼à§ĩà¥¤ "
à¦¼à§ĩà¥¤ '
Ġà¦¨à§Ł à¦ĩ
Ġà¦¨à§Ł à¦¨à¦¬
Ġà¦¨à§Ł à¦¨à¦ľ
Ġà¦ħà¦Ĺ à¦ª
à¦ıà¦ķ à¦ļ
à¦ıà¦ķ à¦¹
à¦ıà¦ķ à¦®à¦¨
à¦ıà¦ķ à¦Ŀ
à¦ıà¦ķ à¦°à¦ķà¦®
à¦¾? "
à¦¾? âĢĶ
à¦®à¦£ à¦¸à¦®
à¦¦à¦² à¦®
à¦¦à¦² à¦Ł
Ġà¦¶à¦¹à¦° à¦ª
à¦¬à¦¸ à¦¯
à§įâĢĮ !âĢĻ
à¦°à¦ª à¦£
à¦°à¦ª à§ľ
Ġà¦«à¦² à¦ĩ
Ġà¦«à¦² à¦Ń
à¦¯à¦® à¦Ĺ
à¦¯à¦® à¦§
à¦¯à¦® à¦ĵ
à¦·à¦ķ à¦ľ
à¦·à¦ķ à¦®à¦£
à¦¿à¦ģ ,
à¦¿à¦ģ -
à§ģ, âĢĿâĢĶ
Ġà¦²à¦ķ à¦Ĺ
à§ģà¦ĥ ,
à¦¾! )
à¦¾! âĢĶ
à¦ªà¦ķ à¦ĩ
à¦ªà¦ķ à¦°à¦£
à¦ľà¦² à¦ĸ
à¦ľà¦² à¦ļà¦ķ
à¦ľà¦² à¦¢
à¦ľà¦² à¦§à¦°
à¦ľà¦² à¦Ńà¦°
à¦ľà¦² à¦®à¦Ĺ
à¦®à¦¬ à¦¯
à¦®à¦¬ à¦¡
à¦¶à¦ķ à¦£
à¦¨à¦¦ à¦¶
Ġà¦Ĩà¦§ à¦®
à¦¬à¦ķ à¦¶
à¦¬à¦ķ à¦Ĺ
à¦¬à¦ķ à¦ľà¦¨
à§ĩ; ---
à¦£à¦¤ à¦¤
à¦ĩà¦ķ à¦ª
à¦¤à¦¤ à¦Ł
à¦°à¦Ľ à¦¡
à¦¯à¦¸ à¦®à¦¯
à¦¬à¦¬ à§İ
à¦¹à¦¨ à¦ľà¦²
Ġà¦ħà¦² à¦Ł
à¦ľà¦° à¦°
à¦ľà¦° à¦Ĺ
à§° à¦ľà¦¨
à§° à¦Ĺà¦¤
à¦¸à¦ķ à¦®à¦£
Ġà¦¨à¦¬ à¦°à¦¤
Ġà¦Ĺà¦¤ à¦¯
à§ģà¥¤ âĢĺ
Ġà¦¦à¦² à¦¦à¦²
Ġà¦¬à¦¦à¦² à¦ª
Ġà¦Ĩà¦ļ à¦£
Ġà¦Ĩà¦ļ à¦®à¦¨
Ġà¦īà¦ľ à¦¬
à¦¥à¦¨ à¦ĩ
à¦¨à¦¸ à¦Ł
à¦¨à¦¸ à¦ª
à¦¨à¦¸ à¦ĸ
à¦¨à¦¸ à¦ªà¦Łà¦ķ
à¦ªà¦¸ à¦¦à¦¨
à¦ªà¦¸ à¦®à¦¯
à¦¨à¦° à¦Ĺ
à¦¨à¦° à¦ľà¦¨
Ġà¥¤ '
à¦ĩà¦Ł à¦®
à¦ĩà¦Ł à¦ª
Ġà¦Ĩà¦¦ à¦°à¦®
Ġà¦Ĩà¦¦ à¦®à¦¶
à¥¤âĢĻ )
à¥¤âĢĻ )à¥¤
à¦«à¦² à¦¸
à¦«à¦² à¦Ł
à¦Ĺà¦ľ à¦¬
à¦Ĺà¦ľ à¦¸
Ġà¦¸à¦¹à¦ľ à¦¤
Ġà¦¸à¦¹à¦ľ à¦¤à¦®
Ġà¦¸à¦¹à¦ľ à¦¸à¦°à¦²
à§İà¦¸ à¦ķà¦°
Ġà¦¬à¦²à¦¬ à¦ĩ
à¦īà¦² à¦Ļ
à¦īà¦² à¦§à¦°
à¦Łà¦¬ à§ľ
à¦Łà¦¬ à¦ĩà¦¯
Ġà¦ĭ à¦®à¦¨
Ġà¦ĭ à¦ķà¦¬
à§ĩâĢĵ âĢľ
Ġà¦ıà¦ķà¦ĩ à¦¸à¦®à¦¯
à¦°à¦Ĺ à¦Ł
à¦°à¦Ĺ à¦¡
à¦°à¦®à¦£ à¦Ĺ
à¦¿! âĢĶ
à¦¿! âĢ¦
Ġà¦¦à¦°à¦ķ à¦·
à¦ıà¦¬ à¦®
à¦®à§Ł à¦ķ
Ġà¦°à¦ķà¦® à¦¸à¦ķà¦®
Ġà¦¦à¦¶ à¦ıà¦Ĺ
Ġà¦ķà¦ĸà¦¨à¦ĵ à¦ķà¦ĸà¦¨à¦ĵ
Ġà¦¤à¦¤ à¦¸
à¦ķà¦¡ à¦ĩà¦¨
à¦¾; -
Ġà¦¹à¦° à¦ł
à¦Ĩà¦² à¦Ł
à¦Ĩà¦² à¦«
à¦¯à¦¯ à¦ľ
Ġà¦¬à¦ķ à¦ļ
Ġà¦Ĺà¦£ à¦¦
Ġà¦¬à§Ł à¦«
à¦®à¦§ à¦®
Ġà¦ķà¦²à¦ķ à¦ľ
Ġà¦ķà¦²à¦ķ à¦¥
ĠâĢĶ -
ĠâĢĶ âĢĺ
à¦²à¦® à¦¸à¦²
à¦²à¦Ĺ à¦¹
à¦²à¦Ĺ à¦£
à¦²à¦Ĺ à¦Ĺà¦¨
à¦²à¦¸ à¦¦
à¦²à¦¸ à¦Ł
à¦²à¦¸ à¦ĵ
Ġà¦°à¦¸ à¦ĩ
Ġà¦°à¦¸ à¦¹
à¦¼? '
à¦¼? âĢĶ
Ġà¦īà§İà¦¸à¦¬ à¦®à¦£
à¦®à¦¹ à¦¦
à¦¹à¦ł à¦¯
Ġà¦¸à¦Ń à§Ł
à¦¾âĢĻ âĢĻ
à¦¥à¦ķ à¦¤à¦°
à¦¸à¦Ł à¦¸
à§¦ à§¯
à¦¬à¦Ľ à¦¬
à¦¬à¦Ľ à¦°à¦ĩ
à¦ķà¦°à¦£ à¦¬
à¦ķà¦°à¦£ à¦Ĺ
à¦ķà¦°à¦£ à¦¹
à¦¶à¦² à¦Ĺà¦¤
à¦¿; ---
Ġà¦ıà¦ķà¦® à¦ŀ
à¤ «
à¦łà¦ķ à¦®
à¦łà¦ķ à¦¸
à¦łà¦ķ à¦ª
à¦łà¦ķ à¦¸à¦®
à¦łà¦ķ à§Łà¦²
Ġt ak
Ġt ake
Ġt alk
Ġt radition
à§ĩ?âĢĿ ,
Ġà¦Ĺà¦°à¦® à¦Ł
à§ĩâĢ¦ !
à§ĩâĢ¦ ?
Ġà¦ľà§Ł à¦¸
à¦¤à¦ª à¦¬à¦¨
à¦ĩà§Ł à¦°
à¦°à¦ĸ à¦ļ
à¦¼à¦Ĥ à¥¤
à¦ķà¦Ń à¦ķ
à¦ĩà¦¡ à¦¸
à¦ĩà¦¡ à¦¶
à¦¥à¦² à¦ªà¦¥
à§Ŀ à¦¬
Ġà§§à§¯ à§§à§§
Ġà§§à§¯ à§«à§¬
à¦²à¦Ń à¦¤
he mat
à§Ń à§Ń
à§ĭ! '
à¦¸à¦¹ à¦ª
à¦®à¦ľ à¦Ĺà¦¤
à¦¯à§İ à¦Ł
à¦¯à§İ à¦ĵ
à¦¸à¦Ľ à¦¯
à¦¼à¦¿à¥¤ à¥¤
à¦¤à¦¹ à¦¬
Ġà¦¸à¦¦ à¦¬
à§ª à§¬
à¦ļà§Ł à¦Ł
à¦·à§Ł à¦ĵ
Ġà¦Ĩà¦ĩà¦¨ à¦®à¦¨
Ġà¦Ĩà¦ĩà¦¨ à¦¸à¦®
Ġà¦ªà¦£ à¦ª
Ġà¦¨à¦Ĺà¦° à¦°
Ġà¦¨à¦Ĺà¦° à¦ª
à¦¨à¦ª à¦²à¦ķ
Ġà¦¹à¦ĩ à¦¹
an ic
an ya
à¦īà¦¦ à¦ĺ
à¦ľà§Ł à¦¸
à¦ľà§Ł à¦ªà¦¤
à¦¤à¦Ń à¦Ļ
à¦¤à¦¸ à¦Ń
à¦ĩà¦® à¦®
.. à¥¤
à¦ĩà¦ľ à¦ĵ
âĢ¦âĢĿ ,
à¦¿à¥¤âĢĻ âĢĻ
Ġà¦¬à¦¸à¦¤ à¦ĺà¦°
Ġà¦®à¦¨à¦¨ à¦Ĺà¦°
à¦Ĺà¦°à¦£ à¦ķ
à¦¬à¦ľà¦¨ à¦ĩ
à¦¦à¦¶ à¦ľà¦¨
à¦¦à¦¶ à¦¬à¦°
à¦ħà¦¸ à§İ
Ġà¦ľà¦Ĺ à§İà¦ª
à¦¯à¦Ł à¦ķà¦°
à¦¯à¦Ł à¦¨à¦ķ
at or
Ġà¦ķà¦²à¦® à¦ĸ
Ġà¦ķà¦²à¦® à¦ĵ
à¦¾à¦ĥ âĢĻ
al f
à¦¨à¦® à¦ŀ
à§¬ à§¯
à§¬ à§®
à¦ķà¦ª à¦ŀ
à¦īà¦ľ à¦ª
Ġà¦Ĩà¦¸à¦¨ à¦ĸ
ĠĠčĊ ĠĠĠĠĠĠĠĠ
Ġ! "
er o
er al
is ation
à¦Ĳ à¦¸à¦¬
en se
Ġo b
à§¯ à§¨
à§¯ à§¯
it ical
à¦ĵà¦ĩ à¦°à¦ķà¦®
à¦¯à¦Ĺ à¦Ĺà¦¨
à¦¡à¦¬ à§İ
Ġs er
Ġs im
Ġs elf
Ġs ought
Ġà¦ļà¦°à¦£ à¦¬
Ġà¦ļà¦°à¦£ à¦®
à§ĩâĢĻ !
à¦ļà¦°à¦£ à¦¤à¦²
à¦ļà¦°à¦£ à¦ķà¦®à¦²
Ġà¦Ńà¦Ĺà¦¬ à§İ
Ġà¦®à¦¨à¦ķ à¦·
à¦¤à¦°à¦£ à¦ķ
Ġà¦¨à¦¹ à¦¬à¦¤
à¦¯à§Ł à¦ķ
Ġ; -
Ġ; ---
Ġà¦°à¦¤à¦¨ à¦ª
à§İà¦ª à¦°à¦¤
à¦ıà¦¤ à¦ĸ
à¦¿âĢ¦ à¥¤âĢĿ
Ġà¦ľà¦Ĺà§İ à¦¬
à¦ħà¦¦ à¦®à¦¨
à¦ĩà¦« à§Ł
à¦ħà¦¶ à¦¥
Ġà¦¬à¦¦ à¦ħà¦Ń
Ġà¦°à¦¥ à¦Ł
Ġc he
Ġc all
Ġc ap
Ġc attle
Ġà¦Ĩà¦¬à¦¹ à¦®à¦£
or t
or th
Ġà¦ĩà¦¹ à¦ľà¦¨
Ġà¦Ńà¦Ĺ à§İ
Ġm is
Ġm od
Ġm ons
Ġw ay
Ġw rit
Ġw here
à¦Ĺà¦¸ à¦ľ
ar as
ar ri
à¦¯à¦°à¦ķà¦® à¦Ń
Ġb u
Ġb ene
à¦¬à¦ªà¦¨ à¦¬
Ġà¦Ĩà¦« à¦¤
Ġà¦°à¦£ à¦°à¦£
à¦·à¦ª à¦ŀ
à¦«à¦²à¦¨ à¦ĩ
à¦«à¦²à¦¨ à¦¶
à¦ħà¦² à¦ĸ
à¦ħà¦² à¦¸à¦¤
Ġp it
Ġp le
Ġp ers
Ġà¦ķà¦¦ à¦®à¦¬
ed ia
à¦ħà¦ª à¦¹
Ġà¦ķà¦ĩ à¦¤à¦°
Ġf el
Ġf ight
Ġf ather
Ġf irst
Ġf uture
ou n
ou ra
Ġà¦ıà¦°à¦ĩ à¦®à¦§
ÂłÂłÂłÂłÂłÂłÂłÂłÂłÂłÂłÂłÂłÂłÂłÂł ÂłÂłÂłÂłÂłÂłÂłÂłÂł
ÂłÂłÂłÂłÂłÂłÂłÂłÂłÂłÂłÂłÂłÂłÂłÂł ÂłÂłÂłÂłÂłÂłÂłÂłÂłÂłÂłÂłÂł
... âĢĻ
Ġà¦Ĺà¦Ĺà¦¨ à¦Ľ
Ġà¦Ĺà¦Ĺà¦¨ à¦®à¦£
ic ular
âĢĶâĢĺ âĢĺ
à¦ıà¦ķà¦ľà¦¨ à¦ĩ
Ġà§© à§¦à§¦
Ġd en
Ġd el
Ġd em
Ġd yn
à¦¬à¦Ľà¦° à¦Ĺ
Ġà¦ĩà¦ī à¦ıà¦«
Ġà¦²à§Ł à¦¬à¦¦
Ġà§§à§¯à§Ń à§Ń
Ġà¦Ĩà¦¬à¦°à¦£ à¦¹
Ġà¦ķà¦¦à¦® à¦Ľ
Ġà¦¹à¦Ł à¦¡à¦Ĺ
à§ĩâĢĿ !
à¦²à¦ĵ à¦¹
Ġà¦¨à§ľ à¦ļà§ľ
à¦Ĩà¦ĩ à¦ıà¦¸
à¦ļà¦¸ à¦ľ
Ġà¦ļà§ľ à¦²
Ġà¦ļà§ľ à¦¬
Ġà¦ļà§ľ à¦Ľ
om in
om es
Ġà¤ ļ
Ġà¦¸à¦² à¦Ļ
Ġl ive
Ġl ess
Ġl ittle
à¦Ĺà¦ł à¦¨à¦¬
Ġth ing
Ġin s
Ġin vest
Ġin finite
Ġn ature
Ġn ame
à§ĭâĢ¦ ?âĢĿ
à§Ģ; âĢĵ
ĠI f
Ġà¦ķà§ľ à¦ļ
Ġà¦ķà§ľ à¦®à§ľ
Ġà¦ıà¦ķà¦°à¦ķà¦® à¦ĩ
Ġà¦¸à¦¦à¦° à¦ĺ
ra ct
Ġto oth
Ġà§§ à§§à§§
à¦¶à¦ĵ à¦ķà¦¤
ĠA l
ĠA m
Ġà§« à§Ń
à§§à§¯ à§¨à§ª
Ġbe at
Ġbe ings
Ġà¦ķà¦²à¦ķà¦² à¦°à¦¬
Ġà¦¨à§Łà¦¨ à¦Ńà¦°
ĠP ress
ĠP rag
ĠP arg
Ġe qu
Ġe ter
Ġe yes
Ġe ye
Ġà§ª à§©à§¦
Ġà§§à§© à§Ń
à¦¾!âĢĻ âĢĿ
ĠB r
ĠB rit
à¦ħà¦« à¦ķ
ĠM r
ig ation
ig ence
Ġà¦ĺà¦· à¦²
ĠS u
ĠS ha
ĠS ag
à¦¨à§Ł à¦Ł
à¦Ĩà¦ĩà¦¨ à¦ķ
à¦Ĩà¦ĩà¦¨ à¦¸
et er
à§§à§¦ à§¦
Ġre d
ĠT r
ĠT ur
à§ĩ!âĢĻ âĢĿ
à§ĩ!âĢĻ âĢĻ
ur re
Ġà§Ń à§¨
Ġà§Ń à§©
Ġà§Ń à§ª
Ġà§Ń à§¦à§¦
à¦Ĺà¦¬à¦¤ à¦ª
Ġg e
Ġg et
Ġg ood
Ġg old
Ġg ave
Ġg iven
à¦īà¦ªà¦° à¦¨
ch ie
áĥ Ŀáĥ
os p
à¦¾) ;
ĠR ishav
à§§à§Ń à§«à§¬
Ġà¦®à¦°à¦® à¦¬
Ġà¦Ĩà¦īà¦Ł à¦¬à¦ķ
à¦ĩà¦ĵ à¦Ń
Ġà¦ĸà¦² à¦¬à¦²
us ed
us ion
us yanta
à¦¿âĢ¦âĢĿ âĢĶ
à§§à§¨ à§«
à§§à§¨ à§Ń
à§§à§¨ à§©à§ª
Ġwh is
if act
Ġà¦ľà¦ª à¦®à¦¨
Ġà¦¶à¦¤à¦ªà¦¥ à¦¬
ĠC ont
ĠC hrist
à§ģâĢ¦ .
à§ģâĢ¦ âĢĻ
à§ģâĢ¦ à¥¤âĢĿ
am a
à¦¿) âĢĵ
ĠD ivide
ĠD NA
ĠD usyanta
Ġà§¯ à§«
ĠN ature
ro y
Ġà§§à§« à§¦à§¦
Ġà¦īà¦ĩ à¦ŀ
Ġà¦®à¦¤à¦²à¦¬ à¦ĸ
à¦°à¦®à¦¥ à¦Ĺà¦£
iv ed
ĠG r
ĠG er
!! !
ĠE SP
ĠE urope
Ġcon d
Ġcon crete
ure d
Ġà¦¨à¦¬à¦° à¦¸
ag on
ect ion
à¦¤à¦¸à¦® à¦°
ĠL et
ĠL aw
ĠL ittle
ĠÐ ´
op s
Ġan cient
Ð¾ ÑĢ
Ð¾ Ñģ
à¦¤à¦ļà¦° à¦°
Ġà§§à§¯à§® à§©
Ġà§§à§¯à§® à§ª
Ġv ict
Ġun ion
Ġne ar
Ġà¦¤à¦¬à¦² à¦ļ
Ġà¦ľà¦¹à¦° à¦īà¦¦
Ġà¦«à¦¸ à¦²à¦ķ
Ġà¦ĩà¦¤à¦° à¦ľà¦¨
ri but
à¦Ĩà¦Ń à¦°à¦£
à¤ķ à¤²
à¦¢à¦² à¦¢à¦²
à¤² à¦¤
ĠØ ¨
ĠØ Ń
Ġà¦°à¦Ĺ à¦ļà¦Ł
ore d
à¸ ±
à¸ ²
à¸ ģ
Ġà¦ľà¦¬à¦° à¦¦à¦ĸà¦²
ast y
ast er
Ġde pend
Ġà¦īà¦ĩà¦ķ à¦ıà¦¨
Ġ[ *
Ġman kind
og n
pt ic
Ġà¦ªà¦ļà¦¨ à¦Ĺà¦²à¦¨
Ġà¦®à¦ĩ à¦§
Ġme an
qu e
Ðµ Ð½
ÑĢ Ð°Ð
ĠO r
ĠO ff
Ġà¦¡à¦ľà¦¨ à¦ĸ
Ð¾Ð ½
Ġà¦Ĭà¦¨ à¦Ĩà¦¶
Ġcom es
ĠF ear
Ġse arch
Ġà¦¤à§İà¦ªà¦° à¦¬à¦°
Ġpro per
Ġpro ject
Ġsu ff
Ġmy st
Ġmy th
Ġmy self
Ġint erest
Ġà¦ıà¦ĩà¦ļ à¦ıà¦¸à¦¸
Ġì ķ
Ġì Ŀ
our s
our ne
ap e
ib anan
ress ive
Ġj ourne
à§§à§¯à§Ń à§¦
ĠRe use
ĠRe cycle
Ġim port
à¦ķà¦¨à¦ķ à¦¨
iter ation
act er
one y
Ġà¦®à¦Ł à¦®à¦Ł
ÙĪ Ùħ
Ġë °
ĠJ ibanan
à¦Ŀà¦Ł à¦ªà¦Ł
pl es
Ñĥ Ð»
à¦ªà¦ķà¦¤ à¦®
Ġà¦ıà¦¤à¦¬ à§ľ
Ø§Ø ¯
ĠâĢĮ âĢĶ
à¦īà¦ªà¦ķ à¦°à¦£
à¤ľ à¤¨
ell igence
for mal
for mation
ater ial
à§§à§¯à§¬ à§«
à§§à§¯à§¬ à§Ń
à§§à§¯à§¬ à§®
áĢ ¯
ĠÑ Ħ
à¦ĵà¦ĵ à¦ĵ
Ġbec ome
Ġbec ause
Ġbec omes
mat ism
Ðº Ð°
Ġpart y
Ġhuman ity
Ġres pect
âĤ Ĩ
rav as
Â¦ à¦¾
à« ĩ
à® ¤
Ġà¦Ĩà¦ĩà¦ı à¦ıà¦¸
Ġoff end
ÂłÂłÂłÂłÂłÂłÂłÂłÂłÂłÂłÂłÂłÂłÂłÂłÂłÂłÂłÂłÂłÂłÂłÂł ÂłÂłÂłÂłÂłÂłÂłÂłÂłÂłÂłÂłÂłÂł
à§§à§¯à§® à§«
à§§à§¯à§® à§Ń
Ġgreat est
TI ON
čĊ Ġč
Ġà¦ľà¦ªà¦¤ à¦ª
Ġother s
Ġhor izon
**************** ********
Ġsome w
ĠÙ ¾
Ġposs ess
Ġà¤ī à¤ľ
ĠCom pany
ĠCom mun
Ġcons cious
OO C
lo bal
pend ed
Ġpur pose
Ġfun dam
Ġcomm un
ºçľºçľºçľºçľºçľºçľºçľºçľ ºçľºçľºçľºçľºçľºçľºçľºçľ
âĢĵâĢĵâĢĵâĢĵâĢĵâĢĵâĢĵâĢĵâĢĵâĢĵâĢĵâĢĵâĢĵâĢĵâĢĵâĢĵ âĢĵâĢĵâĢĵâĢĵâĢĵâĢĵâĢĵâĢĵâĢĵâĢĵâĢĵâĢĵâĢĵâĢĵâĢĵâĢĵ
·çľ·çľ·çľ·çľ·çľ·çľ·çľ·çľ ·çľ·çľ·çľ·çľ·çľ·çľ·çľ·çľ
ÙĤ Ø¯
Ġprom ise
Ġliv es
áĥĶ áĥ
ITI ATE
ix ed
ivers al
yes ha
Ġcir cle
Ġcult ural
Ġmat hemat
Ġdra w
ĠBangla desh
ĠMy ra
Ġref lex
Ġstre ng
Ġtranscend ence
person al
ym ph
Ġà¦°à¦¸à¦ķà¦· à¦¹
Ġopp ress
itc hen
Ġcur iosity
Ġcha pt
Ġdest roy
ĠInt elligence
chn ology
Ġneigh bor
Ġorig inal
à¯ į
à¦°Ã¦ à¦¤
atri ot
Ġpla ce
Ġfol low
Ġrem ind
ĠRel igion
aught er
Work s
Ġà¦Ĩà¦ĵà¦° à¦Ļ
atis f
Ġpol itical
Ġlab our
ĠPart ition
ĠSum ita
Ġrevol ution
ĠGand har
hys ical
Ġharl ots
Red uce
rvas i
Ġà¦Ľà¦ªà¦Ľ à¦ª
à¦łç¿Ĵ à¦¤
ĠĠčĊĠĠĠĠĠĠĠĠ ĠĠĠč
Ġfel t
Ġdyn asty
Ġà¦ĩà¦īà¦ıà¦« à¦ĵ
Ġinvest igation
ĠPrag matism
Ġeter n
ĠOff ice
Ġjourne y
ĠJibanan anda
ĠCommun ication
Ġfundam ental
! ?
! ?âĢĿ
! ),
! )à¥¤
% à¥¤
' ll
) (
) âĢĶ
) âĢĻ
+ âĢĻ
, âĢ¦
, âĢĺ
- ,
- à¦¾
- à§į
- âĢĿ
. âĢĺ
5 3
5 4
5 6
5 9
6 0
; --
; ---
? (
? ?
A S
A r
A ug
B B
C K
C L
C O
C h
C ar
E Y
E n
E TE
F I
H AT
H EY
I D
I L
L et
L ove
L ED
M ass
M OOC
N o
N ational
O MO
P S
S o
S olar
T r
T ok
T agore
T RU
U RE
U RA
W ith
W hat
Y AB
_ ,
` `
a il
a id
a ih
b re
b it
b ab
b ec
b ank
c s
c um
c ult
c hed
c ritical
d ing
d ed
d own
e as
e ur
e chnology
f l
f il
f ig
f ather
f low
g n
g r
g in
g re
g or
h m
h ood
h ana
i j
i at
i er
i us
i am
i ans
i red
i ety
j ust
k er
l on
l ing
l se
l ine
l ished
m et
m ost
n ers
o f
o is
o om
o il
o ven
o za
p s
p on
p ar
p ret
p ered
p ublic
r s
s is
s ide
s ub
s pect
t i
t on
t ar
t ing
t un
t hing
u ck
v at
v al
v ent
v id
v ir
w are
w orth
x im
x ist
y à¦°
~ ~
¦ ģ
¦ ÙĨ
° ë
Â ²
Ã ª
Ã ¶
Ã º
Ã Ł
Ã Ń
Å ¡
Ï Ģ
Ï ĥ
Ñ ħ
Ñ İ
Ò Ľ
Õ ¯
Õ ½
Ö Ĥ
× Ĳ
Ø ®
Ø Ń
Ú ¾
Û ģ
à ³
á ¹
â ¦ģ
ã Ĥ
å ħ
æ ĥ
ì Ĩ
ì ĭ
ì ĸ
Ġ 4
Ġ }
Ġ â
Ġ í
Ġ ?âĢĿ
Ġ à§İà¦¸
Ġ ing
Ġ )à¥¤
Ġ ÂłÂłÂłÂłÂłÂłÂł
Ġ id
Ġ ----
Ġ ÙĦ
Ġ ide
Ġ Ùħ
Ġ à°
Ġ 34
Ġ ener
Ġ ign
Ġ áŀ
Ġ Ø§ÙĦ
Ġ 55
Ġ ***
Ġ ÚĨ
Ġ ÒĽ
Ģ ë
ĭ ãģ
Ĳ âĨ
ĳ ĺ
Ķ ×
Ŀ ¼
ŀ Ĳ
Ġà¦ ģ
à¦¾ ]
à¦¾ à§ĭ
à¦¾ âĢĺ
à¦¾ "à¥¤
à§ĩ ]
à§ĩ âĢľ
à§ĩ âĢķ
à¦° à¦¶à¦¨
à¦° à¦ıà¦ĩ
à¦° à¦ħà¦¨
à¦° à¦Ĺà¦ľ
à¦° à¦ĺà¦¨
à¦° à¦īà¦ľ
à¦° à¦ħà¦®
à¦° à¤¤
à¦° afi
à§į âĢĿ
à§į âĢ¦âĢĿ
à§į âĢĻ,
à§į âĢ¦à¥¤
à§į ï¿½
à¦¿ "
à¦¿ à¦¿
à¦¿ à¦¾à¦ģ
à¦¿ âĢį
à¦¨ à¦ŀ
à¦¨ à¦°à¦¬
à¦¨ à¦¨à¦¤
à¦¨ à¦°à¦¨
à¦¨ à¦Ĺà¦²
à¦¨ à¦°à¦¶
à¦¨ à¦¨à¦ĵ
à¦¨ à¦®à¦²
à¦¨ à¦§à¦¨
à¦¨ à¦ķà¦¬
à¦¨ à¦¶à¦¬
à¦¨ à¦ĩà¦¯
à¦¨ à¦¸à¦«
à¦¨ à¦ĩà¦¤
à¦¨ à¦īà¦²
à¦¨ à¦ĩà¦¬
à¦¨ à¦ļà¦¡
à¦¨ à¦Ľà¦¬
à¦¨ à¦īà¦¦
à¦¨ à¦ĸà¦£
à¦¨ à¦ıà¦®à¦¨
à¦¨ à¦ħà¦®
à¦¨ à¦ıà¦¤
à¦¨ à¦ľà¦Ĺà¦¤
à¦¨ à¦Ĩà¦ª
à¦¨ à¦Ĩà¦¦
à¦¨ à¦§à¦°à¦¨
à¦¨ à¦°à¦¦à¦²
à¦¤ à¦¸à¦¬
à¦¤ à¦¤à¦¬
à¦¤ à¦«à¦²
à¦¤ à¦¹à¦¤
à¦¤ à¦¦à¦¸
à¦¤ à¦¥à¦ķ
à¦¤ à¦ľà¦®
à¦¤ à¦ĸà¦£
à¦¤ à¦ľà¦¨à¦¦
à¦² å
à¦² à¦ĸà¦¨
à¦² à§İ
à¦² à¦¨à¦¤
à¦² à¦¶à¦¨
à¦² à¦¹à¦²
à¦² à¦¸à¦°
à¦² à¦¶à¦ķ
à¦² à¦®à¦¸
à¦² à¦Ĩà¦®à¦°
à¦² à¦Ĩà¦ķ
à¦² à¦ĩà§Ł
à¦² à¦ĵà¦°
à¦² à¦ľà¦Ł
à¦² à¦¡à¦°
à¦² à¦ĵà¦²
à¦² à¦Ŀà¦¡
à¦² à¦§à¦²
à¦ķ à¦ŀ
à¦ķ à¦ļà¦¨
à¦ķ à¦¬à¦¤
à¦ķ à¦ķà¦¬
à¦ķ à¦¸à¦°
à¦ķ à¦ľà¦²
à¦ķ à¦¸à¦®à¦¯
à¦ķ à¦ħà¦²
à¦ķ à§Łà¦²
à¦ķ à¦°à¦¤à¦²
à¦ķ à¦°à¦®à¦¤
à¦¯ à¦°à¦¥
à¦¯ à¦¨à¦¬
à¦¯ à¦²à¦¤
à¦¯ à¦¦à¦¯
à¦¯ à¦®à¦²
à¦¯ à¦¨à¦¨
à¦¯ à¦°à¦ļ
à¦¯ à¦ĺà¦°
à¦¯ à¦°à¦ľà¦¨
à¦¯ à¦«à¦²
à¦¯ à¦īà¦¨
à¦¯ à¦°à¦®à¦£
à¦¯ à¦Ĩà¦²
à¦¯ à¦ľà¦®
à¦¯ à¦ĺà¦Ł
à¦¯ à¦°à¦¹à¦¸
à§ģ à§ĭ
à§ģ )à¥¤
à§ģ âĢĿâĢĶ
à§ģ âĢĿ,
à§ģ âĢĿ-
à¦¬ à¦·
à¦¬ à¦ĸà¦¨
à¦¬ à¦Ŀ
à¦¬ à¦ľà¦²
à¦¬ à¦«à¦²
à¦¬ à¦®à¦¦
à¦¬ à¦ľà¦Ĺ
à¦¬ à¦Ĺà¦łà¦¨
à¦¬ à§İà¦ª
à¦¬ à¦ĭà¦£
à¦¼ (
à¦¼ à§ģà¦ĥ
à¦¼ à§ģâĢĻ
à¦¼ à§ĭà¥¤âĢĻ
à¦¼ ...âĢĿ
à¦® à¦ı
à¦® à¦¤à¦¬
à¦® à¦Ĺà¦²
à¦® à¦®à¦²
à¦® à¦¶à¦¬
à¦® à¦®à¦°à¦£
à¦® à¦¦à¦¸
à¦® à¦ªà¦²
à¦® à¦®à¦¦
à¦® à¦ħà¦®
à¦® à¦īà¦¤
à¦® à¦ĭà¦£
à¦® à¦Īà¦Ĺà¦°
à§ĭ à§ĭ
à§ĭ )à¥¤
à§ĭ 'à¥¤
Ġà¦ķ à¦¬à¦¨
Ġà¦ķ à¦ªà¦¨
Ġà¦ķ à§İ
Ġà¦ķ à¦²à¦¬
Ġà¦ķ à¦ĵà§Ł
Ġà¦ķ à¦¹à¦²
Ġà¦ķ à¦¸à¦ķ
Ġà¦ķ à¦Łà¦°
Ġà¦ķ à¦ĩà¦¸
Ġà¦ķ Ø§Ø
Ġà¦ķ à¦¸à¦°à§İ
Ġà¦¬ à¦¹à¦¸
Ġà¦¬ à¦¬à¦ķ
Ġà¦¬ à§Łà¦¨
Ġà¦¬ à¦¶à¦¤
Ġà¦¬ à¦¬à¦®
Ġà¦¬ à¦¦à¦¬
Ġà¦¬ à¦¦à¦¤
Ġà¦¬ à¦°à¦¬à¦£
Ġà¦¬ un
Ġà¦¸ à¦¥
Ġà¦¸ à¦Ĺà¦¨
Ġà¦¸ à¦ĩà¦¸
Ġà¦¸ à¦Ĺà¦Ń
Ġà¦¸ à¦¦à§Łà¦¤
Ġà¦¸ à¦ĸà¦¨à¦ĵ
Ġà¦¸ à¦ªà¦¸à¦ª
à¥¤ âĢľ
à¥¤ --
à¥¤ ..
à¥¤ )à¥¤
à¦¸ à§Ł
à¦¸ à¦Ŀ
à¦¸ à¦ħ
à¦¸ à¦¦à¦¯
à¦¸ à¦²à¦¨
à¦¸ à¦°à¦ĩ
à¦¸ à¦¹à¦°
à¦¸ à¦ķà¦¬
à¦¸ à¦¦à§Ł
à¦¸ à¦Łà¦²
à¦¸ à¦ªà¦ķ
à¦¸ à¦°à¦¬à¦¤
à¦¸ à¦ªà¦Ł
à¦¸ à¦ıà¦ķà¦Ł
à¦¸ à¦¦à¦®
à¦¸ à¦Ĺà¦¤à¦Ń
Ġà¦ª à¦ļà¦²
Ġà¦ª à¦ĩà¦°
Ġà¦ª à¦ĩà¦¤
Ġà¦ª à¦ªà¦¡
Ġà¦ª à¦¬à¦¨à¦ķ
Ġà¦ª intu
Ġà¦Ĩ à¦ĸà¦¨
Ġà¦Ĩ à¦¬à¦²
Ġà¦Ĩ à¦ļà¦²
Ġà¦Ĩ à¦ĩà¦¤
Ġà¦Ĩ à¦«à¦²
Ġà¦Ĩ à¦ĩà§Ł
Ġà¦Ĩ à¦Łà¦®
Ġà¦Ĩ à¦īà§ľ
à¦¦ à¦¬à¦²
à¦¦ à¦ķà¦²
à¦¦ à¦°à¦¨
à¦¦ à¦Ĺà¦²
à¦¦ à¦¬à¦¤
à¦¦ à¦Ľà¦¨
à¦¦ à¦¬à¦¸
à¦¦ à¦¬à¦¹
à¦¦ à¦¶à¦°
à¦¦ à¦Ńà¦¬à¦¨
à¦¦ à¦°à¦¨à¦Ĺà¦°
à¦Ł à¦ªà¦¨
à¦Ł à¦ķà¦¤
à¦Ł à¦¨à¦ĵ
à¦Ł à¦®à¦¯
à¦Ł à¦°à¦ĩ
à¦Ł à¦°à¦Ń
à¦Ł à¦ªà¦¦
à¦Ł à¦ªà¦¥
à¦Ł à¦¸à¦¤
à¦Ł à¦¨à¦Ĺ
à¦Ł à¦ªà¦²
à¦Ł à¦īà¦¦
à¦Ł à¦īà¦¡
Ġà¦¨ à¦¤à¦°
Ġà¦¨ à¦°à¦¶
Ġà¦¨ à¦Ĺà¦¨
Ġà¦¨ à¦Łà¦¨
Ġà¦¨ à¦²à¦Ĺ
Ġà¦¨ à¦²à¦ľ
Ġà¦¨ à¦Ńà¦¨
Ġà¦¨ à¦Ļà¦°
Ġà¦® à¦ī
Ġà¦® à¦ĩà¦¯
Ġà¦® à¦īà¦²
Ġà¦® à¦¦à¦®
Ġà¦® à§İà¦¸à¦°
Ġà¦® à¦īà¦®
à¦ª à¦ĵà¦¯
à¦ª à¦¦à¦¯
à¦ª à¦ļà¦¨
à¦ª à¦§à¦¨
à¦ª à¦ķà¦¬
à¦ª à¦¸à¦°
à¦ª à¦ªà¦¥
à¦ª à¦ľà¦²
à¦ª à¦Ńà¦°
à¦ª à¦ªà¦£
à¦ª à¦Ŀà¦°
à¦ª à¦łà¦¨
à¦ª à¦¶à¦Ł
à¦ª à¦īà¦ªà¦¨
à¦ĩ à¦¤à¦°
à¦ĩ à¦ĺ
à¦ĩ à¦¦à¦°
à¦ĩ à¦®à¦ķ
à¦ĩ à¦¹à¦°
à¦ĩ à¦¸à¦®
à¦ĩ à¦¹à¦²
à¦ĩ à¦¯à¦¨
à¦ĩ à¦Ĺà¦¨
à¦ĩ à¦ªà¦¦
à¦ĩ à¦ªà¦ķ
à¦ĩ à¦¶à¦ķ
à¦ĩ à¦¢
à¦ĩ à¦ªà¦¡
à¦ĩ à¦Ńà¦°
à¦ĩ à¦ļà¦¡
à¦ĩ à¦ľà¦®
à¦ĩ à¦¶à¦°
à¦ĩ à¦ļà¦¬
à¦ĩ à¦īà¦ª
à§Ģ (
à§Ģ .
à§Ģ à¦¾
à§Ģ à§ĩ
à§Ģ 'à¥¤
à¦Ľ à¦§
à¦Ľ à¦ĺ
à¦Ľ à¦¦à¦¨
à¦Ľ à¦ľà¦Ļ
Ġà¦¦ à¦°à¦¶
Ġà¦¦ à¦®à¦¯
Ġà¦¦ à¦®à¦¬
Ġà¦¦ à¦ıà¦¬
Ġà¦¦ à¦®à¦¸
Ġà¦¦ à¦ĩà¦Ń
à¦ľ à¦°à¦¤
à¦ľ à¦°à¦¬
à¦ľ à¦°à¦¸
à¦ľ à¦Ĺà¦²
à¦ľ à¦¯à¦ķ
à¦ľ à¦ķà¦¬
à¦ľ à¦Łà¦²
à¦ľ à¦°à¦Ł
à¦ľ à¦ļà¦ķ
à¦ľ à¦¬à¦ķ
à¦ľ à¦ªà¦Ł
à¦ľ à¦Ńà¦°
à¦ľ à¦ľà¦¸
à¦ľ à¦ıà¦°
Ġà¦¹ à§ľ
Ġà¦¹ à¦ī
Ġà¦¹ à¦īà¦¨
Ġà¦¹ à¦°à¦ķà¦°
Ġà¦¹ à§ľà¦¹
Ġà¦¤ à¦ĩ
Ġà¦¤ à¦·
Ġà¦¤ à¦°à¦¸
Ġà¦¤ à¦ĸà¦²
Ġà¦¤ à¦¸à¦°
Ġà¦¤ à¦¹à¦®
Ġà¦¤ à¦¹à¦¶
Ġà¦¤ à¦ĵà¦«
Ġà¦¤ uhin
Ġà¦ı à¦Ĩ
Ġà¦ı à¦ĵà¦¯
Ġà¦ı à¦·à¦£
Ġà¦ı à¦Ĺà¦¨
Ġà¦ı à¦¨à¦²
Ġà¦ı à¦ªà¦¸
Ġà¦ı à¦ľà¦®
à¦¶ à¦ŀ
à¦¶ à¦ªà¦¨
à¦¶ à§İ
à¦¶ à¦°à¦¬
à¦¶ à¦ĵà¦¯
à¦¶ à¦¤à¦¨
à¦¶ à¦Ĺà¦²
à¦¶ à¦°à¦ĩ
à¦¶ à¦¦à¦²
à¦¶ à¦ªà¦ķ
à¦¶ à¦¶à¦ķ
à¦¶ à¦¸à¦Ļ
à¦¶ à¦ľà¦¯
à¦¶ à¦²à¦®
à¦¶ à¦°à¦°
à¦¶ à¦¤à¦Ł
à¦¶ à¦ľà¦¨à¦ķ
à¦¶ à§Łà¦Ĺ
à¦¶ à¦Ŀà¦¡
à¦¶ à¦®à¦¨à¦ķ
à¦¼à§ĩ !âĢĻ
à¦¼à§ĩ ...
à¦¼à§ĩ ):
Ġà¦ħ à¦ķà¦Ł
Ġà¦ħ à¦ķà¦¬
Ġà¦ħ à¦łà¦¨
Ġà¦ħ à¦Ľà¦²
Ġà¦ħ à¦ĺà¦Ł
Ġà¦ħ à¦ľà¦¨à¦¦
à¦ĸ à§Ł
à¦ĸ à¦ł
à¦ĸ à¦®à¦¤
à¦ĸ à¦°à¦¶
à¦ĸ à¦²à¦¬
à¦ĸ à¦ªà¦¥
à¦ĸ à¦¸à¦Ļ
à¦ĸ à¦¶à¦¶
à¦Ĺ à¦ĸ
à¦Ĺ à¦°à¦²
à¦Ĺ à¦®à¦¬
à¦Ĺ à¦ļà¦°
à¦Ĺ à¦Ĺà¦ľ
à¦Ĺ à¦ĺà¦Ł
à¦Ĺ à¦§à¦¦
à¦Ĺ à¦°à¦ľà¦²
à¦Ĺ à¦ľà¦¨à¦ķà¦Ń
à¦· à¦Ŀ
à¦· à¦ĺ
à¦· à¦¬à¦²
à¦· à¦°à¦®
à¦· à¦¤à¦¨
à¦· à¦°à¦¨
à¦· à¦²à¦ķ
à¦· à¦®à¦°
à¦· à§İà¦ķ
à¦· à¦ľà¦²
à¦· à¦¨à¦ĩ
à¦· à¦¬à¦¹
à¦· à¦ľà¦®
à¦· à¦¶à¦¤
à¦· à¦°à¦¹à¦¸
à¦· à¦ªà¦£à¦ķ
à¦§ à¦«
à¦§ à¦ĺ
à¦§ à¦ķà¦²
à¦§ à¦°à¦¸
à¦§ à¦Ĺà¦¨
à¦§ à¦°à¦ª
à¦§ à¦ªà¦ķ
à¦§ à¦ļà¦°
à¦§ à¦ħà¦²
à¦¡ à¦²à¦¬
à¦¡ à¦ªà¦¤
à¦¡ à¦¤à¦²
à¦¡ à¦¸à¦¤
à¦¡ à¦ıà¦°
à¦¡ à¦²à¦®
à¦¡ à¦¸à¦¹
à¦¡ à¦ľà¦Ł
à¦¡ à¦Ńà¦¨
à¦¡ à¦ħà¦²
Ġà¦¯ à¦ĸ
Ġà¦¯ à¦®à¦ķ
Ġà¦¯ à¦®à¦°
Ġà¦¯ à§İà¦ķ
Ġà¦¯ à¦¬à¦¨à¦¦
à¦ļ à¦·
à¦ļ à¦§
à¦ļ à¦ļà¦¨
à¦ļ à¦®à¦°
à¦ļ à¦°à¦Ł
à¦ļ à¦®à¦¬
à¦ļ à¦°à¦ķà¦®
à¦ļ à¦¬à¦ĩ
à¦ļ à¦¸à¦¹
à¦¹ à¦Ľ
à¦¹ à¦¥
à¦¹ à¦ŀ
à¦¹ à¦ĺ
à¦¹ à¦ķà¦²
à¦¹ à¦¤à¦¬
à¦¹ à¦¦à¦°
à¦¹ à¦²à¦¤
à¦¹ à¦¨à¦ĵ
à¦¹ à¦²à¦¬
à¦¹ à¦®à¦ķ
à¦¹ à¦°à¦ĩ
à¦¹ à¦¯à¦¨
à¦¹ à¦¤à¦²
à¦¹ à¦§à¦°
à¦¹ à¦¬à¦¶
à¦¹ à¦®à¦¸
à¦¹ à¦īà¦ķ
à¦¹ à¦ĺà¦¨
à¦¹ à¦£à¦ķ
à¦¹ à¦ľà¦¨à¦ķà¦Ń
Ġà¦ķà¦° à¦ķ
Ġà¦ķà¦° à¦§
Ġà¦ķà¦° à¦¨à¦ĸ
à§Ł à¦¨à¦¤
à§Ł à¦²à¦¬
à§Ł à¦§à¦°
à§Ł à¦ķà¦¦
à§Ł à¦ķà¦°à¦£
à§Ł à¦®à¦ª
Ġà¦Ĺ à¦ľà¦¨
Ġà¦Ĺ à¦¨à¦¨
à¦£ à¦¡
à¦£ à¦¤à¦¨
à¦£ à¦°à¦¸
à¦£ à¦¹à¦°
à¦£ à¦Ĺà¦¨
à¦£ à¦¬à¦¯
à¦£ à¦ķà¦°à¦£
à¦£ à¦ļà¦¤
à¦£ à¦Ńà¦Ļ
à¦£ à¦°à¦Ļ
à¦£ à¦¸à¦ĸ
à¦¥ à¦ŀ
à¦¥ à¦¬à¦°
à¦¥ à¦Ĺà¦¤
à¦¥ à¦¨à¦ĵ
à¦¥ à¦°à¦ĩ
à¦¥ à¦ªà¦¥
à¦¥ à¦¡à¦ķ
à¦¥ à¦¨à¦¦à¦£
Ġà¦¶ à¦°à¦¬
Ġà¦¶ à¦«à¦°
Ġà¦ľ à¦ķ
Ġà¦ľ à¦ªà¦¨
Ġà¦ľ à¦°à¦¥
Ġà¦ľ à¦ĩà¦¨
Ġà¦ľ à¦Ĺà¦¬
Ġà¦ľ à§Łà¦¤
Ġà¦ļ à¦¸
Ġà¦ļ à¦¦
Ġà¦ļ à¦¶
Ġà¦ļ à¦ķà¦¬
Ġà¦ļ à¦Łà¦²
Ġà¦ļ à¦ªà¦¡
Ġà¦ļ à¦Łà¦¬
Ġà¦ļ à¦ªà¦ļ
Ġà¦Ń à¦¤
Ġà¦Ń à¦®
Ġà¦Ń à¦Ń
Ġà¦Ń à§ľ
Ġà¦Ń à¦°à¦¨
Ġà¦Ń à¦Ĺà¦¨
Ġà¦Ń à¦¬à¦¸
Ġà¦Ń à¦ľà¦¸
Ġà¦Ń à¦Ĺà¦®
Ġà¦Ń à¦ĩà¦¸
Ġà¦Ń à¦Łà¦Ń
Ġà¦Ń à¦ķà¦Ńà¦ķ
Ġà¦° à¦ĸ
Ġà¦° à¦Ń
Ġà¦° à¦¬à¦°
Ġà¦° à¦¶à¦¨
Ġà¦° à¦®à¦¯
Ġà¦° à¦¹à¦²
Ġà¦° à¦¬à¦ķ
Ġà¦° à¦¹à¦¨
Ġà¦° à¦ľà¦°
Ġà¦° à¦Łà¦¬
Ġà¦° à¦®à¦ª
Ġà¦° à¦ļà§Ł
Ġà¦° à¦£à¦¦
Ġà¦° à¦Ńà¦¸
Ġà¦° à¦Ĺà§ľ
Ġà¦° afi
à§ĩà¥¤ âĢ¦.
à¦ĵ à¦ªà¦°
à¦ĵ à¦ķà¦²
à¦ĵ à¦°à¦¦
à¦ĵ à¦¸à¦®
à¦ĵ à¦°à¦Ł
à¦ĵ à¦°à¦ķà¦®
à¦ĵ à¦ĩà¦¤
à¦ĵ à§İà¦¸
à¦ĵ à¦Ĩà¦°
à¦ĵ à¦²à¦Ł
à¦ĵ à¦ıà¦¸
à¦ĵ à¦ĵà¦¤
à¦Ń à¦·
à¦Ń à¦ĸà¦¨
à¦Ń à¦®à¦¯
à¦Ń à¦¨à¦ķ
à¦Ń à¦Ńà¦°
à¦Ń à¦²à¦ª
à¦Ń à¦Ĺà¦¬à¦¨
à¦Ń à§İà¦¸à¦¨
Ġà¦ıà¦ķ à¦ł
Ġà¦ıà¦ķ à¦¤à¦°
Ġà¦ıà¦ķ à¦¬à¦°
Ġà¦ıà¦ķ à¦ķà¦°
Ġà¦ıà¦ķ à¦°à¦¥
Ġà¦ıà¦ķ à¦¦à¦°
Ġà¦ıà¦ķ à¦ļà¦¨
Ġà¦ıà¦ķ à¦¸à¦®
Ġà¦ıà¦ķ à¦·à¦Ł
Ġà¦ıà¦ķ à¦ıà¦ķà¦¦
Ġà¦ıà¦ķ à¦Ĩà¦§
à¦¼à¦¾ âĢĻ,
à¦¼à¦¾ ),
à¦¼à¦¾ âĢĻ-
à§ĥ ,
à§ĥ .
à§ĥ âĢĻ
Ġà¦Ľ à¦¶
Ġà¦Ľ à§Łà¦¨
Ġà¦Ľ à¦²à¦Ľ
Ġà¦Ľ à¦ĩà¦ıà¦°
Ġà¦Ĩà¦® à¦ĩ
Ġà¦Ĩà¦® à¦¬à¦¨
Ġà¦Ĩà¦® à¦«
à¦ł à¦Ľ
à¦ł à¦°à¦¤
à¦ł à¦°à¦¬
à¦ł à¦¬à¦°
à¦ł à¦ĺ
à¦ł à¦ķà¦¬
à¦ł à¦¸à¦Ļ
à¦ł à¦ªà¦Ł
à¦ł à¦¨à¦¬à¦¤
à¦ł à¦Ńà¦¬à¦¨
Ġà¦ī à¦Ļ
Ġà¦ī à¦²à¦ķ
Ġà¦ī à¦¸à¦ª
Ġà¦ī à¦°à¦°
Ġà¦ī à¦ĩà¦¡
Ġà¦ī à¦ĵà¦°
Ġà¦ī à¦ĩà¦ľ
Ġà¦ī à¦ĩà¦ª
Ġà¦ī à¦ĩà¦¨à¦Ł
Ġà¦ī à¦ĩà¦Łà¦¨
à¦Ĥ /
à¦Ĥ à¥¤âĢĿ
à¦Ĥ âĢĻà¥¤
à¦Ĥ !âĢĻ
à§Ĥ âĢĶ
à¦¾à¦ģ à§ĩ
à¦¾à¦ģ à¦¿
à¦¾à¦ģ à§ģ
à¦¾à¦ģ âĢĿà¥¤
à¦¾à¦ģ ...
à¦Ļ à¦®
à¦Ļ à¦ĩ
à¦Ļ à¦¨à¦ĩ
à¦Ļ à¦ĵà¦Ń
Ġà¦² à¦¬à¦ķ
Ġà¦² à¦Ĺà¦¬
Ġà¦² à¦ĩà¦Ľ
Ġà¦ĵ à¦Ľ
Ġà¦ĵ à§İ
Ġà¦ĵ à¦²à¦¡
Ġà¦¥ à¦¬
Ġà¦¥ à¦Ł
à§ĩ, /
à§ĩ, âĢ¦
Ġà¦¬à¦² à¦®
Ġà¦¬à¦² à¦¸
Ġà¦¬à¦² à¦ľ
Ġà¦« à¦ľ
Ġà¦« à¦ķà¦°
Ġà¦« à¦Łà¦°
Ġà¦Ĩà¦° à¦ļ
Ġà¦Ĩà¦° à¦Ĩà¦°
Ġà¦Ĩà¦° à¦ıà¦¸
Ġà¦Ĩà¦° IF
Ġà¦ĸ à¦ľ
Ġà¦ĸ à¦ªà¦°
Ġà¦ĸ à¦¸à¦¬
Ġà¦ĸ à¦®à¦ķ
Ġà¦ĸ à¦°à¦§
à¦°à¦¤ à¦ľ
à¦°à¦¤ à¦®à¦¯
à¦°à¦¤ à¦®à¦£
à¦°à¦¤ à¦ķà¦¥
Ġà¦ħà¦¨ à¦ªà¦¤
Ġà¦ħà¦¨ à¦¬à¦¹
à¦¾à¥¤ -
Ġà¦ªà¦° à¦¬à¦¤
Ġà¦ªà¦° à¦®à¦¬
Ġà¦ªà¦° à¦¬à¦¶
Ġà¦ªà¦° à¦¶à¦®
Ġà¦§ à¦°à¦ķ
Ġà¦§ à¦²à¦¤
Ġà¦§ à¦¨à¦¸
Ġà¦§ à¦®à¦§à¦®
âĢĶ #
Ġà¦¸à¦® à¦¹
Ġà¦¸à¦® à¦°à¦ķà¦¨
à¦¾, "
à¦¾, /
à¦¾, âĢľ
à¦¬à¦¨ à¦¬à¦¨
à¦¬à¦¨ à¦²à¦ķ
à¦¬à¦¨ à¦ļà¦¨
à¦¬à¦¨ à¦ªà¦¦
à¦¬à¦¨ à¦Ľà¦¬
à¦¬à¦¨ à¦®à¦¦
à¦¬à¦¨ à¦ĺà¦¨
à¦¬à¦¨ à¦¯à¦ľ
à§ľ à¦ĸ
à§ľ à¦¤à¦°
à¦ĸà¦¨ à¦ķ
à¦ĸà¦¨ à¦Ł
à¦ĸà¦¨ à¦ĩ
à¦ĸà¦¨ à¦Ĺ
à¦ĸà¦¨ à¦ļ
à¦ĸà¦¨ à¦ªà¦¦
Ġà¦ĺ à¦ª
Ġà¦ĺ à¦°à¦¨
Ġà¦ĺ à¦·à¦Ł
Ġà¦®à¦¨ à¦ļ
Ġà¦®à¦¨ à¦°à¦ķ
Ġà¦®à¦¨ à¦¶à¦¨
Ġà¦®à¦¨ à¦ķà¦¥
Ġà¦®à¦¨ à¦¨à¦¯à¦ľ
à¦ªà¦° à¦²
à¦°à¦£ à¦ľ
à¦°à¦£ à¦ļ
Ġà¦ıà¦ĩ à¦ľ
à¦¿à¥¤ âĢĶ
à¦¿à¥¤ ''
à¦®à¦¨ à¦²
à¦®à¦¨ à¦¯
à¦®à¦¨ à¦ĸ
à¦®à¦¨ à¦ĵ
à¦®à¦¨ à¦¨à¦¶
à¦Ŀ à¦Ĺ
à¦Ŀ à¦°à¦£
à¦Ŀ à¦°à¦¬
à¦Ŀ à¦ļà¦²
à¦Ŀ à¦®à¦°
à¦Ŀ à¦¨à¦ķ
à¦Ŀ à¦¨à¦¦
à¦Ŀ à¦®à¦§
à¦Ŀ à¦Ĩà¦ķ
à¦Ŀ à¦®à¦Ŀà¦®
à¦ľà¦¨ à¦¤à¦®
à¦ŀ à¦§
à¦ŀ à¦ªà¦¤
à¦ŀ à¦ļà¦°
à¦¤à¦° à¦¥
à¦¤à¦° à¦ĺ
à¦¤à¦° à¦Ĺà¦¤
à¦¤à¦° à¦¹à¦¸
à¦¤à¦° à¦¸à¦®
à¦¤à¦° à¦®à¦£
à¦¤à¦° à¦ľà¦²
à¦« à¦¯
à¦« à¦ĩ
à¦« à¦Łà¦ķ
à¦« à¦ľà¦²
à¦« à¦Łà¦¨
à¦« à§Łà¦¸
à¦ī à¦°à¦¤
à¦ī à¦ı
à¦ī à¦¨à¦¤
à¦ī à¦ķà¦²
à¦ī à¦Ĺà¦°
à¦ī à§İà¦ķ
à¦ī à¦ĩà¦Ł
à¦ī à¦ªà¦¡
à¦ī à¦¸à¦Ł
à¦ī à¦ªà¦²
à¦ī à¦ĩà¦ľ
à¦ī à¦ªà¦Ĺ
à¦ī à§ľà¦¤
à¦ī à§İà¦ªà¦¤
à¦ī à¦ĩà§Łà¦°
à¦¿, '
à¦ªà¦¨ à¦ĸ
à¦ªà¦¨ à¦¸à¦°
à¦ªà¦¨ à¦¶à¦¬
à¦ªà¦¨ à¦¤à¦®
à¦ªà¦¨ à¦ĺà¦°
à¦ªà¦¨ à¦¸à¦°à¦¶
Ġà¦Ĩà¦² à¦¬à¦¤
Ġà¦Ĩà¦² à¦®à¦¬
à§İ à¦¤
à§İ à¦¬à¦°
à§İ à¦¸à¦Ļ
à§İ à¦¹à¦ł
à§İ à¦Ĺà¦£
à§İ à¦ļà¦®à¦ķ
à¦Ĩ à¦°à¦¸
à¦Ĩ à¦¨à¦¬
à¦Ĩ à¦Ĺà¦²
à¦Ĩ à¦¹à¦¸
à¦Ĩ à¦ĵà§Ł
à¦Ĩ à¦°à¦Ł
à¦Ĩ à¦§à¦°
à¦Ĩ à¦ĩà¦¤
à¦Ĩ à¦¤à¦ª
à¦Ĩ à¦Łà¦ª
à¦Ĩ à¦ĸà¦£
à¦°à¦¬ à¦¸à¦¨
à¦ı à¦ı
à¦ı à¦¨à¦¸
à¦ı à¦¸à¦Ł
à¦ı à¦®à¦ª
à¦ı à¦¤à¦¬à¦¡
à¦°à¦ķ à¦Łà¦°
à¦°à¦ķ à¦°à¦°
à¦°à¦ķ à¦Ĺà¦£
à¦°à¦ķ à¦ĸà¦ļ
à¦°à¦ķ à¦¨à¦¡
âĢĿ ;
âĢĿ âĢĵâĢĵ
Ġà¦¸à¦¬ à¦Ń
Ġà¦¸à¦¬ à¦²à¦ķ
à¦¬à¦° à¦¹à¦¸
à¦¬à¦° à¦®à¦£
à¦¬à¦° à¦®à§Ł
Ġà¦Ł à¦²à¦¬
Ġà¦Ł à¦ªà¦Ł
Ġà¦Ł à¦ķà¦¦
Ġà¦Ł à¦ªà¦²
Ġà¦Ł à¦²à¦°
Ġà¦Ł à¦¸à¦Łà¦¸
Ġà¦¬à¦²à¦² à¦Ľ
Ġà¦¬à¦²à¦² à¦ĺ
Ġà¦¬à¦²à¦² à¦ĩà¦¨
Ġà¦¬à¦²à¦² à¦ķà¦¬
Ġà¦¬à¦²à¦² à¦¸à¦¤
Ġà¦¬à¦²à¦² à¦ıà¦¤
Ġà¦¬à¦²à¦² à¦Ĩà¦¹
Ġà¦¬à¦²à¦² à¦ıà¦¦
Ġà¦Ĩà¦¸ à¦¸
Ġà¦Ĩà¦¸ à¦¨à¦ĵ
Ġà¦Ĩà¦¸ à¦°à¦ĩ
Ġà¦Ĩà¦Ľ à§Ł
âĢĻ ?âĢĿ
Ġà¦ķà¦¥ à¦¯
Ġà¦ķà¦¥ à¦®
à¦¼à¥¤ )
à¦¼à¥¤ ]
Ġà¦¹à¦² à¦¤
Ġà¦¹à¦² à¦ı
ĠâĢľ âĢĿ
Ġà¦¡ à¦Ĺà¦°
à§Ī ?
à§Ī à¦¾
Ġà¦ĩ à¦¤à¦¨
Ġà¦ĩ à¦²à¦¤
Ġà¦ĩ à¦¦à¦®
Ġà¦ĩ à¦ľà¦®
Ġà¦ĩ à¦īà¦¤
Ġà¦ĩ à§Łà¦°
Ġà¦ĩ à¦¤à¦°à¦¬
à¦ĺ à¦§
à¦ĺ à¦®à¦¨
à¦ĺ à¦°à¦ĩ
à¦ĺ à¦Łà¦¬
Ġà¦®à¦¤ à¦ĵ
à§Į !
Ġà¦¹à¦¬ à¦ĩ
Ġà¦ľà¦¨ à¦¦
Ġà¦ľà¦¨ à¦ļ
Ġà¦ľà¦¨ à¦°à¦¬
Ġà¦§à¦° à¦¨à¦ĵ
Ġà¦§à¦° à¦¨à¦ķ
Ġà¦Ŀ à¦¤
Ġà¦Ŀ à¦£
Ġà¦Ŀ à¦Ŀ
Ġà¦Ŀ à¦°à¦ķ
Ġà¦Ŀ à¦°à¦ª
Ġà¦Ŀ à¦Ĺà¦¬
Ġà¦Ŀ à¦ķà¦®
à¦¬à¦² à¦¹
à¦¬à¦² à¦Ŀà¦²à¦ķ
Ġà¦ıà¦¬ à¦®
à¦¼, âĢĵ
à¦¬à¦ª à¦¥
Ġà¦ħà¦¬ à¦Ľ
à§ģà¦ģ âĢ¦âĢĻ
à§ģà¦ģ à¦ĥ!
à¦°à¦® à¦Ĺà¦¨
Ġà¦ł à¦¸
Ġà¦ł à¦®à¦ķ
à¦·à¦£ à¦ļ
à¦·à¦£ à¦ŀ
à¦·à¦£ Åĵ
à¦¨à¦¤ à¦¶
Ġà¦ķà¦°à¦² à¦®
Ġà¦ıà¦¸ à¦¤
Ġà¦ıà¦¸ à¦Ł
Ġà¦ıà¦¸ à¦ķà¦°
Ġà¦¬à¦¸ à¦¨à¦Ĺ
Ġà¦¬à¦¸ à¦¨à¦Ń
Ġà¦Ĩà¦ľ à¦Ł
à¦¤à¦¨ à¦°
à¦¤à¦¨ à¦ĸ
à¦¤à¦¨ à¦§
à¦¤à¦¨ à¦ŀ
à¦¤à¦¨ à¦ªà¦¨
à¦¤à¦¨ à¦°à¦Ļ
à¦ĥ âĢĿ,
Ġà¦¢ à¦²à¦¤
à¦ħ à¦ĸ
à¦ħ à¦ľà¦¨
à¦ħ à¦¨à¦¤
à¦ħ à¦°à¦¨
à¦ħ à¦Ĺà¦¤
à¦ħ à¦°à¦¯
à¦ħ à¦¯à¦¤
à¦ħ à¦¶à¦ķ
à¦ħ à¦ľà¦¯
à¦ħ à¦¶à¦°
à¦ħ à¦ľà¦ª
à¦ħ à¦ķà¦²à¦Ļ
Ġà¦¬à¦¨ à¦®à¦¯
Ġà¦Ĩà¦¬ à¦¸
Ġà¦Ĩà¦¬ à¦ľ
Ġà¦Ĩà¦¬ à¦¹à¦¨
Ġà¦ħà¦® à¦°à¦¨
Ġà¦ħà¦® à¦°à¦²
Ġà¦ªà¦¥ à¦¸
Ġà¦ªà¦¥ à¦Ľ
Ġà¦Ĩà¦Ĺ à¦°à¦¬
Ġà¦Ĺà¦² à¦Ĺ
à¦ķà¦° à¦¨
à¦ķà¦° à¦ľ
à¦ķà¦Ł à¦¤
à¦ķà¦Ł à¦Ń
à¦ķà¦Ł à¦ľà¦¨
à¦ķà¦Ł à¦¤à¦°
à¦¸à¦¬ à¦¥
Ġà¦ħà¦¸ à¦²
Ġà¦ħà¦¸ à¦¸
Ġà¦ħà¦¸ à¦®à¦ķ
à¦¯à¦¬ à¦°à¦£
à¦¯à¦¬ à¦¸à¦°
à¦°à¦¨ à¦¸
à¦°à¦¥ à¦¸
à§ĭà¥¤ '
à§ĭà¥¤ à¥¤
à§ĩà¦ģ âĢĵ
Ġà¦Ĩà¦ķ à¦¦
Ġà¦Ĩà¦ķ à¦¶
Ġà¦Ĩà¦ķ à¦¬à¦°à¦ķ
à¦¾à¦Ĥ /
à¦¾à¦Ĥ âĢĶ
à¦¾à¦Ĥ âĢ¦
à¦¾à¦Ĥ !âĢĿ
à¦¤à¦¬ à¦¦à¦¨
à¦¤à¦¬ à§İà¦¸à¦²
à¦°à¦¸ à¦ĸ
à¦°à¦¸ à¦ŀ
à¦°à¦¸ à¦«
à¦°à¦¸ à§İ
à¦°à¦¸ à¦°à¦®
à¦¨à¦¬ à¦°à¦£
à¦¨à¦¬ à¦¦à¦¨
à¦¨à¦¬ à¦¸à¦¨
à¦¨à¦¬ à¦®à¦¸
à¦¨à¦¬ à¦®à¦¹
à¦¨à¦¬ à¦¸à¦¦
Ġà¦Ĩà¦ªà¦¨ à¦¹
Ġà¦Ĩà¦ªà¦¨ à¦ľà¦¨à¦¦
à¦ķà¦¤ à¦ĸ
à¦ķà¦¤ à¦ķà¦Ĺ
à¦ķà¦¤ à¦¶à¦¤
Ġà¦Ĩà¦¶ à¦°à¦«
à¦¦à¦¨ à¦¨
à¦¦à¦¨ à¦Ĺà¦°
à¦¦à¦¨ à¦ļà¦°
à¦¦à¦¨ à¦¨à¦Ĺà¦°
à¦°à¦¥à¦® à¦¤à¦®
Ġà¦¬à¦° à¦Ł
Ġà¦¬à¦° à¦ĵ
Ġà¦¬à¦° à¦¦à¦¨
Ġà¦¬à¦° à¦ĩà§Ł
Ġà¦¬à¦° à¦Ĺà¦¦
Ġà¦¹à¦¤ à¦®
à§ĩ? âĢľ
à§ĩ? ''
Ġà¦ıà¦² à¦Ń
Ġà¦ıà¦² à¦ıà¦¸
Ġà¦Ĩà¦¨ à¦°
Ġà¦Ĩà¦¨ à¦¡
Ġà¦Ĩà¦¨ à¦¹
Ġà¦Ĩà¦¨ à¦Ĩà¦ĩà¦¡
à¦Ĩà¦® à¦¦
Ġà¦ķà¦°à¦Ľ à¦¸
Ġà¦īà¦¦ à¦ķ
Ġà¦ħà¦° à¦ª
Ġà¦ħà¦° à¦Ĺ
Ġà¦ħà¦° à¦ľà¦¨
à¦¦à¦° à¦ĩ
à¦¦à¦° à¦Ļ
à¦¦à¦° à¦ĵà¦¯
Ġà¦ľà¦² à¦ķà¦²
Ġà¦ľà¦² à¦¯à¦¨
Ġà¦ľà¦² à¦¬à¦£
à¦Ĺà¦² à¦Ĩà¦®
à¦²à¦¤ à¦ķ
à¦²à¦¤ à¦Ł
à¦²à¦¤ à¦ĩ
à¦Ĺà¦¤ à¦¤
à¦¶à¦¨ à¦¯
à¦¶à¦¨ à¦¡
à¦¶à¦¨ à¦ļ
à¦¶à¦¨ à¦ľà¦¨
à¦¶à¦¨ à¦Ĺà¦°
Ġà¦¸à¦¨ à§İ
Ġà¦¸à¦¨ à§İà¦ķ
à¦¿à¦Ĥ ;
à¦¿à¦Ĥ à¥¤âĢĿ
à¦¿à¦Ĥ ?âĢĿ
à¦¿à¦Ĥ ,âĢĿ
à¦¿à¦Ĥ âĢ¦âĢĿ
à¦¿à¦Ĥ !âĢĻ
à¦¿à¦Ĥ ),
à¦®à¦¤ à¦Ł
à¦§à¦ķ à¦ľ
à¦°à¦¹ à¦¯
à¦°à¦¹ à¦°à¦¤
à¦°à¦¹ à¦°à¦ķ
à¦°à¦¹ à¦®à¦¯
Ġà¦ĺà¦° à¦ª
Ġà¦ĺà¦° à¦Ńà¦°
Ġà¦°à¦ķ à¦¸
Ġà¦īà¦łà¦² à¦¸
Ġà¦īà¦łà¦² à¦Ĩà¦®
à¦ļà¦¨ à¦¸
à¦²à¦¨ à¦²
à¦²à¦¨ à¦°à¦¤
à¦²à¦¨ à¦ªà¦¨
à¦²à¦¨ à¦ķà¦²
à¦²à¦¨ à¦ļà¦°
à¦²à¦¨ à¦®à§Ł
à¦²à¦¨ à¦®à¦ŀ
Ġà¦īà¦ª à¦®à¦¨
Ġà¦®à¦¹ à§ľ
Ġà¦¸à¦° à¦ª
Ġà¦¸à¦° à¦²à¦¸
Ġà¦¸à¦° à¦«à¦°
Ġà¦¸à¦° à¦ªà¦ŀ
à¦¨à¦ĵ à¦¶
à¦¨à¦ĵ à¦ĸ
à¦¬à¦¤ à¦Ĺ
à¦¬à¦¤ à¦Ĺà¦¹
à¦Ľà¦¨ à¦®
à¦ĩà¦² à¦°
à¦ĩà¦² à¦¬
à¦ĩà¦² à¦ľ
à¦ĩà¦² à¦¬à¦ķ
à¦ĩà¦² à¦Łà¦°
à¦ĩà¦² à¦Łà¦¦
à¦®à¦² à¦¤à¦°
à¦¯à¦¤ à¦ļ
à¦ĸà¦² à¦¦
à¦ĸà¦² à¦ª
à§ĩâĢĶ '
à¦§à¦¨ à¦ĸ
à¦§à¦¨ à¦°à¦¤
à¦§à¦¨ à¦ķà¦°
à¦§à¦¨ à¦²à¦¬
à¦°à¦ľ à¦ª
à¦°à¦ľ à¦ľ
à¦°à¦ľ à¦Ĺ
à¦°à¦ľ à§Łà¦¨
à¦°à¦¦ à§Łà¦¸
Ġà¦ıà¦®à¦¨ à¦¤
Ġà¦ħà¦ª à¦ł
à¦°à¦² à¦ª
à¦°à¦² à¦Ļ
à¦¼à§ĭ '
à¦¼à§ĭ âĢĻ
à¦¼à§ĭ ?âĢĿ
Ġà¦ħà¦§ à¦¬
Ġà¦ķà¦² à¦²
Ġà¦ķà¦² à¦¯
Ġà¦ķà¦² à¦ļ
Ġà¦ķà¦² à¦Ń
Ġà¦ķà¦² à¦®à¦ª
à¦ļà¦² à¦°
à¦ļà¦² à¦¹
à¦ªà¦¤ à¦¤
Ġà¦¸à¦¹ à¦ħà¦¸
Ġà¦¸à¦¹ à¦ħà¦¬à¦¸
à¦®à¦ķ à¦¨
à¦®à¦ķ à¦®
à¦®à¦ķ à¦£
à¦°à¦ĩ à¦¨
à¦¹à¦° à¦°
à¦¹à¦° à¦ĵ
à¦¹à¦° à¦«
à¦¸à¦¨ à¦ª
à¦ĩà¦¨ à¦¦
à¦ĩà¦¨ à¦¶
à¦ĩà¦¨ à¦Ń
à¦ĩà¦¨ à¦ĵà¦¯
Ġà¦ħà¦ļ à¦ªà¦²
Ġà¦Ńà¦° à¦Ńà¦°
à¦ķà¦¬ à¦¯
à¦ķà¦¬ à¦ľ
à¦ıà¦ĩ à¦®
à§ĩ- ----
à¦°à¦ªà¦° à¦®
Ġà¦ķà¦¬ à¦¹
à¦Ńà¦¬ à¦®
à¦Ńà¦¬ à¦¦
à¦Łà¦ķ à¦¦
à¦Łà¦ķ à¦¶
à¦Łà¦ķ à¦£
à¦Łà¦ķ à¦°à¦£
âĢ¦ âĢĻà¥¤
âĢ¦ à¥¤âĢĺ
à¦¯à¦¨ à¦Ĺà¦°
Ġà¦ķà¦¤ à¦¤
Ġà¦ķà¦¤ à¦®à¦¤
Ġà¦ķà¦® à¦¦
à¦¤à¦² à¦ª
à¦¤à¦² à¦Ń
à¦¾âĢĶ âĢĵ
à¦Ĺà¦¨ à¦ĩ
à¦Ĺà¦¨ à¦¹
à¦Ĺà¦¨ à¦ĵà¦¯
Ġà¦°à¦Ļ à¦¤
Ġà¦°à¦Ļ à¦ķ
Ġà¦°à¦Ļ à¦®
Ġà¦¸à¦ķ à¦®
à¦Ĺà¦° à¦Ł
Ġà¦ªà¦¦ à¦ĩ
Ġà¦ªà¦¦ à¦Ľ
Ġà¦ªà¦¦ à¦Ĺ
Ġà¦ªà¦¦ à¦¦à¦²à¦¨
à¦®à¦° à¦Ļ
à¦®à¦° à¦«
à¦¸à¦° à¦Ł
à§ĩ! *
à§ĩ! âĢĻâĢĶ
à§ĩ! âĢ¦.
à¦°à¦Ń à¦¨
à¦°à¦Ń à¦®à§Ł
Ġà¦¶à¦° à¦Ļ
à¦¶à¦¬ à¦ĩ
à¦¶à¦¬ à¦¦à¦²
à¦¶à¦¬ à¦ļà¦°à¦£
à¦¦à§Ł à¦¹
à¦¦à§Ł à¦¯à¦¨
à¦¦à§Ł à¦®à¦£
à¦ªà¦¦ à¦²
à¦ªà¦¦ à¦£
à¦ªà¦¥ à¦¯
Ġà¦¨à§Ł à¦¨à¦¨
Ġà¦ħà¦®à¦² à¦¸
Ġà¦ħà¦®à¦² à¦§
âĢĮ ,
âĢĮ âĢĶ
âĢĮ à§įâĢĮ
à¦ıà¦ķ à¦¨
à¦ıà¦ķ à¦Ń
à¦ıà¦ķ à¦ĺà¦£
à¦ıà¦ķ à¦Ŀà¦²à¦ķ
à¦¾? ,
Ġà¦Ĺà¦¨ à§İà¦ķ
Ġà¦ıà¦° à¦ľà¦¨
Ġà¦Ĩà¦°à¦ĵ à¦ĩ
à¦¨à¦ķ à¦¦
à¦¨à¦ķ à¦ª
à§Ģà¥¤ (
Ġà¦Ĺà¦° à¦°
à¦®à¦£ à¦ª
à¦®à¦£ à¦¦à¦²
Ġà¦ħà¦ķ à¦¶à¦¨
à¦¦à¦² à¦°
à¦¦à¦² à¦Ĺ
Ġà¦¶à¦¹à¦° à¦¬à¦¨
à¦¬à¦¸ à¦¹à¦ķ
Ġà¦¬à¦ĩ à¦ĺà¦°
Ġà¦¬à¦ĩ à¦Ńà¦°
Ġà¦®à¦° à¦Ĺ
Ġà¦ħà¦ªà¦° à¦ª
à§įâĢĮ à¥¤âĢĻ
à¦°à¦ª à¦°à¦¤
à¦Łà¦² à¦ĩ
à¦Łà¦² à¦¡
à¦Łà¦² à¦ĵ
Ġà¦«à¦² à¦«
Ġà¦«à¦² à¦Łà¦²
à¦¬à¦¦ à¦¶
à¦¯à¦® à¦¬
à¦¯à¦® à¦¦
à¦¯à¦® à¦ľ
à¦·à¦ķ à¦ª
à¦·à¦ķ à¦¦à¦²
à§ģ, âĢĻ
Ġà¦²à¦ķ à¦ļ
à¦¨à¦Ł à¦¦
Ġà¦ĵà¦ĩ à¦Ĺ
à¦ħà¦¨ à¦²à¦¨
à¦¤à¦® à¦ŀ
à¦¤à¦® à¦ªà¦¤
à¦¾! -
à¦¾! âĢĵ
à¦¾! âĢĻâĢĶ
Ġà¦ĩà¦¨ à¦ļ
à¦¸à¦² à¦ĸ
à¦ªà¦ķ à¦ª
à¦ªà¦ķ à¦ĵ
à¦ľà¦² à¦ĩ
à¦ľà¦² à¦¹
à¦®à¦¬ à¦°à¦£
Ġà¦ħà¦¶ à¦¤
à¦¶à¦ķ à¦ª
à¦¶à¦ķ à¦ĩ
à¦¨à¦¦ à¦ķ
à¦¨à¦¦ à¦¸
Ġà¦Ĩà¦§ à¦²
Ġà¦Ĩà¦§ à¦«
à¦¬à¦ķ à¦¸
à¦¬à¦ķ à¦ĩ
à¦¬à¦ķ à¦ļ
à¦¬à¦ķ à¦ł
à¦¬à¦ķ à¦¸à¦¹
à§ĩ; )
Ġà¦ıà¦ķà¦¦ à¦Ļ
à§Łà¦¨ à¦ĩ
à¦°à¦ķà¦® à¦Ł
à¦°à¦ķà¦® à¦Ń
à§ģâĢĻ !
à§ģâĢĻ âĢĶ
Ġà¦ĩà¦ļ à¦Ľ
Ġà¦ħà¦¬à¦¸ à¦°à¦ķ
Ġà¦ħà¦¬à¦¸ à¦°à¦¹
à¦¯à¦¸ à¦¦
à¦¯à¦¸ à¦ĸ
à¦¯à¦¸ à¦°à¦ķ
à¦¯à¦¸ à¦¹à¦ļà¦°
à¦¬à¦¬ à¦®
à¦¹à¦¨ à¦°
à¦¹à¦¨ à¦Ń
Ġà¦īà¦ªà¦° à¦Ł
Ġà¦Ńà¦¬ à§İ
à¦ªà¦Ł à¦ªà¦Ł
à§ĩà¥¤âĢĿ âĢĶ
à§° à¦ļà¦²
à§° à¦¸à¦¨
à§° à¦®à¦¶
à§° à¦¤à¦¹
à§° à¦ªà¦ŀ
à¦ķà¦¨ à¦ļà¦¨
à¦ķà¦¨ à¦Ĺà¦°
à¦ķà¦¨ à¦ľà¦°
à¦ķà¦¨ à¦²à¦ľ
Ġà¦¶à¦¤ à¦¸
Ġà¦¶à¦¤ à¦Ł
Ġà¦¶à¦¤ à¦Ľ
Ġà¦¶à¦¤ à¦ļ
Ġà¦¶à¦¤ à¦ľà¦¨
!âĢĿ âĢ¦
à¦ĸà¦¬ à¦°à¦£
à¦¸à¦« à¦Ł
à¦¸à¦ķ à¦Ń
à¦¸à¦ķ à¦¬à¦°
à¦¸à¦ķ à¦Ĺà¦£
Ġà¦¨à¦¬ à¦¶
Ġà¦¨à¦¬ à¦Ľà¦°
Ġà¦¨à¦¬ à¦Ĺà¦¡
Ġà¦Ĺà¦¤ à¦¦
Ġà¦¬à¦¦à¦² à¦Ł
à§ģ- --
à¦¥à¦¨ à¦¸
à¦¥à¦¨ à¦ª
à¦¼à¦¾, -
à¦¼à§Ģ âĢĻ
à¦¨à¦¸ à¦ªà¦¥
à¦¨à¦¸ à¦ķà¦¨
à¦Ĩà¦ľ à¦®à¦²
à¦ªà¦¸ à¦°à¦£
Ġà¦Ĩà¦Ļ à¦°
à¦°à¦ľà¦¨ à¦¨à¦¶
Ġà¥¤ âĢĻ
à¦ĩà¦Ł à¦ĩ
à¦ĩà¦Ł à¦ĵ
à¦ĩà¦Ł à¦ĵà¦¯
à¦¨à¦Ĺ à¦¡
à¦¨à¦Ĺ à¦£
Ġ( !)
Ġ( ?)
à¦¥à¦° à¦ĺ
Ġà¦Ĺà§ľ à¦ªà§ľà¦¤
à¦«à¦² à¦ª
à¦Ĺà¦ľ à¦ķ
à¦Ĺà¦ľ à¦Ń
à¦Ĺà¦ľ à¦ĵà¦¯
à¦ªà¦· à¦ľ
Ġà¦¸à¦¹à¦ľ à¦ķ
Ġà¦Ĩà¦¹ à¦°à¦£à¦ķ
à¦īà¦² à¦ª
à¦¼à¦¾à¥¤ "
à¦Ĩà¦° à¦«
à¦Łà¦¬ à¦¹à¦°
Ġà¦ĭ à¦¯
Ġà¦ĭ à¦¤à¦¨
à¦°à¦¹à¦£ à¦§à¦°
Ġà¦ĺà¦¨ à¦®
Ġà¦ĺà¦¨ à¦¤à¦°
Ġà¦ĺà¦¨ à¦ªà¦¤
Ġà¦ĺà¦¨ à¦ľà¦Ļ
Ġà¦°à¦ĩà¦² à¦¬
à¦°à¦Ĺ à¦ķ
à¦°à¦Ĺ à¦®à¦¨
à¦Ĺà¦¬ à¦ī
à¦Ĺà¦¬ à¦¦à¦²
Ġà¦Ľà¦¨ à¦Ľà¦¨
Ġà¦ıà¦¨ à¦Ń
à¦°à¦®à¦£ à¦¦
à¦°à¦®à¦£ à¦ľ
à¦°à¦®à¦£ à¦°à¦¤
à¦°à¦®à¦£ à¦ªà¦¤
à¦·à¦® à¦¸
ĠâĢĵ âĢĿ
ĠâĢĵ âĢĻ
à¦ķà¦¶ à¦¯
à¦ķà¦¶ à¦ĩ
à¦¿! "
à¦¿! -
à¦¿! ---
à¦¿! ''
Ġà¦ªà¦² à¦®
à¦ľà¦¸ à¦¹
à¦ıà¦¬ à¦®à¦¸
à¦®à§Ł à¦®
à¦®à§Ł à¦ª
à¦®à§Ł à¦ĩ
Ġà¦¦à¦¶ à¦ª
Ġà¦¦à¦¶ à¦ĸ
Ġà¦¦à¦¶ à§İ
Ġà¦īà§İà¦¸ à¦¸
Ġà¦īà§İà¦¸ à¦Ĺ
Ġà¦īà§İà¦¸ à¦Ń
Ġà¦īà§İà¦¸ à¦¬à¦ª
à¦ķà¦¦ à¦¦à¦¸
à§ĭâĢĶ "
à§ĭâĢĶ âĢĻ
à¦ķà¦¡ à¦¨
Ġà¦¸à¦ļ à¦²à¦¤
à¦Ĩà¦² à¦¹
à¦Ĩà¦² à¦ĵà¦¯
à¦Ĩà¦² à¦Ĺà¦°
à¦¾âĢĵ âĢĵ
Ġà¦¬à¦Ł à¦¨
Ġà¦¬à¦Ł à¦ª
Ġà¦ļà¦° à¦ļà¦°
Ġà¦¬à¦ķ à¦¸
Ġà¦¬à¦ķ à¦ª
Ġà¦Ĺà¦£ à¦ķ
Ġà¦Ĺà¦£ à¦Ĺ
Ġà¦Ĺà¦£ à¦¹
Ġà¦Ĺà¦£ à¦§à¦°
Ġà¦Ĺà¦£ à¦ħà¦Ń
Ġà¦¨à¦°à¦® à¦¸
à¦ľà¦¬ à¦¸à¦¨
à¦ľà¦¬ à¦īà¦®
à§ĭ? "
à§ĭ? à¥¤
à¦Łà¦¨ à¦Ĺà¦°
Ġà¦¬à§Ł à¦·
à¦¦à¦® à¦ł
Ġà¦Ńà§Ł à¦¬
à¦®à¦Ł à¦°à¦¶
Ġà¦Ĩà¦¦à¦° à¦ĵ
Ġà¦Ĩà¦¦à¦° à¦¯à¦¤
Ġà¦Ĩà¦¦à¦° à¦Ńà¦°
Ġà¦¬à¦ī à¦¤
Ġà¦¬à¦ī à¦Ĺ
à¦®à¦°à¦£ à¦®
à¦®à¦°à¦£ à¦ļ
à¦®à¦°à¦£ à¦¹
à¦²à¦® à¦ĸ
à¦²à¦¯ à¦ľ
à¦Ĺà¦® à¦¹
à¦Ĺà¦® à¦°à¦¤
à¦²à¦Ĺ à¦Ł
à¦¶à¦ª à¦²
à¦¶à¦ª à¦ŀ
à¦²à¦¸ à¦ıà¦°
à¦¹à¦°à¦£ à¦ķ
âĢĺ âĢĺ
Ġà¦°à¦¸ à¦°à¦¤
Ġà¦°à¦¸ à¦¸à¦ŀ
Ġà¦¬à§ľ à¦ľ
Ġà¦īà¦ªà¦¸ à¦ļ
à¦¼? âĢ¦
Ġà¦īà§İà¦¸à¦¬ à¦ķ
Ġà¦īà§İà¦¸à¦¬ à¦®à¦¯
Ġà¦§à¦¨ à¦®
Ġà¦§à¦¨ à¦§
Ġà¦§à¦¨ à¦Ŀà¦°
à¦ĸà¦° à¦°
à¦°à§Ł à¦¸
à¦°à§Ł à¦¹
à¦¡à¦² à¦°
à¦¡à¦² à¦ĵ
Ġà¦Ī à¦ľ
Ġà¦Ī à¦Ĺà¦°à¦ķ
à¦¾âĢĻ )
à¦¾âĢĻ !âĢĿ
à¦¥à¦ķ à¦·
à¦¥à¦ķ à¦ĵ
à§¦ à§®
à¦ķà¦°à¦£ à¦Ł
à¦ķà¦°à¦£ à¦ĩ
à¦ķà¦°à¦£ à¦ĵ
Ġà¦ªà¦°à¦® à¦¸à¦¤
Ġà¦¶à¦¹ à¦°à¦¸
à¦¬à¦ļ à¦¤
Ġà¦īà¦ªà¦¨ à¦¦
à§« à§§
à¤ ¢
à¤ ī
Ġà¦®à¦² à¦¦
à¦ķà¦¸ à¦¦
à¦ķà¦¸ à¦ĵ
à¦ķà¦¸ à¦ŀ
Ġà¦īà¦· à¦¸
à¦¬à¦£ à¦®
à¦¬à¦ĩ à¦®
à¦¬à¦ĩ à¦ĸ
à¦¬à¦ĩ à¦Ĺ
à¦¬à¦ĩ à¦ªà§ľ
Ġt ap
à¦·à¦¦ à¦¦
Ġà¦¦à¦® à¦Ľ
Ġà¦¦à¦® à¦ļ
à§ĩà¥¤âĢĻ âĢĻ
à§ĩâĢ¦ "
Ġà¦ľà§Ł à¦ĩ
Ġà¦ľà§Ł à¦ĵ
à¦¶à¦® à¦¶
à¦ıà¦¸à¦¬ à¦ĵ
à¦®à¦¶ à¦Ļ
à¦®à¦¶ à¦¤à¦¬à¦°
à¦®à¦¦ à¦¬
à¦®à¦¦ à¦¨à¦¬
à¦£à¦¬ à¦§
à¦¼à¦Ĥ -
Ġà¦®à¦¸ à¦²à¦¨
Ġà¦¸à¦°à¦² à¦®à¦¨
Ġà¦¸à¦°à¦² à¦®à¦¤
à¦¦à¦Ĺ à¦£
à¦ĩà¦¡ à¦Ł
Ġà¦ħà¦Ł à¦²à¦ķ
Ġà¦ħà¦Ł à¦ªà¦Ł
Ġà¦ľà¦Ł à¦ª
à¦¥à¦² à¦ļ
à¦¤à¦¦ à¦ª
à¦¨à¦¶ à¦¤
à¦¨à¦¶ à¦¯
à§Ŀ à¦¸à¦®
Ġà§§à§¯ à§§à§ª
à§© à§¦à§¦
à§© à§«à§Ń
à§© à§ªà§¨
à¦¿âĢĻ à¥¤âĢĿ
à¦²à¦Ń à¦ķ
à§Ń à§§à§ªà§«
à¦®à¦ľ à¦¦
à¦Ĺà¦£ à¦ľ
à¦Ĺà¦£ à¦ĵ
à¦Łà¦Ľ à§ľ
à¦ļà¦Ł à¦ªà¦Ł
in ed
à¦ĩà¦¸ à¦Ĺ
à¦²à¦ª à¦ŀ
Ġà¦«à¦° à¦ĵà¦¯
à¦°à¦« à¦Łà¦Ł
à¦·à§Ł à¦¬
Ġà¦Ĩà¦ĩà¦¨ à¦Ł
Ġà¦Ĩà¦ĩà¦¨ à¦Ń
Ġà¦¨à¦Ĺà¦° à¦°à¦ķ
Ġà¦¹à¦ĩ à¦¹à¦Ł
an c
an e
an as
an ge
Ġà¦· à¦¨
à¦¨à¦ļ à¦£
à¦¶à¦° à¦ŀ
à¦Łà¦® à¦ĵ
à¦Łà¦® à¦ļà¦¨
à¦ľà§Ł à¦¦
à¦ľà§Ł à¦¶à¦Ļ
à¦¤à¦Ń à¦°à¦¤
Ġà¦ķà§Ł à¦¦
Ġà¦ĵà¦ª à§ľ
Ġà¦ªà¦²à¦ķ à¦ķ
Ġà¦ªà¦²à¦ķ à¦Ĺ
Ġà¦ªà¦²à¦ķ à¦Ŀ
Ġà¦ªà¦²à¦ķ à¦Ńà¦°
à¦¨à¦Ľ à¦¡
Ġà¦¸à§İ à¦ļà¦ķ
.. ..
à¦ĩà¦ľ à¦Ń
on om
on est
à¦¨à§Łà¦¨ à¦¯
à¦¨à§Łà¦¨ à¦ľà¦²
à§ĩ!âĢĿ ,
Ġà¦¶à¦ªà¦¥ à¦ª
re n
re ct
Ġà¦Ĩà§ľ à¦¤
à¦®à¦ļ à¦ļ
Ġà¦®à¦¨à¦¨ à¦§à¦°
à¦¦à¦¬ à¦¦à¦¨
à¦Ĺà¦°à¦£ à¦®
à¦¬à¦ľà¦¨ à¦®
à¦¬à¦ľà¦¨ à¦¶
à¦¬à¦ľà¦¨ à¦ªà¦°
à¦¬à¦ľà¦¨ à¦¸à¦®à¦ķ
à¦ħà¦¸ à¦¬à¦°
à¦¼! -
à§Ģ! "
Ġà¦ªà¦Ł à¦ªà¦Ł
à¦ķà§ľ à¦¸
Ġà¦ĩà¦¸ à¦¥
Ġà¦®à¦¦ à¦¦
Ġà¦ķà¦®à¦² à¦ı
Ġà¦¤à¦¨ à¦ĸ
Ġà¦¤à¦¨ à¦ŀ
à¦ªà§ľ à¦Ł
at es
at ant
at ory
Ġà¦ķà¦²à¦® à¦«
à¦¾à¦ĥ âĢ¦
al a
al s
al on
al th
à¦¨à¦® à¦Ļ
à§¬ à§¨
à§¬ à§Ń
Ġà¦«à¦¸à¦² à¦°
à¦ķà¦ª à¦¯
à¦ķà¦ª à§Ł
Ġà¦Ĩà§Ł à¦ķà¦°
à¦¬à¦°à¦¤ à¦¨
à¦¬à¦°à¦¤ à¦²
Ġthe e
Ġthe ory
à¦¿?âĢĿ ,
à¦¿?âĢĿ âĢĵ
à¦¸à¦®à§Ł à¦ķ
à¦²à§Ł à¦Ĺ
Ġ! )
Ġà¦ıà¦¡ à¦ĵà¦¯
Ġà¦ıà¦¡ à¦ĵà§Ł
Ġà¦ıà¦¡ à¦¹à¦ķ
er pret
à¦Ĳ à¦°
à¦Ĳ à¦¯
à¦Ĳ à¦¦
en ed
Ġà¦ħà¦¬à¦¨ à¦¤à¦¶
Ġà¦ļà¦® à¦ķà¦Ł
Ġo cc
à§¯ à§§
à§¯ à§Ń
it ual
it Ã©
à¦¾âĢĿ !
à¦ļà§ľ à¦Ĺ
Ġà¦ľà§ľ à¦¸à§ľ
à¦¬à¦°à¦£ à¦Ł
à¦¬à¦°à¦£ à¦ĩ
à¦¬à¦°à¦£ à¦ĵ
à¦¾âĢ¦ !
à¦¾âĢ¦ âĢĿà¥¤
à¦¾?âĢĻ âĢĶ
à¦¨à¦¹ à¦«
à¦¡à¦¬ à¦Ĺà¦£
Ġs ing
Ġs un
Ġs ure
Ġs ight
Ġs we
Ġs ense
Ġs atisf
Ġà¦Ĺà¦łà¦¨ à¦§à¦°
à¦¬à§Ł à¦ķ
à¦²à¦« à¦£
à§® à§¯
à§ĭ?âĢĿ âĢĵ
Ġà¦ļà¦°à¦£ à¦Ľ
à¦ļà¦°à¦£ à¦¦
Ġ: -
Ġ: âĢĵ
Ġà¦Ĩà¦Ł à¦ĩ
Ġà¦Ĩà¦Ł à¦Ĺ
Ġà¦Ĩà¦Ł à¦ĺà¦°
Ġà¦Ĩà¦Ł à¦¦à¦¶à¦Ł
Ġà¦ļà¦¶à¦® à¦ĸ
Ġà¦°à¦ľ à¦¬à¦¸
Ġà¦ħà¦¬à¦¦ à¦®à¦¨
Ġà¦¨à¦¹ à¦·
à¦ĩà¦ļ à¦£
à¦¯à§Ł à¦ĵ
à¦¯à§Ł à¦®à§Ł
Ġà¦Ĩà¦ĸ à¦ĸ
Ġà¦Ĩà¦ĸ à¦°à¦Ĺ
Ġà¦Ĺà¦ľ à¦¦à¦¨
Ġà¦Ńà¦°à¦¤ à¦ĩ
Ġà¦Ńà¦°à¦¤ à¦Ĺ
à¦¸à¦²à¦® à¦«
à¦§à¦® à¦ŀ
Ġà¦°à¦¤à¦¨ à¦°
Ġà¦°à¦¤à¦¨ à¦¦
Ġà¦°à¦¤à¦¨ à¦ªà¦²
à¦¿âĢ¦ âĢĻà¥¤
Ġà¦ľà¦Ĺà§İ à¦®
Ġà¦ľà¦Ĺà§İ à¦ªà¦¤
Ġa chie
à¦Łà¦¸ à¦ıà¦°
Ġà¦¬à¦ªà¦¨ à¦ķ
à¦ĸà¦¸ à¦¡
Ġà¦¬à¦¦ à¦ĸà¦¤
Ġà¦Ĩà¦ĩ à¦°à¦¨
Ġà¦Ĩà¦ĩ à¦¨à¦¬
Ġà¦Ĩà¦ĩ à¦·à¦®
Ġà¦°à¦¥ à¦ļ
à¦Ŀà¦ķ à¦®à¦ķ
Ġà¦ĭà¦£ à¦ĩ
Ġc re
Ġc iv
Ġc ry
Ġc reat
Ġc ase
Ġà¦¶à¦¤à¦ķ à¦£
Ġà¦Ŀà¦ķ à¦ľà¦ķ
Ġà¦®à¦°à¦£ à¦¬
Ġà¦®à¦°à¦£ à¦ª
Ġà¦®à¦°à¦£ à¦¹
Ġà¦®à¦°à¦£ à¦ĵ
à¦¬à¦Ĺ à¦®à¦¨
or n
or s
à¦Ĺà¦¦ à¦ĸà¦²
Ġm g
Ġm in
Ġm on
Ġm el
Ġm ess
Ġm ass
Ġm ain
Ġm ight
Ġm ap
Ġm ount
Ġm oral
Ġm ixed
Ġw ind
Ġw ild
Ġw ants
à¦¬à¦¤à¦¨ à¦°
Ġà¦¨à¦° à¦ªà¦¤
à¦Ĺà¦¸ à¦ĩ
ar ly
à¦¯à¦°à¦ķà¦® à¦ĩ
à¦¯à¦°à¦ķà¦® à¦ĵ
à¦¿!âĢĿ à¥¤
Ġà¦¸à¦«à¦² à¦ĵ
à¦īà¦ĩ à¦¶
Ġb re
Ġb our
Ġb ody
à¦¬à¦ªà¦¨ à¦ª
à¦¬à¦ªà¦¨ à¦ļ
à¦Ĺà¦Ł à¦Ĺà¦¬
à¦ĭ à¦ķ
à¦ĭ à¦ľ
Ġà¦°à¦£ à¦§
Ġà¦°à¦£ à¦¤à¦°
Ġà¦°à¦£ à¦°à¦Ļ
Ġà¦°à¦£ à¦ļà¦£
à¦·à¦¸ à¦ĵ
à§ģà¦Ĥ ,
à§ģà¦Ĥ à¥¤
Ġp at
Ġp rit
Ġp ress
Ġp ath
Ġp erson
Ġp oint
Ġp ublic
Ġp hilosop
Ġp ract
Ġp atriot
Ġà¦ķà¦¦ à§°
ing dom
ed y
à¦ħà¦ª à¦¹à¦°à¦£
à¥¤à¥¤ à¥¤
Ġà¦®à¦Ĺ à¦§à¦¦
à¦®à¦²à¦¤ à¦®
Ġf ul
Ġf res
Ġf ear
Ġf ell
ou l
ÂłÂłÂłÂłÂłÂłÂłÂłÂłÂłÂłÂłÂłÂłÂłÂł ÂłÂłÂłÂłÂłÂłÂłÂłÂłÂł
Ġà¦Ĺà¦Ĺà¦¨ à¦¸
Ġà¦Ĺà¦Ĺà¦¨ à¦Ń
ic o
ic es
à¦ľà¦ĩ à¦īà¦¨
Ġà§© à§©
Ġà§© à§ª
à§Īà¦ĥ !
à§Īà¦ĥ -
à§Īà¦ĥ âĢĵ
à§Īà¦ĥ âĢ¦
à¦ĩà¦ĸ à¦°à¦ļ
as ic
Ġd er
Ġd ut
Ġd ay
Ġd am
Ġd iv
Ġd own
Ġd awn
Ġd etected
Ġd omin
Ġd aughter
Ġà¦¬à¦°à¦£ à¦®
Ġà¦¸à¦« à¦¦à¦°
Ġà¦ĩà¦ī à¦Ĺ
à§ĭâĢĵ âĢĿ
à§ĭâĢĵ âĢľ
Ġh ard
Ġh ope
Ġh alf
Ġà§§à§¯à§Ń à§ª
à¦¬à§ľ à¦ĩ
à¦ħà¦ªà¦° à¦ķ
à¦ħà¦ªà¦° à¦ªà¦ķ
Ġà¦Ĩà¦¬à¦°à¦£ à¦ķ
le y
le ment
Ġà¦ķà¦¦à¦® à¦ª
Ġà¦¹à¦Ł à¦¬à¦ķ
Ġà¦¹à¦Ł à¦ªà¦Ł
à§ĩâĢĿ -
à§ĩâĢĿ ?
à¦¡à¦ķ à¦°à¦ķ
Ġà¦¨à§ľ à¦¬
Ġà¦ĵà§Ł à¦°
à§ĢâĢĻ !
à§ĢâĢĻ -
Ġà§¨à§¦ à§§à§¬
Ġà§¨à§¦ à§Ńà§«
Ġà§¨à§¦ à§Ńà§§à§ªà§«
Ġà¦²à¦Ļ à¦ĺà¦¨
Ġà¦¶à¦°à§İ à¦¸à¦¨
Ġà¤ Ń
à¦ĸà¦Ĺ à¦¹
Ġl ast
Ġl og
Ġl ib
Ġth ose
Ġth ought
Ġin vol
à¦°à¦¬à¦£ à¦¯
à¦ıà¦ķà¦¬ à¦Ľà¦°
Ġà¦ħà¦¬à¦¸à¦° à¦Ĺ
Ġà¦ħà¦¬à¦¸à¦° à¦ĵ
à¦Ī à¦ľ
Ġn on
Ġn or
Ġn ow
Ġn oun
à§ĭâĢ¦ .
à§ĭâĢ¦ à¥¤âĢĿ
à§ĭâĢ¦ âĢĻà¥¤
Ġà¦¦à¦®à¦¨ à¦®
Ġà¦¦à¦®à¦¨ à¦¶
Ġà¦¨à¦Ĺ à¦°à¦¸à¦®
Ġà¦¨à¦Ĺ à¦°à¦¸à¦Ń
ĠI D
ĠI SO
Ġà¦¶à¦® à¦¦à¦®
st er
st and
ol at
ot ed
ot ol
ot oc
ra m
Ġà¦ľà¦¨à¦Ĺà¦£ à¦®à¦¨
Ġto get
all er
all iteration
à¦ĩà¦¸à¦¬ à¦Ĩà¦®à¦°
ĠA R
ĠA b
ĠA y
ĠA ch
ĠA cc
ĠA RE
ĠA VIN
Ġà§« à§¯
à§§à§¯ à§ªà§«
Ġbe gin
Ġà¦ķà¦²à¦ķà¦² à¦¨
à¦ļà¦ľà¦¨ à¦ĵ
ĠP e
ĠP re
ĠP ar
ĠP ro
ĠP IN
ĠP resent
ĠP hilosop
ent s
ut s
ut ta
Ġe ch
Ġe lse
Ġe lement
Ġà§ª à§¯
il t
il ity
Ġà§§à§© à§©à§§
Ġà§§à§© à§ªà§®
Ġà§§à§© à§¬à§©
Ġà§§à§© à§¦à§¬
à§ĩà¥¤à¥¤ âĢĺ
à¦ªà¦Ļ à¦ķ
Ġà¦ĺà§ľ à¦ĺà§ľ
ĠB D
à¦¼âĢ¦ à¥¤âĢĻ
ĠM ar
Ġà¦īà¦ĩà¦² à¦¸
ĠS ol
ĠS pe
ĠS TEM
à¦Ĭ à¦¨à¦¸à¦¤
à¦¨à§Ł à¦¨à¦¬
à¦¨à§Ł à¦¨à¦¦
el a
à¦¨à¦¡ à¦°à¦«
à§§à§¦ à§§
à§§à§¦ à§¬
un d
un t
Ġre st
Ġre qu
Ġre vere
ĠT rag
ĠT HEY
Ġà¦Ĺà¦ł à¦¨à¦Ł
à¦¿' -
à¦¿' ;
à¦¿' ?
Ġà¦²à¦Ĺ à¦ĩà¦¨
à¦ıà¦ķà¦¤ à¦²
ur y
Ġà¦¦à¦°à¦¦ à¦¸
Ġà¦ľà¦¨à¦ªà¦¦ à¦Ĺ
Ġg u
Ġg ive
Ġg reed
Ġg lobal
à¦¸à§İ à¦ļà¦°
à¦¬à¦°à¦ķ à¦£
à¦ªà¦¤à¦¨ à¦ķ
à¦°à¦Ŀ à¦Ļ
im in
ch af
à¤¾ ,
à¤¾ à¤Ĥ
à¤¾ à¤ģ
ow rah
id ge
id ered
id den
ĠR E
ĠR ain
ĠR ama
à§ĩà¦ĥ !
Ġà¦¬à¦ļà¦¨ à¦®à¦¬
à§§à§Ń à§«à§Ń
ÂŃ à§ĩ
à§ģ; -
Ġà¦ķà¦¨à¦ķ à¦ķ
Ġà¦ķà¦¨à¦ķ à¦ļ
Ġà¦ĸà§ľ à¦®
us h
us s
ver t
Ġà¦Ĩà¦ķà¦¬à¦° à¦Ń
Ġà§§à§® à§¦à§¦
Ġà§§à§® à§®à§ª
Ġà§§à§¯à§ª à§©
Ġà§§à§¯à§ª à§¬
Ġà§¬ à§ª
Ġà§¬ à§¯
Ġà§¬ à§®
Ġwh y
od ox
Ġà¦ªà¦¬à¦¨ à¦ª
if or
à¦¼à¦ĥ âĢĵ
Ġà¦Ĺà¦²à¦¦ à¦ĺà¦¨
ul y
ĠC O
ĠC ol
ĠC ent
ĠC op
ĠC ass
ĠC ons
ĠC olog
ĠC aller
à¦¾' ,
Ġ| |
am i
am p
am es
am work
à¦Ńà¦Ĺ à¦¬à¦¦
ĠD BD
à¦¼âĢĻ ?
à¦Ĺà¦²à¦ķ à¦¬
Ġà¦¯à¦¤à¦¬ à¦¡
à¦Ĺà¦ļ à¦ŀ
Ġà§§à§¨ à§¦
à¤° à¦¤
à¤° à¤ķ
Ġà§¯ à§¦à§¦
ha ps
ĠN F
ĠN o
ĠN ow
ĠN atural
à§ĩ,âĢĻ âĢĻ
ro ve
à¦¨à¦¬à¦¨ à¦¨
ci bel
Ġà§§à§« à§Ń
Ġà¦īà¦ĩ à¦£
Ġha ving
Ġà¦®à¦¤à¦²à¦¬ à¦¬
Ġfor ms
Ġfor mal
Ġà¦¦à¦«à¦¤à¦° à¦Ĺ
Ġst at
Ġst and
Ġst ra
iv ity
ĠG osp
à¦ıà¦ĩà¦ļ à¦ıà¦¸
à¤¤ à¤¨
ĠH uman
ĠH eat
ĠH aih
ĠH owrah
Ġà¦«à¦²à¦¨ à¦¶
nd er
her s
ĠE id
ĠE ng
âĢĻâĢĵ âĢĺ
Ġà§§à§Ń à§¬à§¦
Ġcon st
Ġcon cern
ure s
Ġ= ========
Ġà§® à§«
Ġà§® à§ª
Ġà§® à§®
Ġà¦¸à¦ªà¦¨ à¦ªà¦¥
ĠL iter
ĠL ike
ĠL ake
ĠL alon
à¦¶à¦§à¦° à¦°
ist s
ist er
ip e
ip ped
à¦¯à¦Łà¦ķ à¦ķ
Ġà¦¬à¦¦à¦° à¦īà¦¦
ĠÐ ¸
Ġon ce
Ġà§§à§¯à§¬ à§§
Ġà§§à§¯à§¬ à§¯
op h
Ġan other
Ġà¦ªà¦ª à¦Ĩà¦ª
Ġà§¨à§¦à§¦ à§¬
à¦¡à¦īà¦ĩà¦ļ à¦Ĺ
Ġà¦§à§ľ à¦ķà¦¨
Ġà¦§à§ľ à¦®à§ľ
Ġà§§à§¯à§® à§Ń
Ġv ol
Ġv edic
Ġà¦¬à¦°à¦® à¦ļà¦¨
Ġun d
Ġun known
Ġun iversal
Ġun ifor
Ġne ed
um er
um ph
à¦¼) ;
Ġà¦ªà¦łà¦¨ à¦¶
ĠW hat
Ġà¦¬à¦Ľ à¦°à¦¤
Ġà¦¬à¦Ľ à¦°à¦¬
Ġà¦¬à¦Ľ à¦°à¦ľ
ant ic
ab lished
Ġà¦ĸà¦ª à¦ĸà¦ª
à¤¨ à¤ķ
à§ĩ' ,
Ġyou th
Ġyou ng
Ġk ill
Ġk ey
Ġk eep
Ġà¦ķà¦®à¦¨ à¦°
art h
art y
à§§à§® à§«à§Ń
ore st
Ð° ÑĢ
Ð° Ð»
Ġhe aven
ak ing
à¸ ¥
à¸ ´
à¸ ¸
à¸ Ļ
ass ion
ast ic
Ġde ep
Ġde cibel
à¦ĸà§ľ à¦Ĺ
Ġà¦ķà¦ĵ à¦¸à¦°
Ġor gan
à¦¼âĢĿ !
à¦Ĩà¦īà¦Ł à¦¡
Ġme asure
qu ism
à¦¬à¦ķà¦² à¦¹
Ðµ Ð
Ðµ Ð»
Ðµ Ð´
ÑĢ Ð¸
ÑĢ Ñĥ
ĠO n
Ġex pl
Ġex ec
Ġex press
Ġex tra
ĠThe y
ain s
ain able
ge ois
Ð¾Ð ´
Ð¾Ð ·
Ð¾Ð º
Ð¾Ð ¼
ust ri
Ġcom b
ĠF re
ment ed
Ġr un
Ġr ight
Ġr hy
Ġr itual
Ġind ustri
ĠK h
à¦¶à¦®à¦¨ à¦¦
Ġà¦ĭà¦ķ à¦®à¦¨
Ġà§§à§¯à§© à§¨
Ġà§§à§¯à§© à§¬
Ġpro cla
Ġpro bab
ie ve
th at
Ġà¦Ĩà¦ī à¦Łà¦ķ
Ġà¦Ĩà¦ī à¦Łà¦°
Ġà¦ĺà¦Łà¦ķ à¦ķ
Ġà¦ĺà¦Łà¦ķ à¦®à¦¶
Ġsp here
ord s
ord in
àª ¿
Ġà¦ıà¦ĩà¦ļ à¦Ĩà¦°
Ġab s
Ġì ĭ
Ġì ŀĲ
Ġal ive
Ġal one
à§ģâĢĿ !
Ġà§§à§¬ à§§
ap hysical
ib le
Ð» Ðµ
à¦°à¦Ĺà¦² à¦Ńà¦¤
Ġà¦Ĩà¦ĵ à¦°à¦¤
Ġà¦«à§ľ à¦«à§ľ
con struction
Ġ1 9
Ġj ud
Ġj oy
Ġà¤¸ à¤¤
oss ip
Åĵ à¦¨
Ð½ Ð¾
à§§à§¯à§Ń à§«
à§§à§¯à§Ń à§©
ĠRe hana
ĠU rvasi
à¦ķà¦ªà¦Ł à¦¤
.âĢĻ âĢĻ
Ġ× ¨
Ġ× ķ×
Ġ× ŀ×
à¦Ķ à¦ªà¦¨
à¦¦à¦¸à¦® à¦·
à¦Ĺà¦°à¦¬ à§İ
ÛĮ Ø±
ĠTh at
Ġcollective ly
Ú© ÙĦ
Ġë ĭ
Ġdis cont
Ġà§ªà§« à§©
TE D
Ġà¦Īà¦Ĺà¦° à¦ĵ
Ñĥ Ñĩ
à¥ĭ à¤Ĥ
Ġle ast
Ġà¦¬à¦°à¦ķ à¦¤à¦®à¦¯
à¦ĩà¦²à¦«à¦²à¦ķ à¦Ĺ
ĠIn spect
Ġem ph
Ġcont in
Ġcont inu
Ġcont empor
gal ow
Ġáĥ Ľ
Ġáĥ £áĥ
Ġapp l
Ġpr inci
IN G
ck ed
for ce
olog ical
==== =
à§©à§¯ à§®
rad iction
à§§à§¯à§¬ à§¨
Ġà¦Ĺà¦Ĺ à¦¨à¦¤à¦²
âĢ¦âĢ¦ âĢ¦âĢ¦
Ġliter acy
Ġbec ame
âĢĶâĢĶâĢĶâĢĶ âĢĶâĢĶ
av a
av i
av id
mat ic
yan i
Ġà¦§à¦¨à¦¬ à¦£
Ġsol itude
Ġhim self
Ġres ist
ĠÂ ·
Ġsup port
Ġà¤Ĩ à¤¨
Ġrel ation
à¦ĩà¦· à¦·
Ġte ac
Ġte amwork
Ġpass ing
Ġpass age
ÂłÂłÂłÂłÂłÂłÂłÂłÂłÂłÂłÂłÂłÂłÂłÂłÂłÂłÂłÂłÂłÂłÂłÂł ÂłÂłÂłÂłÂłÂłÂłÂłÂłÂłÂłÂłÂł
az i
ject ive
ï¿½ ï¿½
Ġà¦®à¦°à¦ķ à¦¤
Ġà¦Łà¦ĩà¦Ł à¦ĩ
Ġad m
Ġhor ses
ER R
ä¸ Ģ
Ġro om
à¦¨à§ľ à¦¬à§ľ
Ġà¦īà¦Ń à¦ļà¦°
Ġcount ry
Ġà¤ī à¤¤
ĠSt ate
ĠRah ul
OO T
Ġ` `
ĠâĨ ĲâĨ
à¦¤à¦²à¦¬ à¦£à¦¤
Ġbl atant
Ġpur u
Ġà¦ĩà¦īà¦ıà¦¸ à¦ı
stru cture
Ġreg ion
Ġreg ard
ĠEm p
Ġcomm on
Ġart ifact
II I
à¦²à¦¦à¦² à¦Ĺ
Ġà¦¨à¦°à¦ª à¦¶
Ġsk ele
Ġcr ow
Ġdoub t
Ġdoub le
Ġhar m
ĠAr ch
Ġreal m
ular ity
Ġimagin ation
Ġimagin ary
---------------- ----------------
Ġsuper structure
EN T
SI G
SI ON
ivers ity
pr int
à¥¤* [*
Ġmat ters
Ġfa ith
asure s
ĠIsl and
Ġrep la
Ġstre ak
ĠUn iverse
person ality
xx xx
|| ||
ĠÎ ¼
à¦ıà¦Ĩ à¦ĩà¦¯
à¦ıà¦Ĩ à¦ĩà§Ł
à¤¼ à§ĩ
Ġcent re
Ġchar acter
Ġmet h
Ġper haps
ĠBrah man
áĥ£áĥ ļ
Ġà§§à§®à§¯ à§©
iven ess
Ġneg ation
Ġneg ative
Ġneigh b
cons cious
ĠÑģÐ» Ð¾Ð²
ÏĦ Îµ
à± ĩ
åķ ıãģ
Ġra pid
Ġent husi
Ġtri umph
Ġsin ce
Ġmer ry
Ġwom an
Ġwom en
entr ilo
Ġread y
Ġstru cture
Ġstru gg
Ġintellect ual
pin oza
rish na
×¢ ×
Ġà¦ľà¦ĸ à¦®à¦Ł
aly sis
ĠIN ITIATE
Ġà§§à§¨à§© à§ªà§«
ĠEd ucation
Ġvilla ge
Ġseem ed
Ġintegr ity
Ġprodu ction
Ġadop tion
Ġfunction al
Ġdiffere nt
PR O
Se en
Sha re
Un known
Õ¸ ÖĤ
ĠQ R
Ġri ver
ĠĠâĢ¨ čĊč
à¦ħà¦¨à¦¬ à¦°à¦¤
Ġtak en
Ġsim ple
Ġche ek
Ġmons oon
arri age
Ġbene ath
Ġpit ri
Ġfight ing
ĠParg iter
ĠBrit ish
ĠSag ara
ĠTur k
Ġwhis pered
ĠGer man
Ġcond ition
Ġvict ory
ribut e
ĠØ¨ Ø±
Ġmean ing
ÑĢÐ°Ð ¼
ĠOr ion
Ġsearch ing
Ġproject or
Ġsuff er
ĠìĿ ´
Ġimport ant
Ġstreng th
ymph ony
Ġchapt er
ĠGandhar va
Ġetern ally
ĠOffice Boss
HAT TA
YAB HATTA
oil a
worth y
åħ ī
ìĸ ´
Ġign or
Ġ55 5
Ġà¦ķØ§Ø ¦ÙĨ
Ġà¦¬un galow
Ġà¦¹à§ľà¦¹ à§ľ
Ġà¦ļà¦ªà¦ļ à¦ª
Ġà¦Ńà¦Łà¦Ń à¦Ł
Ġà¦ıà¦²à¦ıà¦¸ à¦¡
erpret ation
Ġachie ved
Ġciv il
Ġmel od
Ġbour geois
Ġprit he
Ġful fil
Ġfres h
Ġinvol ved
otoc ol
Ġtoget her
Ġbegin ning
Ġrevere nce
ĠTrag edy
ĠRain water
ĠCass io
ĠColog ne
ĠGosp el
ĠLike wise
Ġprocla im
Ġprobab ly
ĠInspect or
ĠâĨĲâĨ Ĵ
Ġskele ton
åķıãģ Ħ
entrilo quism
! à¥¤
" âĢĶ
% âĢĵ
% à¥¤âĢĿ
' âĢĶ
( âĢľ
( âĢĺ
) !
) âĢ¦
, )
, à¥¤
, âĢĻâĢĶ
- âĢĵ
. âĢĻâĢĶ
/ âĢĵ
0 6
5 8
6 1
6 9
: :
: âĢĵ
? âĢ¦.
? ''
A N
A n
A ch
A nd
A pp
A ll
A TION
A yesha
A CK
B T
B re
B ACK
C H
C S
C ont
C TED
D I
D S
D ER
D ITI
E L
E S
E m
E x
E ven
E ff
E co
F it
F ear
G re
H e
H u
H el
H ow
H onest
I M
I nd
J B
J un
K E
L aw
M I
M e
M aya
M rs
N CT
O D
O F
O H
O Y
O r
O ne
O ER
O ops
P A
P I
P L
P P
P V
P l
P r
P er
P as
P ressive
R es
R ep
R iya
R ob
S S
S Y
S h
S p
S t
S elf
U I
U p
U rb
V ol
V ERR
W e
W ill
W ord
X J
X III
X IM
Y ou
Z à¦ķ
[ âĢ¦
^ ^
a an
a it
a et
a ur
a ir
a red
b on
b ing
b ers
b ear
b ian
b ack
b eat
c r
c an
c er
c om
c ent
c ad
c ise
c use
d i
d in
d is
d le
d ent
d iv
d den
e h
e am
e vel
e fin
e val
f er
f it
f ound
f old
g y
g en
g overn
g rove
h o
h à¦¶
h ical
h ya
h ons
h ora
i y
i en
i et
i od
i ate
i ud
i que
j i
j u
k i
k u
k y
k en
k es
k ing
k har
l er
l ate
l ight
l ove
l ib
l ike
l ish
l ines
m n
m à¦¯
m ar
m ed
m ic
m ontu
m aster
n s
n u
n y
n ect
n ant
n Ä±
o i
o à¦¨
o ot
o og
o ok
o hi
p he
p ra
p ut
p ly
p ers
p ost
p oss
p ohela
p ath
p ons
p oy
p ond
p air
r on
r al
r is
r or
r ation
r ous
r oss
r one
r ary
r usion
s a
s on
s il
s ign
s atri
s App
t z
t es
t ain
t hen
t old
t agon
u er
u age
u ished
u kan
u ctu
v ic
v ind
v ara
v iew
v ived
w a
w er
w as
w ink
w ami
x ual
x iety
y ing
y le
y per
y ll
y ping
y lon
z e
z en
z ug
¤ ï
¥ ı
¦ ¬
¦ à¦®
¨ à¦¤
© ×
© æ
® à¦¤
® áĥķ
¯ ¼
± ĭ
³ µ
µ ®à¦¤
¶ à¦°
¶ Õ¥
· ł
· à¦Ł
· Ø±
¸ à¦°
¹ Ħ
Â ¡
Â Ŀ
Å ¾
Å Ł
É Ļ
Ê ¼
Ì Ĭ
Î ·
Î ¸
Î º
Î ½
Î Ķ
Î ¶à¦°
Ï ī
Ñ Ĩ
Ò ĵ
Õ µ
Õ ¿
Ö ·
× ľ
Ø ²
Ø µ
Ø ¸
Ø Į
Ù ı
á »
â Ķ
ã Ģ
å Ĭ
å Ĳ
å ¥ı
æ ¬
æ ¸
æ ĸ
æ µ®à¦¤
ç §
é ¡
é ĩ
é Ł
ê ²
ë £
ë ĭ
ë Į
ë ĵ
ë ¯¼
ì §
ì ł
í ķ
ï Ģ
ĉ ÂłÂł
Ġ 5
Ġ 8
Ġ 9
Ġ ]
Ġ {
Ġ å
Ġ æ
Ġ à§ĩ
Ġ à§į
Ġ à§ľ
Ġ ),
Ġ ve
Ġ ĠĠčĊĠč
Ġ ut
Ġ Ø§
Ġ est
Ġ àª
Ġ ult
Ġ Ø§Ø
Ġ 35
Ġ à®
Ġ esc
Ġ ï¼
Ġ Ò¯
Ġ Ú¯
Ġ ĠĠčĊĠĠĠĠĠĠĠĠĠĠĠč
Ġ ÏĢ
Ġ Ûģ
ģ âĢĿ
ģ Ø±
ģ âĤĤ
Ĥ čĊč
Ī Ī
Ī ľ
ī Ĥ
į ãģ
Ĳ ×
ĳ ×¨
Ĵ ¤
Ķ °ë
Ļ ãĤ
Ľ ĥ
Ŀ à¦ªà¦Ł
Ŀ ¤ï
ŀ ĭ
Ł âĢĿ
ł áĥ
ł ìĿĺ
Ń áĢ¯
à¦¾ à§ģ
à¦¾ à¦¾à¦ģ
à¦¾ .âĢĿ
à¦¾ âģł
à§ĩ à§ĩà¦ģ
à§ĩ à¦¾;
à§ĩ à¦¾à¥¤âĢĿ
à§ĩ âĢį
à§ĩ à¦ĥ,
à§ĩ .âĢĿ
à§ĩ ï¿½
à§ĩ âĭ¯
à¦° à¦°à¦£
à¦° à¦°à¦®
à¦° à¦·à¦£
à¦° à¦²à¦¨
à¦° à¦Łà¦ķ
à¦° à¦ıà¦ķ
à¦° à§Łà¦¨
à¦° à¦°à¦ķà¦®
à¦° à§°
à¦° à¦·à¦°
à¦° à¦°à¦ľà¦¨
à¦° à¦īà¦¨
à¦° à¦°à¦®à¦£
à¦° à¦·à¦¦
à¦° à¦ıà¦¸à¦¬
à¦° à¦ıà¦ĸà¦¨
à¦° à¦ħà¦¸
à¦° à¦Ĩà¦¶
à¦° à¦īà¦¤
à¦° à¦®à¦¨à¦¸
à¦° à¦°à¦¹à¦¸
à¦° à¦Ŀà¦²à¦®à¦²
à¦° à¦²à¦¤à¦®
à¦° Ð´
à§į )
à§į |
à§į à¥¤âĢĿ
à§į à¥¥
à§į ,âĢĻ
à¦¿ _
à¦¿ à¦¼
à¦¿ âĢķ
à¦¿ ÂŃÂŃ
à¦¨ à¦Ļ
à¦¨ à¦ķà¦¤
à¦¨ à¦²à¦¤
à¦¨ à¦¹à¦¸
à¦¨ à¦¦à¦²
à¦¨ à¦ħà¦¨
à¦¨ à¦²à¦²
à¦¨ à¦Ĩà¦ľ
à¦¨ à¦ľà¦¯
à¦¨ à¦¹à¦¤
à¦¨ à¦ĸà¦°
à¦¨ à§Łà¦¤
à¦¨ à¦ıà¦¸à¦¬
à¦¨ à¦ıà¦ĸà¦¨
à¦¨ à¦ıà¦ĸ
à¦¨ à¦¬à¦²à¦Ľ
à¦¨ à¦®à¦®
à¦¨ à¦ıà¦¸
à¦¨ à¦ľà¦ª
à¦¨ à¦«à¦°
à¦¨ à¦¡à¦¨
à¦¨ à¦ħà¦Ń
à¦¨ à§Łà¦¦
à¦¨ à¦ľà¦Ĺà§İ
à¦¨ à¦¨à¦¤à¦²
à¦¨ à¦°à¦¹à¦¤
à¦¤ à¦Ĩà¦®
à¦¤ à¦®à¦²
à¦¤ à¦¹à¦²
à¦¤ à¦¸à¦²
à¦¤ à§Łà¦¨
à¦¤ à¦ĺà¦°
à¦¤ à¦¶à¦°
à¦¤ à¦ľà§Ł
à¦¤ à¦ĺà¦Łà¦¨
à¦¤ à¦¤à¦°à¦ķ
à¦¤ à¦¦à¦°à¦ľ
à¦¤ à¦ĺà§ľ
à¦¤ à¦ķà¦¬à¦ļ
à¦¤ à§İà¦ªà¦°à¦¤
à¦² Ã
à¦² à¦ł
à¦² à¦°à¦¤
à¦² à¦¬à¦²
à¦² à¦¤à¦¬
à¦² à¦¹à¦¸
à¦² à¦²à¦¬
à¦² à¦¯à¦¨
à¦² à¦ĩà¦¤
à¦² à¦Ĩà¦°
à¦² à¦Ĩà¦²
à¦² à¦ªà¦£
à¦² à¦¦à¦¸
à¦² à¦ħà¦°
à¦² à¦ıà¦¸
à¦² à¦¶à¦¹à¦°
à¦² à¦¤à¦°à¦Ļ
à¦² à¦ħà¦²
à¦² à¦Ĩà¦ĩ
à¦² à¦§à¦¨à¦ķ
à¦² à¦¶à¦Ļ
à¦² à¦°à¦¹à¦¸
à¦² à¦ķà¦²à¦ķ
à¦² à¦Ĩà¦īà¦Ł
à¦² ä¸
à¦² ÉĻ
à¦ķ è
à¦ķ à¦ī
à¦ķ à¦Ĩà¦®
à¦ķ à¦¹à¦¸
à¦ķ à¦ļà¦²
à¦ķ à¦ıà¦ĩ
à¦ķ à¦¯à¦¨
à¦ķ à¦Ĺà¦¨
à¦ķ à¦·à¦¤
à¦ķ à¦¸à¦¤
à¦ķ à¦®à¦¬
à¦ķ à¦ĩà¦¤
à¦ķ à¦łà¦ķ
à¦ķ à¦ªà¦²
à¦ķ à¦ľà¦®
à¦ķ à¦īà¦¦
à¦ķ à¦Ĩà¦¶
à¦ķ à¦īà¦¡
à¦ķ à¦¤à¦°à¦Ļ
à¦ķ à¦¹à¦¬
à¦ķ à¦¸à¦®à¦¸
à¦ķ à¦Ĩà¦¦
à¦ķ à¦Ĳà¦¤
à¦ķ à¦ħà¦Ļ
à¦ķ à¦Ŀà¦²à¦®à¦²
à¦¯ à¦ıà¦ĩ
à¦¯ à¦ļà¦¯
à¦¯ à¦ªà¦¸
à¦¯ à¦ľà¦¤
à¦¯ à¦ªà¦£
à¦¯ à¦ħà¦Ń
à¦¯ à¦¨à¦¤à¦®
à¦¯ à¦ªà¦¦à¦ķ
à¦¯ à¦¬à¦²à§Ł
à§ģ à¦¿
à§ģ ),
à§ģ ...âĢĿ
à§ģ ÌĬ
à¦¬ à¦ĩà¦²
à¦¬ à¦ĵà§Ł
à¦¬ à¦Łà¦ķ
à¦¬ à¦Ĺà¦°
à¦¬ à¦®à¦°
à¦¬ à¦¬à¦¦
à¦¬ à¦®à¦Ĺ
à¦¬ à¦ĩà¦Ľ
à¦¬ à¦ľà¦ķ
à¦¬ à¦īà¦ľ
à¦¬ à¦īà¦ł
à¦¬ à¦¸à¦®à¦¸
à¦¬ à¦īà¦¬
à¦¬ à¤°
à¦¬ Ð»
à¦¬ Ð¸
à¦¼ "
à¦¼ à§ĭà¦ģ
à¦¼ à¥¥
à¦¼ à§ĭ,âĢĿ
à¦¼ âĢĿ,
à¦® à¦¶à¦¨
à¦® à¦°à¦¹
à¦® à¦²à¦¨
à¦® à¦°à¦¦
à¦® à¦ļà¦²
à¦® à¦ıà¦ĩ
à¦® à¦ªà¦Ł
à¦® à¦ĩà¦¤
à¦® à¦¥à¦°
à¦® à¦Ĩà¦°
à¦® à¦ıà¦°
à¦® à¦ľà¦¬
à¦® à¦Ľà¦¬
à¦® à¦®à¦¶
à¦® à¦®à¦¨à¦¸
à¦® à¦ĺà¦£
à¦® à¦§à¦¨à¦ķ
à¦® à¦¥à¦¸
à¦® à¦°à¦¤à¦¨
à¦® à¦®à¦¨à¦¨
à¦® à¦°à¦®à¦ķ
à¦® à¦°à¦ľà¦²
à¦® à¦¦à¦¨à¦®
à§ĭ /
à§ĭ |
à§ĭ ..
à§ĭ à¦ĥ,
à§ĭ ÂŃÂŃ
à§ĭ ',
Ġà¦ķ à¦Ĺ
Ġà¦ķ à¦¤à¦¨
Ġà¦ķ à¦¸à¦¬
Ġà¦ķ à¦Ĺà¦¨
Ġà¦ķ à¦ľà¦²
Ġà¦ķ à¦ļà¦°
Ġà¦ķ à¦ķà¦¨
Ġà¦ķ à¦ķà¦ķ
Ġà¦ķ à¦ľà¦¨à¦ķ
Ġà¦ķ à¦¬à¦²à¦¨
Ġà¦ķ à¦ĩà¦ļ
Ġà¦ķ à¦®à¦¨à¦¸
Ġà¦ķ à¦ĸà¦Ĺ
Ġà¦ķ à§ľà¦ķ
Ġà¦ķ à¦ĵà¦®
Ġà¦ķ à¦Ĩà¦°à¦¤
Ġà¦ķ à¦²à¦¬à¦ķ
Ġà¦¬ à¦°à¦¤
Ġà¦¬ à¦¬à¦¨
Ġà¦¬ à¦ľà¦¨
Ġà¦¬ à¦¬à¦²
Ġà¦¬ à¦ķà¦Ł
Ġà¦¬ à¦ĸà¦¤
Ġà¦¬ à¦ĵà§Ł
Ġà¦¬ à¦ĩà¦¨
Ġà¦¬ à¦®à¦¬
Ġà¦¬ à¦¦à¦¸
Ġà¦¬ à¦®à¦¶
Ġà¦¬ à¦¦à¦Ĺ
Ġà¦¬ à¦¦à¦ķ
Ġà¦¬ à¦Ĭ
Ġà¦¬ à¦°à¦ķà¦°
Ġà¦¬ à¤°
Ġà¦¸ à¦§
Ġà¦¸ à¦°à¦¨
Ġà¦¸ à¦°à¦¹
Ġà¦¸ à¦ĩà¦°
Ġà¦¸ à¦¸à¦Ļ
Ġà¦¸ à¦¦à¦®
Ġà¦¸ à¦ĩà§Ł
Ġà¦¸ à¦Ľà¦²
Ġà¦¸ à¦¶à¦Ļ
à¥ Ī
à¥¤ ,
à¥¤ :
à¥¤ âĢĶâĢĺ
à¦¸ à¦·
à¦¸ à¦£
à¦¸ à¦ĸà¦¨
à¦¸ à¦¨à¦¤
à¦¸ à¦ķà¦Ł
à¦¸ à¦Ĩà¦®
à¦¸ à¦²à¦¤
à¦¸ à¦°à¦¹
à¦¸ à¦°à¦¯
à¦¸ à¦ĸà¦¤
à¦¸ à¦ıà¦ĩ
à¦¸ à¦¸à¦®
à¦¸ à¦¤à¦²
à¦¸ à¦¸à¦°
à¦¸ à¦¶à¦¬
à¦¸ à¦¸à¦Ļ
à¦¸ à¦¢
à¦¸ à¦ĩà¦¤
à¦¸ à¦§à¦¬
à¦¸ à¦Ĩà¦®à¦°
à¦¸ à¦Ŀà¦°
à¦¸ à¦¹à¦®
à¦¸ à¦¶à¦°
à¦¸ à¦Ńà¦ķ
à¦¸ à¦°à¦¤à¦°
à¦¸ à¦ĵà¦²
à¦¸ à¦¶à¦¸
à¦¸ à¦Ĩà¦ª
à¦¸ à¦°à¦¹à¦¸
à¦¸ à¦°à¦¤à¦ķ
à¦¸ à¤ĺ
Ġà¦ª à¦ī
Ġà¦ª à¦ĩà¦¨
Ġà¦ª à¦¹à¦²
Ġà¦ª à¦¯à¦¨
Ġà¦ª à¦ªà¦ķ
Ġà¦ª à¦Łà¦°
Ġà¦ª à¦Ĺà¦¡
Ġà¦ª à¦ļà¦Ľ
Ġà¦Ĩ à¦ªà¦°
Ġà¦Ĩ à¦ļà¦¨
Ġà¦Ĩ à¦ªà¦Ł
Ġà¦Ĩ à¦ĺà¦¨
Ġà¦Ĩ à¦«à¦°
Ġà¦Ĩ à¦ªà¦¦à¦ķ
Ġà¦Ĩ à¦ĵà¦¬
Ġà¦Ĩ à¦¤à¦°à¦¦
à¦¦ à¦ŀ
à¦¦ à§İ
à¦¦ à¦ĵà¦¯
à¦¦ à¦Ĺà¦¨
à¦¦ à¦®à¦°
à¦¦ à¦¸à¦°
à¦¦ à¦®à¦¬
à¦¦ à¦¬à¦ķ
à¦¦ à¦Łà¦¬
à¦¦ à¦ıà¦°
à¦¦ à¦®à¦§
à¦¦ à¦ķà¦¥
à¦¦ à¦ľà¦¨à¦ķ
à¦¦ à¦°à¦¤à¦°
à¦¦ à¦¤à¦°à¦Ļ
à¦¦ à¦Ńà¦Ł
à¦¦ à¦Ŀà¦²à¦®à¦²
à¦¦ à¦ĺà¦°à¦Ł
à¦¦ olat
à¦Ł à¦ı
à¦Ł à¦ħ
à¦Ł à¦²à¦ķ
à¦Ł à¦¶à¦¨
à¦Ł à¦°à¦¯
à¦Ł à¦ıà¦ĩ
à¦Ł à¦Ĺà¦¨
à¦Ł à¦°à¦ĵ
à¦Ł à¦¨à¦ķ
à¦Ł à¦ªà¦ķ
à¦Ł à¦¸à¦ķ
à¦Ł à¦ªà¦¸
à¦Ł à¦Ĺà¦¬
à¦Ł à¦ıà¦°
à¦Ł à¦ıà¦¸à¦¬
à¦Ł à¦ľà¦¨à¦ķ
à¦Ł à¦ªà¦Łà¦ª
à¦Ł à¦ķà¦²à¦ķ
à¦Ł à¦Ĩà¦īà¦Ł
à¦Ł à¦²à¦¬à¦£
Ġà¦¨ à¦Ľ
Ġà¦¨ à¦«
Ġà¦¨ à¦ķà¦Ł
Ġà¦¨ à¦¦à¦¨
Ġà¦¨ à¦®à¦¤
Ġà¦¨ à¦°à¦Ń
Ġà¦¨ à¦ĩà¦ķ
Ġà¦¨ à¦²à¦Ľ
Ġà¦¨ à¦ķà¦ķ
Ġà¦¨ à¦Ńà¦¯
Ġà¦¨ à¦ĩà¦®
Ġà¦¨ à¦ĸà¦Ł
Ġà¦¨ à¦ĵà¦¦
Ġà¦¨ à¦«à¦¸
Ġà¦¨ à¦ĺà¦¸
Ġà¦¨ à¦°à¦¬à¦ª
Ġà¦® à¦·
Ġà¦® à¦ĺ
Ġà¦® à¦ĵà¦¯
Ġà¦® à¦®à¦²
Ġà¦® à¦²à¦¬
Ġà¦® à¦®à¦¬
Ġà¦® à¦¶à¦ķ
Ġà¦® à¦¥à¦¨
Ġà¦® à¦ĩà¦¤
Ġà¦® à¦ľà¦¤
Ġà¦® à¦Ĺà¦¬
Ġà¦® à¦ķà¦¦
Ġà¦® à¦¦à¦Ĺ
Ġà¦® à¦ĩà¦¡
Ġà¦® à¦īà¦ļ
Ġà¦® à¦ķà¦¬à¦°
Ġà¦® à¦łà¦¬
Ġà¦® à¦łà¦Ł
Ġà¦® à¦ķà¦°à¦ķ
Ġà¦® à¦°à¦¦à¦ķ
à¦ª à¦ªà¦¨
à¦ª à¦Ĺà¦²
à¦ª à¦¹à¦²
à¦ª à¦¯à¦¨
à¦ª à¦Ĺà¦°
à¦ª à¦²à¦²
à¦ª à¦ıà¦°
à¦ª à¦²à¦Ĺ
à¦ª à¦¹à¦°à¦£
à¦ª à¦²à¦Ł
à¦ª à¦®à¦¹
à¦ª à¦ªà¦²
à¦ª à¦¶à¦¯
à¦ª à¦Ĺà¦£
à¦ª à¦ľà¦Ł
à¦ª à¦ľà¦Ĺ
à¦ª à¦ľà¦Ĺà¦¤
à¦ª à¦Ŀà¦¡
à¦ª à¦ľà¦¨à¦¦
à¦ª à¦Ŀà¦²à¦®à¦²
à¦ª à§İà¦¶
à¦ĩ à¦ł
à¦ĩ à¦¬à¦¨
à¦ĩ à¦ĸà¦¨
à¦ĩ à¦ªà¦¨
à¦ĩ à§İ
à¦ĩ à¦°à¦¬
à¦ĩ à¦°à¦¸
à¦ĩ à¦¦à¦¨
à¦ĩ à¦¹à¦¸
à¦ĩ à¦Ĺà¦°
à¦ĩ à¦¶à¦¬
à¦ĩ à¦ıà¦ķ
à¦ĩ à¦¬à¦¸
à¦ĩ à¦ļà¦ķ
à¦ĩ à¦®à¦¬
à¦ĩ à¦ĸà¦¬
à¦ĩ à¦¥à¦¨
à¦ĩ à¦Ĩà¦®à¦°
à¦ĩ à¦¦à¦®
à¦ĩ à¦¶à¦²
à¦ĩ à¦ıà¦ĸà¦¨
à¦ĩ åķıãģĦ
à§Ģ âĢĿ,
à§Ģ âĢ¦âĢĻ
à§Ģ !âĢĿâĢĶ
à§Ģ âĢĲ
à¦Ľ à¦¹
à¦Ľ à¦ł
à¦Ľ à¦ľà¦¨
à¦Ľ à¦²à¦ķ
à¦Ľ à¦¬à¦¦
à¦Ľ à¦¤à¦®
à¦Ľ à¦Ľà§ľ
à¦Ľ ãģ
Ġà¦¦ à¦²à¦¤
Ġà¦¦ à¦®à¦²
Ġà¦¦ à¦²à¦²
Ġà¦¦ à¦ĩà¦¤
Ġà¦¦ à¦ĩà¦¬
Ġà¦¦ à¦¦à¦¤
Ġà¦¦ à¦ĩà¦ļ
Ġà¦¦ ukan
à¦ľ à¦Ŀ
à¦ľ à¦¤à¦°
à¦ľ à¦ªà¦¨
à¦ľ à¦²à¦¨
à¦ľ à¦°à¦¯
à¦ľ à¦§à¦¨
à¦ľ à¦°à¦¦
à¦ľ à¦°à¦ĩ
à¦ľ à¦¸à¦°
à¦ľ à¦¬à¦¸
à¦ľ à¦°à¦ª
à¦ľ à¦¤à¦®
à¦ľ à¦°à¦®à¦£
à¦ľ à¦ķà¦¶
à¦ľ à¦®à§Ł
à¦ľ à¦§à¦¬
à¦ľ à¦ķà¦ķ
à¦ľ à¦ªà¦²
à¦ľ à¦ªà¦®
à¦ľ à¦¶à¦Ł
à¦ľ à¦ªà§ľ
à¦ľ à¦Ńà¦ķ
à¦ľ à¦¦à¦¤
à¦ľ à¦®à¦¨à¦¸
à¦ľ à¦ªà¦°à¦®
à¦ľ à¦ĩà¦¨à¦«à¦°à¦®
Ġà¦¹ à¦Ľ
Ġà¦¹ à¦£
Ġà¦¹ à¦¥
Ġà¦¹ à¦ŀ
Ġà¦¹ à¦¤à¦¨
Ġà¦¹ à¦¸à¦¤
Ġà¦¹ à§°
Ġà¦¹ à¦Łà¦Ľ
Ġà¦¹ à¦ĩà¦¸
Ġà¦¹ à¦ªà¦Ĺ
Ġà¦¹ à¦Łà¦¸
Ġà¦¹ à¦°à¦¦à§Ł
Ġà¦¹ Ø§ÙĦ
Ġà¦¹ Ø¬
Ġà¦¤ à¦Ĺ
Ġà¦¤ à¦²à¦ķ
Ġà¦¤ à¦¨à¦¬
Ġà¦¤ à¦¦à¦°
Ġà¦¤ à¦²à¦¤
Ġà¦¤ à¦Ĺà¦¤
Ġà¦¤ à¦°à¦¶
Ġà¦¤ à¦®à¦ķ
Ġà¦¤ à¦ķà¦¬
Ġà¦¤ à¦°à¦ªà¦°
Ġà¦¤ à¦®à¦°
Ġà¦¤ à§°
Ġà¦¤ à¦®à¦Ĺ
Ġà¦¤ à¦¦à¦¸
Ġà¦¤ à¦Ľà¦¬
Ġà¦¤ à¦¦à¦ª
Ġà¦¤ à¦°à¦¤à¦®
Ġà¦¤ à¦²à¦¤à¦²
Ġà¦¤ à¦ļà¦¨à¦ļ
Ġà¦ı à¦ļ
Ġà¦ı à¦°à¦¤
Ġà¦ı à¦¶à¦ķ
Ġà¦ı à¦¹à¦¨
Ġà¦ı à¦®à¦¸
Ġà¦ı à¦Ńà¦¯
Ġà¦ı à¦ĵà¦°
Ġà¦ı à¦¶à¦¹à¦°
Ġà¦ı à¦ĺà¦Łà¦¨
Ġà¦ı à¦ĵà¦¤
à¦¶ à¦°à¦¨
à¦¶ à¦°à¦¸
à¦¶ à¦ķà¦¤
à¦¶ à¦ĵà§Ł
à¦¶ à¦¸à¦²
à¦¶ à¦¤à¦¤
à¦¶ à¦°à¦ķà¦®
à¦¶ à¦ľà¦°
à¦¶ à¦°à¦Ĺ
à¦¶ à¦ıà¦°
à¦¶ à¦²à¦Ĺ
à¦¶ à§Łà¦ķ
à¦¶ à¦īà¦ļ
à¦¶ à¦ĺà¦£
à¦¶ à¦ľà¦¨à¦¨
à¦¶ à¦Ĩà¦Ł
à¦¶ à¦¦à¦°à¦¦
à¦¶ à¦ıà¦ķà¦¶
à¦¼à§ĩ à¦¼
à¦¼à§ĩ à¦ĥ
à¦¼à§ĩ à¦ĥà¥¤
à¦¼à§ĩ âĢĿà¥¤
à¦¼à§ĩ âĢĻà¥¤
à¦¼à§ĩ à¥¥
à¦¼à§ĩ âĢĻ,
à¦¼à§ĩ âĢĻâĢĶ
à¦¼à§ĩ ---
à¦¼à§ĩ âĢ¦à¥¤
Ġà¦ħ à¦ĩà¦²
Ġà¦ħ à¦²à¦¬
Ġà¦ħ à¦ĸà¦²
Ġà¦ħ à¦Łà¦¬
Ġà¦ħ à¦ĩà¦Ľ
Ġà¦ħ à¦ĭà¦£
Ġà¦ħ à¤ķà¤²
à¦ĸ à¦ªà¦°
à¦ĸ à§İ
à¦ĸ à¦ķà¦²
à¦ĸ à¦ķà¦Ł
à¦ĸ à¦¬à¦¤
à¦ĸ à¦®à¦²
à¦ĸ à¦¸à¦°
à¦ĸ à¦°à¦ĵ
à¦ĸ à¦¦à¦²
à¦ĸ à¦ĺà¦¨
à¦ĸ à¦¶à¦¯
à¦ĸ à¦°à¦¤à¦°
à¦ĸ à§Łà¦°
à¦ĸ à¦°à¦¸à¦®
à¦ĸ à¦ħà¦ªà¦®
à¦ĸ à¦²à¦¬à¦¦
à¦Ĺ à¦¥
à¦Ĺ à¦ĵà¦¯
à¦Ĺ à¦¤à¦¨
à¦Ĺ à¦ķà¦¤
à¦Ĺ à¦°à¦¹
à¦Ĺ à¦ļà¦¨
à¦Ĺ à¦ķà¦¬
à¦Ĺ à¦¸à¦°
à¦Ĺ à¦ªà¦¦
à¦Ĺ à¦ħà¦¨
à¦Ĺ à¦¬à¦¬
à¦Ĺ à¦°à¦®à¦£
à¦Ĺ à¦®à¦§
à¦Ĺ à¦¦à¦¸
à¦Ĺ à¦Ĺà¦£
à¦Ĺ à¦ķà¦£
à¦Ĺ à¦¦à¦ķ
à¦Ĺ à¦¶à¦¤
à¦Ĺ à¦¸à¦Ń
à¦Ĺ à¦¸à¦°à¦ķ
à¦Ĺ à¦ĸà¦ļ
à¦Ĺ à¦¬à¦¶à¦¤
à¦Ĺ à¦¬à¦¸à¦¤
à¦Ĺ à¦«à¦²à¦ķ
à¦Ĺ à¦®à¦¤à¦®
à¦· à¦ªà¦¨
à¦· à¦¦à¦¨
à¦· à¦®à¦²
à¦· à¦¸à¦¨
à¦· à¦°à¦ªà¦°
à¦· à¦ļà¦ķ
à¦· à¦¸à¦Ļ
à¦· à¦°à¦ļ
à¦· à¦ĩà¦¯
à¦· à¦«à¦²
à¦· à¦°à¦®à¦£
à¦· à¦ªà¦£
à¦· à¦¸à¦Ł
à¦· à¦Ńà¦¯
à¦· à¦¬à¦£
à¦· à¦ĵà¦°
à¦· à¦¶à¦¯
à¦· à¦¬à¦§
à¦· à¦Ńà¦Ļ
à¦· à¦ľà¦Ĺà¦¤
à¦· à¦ľà¦¨à¦ĩ
à¦· à§ľà¦¯à¦¨
à¦· à¦¸à¦¬à¦§
à¦§ à¦·
à¦§ à¦£
à¦§ à¦ŀ
à¦§ à¦°à¦®
à¦§ à¦¤à¦¨
à¦§ à¦²à¦ķ
à¦§ à¦¦à¦°
à¦§ à¦¯à¦¨
à¦§ à¦¤à¦²
à¦§ à¦¦à¦²
à¦§ à§İà¦¸
à¦§ à¦ªà¦²
à¦§ à¦ĺà¦¨
à¦§ à¦¸à¦¹
à¦§ à¦¬à¦²à¦¤
à¦§ à¦¸à¦Ń
à¦§ à¦ĵà¦²
à¦§ à¦¨à¦¬à¦¸
à¦§ à¦°à¦ªà¦²
à¦§ à¦łà¦¯
âĢ Ĩ
âĢ ļ
à¦¡ à¦Ľ
à¦¡ à¦¬à¦¨
à¦¡ à¦ľà¦¨
à¦¡ à¦°à¦ķ
à¦¡ à¦¬à¦ª
à¦¡ à¦Ĺà¦²
à¦¡ à¦°à¦¦
à¦¡ à¦¸à¦®
à¦¡ à¦®à¦°
à¦¡ à¦ľà¦²
à¦¡ à¦§à¦°
à¦¡ à¦«à¦²
à¦¡ à¦ķà¦°à¦£
à¦¡ à¦ķà¦¥
à¦¡ à¦ķà¦Ń
à¦¡ à¦¬à¦¡
à¦¡ à¦¬à¦ľ
à¦¡ à¦ķà¦«
à¦¡ à¦Ĩà¦ª
à¦¡ à¦ªà¦ª
à¦¡ à¦ıà¦ľ
à¦¡ à¦Ĺà¦®à¦Ĺ
Ġà¦¯ à¦°
Ġà¦¯ à¦®à¦¯
Ġà¦¯ à¦¬à¦ļ
à¦ļ à¦Ŀ
à¦ļ à¦¨à¦¤
à¦ļ à¦°à¦²
à¦ļ à¦ĵà§Ł
à¦ļ à¦¸à¦¤
à¦ļ à¦ļà¦ķ
à¦ļ à¦¶à¦ķ
à¦ļ à¦Ĺà¦¬
à¦ļ à¦®à§Ł
à¦ļ à¦®à¦§
à¦ļ à¦¬à¦Ł
à¦ļ al
à¦ļ à¦ĸà¦£
à¦ļ à¦°à¦®à¦¯
à¦¹ à¦¬à¦°
à¦¹ à¦°à¦¯
à¦¹ à¦°à¦²
à¦¹ à¦ķà¦¬
à¦¹ à¦Ĺà¦°
à¦¹ à¦¨à¦Ł
à¦¹ à¦¤à¦®
à¦¹ à¦®à¦¬
à¦¹ à¦¶à¦ķ
à¦¹ à§Łà¦¨
à¦¹ à§°
à¦¹ à¦ķà¦¨
à¦¹ à¦ľà¦®
à¦¹ à¦¹à¦®
à¦¹ à¦ķà¦£
à¦¹ à¦ķà¦®
à¦¹ à¦¬à¦²à¦¤
à¦¹ à¦Ńà¦¸
à¦¹ à¦£à¦¹
à¦¹ à¦ĵà¦®
à¦¹ à¦ķà¦²à¦¹
Ġà¦ķà¦° à¦Ł
Ġà¦ķà¦° à¦ĩ
Ġà¦ķà¦° à¦¡
Ġà¦ķà¦° à¦Ń
Ġà¦ķà¦° à¦¬à¦¨
Ġà¦ķà¦° à¦ķà¦®à¦²
à§Ł à§Ł
à§Ł à§İ
à§Ł à¦°à¦¸
à§Ł à¦ķà¦¤
à§Ł à¦®à¦¤
à§Ł à¦¨à¦ĵ
à§Ł à¦ªà¦¥
à§Ł à¦¨à¦Ł
à§Ł à¦®à¦¬
à§Ł à¦®à§Ł
à§Ł à¦®à¦¹
Ġà¦Ĺ à¦ķ
Ġà¦Ĺ à¦ĺ
Ġà¦Ĺ à¦¬à¦²
Ġà¦Ĺ à¦¹à¦°
Ġà¦Ĺ à¦ľà¦ķ
Ġà¦Ĺ à¦Ĺà¦£
Ġà¦Ĺ à¦ľà¦Ĺ
à¦£ à¦ĸà¦¨
à¦£ à¦ªà¦°
à¦£ à¦¬à¦²
à¦£ à¦¦à¦¨
à¦£ à¦Ľà¦¨
à¦£ à¦¸à¦¨
à¦£ à¦¤à¦²
à¦£ à¦¸à¦¤
à¦£ à¦¨à¦Ł
à¦£ à¦¨à¦¦
à¦£ à¦¢
à¦£ à¦¬à¦¬
à¦£ à¦¬à¦¶
à¦£ à¦«à¦²
à¦£ à¦®à¦§
à¦£ à¦¹à¦°à¦£
à¦£ à¦Ŀà¦°
à¦£ à¦¬à¦ĩ
à¦£ à¦¶à¦¯
à¦£ à¦ķà¦®
à¦£ à¦¤à¦°à¦Ļ
à¦£ à§Łà¦ķ
à¦£ à¦¶à¦¸
à¦£ à¦¶à¦¶
à¦£ à¦ľà¦²à¦§
à¦£ à¦¤à¦¬à¦¯
à¦ģ à¦¿
à¦ģ âĢĵ
à¦¥ à¦§
à¦¥ à¦¥
à¦¥ à§ľ
à¦¥ à¦ķà¦²
à¦¥ à¦²à¦ķ
à¦¥ à¦®à¦¤
à¦¥ à¦°à¦¹
à¦¥ à¦®à¦°
à¦¥ à¦¤à¦®
à¦¥ à¦ľà¦²
à¦¥ à¦ļà¦°
à¦¥ à¦Łà¦¬
à¦¥ à¦®à§Ł
à¦¥ à¦ķà¦ķ
à¦¥ à¦ķà¦¡
à¦¥ à¦ĺà¦Ł
Ġà¦¶ à¦¦
Ġà¦¶ à¦§
Ġà¦¶ à¦ĩà¦²
Ġà¦¶ à¦®à¦ª
Ġà¦¶ à¦°à¦¬à¦°
Ġà¦¶ à¦£à¦¶
Ġà¦¶ Pas
Ġà¦ľ à¦£
Ġà¦ľ à¦ĵ
Ġà¦ľ à¦ł
Ġà¦ľ à¦ªà¦ķ
Ġà¦ľ à¦ľà¦¸
Ġà¦ľ à¦ªà¦²
Ġà¦ľ à¦ªà¦Ľ
Ġà¦ļ à¦ĩ
Ġà¦ļ à¦¹
Ġà¦ļ à§Ł
Ġà¦ļ à¦°à¦²
Ġà¦ļ à¦¹à¦°
Ġà¦ļ à¦·à¦¤
Ġà¦ļ à¦ªà¦ķ
Ġà¦ļ à¦¢
Ġà¦ļ à¦ªà¦¸
Ġà¦ļ à¦°à¦Ĺ
Ġà¦ļ à¤¶
Ġà¦Ń à¦ĩ
Ġà¦Ń à¦²à¦Ĺ
Ġà¦Ń à¦²à¦Ł
Ġà¦Ń à¦°à¦¤à¦°
Ġà¦° à¦¨à¦¤
Ġà¦° à¦®à¦¤
Ġà¦° à¦®à¦ķ
Ġà¦° à¦¥à¦¨
Ġà¦° à¦Ĺà¦ľ
Ġà¦° à¦¥à¦ķ
Ġà¦° à¦Łà¦Ľ
Ġà¦° à¦ĩà¦¸
Ġà¦° à¦®à¦®
Ġà¦° à¤ķ
Ġà¦° à¦īà¦«
à§ĩà¥¤ #
à§ĩà¥¤ *
à§ĩà¥¤ Â»
à¦ĵ à¦¶
à¦ĵ à¦Ŀ
à¦ĵ à¦ī
à¦ĵ à¦Ĺà¦¨
à¦ĵ à¦¢
à¦ĵ à¦ıà¦ķà¦Ł
à¦ĵ à¦²à¦ª
à¦ĵ à¦łà¦°
à¦ĵ à¦·à¦§
à¦Ń à§ľ
à¦Ń à¦¬à¦²
à¦Ń à¦¦à¦°
à¦Ń à¦°à¦ĵ
à¦Ń à¦®à¦£
à¦Ń à¦¤à¦®
à¦Ń à¦ľà¦²
à¦Ń à¦Łà¦¤
à¦Ń à¦ķà¦ķ
à¦Ń à§Łà¦¤
à¦Ń à¦¶à¦¯
à¦Ń à¦Łà¦¸
à¦Ń à¦¸à¦ĵ
Ġà¦ıà¦ķ à¦ĵ
Ġà¦ıà¦ķ à¦ķà¦Ł
Ġà¦ıà¦ķ à¦²à¦ķ
Ġà¦ıà¦ķ à¦Ĺà¦²
Ġà¦ıà¦ķ à¦°à¦¶
Ġà¦ıà¦ķ à¦ªà¦¤
Ġà¦ıà¦ķ à¦ªà¦¥
Ġà¦ıà¦ķ à¦¸à¦¤
Ġà¦ıà¦ķ à¦®à¦§
Ġà¦ıà¦ķ à¦²à¦®
Ġà¦ıà¦ķ à¦ªà¦²
Ġà¦ıà¦ķ à¦Ĺà¦£
Ġà¦ıà¦ķ à¦ķà¦®
Ġà¦ıà¦ķ à¦Ľà¦¤
Ġà¦ıà¦ķ à¦¨à¦®
Ġà¦ıà¦ķ à¦ħà¦ªà¦°
Ġà¦ıà¦ķ à¦Ĩà¦§à¦¬
à¦¼à¦¾ =
à¦¼à¦¾ âĢĶâĢľ
à¦¼à¦¾ âĢĿà¥¤
à¦¼à¦¾ âĢĶâĢĺ
à¦¼à¦¾ âĢĿâĢĶ
à¦¼à¦¾ à¦Ĥà¥¤
à¦¼à¦¾ âĢ¦âĢĻ
à¦¼à¦¾ âĢ¦.
à§ĥ âĢĮ
Ġà¦Ľ à¦ľ
Ġà¦Ľ à¦¹
Ġà¦Ľ à¦ķà¦Ł
Ġà¦Ľ à¦ķà¦¤
Ġà¦Ľ à¦ĩà¦Ł
Ġà¦Ľ à¦¦à¦ķ
Ġà¦Ľ à¦Ĩà¦¨
Ġà¦Ľ à§Łà¦²
Ġà¦Ĩà¦® à¦¯
Ġà¦Ĩà¦® à¦ĵ
Ġà¦Ĩà¦® à¦ªà¦¤
Ġà¦Ĩà¦® à¦«à¦²
Ġà¦Ĩà¦® à¦²à¦¦
à¦ł à¦£
à¦ł à¦Ŀ
à¦ł à¦ľà¦¨
à¦ł à¦°à¦¹
à¦ł à¦®à¦¯
à¦ł à¦®à¦£
à¦ł à¦¶à¦ķ
à¦ł à¦¨à¦Ĺ
à¦ł à¦®à§Ł
à¦ł à¦²à¦®
Ġà¦ī à¦ĸ
Ġà¦ī à¦¸à¦¬
Ġà¦ī à¦¸à¦®
Ġà¦ī à¦·à¦°
Ġà¦ī à¦¬à¦Ł
Ġà¦ī à¦Łà¦ª
Ġà¦ī à¦ĩà¦«
Ġà¦ī à¦ĩà¦Ĺ
Ġà¦ī à¦®à¦Ļ
Ġà¦ī à¦ĵà¦®
à¦Ĥ âĢĿ
à¦Ĥ !âĢĿ
à¦Ĥ âĢĻ-
à¦Ĥ âĢ¦à¥¤
à§Ĥ à¦¾
à§Ĥ à¦¿
à§Ĥ à§ģ
à§Ĥ à¦Ĥ
à§Ĥ à§Ĥ
à§Ĥ âĢĻ
à¦¾à¦ģ '
à¦¾à¦ģ ;
à¦¾à¦ģ âĢ¦âĢĿ
à¦¾à¦ģ !âĢĻ
à¦Ļ à¦ĵ
à¦Ļ à¦ĺ
à¦Ļ à¦°à¦Ł
à¦Ļ à¦¨à¦Ł
Ġà¦² à¦¦
Ġà¦² à¦§
Ġà¦² à¦ļ
Ġà¦² à¦¥
Ġà¦² à¦Ŀ
Ġà¦² à¦¸à¦²
Ġà¦² à¦ªà¦ķ
Ġà¦² à¦¹à¦¨
Ġà¦² à¦ĩà¦Ł
Ġà¦² à¦¬à¦¡
Ġà¦² à¦¬à¦ľ
Ġà¦² à¦¬à¦¨à¦¦
Ġà¦² à¦īà¦Ľ
Ġà¦² à¦Łà¦¬à¦¹à¦°
Ġà¦ĵ à¦ļ
Ġà¦ĵ à¦ªà¦¨
Ġà¦ĵ à¦¸à¦ķ
Ġà¦ĵ à¦ªà¦¡
Ġà¦ĵ à¦²à¦®
Ġà¦ĵ à¦ĸà¦°
Ġà¦¥ à¦¡
Ġà¦¥ à¦Ļ
Ġà¦¥ à¦°à¦¥
Ġà¦¥ à¦®à¦¤
Ġà¦¥ à¦Łà¦²
Ġà¦¥ à¦°à¦¹à¦°
à§ĩ, (
Ġà¦¬à¦² à¦ĩ
Ġà¦¬à¦² à¦ļ
Ġà¦¬à¦² à¦¦à¦°
Ġà¦¬à¦² à¦Ńà¦¦
Ġà¦« à¦°à¦ľ
Ġà¦« à¦ĩà¦°
Ġà¦« à¦°à¦Ł
Ġà¦« à¦°à§Ł
Ġà¦« à§Łà¦ľ
Ġà¦« à¦Ĺà¦¹à¦°
Ġà¦Ĩà¦° à¦¦
Ġà¦Ĩà¦° à¦Ļ
Ġà¦Ĩà¦° à¦ľà¦¨
Ġà¦Ĩà¦° à¦ı
Ġà¦Ĩà¦° à¦ıà¦ķà¦Ł
Ġà¦ĸ à¦®
Ġà¦ĸ à¦²à¦¤
Ġà¦ĸ à¦°à¦¦
Ġà¦ĸ à¦ĩà¦¨
Ġà¦ĸ à¦¸à¦°
Ġà¦ĸ à¦¸à¦¤
Ġà¦ĸ à§Łà¦°
Ġà¦ĸ à¦¬à¦°à¦ķ
Ġà¦ĸ à¦¨à¦ķà¦ķ
Ġà¦ĸ à¦·à¦ĸ
Ġà¦ĸ à¦¤à¦°à¦¨
à¦°à¦¤ à¦¦
à¦°à¦¤ à¦ĸ
à¦°à¦¤ à¦Ĺ
à¦°à¦¤ à¦ļ
à¦°à¦¤ à¦¹
à¦°à¦¤ à¦Ļ
à¦°à¦¤ à¦¬à¦¨
à¦°à¦¤ à¦Ńà¦¬
à¦°à¦¤ à¦¸à¦®
à¦°à¦¤ à¦°à¦Ń
à¦°à¦¤ à¦¨à¦¦
à¦°à¦¤ à¦®à§Ł
à¦°à¦¤ à¦Ńà¦Ļ
Ġà¦ħà¦¨ à¦ķ
Ġà¦ħà¦¨ à¦¯
Ġà¦ħà¦¨ à¦¦
Ġà¦ħà¦¨ à¦ª
Ġà¦ħà¦¨ à¦ľ
Ġà¦ħà¦¨ à¦¶
Ġà¦ħà¦¨ à¦ķà¦Ł
Ġà¦ħà¦¨ à¦²à¦¸
Ġà¦ħà¦¨ à¦²à¦ª
Ġà¦ħà¦¨ à¦¬à¦Ĺ
Ġà¦ħà¦¨ à¦¬à¦°à¦²
Ġà¦ħà¦¨ à¦¶à¦¨à¦ķ
à¦¾à¥¤ ..
à¦¾à¥¤ à¥¤âĢĺ
Ġà¦ªà¦° à¦·
Ġà¦ªà¦° à¦¬à¦Ł
Ġà¦ªà¦° à¦¥à¦®
Ġà¦ªà¦° à¦£à¦¶
Ġà¦§ à¦Ł
Ġà¦§ à¦ĸ
Ġà¦§ à¦®à¦°
Ġà¦§ à¦ĩà§Ł
Ġà¦§ à§ľà¦ķ
Ġà¦§ à¤¡
Ġà¦§ ool
âĢĶ ?âĢĻ
Ġà¦¸à¦® à¦²
Ġà¦¸à¦® à¦°à¦¸
Ġà¦¸à¦® à¦¦à¦°
à¦¾, à¥¤
ĠâĢ ĭ
ĠâĢ ĤčĊč
à¦¬à¦¨ à¦ªà¦°
à¦¬à¦¨ à¦Ŀ
à¦¬à¦¨ à¦ľà¦¨
à¦¬à¦¨ à¦¤à¦°
à¦¬à¦¨ à¦°à¦®
à¦¬à¦¨ à¦°à¦¸
à¦¬à¦¨ à¦°à¦¶
à¦¬à¦¨ à¦ªà¦¤
à¦¬à¦¨ à¦¸à¦¨
à¦¬à¦¨ à¦¯à¦¨
à¦¬à¦¨ à¦¤à¦²
à¦¬à¦¨ à¦¸à¦°
à¦¬à¦¨ à¦ľà¦²
à¦¬à¦¨ à¦®à¦§
à¦¬à¦¨ à¦¸à¦¹
à¦¬à¦¨ à¦ľà§Ł
à¦¬à¦¨ à¦ĸà¦£
à¦¬à¦¨ à¦Ĺà¦łà¦¨
à¦¼à¦¿ )
à¦¼à¦¿ à¦ģ
à¦¼à¦¿ ,âĢĿ
à¦¼à¦¿ âĢĻà¥¤
à§ľ à¦ľà¦¨
à§ľ à¦ªà¦¤
à§ľ à¦ķà¦°à¦£
à¦ĸà¦¨ à¦¨
à¦ĸà¦¨ à¦¤
à¦ĸà¦¨ à¦²
à¦ĸà¦¨ à¦¦
à¦ĸà¦¨ à¦ª
à¦ĸà¦¨ à¦®à¦¯
Ġà¦ĺ à¦Ļ
Ġà¦ĺ à¦¸à¦°
Ġà¦ĺ à¦¨à¦¦
Ġà¦ĺ à¦£à¦¤
Ġà¦ĺ à¦·à¦°
Ġà¦ĺ à¦¨à¦¸
Ġà¦ĺ à¦¨à¦°
Ġà¦®à¦¨ à¦®à¦¨
Ġà¦®à¦¨ à¦Ŀ
Ġà¦®à¦¨ à¦¤à¦°
Ġà¦®à¦¨ à¦¨à¦¬
Ġà¦®à¦¨ à¦¨à¦¦
à¦ªà¦° à¦°
à¦ªà¦° à¦Ĺ
à¦ªà¦° à¦ļ
à¦ªà¦° à¦¹
à¦ªà¦° à¦Ń
à¦ªà¦° à¦ľà¦¨
à¦ªà¦° à¦ķà¦²
à¦ªà¦° à¦¶à¦¨
à¦ªà¦° à¦¸à¦®
à¦ªà¦° à¦¶à¦ª
à¦ªà¦° à¦®à¦¹
à¦ªà¦° à¦¶à¦®
à¦ªà¦° à¦®à¦²à¦¤
à¦ªà¦° à¦¬à¦¶à¦¤
à¦°à¦£ à¦²
à¦°à¦£ à¦·
à¦°à¦£ à¦£
à¦°à¦£ à¦°à¦£
à¦°à¦£ à¦ªà¦¥
à¦°à¦£ à¦ķà¦£
à¦°à¦£ à¦¬à¦¸à¦¨
à¦°à¦£ à¦¶à¦¶
à¦°à¦£ à¦¬à¦¶à¦¤
à¦°à¦£ à¦¡à¦Ļ
Ġà¦ıà¦ĩ à¦ıà¦ĩ
Ġà¦ıà¦ĩ à¦ļà¦Ł
à¦¿à¥¤ à¥¤âĢĻ
à¦¿à¥¤ ?âĢĻ
à¦¿à¥¤ à¥¤'
à¦®à¦¨ à¦¬
à¦®à¦¨ à¦¶
à¦®à¦¨ à¦Ĺ
à¦®à¦¨ à¦ļ
à¦®à¦¨ à¦°à¦®
à¦®à¦¨ à¦¬à¦¦
à¦®à¦¨ à¦ªà¦Ł
à¦Ŀ à¦ĩ
à¦Ŀ à¦ªà¦¨
à¦Ŀ à¦¦à¦°
à¦Ŀ à¦²à¦¬
à¦Ŀ à¦ĸà¦²
à¦Ŀ à¦¨à¦¨
à¦Ŀ à¦¬à§Łà¦¸
à¦ľà¦¨ à¦²
à¦ľà¦¨ à¦Ń
à¦ľà¦¨ à¦ªà¦°
à¦ľà¦¨ à¦®à¦¨
à¦ľà¦¨ à¦ķà¦²
à¦ľà¦¨ à¦Ĺà¦¤
à¦ľà¦¨ à¦®à¦¯
à¦ľà¦¨ à¦¤à¦²
à¦ľà¦¨ à¦ªà¦¥
à¦ľà¦¨ à¦®à¦£
à¦ľà¦¨ à¦¨à¦¦
à¦ľà¦¨ à¦Ńà¦°
à¦ľà¦¨ à¦®à§Ł
à¦ľà¦¨ à¦¸à¦¹
à¦ľà¦¨ à¦¸à¦ļ
à¦ŀ à¦¶
à¦ŀ à¦ļ
à¦¤à¦° à¦ĸ
à¦¤à¦° à¦ĸà¦¨
à¦¤à¦° à¦ªà¦°
à¦¤à¦° à¦®à¦¨
à¦¤à¦° à¦ļà¦¨
à¦¤à¦° à¦®à¦¯
à¦¤à¦° à¦¶à¦¬
à¦¤à¦° à¦ªà¦¥
à¦¤à¦° à¦ªà¦Ł
à¦¤à¦° à¦ĺà¦°
à¦¤à¦° à¦ķà¦°à¦£
à¦¤à¦° à¦Ĺà¦¸
à¦¤à¦° à¦®à¦¹à¦²
à¦¤à¦° à¦ľà¦Ĺà§İà¦ķ
à¦« à¦¬
à¦« à¦Ĺ
à¦« à¦Ļ
à¦« à¦°à¦¹
à¦« à¦²à¦¬
à¦« à¦°à¦ĩ
à¦« à§°
à¦« à¦Łà¦Ł
à¦« à¦Łà¦ª
à¦« à¦«à¦°
à¦ī à¦Ļ
à¦ī à¦¦à¦°
à¦ī à¦²à¦¬
à¦ī à¦¨à¦ķ
à¦ī à¦Łà¦²
à¦ī à¦ĩà¦ķ
à¦ī à¦ľà¦®
à¦ī à¦ļà¦Ł
à¦ī à¦ľà¦Ĺ
à¦ī à¦ªà¦ķà¦¥
à¦ī à¦·à¦¸
à¦ī à§ľà¦Ľ
à¦ī à§ľà¦¬
à¦ī à¦Ľà¦¸
à¦¿, "
à¦¿, âĢĻâĢĶ
à¦ªà¦¨ à¦²
à¦ªà¦¨ à¦¯
à¦ªà¦¨ à¦§
à¦ªà¦¨ à¦§à¦¨
Ġà¦Ĩà¦² à¦¦
Ġà¦Ĩà¦² à¦ĵà¦¯
Ġà¦Ĩà¦² à¦Ĺà¦°
Ġà¦Ĩà¦² à¦¹à¦ľ
Ġà¦Ĩà¦² à¤®
à§İ à¦Ń
à§İ à¦®à¦¨
à§İ à¦ķà¦²
à§İ à¦ļà¦¨
à§İ à¦ªà¦²
à§İ à¦¸à¦¬à¦ķ
à§İ à¦¬à¦°à¦£
à¦Ĩ à¦¦à¦¨
à¦Ĩ à¦²à¦¨
à¦Ĩ à¦ļà¦²
à¦Ĩ à¦¹à¦²
à¦Ĩ à¦¦à¦²
à¦Ĩ à¦¬à¦¸
à¦Ĩ à¦Łà¦²
à¦Ĩ à¦ªà¦Ł
à¦Ĩ à¦ĩà¦¯
à¦Ĩ à¦Łà¦¬
à¦Ĩ à¦¶à¦ª
à¦Ĩ à¦ĩà§Ł
à¦Ĩ à¦ªà¦®
à¦Ĩ à¦¶à¦°
à¦Ĩ à¦¨à¦Ľ
à¦Ĩ à¦«à¦°
à¦Ĩ à¦ĩà¦«
à¦Ĩ à¦īà¦¶
à¦Ĩ à¦¹à¦®à¦¦
à¦°à¦¬ à¦®à¦¨
à¦°à¦¬ à¦°à¦¬
à¦°à¦¬ à¦ķà¦°
à¦°à¦¬ à¦²à¦¬
à¦°à¦¬ à¦®à¦£
à¦°à¦¬ à¦¸à¦¤
à¦°à¦¬ à¦ļà¦ķ
à¦°à¦¬ à¦ķà¦¥
à¦°à¦¬ à¦£à¦®
à¦°à¦¬ à¦¬à¦Ļ
à¦ı à§ľ
à¦ı à¦¤à¦°
à¦ı à¦¤à¦¬
à¦ı à¦²à¦¬
à¦ı à¦¸à¦®
à¦ı à¦¨à¦Ł
à¦ı à¦®à¦¬
à¦ı à¦¸à¦ķ
à¦ı à¦Ńà¦°
à¦ı à¦®à¦¸
à¦ı à¦¨à¦ĩ
à¦ı à¦²à¦Ł
à¦ı à¦ıà¦¸à¦ıà¦¸
à¦°à¦ķ à¦¸
à¦°à¦ķ à¦ľ
à¦°à¦ķ à¦ĸ
à¦°à¦ķ à¦Ĺ
à¦°à¦ķ à¦ļ
à¦°à¦ķ à¦ł
à¦°à¦ķ à¦°à¦²
à¦°à¦ķ à¦°à¦£à¦ķ
âĢĿ )
âĢĿ à§ĩ
âĢĿ âĢ¦
âĢĿ )à¥¤
Ġà¦¸à¦¬ à¦¯
Ġà¦¸à¦¬ à¦ľà¦¨
Ġà¦¸à¦¬ à¦¸à¦¬
Ġà¦¸à¦¬ à¦²à¦¤
Ġà¦¸à¦¬ à¦ķà¦¥
Ġà¦¸à¦¬ à¦§à¦°à¦¨
à¦¬à¦° à¦¯
à¦¬à¦° à¦¥
à¦¬à¦° à¦Ŀ
à¦¬à¦° à¦ľà¦²
à¦¬à¦° à¦¸à¦Ļ
à¦¬à¦° à¦Łà¦°
à¦¬à¦° à¦ªà¦²
à¦¬à¦° à¦¦à¦¤
à¦¬à¦° à¦·à¦¨
à¦¬à¦° à¦¸à¦¡
à¦¬à¦° à¦®à¦ļà¦¨
à¦¬à¦° à¦¸à¦ľ
Ġà¦Ł à¦¡
Ġà¦Ł à¦°à¦¨
Ġà¦Ł à¦Ĺà¦²
Ġà¦Ł à¦Łà¦ķ
Ġà¦Ł à¦ķà¦¨
Ġà¦Ł à¦¸à¦ķ
Ġà¦Ł à¦¨à¦¸
Ġà¦Ł à¦¬à¦Ł
Ġà¦¬à¦²à¦² à¦®à¦¨
Ġà¦¬à¦²à¦² à¦Ĩ
Ġà¦¬à¦²à¦² à¦¨à¦¤
Ġà¦¬à¦²à¦² à¦¤à¦¬
Ġà¦¬à¦²à¦² à¦ķà¦¤
Ġà¦¬à¦²à¦² à¦ľà¦²
Ġà¦¬à¦²à¦² à¦ıà¦°
Ġà¦¬à¦²à¦² à¦ĵà¦°
Ġà¦¬à¦²à¦² à¦ıà¦¸
Ġà¦¬à¦²à¦² à¦ıà¦®à¦¨
Ġà¦¬à¦²à¦² à¦ĵà¦¦
Ġà¦¬à¦²à¦² à¦Ĩà¦°à¦ĵ
Ġà¦¬à¦²à¦² à¦ıà¦ĩà¦¬
Ġà¦¬à¦²à¦² à¦ıà¦ķà¦¦à¦²
Ġà¦¬à¦²à¦² à¦¨à¦°à¦°
Ġà¦¬à¦²à¦² à¦Ĩà¦¨à¦Ĺ
Ġà¦Ĩà¦¸ à¦¯
Ġà¦Ĩà¦¸ à¦ļ
Ġà¦Ĩà¦¸ à¦²à¦ķ
Ġà¦Ĩà¦¸ à¦¨à¦¸
Ġà¦Ĩà¦¸ à¦¨à¦ĩ
Ġà¦Ĩà¦¸ à¦¨à¦ª
âĢĻ .
âĢĻ âĢ¦âĢĿ
âĢĻ ),
âĢĻ )à¥¤
âĢĻ âĢĻâĢĶ
Ġà¦ķà¦¥ à¦¨à¦ķ
Ġà¦ķà¦¥ à¦ķà¦ķ
Ġà¦ķà¦¥ à¦®à¦¸
à¦¼à¥¤ *
Ġà¦¹à¦² à¦ª
Ġà¦¹à¦² à¦®à¦¨
Ġà¦¹à¦² à¦ıà¦ĸà¦¨
Ġà¦īà¦ł à¦²à¦ķ
Ġà¦¡ à¦°à¦ķ
Ġà¦¡ à¦°à¦®
Ġà¦¡ à¦Łà¦Ĺ
Ġà¦¡ à¦Ĺà¦¸
Ġà¦¡ à¦ķà¦Łà¦°
à§Ī à¦ģ
à§Ī à¦Ĥ
à§Ī âĢ¦
Ġà¦ĩ à¦ª
Ġà¦ĩ à¦¸à¦¬
Ġà¦ĩ à¦Łà¦ķ
Ġà¦ĩ à¦¦à¦²
Ġà¦ĩ à¦°à¦«
Ġà¦ĩ à¦Łà¦Ł
Ġà¦ĩ à¦·à§İ
Ġà¦ĩ à¦Ńà¦Ł
à¦ĺ à¦¬à¦¨
à¦ĺ à¦°à¦£
à¦ĺ à§İ
à¦ĺ à¦¬à¦ª
à¦ĺ à¦°à¦¸
à¦ĺ à¦¸à¦¨
à¦ĺ à¦¨à¦¨
à¦ĺ à¦Ĺà¦°
à¦ĺ à¦°à¦ĵ
à¦ĺ à¦¨à¦ķ
à¦ĺ à¦¨à¦¦
à¦ĺ à§°
à¦ĺ à¦Ĺà¦®
à¦ĺ à¦¸à¦®à§Ł
à¦ĺ à¦¬à¦°à¦£
à¦ĺ à¦Ŀà¦¡
à¦ĺ à¦²à¦Ĺà¦¡
Ġà¦®à¦¤ à¦¤
Ġà¦®à¦¤ à¦²
Ġà¦®à¦¤ à¦Ł
Ġà¦®à¦¤ à¦Ĺ
Ġà¦®à¦¤ à¦£
Ġà¦®à¦¤ à¦¨à¦ĵ
Ġà¦®à¦¤ à¦Ĺà¦¸
à§Į âĢĶ
à§Į à¦ĥ
Ġà¦¹à¦¬ à¦¹à¦¬
Ġà¦ľà¦¨ à¦²
Ġà¦ľà¦¨ à¦¡
Ġà¦ľà¦¨ à¦ĵ
Ġà¦ľà¦¨ à¦ķà¦ķ
Ġà¦ľà¦¨ à¦ľà¦Ł
Ġà¦§à¦° à¦¯
Ġà¦§à¦° à¦¨à¦Ĺ
Ġà¦§à¦° à¦®à¦¶
Ġà¦§à¦° à¦®à¦ª
Ġà¦Ŀ à¦¦
Ġà¦Ŀ à¦°à¦¸
Ġà¦Ŀ à¦ªà¦ķ
Ġà¦Ŀ à¦Łà¦¨
Ġà¦Ŀ à¦²à¦ķà¦Ł
à¦¬à¦² à¦¡
à¦¬à¦² à¦¬à¦¨
à¦¬à¦² à¦²à¦¨
à¦¼, /
à¦¼, âĢĿâĢĶ
ĠâĢĺ (
ĠâĢĺ âĢĵ
à¦¬à¦ª à¦Ł
à¦¬à¦ª à¦ŀ
à¦¬à¦ª à¦¦à¦Ł
Ġà¦ħà¦¬ à¦¤à¦²
Ġà¦ħà¦¬ à¤¸
à§ģà¦ģ âĢĶ
Ġà¦ļà¦² à¦¨à¦¸à¦ĩ
Ġà¦ļà¦² à§İà¦¶à¦ķ
à¦°à¦® à¦¤à¦¨
à¦°à¦® à¦®à¦¯
à¦°à¦® à¦¸à¦Ļ
à¦°à¦® à¦®à§Ł
à¦°à¦® à¦¹à¦¤
à¦°à¦® à¦Ŀà¦®
Ġà¦ł à¦ĩ
Ġà¦ł à¦Ļ
Ġà¦ł à¦ķà¦Ľ
à¦·à¦£ à¦ªà¦°
à¦·à¦£ à¦®à¦¯
à¦·à¦£ à¦¯à¦¨
à¦·à¦£ à¦®à§Ł
à¦¨à¦¤ à¦¦
à¦¨à¦¤ à¦ª
à¦¨à¦¤ à¦ľ
à¦¨à¦¤ à¦Ń
Ġà¦ķà¦°à¦² à¦¤
Ġà¦ķà¦°à¦² à¦¹
Ġà¦ķà¦°à¦² à¦Ĩà¦®
Ġà¦ıà¦¸ à¦ĵà¦ıà¦¸
âĢĵ (
âĢĵ )
âĢĵ -
âĢĵ ]
Ġà¦¬à¦¸ à¦ķ
Ġà¦¬à¦¸ à¦Ĺ
Ġà¦¬à¦¸ à¦¬à¦¤
Ġà¦¬à¦¸ à¦¤à¦Ń
Ġà¦Ĩà¦ľ à¦¹
Ġà¦Ĩà¦ľ à¦®à¦¤
Ġà¦Ĩà¦ľ à¦¹à¦°
à¦¤à¦¨ à¦ļ
à¦¤à¦¨ à¦°à¦¤
à¦¤à¦¨ à¦®à¦¯
à¦¤à¦¨ à¦§à¦°
à¦¤à¦¨ à¦ĸà¦°
à¦ĥ )
à¦ĥ ;
à¦ĥ âĢĿà¥¤
à¦ĥ ..
à¦ĥ âĢ¦à¥¤
Ġà¦¢ à¦²à¦¨
Ġà¦¢ à¦²à¦Ľ
à§ĭà¦ģ à¥¤
à§ĭà¦ģ à¦Ĥ
à§ĭà¦ģ !âĢĿ
à¦ħ à¦°à¦¥
à¦ħ à¦¶à¦¬
à¦ħ à¦¨à¦ķ
à¦ħ à¦¬à¦¦
à¦ħ à¦¨à¦Ł
à¦ħ à¦¸à¦Ļ
à¦ħ à¦¬à¦¯
à¦ħ à§°
à¦ħ à¦ªà¦¸
à¦ħ à¦ľà¦®
à¦ħ à¦¬à¦Ń
à¦ħ à¦¶à¦¤
à¦ħ à¦Ńà§Ł
à¦ħ à¦¸à¦¤à¦¤
à¦ħ à¦ªà¦¶
à¦ħ à¦ĺà¦Łà¦¨
à¦ħ à¤ļ
Ġà¦¬à¦¨ à¦ĺ
Ġà¦¬à¦¨ à¦ķà¦°
Ġà¦¬à¦¨ à¦®à¦§
Ġà¦¨à¦¤ à¦¸
à¦ķà¦² à¦ļ
à¦ķà¦² à¦ĵ
à¦ķà¦² à¦«
à¦ķà¦² à¦ķà¦¤
à¦ķà¦² à¦¨à¦ĵ
à¦ķà¦² à¦¨à¦Ł
à¦ķà¦² à¦¨à¦Ń
à¦ķà¦² à¦ķà¦£
Ġà¦Ĩà¦¬ à¦¹à¦°
Ġà¦Ĩà¦¬ à¦¹à¦¸à¦Ļ
Ġà¦ħà¦® à¦Ĺ
Ġà¦ħà¦® à¦°à¦£
Ġà¦ħà¦® à¦°à¦ĵ
Ġà¦ªà¦¥ à¦§
Ġà¦ªà¦¥ à¦ªà¦°
Ġà¦ªà¦¥ à¦¤à¦²
Ġà¦ªà¦¥ à¦ªà¦¥
Ġà¦ªà¦¥ à¦Ńà¦°
Ġà¦ªà¦¥ à¦¸à¦Ń
Ġà¦Ĩà¦Ĺ à¦ķ
Ġà¦Ĩà¦Ĺ à¦¬
Ġà¦Ĩà¦Ĺ à¦ª
Ġà¦Ĩà¦Ĺ à¦·
Ġà¦Ĩà¦Ĺ à¦ļ
Ġà¦Ĩà¦Ĺ à¦Ń
Ġà¦Ĩà¦Ĺ à§ľ
Ġà¦Ĩà¦Ĺ à¦°à¦ĵà§Ł
Ġà¦Ĺà¦² à¦¸
Ġà¦Ĺà¦² à¦Ł
Ġà¦Ĺà¦² à¦§
Ġà¦Ĺà¦² à¦ĺ
Ġà¦Ĺà¦² à¦ªà¦¥
Ġà¦Ĺà¦² à¦Ĺà¦£
Ġà¦Ĺà¦² à¦ķà¦®
à¦ķà¦° à¦¯
à¦ķà¦° à¦ľà¦¨
à¦ķà¦° à¦ŀ
à¦ķà¦° à¦¦à¦°
à¦ķà¦° à¦¦à¦²
à¦ķà¦° à¦ªà¦²
à¦ķà¦Ł à¦¬
à¦ķà¦Ł à¦¦
à¦ķà¦Ł à¦ľ
à¦ķà¦Ł à¦°à¦¦
à¦ķà¦Ł à¦¸à¦¹
à¦ķà¦Ł à¦ľà¦¨à¦¦
à¦¸à¦¬ à¦ĵ
à¦¸à¦¬ à¦°à¦ķà¦®
Ġà¦ħà¦¸ à¦¦à¦¬
à¦¯à¦¬ à¦£
à¦¯à¦¬ à¦¦à¦¨
à¦°à¦¨ à¦²
à¦°à¦¨ à¦ª
à¦°à¦¨ à¦Ĺ
à¦°à¦¨ à¦Łà¦¦
à¦°à¦¥ à¦ĵ
à§ĭà¥¤ )
à§ĭà¥¤ âĢ¦
Ġà¦¤à¦¬ à¦§
Ġà¦¤à¦¬ à§İ
à§ĩà¦ģ ,
à§ĩà¦ģ -
à§ĩà¦ģ à§Į
Ġà¦Ĩà¦ķ à¦¡
à§ĭ, âĢĶ
à¦¾à¦Ĥ ;
à¦¾à¦Ĥ âĢĿ
à¦¾à¦Ĥ âĢĻ
à¦¾à¦Ĥ âĢĵ
à¦¾à¦Ĥ à¥¤âĢĻ
à¦²à¦ķ à¦ĸ
à¦²à¦ķ à¦¹
à¦²à¦ķ à¦Ĺà¦£
à¦¤à¦¬ à¦ļ
à¦¤à¦¬ à¦ĵ
à¦°à¦¸ à¦²
à¦°à¦¸ à¦Ł
à¦°à¦¸ à¦ĩ
à¦°à¦¸ à¦§
à¦°à¦¸ à¦ĵ
à¦°à¦¸ à¦ĺ
à¦°à¦¸ à¦ķà¦²
à¦°à¦¸ à¦®à¦¯
à¦¨à¦¬ à¦°à¦ķ
à¦¨à¦¬ à¦¦à¦°
à¦¨à¦¬ à¦ļà¦ķ
à¦¨à¦¬ à¦¹à¦¨
à¦¨à¦¬ à¦¸à¦¹
à¦¨à¦¬ à¦ķà¦£
à¦¨à¦¬ à¦īà¦¦
à¦¨à¦¬ à¦Ĺà¦łà¦¨
à¦ķà¦¤ à¦Ĺ
à¦ķà¦¤ à¦Ń
à¦ķà¦¤ à¦ľà¦¨
à¦ķà¦¤ à¦®à¦¤
à¦¦à¦¨ à¦ļ
à¦¦à¦¨ à¦°à¦¤
à¦¦à¦¨ à¦ķà¦°
à¦°à¦¥à¦® à¦ĸ
Ġà¦¬à¦° à¦ľà¦²
Ġà¦¬à¦° à¦ĩà¦¯
Ġà¦¹à¦¤ à¦ķ
Ġà¦¹à¦¤ à¦ª
Ġà¦¹à¦¤ à¦¬à¦²
à§ĩ? âĢ¦âĢĿ
Ġà¦¸à¦¤ à§İ
Ġà¦¸à¦¤ à¦¤à¦®
Ġà¦ıà¦² à¦¦
Ġà¦ıà¦² à¦ľ
Ġà¦ıà¦² à¦¹
Ġà¦ıà¦² à¦Ĩà¦®
Ġà¦ıà¦² à¦®à¦¹
Ġà¦Ĩà¦¨ à¦ª
Ġà¦Ĩà¦¨ à¦Ń
Ġà¦Ĩà¦¨ à¦¤à¦°
Ġà¦Ĩà¦¨ à¦«
Ġà¦Ĩà¦¨ à¦ķà¦¦
Ġà¦Ĩà¦¨ à¦ĩà¦®
Ġà¦Ĩà¦¨ à¦ħà¦«
Ġà¦ħà¦¦ à¦¡
Ġà¦ħà¦¦ à¦°à¦ķ
à¦Ĩà¦® à¦¬
à¦Ĩà¦® à¦¡
Ġà¦īà¦¦ à¦²
Ġà¦īà¦¦ à¦§
Ġà¦īà¦¦ à¦°à¦ª
Ġà¦īà¦¦ à¦ķà¦¸
Ġà¦īà¦¦ à§Łà¦ķ
Ġà¦ħà¦° à¦°
à¦¦à¦° à¦°
à¦¦à¦° à¦ª
à¦¦à¦° à¦¶
à¦¦à¦° à¦ĸ
à¦¦à¦° à¦ĺ
à¦¾- à§ĩ
à¦¾- âĢĻ
à¦¾- ----
Ġà¦ľà¦² à¦Ļ
Ġà¦ľà¦² à¦°à¦¤
Ġà¦ľà¦² à¦¤à¦°
Ġà¦ľà¦² à¦¦à¦°
Ġà¦ľà¦² à¦¹à¦¸
Ġà¦ľà¦² à¦®à¦£
Ġà¦ľà¦² à¦®à§Ł
Ġà¦ľà¦² à¦®à¦¹
Ġà¦ľà¦² à¦¤à¦Ł
Ġà¦ľà¦² à¦¸à¦¹
Ġà¦ľà¦² à¦Ľà¦¤
Ġà¦ľà¦² à¦Ŀà¦¡
Ġà¦ľà¦² à¦ĺà¦¡
Ġà¦ľà¦² à¦®à¦¹à¦²
Ġà¦ľà¦² à¦ķà¦²à¦¸
Ġà¦ľà¦² Ø´
à¦Ĺà¦² à¦¯
à¦Ĺà¦² à¦ĸ
à¦Ĺà¦² à¦ªà¦°
à¦Ĺà¦² à¦ªà¦¨
à¦Ĺà¦² à¦¬à¦°
à¦Ĺà¦² à¦ķà¦²
à¦Ĺà¦² à¦Ĺà¦²
à¦Ĺà¦² à¦¬à¦¦
à¦Ĺà¦² à¦ĺà¦°
à¦Ĺà¦² à¦®à¦¹à¦²
à¦²à¦¤ à¦£
à¦Ĺà¦¤ à¦ª
à¦Ĺà¦¤ à¦ľ
à¦Ĺà¦¤ à¦¹
Ġà¦¶à¦¬ à¦ķ
Ġà¦¶à¦¬ à¦Ł
à¦¦à¦¯ à¦ľ
à¦¶à¦¨ à¦ĸ
à¦¶à¦¨ à¦Ń
Ġà¦¸à¦¨ à¦¨
à¦¿à¦Ĥ :
à¦¿à¦Ĥ ?âĢĻ
à¦¿à¦Ĥ âĢĶâĢľ
à¦¿à¦Ĥ âĢĿà¥¤
à¦¿à¦Ĥ âĢĻà¥¤
à¦¿à¦Ĥ âĢĻâĢĶ
Ġà¦ħà¦¤ à¦¤
Ġà¦ħà¦¤ à¦²à¦¤
Ġà¦ħà¦¤ à¦²à¦¨
Ġà¦ħà¦¤ à¦²à¦¬
Ġà¦ħà¦¤ à¦¤à¦Ĺ
à¦¯à¦ķ à¦ĩ
à¦¯à¦ķ à¦®à¦²
à¦¯à¦ķ à¦¥à¦¨
à¦®à¦¤ à¦¸
à¦§à¦ķ à¦¥
à¦§à¦ķ à¦Ĺà¦£
à¦°à¦¹ à¦¦
à¦°à¦¹ à¦ľ
à¦°à¦¹ à¦°à¦¬
à¦°à¦¹ à¦°à¦¹
à¦°à¦¹ à¦°à¦Ń
à¦°à¦¹ à¦®à§Ł
à¦°à¦¹ à¦Ĺà¦£
à¦°à¦¹ or
Ġà¦ĺà¦° à¦ļ
Ġà¦ĺà¦° à¦ĵà§Ł
Ġà¦¯à¦¦ à¦¬
Ġà¦¯à¦¦ à¦ª
Ġà¦°à¦ķ à¦¬
Ġà¦īà¦łà¦² à¦¹
Ġà¦īà¦łà¦² à¦«
Ġà¦īà¦łà¦² à¦¸à¦¬
Ġà¦īà¦łà¦² à¦ıà¦ĩ
à¦ļà¦¨ à¦°
à¦ļà¦¨ à¦¦
à¦ļà¦¨ à¦ª
à¦ļà¦¨ à¦¬à¦°
à¦²à¦¨ à¦¸à¦®
à¦²à¦¨ à¦ªà¦¥
à¦²à¦¨ à§Łà¦¨
à¦²à¦¨ à¦ķà¦¶
à¦²à¦¨ à¦®à¦§
à¦²à¦¨ à¦²à¦Ĺ
à¦²à¦¨ à¦ķà¦¥
à¦²à¦¨ à¦¸à¦¹
à¦²à¦¨ à¦ĺà¦£
à¦²à¦¨ à¦°à¦¹à¦¸
Ġà¦ķà¦°à¦¬ à¦£
à¦¹à¦¸ à¦¨
à¦¹à¦¸ à¦®
à¦¹à¦¸ à¦¸
à¦¹à¦¸ à¦ľ
à¦¹à¦¸ à¦¹
Ġà¦īà¦ª à¦§
Ġà¦īà¦ª à¦ķà¦²
Ġà¦īà¦ª à¦ļà¦°
Ġà¦īà¦ª à¦¹à¦¤
Ġà¦īà¦ª à¦²à¦Ń
Ġà¦®à¦¹ à¦Ń
Ġà¦¸à¦° à¦°
Ġà¦¸à¦° à¦¯
Ġà¦¸à¦° à¦ĸ
Ġà¦¸à¦° à¦«
Ġà¦¸à¦° à¦²à¦Ĺ
à¦°à¦¶ à¦²
à¦°à¦¶ à¦¬à¦¤
à¦°à¦¯ à¦ļ
à¦¨à¦ĵ à¦¬
à¦¨à¦ĵ à¦ľ
à¦¬à¦¤ à¦Ł
à¦¬à¦¤ à¦ľ
à¦¬à¦¤ à¦¥
à¦¬à¦¤ à¦ĵ
à¦¬à¦¤ à¦°à¦£
à¦¬à¦¤ à¦®à¦¯
à¦¬à¦¤ à¦¸à¦®
à¦¬à¦¤ à¦ķà¦¨
à¦ĸà¦¤ à¦ª
à¦Ľà¦¨ à¦ķ
à¦Ľà¦¨ à¦Ń
à¦ĩà¦² à¦«
à¦ĩà¦² à¦Łà¦ķ
à¦®à¦² à¦ª
à¦®à¦² à¦ĩ
à¦®à¦² à¦¶
à¦®à¦² à¦ļ
à¦¯à¦¤ à¦ĸ
à¦²à¦¬ à¦®à¦°
à¦ĸà¦² à¦°
à¦ĸà¦² à¦¯
à¦ĸà¦² à¦ļ
à¦ĸà¦² à¦ıà¦ķà¦Ł
à¦ĸà¦² à¦Ńà¦Ļ
à¦ĸà¦² à¦Ĩà¦¨à¦Ĺ
à§ĩâĢĶ "
à§ĩâĢĶ âĢĶ
à§ĩâĢĶ à¥¤âĢĻ
à¦§à¦¨ à¦¯
à¦§à¦¨ à¦¦
à¦§à¦¨ à¦ľ
à¦§à¦¨ à¦ªà¦°
à¦§à¦¨ à¦ŀ
à¦§à¦¨ à¦ªà¦¤
à¦§à¦¨ à¦ļà¦°
à¦§à¦¨ à¦¦à¦¶
à¦°à¦ľ à¦Ļ
à¦®à¦¯ à¦¨
à¦®à¦¯ à¦¦
Ġà¦¨à¦¦ à¦¶
à¦°à¦¦ à¦ª
à¦°à¦¦ à¦ĵ
à¦°à¦¦ à¦Ń
à¦°à¦¦ à¦²à¦ķ
Ġà¦ıà¦®à¦¨ à¦§
Ġà¦ħà¦ª à¦ľ
Ġà¦ħà¦ª à¦Ļ
Ġà¦ħà¦ª à¦ļà¦¨
Ġà¦ħà¦ª à¦¹à¦°
Ġà¦ħà¦ª à¦¶à¦®
à¦°à¦² à¦ľ
à¦°à¦² à¦¤à¦°
à¦¼à§ĭ âĢĿ
à¦¼à§ĭ âĢ¦
à¦¼à§ĭ !âĢĿ
à¦¼à§ĭ --
Ġà¦ħà¦§ à¦°à¦®
Ġà¦ħà¦§ à¦®à¦¤
Ġà¦ħà¦§ à¦®à¦ķ
Ġà¦ķà¦² à¦¡
Ġà¦ķà¦² à¦ĵ
Ġà¦ķà¦² à¦®à¦²
Ġà¦ķà¦² à¦®à¦ķ
à¦ļà¦² à¦ª
à¦ļà¦² à¦ĩ
à¦ļà¦² à¦¶
à¦ļà¦² à¦¨à¦¬
à¦ļà¦² à¦¸à¦¹
à¦ªà¦¤ à¦²
à¦ªà¦¤ à¦ŀ
à¦ªà¦¤ à§İ
Ġà¦¸à¦¹ à¦°
Ġà¦¸à¦¹ à¦ļ
Ġà¦¸à¦¹ à¦¬à¦¤
Ġà¦¸à¦¹ à¦¶à¦¬
Ġà¦¸à¦¹ à¦ļà¦°à¦®
à¦®à¦ķ à¦°à¦ķ
à¦°à¦ĩ à¦®
à¦°à¦ĩ à¦¸
Ġà¦Ĩà¦¤ à¦¸à¦ķ
Ġà¦ıà¦¤ à§İ
Ġà¦ıà¦¤ à¦ľà¦¨à¦ķ
à¦¹à¦° à¦Ł
à¦¹à¦° à¦Ńà¦°
Ġà¦īà¦¤ à¦¸
Ġà¦īà¦¤ à¦ª
à¦¿à¦ĥ -
à¦¿à¦ĥ /
à¦¸à¦¨ à¦°
à¦¸à¦¨ à¦²
à¦¸à¦¨ à¦¯
à¦¸à¦¨ à¦ĸ
à¦¸à¦¨ à¦ķà¦£
à¦ĩà¦¨ à¦ļ
à¦ĩà¦¨ à¦¬à¦¨
à¦ĩà¦¨ à¦«à¦°
Ġà¦ħà¦ļ à¦²à¦¨
Ġà¦¶à¦ķ à¦ĵà¦¯
à¦ķà¦¬ à¦¦
à¦ķà¦¬ à¦°à¦£
Ġà¦ķà¦£ à¦ķ
à¦¨à¦¨ à¦®
à¦¨à¦¨ à¦®à¦¯
à¦¨à¦¨ à¦ªà¦¥
à¦¨à¦¨ à¦°à¦°
à§ĩ- '
à¦°à¦ªà¦° à¦¦
à¦°à¦ªà¦° à¦¶
à¦°à¦ªà¦° à¦ĺà¦£
Ġà¦ķà¦¬ à¦°à¦¬
Ġà¦ķà¦¬ à¦°à¦ķ
à¦Ńà¦¬ à¦¯
à¦Ńà¦¬ à¦¬
à¦Ńà¦¬ à¦Ł
à¦Ńà¦¬ à¦®à§Ł
à¦¸à¦® à¦®
à¦¸à¦® à¦ª
à¦¸à¦® à¦¶
à¦¸à¦® à§Łà¦¨
à¦¸à¦® à¦ľà¦¦
Ġà¦ıà¦ĸ à¦¬à¦°
à¦Łà¦ķ à¦¨
à¦Łà¦ķ à¦ª
à¦Łà¦ķ à¦ĸ
à¦Łà¦ķ à¦¹
à§Ģ, ---
Ġà¦īà¦¨ à¦¯
Ġà¦īà¦¨ à¦®
Ġà¦ħà¦ľ à¦ķ
Ġà¦ħà¦ľ à¦ªà¦¤
Ġà¦ħà¦ľ à¦ªà¦¦
à¦¹à¦² à¦ĵà¦¯
à¦Ľà¦° à¦Ļ
âĢ¦ ,
âĢ¦ !âĢĿ
âĢ¦ âĢĺ
âĢ¦ âĢ¦.
Ġà¦ĺà¦Ł à¦°
Ġà¦Ĳ à¦ķà¦¥
Ġà¦¬à¦¹ à¦ķ
Ġà¦ķà¦¤ à¦²
Ġà¦ķà¦¤ à¦¤à¦Ĺ
Ġà¦ķà¦® à¦¸à¦®
à¦¤à¦² à¦¦
à¦¤à¦² à¦ĵ
à¦¤à¦² à¦ĵà§Ł
à¦¤à¦² à¦¶à¦¯
Ġà¦¬à¦²à¦¤ à¦¦
à¦¾âĢĶ -
à¦¾âĢĶ à¥¤
à¦Ĺà¦¨ à¦Ĺ
à¦Ĺà¦¨ à¦ļ
Ġà¦°à¦Ļ à¦¨
Ġà¦°à¦Ļ à¦¶
Ġà¦°à¦Ļ à¦ķà¦£
Ġà¦°à¦Ļ à¦®à¦ŀ
Ġà¦°à¦Ļ à¦®à¦¹à¦²
Ġà¦¸à¦ķ à¦¡
Ġà¦īà§İ à¦ķà¦¨
Ġà¦¬à¦Ľà¦° à¦ª
Ġà¦¯à¦¤ à¦¤à¦¦
Ġà¦ªà¦¦ à¦ĸ
Ġà¦ªà¦¦ à¦¬à¦¨
Ġà¦ªà¦¦ à¦ĺ
Ġà¦ªà¦¦ à¦ªà¦¦
à¦®à¦° à¦Ĺ
à¦®à¦° à¦¬à¦¨
à¦¸à¦° à¦ª
à§ĩ! ),
à§ĩ! ---
à¦°à¦Ń à¦¸
à¦°à¦Ń à¦¦
à¦°à¦Ń à¦Ł
à¦°à¦Ń à¦Ń
à¦°à¦Ń à¦§à¦¨
à¦°à¦ĵ à¦²
à¦°à¦ĵ à¦ł
à¦°à¦ĵ à¦¶à¦¨à¦ķ
Ġà¦¶à¦° à¦Ĺ
Ġà¦¶à¦° à¦ļ
Ġà¦¶à¦° à¦¬à¦¨
à¦¶à¦¬ à¦¯
à¦¶à¦¬ à¦¸
à¦¶à¦¬ à¦¶
à¦¶à¦¬ à¦§
âĢľ âĢ¦
à¦¦à§Ł à¦ļ
à¦¦à§Ł à¦Ń
à¦¦à§Ł à¦Ļ
à¦¦à§Ł à¦¤à¦²
à¦ªà¦¦ à¦¤
à¦ªà¦¦ à¦®à¦¯
à¦ªà¦¦ à¦Ńà¦ŀ
à¦ªà¦¦ à¦¤à¦¨à¦¯
Ġà¦īà¦ļ à¦ķ
Ġà¦īà¦ļ à¦Ľ
à¦ªà¦¥ à¦¨
à¦ªà¦¥ à¦®
à¦ªà¦¥ à¦ĸ
à¦ªà¦¥ à¦ĵ
à¦ªà¦¥ à¦Ńà¦Ļ
à¦¿? (
à¦¿? )
à¦¿? âĢ¦
à¦¼à§ĩà¥¤ à¥¤âĢĻ
Ġà¦¨à§Ł à¦ľà¦¨
Ġà¦¨à§Ł à¦¨à¦¤
Ġà¦¨à§Ł à¦¨à¦Ľ
Ġà¦ħà¦®à¦² à¦°
Ġà¦ħà¦®à¦² à¦Ń
Ġà¦ħà¦®à¦² à¦²à¦¤
âĢĮ !
âĢĮ à§ĩ
âĢĮ à¥¤
âĢĮ âĢĻ
âĢĮ âĢĵ
âĢĮ à¦ĥ
Ġà¦ħà¦¥ à¦ĩ
à¦ıà¦ķ à¦Ľ
à¦ıà¦ķ à¦¸à¦ª
à¦ıà¦ķ à¦ķà¦Ń
à¦ıà¦ķ à¦ĸà¦£
à¦ıà¦ķ à¦§à¦°à¦£
à¦¾? âĢĵ
à¦¾? âĢ¦
à¦¨à¦ķ à¦ĩ
à¦¨à¦ķ à¦·
à¦¨à¦ķ à¦Ń
à¦¨à¦ķ à§ľ
à§Ģà¥¤ "
à§Ģà¥¤ '
à§Ģà¥¤ âĢĺ
Ġà¦Ĺà¦° à¦ł
à¦®à¦£ à¦®
à¦®à¦£ à¦£
Ġà¦ħà¦ķ à¦ļ
Ġà¦ħà¦ķ à¦ĵà¦Ĩà¦°
à¦¦à¦² à¦Ľ
à¦¦à¦² à¦®à¦¤
à¦¦à¦² à¦ªà¦¤
à¦¦à¦² à¦¹à¦°
à¦¦à¦² à¦ªà¦¦
à¦¦à¦² à¦®à¦£
à¦¬à¦¸ à¦¤à¦¬
à¦¬à¦¸ à¦¶à¦°
Ġà¦¬à¦ĩ à¦°
Ġà¦¬à¦ĩ à¦¦
Ġà¦¬à¦ĩ à¦ļ
Ġà¦¬à¦ĩ à¦¹
Ġà¦¬à¦ĩ à¦¬à¦¨
Ġà¦¬à¦ĩ à¦ı
Ġà¦¬à¦ĩ à¦¤à¦²
Ġà¦¬à¦ĩ à¦ªà¦Ł
Ġà¦¬à¦ĩ à¦§à¦°
Ġà¦¬à¦ĩ à¦«à¦°
Ġà¦¬à¦ĩ à¦ĵà¦²
Ġà¦¬à¦ĩ à¦ĺà¦°à¦Ł
Ġà¦®à¦° à¦ª
à¦·à¦¤ à¦¤
à¦·à¦¤ à¦¸
à¦·à¦¤ à¦ª
à¦·à¦¤ à¦ĵ
à¥¤âĢĿ à¥¤
à¥¤âĢĿ âĢĶ
à§įâĢĮ à§į
à§įâĢĮ âĢĵ
à§įâĢĮ à¥¤âĢĿ
à§įâĢĮ à§įâĢĮ
à§įâĢĮ âĢį
à¦°à¦ª à¦¬
à¦°à¦ª à¦ľ
à¦Łà¦² à¦°
à¦Łà¦² à¦¸
à¦ĩà¦° à¦Ł
Ġà¦«à¦² à¦°
Ġà¦«à¦² à¦Ľ
Ġà¦«à¦² à¦¹
à¦¬à¦¦ à¦¬
à¦¬à¦¦ à¦®à¦¨à¦ķ
à¦¯à¦® à¦ł
à¦¯à¦® à¦Ļ
à¦¯à¦® à¦°à¦ķ
à¦·à¦ķ à¦¸
à¦·à¦ķ à¦·
à§İà¦ķ à¦ļ
à§İà¦ķ à¦®à¦²
à¦¿à¦ģ !
à¦¿à¦ģ âĢ¦
à§ģ, ---
à¦¤à¦ķ à¦¸
à¦¤à¦ķ à¦ĩ
à¦¤à¦ķ à¦ļ
à¦¤à¦ķ à¦Ń
à¦°à¦Ł à¦°
à¦°à¦Ł à¦¨
à¦°à¦Ł à¦¸
Ġà¦²à¦ķ à¦¸
à§ģà¦ĥ -
à§ģà¦ĥ âĢĵ
à¦¨à¦Ł à¦Ł
Ġà¦ĵà¦ĩ à¦¯
à¦ļà¦ķ à¦ª
à¦ħà¦¨ à¦¯
à¦ħà¦¨ à¦¸
à¦ħà¦¨ à¦Ĺ
à¦ħà¦¨ à¦§
à¦ħà¦¨ à¦¶à¦¨
à¦ħà¦¨ à¦ªà¦¤
à¦¼à§ĩ, âĢĻ
à¦¼à§ĩ, --
à¦¤à¦® à¦Ĺ
à¦¤à¦® à¦¹
à¦¤à¦® à¦ĵ
à¦¤à¦® à¦Ń
à¦¾! *
Ġà¦ĩà¦¨ à¦¸à¦ª
Ġà¦ĩà¦¨ à¦¸à¦Ł
Ġà¦ĩà¦¨ à¦Ńà¦²à¦Ń
Ġà¦ĩà¦¨ à¦ıà¦«
à¦¸à¦² à¦²
à¦¸à¦² à¦Ń
à¦ľà¦² à¦Ĺ
à¦ľà¦² à¦ĵ
à¦ľà¦² à¦¬à¦¨
à¦ľà¦² à¦¦à¦¸
à¦®à¦¬ à¦ķ
à¦®à¦¬ à¦¹
à¦®à¦¬ à§İà¦ª
ĠčĊč Ċ
à¦·à¦¯ à¦ľ
Ġà¦ħà¦¶ à¦Ļ
Ġà¦ħà¦¶ à¦¥à¦ª
à¦¶à¦ķ à¦ľà¦¨
à¦¸à¦Ļ à¦¸
à¦ļà¦° à¦°
Ġà¦Ĩà¦§ à¦°
Ġà¦Ĩà¦§ à¦¹
Ġà¦Ĩà¦§ à¦Ń
Ġà¦Ĩà¦§ à¦®à¦¯
Ġà¦Ĩà¦§ à¦ªà¦¥
Ġà¦Ĩà¦§ à¦¬à¦¯
à¦¬à¦ķ à¦ľ
à¦¬à¦ķ à¦¹
à¦¬à¦ķ à¦¸à¦¦
à¦¬à¦ķ à¦¸à¦Ń
à¦¬à¦ķ à¦¦à¦£
à§ĩ; âĢĿ
Ġà¦ıà¦ķà¦¦ à¦£
Ġà¦ıà¦ķà¦¦ à¦«
à¦ĩà¦ķ à¦ķ
à¦ĩà¦ķ à¦ĩ
à¦¢ à¦ķ
à¦¤à¦¤ à¦ĸà¦¨
à§Łà¦¨ à¦°
à¦°à¦Ľ à¦²
à¦°à¦Ľ à¦¸
à§ģâĢĻ !âĢĿ
à¦¯à¦¸ à¦Ł
à¦¯à¦¸ à¦Ĺà¦¨
à¦¬à¦¬ à¦¯
à¦¬à¦¬ à¦ļ
à¦¹à¦¨ à¦¸
à¦¹à¦¨ à¦¶
à¦¹à¦¨ à¦ļ
à¦¹à¦¨ à¦ĺ
Ġà¦ıà¦ķà¦ľà¦¨ à¦¤
Ġà¦īà¦ªà¦° à¦®
Ġà¦īà¦ªà¦° à¦ĵà¦¯
Ġà¦īà¦ªà¦° à¦ĵà§Ł
Ġà¦īà¦ªà¦° à¦®à¦¹à¦²
Ġà¦ħà¦² à¦¯
Ġà¦ħà¦² à¦¹
Ġà¦ħà¦² à¦Ń
Ġà¦ħà¦² à¦¸à¦ĩ
Ġà¦Ńà¦¬ à¦®à¦£
Ġà¦Ĩà¦¸à¦² à¦ĩ
à¦ªà¦Ł à¦¨
à¦ªà¦Ł à¦Ł
à¦ªà¦Ł à¦ļ
à¦¯à¦¦ à¦ķ
à¦¯à¦¦ à¦¬
à¦¬à¦¯ à¦ľ
à¦ľà¦° à¦®à¦¨
à§° à§Ł
à§° à¦ł
à§° à¦®à¦¤
à§° à¦ªà¦¤
à§° à¦¸à¦®
à§° à¦Ĺà¦°
à§° à¦®à¦¬
à§° à¦¸à¦Ļ
à§° à¦¬à¦ķ
à§° à¦²à¦®
à§° à¦ľà¦ķ
à§° à¦¸à¦¹
à§° à¦Ĺà¦£
à§° à¦¶à¦¸
à§° à¦ļà¦²à¦¨
Ġà¦ħà¦¬à¦¶ à¦¤
à¦¼à§ģ ?âĢĻ
à¦¼à§ģ --
à¦ķà¦¨ à¦ª
à¦ķà¦¨ à¦ĩ
à¦ķà¦¨ à¦¶
à¦ķà¦¨ à¦Ń
Ġà¦¶à¦¤ à¦¤à¦®
Ġà¦¶à¦¤ à¦¦à¦²à¦¬
Ġà¦¶à¦¤ à¦¦à¦²à¦ķ
!âĢĿ âĢĵâĢĵ
Ġà¦ªà¦¤ à¦ªà¦¤
à¦¸à¦« à¦°à¦Ł
à¦¸à¦ķ à¦ĩ
à¦¸à¦ķ à¦¥
Ġà¦¨à¦¬ à¦Ł
Ġà¦¨à¦¬ à¦®à¦¨
Ġà¦¨à¦¬ à¦ī
Ġà¦¨à¦¬ à¦¬à¦²
Ġà¦¨à¦¬ à¦¸à¦¨
Ġà¦¨à¦¬ à¦ĺà¦¨
Ġà¦¨à¦¬ à¦Ĺà¦łà¦¨
Ġà¦¨à¦¬ à¦Ĺà¦ł
Ġà¦¨à¦¬ à¦¹à¦Ł
Ġà¦Ĺà¦¤ à¦ľà¦¨
à¦ĺà¦° à¦Ļ
à¦ĺà¦° à¦®à¦¨
Ġà¦īà¦² à¦¸
Ġà¦¦à¦² à¦®
Ġà¦¦à¦² à¦¦
Ġà¦¦à¦² à¦ª
Ġà¦¦à¦² à¦ľ
Ġà¦¦à¦² à¦¹
Ġà¦¦à¦² à¦Ń
Ġà¦¦à¦² à¦Ĺà¦¤à¦Ń
Ġà¦Ĩà¦ļ à¦°à¦®
à¦·à¦° à¦ĸ
Ġà¦¤à¦² à¦¹
Ġà¦¤à¦² à¦ĵà¦¯
à§ģ- âĢĺ
Ġà¦īà¦¡ à¦ļ
Ġà¦ªà¦ķ à¦¡
à¦¨à¦² à¦Ľ
à¦¨à¦² à¦¶
à¦¼à§Ģ à¦Ĥ
?âĢĿ .
à¦¨à¦¸ à¦ļ
à¦¨à¦¸ à¦¸à¦°
à¦Ĩà¦ľ à¦®
à¦ªà¦¸ à¦Ń
à¦¬à¦¶ à¦¦
à¦¬à¦¶ à¦°à¦£à¦¬
à¦¨à¦° à¦Ĺà¦°
Ġà¦Ĩà¦Ļ à¦¨
Ġà¦Ĩà¦Ļ à¦²
à¦ĩà¦Ł à¦¦
à¦ĩà¦Ł à¦ļ
à¦¨à¦Ĺ à¦ŀ
à¦¨à¦Ĺ à¦łà¦¨
Ġà¦Ĩà¦¦ à¦²à¦¤
à¦¯à¦° à¦ŀ
Ġ( +
à¥¤âĢĻ (
à¥¤âĢĻ âĢĵ
à¥¤âĢĻ âĢ¦
à¦¥à¦° à¦ĸà¦ļ
Ġà¦Ĺà§ľ à¦®
Ġà¦Ĺà§ľ à¦ĸ
à¦Ĺà¦ľ à¦¯
à¦Ĺà¦ľ à¦¦
à¦Ĺà¦ľ à¦ª
à¦Ĺà¦ľ à¦ļ
Ġà¦¸à¦¹à¦ľ à¦Ĺà¦®
Ġà¦ħà¦« à¦¹
Ġà¦¸à¦®à§Ł à¦ª
Ġà¦¸à¦®à§Ł à¦Ľ
Ġà¦¸à¦®à§Ł à¦¹
Ġà¦¸à¦®à§Ł à¦Ĺà¦¤
Ġà¦¸à¦®à§Ł à¦ªà¦¥
à§İà¦¸ à¦¦
Ġà¦Ĩà¦¹ à¦ķ
Ġà¦Ĩà¦¹ à¦¬à¦¨
Ġà¦Ĩà¦¹ à¦¤à¦ĵ
Ġà¦Ĩà¦¸à¦¬ à¦ĩ
à¦°à¦§ à¦°à¦ĵ
à¦īà¦² à¦§
à¦īà¦² à¦Ń
à¦īà¦² à¦®à¦¤
à¦īà¦² à¦ªà¦¥
à¦īà¦² à¦¸à¦Ļ
à¦īà¦² à¦Łà¦ª
Ġ, "
à¦¼à¦¾à¥¤ âĢĺ
à¦¼à¦¾à¥¤ à¥¤âĢĺ
à¦Ĩà¦° à¦ı
à¦Łà¦¬ à¦ĵà¦¯
à¦Łà¦¬ à¦ĩà¦Ł
?âĢĻ âĢĿ
Ġà¦ĭ à¦·à¦¯
Ġà¦ĭ à¦£à¦¨
Ġà¦ĭ à¦£à¦¬
à¦²à¦Ľ à¦¤
à¦²à¦Ľ à§ľ
à§ĩâĢĵ à¥¤
à§ĩâĢĵ âĢĺ
à¦īà¦¨ à¦ľ
à¦īà¦¨ à¦¶
à¦īà¦¨ à¦¡
à¦īà¦¨ à¦®à¦¤
à¦ĩà¦¬ à¦ĩ
Ġà¦ĺà¦¨ à¦ľ
Ġà¦ĺà¦¨ à¦¬à¦°
Ġà¦ĺà¦¨ à¦ªà¦ķ
Ġà¦°à¦ĩà¦² à¦ĩ
à¦°à¦Ĺ à¦ª
à¦°à¦Ĺ à¦Ľ
à¦°à¦Ĺ à¦ĵ
à¦°à¦Ĺ à¦°à¦®
Ġà¦ĸà¦¬à¦° à¦®
Ġà¦ĸà¦¬à¦° à¦ªà¦¤
Ġà¦Ĩà¦Łà¦ķ à¦Ľ
Ġà¦ıà¦¨ à¦ıà¦ĩà¦ļà¦ıà¦¸
à¦°à¦®à¦£ à¦¨
à¦°à¦®à¦£ à¦²
à¦°à¦®à¦£ à¦®
à¦°à¦®à¦£ à¦¶
à¦°à¦®à¦£ à¦ĵ
à¦°à¦®à¦£ à¦°à¦¸
à¦°à¦®à¦£ à¦Ĺà¦²
à¦°à¦®à¦£ à¦ļà¦°
à¦°à¦®à¦£ à¦Ńà¦°
à¦°à¦®à¦£ à¦¸à¦¹
à¦·à¦® à¦®
à¦·à¦® à¦¹
ĠâĢĵ âĢĵ
à¦ķà¦¶ à¦²
à¦ķà¦¶ à¦¸
à¦ķà¦¶ à¦«
à¦ķà¦¶ à¦ĵà¦¯
Ġà¦ķà¦¨ à¦¶
Ġà¦ķà¦¨ à¦ªà¦Ł
à¦¿! !
à¦¿! à¥¤
à¦¿! âĢĵ
Ġà¦ķà¦· à¦¬
Ġà¦Ĩà¦¸à¦¤ à¦ĩ
à¦®à§Ł à¦°
à¦®à§Ł à¦¹
à¦®à§Ł à¦Ńà¦°
à¦®à§Ł à¦®à§Ł
à¦®à§Ł à¦®à¦¨à¦¸
à¦§à¦¬ à¦§
à¦§à¦¬ à¦ļ
à¦§à¦¬ à¦ĵ
Ġà¦¦à¦¶ à¦°
Ġà¦¦à¦¶ à¦¹
Ġà¦¦à¦¶ à¦¬à¦°
à¦ķà¦ķ à¦·
Ġà¦īà§İà¦¸ à¦ĵ
Ġà¦īà§İà¦¸ à¦°à¦£
Ġà¦īà§İà¦¸ à¦¬à¦°
Ġà¦īà§İà¦¸ à¦ľà¦²
à¦¹à¦¤ à¦¦
à¦¹à¦¤ à¦ĵ
à¦ķà¦¦ à¦£
à¦ķà¦¦ à¦«
à§ĭâĢĶ -
à¦®à¦¸ à¦®à¦¨
à¦®à¦¸ à¦ŀ
à¦·à¦®à¦¤ à¦®
à¦¾; âĢĶâĢľ
Ġà¦¹à¦° à¦ĸ
à§¨ à§§à§¨à§«
à¦Ĩà¦² à¦ª
à¦Ĩà¦² à§Ł
à¦Ĩà¦² à¦ªà¦¨
à¦Ĩà¦² à¦®à¦Ĺ
à¦Ĩà¦² à¦®à¦ª
Ġà¦¦à¦° à¦ĵà§Ł
Ġà¦Ĩà¦Ń à¦¨
Ġà¦Ĩà¦Ń à¦°à¦£à¦¹
à¦¾âĢĵ âĢľ
Ġà¦¬à¦Ł à¦«à¦²
Ġà¦¬à¦Ł à¦ĩà§Ł
Ġà¦ļà¦° à¦°
Ġà¦¬à¦ķ à¦Ĺ
Ġà¦¸à¦°à¦ķ à¦Ľ
Ġà¦Ĺà¦£ à¦Ń
Ġà¦Ĺà¦£ à¦ķà¦®
Ġà¦Ĺà¦£ à¦ħà¦Ĺ
Ġà¦Ĺà¦£ à¦¸à¦ļ
Ġà¦Ĺà¦£ à¦Ńà¦¬à¦¨
Ġà¦¨à¦°à¦® à¦¤à¦°
à¦ľà¦¬ à¦Ł
à¦ľà¦¬ à¦ĩ
à¦ľà¦¬ à¦Ĺ
à¦ľà¦¬ à¦¹
à¦ľà¦¬ à¦¦à¦²
à¦ľà¦¬ à§°
à§ĭ? âĢĵ
à¦Łà¦¨ à¦ĩ
à§Ģ- '
Ġà¦¬à§Ł à¦²
Ġà¦¬à§Ł à¦ķà¦Ł
Ġà¦ķà¦²à¦ķ à¦¤
à¦¦à¦® à¦¦
à¦¦à¦® à¦ķà¦²
à¦Łà¦° à¦Ĺà¦¤
à§ĭ- --
Ġà¦Ĩà¦¦à¦° à¦Ł
Ġà¦Ĩà¦¦à¦° à¦¹
Ġà¦¬à¦ī à¦ª
Ġà¦¬à¦ī à¦¬à¦²
Ġà¦¬à¦ī à¦ªà¦£
à¦®à¦°à¦£ à¦¨
à¦®à¦°à¦£ à¦¤
à¦®à¦°à¦£ à¦²
à¦®à¦°à¦£ à¦¬
à¦®à¦°à¦£ à¦¸à¦Ń
à¦²à¦® à¦¡
à¦²à¦® à¦ŀ
à¦Ĺà¦® à¦¦
à¦Ĺà¦® à¦ĩ
à¦²à¦Ĺ à¦ª
à¦ªà¦£ à¦ĩ
à¦²à¦¸ à¦ĸ
à¦²à¦¸ à¦Ĺ
à¦¹à¦°à¦£ à¦®
à¦¹à¦°à¦£ à¦®à¦¯
à¦¹à¦°à¦£ à¦¸à¦®
à¦¹à¦°à¦£ à¦¸à¦¹
à¦¨à¦ĩ à¦ľ
à¦¨à¦ĩ à¦ĸ
à¦²à¦Ł à¦Ł
Ġà¦°à¦¸ à¦ķà¦²
Ġà¦°à¦¸ à¦¸à¦®
Ġà¦°à¦¸ à¦ļà¦°
Ġà¦¬à§ľ à¦Ł
Ġà¦¬à§ľ à¦Ń
Ġà¦¬à§ľ à¦ķà¦°
Ġà¦īà§İà¦¸à¦¬ à¦¦
Ġà¦īà§İà¦¸à¦¬ à¦¹
Ġà¦īà§İà¦¸à¦¬ à¦®à¦¨
Ġà¦īà§İà¦¸à¦¬ à¦§à¦°
Ġà¦īà§İà¦¸à¦¬ à¦®à§Ł
Ġà¦§à¦¨ à¦¹
à¦®à¦Ĺ à¦§
à¦®à¦Ĺ à¦£
Ġà¦¸à¦¤à¦¤ à¦ĩ
à¦®à¦¹ à¦¡
à¦¹à¦ł à¦ķ
à¦°à§Ł à¦ķ
à¦°à§Ł à¦ĵ
à¦¼âĢĶ âĢĻ
à¦¼- âĢĿ
Ġà¦²à¦ľ à¦ı
Ġà¦Ĩà¦ª à¦Ń
Ġà¦Ĩà¦ª à¦¸à¦¬
Ġà¦Ĩà¦ª à¦§à¦°
à¦¨à¦Ń à¦ŀ
à¦ľà¦ķ à¦®
à¦ľà¦ķ à¦Ĺ
à¦¾âĢĻ ,âĢĿ
à¦¥à¦ķ à¦°à¦£
Ġà¦ķà¦ª à¦²
à¦¯à¦ª à¦Łà¦ķ
à§¦ à§ª
à¦°à¦° à¦«
à¦Ĩà¦ķ à¦£
Ġà¦ħà¦ŀ à¦°
à¦ķà¦°à¦£ à¦®à¦¨
Ġà¦ªà¦°à¦® à¦®
Ġà¦ªà¦°à¦® à¦ŀ
Ġà¦ªà¦°à¦® à¦²à¦¤
Ġà¦¶à¦¹ à¦°à¦®
à¦¬à¦ļ à¦¸
Ġà¦īà¦ªà¦¨ à¦Ĺà¦°
à¦¶à¦² à¦°
à¦¿; âĢĶ
à¤ ĸ
à¤ Ŀ
à¦łà¦ķ à¦£
à¦łà¦ķ à¦¬à¦¨
à¦łà¦ķ à¦¬à¦°
à¦łà¦ķ à¦ĺà¦°
à¦łà¦ķ à¦łà¦ķ
-- '
Ġà¦®à¦² à¦ļà¦¤
à¦ķà¦¸ à¦Ĺ
à¦ķà¦¸ à¦ļ
à¦¬à¦¹ à¦ķ
à¦¬à¦¹ à¦£à¦ķ
à¦¼; âĢĶ
Ġà¦ľà¦¬ à¦¡
à¦¬à¦£ à¦¨
à¦¬à¦£ à¦¬
à¦¬à¦£ à¦ľ
à¦¬à¦£ à¦ĺà¦¨
à¦¬à¦£ à¦Ĺà¦Ĺà¦¨
à¦¬à¦ĩ à¦¸
à¦¬à¦ĩ à¦ª
à¦¬à¦ĩ à¦Ń
à¦¬à¦ĩ à¦Ŀ
à¦¬à¦ĩ à¦ľà¦¨
à¦¬à¦ĩ à¦ªà¦¤
à¦ªà¦² à¦¦
à¦ªà¦² à¦ľ
Ġt ol
Ġt ill
Ġt ang
Ġt ek
Ġt aught
Ġt ask
Ġt empt
Ġà¦ļà¦®à¦ķ à¦ĩ
à¦¿âĢĵ à¥¤
à¦¿âĢĵ âĢĿ
à¦ķà¦Ľ à¦¡
Ġà¦Ĺà¦°à¦® à¦¤
Ġà¦Ĺà¦°à¦® à¦ľ
Ġà¦Ĺà¦°à¦® à¦ĵ
Ġà¦Ĺà¦°à¦® à¦ľà¦²
Ġà¦Ĺà¦°à¦® à¦Ĺà¦°à¦®
Ġà¦ĵà¦Ł à¦¸
à¦ķà¦¥ à¦¯
à¦·à¦¦ à¦Ł
à¦·à¦¦ à¦ĩ
à¦¹à¦® à¦®à¦¤
à§ĩâĢ¦ ,
à§ĩâĢ¦ !âĢĿ
à¦£à¦¨ à¦®
Ġà¦ľà§Ł à¦ªà¦°
Ġà¦ľà§Ł à¦°à¦¥
Ġà¦ľà§Ł à¦ľà¦¯
Ġà¦ľà§Ł à¦ľà§Łà¦¨
à¦¶à¦® à¦ªà¦°
à¦¶à¦® à¦¹à¦²
Ġà¦Ĺà¦¬ à¦Ĺà¦¬
à¦¤à¦ª à¦Ļ
à¦®à¦¶ à¦°
à¦®à¦¶ à¦¸
à¦®à¦¦ à¦¶
à¦®à¦¦ à¦ĵ
à¦®à¦¦ à¦®à¦¨
à¦®à¦¦ à¦®à¦¤
à¦£à¦¬ à¦Ĺ
à¦£à¦¬ à¦ŀ
à¦£à¦¬ à§İ
à¦£à¦¬ à¦¦à¦°
à¦°à¦ĸ à¦°à¦¤
à¦¦à¦Ĺ à¦§
à¦¦à¦Ĺ à¦ŀ
à¦¦à¦Ĺ à¦¦à¦Ĺ
à¦ĩà¦¡ à¦¬à¦ĩ
à¦ĩà¦¡ à¦¸à¦¹
à¦¥à¦² à¦ĩ
à¦¥à¦² à¦ªà¦¦
à§Ŀ à¦¦
Ġà§§à§¯ à§§
Ġà§§à§¯ à§§à§¦
Ġà§§à§¯ à§¦à§¦
Ġà§§à§¯ à§§à§¬
Ġà§§à§¯ à§«à§Ń
Ġà§§à§¯ à§¦à§®
à¦¬à¦Ń à¦¬à¦¨
à§© à§ªà§Ń
à¦®à¦ª à¦Ļ
à¦ĺà¦¨ à¦¬à¦¨
à¦ĺà¦¨ à¦ĺà¦¨
à¦¿âĢĻ !âĢĿ
à¦²à¦Ń à¦¦
à¦²à¦Ń à¦Ł
à¦²à¦Ń à§Ł
à¦²à¦Ń à¦°à¦¤
à¦²à¦Ń à¦¬à¦¨
à§Ń à§Ńà§«
à§ĭ! )
à§ĭ! [
à§ĭ! âĢĻâĢĶ
Ġà¦ªà¦°à¦¶ à¦°
à¦ªà¦® à¦²à¦¤
à¦ªà¦® à¦¹à¦²
à¦¬à¦§ à§°
à¦¸à¦¹ à¦·
à¦¸à¦¹ à¦§à¦°
à¦®à¦ľ à¦ª
à¦®à¦ľ à§Ł
Ġà¦ľà¦Ĺà¦¤ à¦¶
à¦¯à§İ à¦¬
à¦¯à§İ à¦¦
à¦Ĺà¦£ à¦¤à¦²
à¦ļà¦Ł à¦ľà¦²à¦¦
à¦īà¦Ł à¦¨à¦ķ
Ġà¦°à¦®à¦£ à¦ķ
in a
in c
in ing
in ation
in ction
in ap
in cl
à§ª à§¦à§¦
à§ª à§©à§¯
à¦°à¦¬à¦² à¦ª
à¦²à¦ª à¦Ļ
à¦ļà§Ł à¦²
à¦ļà§Ł à¦¹
à¦ļà§Ł à¦Ń
à¦·à§Ł à¦Ĺà¦¤
à¦·à§Ł à¦¸à¦®
Ġà¦Ĩà¦ĩà¦¨ à¦®
à¦Łà¦Ł à¦·
à¦¨à¦ª à¦Ļ
an i
an ces
an atory
à¦¬à¦Ł à¦ļ
à¦¬à¦Ł à¦ľà¦¨
Ġà¦Ĩà¦ķà¦° à¦Ĺ
Ġà¦· à¦¢
Ġà¦· à¦Łà¦ª
à¦¦à¦ķ à¦¹
à¦¦à¦ķ à¦®à¦£
à¦¶à¦¤ à¦¸
à¦¶à¦¤ à¦¶
à¦¶à¦¤ à¦²à¦ķ
à¦ľà§Ł à¦²
à¦ľà§Ł à¦¯
à¦ľà§Ł à¦ªà¦¥
à¦¤à¦Ń à¦ķ
à¦¤à¦Ń à¦Ł
à¦¤à¦Ń à¦¬à¦¨
à¦¤à¦¸ à¦¦
à¦¤à¦¸ à¦Īà¦°
à¦£à¦ķ à¦ł
à¦£à¦ķ à¦Ļ
Ġà¦ķà§Ł à¦¶
Ġà¦¸à¦ľ à¦²à¦¤
à¦Łà¦ª à¦¹à¦°
Ġà¦ªà¦²à¦ķ à¦ĩ
à¦ĩà¦® à¦ĵ
à¦ĩà¦® à¦ķà¦²
à¦ĩà¦® à¦ªà¦¸
à¦ĸà¦ķ à¦ª
à¦ĸà¦ķ à¦ĵ
Ġà¦ħà¦¤à¦² à¦¦
Ġà¦ħà¦¤à¦² à¦¶
Ġà¦¸à§İ à¦ĵ
Ġà¦¸à§İ à¦ªà¦°
Ġà¦¸à§İ à¦ļà¦°à¦£
à¦¬à¦® à¦¹à¦²
.. âĢĿ
Ġà¦ħà¦®à¦° à¦ļà¦¨
Ġà¦Ŀà¦¨ à¦Ŀà¦¨à¦ķ
on a
on ment
on oura
à§ĩ!âĢĿ âĢĵ
Ġà¦¶à¦ªà¦¥ à¦Ł
à¦¬à¦ľ à¦¦
à¦¬à¦ľ à¦Ĺà¦¨
re k
re m
re am
re qu
re use
re cy
re cycle
Ġà¦ħà¦¨à¦² à¦¶
Ġà¦Ĩà§ľ à¦²
Ġà¦Ĩà§ľ à¦ķ
à¦®à¦ļ à¦ĵ
Ġà¦®à¦¨à¦¨ à¦®
à¦Ĺà¦°à¦£ à¦¸
à¦Ĺà¦°à¦£ à¦¸à¦®
à¦¬à¦ľà¦¨ à¦ķà¦²
à¦¬à¦ľà¦¨ à¦²à¦Ń
à¦¦à¦¶ à¦°à¦¥
à¦¦à¦¶ à¦¦à¦²
à¦ħà¦¸ à¦°à¦ķ
à¦ħà¦¸ à¦°à¦²
Ġà¦Ĭ à¦ķ
Ġà¦Ĭ à¦ľ
Ġà¦Ĭ à¦ļ
Ġà¦Ĭ à¦¨à¦¤
Ġà¦Ĭ à¦°à¦§
à¦¼! )
à¦²à¦ľ à¦ĺ
à¦²à¦ľ à¦²à¦ķ
à§Ģ! '
à§Ģ! (
à§Ģ! )
Ġà¦Ĩà¦ļà¦°à¦£ à¦¸
Ġà¦ªà¦Ł à¦ĸ
Ġà¦ķà¦ļ à¦Ńà¦¸
Ġà¦®à¦¦ à¦ĩ
Ġà¦®à¦¦ à¦ĺ
Ġà¦®à¦¦ à¦ĵà§Ł
Ġà¦ĸà¦°à¦ļ à¦ĩ
Ġà¦ĸà¦°à¦ļ à¦ªà¦¤
à¦®à¦Ľ à¦²à¦¨
Ġà¦ķà¦« à¦¨
Ġà¦ķà¦®à¦² à¦²
Ġà¦ķà¦®à¦² à¦¬
Ġà¦ķà¦®à¦² à¦¬à¦¨
Ġà¦ķà¦®à¦² à¦ķà¦²
Ġà¦ķà¦®à¦² à¦¦à¦²
Ġà§¨ à§§à§©
Ġà§¨ à§§à§ª
Ġà¦¤à¦¨ à§Ł
à¦ªà§ľ à¦¨
à¦ªà§ľ à¦²
à¦ªà§ľ à¦Ĺ
à¦ªà§ľ à¦ļ
at o
at ic
at ur
at ely
à¦¾à¦ĥ -
à¦¾à¦ĥ âĢĶ
à¦¾à¦ĥ !âĢĻ
à¦ħà¦ļ à¦ŀ
al g
al i
al ing
al se
al og
al isation
à¦¼âĢĵ âĢĿ
à¦¼âĢĵ âĢĵ
à¦¼âĢĵ âĢľ
à¦¨à¦® à¦¥
à§¬ à§¬
à¦¤à¦Ĺ à¦°à¦®
à¦¤à¦Ĺ à¦Ĺà¦¨
à¦īà¦¡ à¦¨
à¦īà¦¡ à¦Ń
Ġà¦«à¦¸à¦² à¦Ĺ
Ġà¦«à¦¸à¦² à¦ĵ
Ġà¦«à¦¸à¦² à¦ļà¦ķ
à¦īà¦ľ à¦ĩ
à¦īà¦ľ à¦¡
à¦īà¦ľ à¦ĵ
à¦īà¦ľ à¦«
Ġà¦°à¦ľà¦¤ à¦ĩ
Ġà¦°à¦ľà¦¤ à¦§
Ġà¦¸à¦¤à¦° à¦ŀ
à§Łà¦® à¦ĩ
Ġà¦ķà¦¹ à¦¹à¦°
Ġà¦ķà¦¹ à¦ķà¦¹
à¦ıà¦¸ à¦Ĩà¦°
à¦¨à¦ľà¦¨ à¦ĵ
à¦¸à¦®à§Ł à¦Ł
à¦¸à¦®à§Ł à¦ª
à¦²à§Ł à¦ķ
à¦²à¦ĩ à¦ľà¦®
Ġ! [
Ġ! âĢĻ
er a
er os
er ment
er ving
er me
er cise
à¦¤à¦ľ à¦¡
Ġà¦ļà¦°à¦® à¦¤
Ġà¦ļà¦°à¦® à¦¤à¦®à¦ķ
Ġà¦ıà¦¤à¦¦ à¦ª
Ġà¦ħà¦¬à¦² à¦Ļ
à¦¸à¦ķà¦² à¦ĸ
is a
is i
is es
is hing
is nu
à¦Ĳ à¦²
à¦Ĳ à¦Ł
en ing
en ic
en ius
en oi
Ġ' ,
Ġà¦ļà¦® à¦ķà¦¤
à¦ıà¦®à¦¨ à¦Ń
à¦ıà¦®à¦¨ à¦¤à¦°
Ġo der
Ġo pin
à§¯ à§¬
it i
it ch
it ation
it her
it ect
it able
it ness
it ution
it iveness
à¦¾âĢĿ ?
à¦¾âĢĿ âĢ¦
Ġà¦ľà§ľ à¦¬
Ġà¦ľà§ľ à¦ľà¦Ĺà§İ
à¦¬à¦°à¦£ à¦®
à¦¬à¦°à¦£ à¦¸
à¦¬à¦°à¦£ à¦Ĺ
à¦¾âĢ¦ ?âĢĿ
à¦¾âĢ¦ à¥¤âĢĻ
à¦¾âĢ¦ ..
à¦¾?âĢĻ âĢĿ
à¦¾?âĢĻ âĢĻ
à¦²à¦¦ à¦£
à¦Ńà§Ł à¦ĩ
à¦Ńà§Ł à¦Ļ
à¦¯à¦Ĺ à¦¹
à¦¯à¦Ĺ à¦£à¦¨
à¦¡à¦¬ à¦Ĺ
à¦¡à¦¬ à¦¬à¦°
Ġs on
Ġs et
Ġs ad
Ġs ac
Ġs ound
Ġs cept
Ġs ame
Ġs lant
Ġs aid
Ġs oul
Ġs ister
Ġs ymphony
Ġà¦Ĺà¦łà¦¨ à¦¶
à¦īà¦¸ à¦Ĺ
à¦¶à¦¹à¦° à¦Ĺ
Ġà¦ħà¦®à¦¨ à¦¤à¦°
à§® à§§
à§® à§Ń
Ġà¦ļà¦°à¦£ à¦¬à¦¨
Ġà¦ļà¦°à¦£ à¦ļà¦ķ
à§ĩâĢĻ à¥¤âĢĿ
à¦¶à¦¦ à¦£
à¦ļà¦°à¦£ à¦°
à¦ļà¦°à¦£ à¦Ń
à¦ļà¦°à¦£ à¦°à¦¤
à¦ªà¦Ĺ à¦łà¦¨
à¦Ĺà¦łà¦¨ à¦¶à¦ķ
Ġà¦Ķ à§İà¦ª
à¦¾!âĢĿ ,
à¦ħà¦® à¦°à¦¦
Ġà¦¸à¦ĸ à¦Ĩà¦¨à¦¨
Ġ: âĢĻ
Ġ? âĢĶ
Ġà¦Ĩà¦Ł à¦¸
Ġà¦Ĩà¦Ł à¦¶à¦¤
Ġà¦Ĩà¦Ł à¦¦à¦¶à¦ľà¦¨
Ġà¦ĩà¦Ł à¦ĸ
Ġà¦ĩà¦Ł à¦ļ
à¦¯à¦¹ à¦®à¦°
Ġà¦°à¦¹ à¦¬
à¦ĩà¦ļ à¦ĩ
à¦¯à§Ł à¦ĩ
à¦¯à§Ł à¦¹
Ġà¦¤à¦ªà¦¸ à¦¦
à§ĭ; âĢĶ
Ġà¦Ĺà¦ľ à¦¦
Ġà¦Ĺà¦ľ à¦¬à¦°
Ġà¦Ĺà¦ľ à¦ªà¦¤
Ġà¦Ńà¦°à¦¤ à¦·à¦Ń
Ġ; âĢĵ
Ġà¦°à¦¤à¦¨ à¦Ĺ
Ġà¦°à¦¤à¦¨ à¦®à¦¯
à¦¿âĢ¦ ?
à¦¿âĢ¦ âĢ¦
à¦¿âĢ¦ ..
à¦¦à¦ª à¦¹
Ġà¦¦à¦ĸà¦² à¦®
âĢį âĢį
Ġa ge
Ġa dv
à¦Łà¦¸ à¦ľ
à¦¸à¦°à¦£ à¦ĩ
à¦ªà¦ķà¦¥ à¦¨à¦Ł
à§ĢâĢĶ "
à§ĢâĢĶ âĢĿ
à§ĢâĢĶ âĢĺ
Ġà¦¤à¦ªà¦¨ à¦¸
Ġà¦¤à¦ªà¦¨ à¦ĵ
à¦ĩà¦« à¦¤
à¦ĩà¦« à¦¬
à¦ħà¦¶ à¦Ļ
Ġà¦¬à¦¦ à¦ĸ
Ġà¦¬à¦¦ à¦²à¦ķ
Ġà¦¬à¦¦ à¦¸à¦Ļ
Ġà¦¬à¦¦ à¦ĩà¦Ł
Ġà¦¬à¦¦ à¦ĸà¦¦
Ġà¦Ĩà¦ĩ à¦¸à¦¬
Ġà¦Ĩà¦ĩ à¦¨à¦ĵ
Ġà¦Ĩà¦ĩ à¦¬à¦ķ
Ġà¦Ĩà¦ĩ à¦¡à¦²
Ġà¦Ĩà¦ĩ à¦ľà¦ķ
Ġà¦Ĩà¦ĩ à¦ıà¦¸
Ġà¦Ĩà¦ĩ à¦ĸà¦®
Ġà¦°à¦¥ à¦ĸ
Ġà¦ĭà¦£ à¦°
Ġà¦ĭà¦£ à¦ĸ
Ġc it
Ġc ar
Ġc le
Ġc ul
Ġc ost
Ġc our
Ġc ame
Ġc ause
Ġc ritical
Ġc oura
Ġc iud
à¦ķà¦¶à¦¨ à¦ķ
Ġà¦ħà¦¯ à¦ľà¦®
Ġà¦®à¦°à¦£ à¦¸
Ġà¦®à¦°à¦£ à¦¦à¦¶
Ġà¦®à¦°à¦£ à¦ĺà¦£
Ġà¦ħà¦ļà¦² à¦ª
à¦¬à¦Ĺ à¦Ĺà¦¨
Ġà¦ıà¦ĩà¦°à¦ķà¦® à¦Ł
âĢĻ, âĢĵ
or ity
or ld
à¦¾?âĢĿ ,
Ġà¦ĩà¦¹ à¦ľà¦Ĺà§İ
Ġà¦ķà¦²à¦°à¦¬ à¦ķ
Ġm es
Ġm as
Ġm il
Ġm id
Ġm ill
Ġm ere
Ġm ood
Ġm other
Ġm odern
Ġm ale
Ġm edia
Ġm oney
Ġm aterial
Ġm arriage
Ġw on
Ġw ar
Ġw ant
Ġw ish
Ġw ell
Ġw ater
Ġw ished
Ġw rong
Ġw alk
Ġw oven
Ġw ait
à¦¬à¦¤à¦¨ à¦¦
Ġà¦¨à¦° à¦¡
Ġà¦¨à¦° à¦ĺ
Ġà¦¨à¦° à¦ļà¦¨
à¦Ĺà¦¸ à¦ŀ
ar ce
ar ies
ar vest
à§ģ! âĢĵ
Ġà¦ľà¦¨à¦® à¦Ń
Ġà¦ıà¦® à¦¬à¦¸
Ġà¦ıà¦® à¦ıà¦°
Ġà¦ıà¦® à¦ıà¦²
Ġà¦ıà¦® à¦ıà¦®
à¦īà¦ĩ à¦ī
à¦īà¦ĩ à¦ħà¦°
Ġb es
Ġb ur
Ġb od
Ġb ound
Ġb ond
Ġb oth
Ġb orn
Ġà¦¸à¦°à¦¸ à¦Ń
à¦ĭ à¦·à¦Ń
à¦ĭ à¦£à¦ĵ
Ġà¦°à¦£ à¦ķà¦²
Ġà¦°à¦£ à¦ľà§Ł
Ġà¦°à¦£ à¦¸à¦ľ
à¦īà¦¤ à¦¥
à¦·à¦¸ à¦Ĺ
à§ģà¦Ĥ âĢĻ
à§ģà¦Ĥ âĢ¦
à¦«à¦²à¦¨ à¦ĵ
Ġà¦Ŀà§ľ à¦ķ
à¦°à¦ļà¦² à¦®
à¦Ĩà¦ļ à¦®
Ġp h
Ġp l
Ġp ar
Ġp as
Ġp ig
Ġp ity
Ġp ac
Ġp ast
and ma
ing uished
Ġà¦Ľà¦² à¦ŀ
à¦Ĩà¦§ à¦ª
Ġà¦¬à¦°à¦« à¦ķ
Ġà¦¬à¦°à¦« à¦¬
Ġà¦¬à¦°à¦« à¦ľ
Ġà¦¬à¦°à¦« à¦Ĺ
Ġà¦¬à¦°à¦« à¦ĵ
Ġà¦¬à¦°à¦« à¦Ĺà¦²
Ġà¦¬à¦°à¦« à¦ľà¦²
Ġà¦¬à¦°à¦« à¦Ĺà¦²à¦¨
à¦ħà¦ª à¦ļà¦¯
à¦¯à¦®à§Ł à¦Ń
Ġà¦ķà¦ĩ à¦ĵ
à¥¤à¥¤ âĢ¦
à¦Ĩà¦¨ à¦²à¦ķ
Ġà¦Ĩà¦Ĺà¦®à¦¨ à¦ķ
Ġf ot
Ġf il
Ġf ig
Ġf ur
Ġf am
Ġf low
Ġf inal
Ġf iel
Ġf ool
Ġf alse
Ġf erment
Ġà¦ħà¦²à¦ķ à¦Ĺ
Ġà¦ħà¦²à¦ķ à¦ķà¦¬
Ġà¦§à¦°à¦¬ à¦ĩ
ÂłÂłÂłÂłÂłÂłÂłÂłÂłÂłÂłÂłÂłÂłÂłÂł ÂłÂłÂłÂłÂłÂłÂłÂłÂłÂłÂłÂłÂłÂłÂłÂłÂłÂłÂłÂłÂłÂłÂłÂłÂłÂłÂłÂłÂłÂłÂłÂłÂłÂłÂłÂłÂł
... ?
... à¥¤âĢĿ
Ġà¦Ńà¦¬à¦¨ à¦¦
Ġà¦Ĺà¦Ĺà¦¨ à¦®
à¦ķà¦ĵ à¦¸à¦°
à¦ªà¦ľ à¦²à¦¬
ic y
ic ip
ic ht
ic hes
à¦ħà¦ķ à¦ªà¦Ł
à¦¶à¦¹ à¦°à¦¬
à¦¶à¦¹ à¦°à¦ķ
à¦¶à¦¹ à¦°à¦ľ
à¦Ńà¦°à¦¤ à¦ķ
à¦Ńà¦°à¦¤ à¦ª
Ġà§© à§¬à§¦
Ġà§© à§ªà§¦
Ġà¦ķà¦¬à¦° à¦Ĺ
à¦¨à¦ľ à¦ĩà¦²
à¦¨à¦ľ à¦ĸà¦®
à¦£à¦Ĺ à¦Ļ
as h
as ed
as ad
as ya
as por
as enoi
Ġd ie
Ġd one
Ġd ict
Ġd ile
Ġd harma
Ġd uring
Ġd eter
Ġd imin
Ġd ream
Ġà¦¬à¦°à¦£ à¦¡
Ġà¦¸à¦« à¦²à¦ķ
Ġà¦¸à¦« à¦°à¦ĩ
Ġà¦¸à¦« à¦°à¦Ł
à¦¼à¦¿à¦Ĥ âĢĶ
à¦¼à¦¿à¦Ĥ âĢĵ
à¦¼à¦¿à¦Ĥ !âĢĿ
Ġà¦§à¦®à¦ķ à¦§
à¦¸à¦ĩ à¦īà¦ľ
Ġà¦ĩà¦ī à¦¥
à¦¸à¦ĵ à¦¦
ĠÂł Ġ
Ġà¦¨à¦Ł à¦ľ
Ġà¦¨à¦Ł à¦¨à¦Ł
Ġà¦¤à¦¦ à¦Ĺà¦¤
à§ĭâĢĵ âĢĻ
à§ĭâĢĵ âĢĵ
à¦¼à¦¾âĢĶ âĢĻ
à¦ļà¦Ľ à¦ľà¦¨
Ġh o
Ġh all
Ġh ow
Ġh ate
Ġh ung
Ġh ole
Ġh idden
Ġà¦®à¦¦à¦¨ à¦Ĺ
Ġà¦®à¦¦à¦¨ à¦¹
Ġà¦®à¦¦à¦¨ à¦ĵ
Ġà§§à§¯à§Ń à§¯
à¦¤à¦ļ à¦ŀ
à¦¤à¦ļ à¦°à¦ķ
à¦¬à§ľ à¦°
à¦ħà¦ªà¦° à¦£
le v
le ich
le arning
le tar
à¦®à¦¸à¦® à§°
Ġà¦ķà¦¦à¦® à¦ľ
Ġà¦¦à¦¶à¦ķ à¦Ĺ
à§ĩâĢĿ âĢ¦
à¦¬à¦¸à¦¨ à¦®
à¦¬à¦¸à¦¨ à¦Ń
à¦¡à¦ķ à¦¬à¦¨
à¦Ĩà¦ĩ à¦ı
à¦Ĩà¦ĩ à¦ıà¦®
Ġà¦¨à¦² à¦ĸ
à¦¾à¦ĥà¥¤ à¥¤
Ġà¦Ĺà¦¤à¦ķ à¦¯
à§Ģà¦Ĥ âĢ¦
à§ĢâĢĻ âĢĻ
à§ĢâĢĻ âĢĵ
à¦ľà¦§ à¦°à¦®
à¦Ļà¦¨ à¦ĸ
à¦ıà¦² à¦Ĺà¦°
à¦īà¦¬ à¦ķà¦²
om er
om en
om ic
om et
om os
à¦·à¦Ĺ à¦¹
Ġà§¨à§¦ à§§à§®
Ġà§¨à§¦ à§©à§¦
Ġà§¨à§¦ à§¨à§¦
Ġà§¨à§¦ à§©à§«
Ġà¦¶à¦°à§İ à¦°
Ġà¦¶à¦°à§İ à¦¹
Ġà¤ §
Ġà¤ ¯
Ġà¤ ı
Ġà¤ ĵ
Ġà¤ Ł
à¦ľà¦ĵ à¦¹à¦°
ct ive
à§ĭ!âĢĿ âĢĵ
Ġl at
Ġl im
Ġl ik
Ġl ad
Ġl ant
Ġl ust
Ġl ost
Ġl ies
Ġl ily
Ġl ips
Ġl ack
Ġl arg
à¦Ĺà¦ł à¦ķà¦°
à¦Ĺà¦ł à¦¨à¦ĵ
à¦Ĺà¦ł à¦¨à¦¦
à¦Ĺà¦ł à¦¨à¦¸
à¦Ĺà¦ł à¦¨à¦°
à¦Ĺà¦ł à¦¨à¦ĩ
Ġth ou
Ġth ous
Ġth ough
Ġth rone
Ġin tu
Ġin ner
à¦°à¦¬à¦£ à¦¯à¦¨
à¦Ī à¦²
à¦Ī à¦¯
à¦Ī à§Ł
à¦Ī à¦¨à¦¦
à¦Ī à¦¦à¦Ĺ
à§ĩ-- "
à§ĩ-- '
Ġn a
Ġn ation
Ġn od
Ġn um
Ġn ational
Ġn atural
Ġn isi
à§ĭâĢ¦ à¥¤âĢĻ
à§ĭâĢ¦ âĢĿà¥¤
Ġà¦¦à¦®à¦¨ à¦ķ
Ġà¦¦à¦®à¦¨ à¦¬
Ġà¦¦à¦®à¦¨ à¦¶à¦ķ
à§Ģ; âĢĶ
à§Ģ; ---
à¦°à¦¸à¦¬ à¦¸
Ġà¦¨à¦Ĺ à¦°à¦¦
Ġà¦¨à¦Ĺ à¦°à¦ĩ
ĠI m
ĠI oT
ĠI II
ĠI de
ĠI dent
Ġà¦ĩà¦¨à¦¸ à¦®à¦¨
à¦¯à¦°à¦¸ à¦ĵ
Ġà¦ľà¦²à¦ª à¦¤à¦¨
Ġà¦ľà¦²à¦ľ à¦ľ
Ġà¦ıà¦ķà¦°à¦ķà¦® à¦Ń
à¦Ĺà¦ª à¦Ļ
st ag
st ition
Ġà¦ĵà¦ľà¦¨ à¦¦
ol l
ol es
ol led
ol ved
à¦¨à¦ĸ à¦¡
Ġà¦¦à¦¹à¦¨ à¦ª
Ġà¦¦à¦¹à¦¨ à¦ľ
Ġà¦¦à¦¹à¦¨ à¦¶
ot al
ra k
ra cy
ra ph
ra ma
ra vel
Ġà¦²à¦¬à¦£ à¦ķ
Ġà¦²à¦¬à¦£ à¦®
Ġà¦²à¦¬à¦£ à¦Ł
Ġà¦²à¦¬à¦£ à¦ĩ
Ġà¦²à¦¬à¦£ à¦ļ
Ġà¦²à¦¬à¦£ à¦ļà¦²
Ġà¦²à¦¬à¦£ à¦ľà¦²
Ġà¦¨à¦ķà¦² à¦ķ
Ġto p
all u
à§ĭ?âĢĻ à¥¤
à§ĭ?âĢĻ âĢĶ
Ġà¦¤à¦« à¦¶
à¦ĩà¦¸à¦¬ à¦¸
à¦ĩà¦¸à¦¬ à¦«
à¦ĩà¦¸à¦¬ à¦ıà¦ĩ
ĠA C
ĠA f
ĠA ll
ĠA den
ĠA yesha
ĠA URA
ĠA hm
ĠA DITI
à¦¤à¦§ à¦¡
à§§à§¯ à§¨à§¬
Ġbe ll
Ġà¦īà¦ªà¦ķà¦°à¦£ à¦¸
Ġà¦īà¦ªà¦ķà¦°à¦£ à¦ĩ
Ġà¦īà¦ªà¦ķà¦°à¦£ à¦ĵ
Ġà¦¬à§İà¦¸à¦° à¦ĸ
Ġà¦¬à§İà¦¸à¦° à¦Ĺ
Ġà¦¨à¦°à¦ķ à¦¬
Ġà¦¨à¦°à¦ķ à¦ª
Ġà¦¨à¦°à¦ķ à¦ĵ
Ġà¦¨à¦°à¦ķ à¦¯à¦¨
ĠP l
ĠP ur
ĠP ast
ĠP ower
ĠP uru
ĠP otol
ĠP oila
Ġà¦ªà¦¤à¦¨ à¦ķ
Ġà¦ªà¦¤à¦¨ à¦ĩ
Ġà¦ªà¦¤à¦¨ à¦¶
ent h
ent y
ent le
ut down
Ġe c
Ġe p
Ġe ag
Ġe ast
Ġe ff
Ġe go
Ġe arth
Ġà§ª à§¬
Ġà§ª à§Ńà§¦
à¦§à¦¦ à§°
à¦īà¦ª à¦§
à¦īà¦ª à¦Ń
à¦īà¦ª à¦²à¦ķ
à¦īà¦ª à¦¸à¦°
il ed
il ight
il oy
il sa
Ġà§§à§© à§¦à§¦
Ġà§§à§© à§§à§«
Ġà§§à§© à§¨à§¦
Ġà§§à§© à§ªà§«
Ġà§§à§© à§ªà§¦
Ġà§§à§© à§©à§¨
Ġà§§à§© à§©à§¯
Ġà§§à§© à§Ńà§¦
Ġà§§à§© à§¯à§«
Ġà§§à§© à§¦à§§
Ġà§§à§© à§ªà§©
Ġà§§à§© à§®à§©
Ġà§§à§© à§«à§®
Ġà§§à§© à§¬à§¯
Ġà§§à§© à§¯à§Ń
à§ĩà¥¤à¥¤ '
à¦²à¦®à¦¨ à¦ķ
à¦Ĩà¦Ľ à§ľ
à§ĭ,âĢĿ âĢĵ
à¦¾!âĢĻ âĢĻ
à¦¯à¦ļ à¦°à¦¤
à¦¯à¦ļ à¦°à¦ķ
ĠB ar
à¦¼âĢ¦ ,
à¦¼âĢ¦ /
Ġà¦«à¦¡ à¦«à¦¡
ĠM us
ĠM ind
ĠM oral
ĠM edia
ĠM omos
Ġà¦īà¦ĩà¦² à¦¶
Ġà¦īà¦ĩà¦² à¦¹
à¦¶à§Ł à¦Ł
à¦¶à¦Ń à¦¬à¦¨
ig ious
Ġà¦ĺà¦· à¦ĺà¦·
ĠS on
ĠS at
ĠS is
ĠS ur
ĠS im
ĠS us
ĠS our
ĠS TE
ĠS yn
ĠS EC
ĠS aras
ĠS pinoza
à¦Ĭ à¦ķ
Ġà¦ľà¦²à¦ķ à¦¨
Ġà¦ľà¦²à¦ķ à¦ļ
Ġà¦ľà¦²à¦ķ à¦¦à¦°
Ġà¦ľà¦²à¦ķ à¦®à¦²
Ġà¦ľà¦²à¦¦ à¦ļ
Ġà¦ľà¦²à¦¦ à¦Ĺà¦®
el ess
el ong
à¦Ĩà¦ĩà¦¨ à¦ľ
et e
et l
et ing
et us
et tle
Ġis land
à¦®à¦ĸ à¦®à¦²
à§§à§¦ à§®
un ds
un ku
à¦¼à¦¾! '
Ġà§§à§¦ à§®
Ġre ality
Ġre action
à§ĩ) ;
à§ĩ) ?
à§ĩ) âĢĶ
Ġà¦¨à¦ĵ à¦²à¦ķ
ĠT o
ĠT it
ĠT ra
ĠT im
ĠT ik
ĠT hing
ĠT radition
ĠT echnology
Ġà¦Ĺà¦ł à¦¨à¦ĩ
Ġà¦Ĺà¦ł à¦¨à¦¤à¦¨
ĠÂłĠÂł Ġ
à¦¯à¦ľà¦¨ à¦ĵ
ur s
Ġà§Ń à§Ń
Ġà§Ń à§¬
Ġà§Ń à§«à§¦
Ġà§Ń à§®à§ª
Ġà§Ń à§Ńà§Ń
à§į! )
à§į! -
Ġà¦ľà¦¨à¦ªà¦¦ à¦Ł
Ġg l
Ġg o
Ġg in
Ġg ain
Ġg ap
Ġg one
Ġg eb
Ġg ene
Ġg lit
Ġg enius
Ġg entle
à¦¬à¦°à¦ķ à¦°
à¦ªà¦¤à¦¨ à¦ĩ
ce anic
im al
im es
im self
à¦ªà¦¶à¦¨ à¦Ł
ch us
áĥ ł
áĥ ®áĥķ
Ġà¦²à¦Ń à¦¤
à¦°à¦¸à¦® à¦·
os y
ow ing
ow ers
à¦¹à¦£ à¦ĩ
à¦¯à¦§ à¦°à¦¨
Ġà¦¨à¦Ń à¦¶
ĠR AM
à§ĩà¦ĥ âĢĻ
Ġà¦¬à¦ļà¦¨ à¦Ł
Ġà¦¨à¦ľ à¦°à¦ķ
Ġà¦¨à¦ľ à¦°à¦ĩ
à¦¶à¦¶ à¦§à¦°à¦Ľ
à§§à§Ń à§¬à§¦
à§Ĺ à¦ģ
ÂŃ à§į
Ġà¦Ĩà¦¦à¦² à¦Ł
Ġà¦Ĩà¦¦à¦² à¦ĩ
Ġà¦®à¦°à¦® à¦ľ
Ġà¦ıà¦ķà¦ļ à¦ª
Ġà¦ĵà¦°à¦ķà¦® à¦ĩ
à§ģ; âĢĶ
Ġà¦ķà¦¨à¦ķ à¦¶
Ġà¦ķà¦¨à¦ķ à¦Ńà¦¬à¦¨
Ġà¦Ĩà¦īà¦Ł à¦¸
à¦ĩà¦ĵ à¦®
us es
us iness
Ġà¦ıà¦« à¦¤
Ġà¦īà¦¦à§Ł à¦ª
à¦¿-- "
ive kan
Ġà¦®à¦°à¦¬ à¦ĩ
Ġà§§à§® à§§à§ª
Ġà§§à§® à§¨à§¦
Ġà§§à§® à§«à§¬
Ġà§§à§® à§¨à§¯
Ġà§§à§® à§¯à§«
Ġà§§à§® à§®à§©
Ġà§§à§® à§«à§ª
à§įâĢĮà¥¤ '
Ġà§¬ à§¬
Ġà§¬ à§©à§Ń
à¦®à¦°à¦ķ à¦¤
à¦Ľà¦¦ à¦ªà¦Ł
à¦¥à¦Ĺ à¦Ĺà¦¨
à§§à§¨ à§§
à§§à§¨ à§§à§Ń
Ġwh om
Ġwh ate
Ġwh ipped
Ġit y
od e
od s
od hya
Ġà¦ªà¦¬à¦¨ à¦¨à¦¨
if y
if ied
if elong
Ġà¦¬à¦¦à¦¨ à¦®à¦£
à¦ķà¦¤à¦° à¦ķà¦®
à¦¯à¦ªà¦Ł à¦Ł
Ġà¦¶à¦°à¦¤ à¦ļà¦¨
à¦Ĥ- âĢĻ
ul i
ĠC our
ĠC CT
ĠC PU
à§ģâĢ¦ à¥¤
à§ģâĢ¦ à¥¤âĢĻ
Ġà¦ĸà¦ļ à¦®à¦ļ
à¦¨à¦®à§Ł à¦¤
Ġà¦¸à¦¹à¦ļà¦° à¦Ĺà¦£
am br
Ġà¦¹à¦°à¦« à¦ĵ
Ġà§§à§¯à§¯ à§Ń
Ġà§§à§¯à§¯ à§¯
Ġà§§à§¯à§¯ à§®
,- âĢľ
à¦¯à¦¸à¦® à¦Ĺ
Ġà¦Ĩà¦¹à¦°à¦£ à¦ĩ
.âĢĿ )
ĠD P
ĠD r
ĠD ay
ĠD esh
ĠD etected
ĠD ETE
à¥¤âĢĺ )
à¦¼âĢĻ !
à¦¼âĢĻ âĢĵ
à¦ķà¦°à¦ķ à¦®à¦²
Ġà§§à§¨ à§¯à§¯
à¤° à¦¨
à¤° à¦¬
à¤° à¦®
à¤° à¦£
à¤° à¤¯
à¤° à¤£
Ġà§¯ à§©
Ġà§¯ à§Ń
Ġà§¯ à§¬
Ġà§¯ à§«à§Ń
ha ki
ĠN O
ĠN ex
ĠN BS
ĠN TU
ĠN iloy
Ġà¦®à¦ķ à¦°à¦®
à¦ıà¦® à¦ı
Ġà¦ĩà¦¸à¦®à¦¤ à¦ĩ
ro ÃŁ
Ġà¦®à¦Ĺà¦ľ à¦ķ
à¦Ńà§İà¦¸ à¦Ń
à¦Ńà§İà¦¸ à¦¤à¦°
à¦ıà¦ķà¦² à¦¬
à¦°à¦£à§Ł à¦¨à¦ķ
à¦¨à¦ªà¦¥ à¦ķ
à¦¨à¦ªà¦¥ à¦Ĺ
à¦ħà¦¹ à¦¹
à¦¬à¦ľà¦Ĺà¦¤ à¦ķ
Ġà¦ıà¦ķà¦Ŀ à¦Łà¦ķ
à¦¿!âĢĻ âĢĿ
ci en
ci ation
Ġà§§à§« à§ª
Ġà§§à§« à§«à§¦
à¦²à¦§à¦¨ à¦·
à¦¶à¦§ à¦°à¦ķ
à¦¶à¦§ à¦°à¦ĩ
Ġà¦īà¦ĩ à¦²à¦ķ
Ġà¦īà¦ĩ à¦¢
Ġha bit
Ġfor g
Ġfor m
Ġà¦ľà¦¹ à¦°à¦²
ess e
**** ***
ir d
ir y
à¦°à¦¦à¦¯ à¦¨
à¦ľà¦ĸà¦¬à¦° à¦ĵ
à¦Ĩà¦ļà¦°à¦£ à¦ķ
Ġà¦ħà¦ķà¦ªà¦Ł à¦¤
Ġst r
Ġst ory
Ġst ret
Ġst ep
Ġst eed
iv a
iv es
iv ing
iv ate
la use
la bor
ĠG oet
ĠG IF
ĠG oat
ĠG overn
ĠG PS
ĠG roÃŁ
Ġà¦ªà¦¦à¦¯ à¦ľ
à¦ıà¦ĩà¦ļ à¦ıà¦¸à¦¸
à§§à§« à§¯
à§§à§« à§¬à§§
à¤¤ à¤°
Ġà¦ĩà¦®à¦¨ à¦ķ
ĠH er
ĠH ast
ĠH arvest
ĠH ilsa
ĠH imself
Ġà¦ªà¦Łà¦² à¦¦
Ġà¦ªà¦Łà¦² à¦ª
Ġà¦ªà¦Łà¦² à¦ļ
em b
em s
em an
em pl
Ġy ears
à§įâĢį -
Ġà¦«à¦²à¦¨ à¦ĵ
Ġà¦ħà¦¸à§İ à¦Ń
Ġà¦¨à¦¬à¦¬ à¦Ļ
Ġà¦¨à¦¬à¦¬ à¦°à¦£
à§§à§© à§§à§Ń
à§§à§© à§«à§¦
à¤¿ à¤Ĥ
ĠĠĠĠĠĠĠĠ ĠĠĠčĊč
ĠE nd
ĠE ast
ĠE very
ĠE xist
à¦²à¦¥ à¦Ĺà¦¤
Ġà§§à§Ń à§¬à§©
Ġà§§à§Ń à§ªà§§
Ġcon vin
Ġcon nect
Ġà§® à§Ń
Ġà§® à§¦à§¦
à¦Ŀà¦Ľ à¦¸
ag es
ag ed
ag ement
Ġà¦¦à¦ĸ à¦²à¦ķ
ĠL O
ĠL a
ĠL ast
ĠL ove
ĠL OS
Ġà¦Łà¦¹à¦² à¦¦à¦²
âĢ¦âĢĻ âĢĿ
ist ered
ip t
à¦¨à¦¸à¦¨ à¦ķ
à¦¨à¦¸à¦¨ à¦ª
ik a
ĠÐ §
ĠÐ ±
ĠÐ ¼
à§ģ' -
à¦¡à¦ī à¦ĩà¦²
Ġan c
Ġan anda
Ġan tagon
Ġan imal
à¦Ĩà¦¸à¦¨ à¦Ł
Ġà¦ĩà¦¨à¦ķ à¦®
Ġà§§à§ª à§¦à§¦
Ġà§§à§ª à§¨à§¦
Ġà§§à§ª à§¯à§«
Ġà§§à§ª à§¦à§¨
Ø§ Ùģ
Ø§ Ùĩ
end e
end ence
Ġà¦Ĺà¦®à¦¨ à¦ªà¦¥
Ġà¦§à¦¬à¦² à¦ķ
Ġà¦§à¦¬à¦² à¦Ĺ
à§ģ!âĢĿ à¥¤
à¥¤' '
Ġà¦§à§ľ à¦®
Ġà¦§à§ľ à¦§à§ľ
Ġà§§à§¯à§® à§®
ism s
ad ing
Ġv ar
Ġv iew
Ġv entriloquism
Ġun ity
Ġun con
Ġun read
Ġun iverse
Ġun ique
Ġun told
à¦¯à¦¦à¦² à¦Ĺ
Ġne ck
Ġne cess
Ġne xt
up id
up tion
ĠW ind
ĠW ith
ĠW est
ĠW ord
ĠW ish
ĠW eb
ĠW HO
Ġà¦¬à¦Ľ à¦°à¦¦
Ġà¦¬à¦Ľ à¦°à¦ķà¦¯
Ġà¦ľà¦¹à¦° à§İ
Ġà¦«à¦¸ à¦²à¦¬
ant al
ant agon
à§ĩâĢĿâĢĶ à¥¤
ab stra
Ġà¦Ĩà¦ªà¦¦ à¦Ł
Ġà¦Ĩà¦ªà¦¦ à¦Ĺ
Ġà¦Ńà¦ľà¦¨ à¦ª
est s
est ion
est ry
à¦ıà¦°à¦ĩ à¦®à¦§
ill s
ri es
ri ent
ri ble
Ġà¦¹à¦°à¦· à¦ļ
à¤ķ à¤°à¤£
Ġk ing
Ġk ind
Ġk anya
Ġk itchen
Ġk ettle
à¦²à¦ªà¦¥ à¦ĩ
à¦¯à¦¤à¦° à¦ķà¦®
Ġà¦ķà¦®à¦¨ à¦ĵà§Ł
à¤² à¦¨
à¤² à¦Ľ
ac ity
ac count
ĠØ ¢
ĠØ ¬
ĠØ ®
ĠØ ¯
ĠØ °
ĠØ ³
ĠØ µ
Ġà¦ħà¦¹à¦¨ à¦¹à¦¨
à§§à§® à§«à§¨
à§«à§Ń à§¯
Ġas pect
Ġas cend
Ð° Ðº
Ð° ÑĪ
Ġhe at
Ġhe ro
à¦¤à¦ªà¦¨ à¦¬
Ġà¦¬à§İà¦¸ à¦¦
à¦Łà¦ķà¦² à¦ĵ
à¦Łà¦ķà¦² à¦¸à¦®
à¦¾à¦ĥ! [
ak s
ere n
à¸ ¡
à¸ ª
à¸ ·
à¸ ¹
à¸ ķ
à¸ Ĺ
à¸ Ń
Ġà¦ľà¦¬à¦° à¦ľ
à¦°à¦ľà¦¨à¦¨ à¦¶à¦ķ
Ġà§©à§¦ à§¨
Ġà§©à§¦ à§¨à§¨
[...]
