{"[PAD]":0,"[UNK]":1,"[CLS]":2,"[SEP]":3,"!":4,"\"":5,"#":6,"$":7,"%":8,"&":9,"'":10,"(":11,")":12,"*":13,"+":14,",":15,"-":16,".":17,"/":18,"0":19,"1":20,"2":21,"3":22,"4":23,"5":24,"6":25,"7":26,"8":27,"9":28,":":29,";":30,"<":31,"=":32,">":33,"?":34,"@":35,"A":36,"B":37,"C":38,"D":39,"E":40,"F":41,"G":42,"H":43,"I":44,"J":45,"K":46,"L":47,"M":48,"N":49,"O":50,"P":51,"Q":52,"R":53,"S":54,"T":55,"U":56,"V":57,"W":58,"X":59,"Y":60,"Z":61,"[":62,"\\":63,"]":64,"^":65,"_":66,"`":67,"a":68,"b":69,"c":70,"d":71,"e":72,"f":73,"g":74,"h":75,"i":76,"j":77,"k":78,"l":79,"m":80,"n":81,"o":82,"p":83,"q":84,"r":85,"s":86,"t":87,"u":88,"v":89,"w":90,"x":91,"y":92,"z":93,"{":94,"|":95,"}":96,"~":97,"¡":98,"¢":99,"£":100,"¤":101,"¥":102,"¦":103,"§":104,"¨":105,"©":106,"ª":107,"«":108,"¬":109,"®":110,"¯":111,"°":112,"±":113,"²":114,"³":115,"´":116,"µ":117,"¶":118,"·":119,"¸":120,"¹":121,"º":122,"»":123,"¼":124,"½":125,"¾":126,"¿":127,"À":128,"Á":129,"Â":130,"Ã":131,"Ä":132,"Å":133,"Æ":134,"Ç":135,"È":136,"É":137,"Ê":138,"Ë":139,"Ì":140,"Í":141,"Î":142,"Ï":143,"Ð":144,"Ñ":145,"Ò":146,"Ó":147,"Ô":148,"Õ":149,"Ö":150,"×":151,"Ø":152,"Ù":153,"Ú":154,"Û":155,"Ü":156,"Ý":157,"Þ":158,"ß":159,"à":160,"á":161,"â":162,"ã":163,"ä":164,"å":165,"æ":166,"ç":167,"è":168,"é":169,"ê":170,"ë":171,"ì":172,"í":173,"î":174,"ï":175,"ð":176,"ñ":177,"ò":178,"ó":179,"ô":180,"õ":181,"ö":182,"÷":183,"ø":184,"ù":185,"ú":186,"û":187,"ü":188,"ý":189,"þ":190,"ÿ":191,"Ā":192,"ā":193,"Ă":194,"ă":195,"Ą":196,"ą":197,"Ć":198,"ć":199,"Ĉ":200,"ĉ":201,"Ċ":202,"ċ":203,"Č":204,"č":205,"Ď":206,"ď":207,"Đ":208,"đ":209,"Ē":210,"ē":211,"Ĕ":212,"ĕ":213,"Ė":214,"ė":215,"Ę":216,"ę":217,"Ě":218,"ě":219,"Ĝ":220,"ĝ":221,"Ğ":222,"ğ":223,"Ġ":224,"ġ":225,"Ģ":226,"ģ":227,"Ĥ":228,"ĥ":229,"Ħ":230,"ħ":231,"Ĩ":232,"ĩ":233,"Ī":234,"ī":235,"Ĭ":236,"ĭ":237,"Į":238,"į":239,"İ":240,"ı":241,"Ĳ":242,"ĳ":243,"Ĵ":244,"ĵ":245,"Ķ":246,"ķ":247,"ĸ":248,"Ĺ":249,"ĺ":250,"Ļ":251,"ļ":252,"Ľ":253,"ľ":254,"Ŀ":255,"ŀ":256,"Ł":257,"ł":258,"Ń":259,"à¦":260,"à§":261,"Ġà¦":262,"à¦¾":263,"à§ĩ":264,"à¦°":265,"à§į":266,"à¦¿":267,"à¦¨":268,"à¦¤":269,"à¦²":270,"à¦ķ":271,"à¦¯":272,"à§ģ":273,"à¦¬":274,"à¦¼":275,"à¦®":276,"à§ĭ":277,"Ġà¦ķ":278,"Ġà¦¬":279,"Ġà¦¸":280,"à¥":281,"à¥¤":282,"à¦¸":283,"Ġà¦ª":284,"Ġà¦Ĩ":285,"à¦¦":286,"à¦Ł":287,"Ġà¦¨":288,"Ġà¦®":289,"à¦ª":290,"à¦ĩ":291,"à§Ģ":292,"à¦Ľ":293,"Ġà¦¦":294,"à¦ľ":295,"Ġà¦¹":296,"Ġà¦¤":297,"Ġà¦ı":298,"à¦¶":299,"à¦¼à§ĩ":300,"Ġà¦ħ":301,"à¦ĸ":302,"à¦Ĺ":303,"à¦·":304,"à¦§":305,"âĢ":306,"à¦¡":307,"Ġà¦¯":308,"à¦ļ":309,"à¦¹":310,"Ġà¦ķà¦°":311,"à§Ł":312,"Ġà¦Ĺ":313,"à¦£":314,"à¦ģ":315,"à¦¥":316,"Ġà¦¶":317,"Ġà¦ľ":318,"Ġà¦ļ":319,"Ġà¦Ń":320,"Ġà¦°":321,"à§ĩà¥¤":322,"à¦ĵ":323,"à¦Ń":324,"Ġà¦ıà¦ķ":325,"à¦¼à¦¾":326,"à§ĥ":327,"Ġč":328,"Ġà¦Ľ":329,"ĠĠč":330,"Ġà¦Ĩà¦®":331,"à¦ł":332,"Ġà¦ī":333,"à¦Ĥ":334,"à§Ĥ":335,"à¦¾à¦ģ":336,"à¦Ļ":337,"Ġà¦²":338,"Ġà¦ĵ":339,"Ġà¦¥":340,"à§ĩ,":341,"Ġà¦¬à¦²":342,"Ġà¦«":343,"Ġà¦Ĩà¦°":344,"Ġà¦ĸ":345,"à¦°à¦¤":346,"Ġà¦ħà¦¨":347,"à¦¾à¥¤":348,"Ġà¦¹à¦¯":349,"Ġà¦ªà¦°":350,"Ġà¦§":351,"âĢĶ":352,"Ċč":353,"Ġà¦¸à¦®":354,"à¦¾,":355,"ĠâĢ":356,"à¦¬à¦¨":357,"à¦¼à¦¿":358,"à§ľ":359,"à¦ĸà¦¨":360,"Ġà¦ĺ":361,"Ġà¦®à¦¨":362,"à¦ªà¦°":363,"Ġà¦ıà¦ķà¦Ł":364,"à¦°à¦£":365,"Ġà¦ıà¦ĩ":366,"à¦¿à¥¤":367,"à¦®à¦¨":368,"à¦Ŀ":369,"à¦ľà¦¨":370,"à¦ŀ":371,"à¦¤à¦°":372,"à¦«":373,"à¦ī":374,"à¦¿,":375,"à¦ªà¦¨":376,"Ġà¦Ĩà¦²":377,"à§İ":378,"à¦Ĩ":379,"à¦°à¦¬":380,"à¦ı":381,"à¦°à¦ķ":382,"âĢĿ":383,"Ġà¦¸à¦¬":384,"à¦¬à¦°":385,"Ġà¦Ł":386,"Ġà¦¬à¦²à¦²":387,"Ġà¦Ĩà¦¸":388,"čĊč":389,"Ġà¦Ĩà¦Ľ":390,"âĢĻ":391,"Ġà¦ķà¦¥":392,"à¦¼à¥¤":393,"Ġà¦¹à¦²":394,"Ġà¦īà¦ł":395,"ĠâĢľ":396,"Ġà¦¡":397,"à§Ī":398,"Ġà¦ĩ":399,"Âł":400,"Ġà¦ªà¦¡":401,"à¦ĺ":402,"Ġà¦®à¦¤":403,"Ġà¦¸à¦Ļ":404,"à¦ĵà¦¯":405,"à§Į":406,"Ġà¦¹à¦¬":407,"Ġà¦ľà¦¨":408,"Ġà¦§à¦°":409,"Ġà¦Ŀ":410,"ĠĠčĊč":411,"à¦¬à¦²":412,"Ġà¦ıà¦¬":413,"à¦¼,":414,"ÂłÂł":415,"ĠâĢĺ":416,"à¦¬à¦ª":417,"Ġà¦ħà¦¬":418,"Ġà¦ķà¦°à¦¤":419,"à§ģà¦ģ":420,"Ġà¦ļà¦²":421,"à¦°à¦®":422,"Ġà¦ł":423,"à¦·à¦£":424,"à¦¨à¦¤":425,"Ġà¦ķà¦°à¦²":426,"Ġà¦ıà¦¸":427,"Ġà¦®à¦§":428,"âĢĵ":429,"Ġà¦¬à¦¸":430,"Ġà¦Ĩà¦ľ":431,"à¦¤à¦¨":432,"à¦ĥ":433,"Ġà¦¢":434,"à§ĭà¦ģ":435,"à¦ħ":436,"Ġà¦¬à¦¨":437,"Ġà¦¨à¦¤":438,"à¦ķà¦²":439,"Ġà¦Ĩà¦¬":440,"Ġà¦ħà¦®":441,"Ġà¦ªà¦¥":442,"Ġà¦Ĩà¦Ĺ":443,"Ġà¦Ĩà¦®à¦°":444,"Ġà¦Ĺà¦²":445,"à¦ķà¦°":446,"Ġà¦¨à¦¯":447,"Ġà¦¹à§Ł":448,"Ġà¦ĵà¦ł":449,"à¦ķà¦Ł":450,"à¦¸à¦¬":451,"Ġà¦ħà¦¸":452,"à¦¯à¦¬":453,"à¦°à¦¨":454,"à¦°à¦¥":455,"à§ĭà¥¤":456,"Ġà¦¤à¦¬":457,"à§ĩà¦ģ":458,"Ġà¦Ĩà¦ķ":459,"à§ĭ,":460,"à¦¾à¦Ĥ":461,"à¦²à¦ķ":462,"à¦¤à¦¬":463,"à¦°à¦¸":464,"à¦¨à¦¬":465,"Ġà¦Ĩà¦ªà¦¨":466,"à¦ķà¦¤":467,"Ġà¦¤à¦ĸà¦¨":468,"Ġà¦Ĩà¦¶":469,"à¦¦à¦¨":470,"Ġà¦ıà¦ĸà¦¨":471,"à¦°à¦¥à¦®":472,"Ġà¦¬à¦°":473,"Ġà¦¹à¦¤":474,"à§ĩ?":475,"Ġà¦¸à¦¤":476,"Ġà¦ıà¦²":477,"Ġà¦Ĩà¦¨":478,"Ġà¦ħà¦¦":479,"à¦Ĩà¦®":480,"Ġà¦ķà¦°à¦Ľ":481,"Ġà¦īà¦¦":482,"Ġà¦ħà¦°":483,"à¦¦à¦°":484,"à¦¾-":485,"Ġà¦ľà¦²":486,"à¦Ĺà¦²":487,"Ġà¦ħà¦Ń":488,"à¦²à¦¤":489,"à¦Ĺà¦¤":490,"Ġà¦¶à¦¬":491,"Ġà¦¸à¦®à¦¯":492,"à¦¦à¦¯":493,"à¦¶à¦¨":494,"Ġà¦¸à¦¨":495,"à¦¿à¦Ĥ":496,"Ġà¦ħà¦¤":497,"à¦¯à¦ķ":498,"à¦®à¦¤":499,"à¦§à¦ķ":500,"à¦°à¦¹":501,"Ġà¦ĺà¦°":502,"Ġà¦¯à¦¦":503,"Ġà¦°à¦ķ":504,"Ġà¦īà¦łà¦²":505,"à¦ļà¦¨":506,"à¦²à¦¨":507,"Ġà¦ķà¦°à¦¬":508,"à¦¹à¦¸":509,"Ġà¦īà¦ª":510,"Ġà¦®à¦¹":511,"Ġà¦¸à¦°":512,"à¦°à¦¶":513,"à¦°à¦¯":514,"à¦¨à¦ĵ":515,"à¦¬à¦¤":516,"Ġà¦¯à¦ĸà¦¨":517,"à¦ĸà¦¤":518,"à¦Ľà¦¨":519,"à¦ĩà¦²":520,"à¦®à¦²":521,"à¦¯à¦¤":522,"à¦²à¦¬":523,"à¦ĸà¦²":524,"à§ĩâĢĶ":525,"à¦§à¦¨":526,"à¦°à¦ľ":527,"à¦®à¦¯":528,"Ġà¦¨à¦¦":529,"à¦°à¦¦":530,"Ġà¦¬à¦¡":531,"ÂłÂłÂłÂł":532,"Ġà¦ıà¦®à¦¨":533,"Ġà¦ħà¦ª":534,"à¦°à¦²":535,"à¦¼à§ĭ":536,"Ġà¦ħà¦§":537,"Ġà¦ķà¦²":538,"à¦ļà¦²":539,"à¦ªà¦¤":540,"à¦ĵà§Ł":541,"Ġà¦¸à¦¹":542,"Ġà¦¹à¦ļ":543,"à¦®à¦ķ":544,"à¦°à¦ĩ":545,"Ġà¦ķà¦ĸà¦¨":546,"Ġà¦Ĩà¦¤":547,"Ġà¦ıà¦¤":548,"à¦¹à¦°":549,"Ġà¦īà¦¤":550,"à¦¿à¦ĥ":551,"Ġà¦ĵà¦°":552,"à¦¸à¦¨":553,"à¦ĩà¦¨":554,"Ġà¦ħà¦ļ":555,"Ġà¦Ńà¦°":556,"Ġà¦¶à¦ķ":557,"Ġà¦ľà¦®":558,"à¦ķà¦¬":559,"à¦ıà¦ĩ":560,"Ġà¦ķà¦£":561,"à¦¨à¦¨":562,"à§ĩ-":563,"à¦°à¦ªà¦°":564,"Ġà¦ķà¦¬":565,"Ġà¦¹à¦ł":566,"à¦Ńà¦¬":567,"à¦¸à¦®":568,"Ġà¦Ĺà¦¡":569,"Ġà¦ıà¦ĸ":570,"à¦¿-":571,"à¦Łà¦ķ":572,"Ġà¦ªà§ľ":573,"à§Ģ,":574,"Ġà¦īà¦¨":575,"Ġà¦ĩà¦¤":576,"Ġà¦ħà¦ľ":577,"à¦¹à¦²":578,"Ġà¦ĵà¦ªà¦°":579,"à¦Ľà¦°":580,"âĢ¦":581,"Ġà¦ĺà¦Ł":582,"à¦¯à¦¨":583,"Ġà¦Ĳ":584,"Ġà¦¬à¦¹":585,"Ġà¦ķà¦¤":586,"Ġà¦ķà¦®":587,"à¦¤à¦²":588,"Ġà¦¬à¦²à¦¤":589,"à¦¾âĢĶ":590,"Ġà¦Ľà¦¡":591,"à¦Ĺà¦¨":592,"Ġà¦¤à¦°":593,"Ġà¦¬à¦¯":594,"Ġà¦°à¦Ļ":595,"Ġà¦¸à¦ķ":596,"Ġà¦īà§İ":597,"Ġà¦¬à¦Ľà¦°":598,"à¦Ĺà¦°":599,"Ġà¦ıà¦Ĺ":600,"Ġà¦¸à¦®à¦¸":601,"Ġà¦¯à¦¤":602,"Ġà¦ªà¦¦":603,"à¦®à¦°":604,"à¦¸à¦°":605,"à§ĩ!":606,"Ġà¦ıà¦Ł":607,"Ġà¦¦à¦°à¦ľ":608,"à¦°à¦Ń":609,"à¦°à¦ĵ":610,"Ġà¦Ńà¦¯":611,"Ġà¦¶à¦°":612,"à¦¶à¦¬":613,"âĢľ":614,"à¦¦à§Ł":615,"à¦ªà¦¦":616,"Ġà¦īà¦ļ":617,"à¦ªà¦¥":618,"à¦¿?":619,"à¦¼à§ĩà¥¤":620,"Ġà¦¨à§Ł":621,"Ġà¦ħà¦®à¦²":622,"Ġà¦ħà¦Ĺ":623,"âĢĮ":624,"Ġà¦ħà¦¥":625,"à¦ıà¦ķ":626,"à¦¾?":627,"Ġà¦Ĺà¦¨":628,"Ġà¦ıà¦°":629,"Ġà¦Ĩà¦°à¦ĵ":630,"à¦¨à¦ķ":631,"à§Ģà¥¤":632,"Ġà¦Ĺà¦°":633,"à¦®à¦£":634,"Ġà¦ħà¦ķ":635,"à¦¦à¦²":636,"Ġà¦Ĺà¦Ń":637,"Ġà¦¶à¦¹à¦°":638,"à¦¬à¦¸":639,"Ġà¦¬à¦ĩ":640,"Ġà¦®à¦°":641,"Ġà¦ħà¦ªà¦°":642,"à¦·à¦¤":643,"à¥¤âĢĿ":644,"à§įâĢĮ":645,"à¦°à¦ª":646,"à¦Łà¦²":647,"à¦ĩà¦°":648,"Ġà¦Ľà¦¬":649,"Ġà¦«à¦²":650,"à¦¬à¦¦":651,"à¦¯à¦®":652,"à¦·à¦ķ":653,"à¦¸à¦¤":654,"à¦ļà¦¯":655,"à§İà¦ķ":656,"à¦Ŀà¦¤":657,"à¦¿à¦ģ":658,"à§§":659,"à§ģ,":660,"à¦¤à¦ķ":661,"à¦°à¦Ł":662,"Ġà¦²à¦ķ":663,"à§ģà¦ĥ":664,"à¦¨à¦Ł":665,"à¦¿âĢĶ":666,"Ġà¦¬à¦²à¦Ľ":667,"Ġà¦ĵà¦ĩ":668,"à¦ļà¦ķ":669,"à¦ħà¦¨":670,"à¦¼à§ĩ,":671,"à¦¤à¦®":672,"à¦¯à¦¬à¦¸":673,"à¦¾!":674,"Ġà¦ĩà¦¨":675,"à¦¸à¦²":676,"à¦²à¦²":677,"à¦ªà¦ķ":678,"à¦ľà¦²":679,"à¦®à¦¬":680,"Ġà¦ħà¦¨à¦¨":681,"Ġà¦Ĩà¦¨à¦¨":682,"ĠčĊč":683,"à¦°à¦¬à¦¤":684,"à¦·à¦¯":685,"Ġà¦ħà¦¶":686,"à¦¯à¦¬à¦¹":687,"à¦¶à¦ķ":688,"à¦¨à¦¦":689,"à¦¸à¦Ļ":690,"à¦ļà¦°":691,"Ġà¦Ĩà¦§":692,"à¦¬à¦ķ":693,"à§ĩ;":694,"à¦£à¦¤":695,"Ġà¦°à¦¬":696,"Ġà¦ıà¦ķà¦¦":697,"à¦ĩà¦ķ":698,"à¦¢":699,"Ġà¦ķà¦¯":700,"à¦¤à¦¤":701,"à§Łà¦¨":702,"à¦°à¦ļ":703,"à¦°à¦Ľ":704,"à¦°à¦ķà¦®":705,"à§ģâĢĻ":706,"Ġà¦ĩà¦ļ":707,"Ġà¦ħà¦¬à¦¸":708,"Ġà¦Ĩà¦¸à¦Ľ":709,"à¦§à¦¤":710,"à¦¯à¦¸":711,"à¦¬à¦¬":712,"à¦¹à¦¨":713,"Ġà¦ıà¦ķà¦ľà¦¨":714,"Ġà¦īà¦ªà¦°":715,"Ġà¦ħà¦²":716,"Ġà¦Ńà¦¬":717,"Ġà¦ıà¦ķà¦¬":718,"à§Įà¦ģ":719,"Ġà¦Ĩà¦¸à¦²":720,"Ġà¦Ĩà¦ľà¦ķ":721,"Ġà¦Ĩà¦¡":722,"Ġà¦ħà¦Ļ":723,"à¦ªà¦Ł":724,"à¦¯à¦¦":725,"à¦¬à¦¯":726,"à¦ľà¦°":727,"à§ĩà¥¤âĢĿ":728,"à§°":729,"à¦ĩà¦¯":730,"Ġà¦ħà¦¬à¦¶":731,"à¦¼à§ģ":732,"à¦ķà¦¨":733,"Ġà¦¶à¦¤":734,"!âĢĿ":735,"Ġà¦°à¦¹à¦¸":736,"Ġà¦ªà¦¤":737,"à¦ĸà¦¬":738,"à¦¸à¦«":739,"à¦¸à¦ķ":740,"Ġà¦¨à¦¬":741,"Ġà¦Ĺà¦¤":742,"à§ģà¥¤":743,"à¦ĺà¦°":744,"Ġà¦Ŀà¦°":745,"Ġà¦¸à¦ķà¦²":746,"Ġà¦īà¦²":747,"Ġà¦¦à¦²":748,"à§§à§":749,"Ġà¦¬à¦¦à¦²":750,"à¦Łà¦¤":751,"Ġà¦Ĩà¦ļ":752,"à¦·à¦°":753,"Ġà¦īà¦ľ":754,"Ġà¦¤à¦²":755,"à§ģ-":756,"à¦§à¦°":757,"Ġà¦īà¦¡":758,"Ġà¦ªà¦ķ":759,"à¦¥à¦¨":760,"à¦¨à¦²":761,"à¦¼à¦¾,":762,"Ġà¦°à¦¯":763,"à¦¼à§Ģ":764,"?âĢĿ":765,"à¦¨à¦¸":766,"à¦ĩà¦¤":767,"à¦Ĩà¦ľ":768,"à¦ĸà¦Ľ":769,"à¦ªà¦¸":770,"à¦¬à¦¶":771,"à¦¯à¦¥":772,"Ġà¦¹à¦ĵà¦¯":773,"Ġà¦ħà¦¥à¦ļ":774,"à¦¨à¦°":775,"Ġà¦Ĩà¦Ļ":776,"à¦°à¦ľà¦¨":777,"Ġà¥¤":778,"à¦ĩà¦Ł":779,"Ġà¦Ĩà¦¯":780,"à¦¨à¦Ĺ":781,"Ġà¦Ĩà¦¦":782,"Ġà¦ĵà¦¦":783,"à¦¯à¦°":784,"Ġ(":785,"à¥¤âĢĻ":786,"à¦¥à¦°":787,"Ġà¦Ĺà§ľ":788,"à¦«à¦²":789,"ÂłÂłÂłÂłÂłÂłÂłÂł":790,"à¦Ĺà¦ľ":791,"à¦ªà¦·":792,"Ġà¦¸à¦¹à¦ľ":793,"Ġà¦ķà¦ł":794,"Ġà¦ħà¦«":795,"Ġà¦¸à¦®à§Ł":796,"à§İà¦¸":797,"Ġà¦Ĩà¦¹":798,"Ġà¦ıà¦¦":799,"à¦ªà¦¡":800,"à¦¨à¦¬à¦¤":801,"Ġà¦Ĩà¦¸à¦¬":802,"Ġà¦¬à¦²à¦¬":803,"à¦°à¦§":804,"à¦īà¦²":805,"Ġ,":806,"à¦Ŀà¦²":807,"à¦¼à¦¾à¥¤":808,"Ġà¦¤à¦¥":809,"à¦Ĩà¦°":810,"à¦Łà¦¬":811,"?âĢĻ":812,"Ġà¦ĭ":813,"Ġà¦ľà¦¡":814,"à¦²à¦Ľ":815,"à§ĩâĢĵ":816,"Ġà¦ıà¦ķà¦ĩ":817,"à¦°à¦¹à¦£":818,"à¦ıà¦ķà¦Ł":819,"à¦ľà¦¤":820,"Ġà¦ıà¦ĸà¦¨à¦ĵ":821,"à¦īà¦¨":822,"à¦ĩà¦¬":823,"Ġà¦ĺà¦¨":824,"à¦Ńà¦°":825,"Ġà¦°à¦ĩà¦²":826,"Ġà¦Ľà§ľ":827,"à¦°à¦Ĺ":828,"à¦Ĺà¦¬":829,"Ġà¦ĸà¦¬à¦°":830,"Ġà¦Ĩà¦Łà¦ķ":831,"Ġà¦Ľà¦¨":832,"Ġà¦ıà¦¨":833,"à¦°à¦®à¦£":834,"à¦·à¦®":835,"ĠâĢĵ":836,"à¦ķà¦¶":837,"Ġà¦ķà¦¨":838,"à¦¿!":839,"Ġà¦¦à¦°à¦ķ":840,"Ġà¦ķà¦·":841,"Ġà¦ĺà¦Łà¦¨":842,"Ġà¦ªà¦²":843,"Ġà¦Ĩà¦¸à¦¤":844,"à¦ľà¦¸":845,"à¦ľà¦¯":846,"Ġà¦¤à¦ĸà¦¨à¦ĩ":847,"à¦¯à¦ĩ":848,"à¦ıà¦¬":849,"Ġà¦¯à¦¥":850,"à¦®à§Ł":851,"Ġà¦°à¦ķà¦®":852,"à¦§à¦¬":853,"Ġà¦¦à¦¶":854,"Ġà¦Ĳà¦¤":855,"à¦ķà¦ķ":856,"Ġà¦īà§İà¦¸":857,"à¦¹à¦¤":858,"à¦ķà¦¦":859,"à§ĭâĢĶ":860,"à¦®à¦¸":861,"Ġà¦ķà¦ĸà¦¨à¦ĵ":862,"Ġà¦¤à¦¤":863,"à¦ıà¦°":864,"à¦ķà¦¡":865,"à¦¨à¦¯":866,"à¦·à¦®à¦¤":867,"à¦¾;":868,"Ġà¦¸à¦ļ":869,"Ġà¦ħà¦¦à¦®":870,"Ġà¦¹à¦°":871,"à§¨":872,"à¦Ĩà¦²":873,"Ġà¦¦à¦°":874,"Ġà¦Ĩà¦Ń":875,"Ġà§§à§":876,"à¦¾âĢĵ":877,"à¦¯à¦¯":878,"Ġà¦¬à¦Ł":879,"Ġà¦ļà¦°":880,"Ġà¦¬à¦ķ":881,"Ġà¦ľà¦°":882,"Ġà¦¸à¦°à¦ķ":883,"Ġà¦Ĺà¦£":884,"Ġà¦¨à¦°à¦®":885,"à¦Ĩà¦®à¦°":886,"Ġà¦ħà¦¥à¦¬":887,"à¦ľà¦¬":888,"Ġà¦ªà¦°à¦¬à¦°":889,"Ġà¦¯à¦¨":890,"à§ĭ?":891,"à¦Łà¦¨":892,"à§Ģ-":893,"Ġà¦¬à§Ł":894,"Ġà¦¸à¦¬à¦ļ":895,"à¦¸à¦¬à¦ĩ":896,"à¦®à¦§":897,"Ġà¦ķà¦²à¦ķ":898,"Ġà¦ļà¦ķ":899,"à¦¦à¦®":900,"Ġà¦Ńà§Ł":901,"âĢĶâĢľ":902,"à¦Łà¦°":903,"à¦®à¦Ł":904,"ĠâĢĶ":905,"à§ĭ-":906,"Ġà¦¸à¦ŀ":907,"Ġà¦Ĩà¦¦à¦°":908,"Ġà¦¬à¦ī":909,"à¦®à¦°à¦£":910,"à¦²à¦®":911,"Ġà¦Ńà¦¦":912,"Ġà¦ľà¦¯":913,"à¦ŀà¦¤":914,"à¦²à¦¯":915,"à¦Ĺà¦®":916,"à¦²à¦Ĺ":917,"à¦ªà¦£":918,"Ġà¦ħà¦Łà¦²":919,"à¦¶à¦ª":920,"à¦¾à¥¤âĢĿ":921,"à¦²à¦¸":922,"Ġà¦ıà¦¸à¦¬":923,"Ġà¦°à¦ĵ":924,"à¦¹à¦°à¦£":925,"Ġà¦ĵà¦ķ":926,"à¦¨à¦ĩ":927,"à¦²à¦Ł":928,"Ġà¦īà¦łà¦¤":929,"âĢĺ":930,"Ġà¦°à¦¸":931,"Ġà¦¬à§ľ":932,"Ġà¦īà¦ªà¦¸":933,"à¦¼?":934,"Ġà¦īà§İà¦¸à¦¬":935,"Ġà¦§à¦¨":936,"à¦®à¦Ĺ":937,"à¦ĩà¦Ľ":938,"à¦ĸà¦°":939,"Ġà¦¸à¦¤à¦¤":940,"à¦¸à¦®à¦¯":941,"Ġà¦°à¦ļà¦¨":942,"à¦®à¦¹":943,"à¦¸à¦ª":944,"à¦¹à¦ł":945,"à¦°à§Ł":946,"Ġà¦īà¦łà¦Ľ":947,"à¦¦à¦¸":948,"à¦¼âĢĶ":949,"à¦Ŀà¦°":950,"Ġà¦²à¦¡":951,"à¦¹à¦¯":952,"Ġà¦Ĩà¦ľà¦ĵ":953,"à¦¼-":954,"à¦Ĩà¦ªà¦¨":955,"à¦łà¦¨":956,"à¦¡à¦²":957,"Ġà¦²à¦ľ":958,"à¦Łà¦«":959,"à¦°à¦¹à¦°":960,"Ġà¦ıà¦ķà¦¸à¦Ļ":961,"Ġà¦¸à¦Ń":962,"Ġà¦Ī":963,"Ġà¦Ĩà¦ª":964,"à§Łà¦¤":965,"à¦¨à¦Ń":966,"Ġà¦ªà¦¶":967,"Ġà¦¦à¦ķ":968,"à¦ľà¦ķ":969,"à¦¾âĢĻ":970,"à¦¥à¦ķ":971,"Ġà¦§à¦°à¦¨":972,"à¦¸à¦Ł":973,"Ġà¦Ĩà¦ĵà¦¯":974,"Ġà¦ļà¦²à¦Ľ":975,"Ġà¦ķà¦ª":976,"à¦Ĺà¦Ľ":977,"à¦¯à¦ª":978,"Ġà¦§à¦°à¦²":979,"à§¦":980,"à¦°à¦°":981,"Ġà¦ħà¦¸à¦®":982,"à¦Ĩà¦ķ":983,"Ġà¦ħà¦ŀ":984,"à¦ļà¦¡":985,"Ġà¦¨à¦®":986,"à¦²à¦®à¦²":987,"à¦¤à¦Ł":988,"Ġà¦®à¦ľ":989,"à¦¬à¦Ľ":990,"Ġà¦¬à¦¸à¦²":991,"à¦ķà¦°à¦£":992,"Ġà¦ªà¦°à¦®":993,"Ġà¦¨à¦¨":994,"Ġà¦¶à¦¹":995,"à¦¬à¦ļ":996,"Ġà¦®à¦ŀ":997,"Ġà¦¸à¦¬à¦ĩ":998,"Ġà¦īà¦ªà¦¨":999,"à¦¶à¦²":1000,"à¦¿;":1001,"à¦¾à¦ģ,":1002,"Ġà¦ªà¦¦à¦ķ":1003,"à§«":1004,"Ġà¦ıà¦ķà¦®":1005,"Ġà¦°à¦ĵà¦¶à¦¨":1006,"à¦Ńà¦¯":1007,"à¤":1008,"à¦łà¦ķ":1009,"--":1010,"Ġà¦®à¦²":1011,"à¦ķà¦¸":1012,"à¦Ľà¦¬":1013,"Ġà¦¨à¦ľà¦°":1014,"Ġà¦®à¦£":1015,"Ġà¦¯à¦ľ":1016,"à¦¬à¦¹":1017,"Ġà¦īà¦·":1018,"à¦¼;":1019,"Ġà¦ľà¦¬":1020,"à¦¬à¦£":1021,"Ġà¦¸à¦®à¦¨":1022,"à¦¬à¦ĩ":1023,"à§Ģ?":1024,"à¦łà¦¸":1025,"à¦ªà¦²":1026,"Ġt":1027,"à¦īà¦ķ":1028,"Ġà¦ļà¦®à¦ķ":1029,"à§ĩ?âĢĿ":1030,"Ġà¦¥à¦®à¦ķ":1031,"à¦¿âĢĵ":1032,"Ġà¦ıà¦Ń":1033,"à¦ķà¦Ľ":1034,"Ġà¦ªà¦ŀ":1035,"Ġà¦Ĺà¦°à¦®":1036,"Ġà¦ĵà¦Ł":1037,"à¦ľà¦®":1038,"à¦ķà¦¥":1039,"à¦ªà¦ļ":1040,"à¦·à¦¦":1041,"à¦¾à¥¤âĢĻ":1042,"Ġà¦¦à¦®":1043,"à¦ķà¦ľà¦¨":1044,"à¦īà¦¯":1045,"Ġà¦īà¦°":1046,"à¦¹à¦®":1047,"à§ĩà¥¤âĢĻ":1048,"Ġà¦ĺà¦£":1049,"à§ĩâĢ¦":1050,"à¦£à¦¨":1051,"Ġà¦ľà§Ł":1052,"à¦¶à¦®":1053,"Ġà¦Ĺà¦¬":1054,"Ġà¦Ĺà¦®":1055,"Ġà¦īà¦łà¦¬":1056,"à¦¤à¦ª":1057,"à¦Ŀà¦ĸ":1058,"à¦ıà¦¸à¦¬":1059,"à¦ĩà¦Ń":1060,"à¦ıà¦Ł":1061,"Ġà¦Ĺà¦¹":1062,"à¦®à¦¶":1063,"à¦¤à¦¨à¦¤":1064,"à¦®à¦¦":1065,"à¦£à¦¬":1066,"Ġà¦Ŀà¦²à¦®à¦²":1067,"à¦ĩà§Ł":1068,"à¦°à¦ĸ":1069,"à¦¼à¦Ĥ":1070,"Ġà¦®à¦¸":1071,"à¦ķà¦Ń":1072,"à¦°à¦Ĺà¦¤":1073,"à¦°à¦¬à¦¨":1074,"Ġà¦¸à¦°à¦²":1075,"Ġà¦ªà§ľà¦²":1076,"à¦¦à¦Ĺ":1077,"à¦ĩà¦¡":1078,"Ġà¦¯à¦¤à¦ĩ":1079,"Ġà¦ļà¦¡":1080,"Ġà¦ħà¦Ł":1081,"Ġà¦Ĳà¦ķ":1082,"Ġà¦¤à¦°à¦Ļ":1083,"à¦ĵà¦°":1084,"Ġà¦ľà¦Ł":1085,"à¦ıà¦ĸà¦¨":1086,"Ġà¦ıà¦ķà¦¤":1087,"Ġà¦Ńà¦Ļ":1088,"à¦¥à¦²":1089,"à¦¤à¦¦":1090,"à¦ļà¦¤":1091,"à¦¨à¦¶":1092,"Ġà¦ļà¦¨":1093,"à§Ŀ":1094,"Ġà§§à§¯":1095,"à¦¬à¦Ń":1096,"à¦¿à¥¤âĢĿ":1097,"à¦ıà¦ĸ":1098,"à§©":1099,"à¦®à¦ª":1100,"Ġà¦Ĩà¦°à¦®":1101,"à¦ĺà¦¨":1102,"Ġà¦ĵà¦ĸ":1103,"à¦¿âĢĻ":1104,"à¦²à¦Ń":1105,"he":1106,"à¦Ľà¦²":1107,"Ġà¦²à¦®":1108,"à§Ń":1109,"à§ĭ!":1110,"à¦ħà¦°":1111,"à¦¶à¦¯":1112,"Ġà¦ªà¦°à¦¶":1113,"à¦ªà¦®":1114,"à¦¯à¦Ń":1115,"à¦¬à¦§":1116,"à¦¸à¦¹":1117,"à¦®à¦ľ":1118,"Ġà¦ħà¦°à¦£":1119,"Ġà¦ľà¦Ĺà¦¤":1120,"à¦¯à§İ":1121,"Ġà¦ļà¦²à¦¤":1122,"à¦¸à¦Ľ":1123,"à¦Ĺà¦£":1124,"à¦¼à¦¿à¥¤":1125,"à¦¤à¦¹":1126,"Ġà¦¸à¦ª":1127,"à¦Łà¦Ľ":1128,"à¦ļà¦Ł":1129,"Ġà¦®à¦¤à¦¨":1130,"Ġà¦¨à¦ķ":1131,"Ġà¦ļà¦²à¦²":1132,"Ġà¦¸à¦¦":1133,"à¦ľà¦¨à¦ķ":1134,"Ġà¦ªà¦Ľà¦¨":1135,"à¦ĥà¥¤":1136,"Ġà¦¸à¦ł":1137,"Ġà¦ħà¦¹":1138,"Ġà¦ĵà¦¯":1139,"à¦īà¦Ł":1140,"à¦ķà¦ĩ":1141,"Ġà¦°à¦®à¦£":1142,"in":1143,"à§ª":1144,"Ġà¦¬à¦ľ":1145,"à¦ĩà¦¸":1146,"à¦ľà¦Ľ":1147,"à¦°à¦¬à¦²":1148,"à¦ľà¦Ł":1149,"Ġà¦¬à¦¸à¦¨":1150,"à¦ķà¦£":1151,"à¦²à¦ª":1152,"Ġà¦«à¦°":1153,"Ġà¦¹à¦¸":1154,"à¦ķà¦Ĺ":1155,"à¦ļà§Ł":1156,"à¦Ĩà¦Ĺ":1157,"à¦°à¦«":1158,"à¦·à§Ł":1159,",âĢĿ":1160,"Ġà¦Ĩà¦ĺ":1161,"à¦·à¦Ł":1162,"Ġà¦Ĩà¦ĩà¦¨":1163,"Ġà¦¨à¦¡":1164,"Ġà¦ªà¦£":1165,"à¦Łà¦Ł":1166,"à¦ĺà¦²":1167,"Ġà¦ħà¦¤à¦ıà¦¬":1168,"à¦®à¦¡":1169,"à¦¬à¦¡":1170,"Ġà¦¨à¦Ĺà¦°":1171,"à¦īà¦°":1172,"Ġà¦¸à¦¬à¦ķ":1173,"Ġà¦¨à¦·":1174,"Ġà¦īà¦ªà¦²à¦¬":1175,"à¦¨à¦ª":1176,"Ġà¦¹à¦ĩ":1177,"an":1178,"à¦¬à¦Ł":1179,"Ġà¦ħà¦ľà¦¸":1180,"Ġà¦Ĩà¦ķà¦°":1181,"à¦¥à¦®":1182,"à¦¦à¦Ł":1183,"Ġà¦·":1184,"Ġà¦Ĩà¦¨à¦¤":1185,"à¦°à¦¦à¦°":1186,"Ġà¦īà§ľ":1187,"âĢĿà¥¤":1188,"à§ĩ:":1189,"à¦ķà¦®":1190,"Ġà¦ıà¦®à¦¨à¦ķ":1191,"à¦¦à¦ķ":1192,"Ġà¦®à¦®à¦¤":1193,"à¦¨à¦ļ":1194,"à¦¶à¦°":1195,"à¦®à¦¨à¦ĩ":1196,"à¦²à¦ļ":1197,"à¦¶à¦¤":1198,"à¦Łà¦®":1199,"à¦§à¦¹à¦¯":1200,"à¦īà¦¦":1201,"Ġà¦ĩà¦²":1202,"à¦ľà§Ł":1203,"Ġà¦Ŀà¦¡":1204,"à§ĩ?âĢĻ":1205,"à¦¤à¦Ń":1206,"à¦¤à¦¸":1207,"à¦Ńà¦Ļ":1208,"à¦£à¦ķ":1209,"Ġà¦ĩà¦¯":1210,"Ġà¦ķà§Ł":1211,"à¦°à¦¬à¦°":1212,"Ġà¦¸à¦ľ":1213,"Ġà¦ľà¦Ļ":1214,"à¦Łà¦ª":1215,"à¦ľà¦Ĺ":1216,"à¦Ľà¦¤":1217,"Ġà¦ĵà¦ª":1218,"Ġà¦ªà¦²à¦ķ":1219,"Ġà¦¬à¦ĩà¦¯":1220,"à¦ĩà¦®":1221,"à¦ĸà¦ķ":1222,"à¦¶à¦Ł":1223,"à¦¨à¦Ľ":1224,"à¦Ĺà¦¡":1225,"Ġà¦²à¦¤":1226,"Ġà¦ħà¦¤à¦²":1227,"Ġà¦¸à§İ":1228,"Ġà¦®à¦¶":1229,"Ġà¦Ńà¦ķ":1230,"à¦¬à¦®":1231,"..":1232,"à¦°à¦Ļ":1233,"à¦ĩà¦ľ":1234,"à¦¼à¦¿,":1235,"Ġà¦ªà¦¯":1236,"Ġ-":1237,"Ġà¦¹à¦¨":1238,"Ġà¦ħà¦®à¦°":1239,"à¦¤à¦¬à¦¤":1240,"à¦¬à¦²à¦¤":1241,"à¦¤à¦ĸà¦¨":1242,"à¦ķà¦ļ":1243,"Ġà¦Ŀà¦¨":1244,"on":1245,"âĢ¦âĢĿ":1246,"à¦ªà¦Ľ":1247,"à¦°à¦¸à¦Ļ":1248,"Ġà¦§à¦°à¦¤":1249,"à§ĩà¦¾":1250,"Ġà¦ļà¦²à¦¬":1251,"à¦¨à§Łà¦¨":1252,"à¦¬à¦²à¦Ľ":1253,"à§ĩ!âĢĿ":1254,"Ġà¦īà§İà¦ª":1255,"à¦¶à¦Ĺ":1256,"Ġà¦¶à¦ªà¦¥":1257,"à¦¬à¦ľ":1258,"Ġà¦ļà¦Ł":1259,"à¦¸à¦¬à¦ķ":1260,"re":1261,"Ġà¦ħà¦¨à¦²":1262,"à¦¿à¥¤âĢĻ":1263,"Ġà¦¶à¦Ļ":1264,"Ġà¦ķà¦¤à¦Ł":1265,"Ġà¦Ĺà¦Ļ":1266,"Ġà¦¬à¦¸à¦¤":1267,"Ġà¦ĭà¦·":1268,"à¦¤à¦ĩ":1269,"Ġà¦°à¦ļ":1270,"Ġà¦®à¦¯":1271,"Ġà¦Ĩà§ľ":1272,"à¦¯à¦®à¦¯":1273,"à¦®à¦ļ":1274,"Ġà¦®à¦¨à¦¨":1275,"à¦¦à¦¬":1276,"à¦°à¦ķà¦²":1277,"Ġà¦Īà¦¶":1278,"Ġà¦ħà¦¸à¦¹":1279,"à¦Ĺà¦°à¦£":1280,"à¦¬à¦ľà¦¨":1281,"à¦¦à¦¶":1282,"à¦¥à¦¤":1283,"Ġà¦¸à¦®à¦°":1284,"à¦ħà¦¤":1285,"à¦ħà¦¸":1286,"Ġà¦Ĭ":1287,"à¦¼!":1288,"à¦¥à¦¬":1289,"à¦¬à¦²à¦ľ":1290,"à¦°à¦®à¦¶":1291,"à¦²à¦ľ":1292,"à§Ģ!":1293,"Ġà¦Ĩà¦ļà¦°à¦£":1294,"Ġà¦ľà¦Ĺ":1295,"Ġà¦Ĩà¦¬à¦¦":1296,"Ġà¦ªà¦Ł":1297,"Ġà¦ķà¦ļ":1298,"à¦ķà§ľ":1299,"Ġà¦°à§Ł":1300,"Ġà¦ĩà¦¸":1301,"Ġà¦ıà¦°à¦ķà¦®":1302,"Ġà¦®à¦¦":1303,"Ġà¦ļà¦¤":1304,"Ġà¦ĸà¦¸":1305,"à¦¯à¦Ł":1306,"Ġà¦ĸà¦°à¦ļ":1307,"à¦®à¦Ľ":1308,"Ġà¦ķà¦«":1309,"Ġà¦ķà¦®à¦²":1310,"Ġà¦¤à¦ĸà¦¨à¦ĵ":1311,"Ġà§¨":1312,"Ġà¦¤à¦¨":1313,"Ġà¦ıà¦ķà¦¸":1314,"Ġà¦¹à¦ĵà§Ł":1315,"à¦¯à¦¤à¦®":1316,"à¦ªà§ľ":1317,"à¦®à¦®":1318,"Ġà¦¬à¦Ļ":1319,"at":1320,"Ġà¦ĩà¦Ļ":1321,"Ġà¦¹à§Łà¦¤":1322,"Ġà¦ķà¦²à¦®":1323,"à¦īà§Ł":1324,"à§ĭà¥¤âĢĿ":1325,"à¦¾à¦ĥ":1326,"à¦ħà¦ļ":1327,"al":1328,"à¦¼âĢĵ":1329,"ÂłÂłÂł":1330,"à¦¨à¦®":1331,"à§¬":1332,"à¦¾:":1333,"à¦Ĩà¦¶":1334,"à¦¤à¦Ĺ":1335,"Ġà¦ªà¦¨":1336,"à¦īà¦¡":1337,"à¦Ńà¦ķ":1338,"à¦¼à¦¾-":1339,"Ġà¦®à¦¨à¦¸":1340,"Ġà¦«à¦¸à¦²":1341,"Ġà¦¸à¦¹à¦¯":1342,"Ġà¦ªà¦°à¦¸":1343,"à¦ķà¦ª":1344,"Ġà¦¬à¦¹à¦¨":1345,"à¦ħà¦¬":1346,"à¦Łà¦«à¦°":1347,"Ġà¦Ĩà§Ł":1348,"à¦ķà¦ĸà¦¨":1349,"à¦¯à¦ľ":1350,"à¦ļà¦¬":1351,"à¦Ĩà¦ľà¦ķ":1352,"à¦īà¦ľ":1353,"à¦¯à¦ķà¦°":1354,"à¦Ĩà¦¬":1355,"à¦¬à¦²à¦¨":1356,"Ġà¦«à¦Ł":1357,"Ġà¦°à¦ľà¦¤":1358,"âĢĻà¥¤":1359,"à¦¯à¦ĸà¦¨":1360,"à¦¬à¦°à¦¤":1361,"Ġà¦ıà¦¤à¦Ł":1362,"Ġthe":1363,"à¦¸à¦¦":1364,"à¦¿?âĢĿ":1365,"à¦¨à¦¬à¦ľ":1366,"Ġà¦¸à¦¤à¦°":1367,"Ġà¦Ĩà¦¸à¦¨":1368,"Ġà¦ıà¦¤à¦ķ":1369,"ĠĠčĊ":1370,"Ġà¦¸à¦®à¦Ĺ":1371,"Ġà¦¸à¦¹à¦®à¦°":1372,"à¦ĸà¦Ł":1373,"à§Łà¦®":1374,"à¦¬à¦¨à¦¯":1375,"Ġà¦ķà¦¹":1376,"Ġà¦ħà¦¬à¦§":1377,"Ġà¦ıà¦ĩà¦¸à¦¬":1378,"à¦ıà¦¸":1379,"à¦¨à¦ľà¦¨":1380,"Ġà¦°à¦ŀ":1381,"à¦ľà¦¨à¦¶":1382,"Ġà¦Ĩà¦¬à¦°":1383,"à¦ıà¦ķà¦¦":1384,"Ġà¦ķà¦Ł":1385,"à¦¸à¦®à§Ł":1386,"à¦²à§Ł":1387,"à¦Ĺà¦Ń":1388,"à¦²à¦ĩ":1389,"à¦ĩà¦ª":1390,"Ġ!":1391,"Ġà¦ıà¦¡":1392,"er":1393,"à¦¤à¦ľ":1394,"Ġà¦ļà¦°à¦®":1395,"à¦®à¦ªà¦°":1396,"à¦ĸà¦£":1397,"Ġà¦ıà¦¤à¦¦":1398,"Ġà¦¬à¦¸à¦¬":1399,"Ġà¦ħà¦¬à¦²":1400,"à¦¸à¦ķà¦²":1401,"à¦«à¦Ł":1402,"is":1403,"à¦Ĳ":1404,"à¦¯à¦¬à¦¤":1405,"Ġà¦ĺà¦¡":1406,"en":1407,"Ġ'":1408,"Ġà¦ħà¦¬à¦¨":1409,"Ġà¦ļà¦®":1410,"à¦ıà¦®à¦¨":1411,"Ġo":1412,"Ġà¦ķà¦ķ":1413,"Ġà¦Łà¦°":1414,"à¦Ńà¦¬à¦¤":1415,"à§¯":1416,"à¦ıà¦Ń":1417,"à¦°à¦¥à¦®à¦¬":1418,"it":1419,"Ġà¦¢à¦²":1420,"à¦¾âĢĿ":1421,"à¦ļà§ľ":1422,"à¦°à¦¤à¦°":1423,"Ġà¦ıà¦°à¦ªà¦°":1424,"Ġà¦ľà§ľ":1425,"Ġà¦®à¦¨à¦Ł":1426,"à¦¬à¦°à¦£":1427,"à¦¾âĢ¦":1428,"à¦¾?âĢĻ":1429,"à¦¦à¦¤":1430,"à¦Ļà¦²":1431,"Ġà¦¬à¦ĩà§Ł":1432,"à¦Ľà¦Ł":1433,"à¦ħà¦¬à¦¶":1434,"Ġà¦Ŀà¦²à¦ķ":1435,"à¦£à¦¦":1436,"à¦¨à¦¹":1437,"à¦²à¦¦":1438,"à¦Ńà§Ł":1439,"Ġà¦ĵà¦·":1440,"!âĢĻ":1441,"Ġà¦ķà¦¡":1442,"à¦ĵà¦ĩ":1443,"Ġà¦ĸà¦£":1444,"à§ĩâĢĶâĢľ":1445,"Ġà¦Ĩà¦ªà¦¤":1446,"Ġà¦°à¦¤":1447,"Ġà¦Ĩà¦²à¦®":1448,"à¦¯à¦Ĺ":1449,"Ġà¦¨à¦ĩà¦²":1450,"Ġà¦®à¦Ļ":1451,"à¦¡à¦¬":1452,"à¦¾à¦ģà¥¤":1453,"Ġs":1454,"Ġà¦Ĩà¦®à¦¨":1455,"Ġà¦Ĺà¦łà¦¨":1456,"Ġà¦ľà¦¨à¦¨":1457,"à¦¬à§Ł":1458,"à¦īà¦¸":1459,"à¦²à¦«":1460,"ĠĠ":1461,"à¦¶à¦¹à¦°":1462,"Ġà¦ħà¦®à¦¨":1463,"à¦Ĩà¦¸":1464,"à¦Ŀà¦¬":1465,"à§®":1466,"à§ĭ?âĢĿ":1467,"Ġà¦ļà¦°à¦£":1468,"à¦ľà¦ª":1469,"à§ĩâĢĻ":1470,"Ġà¦ľà¦¨à¦¸":1471,"à¦¶à¦¦":1472,"à¦ļà¦°à¦£":1473,"Ġà¦ħà¦¬à¦¹":1474,"à¦ªà¦Ĺ":1475,"Ġà¦Ńà¦°à¦¸":1476,"à¦Ĺà¦łà¦¨":1477,"Ġà¦Ĩà¦®à¦²":1478,"Ġà¦Ķ":1479,"à¦¹à¦ķ":1480,"Ġà¦¬à¦ŀ":1481,"à¦¾!âĢĿ":1482,"Ġà¦Ĩà¦ĵà§Ł":1483,"Ġà¦Ńà¦Ĺà¦¬":1484,"Ġà¦ıà¦ķà¦¥":1485,"à¦¬à¦¨à¦ķ":1486,"à¦¸à¦¸":1487,"à¦ħà¦®":1488,"Ġà¦¸à¦ĸ":1489,"Ġà¦°à¦«":1490,"à¦Ńà¦¨":1491,"Ġà¦¨à¦ķà¦¶":1492,"Ġà¦²à§ľ":1493,"Ġ:":1494,"à¦«à¦°":1495,"Ġ?":1496,"Ġà¦ªà¦¦à¦ļ":1497,"à¦¸à¦¤à¦¤":1498,"à¦¯à¦ĵ":1499,"Ġà¦Ĩà¦Ł":1500,"Ġà¦¸à¦¹à¦¸":1501,"Ġà¦ļà¦¶à¦®":1502,"à¦ªà¦¯":1503,"Ġà¦ĩà¦Ł":1504,"à§Łà¦Ĺ":1505,"Ġà¦ĩà¦¶":1506,"Ġà¦Ĩà¦¨à¦²":1507,"Ġà¦ıà¦ķà¦¦à¦®":1508,"Ġà¦ļà¦ŀ":1509,"Ġà¦Ŀà¦°à¦¨":1510,"à¦¦à¦¦":1511,"Ġà¦°à¦ľ":1512,"Ġà¦®à¦¨à¦ķ":1513,"Ġà¦Ĩà¦°à¦ľ":1514,"à¦¯à¦¹":1515,"à¦°à¦¸à¦°":1516,"à¦¤à¦°à¦£":1517,"à¦ªà¦¬":1518,"Ġà¦ĩà¦ŀ":1519,"Ġà¦ħà¦¬à¦¦":1520,"à¦¤à¦°à¦Ļ":1521,"Ġà¦ªà¦¥à¦ļà¦²":1522,"Ġà¦Ĩà¦¤à¦Ļ":1523,"Ġà¦¨à¦¹":1524,"Ġà¦°à¦¹":1525,"à¦ĩà¦ļ":1526,"à¦Łà¦Ĺ":1527,"Ġà¦ĩà¦īà¦¨":1528,"à¦¯à§Ł":1529,"Ġà¦¤à¦ªà¦¸":1530,"Ġà¦¶à¦¸":1531,"Ġà¦Ĩà¦ĸ":1532,"à¦ªà¦¶":1533,"à¦ıà¦¸à¦¬à¦ĩ":1534,"à§ĭ;":1535,"à¦¦à¦¹":1536,"Ġà¦ıà¦ķà¦²":1537,"à¦¤à¦Ľ":1538,"Ġà¦ªà¦¬":1539,"Ġà¦Ĺà¦ľ":1540,"Ġà¦Ńà¦°à¦¤":1541,"Ġ;":1542,"Ġà¦¬à¦Łà¦Ĺ":1543,"à¦¡à¦¨":1544,"à¦¸à¦Ń":1545,"à¦¸à¦²à¦®":1546,"à¦§à¦®":1547,"Ġà¦°à¦¤à¦¨":1548,"à§İà¦ª":1549,"à¦ĺà¦¶":1550,"Ġà¦¯à¦¤à¦Ł":1551,"à¦°à¦ļà¦£":1552,"ÂłÂłÂłÂłÂłÂłÂłÂłÂłÂłÂłÂł":1553,"Ġà¦®à¦¡":1554,"à¦ıà¦¤":1555,"Ġà¦¨à¦ĩ":1556,"à¦¼à¥¤âĢĿ":1557,"Ġà¦īà¦¦à¦¯":1558,"Ġà¦īà¦ªà¦¯":1559,"Ġà¦Ĭà¦°":1560,"à¦¿âĢ¦":1561,"Ġà¦ıà¦®à¦¨à¦ĩ":1562,"à¦¦à¦ª":1563,"Ġà¦¦à¦ĸà¦²":1564,"à¦°à¦·":1565,"à¦·à¦¬":1566,"âĢį":1567,"à¦ĺà¦®":1568,"Ġà¦ľà¦Ĺà§İ":1569,"Ġa":1570,"à¦Łà¦¸":1571,"à¦ħà¦¦":1572,"Ġà¦¯à¦®":1573,"à¥¥":1574,"à¦¸à¦°à¦£":1575,"à¦®à¦ŀ":1576,"à¦ªà¦ķà¦¥":1577,"Ġà¦ļà¦®à§İà¦ķ":1578,"à§ĢâĢĶ":1579,"Ġà¦¤à¦ªà¦¨":1580,"Ġà¦¨à¦¬à¦ľ":1581,"Ġà¦ıà¦ķà¦¶":1582,"Ġà¦ĩà¦®":1583,"Ġà¦Ĩà¦¨à¦¬":1584,"à¦ĩà¦«":1585,"Ġà¦ħà¦ªà¦®":1586,"à¦ķà¦ł":1587,"Ġà¦¬à¦ªà¦¨":1588,"à¦ħà¦¶":1589,"à¦¿?âĢĻ":1590,"à¦®à¦ĩ":1591,"à¦ĸà¦¸":1592,"Ġà¦ĭà¦¤":1593,"à¦²à¦¬à¦¨":1594,"Ġà¦¬à¦¦":1595,"Ġà¦Ĩà¦ĩ":1596,"Ġà¦°à¦¥":1597,"Ġà¦ıà¦ĩà¦Ń":1598,"à¦Ŀà¦ķ":1599,"Ġà¦ĭà¦£":1600,"Ġc":1601,"à¦Ľà¦ª":1602,"Ġà¦¶à¦¤à¦ķ":1603,"Ġà¦īà¦ªà¦¹":1604,"à¦°à¦¥à¦®à¦¤":1605,"à¦ķà¦¶à¦¨":1606,"Ġà¦Ŀà¦ķ":1607,"Ġà¦ħà¦¯":1608,"Ġà¦°à¦¹à¦®":1609,"à§ĩ,âĢĿ":1610,"Ġà¦¦à¦¯":1611,"Ġà¦ıà¦ķà¦ķ":1612,"Ġà¦ıà¦ķà¦ª":1613,"Ġà¦®à¦°à¦£":1614,"Ġà¦Ĩà¦¬à¦¹":1615,"à¦ľà¦¦":1616,"Ġà¦ħà¦ļà¦²":1617,"Ġà¦Ĩà¦ľà¦ĩ":1618,"Ġà¦īà¦ªà¦ķ":1619,"Ġof":1620,"Ġà¦ľà¦²à¦¬":1621,"à¦ĩà¦¦":1622,"Ġà¦¸à¦®à¦¤":1623,"à§İà¦ĩ":1624,"à¦¬à¦Ĺ":1625,"Ġà¦ıà¦ķà¦¸à¦®à¦¯":1626,"Ġà¦ıà¦ĸà¦¨à¦ĩ":1627,"Ġà¦ıà¦ĩà¦°à¦ķà¦®":1628,"âĢĻ,":1629,"or":1630,"à¦¾?âĢĿ":1631,"Ġà¦¦à¦¤":1632,"Ġà¦ĩà¦¹":1633,"à¦¸à¦°à¦ķ":1634,"à¦¡à¦°":1635,"Ġà¦īà¦Ńà¦¯":1636,"à¦°à¦£à¦¯":1637,"es":1638,"à¦Ľà¦Ĺ":1639,"Ġà¦Ńà¦Ĺ":1640,"Ġà¦ĺà¦°à¦Ł":1641,"Ġà¦ķà¦²à¦°à¦¬":1642,"à¦Ĺà¦¦":1643,"Ġm":1644,"à§įà¥¤":1645,"à¦°à¦¤à¦¬à¦°":1646,"Ġà¦¬à§Łà¦¸":1647,"Ġw":1648,"à§ģâĢĶ":1649,"Ġà¦²à¦¯":1650,"Ġà¦ħà¦¬à¦ķ":1651,"à¦¬à¦¤à¦¨":1652,"Ġà¦¨à¦°":1653,"à¦¯à¦¶":1654,"à¦Ĺà¦¸":1655,"à§İà¦ªà¦°":1656,"ar":1657,"à¦¯à¦°à¦ķà¦®":1658,"Ġà¦Ĩà¦°à¦£":1659,"à§ģ!":1660,"à¦¿!âĢĿ":1661,"Ġà¦ľà¦¨à¦®":1662,"à¦ħà¦Ń":1663,"Ġà¦°à¦®":1664,"Ġà¦¸à¦«à¦²":1665,"Ġà¦ıà¦®":1666,"Ġà¦Ĩà¦¬à¦Ľ":1667,"Ġà¦ľà¦²à¦°":1668,"Ġà¦°à¦¶":1669,"à¦īà¦ĩ":1670,"à¦Łà¦ĸ":1671,"Ġb":1672,"à¦¿:":1673,"Ġà¦¸à¦°à¦¸":1674,"Ġà¦Ĳà¦¶":1675,"à§İà¦¸à¦¬":1676,"à¦¬à¦ªà¦¨":1677,"à¦ĵà¦¡":1678,"à¦ĩà¦ľà¦¨":1679,"à¦ľà¦Ĺà¦¤":1680,"à¦Ĺà¦Ł":1681,"Ġà¦²à¦²":1682,"à¦Ĩà¦¤":1683,"à¦ĭ":1684,"Ġà¦Ĩà¦«":1685,"Ġà¦ĵà¦¡":1686,"Ġà¦īà¦²à¦Ł":1687,"à¦ıà¦Ĺ":1688,"Ġà¦¬à¦¶":1689,"Ġà¦°à¦£":1690,"à¦īà¦¤":1691,"Ġà¦ıà¦ĩà¦Ł":1692,"Ġà¦Ĩà¦²à¦¤":1693,"Ġà¦¸à¦®à¦¬":1694,"à¦®à¦Ń":1695,"à¦·à¦ª":1696,"Ġà¦¶à¦¯":1697,"Ġà¦Ĩà¦°à¦¬":1698,"Ġà¦ļà¦ķà¦ļà¦ķ":1699,"à¦ĩà¦¶":1700,"Ġà¦ĩà¦¸à¦²":1701,"à¦¶à¦ĩ":1702,"à¦·à¦¸":1703,"à§ģà¦Ĥ":1704,"Ġà¦¤à¦¤à¦ķ":1705,"à¦«à¦²à¦¨":1706,"à¦¿.":1707,"Ġà¦Ĺà¦¦":1708,"à¦ħà¦²":1709,"à¦Ĩà¦¨à¦¨":1710,"Ġà¦¦à¦¡":1711,"à¦¹à§İ":1712,"Ġà¦Ŀà§ľ":1713,"à¦°à¦ļà¦²":1714,"à§ģ?":1715,"à¦Ĩà¦ļ":1716,"Ġà¦¯à¦¯":1717,"Ġà¦ĵà¦Ĺ":1718,"Ġp":1719,"Ġà¦Ľà¦¯":1720,"Ġà¦¦à¦¶à¦Ł":1721,"Ġà¦¹à§Łà¦¨":1722,"à¦Ĺà¦Ĺ":1723,"à¦¹à¦¬":1724,"Ġà¦¬à¦īà¦¦":1725,"à¦¿âĢĿ":1726,"Ġà¦ķà¦¦":1727,"à¦ļà¦®":1728,"and":1729,"à¦Ļà¦¤":1730,"ing":1731,"Ġà¦Ľà¦²":1732,"à¦¾,âĢĿ":1733,"à¦īà¦ł":1734,"à¦Ĩà¦§":1735,"Ġà¦¬à¦°à¦«":1736,"ed":1737,"Ġà¦ªà¦°à¦¤":1738,"à¦ħà¦ª":1739,"à¦¯à¦®à§Ł":1740,"à¦°à¦¤à¦®":1741,"Ġà¦ķà¦ĩ":1742,"Ġà¦ªà¦°à¦¦":1743,"Ġà¦Ĩà¦¶à¦Ļ":1744,"Ġà¦Ŀà¦ķà¦Ŀà¦ķ":1745,"à¥¤à¥¤":1746,"à¦ĵà¦¨":1747,"à¦Ĩà¦¨":1748,"à§Łà¦ķ":1749,"à§Łà¦¬":1750,"à¦ħà¦Ĺ":1751,"Ġà¦īà¦ªà¦Ń":1752,"Ġà¦®à¦Ĺ":1753,"à¦ħà¦ľ":1754,"à¦ĵà¦²":1755,"Ġà¦ªà¦°à¦¨":1756,"à¦®à¦²à¦¤":1757,"à¦Ĺà¦ķ":1758,"à¦·à¦ĩ":1759,"Ġà¦Ĩà¦Ĺà¦®à¦¨":1760,"Ġf":1761,"à¦Łà¦¦":1762,"ou":1763,"Ġà¦ıà¦ķà¦ĸ":1764,"à¦®à¦Ŀ":1765,"Ġà¦¹à¦ĵ":1766,"à¦¶à¦¸":1767,"Ġà¦ªà§ľà¦Ľ":1768,"à¦ªà¦ķà¦¥à¦¨":1769,"Ġà¦¤à¦ķ":1770,"Ġà¦ıà¦°à¦ĩ":1771,"à¦¼à§ĩ-":1772,"Ġà¦ħà¦²à¦ķ":1773,"Ġà¦§à¦°à¦¬":1774,"Ġà¦ľà¦¨à¦¤":1775,"ÂłÂłÂłÂłÂłÂłÂłÂłÂłÂłÂłÂłÂłÂłÂłÂł":1776,"...":1777,"à¦ªà¦ĩ":1778,"Ġà¦Ńà¦¬à¦¨":1779,"ion":1780,"à¦ľà¦¨à¦¤":1781,"à¦ĺà¦Łà¦¨":1782,"Ġà¦¤à§İà¦ķ":1783,"Ġà¦Ĺà¦Ĺà¦¨":1784,"Ġà¦¸à¦¬à¦¸à¦®à¦¯":1785,"à¦¤à¦¶":1786,"à¦ķà¦ĵ":1787,"à¦°à¦¸à¦¨":1788,"à¦·à¦¨":1789,"Ġà¦¶à¦¨":1790,"Ġà¦ıà¦ķà¦°":1791,"à¦¯à¦¬à¦¦":1792,"à§·":1793,"à¦ªà¦ľ":1794,"Ġà¦īà¦ªà¦¦":1795,"ic":1796,"à¦®à¦ĵ":1797,"à¦ľà¦ĩ":1798,"Ġà¦¥à¦®":1799,"âĢĶâĢĺ":1800,"à¦ħà¦ķ":1801,"Ġà¦¤à¦ª":1802,"à¦¶à¦¹":1803,"Ġà¦¹à¦¤à¦Ń":1804,"à¦ıà¦ķà¦ľà¦¨":1805,"Ġà¦¹à¦ķ":1806,"Ġà¦§à¦°à¦£":1807,"Ġà¦ªà§ľà¦¤":1808,"Ġà¦¶à¦«":1809,"à¦Ńà¦°à¦¤":1810,"à¦®à¦¨à¦¸":1811,"Ġà§©":1812,"Ġà¦ķà¦¬à¦°":1813,"Ġà¦¬à¦§":1814,"à§Īà¦ĥ":1815,"à¦ķà¦¸à¦ĩ":1816,"Ġ\"":1817,"Ġà¦ħà¦·":1818,"à¦¨à¦ľ":1819,"à¦ĩà¦ĸ":1820,"Ġà¦ħà¦¬à¦°":1821,"à¦£à¦Ĺ":1822,"Ġà¦°à¦ĵà¦¨":1823,"as":1824,"Ġd":1825,"Ġà¦Ĩà§Łà¦¨":1826,"Ġà¦Ĺà¦£à¦¤à¦¨":1827,"à¦ķà¦¹":1828,"à¦¼à§į":1829,"Ġà¦®à¦®":1830,"Ġà¦īà¦ķ":1831,"à¦¬à¦Ľà¦°":1832,"Ġà¦¬à¦°à¦£":1833,"Ġà¦¸à¦¸":1834,"Ġà¦¸à¦«":1835,"à¦¼à¦¿à¦Ĥ":1836,"à¦ķà¦«":1837,"à¦¿à¦Ĥ-":1838,"à¦Łà¦«à¦Ł":1839,"à¦¦à¦Ľ":1840,"à¦ĸà¦ĸ":1841,"Ġà¦ĵà¦¸à¦¬":1842,"Ġà¦§à¦®à¦ķ":1843,"à¦¸à¦ĩ":1844,"à¦Ĩà¦ª":1845,"à¦ĺà¦¦":1846,"à¦¿à¦Ĥ,":1847,"Ġà¦ĩà¦ī":1848,"Ġà¦Ŀà¦Ĺà¦¡":1849,"Ġà¦Ľà¦Ł":1850,"Ġà¦Ŀà¦²à¦¸":1851,"Ġà¦ħà¦¬à¦¤":1852,"),":1853,"Ġà¦Ĩà¦ł":1854,"Ġà¦¹à¦ĩà¦²":1855,"Ġà¦²à§Ł":1856,"Ġà¦ıà¦ĩà¦ĸ":1857,"à¦°à¦¬à¦£à¦¤":1858,"Ġà¦Ĩà¦ļà¦®à¦ķ":1859,"à¦¨à¦Ĺà¦°":1860,"à¦ķà¦·":1861,"à¦¸à¦ĵ":1862,"Ġà¦¯à¦¬":1863,"ĠÂł":1864,"à¦²à¦°":1865,"Ġà¦¨à¦Ł":1866,"Ġà¦®à§İà¦¸":1867,"à¦ħà¦¨à¦¨":1868,"Ġà¦¤à¦¦":1869,"Ġà¦Ĩà¦¬à¦¶":1870,"Ġà¦ĺà¦Łà¦²":1871,"Ġà¦¤à¦¤à¦ĩ":1872,"à§ĭâĢĵ":1873,"à¦¼à¦¾âĢĶ":1874,"à¦īà¦ļ":1875,"à¦Ńà¦¸":1876,"à¦ļà¦Ľ":1877,"Ġh":1878,"âĢįà§į":1879,"Ġà¦®à¦¦à¦¨":1880,"à¦£à¦®":1881,"Ġà¦Ľà¦Łà¦«à¦Ł":1882,"Ġà¦ħà¦¨à¦¬à¦¦":1883,"à§İà¦¸à¦°":1884,"Ġà¦¦à¦Ĺ":1885,"à¦£à¦¬à¦¨":1886,"Ġà¦ħà¦Ĺà¦£":1887,"Ġà§§à§¯à§Ń":1888,"Ġà¦ĭà¦Ĺ":1889,"à¦¤à¦ļ":1890,"à¦ľà¦Ļ":1891,"Ġà¦ªà¦°à¦ĩ":1892,"à§ľà¦¤":1893,"Ġà¦¬à¦ĩà¦Ł":1894,")à¥¤":1895,"Ġà¦ĸà¦¡":1896,"Ġà¦¯à¦¤à¦¦":1897,"à¦¬à§ľ":1898,"à¦ħà¦ªà¦°":1899,"Ġà¦Ĩà¦¬à¦°à¦£":1900,"le":1901,"à¦®à¦¸à¦®":1902,"Ġà¦ķà¦¦à¦®":1903,"à¦¦à¦£":1904,"à¦Ĺà¦ĩ":1905,"Ġà¦ħà¦¨à¦¬à¦°à¦¤":1906,"Ġà¦¥à¦®à¦¥à¦®":1907,"à¦¦à¦ĩ":1908,"Ġà¦¦à¦¶à¦ķ":1909,"Ġà¦¹à¦Ł":1910,"Ġà¦°à¦¨":1911,"à¦īà¦®":1912,"à¦¸à¦®à¦¸":1913,"à§ĩâĢĿ":1914,"à¦²à¦ĵ":1915,"Ġà¦ħà¦§à¦°":1916,"Ġà¦ħà¦¬à¦²à¦®":1917,"Ġà¦ķà¦Ń":1918,"à¦·à¦Ń":1919,"Ġà¦²à¦¹à¦°":1920,"à¦ĺà¦£":1921,"Ġà¦ķà¦²à¦Ļ":1922,"Ġà¦ıà¦¤à¦ĩ":1923,"à¦¸à¦¡":1924,"Ġà¦«à¦ķ":1925,"à¦¬à¦¸à¦¨":1926,"Ġà¦¸à¦¦à¦¸":1927,"à¦¡à¦ķ":1928,"à¦¤à¦ĵ":1929,"Ġà¦¨à§ľ":1930,"Ġà¦²à¦¨":1931,"à¦Ĩà¦¯":1932,"à¦Ĩà¦ĩ":1933,"Ġà¦Ĩà¦ķà¦¸":1934,"Ġà¦¨à¦²":1935,"à¦ļà¦¸":1936,"Ġà¦ĸà¦°":1937,"à¦¾à¦ĥà¥¤":1938,"à¦¯à¦Ļ":1939,"à¦¬à¦ĵ":1940,"Ġà¦Ĩà¦Łà¦Ł":1941,"à§ĢâĢĵ":1942,"Ġà¦Ĺà¦¤à¦ķ":1943,"Ġà¦ıà¦¯":1944,"Ġà¦¤à¦°à¦«":1945,"à§Ģà¦Ĥ":1946,"Ġà¦ķà¦¤à¦¦":1947,"à¦²à¦ĸ":1948,"à¦Ŀà¦¡":1949,"à¦·à¦ªà¦°":1950,"Ġà¦ıà¦ķà¦Ĺ":1951,"Ġà¦ıà¦ķà¦¦à¦²":1952,"Ġà¦ĵà§Ł":1953,"à§ĢâĢĻ":1954,"à¦ľà¦§":1955,"à¦Ļà¦¨":1956,"Ġà¦®à¦¸à¦ľ":1957,"à¦ļà¦¶":1958,"à¦ĵà¦¦":1959,"à¦¬à¦¨à¦Ł":1960,"Ġà¦¶à¦¶":1961,"à¦ıà¦²":1962,"à¦¹à¦°à¦£à¦¸":1963,"Ġà¦ıà¦Ľ":1964,"Ġà¦ļà§ľ":1965,"à¦ĵà¦Ĺ":1966,"Ġà¦Ĩà¦Ľà¦¡":1967,"Ġà¦ªà¦¥à¦ļ":1968,"à¦°à¦¥à¦°":1969,"ve":1970,"à¦¶à¦Ŀ":1971,"Ġà¦Ĩà¦°à¦¤":1972,"à¦īà¦¬":1973,"om":1974,"à¦·à¦Ĺ":1975,"à¦łà¦¤":1976,"Ġà¦ĩà¦ľ":1977,"Ġà§¨à§¦":1978,"Ġà¦¦à¦«":1979,"à¦£à¦°":1980,"Ġà¦²à¦Ļ":1981,"à¦Ĩà¦¹":1982,"Ġà¦ıà¦®à¦¨à¦Ń":1983,"Ġà¦Ŀà¦°à¦Ŀà¦°":1984,"Ġà¦ªà¦Łà¦Ń":1985,"Ġà¦ķà¦²à¦¤":1986,"à¦¿,âĢĿ":1987,"âĢĻ-":1988,"Ġà¦ħà¦¥à¦°":1989,"Ġà¦Ĩà¦¹à¦¤":1990,"Ġà¦¤à¦°à¦²":1991,"à¦§à¦Ł":1992,"Ġà¦Ĺà¦¹à¦¨":1993,"à¦ķà¦²à¦®":1994,"Ġà¦ķà¦¤à¦ķ":1995,"Ġà¦¶à¦°à§İ":1996,"Ġà¤":1997,"à¦ĸà¦¬à¦°":1998,"Ġà¦¥à¦°à¦¥à¦°":1999,"Ġà¦¸à¦²":2000,"à¦ľà¦ĵ":2001,"à¦ĸà¦¯":2002,"à¦ĸà¦Ĺ":2003,"à¦¡à¦¬à¦¦":2004,"à¦¬à¦°à¦²":2005,"Ġà¦§à¦°à¦Ľ":2006,"Ġà¦ıà¦ª":2007,"âĢĻâĢĶ":2008,"à¦²à¦Ľà¦²":2009,"ct":2010,"à§ĭ!âĢĿ":2011,"Ġà¦łà¦ķ":2012,"Ġl":2013,"à¦Ĺà¦ł":2014,"Ġà¦ªà¦°à¦ķ":2015,"Ġà¦¯à¦¤à¦ķ":2016,"Ġth":2017,"Ġin":2018,"à¦ıà¦¦":2019,"à¦ħà¦§":2020,"à¦¯à¦ŀ":2021,"Ġà¦¬à¦£":2022,"à§ľà¦¨":2023,"à¦Łà¦ĵà¦¯":2024,"Ġà¦ħà¦£":2025,"à¦°à¦¬à¦£":2026,"à§ĭà¦Ĥ":2027,"à§Łà¦²":2028,"Ġà¦Ľà¦¤":2029,"à¦łà¦¶":2030,"Ġà¦ĸà¦¨":2031,"à¦ıà¦ķà¦¬":2032,"Ġà¦ħà¦¬à¦¸à¦°":2033,"à¦Ī":2034,"Ġà¦ªà¦Ļ":2035,"à§Łà¦¸":2036,"à¦¼à¦¿-":2037,"à¦ķà¦¬à¦°":2038,"à¦ĵà¦¤":2039,"à§ĩ--":2040,"Ġn":2041,"Ġand":2042,"à¦ķà¦ĸ":2043,"Ġà¦¦à¦£":2044,"à¦¤à¦°à¦Ł":2045,"à¦°à¦ŀ":2046,"à§ĭâĢ¦":2047,"à¦ªà¦ķà¦²":2048,"Ġà¦¦à¦®à¦¨":2049,"à¦¤à¦ĸà¦¨à¦ĩ":2050,"à¦ķà¦ľ":2051,"Ġà¦ķà¦Ļ":2052,"à¦¼à§ĩâĢĶ":2053,"à¦£à¦Ń":2054,"Ġà¦Ľà¦¦":2055,"à¦Ŀà¦¨":2056,"Ġà¦¸à¦¹à¦ķà¦°":2057,"à§Ģ;":2058,"Ġà¦¹à¦ĩà¦¤":2059,"Ġà¦ªà¦°à¦ĵ":2060,"Ġà¦§à¦¡":2061,"à¦°à¦¸à¦¬":2062,"à¦¡à¦Ĺ":2063,"à§ľà¦ķ":2064,"à¦ĺà¦ķ":2065,"Ġà¦ħà¦¬à¦ļ":2066,"à¦Ĺà¦®à¦¨":2067,"Ġà¦īà¦Ĺ":2068,"Ġà¦ĵà¦¸":2069,"Ġà¦¹à¦¤à¦Ńà¦®":2070,"à¦¨à¦®à¦¯":2071,"à¦¦à¦ĵ":2072,"à¦°à¦®à¦¹":2073,"Ġà¦Īà¦¦":2074,"à¦¤à¦²à¦¤":2075,"Ġà¦ªà¦¹":2076,"à¦ĸà¦ļ":2077,"Ġà¦§à¦¨à¦¤":2078,"à¦°à¦£à¦¤":2079,"à¦īà§İà¦¸à¦¬":2080,"à¦Ĩà¦¦":2081,"à§Łà¦¬à¦¦":2082,"à¦¤à¦°à¦ķ":2083,"Ġà¦ĺà¦Łà¦¬":2084,"à¦¬à§İ":2085,"à¦¹à¦¦":2086,"Ġà¦īà¦§":2087,"Ġà¦Ĩà¦¨à¦Ľ":2088,"à¦·à¦°à¦Ĺ":2089,"à¦ķà¦®à¦¤":2090,"à¦īà¦ªà¦¸":2091,"Ġà¦¨à¦Ĺ":2092,"Ġà¦¨à¦®à¦¸":2093,"Ġà¦¦à¦ĩ":2094,"à¦¶à¦Ĺà¦¤":2095,"à¦§à¦²":2096,"à¦£à¦ª":2097,"Ġà¦°à¦ľà¦¨":2098,"à¦°à¦£à¦¨":2099,"Ġà¦Ĩà¦¸à¦°":2100,"Ġà¦ļà¦²à¦®":2101,"Ġà¦¬à¦ĩà¦Ľ":2102,"Ġà¦ħà¦²à¦¸":2103,"Ġà¦ªà¦¥à¦ª":2104,"à¦Łà¦Ń":2105,"à¦¬à¦²à¦®":2106,"à¦¦à¦°à¦ľ":2107,"à¦·à¦ķà¦¦":2108,"ĠI":2109,"à§ľà¦Ľ":2110,"Ġà¦ĩà¦¨à¦¸":2111,"à¦¬à¦ļà¦¨":2112,"Ġà¦ķà§ľ":2113,"Ġà¦¸à¦«à¦²à¦¤":2114,"Ġà§§à§¯à§Ńà§§":2115,"à¦¼:":2116,"Ġà¦®à¦¥":2117,"à¦¾âĢĶâĢľ":2118,"à§«à§¨":2119,"à¦¯à¦°à¦¸":2120,"Ġà¦¹à¦ĩà¦¯":2121,"Ġà¦ľà¦²à¦ª":2122,"Ġà¦¤à¦°à¦«à¦¦":2123,"à¦®à¦ļà¦¨":2124,"à§Łà¦°":2125,"à¦«à¦¸":2126,"Ġà¦ľà¦²à¦§":2127,"à¦°à¦¶à¦¸":2128,"à§ĭ:":2129,"Ġà¦Ľà¦²à¦Ľà¦²":2130,"à¦¨à¦¤à¦®":2131,"Ġà¦ľà¦²à¦ľ":2132,"Ġà¦¨à¦¥":2133,"à¦ªà¦ª":2134,"à¦ķà¦Łà¦ķ":2135,"Ġà¦¸à¦¡":2136,"Ġà¦®à¦ľà¦¬":2137,"Ġà¦¶à¦®":2138,"Ġà¦ıà¦ķà¦°à¦ķà¦®":2139,"Ġà¦¸à¦¬à¦Ł":2140,"à¦ħà¦¤à¦ıà¦¬":2141,"à¦¨à¦¸à¦®":2142,"Ġà¦¦à¦¸":2143,"à§Łà¦¦":2144,"à¦¥à¦ª":2145,"Ġà¦¸à¦°à¦²à¦¤":2146,"à¦¨à¦ĵà¦¦":2147,"à¦Ĺà¦ª":2148,"à¦¡à¦Ł":2149,"âĢĿâĢĶ":2150,"Ġà¦¯à¦ĸà¦¨à¦ĩ":2151,"Ġà¦ªà§ľà¦¬":2152,"Ġà¦ħà¦²à¦Ļ":2153,"à¦ķà¦¯":2154,"Ġà¦Ĺà¦¯":2155,"à¦Ĥ,":2156,"Ġà¦®à¦¹à¦°":2157,",âĢĻ":2158,"st":2159,"Ġà¦ĵà¦ľà¦¨":2160,"à¦ªà¦Łà¦ª":2161,"ĠĠčĊĠč":2162,"à¦¸à¦ĸ":2163,"à¦¬à¦¨à¦§":2164,"à¦Ĩà¦Ļ":2165,"à¦§à¦¨à¦ķ":2166,"Ġà¦¬à¦ĩà¦¤":2167,"Ġà¦¤à¦¤à¦Ł":2168,"ol":2169,"à¦¨à¦ĸ":2170,"Ġà¦¦à¦¹à¦¨":2171,"---":2172,"à¦¬à¦Ļ":2173,"à¦¸à¦Ĺ":2174,"à¦Ĺà¦ŀ":2175,"à¦łà¦°":2176,"Ġà¦īà§İà¦¸à¦°":2177,"**":2178,"Ġà¦¸à¦¦à¦°":2179,"à¦¸à¦¹à¦¸":2180,"Ġà¦¨à¦ĸ":2181,"à¦Ľà¦ķ":2182,"à§Ĥà¦ģ":2183,"Ġà¦ľà¦¨à¦Ĺ":2184,"Ġà¦ĭà¦¦":2185,"ot":2186,"ra":2187,"à¦¬à¦¬à¦°":2188,"à¦¸à¦¯":2189,"Ġà¦ıà¦ľ":2190,"Ġà¦Łà¦²à¦®à¦²":2191,"Ġà¦ľà¦¨à¦Ĺà¦£":2192,"à§ĭà¥¤âĢĻ":2193,"à¦¼à§ĩ?":2194,"Ġà¦²à¦¬à¦£":2195,"à¦ıà¦ķà¦ĩ":2196,"à§°à¦¤":2197,"à¦²à¦Ļ":2198,"à¦¯à¦¬à¦°":2199,"à¦¡à¦ª":2200,"Ġà¦ªà¦°à¦ªà¦°":2201,"à¦ľà¦¨à¦ĩ":2202,"Ġà¦īà¦ªà¦ľ":2203,"Ġà¦Īà¦°":2204,"Ġà¦Ĩà¦ŀ":2205,"Ġà¦¨à¦ķà¦²":2206,"à¦ĩà¦ĩ":2207,"à¦ľà¦ķà¦°":2208,"à¦¼à¥¤âĢĻ":2209,"Ġà¦®à¦¹à§İ":2210,"Ġà¦¬à¦Łà¦¬":2211,"à¦Ĩà¦¸à¦²":2212,"à¦ĺà¦Ł":2213,"Ġto":2214,"all":2215,"à¦¯à¦²":2216,"à§ĭ?âĢĻ":2217,"à¦Łà¦ĩ":2218,"Ġà¦¤à¦«":2219,"Ġà¦Ľà¦²à¦¨":2220,"à¦ĺà¦¡":2221,"à¦ħà¦®à¦²":2222,"Ġà¦Ĩà¦¶à¦ª":2223,"à¦¿à¦Ĥà¥¤":2224,"Ġà§§":2225,"à¦ĩà¦¸à¦¬":2226,"à¦¶à¦ĵ":2227,"Ġà¦ķà¦°à¦£":2228,"à¦°à¦¤à¦²":2229,"à¦°à¦ķà¦Ł":2230,"Ġà¦ĺà¦Łà¦¤":2231,"ĠA":2232,"Ġà§«":2233,"à¦¦à¦®à¦¯":2234,"à¦Ĺà¦¯":2235,"à¦¹à§Łà¦¤":2236,"Ġà¦¬à¦¹à¦®":2237,"à¦Ĳà¦¤":2238,"à¦¤à¦§":2239,"à¦ļà§Łà¦¤":2240,"à¦¹à§Ł":2241,"à¦£à¦¯":2242,"Ġà¦ıà¦ķà¦ľ":2243,"à§§à§¯":2244,"à¦ľà¦Ĺà§İ":2245,"Ġbe":2246,"Ġà¦¶à¦ĸ":2247,"Ġà¦ªà¦°à¦²":2248,"à§ľà¦²":2249,"à¦¬à¦²à¦²":2250,"Ġà¦īà¦ªà¦ķà¦°à¦£":2251,"Ġà¦ķà¦²à¦ķà¦²":2252,"Ġà¦Ńà¦°à¦ª":2253,"Ġà¦·à¦¡":2254,"Ġà¦¬à§İà¦¸à¦°":2255,"à¦ľà¦¡":2256,"à¦ļà¦ľà¦¨":2257,"Ġà¦¥à¦²":2258,"Ġà¦ľà¦¨à¦ª":2259,"Ġà¦¨à¦°à¦ķ":2260,"Ġà¦¤à¦¦à¦¨":2261,"Ġà¦¡à¦Ĺ":2262,"Ġà¦¨à§Łà¦¨":2263,"ĠĠĠĠ":2264,"ĠP":2265,"à¦¬à¦¹à¦¨":2266,"Ġà¦ªà¦¤à¦¨":2267,"à¦·à¦ĵ":2268,"ent":2269,"ut":2270,"Ġà¦¨à¦¬à¦¦":2271,"à¦«à¦¨":2272,"à¦Ĩà¦¡":2273,"Ġà¦¬à¦¨à¦Ń":2274,"Ġe":2275,"Ġà¦¸à¦¯à¦¤":2276,"à¦Ľà¦¡":2277,"à¦·à¦Ļ":2278,"Ġà¦ªà¦¥à¦Ł":2279,"Ġà¦¸à¦¹à¦ª":2280,"Ġà§ª":2281,"à¦¨à¦¶à¦¨":2282,"à¦§à¦¦":2283,"Ġà¦¯à¦¶":2284,"à¦¹à¦Ł":2285,"à¦£à¦Ĺà¦¤":2286,"Ġà¦ĵà¦¹":2287,"à¦īà¦ª":2288,"à¦°à¦²à¦¯":2289,"Ġà¦ķà¦¤à¦Ĺ":2290,"il":2291,"à¦Ĺà§ľ":2292,"à¦§à¦¸":2293,"Ġà¦Łà¦²":2294,"Ġà¦ĩà¦¦":2295,"Ġà§§à§©":2296,"à¦®à¦ķà¦°":2297,"à¦Łà¦¹":2298,"à¦·à¦ľ":2299,"à§ĩà¥¤à¥¤":2300,"à¦²à¦®à¦¨":2301,"à¦®à¦®à¦¤":2302,"Ġà¦ķà¦¨à¦¸":2303,"Ġà¦ĵà¦Ń":2304,"à¦Ĩà¦Ľ":2305,"à¦¬à¦²à¦ĩ":2306,"Ġà¦ħà¦ªà¦°à¦ķ":2307,"à¦¨à¦¬à¦°":2308,"à¦ĸà¦®":2309,"Ġà¦¥à¦°":2310,"à¦®à¦¨à¦Ł":2311,"Ġà¦¡à¦²":2312,"Ġà¦®à¦¤à¦ĩ":2313,"à§ĭ,âĢĿ":2314,"à¦¾!âĢĻ":2315,"à¦ķà¦®à¦²":2316,"à¦¯à¦ļ":2317,"à§ĭâĢĻ":2318,"à¦ªà¦Ļ":2319,"à¦ªà¦ŀ":2320,"Ġà¦¤à¦®":2321,"à¦¶à¦Ļ":2322,"à¦·à¦ķà¦°":2323,"Ġà¦²à¦£":2324,"Ġà¦ĺà§ľ":2325,"à¦Ĺà¦ľà¦ªà¦¤":2326,"Ġà¦¤à¦¤à¦¦":2327,"ĠB":2328,"à¦¶à¦ªà¦¥":2329,"à¦§à¦¶":2330,"à¦¡à¦®":2331,"Ġà¦ıà¦ķà¦¯":2332,"Ġà¦®à¦¤à¦¬":2333,"Ġà¦¸à¦¹à¦ķ":2334,"à¦¥à¦¹":2335,"à¦¤à¦¯":2336,"à¦¤à¦¥":2337,"à¦¼âĢ¦":2338,"à¦¼à§ģ,":2339,"à¦®à¦¹à¦¤":2340,"Ġà¦¹à¦ĩà¦¬":2341,"Ġà¦Ńà¦Ł":2342,"à¦ħà¦«":2343,"à¦ľà¦ªà¦¥":2344,"à¦£à¦¸":2345,"Ġà¦«à¦¡":2346,"à§°à¦¹":2347,"ĠM":2348,"Ġà¦īà¦ĩà¦²":2349,"Ġà¦¡à¦ķ":2350,"Ġà¦Ŀà¦Ł":2351,"à¦ĭà¦·":2352,"à¦®à§ľ":2353,"Ġà¦ªà¦ļ":2354,"Ġà¦®à¦¶à¦²":2355,"à¦¶à§Ł":2356,"à¦łà¦ķà¦ķ":2357,"Ġà¦Ĩà¦²à¦Ĺ":2358,"à§į-":2359,"Ġà¦¸à¦«à¦°":2360,"à¦¶à¦Ń":2361,"à¦ªà¦°à¦®":2362,"Ġà¦īà¦ªà¦®":2363,"à¦Ĺà¦ľà¦Ł":2364,"ig":2365,"Ġ/":2366,"à¦¥à¦¸":2367,"ĠâĢ¦":2368,"Ġà¦ĺà¦·":2369,"Ġà¦ħà¦ªà¦¬":2370,"ĠS":2371,"à¦Ĭ":2372,"à¦¨à§Ł":2373,"à¦£à¦ļ":2374,"Ġà¦ľà¦²à¦ķ":2375,"Ġà¦ĩà¦īà¦°":2376,"à¦¦à¦¨à¦¶":2377,"Ġà¦ľà¦²à¦¦":2378,"Ġà¦ĺà¦Łà¦Ľ":2379,"Ġà¦Ĺà¦£à¦®":2380,"à¦ªà¦ĵ":2381,"à¦¥à¦ķà¦¤":2382,"Ġà¦Ŀà¦°à¦Ľ":2383,"Ġà§§à§¯à§«à§¨":2384,"à¦°à¦¬à¦§":2385,"Ġà¦ķà¦ĸà¦¨à¦ĩ":2386,"à¦¨à¦¤à¦°":2387,"Ġà¦¨à¦¬à¦ķ":2388,"à¦¡à¦¸":2389,"à¦¹à¦¨à¦¬":2390,"Ġà¦ļà¦£":2391,"Ġà¦ħà¦¸à¦Ń":2392,"Ġà¦ªà¦¦à¦§":2393,"el":2394,"à¦ĩà¦Ĺ":2395,"à¦Ĺà¦ĵ":2396,"à¦§à¦ķà¦¤":2397,"à¦¬à¦¨à¦¬":2398,"à¦Ĩà¦ĩà¦¨":2399,"Ġà¦¬à¦°à¦ŀ":2400,"à§ĩâĢ¦âĢĿ":2401,"Ġà¦Ķà¦ªà¦¨":2402,"et":2403,"Ġis":2404,"à¦°à¦ĸà¦°":2405,"à¦¨à¦¡":2406,"à¦¤à¦ªà¦ķ":2407,"à¦¼à§Ģà¥¤":2408,"à¦®à¦ĸ":2409,"Ġà¦¹à¦¤à¦¬":2410,"à§§à§¦":2411,"un":2412,"à§ĩà¦¾à¦ģ":2413,"à¦¸à¦ªà¦¤":2414,"à¦ĩà¦¹":2415,"Ġà¦ıà¦ĵ":2416,"à¦£à¦Ł":2417,"Ġà¦®à¦¨à¦¨à¦¶":2418,"à¦īà¦¶à¦¨":2419,"à¦ħà¦°à¦£":2420,"Ġà¦ĸà¦¬à¦°à¦Ł":2421,"à§Ŀà¦¤":2422,"à¦¼à§Ģ,":2423,"Ġà¦¬à¦®":2424,"à§Ģ?âĢĻ":2425,"Ġà¦ĸà¦Ł":2426,"Ġà¦¸à¦®à¦·":2427,"ÂłÂłÂłÂłÂłÂłÂłÂłÂł":2428,"Ġà¦ħà¦Ńà¦¯":2429,"Ġà¦Ĩà¦«à¦¸":2430,"à¦®à¦«":2431,"Ġà¦¦à§Ł":2432,"à¦¼à¦¾!":2433,"à¦¬à¦¨à¦®":2434,"Ġà¦ĩà¦°":2435,"Ġà¦ıà¦ĸà¦¨à¦ķ":2436,"Ġà¦ķà¦²à¦¸":2437,"Ġà§§à§¦":2438,"Ġ.":2439,"Ġre":2440,"à§ĩ)":2441,"à¦ķà¦°à¦¬":2442,"à¦Łà¦¬à¦²":2443,"Ġà¦¦à¦°à¦¬":2444,"Ġà¦ļà¦ĵà¦¡":2445,"à¦Ńà¦°à¦¶":2446,"à¦·à¦£à¦¸":2447,"à¦¯à¦¬à¦§":2448,"à¦Ĺà¦²à¦Ł":2449,"Ġà¦®à¦¹à¦¤":2450,"à§ĩâĢĶâĢĺ":2451,"Ġà¦Ĩà¦ĩà¦¡":2452,"Ġà¦²à¦ĺ":2453,"Ġà¦ıà¦ĩà¦¬":2454,"à¦«à¦¡":2455,"ay":2456,"Ġà¦ķà¦¤à¦¬":2457,"Ġà¦®à¦°à¦¤":2458,"à¦ĩà¦°à¦ķà¦®":2459,"Ġà¦ħà¦ĸà¦£":2460,"à¦§à¦ĩ":2461,"Ġà¦ļà¦¬":2462,"à¦Ĥà¥¤":2463,"Ġà¦Ĩà¦°à¦ķ":2464,"à¦ľà¦¨à¦¨":2465,"Ġà¦¹à¦²à¦¦":2466,"Ġà¦¨à¦ĵ":2467,"à¦¼à§ĩ;":2468,"Ġà¦ħà§Łà¦¨":2469,"Ġà¦Ĺà¦£à¦¤":2470,"à¦ĵà¦Ł":2471,"à¦Ļà¦°":2472,"à¦Ļà¦¬":2473,"à¦°à¦ªà¦°à¦ĵ":2474,"Ġà¦Ĳà¦¨":2475,"Ġà¦īà§İà¦ķà¦£":2476,"à¦®à¦£à¦¦":2477,"Ġà¦¶à¦°à§İà¦ļà¦¨":2478,"ĠT":2479,"à§ģâĢĵ":2480,"à¦·à§İ":2481,"à¦¹à¦ĩ":2482,"Ġà¦Ĺà¦ł":2483,"à¦¤à¦°à¦ĩ":2484,"Ġà¦®à¦¹à¦²":2485,"ÂłÂłÂłÂłÂł":2486,"ĠÂłĠÂł":2487,"à¦¿'":2488,"Ġà¦Ĩà¦·":2489,"à¦ĸà¦®à¦¯":2490,"Ġà¦²à¦¬":2491,"Ġà¦²à¦Ĺ":2492,"à¦°à¦®à¦°":2493,"Ġà¦¤à¦ĸà¦¨à¦ķ":2494,"à§į,":2495,"à¦§à¦Ń":2496,"Ġà¦ªà¦°à¦¬":2497,"Ġà¦ħà¦¬à¦ľ":2498,"Ġà¦¶à¦¹à¦°à¦Ł":2499,"à¦°à¦¡":2500,"à¦²à¦¡":2501,"à¦¯à¦ľà¦¨":2502,"à¦ıà¦ķà¦¤":2503,"ÂłÂłÂłÂłÂłÂłÂł":2504,"à¦¸à¦ķà¦·":2505,"__":2506,"à¦¾âĢ¦âĢĿ":2507,"à¦°à¦ļà¦¨":2508,"à¦¯à¦®à¦¨à¦¸":2509,"Ġà¦¨à¦¸":2510,"Ġà¦¦à¦®à¦ķ":2511,"Ġà¦¤à¦°à¦ķ":2512,"Ġà¦ħà¦Ŀ":2513,"à¦Ńà¦Ł":2514,"à¦°à¦¤à¦¨":2515,"Ġà¦¸à¦®à¦ķ":2516,"Ġà¦Ĩà¦Ĺà¦²":2517,"à§ĩ!âĢĻ":2518,"à¦®à¦¬à¦Ļ":2519,"à¦ļà§Łà¦ĩ":2520,"ur":2521,"Ġà§Ń":2522,"Ġà¦ħà¦¡":2523,"à¦£à¦ªà¦£":2524,"Ġà¦īà¦Ńà§Ł":2525,"à¦īà¦Ĺ":2526,"à¦¨à¦¬à¦¦":2527,"ÂłÂłÂłÂłÂłÂł":2528,"Ġà¦ıà¦ķà¦ľà¦¨à¦ķ":2529,"Ġà¦¸à¦ķà¦²à¦ķ":2530,"Ġà¦ķà¦¨à¦«":2531,"à§¦à§¦":2532,"à§į!":2533,"Ġà¦¦à¦°à¦¦":2534,"Ġà¦¹à¦¦":2535,"à¦Ĺà¦¬à¦¤":2536,"à¦Ńà¦¦":2537,"à§ľà¦¬":2538,"à¦ªà¦°à¦ķ":2539,"à¦ªà¦°à¦¬à¦°":2540,"Ġà¦ľà¦¨à¦ªà¦¦":2541,"à¦¬à¦²à¦¬":2542,"à¦ĥ,":2543,"Ġà¦ľà¦²à¦¸":2544,"Ġà¦ĩà¦¤à¦¸":2545,"Ġg":2546,"Ġà¦ħà¦°à¦¬":2547,"à¦ķà¦°à¦¶":2548,"à¦Ĩà¦ľà¦ĵ":2549,"à¦¾âĢĻà¥¤":2550,"à¦¨à¦®à¦¨":2551,"à¦¼?âĢĿ":2552,"à¦¸à¦ļ":2553,"à¦¸à§İ":2554,"à¦Łà¦ĵà§Ł":2555,"Ġà¦¸à¦¬à¦ľ":2556,"Ġà¦īà¦ªà¦¤":2557,"Ġà¦¬à¦īà¦®":2558,"à¦°à¦ĺ":2559,"à¦¬à¦°à¦ķ":2560,"à¦¼à§ĭ,":2561,"à¦®à¦ļà¦°":2562,"Ġà¦¸à¦ĩ":2563,"à¦ªà¦Ŀ":2564,"à¦ªà¦¤à¦¨":2565,"à¦Ĺà¦Ļ":2566,"à¦·à¦£à¦ķ":2567,"à¦°à¦¹à¦¸":2568,"à¦²à¦¨à¦®":2569,"Ġà¦Ĩà¦¹à¦¬":2570,"ce":2571,"æŃ":2572,"à¦°à¦Ŀ":2573,"à¦²à¦¶":2574,"à¦¼à§ĩ!":2575,"Ġà¦Ĺà¦ŀ":2576,"à¦Ŀà¦ªà¦¥":2577,"à¦īà¦ªà¦°":2578,"âĢĵâĢĵ":2579,"Ġà¦Ŀà¦¨à¦Ŀà¦¨":2580,"Ġà¦ħà¦¬à¦¨à¦¤":2581,"æŃĵ":2582,"im":2583,"Ġà¦ķà¦¸":2584,"Ġà¦¸à¦¯":2585,"à¦ªà¦¶à¦¨":2586,"à¦¼à¦¾?":2587,"à¦ªà¦°à¦¦":2588,"à¦ħà¦¥":2589,"à¦ħà¦Ļ":2590,"à¦°à¦¹à¦£à¦¯":2591,"à¦¾à¦ĥ,":2592,"æŃĵæŃĵ":2593,"ch":2594,"à¦¯à¦ķà¦²":2595,"à¥į":2596,"à¦¸à¦°à¦²":2597,"à¦ĸà¦¦":2598,"à¦¹à¦Ń":2599,"Ġà¦Ĩà¦®à¦Ĺ":2600,"ation":2601,"áĥ":2602,"à¦£à¦¹":2603,"Ġà¦²à¦Ń":2604,"Ġà¦ıà¦ľà¦¨":2605,"à¦Ĺà¦¹":2606,"à¦Ńà¦¬à¦¨":2607,"à¦Ŀà¦°à¦¨":2608,"Ġà¦ľà¦¨à¦ľ":2609,"à¦ĩà¦¨à¦Ł":2610,"Ġà¦ĩà¦¨à¦ľ":2611,"Ġà¦¬à¦¬":2612,"à¦¸à¦ŀ":2613,"à¦Łà¦ĵ":2614,"à¦¹à¦Ļ":2615,"Ġà¦²à¦°":2616,"à¦°à¦¸à¦®":2617,"à§°à¦ķ":2618,"à§ĭâĢĶâĢľ":2619,"à¤¾":2620,"Ġà¦ľà§Łà¦Ĺ":2621,"os":2622,"ow":2623,"à¦ĸà¦¡":2624,"à¦§à¦Ľ":2625,"à¦¹à¦£":2626,"à¦¾)":2627,"à¦¨à¦Ńà¦°":2628,"à¦¯à¦§":2629,"à¦¸à¦ľ":2630,"Ġà¦¨à¦Ń":2631,"à¦§à¦ĵ":2632,"Ġà¦Ľà¦ķ":2633,"Ġà¦ħà¦¬à§Łà¦¬":2634,"Ġà¦¦à¦¶à¦®":2635,"id":2636,"à¦¨à¦·":2637,"à¦²à¦Ĺà¦°":2638,"à¦¬à¦°à¦¬":2639,"à¦ªà¦¹":2640,"à¦¶à¦«":2641,"à¦¡à¦¶":2642,"Ġà¦¶à¦ĵ":2643,"à¦łà¦ª":2644,"à¦¤à¦¬à¦ķ":2645,"Ġà¦¦à¦®à¦¬à¦¨":2646,"ĠR":2647,"à§ĩà¦ĥ":2648,"Ġà¦¬à¦ļà¦¨":2649,"Ġà¦¨à¦ľ":2650,"à¦¶à¦Ľ":2651,"à¦¶à¦¶":2652,"Ġà¦ľà¦®à¦¤":2653,"Ġà¦¸à¦®à¦Ŀ":2654,"Ġà¦Ĩà¦²à¦ªà¦¨":2655,"à¦°à¦ľà¦¬":2656,"à¦¨à¦ķà¦¥":2657,"à¦¬à¦ķà¦¦":2658,"à¦¤à¦ĸ":2659,"à¦Ĺà¦¬à¦¨":2660,"à¦·à¦ľà¦¨":2661,"âĢķ":2662,"Ġà¦ĵà¦¨":2663,"Ġà¦ĵà¦®":2664,"à¦¦à¦°à¦¬à¦¨":2665,"à¦°à¦ªà¦°à¦ĩ":2666,"à¦¿âĢĶâĢľ":2667,"à§§à§Ń":2668,"Ġà¦Ĩà¦ĸà¦¡":2669,"à§Ĺ":2670,"Ġà¦ķà¦¬à¦²":2671,"Ġà¦ķà¦¨à¦°":2672,"à¦¡à¦Ń":2673,"à¦Ńà¦ľ":2674,"Ġà¦Łà¦ķà¦Łà¦ķ":2675,"à¦¬à¦¤à¦ĩ":2676,"ÂŃ":2677,"ĠĠĠč":2678,"à§ģà¥¤âĢĿ":2679,"à¦¬à¦Ĺà¦¤":2680,"Ġà¦Ĩà¦¦à¦²":2681,"Ġà¦®à¦°à¦®":2682,"à¦·à¦§":2683,"à¦ļà¦ĩ":2684,"Ġà¦ıà¦ķà¦ļ":2685,"Ġà¦ĵà¦°à¦ķà¦®":2686,"à¦īà¦·":2687,"à¦°à¦ķà¦°":2688,"à¦°à¦®à¦¬à¦°":2689,"Ġà¦Īà¦·à§İ":2690,"Ġà¦¹à¦ķà¦ļà¦ķ":2691,"à¦¤à¦Ńà¦°":2692,"à§ģ;":2693,"à¦¼!âĢĿ":2694,"Ġà¦ķà¦¨à¦ķ":2695,"Ġà¦Ĩà¦īà¦Ł":2696,"à¦ĩà¦ĵ":2697,"Ġà¦ĸà¦²":2698,"Ġà¦ĸà§ľ":2699,"à¦ħà¦¥à¦¬":2700,"us":2701,"à¦¼?âĢĻ":2702,"Ġà¦¯à¦ķ":2703,"à¦·à¦£à¦ĩ":2704,"Ġà¦ķà¦¤à¦ĸ":2705,"Ġà¦¦à¦²à¦ªà¦¤":2706,"Ġà¦ĸà¦¸à¦ĸà¦¸":2707,"à¦¾âĢĿà¥¤":2708,"à¦²à¦ªà¦¤":2709,"à¦¼à§ĭà¥¤":2710,"à¦¦à¦Ń":2711,"Ġà¦ıà¦«":2712,"Ġà¦Ńà¦¸":2713,"à¦ħà¦ľà¦¸":2714,"à¦¸à¦¹à¦ľ":2715,"à¦¿âĢ¦âĢĿ":2716,"à¦²à¦¹":2717,"à¦¼à§Ĥ":2718,"à¦®à¦¹à¦²":2719,"Ġà¦¹à¦ĩà§Ł":2720,"Ġà¦ıà¦¶":2721,"à¦¬à¦°à¦Ł":2722,"Ġà¦īà¦¦à§Ł":2723,"à¦¿--":2724,"ÂłÂłÂłÂłÂłÂłÂłÂłÂłÂłÂł":2725,"ÂłÂłÂłÂłÂłÂłÂłÂłÂłÂłÂłÂłÂłÂłÂł":2726,"Ġthat":2727,"Ġà¦¶à¦ĵà¦ķà¦¤":2728,"ive":2729,"ver":2730,"à§ĭâĢ¦âĢĿ":2731,"Ġà¦®à¦°à¦¬":2732,"Ġà¦¹à¦¨à¦¨":2733,"Ġà¦¤à¦¸":2734,"à¦¶à¦¬à¦¨":2735,"à¦§à¦ķà¦°":2736,"Ġà¦Ĩà¦ķà¦¬à¦°":2737,"Ġà¦ľà¦®à¦ľà¦®":2738,"Ġà§§à§®":2739,"Ġà§§à§¯à§ª":2740,"à§ĩâĢĿà¥¤":2741,"à¦°à¦ªà¦¤":2742,"Ġà¦Ńà¦°à¦¦":2743,"Ġà¦¬à¦²à¦°":2744,"Ġà¦«à¦£":2745,"à¦¤à¦¨à¦Ń":2746,"à¦ķà¦²à¦¨":2747,"à¦ıà¦ĩà¦¸à¦¬":2748,"Ġà¦ķà¦®à¦ª":2749,"à§įâĢĮà¥¤":2750,"à§°à¦¬":2751,"Ġà§¬":2752,"à¦®à¦°à¦ķ":2753,"Ġà¦ķà¦ļà¦ķ":2754,"à¦Ľà¦¦":2755,"Ġà¦¹à¦°à¦£":2756,"à¦§à¦°à¦¨":2757,"à¦¥à¦Ĺ":2758,"Ġà¦¶à¦ª":2759,"Ġà¦ľà¦ŀ":2760,"Ġà¦ļà¦ª":2761,"Ġà¦¸à¦¬à¦¸à¦®à§Ł":2762,"Ġà¦īà¦ªà¦²à¦ķ":2763,"à¦®à¦£à¦¸":2764,"à§§à§¨":2765,"Ġwh":2766,"Ġit":2767,"à§ĩà¦Ĥ":2768,"à¦°à¦®à¦¨":2769,"à¦¤à¦Ĺà¦¤":2770,"à¦¬à¦ŀ":2771,"à¦¬à¦¦à¦²":2772,"à¦ªà¦ķà¦°":2773,"Ġà¦¤à¦Ł":2774,"à¦ļà¦²à¦¤":2775,"à¦¼à¦¾âĢĵ":2776,"Ġà¦«à¦¨":2777,"Ġà¦ħà¦¬à¦Ĺ":2778,"Ġà¦Ĭà¦·":2779,"ÂłÂłÂłÂłÂłÂłÂłÂłÂłÂłÂłÂłÂłÂł":2780,"od":2781,"à§ĩà§Ĺ":2782,"à§ģ:":2783,"à¦®à¦§à¦¨":2784,"Ġà¦ªà¦¬à¦¨":2785,"à¦£à¦ĵ":2786,"Ġà¦°à¦ĺ":2787,"Ġà¦ıà¦ĩà¦ľà¦¨":2788,"à¦¤à¦°à¦ĵ":2789,"à¦°à¦¬à¦®à¦¯":2790,"Ġà¦¬à¦īà¦¯":2791,"ĠĠčĊĠĠč":2792,"ÂłÂłÂłÂłÂłÂłÂłÂłÂłÂłÂłÂłÂł":2793,"if":2794,"çľ":2795,"Ġà¦¬à¦¦à¦¨":2796,"Ġà¦ľà¦ª":2797,"Ġà¦§à¦¸":2798,"à¦°à¦£à¦ķ":2799,"à¦Ŀà¦ŀ":2800,"à¦ĩà¦²à¦Ł":2801,"Ġà¦ıà¦®à¦¨à¦Ł":2802,"Ġà¦ķà¦®à¦¬":2803,"Ġà¦īà§İà¦ªà¦¤":2804,"à¦ıà¦ķà¦¸":2805,"Ġà¦¶à¦¤à¦ªà¦¥":2806,"Ġà¦¨à¦¬à¦¬à¦°":2807,"à¦¤à¦¡":2808,"à¦ķà¦¤à¦°":2809,"à¦¯à¦ªà¦Ł":2810,"à¦¼à¦ĥ":2811,"à¦ľà¦ķà¦¨":2812,"à¦¼à§ĩâĢĵ":2813,"Ġà¦ħà¦¯à¦¤":2814,"à¦§à¦ª":2815,"Ġà¦¶à¦°à¦¤":2816,"Ġà¦ļà¦ķà¦²":2817,"à¦Ĥ-":2818,"Ġà¦¸à¦®à¦¤à¦²":2819,"à¦¬à¦°à¦ĩ":2820,"Ġà¦Ĺà¦²à¦¦":2821,"à¦Ĺà¦¤à¦Ń":2822,"à¦¿à¦ĥà¥¤":2823,"ÂłÂłÂłÂłÂłÂłÂłÂłÂłÂł":2824,"Ġà¦¬à¦īà¦ķ":2825,"ul":2826,"à¦¯à¦ļà¦°":2827,"Ġà¦ķà¦ªà¦Ł":2828,"Ġà¦¸à¦ľà¦²":2829,"Ġà¦Ĩà¦ªà¦¸":2830,"à¦Łà¦Ĺà¦²":2831,"à¦¹à¦ª":2832,"Ġà¦Ĩà¦²à¦¸":2833,"à¦ĺà¦¬":2834,"à¦·à¦£à¦¶":2835,"Ġà¦¸à¦¹à¦¨à¦¶":2836,"à¦Łà¦¤à¦ĩ":2837,"Ġà¦°à¦¸à¦Ĺ":2838,"ĠC":2839,"à¦¾'":2840,"à¦¤à¦¬à¦°":2841,"à§ģâĢ¦":2842,"Ġà¦ħà¦ĺ":2843,"à¦ĵà¦¹":2844,"Ġà¦ĸà¦ļ":2845,"à¦Ŀà§ľ":2846,"Ġà¦Ĩà¦¨à¦®à¦¨":2847,"Ġà¦¬à¦ĩà¦Ĺ":2848,"Ġà¦«à¦²à¦¶":2849,"Ġà¦Ķà¦°à¦¸":2850,"Ġ|":2851,"à¦¨à¦®à§Ł":2852,"à¦®à¦¹à¦°":2853,"à¦¦à¦¬à¦¦":2854,"à§Ģ?âĢĿ":2855,"Ġà¦¦à¦²à¦¬":2856,"Ġà¦ľà¦®à¦²":2857,"Ġà¦«à¦¤":2858,"à¦°à¦£à¦Ł":2859,"âĢĿâĢĵ":2860,"Ġà¦¬à¦²à¦²à¦¤":2861,"à¦¾--":2862,"Ġà¦¸à¦¹à¦ļà¦°":2863,"Ġà¦Ĺà¦£à¦¨":2864,"Ġà¦Ńà§Łà¦Ļ":2865,"am":2866,"Ġà¦Ĩà¦ªà¦¡":2867,"à¦ĸà¦ķà¦¦":2868,"à¦·à¦¹":2869,"Ġà¦¶à¦°à¦£":2870,"Ġà¦ľà¦Ĺà¦¨":2871,"Ġà¦Ńà¦£":2872,"Ġà¦Ľà§Ł":2873,"à¦¬à¦¨à¦¦":2874,"Ġà¦Ŀà¦Ļ":2875,"à¦¤à¦¨à¦¶":2876,"Ġà¦¹à¦°à¦«":2877,"Ġà§§à§¯à§¯":2878,"ĠĠčĊĠĠĠč":2879,"à¦¥à¦ªà¦°à¦¤":2880,"à¦ħà¦¥à¦ļ":2881,",-":2882,"à¦¿)":2883,"à¦¤à¦§à¦¨":2884,"à¦¯à¦¸à¦®":2885,"à¦¬à¦¦à¦¨":2886,"Ġà¦¶à¦ļ":2887,"à¦ĵà¦ķ":2888,"à¦Ńà¦Ĺ":2889,"à¦Ńà¦²à¦Ń":2890,"Ġà¦ĵà¦²":2891,"Ġà¦ĩà¦ķ":2892,"Ġà¦Ŀà¦ŀ":2893,"à¦¸à¦¬à¦¶":2894,"à¦²à¦¨à¦ķ":2895,"à§§à§§":2896,"à¦°à¦«à¦¤":2897,"Ġà¥¥":2898,"à¦¬à¦ķà¦°":2899,"Ġà¦¸à¦ļà¦²":2900,"Ġà¦¸à¦«à¦Ł":2901,"Ġà¦¸à¦¶à¦¸":2902,"Ġà¦ıà¦ŀ":2903,"à¦¥à¦Ł":2904,"Ġà¦Ńà¦²":2905,"à¦łà¦¬":2906,"Ġà¦«à¦Łà¦ķ":2907,"à¦«à¦¤":2908,"à¦Ĩà§Ł":2909,"Ġà¦Łà¦ª":2910,"à¦¨à¦¬à¦¸":2911,"à§Ģà¥¤âĢĿ":2912,"Ġà¦ĩà¦¨à¦«":2913,"Ġà¦Ĺà§ľà¦¤":2914,"Ġà¦Ĩà¦¹à¦°à¦£":2915,"à¦ľà¦¸à¦Ń":2916,"Ġà¦°à¦ķà¦®à¦ĩ":2917,".âĢĿ":2918,"ĠD":2919,"Ġà¦¸à¦°à¦¬à¦°":2920,"à¥¤âĢĺ":2921,"Ġà¦ıà§ľ":2922,"à¦·à¦¶":2923,"à¦ļà¦¤à¦°":2924,"à§Łà¦£":2925,"à¦¼à¦¾à¦Ĥ":2926,"à¦łà¦Ł":2927,"Ġà¦Łà¦®":2928,"à¦ıà¦ķà¦¸à¦Ļ":2929,"à¦¿âĢĿà¥¤":2930,"à¦¼âĢĻ":2931,"Ġà¦ķà¦¦à¦°":2932,"à¦ªà¦²à¦ķ":2933,"à¦ľà¦¶":2934,"à¦Ĺà¦²à¦ķ":2935,"Ġà¦¯à¦¤à¦¬":2936,"à¦Ļà¦Ľ":2937,"à¦¬à¦°à¦¹":2938,"Ġà¦ļà¦²à¦¨":2939,"à¦°à¦®à¦¬":2940,"à¦ķà¦²à¦ķ":2941,"Ġà¦ħà¦¹à¦Ļ":2942,"Ġà¦§à¦¨à¦¤à¦¨":2943,"à¦ķà¦°à¦ķ":2944,"à¦¦à¦°à¦®":2945,"à¦Ľà¦¯":2946,"à¦¶à¦ļ":2947,"à¦Ĺà¦ļ":2948,"à¦£à¦ĩ":2949,"Ġà¦ıà¦ķà¦«":2950,"Ġà¦ĵà§ľ":2951,"Ġà¦ľà¦¨à¦ķ":2952,"Ġà¦ħà¦®à¦Ļ":2953,"Ġà¦ħà¦®à¦°à¦¤":2954,"à¦¨à¦ĵà¦Ń":2955,"Ġà¦ķà¦®à¦Ľ":2956,"Ġà¦¶à¦¤à¦¬à¦°":2957,"Ġà§§à§¨":2958,"à¦¶à¦ľ":2959,"Ġà¦«à¦°à¦¸":2960,"Ġà¦ĸà¦¤":2961,"Ġà¦Łà¦ķ":2962,"Ġà¦¬à¦¨à¦¬":2963,"Ġà¦īà¦ªà¦ļ":2964,"Ġà¦ķà¦¤à¦ķà¦Ĺ":2965,"à¤°":2966,"Ġà§¯":2967,"à¦ķà¦°à¦¤":2968,"Ġà¦¨à¦¬à¦¯":2969,"Ġà¦¦à¦²à¦¨":2970,"à§Łà¦ĩ":2971,"à¦Ĩà¦¦à¦°":2972,"à¦°à¦®à¦¯":2973,"à§įâĢĮ,":2974,"Ġà¦°à¦ĵà¦¶à¦¨à¦ķ":2975,"ha":2976,"ĠN":2977,"à¦¬à¦ķà¦Ł":2978,"à¦®à¦ķà¦²":2979,"Ġà¦®à¦ķ":2980,"Ġà¦°à¦ª":2981,"à¦ĵà§ľ":2982,"Ġà¦Ĩà¦®à¦¦":2983,"à§ĩ,âĢĻ":2984,"Ġà¦ħà¦¨à¦°":2985,"Ġà¦ħà¦¨à¦¡":2986,"à¦°à¦£à¦Ń":2987,"à¦ľà¦¨à¦¦":2988,"à¦īà§ľ":2989,"à¦ıà¦®":2990,"à¦®à¦ķà¦°à¦£":2991,"Ġà¦ĩà¦¸à¦®à¦¤":2992,"ly":2993,"ro":2994,"à¦¨à¦¬à¦¨":2995,"à¦¸à¦ĺ":2996,"Ġà¦®à¦Ĺà¦ľ":2997,"à¦Ľà¦¤à¦²":2998,"à¦ĸà¦ª":2999,"à¦§à¦Ĺ":3000,"à¦Ńà§İà¦¸":3001,"à¦łà¦¦":3002,"Ġà¦īà¦¥à¦²":3003,"Ġà¦«à¦°à¦®":3004,"Ġà¦ħà¦¨à¦¸":3005,"à¦¬à¦¨à¦ĩ":3006,"à¦«à¦ķ":3007,"Ġà¦Ĩà¦²à¦«":3008,"à§İà¦¸à¦ķ":3009,"à¦ıà¦¨":3010,"à¦ıà¦ķà¦²":3011,"à¦²à¦ķà¦¨":3012,"à¦¤à¦¬à¦¡":3013,"Ġà¦ĺà¦°à¦Ĺ":3014,"Ġà¦¸à¦°à¦ŀ":3015,"Ġà¦ħà¦ªà¦²à¦ķ":3016,"Ġà¦ķà¦²à¦¹":3017,"Ġà¦ıà¦ķà¦ĩà¦Ń":3018,"à¦°à¦®à¦£à¦ķ":3019,"à¦®à¦Ľà¦®":3020,"âĢķâĢķ":3021,"à¦ķà¦Ĩà¦ª":3022,"Ġà¦²à¦ĩà¦¯":3023,"Ġà¦²à¦¹à¦®":3024,"Ġà¦Ĩà¦°à¦¶":3025,"Ġà¦ĸà¦¦":3026,"à¦°à¦£à§Ł":3027,"à¦ľà¦¨à¦¬":3028,"Ġà¦ħà¦¬à¦¯":3029,"à¦ħà¦¦à¦®":3030,"Ġà¦¯à¦¤à¦ĸ":3031,"Ġà¦ħà¦¶à¦°":3032,"Ġà¦Ĩà¦¹à¦®":3033,"à¦¦à¦°à¦®à¦¹à¦²":3034,"à¦¨à¦ªà¦¥":3035,"à¦®à¦Ļ":3036,"Ġà¦®à¦Ľ":3037,"Ġà¦īà¦¹":3038,"à¦īà¦ªà¦¨":3039,"à¦ħà¦¹":3040,"à¦¨à¦¬à¦¸à¦®":3041,"à¦ĩà¦¨à¦Ĺ":3042,"à¦¿âĢĻà¥¤":3043,"à¦¬à¦®à¦ŀ":3044,"à¦¬à¦ľà¦Ĺà¦¤":3045,"ity":3046,"Ġà¦ħà¦¯à¦¥":3047,"Ġà¦ıà¦ķà¦Ŀ":3048,"Ġà¦ıà¦ķà¦¤à¦²":3049,"âĢĿ,":3050,"Ġà¦Ĩà¦¸à¦ķ":3051,"à¦ĺà¦¤à¦®":3052,"Ġà¦ħà¦¬à¦¸à¦¨":3053,"à¦²à¦ķà¦£":3054,"à¦¦à¦¨à¦ķ":3055,"Ġà¦ħà¦ªà¦ļà¦¯":3056,"Ġà¦īà§İà¦ķ":3057,"à¦ªà¦ķà¦¦":3058,"à¦¿!âĢĻ":3059,"à¦Ĺà¦®à¦ŀ":3060,"ci":3061,"à§ĩ/":3062,"à¦¬à¦¶à¦ķ":3063,"à¦ĩà¦¨à¦¬":3064,"Ġà¦¤à¦¡":3065,"à¦¹à¦®à¦¯":3066,"Ġà¦§à¦ķ":3067,"à¦ªà¦°à¦¶":3068,"à¦¤à¦°à¦¸":3069,"Ġà¦¡à¦°":3070,"à¦ĺà¦¸":3071,"Ġà¦ıà¦¤à¦Ĺ":3072,"Ġà¦ħà¦ļà¦ŀ":3073,"Ġà§§à§«":3074,"à¦·à§Łà¦ķ":3075,"à¦²à¦§à¦¨":3076,"Ġà¦¬à¦¦à¦®":3077,"Ġà¦¹à¦®":3078,"à¦¶à¦§":3079,"à¦ļà¦Ń":3080,"à¦¹à¦ļà¦°":3081,"Ġà¦ľà§Łà¦¨":3082,"Ġà¦īà¦ĩ":3083,"Ġà¦²à¦¸":3084,"Ġà¦²à¦ŀ":3085,"à¦°à¦¤à¦ķ":3086,"Ġà¦ĺà¦°à¦¬":3087,"à¦°à¦£à¦ĵ":3088,"Ġà¦Łà¦ªà¦ķ":3089,"Ġà¦ļà¦²à¦ļ":3090,"à¦ħà¦ŀ":3091,"Ġà¦Ĩà¦Ĺà¦¨":3092,"Ġà¦ªà¦Łà¦ļ":3093,"Ġha":3094,"à¦²à¦ĺ":3095,"à¦®à¦®à¦°":3096,"Ġà¦¬à¦¤":3097,"Ġà¦¬à¦Ĺà¦²":3098,"Ġà¦¸à¦ľà¦¨":3099,"à¦ªà¦ªà¦¤":3100,"à¦¡à¦¬à¦°":3101,"Ġà¦¯à¦¬à¦¨":3102,"à¦¥à¦ªà¦°":3103,"Ġà¦ľà¦¸":3104,"Ġà¦°à¦Ł":3105,"Ġà¦īà¦®":3106,"à§Ĥ-":3107,"Ġà¦²à¦Ł":3108,"Ġà¦®à¦¨à¦®":3109,"à¦°à¦£à¦Ĺ":3110,"à¦¤à¦°à¦¬":3111,"à§İà¦ªà¦¤":3112,"Ġà¦®à¦¤à¦²à¦¬":3113,"Ġà¦īà¦ªà¦¬":3114,"Ġà¦īà§İà¦ķà¦°":3115,"Ġfor":3116,"à¦°à¦ªà¦¥":3117,"à¦®à¦ĺ":3118,"Ġà¦¬à¦¹à¦°":3119,"à¦¦à¦ªà¦¤":3120,"Ġà¦®à¦ł":3121,"Ġà¦®à§Łà¦²":3122,"à¦£à¦®à¦¯":3123,"Ġà¦ľà¦¹":3124,"à¦¾à¦ģ-":3125,"Ġà¦¬à¦²à¦²à¦ķ":3126,"à¦°à¦®à¦¥":3127,"à¦¸à¦¬à¦ĸ":3128,"à¦Ĺà¦¤à¦ķ":3129,"à¦ªà¦¦à¦ķ":3130,"Ġà¦ħà¦ªà¦°à¦¦":3131,"Ġà¦«à¦²à¦¸":3132,"Ġà¦ľà¦Ĺà¦¦":3133,"à¦ĭà¦£":3134,"Ġnot":3135,"à§ĩà¥¥":3136,"à¦¨à¦«":3137,"à¦ķà¦¸à¦Ļ":3138,"à¦¯à¦Ĺà¦¤":3139,"à¦ľà¦Ń":3140,"Ġà¦ħà¦ĸ":3141,"à¦§à¦¹à§Ł":3142,"à¦ļà¦ŀ":3143,"Ġà¦ıà¦ķà¦ĺ":3144,"Ġà¦Ľà¦®à¦Ľà¦®":3145,"Ġà¦«à¦¯":3146,"Ġà¦Ĩà¦¸à¦®":3147,"à¦¨à¦ĵà¦°à¦ķà¦®":3148,"Ġà¦·à¦·":3149,"ess":3150,"****":3151,"ir":3152,"à¦°à¦¦à¦¯":3153,"à¦ªà¦Ń":3154,"à§ĢâĢĿ":3155,"Ġà¦¦à§ľ":3156,"à¦ľà¦ĸà¦¬à¦°":3157,"à¦¶à¦°à¦¤":3158,"à¦ļà¦¬à¦°":3159,"Ġà¦īà¦ĩà¦¨":3160,"Ġà¦§à¦¬":3161,"à¦¾,âĢĻ":3162,"à¦°à¦¬à¦ķ":3163,"à¦°à¦¬à¦ļ":3164,"Ġà¦Łà¦¨":3165,"Ġà¦Łà¦¯":3166,"à¦¨à¦¤à¦²":3167,"Ġà¦ħà¦¸à¦¨":3168,"à¦¯à¦¬à¦¯":3169,"Ġà¦Ĩà¦¨à¦Ĺ":3170,"Ġà¦¬à¦īà¦Ł":3171,"...âĢĿ":3172,"Ġà¦¦à¦«à¦¤à¦°":3173,"à¦²à¦Ŀ":3174,"à¦¬à¦¸à¦®":3175,"Ġà¦ªà§°":3176,"Ġà¦ªà§Łà¦¸":3177,"Ġà¦¦à¦ª":3178,"à¦ľà¦¤à¦¨":3179,"Ġà¦ıà¦·":3180,"Ġà¦ıà¦£":3181,"à¦¥à¦ĩ":3182,"à¦¤à¦°à¦ª":3183,"à¦Ĩà¦ļà¦°à¦£":3184,"Ġà¦¸à¦¬à¦ĸ":3185,"à¦°à¦®à¦¤":3186,"Ġà¦Ĩà¦ľà¦¬":3187,"à¦ķà¦²à¦Ļ":3188,"à¦°à¦¶à¦ķ":3189,"Ġà¦ħà¦ķà¦ªà¦Ł":3190,"à¦¨à¦Łà¦¨":3191,"Ġà¦Ĩà¦§à¦ĸ":3192,"à¦Ŀà¦²à¦®à¦²":3193,"Ġà¦ľà§Łà¦§":3194,"Ġst":3195,"iv":3196,"la":3197,"ĠG":3198,"à¦ķà¦§":3199,"Ġà¦ªà¦¦à¦¯":3200,"à¦§à¦¹":3201,"Ġà¦ıà¦ķà¦¨":3202,"Ġà¦ıà¦ķà¦¸à¦®à§Ł":3203,"Ġà¦Ĩà¦Ľà§ľ":3204,"Ġà¦ĩà¦¡":3205,"âĢĵâĢĻ":3206,"à¦¨à¦ĵà¦Ł":3207,"à¦ıà¦ĩà¦ļ":3208,"âĢ¦à¥¤":3209,"à§§à§«":3210,"à¤¤":3211,"à¦²à¦§":3212,"Ġà¦ķà¦®à¦¤":3213,"Ġà¦¨à¦°à¦°":3214,"à¦ªà¦ĸ":3215,"à¦ĸà¦ĩ":3216,"à¦Ĩà¦°à¦ĵ":3217,"à¦°à¦¬à¦¦":3218,"Ġà¦ĩà¦®à¦¨":3219,"Ġà¦ľà¦¨à¦¸à¦®":3220,"Ġà¦¬à¦°à¦¦":3221,"à¦ıà¦ĩà¦Ń":3222,"à¦¨à¦¦à¦£":3223,"ĠH":3224,"à¦¯à¦¬à¦¨":3225,"à¦¬à¦®à¦¯":3226,"à¦®à¦Ĺà¦¤":3227,"Ġà¦ªà¦Łà¦²":3228,"à¦Ľà§ľ":3229,"Ġà¦¤à¦°à¦¬":3230,"à¦ĸà¦ķà¦°":3231,"Ġà¦°à¦¡":3232,"à§ģà¦ģà¥¤":3233,"Ġà¦Ĩà¦ľà¦®à¦²":3234,"à¦®à¦¸à¦®à¦°":3235,"!!":3236,"em":3237,"Ġy":3238,"à¦¾à§ĩ":3239,"à§įâĢį":3240,"à¦¸à¦®à¦¤":3241,"à¦ĩà¦ĵà¦¯":3242,"Ġà¦ıà¦Ĩà¦ĩ":3243,"à¦£à¦¶":3244,"Ġà¦«à¦²à¦¨":3245,"à¦¾à¥¤à¥¤":3246,"Ġà¦ıà¦ĩà¦®":3247,"Ġà¦¬à¦°à¦·":3248,"à¦¾âĢĻ,":3249,"Ġà¦¦à¦Ĺà¦¦à¦Ĺ":3250,"à¦Ĭà¦°":3251,"Ġà¦§à¦¬à¦§à¦¬":3252,"nd":3253,"à¦®à¦ªà¦¤":3254,"Ġà¦ķà¦¨à¦Ł":3255,"Ġà¦Ĩà¦ĩà¦¸":3256,"à¦¦à¦®à¦¨":3257,"Ġà¦¨à¦®à¦¨":3258,"Ġà¦®à§Łà¦¦":3259,"à¦ļà¦ª":3260,"à¦¥à¦°à¦Ł":3261,"Ġà¦ļà¦Łà¦ķ":3262,"Ġà¦īà¦¬":3263,"Ġà¦¬à¦²à¦²à¦Ĩà¦®":3264,"Ġà¦Ŀà¦Łà¦ķ":3265,"à¦ħà¦®à¦¨":3266,"Ġà¦ĵà¦łà¦²":3267,"Ġà¦ħà¦¸à§İ":3268,"à¦°à¦¥à¦®à¦Ł":3269,"Ġà¦īà¦¦à¦Ĺ":3270,"Ġà¦īà¦¦à¦ĺ":3271,"à¦¶à¦¨à¦Ł":3272,"Ġà¦īà¦¤à¦Ļ":3273,"Ġà¦ķà¦¤à¦ĩ":3274,"Ġà¦ªà¦¦à¦¬":3275,"Ġà¦ħà¦ķà¦¥":3276,"Ġà¦¶à¦¤à¦ķà¦°":3277,"à¦ķà§Ł":3278,"à¦ķà¦ı":3279,"Ġà¦¨à¦¬à¦¬":3280,"Ġà¦ħà¦°à¦¨":3281,"à¦§à¦¨à¦¬":3282,"à¦¹à¦¹":3283,"à¦¼à¦¾âĢĻ":3284,"Ġà¦īà¦¥":3285,"Ġà¦«à¦²à¦¤":3286,"à¦¬à¦¨à¦¦à¦°":3287,"à¦°à¦ķà¦¨":3288,"Ġà¦ªà¦¥à¦ĩ":3289,"à¦ķà¦°à¦¦":3290,"Ġà¦ıà¦®à¦¨à¦ĵ":3291,"à§§à§©":3292,"Ġà¦Ĺà¦£à¦ªà¦°":3293,"à¤¿":3294,"----":3295,"à¦¿âĢĻ,":3296,"her":3297,"ĠĠĠĠĠĠĠĠ":3298,"aya":3299,"ĠE":3300,"à¦²à¦¥":3301,"à¦®à¦īà¦¦":3302,"à¦¹à¦°à¦¨":3303,"à§ĥ-":3304,"Ġà¦ĸà¦¨à¦¨":3305,"âĢĻâĢĵ":3306,"à¦ĺà¦Ĺ":3307,"à¦ĺà§ľ":3308,"à¦ħà¦¬à¦¸":3309,"Ġà¦ħà¦§à¦®":3310,"à¦ªà¦¦à¦¬":3311,"à§įâĢĮ-":3312,"Ġà¦¶à¦¤à¦¦à¦²":3313,"à§§à§¬":3314,"Ġà§§à§Ń":3315,"à¦ķà¦ľà¦¨à¦ķ":3316,"à¦ıà¦ĸà¦¨à¦ĩ":3317,"Ġà¦ĸà¦¸à¦¡":3318,"Ġà§¨à§§":3319,"Ġcon":3320,"à¦Īà¦¶":3321,";-":3322,"ure":3323,"Ġ=":3324,"Ġà§®":3325,"à¦¨à¦ļà¦°":3326,"à¦¤à¦ľà¦¨":3327,"à¦¯à¦§à¦°":3328,"Ġà¦¸à§ľà¦ķ":3329,"à¦¦à¦ĺà¦°":3330,"à¦ªà¦¬à¦¯":3331,"à¦¶à¦ķà¦°":3332,"Ġà¦ıà¦ķà¦Ń":3333,"à¦Ŀà¦Ľ":3334,"Ġà¦¸à¦¬à¦²":3335,"à¦ĺà¦¬à¦¦":3336,"Ġà¦Ĺà§ľà¦¬":3337,"Ġà¦ıà¦¨à¦ľ":3338,"Ġà¦¹à¦ĩà¦ļà¦ĩ":3339,"à¦Ĳà¦ķ":3340,"à¦¨à¦ªà¦¤":3341,"à¦¬à¦ī":3342,"Ġà¦¸à¦ªà¦¨":3343,"Ġà¦¸à¦ªà¦ķ":3344,"Ġà¦Ĩà¦ľà¦¨":3345,"Ġà¦¨à¦¬à¦°":3346,"à¦ľà¦¹":3347,"à¦·à¦°à¦£":3348,"à¦§à¦Ĺà¦®":3349,"à¦¥à¦Ń":3350,"à¦°à¦£à¦®à¦¯":3351,"à¦ľà¦¨à¦ĵ":3352,"à§İà¦¸à¦²":3353,"à¦ıà¦°à¦ªà¦°":3354,"Ġà¦ĩà¦īà¦Ł":3355,"à¦°à¦¥à¦®à¦¦":3356,"à¦¦à¦¯à¦¨":3357,"Ġà¦ľà¦®à¦Ľ":3358,"Ġà¦īà§İà¦ªà¦¨":3359,"Ġà¦ªà¦¦à¦ķà¦°":3360,"Ġà¦¨à¦¬à¦®":3361,"à¦¨à¦¸à¦ªà¦Ł":3362,"ag":3363,"ect":3364,"rom":3365,"à¦¨à¦ľà¦¨à¦ķ":3366,"à¦¤à¦¸à¦®":3367,"Ġà¦¬à¦ķà¦¬":3368,"à¦¦à¦°à¦¬":3369,"Ġà¦¦à¦ĸ":3370,"Ġà¦ħà¦Ĺà¦¤":3371,"à¦¹à¦ķà¦°":3372,"à¦£à¦¶à¦ķ":3373,"Ġà¦ĵà¦²à¦Ł":3374,"Ġà¦«à¦²à¦ķ":3375,"Ġà¦«à¦ľà¦²":3376,"Ġà¦§à¦®à¦¨":3377,"Ġà¦Łà¦¨à¦Łà¦¨":3378,"Ġà¦¬à¦¸à¦Ľ":3379,"Ġà¦ħà¦ªà¦¸":3380,"à¦°à¦²à§Ł":3381,"à§ģà¥¤âĢĻ":3382,"à¦°à¦®à¦¶à¦ĩ":3383,"Ġà¦Ķà¦·à¦§":3384,"Ġà¦ľà¦²à¦ķà¦£":3385,"ĠL":3386,"à¦²à¦ĵà¦¯":3387,"à¦®à¦ªà¦¨":3388,"Ġà¦¸à¦Ł":3389,"à¦ĩà¦ŀ":3390,"à¦¶à¦§à¦°":3391,"à¦¶à¦Ńà¦ķ":3392,"à¦ĸà¦Ń":3393,"à¦·à¦°à¦¤":3394,"à¦¥à¦¯":3395,"Ġà¦Łà¦¹à¦²":3396,"à¦ĺà¦°à¦Ł":3397,"à¦ħà¦Łà¦²":3398,"à¦°à¦¸à¦Ń":3399,"à¦§à¦¨à¦¹":3400,"âĢ¦âĢĻ":3401,"à¦¦à§Łà¦ķ":3402,"à¦¼à§ĩà¥¤âĢĿ":3403,"Ġà¦Ĩà¦§à¦ĺà¦£":3404,"Ġà¦ķà¦ĸà¦¨à¦ĵà¦ĩ":3405,"Ġà¦ļà¦Łà¦ªà¦Ł":3406,"à¦ķà¦ĸà¦¨à¦ĵ":3407,"ist":3408,"Ġà¦Ĺà¦łà¦¨à¦®":3409,"à¦¬à§Łà¦¸":3410,"Ġà¦Ńà¦°à¦¤à¦¬":3411,"ĠMaya":3412,"ip":3413,"à¦¨à¦¸à¦¨":3414,"à¦¤à¦«":3415,"à¦¯à¦®à¦¨":3416,"à¦¯à¦Łà¦ķ":3417,"à¦¬à§°":3418,"à¦®à¦®à¦¯":3419,"Ġà¦¬à¦¦à¦°":3420,"à¦ĸà¦ĵ":3421,"à¦¡à¦«":3422,"à¦ĵà¦ł":3423,"Ġà¦¬à¦²à¦¯":3424,"Ġà¦®à¦¨à¦¤":3425,"à¦ıà¦«":3426,"Ġà¦ħà¦¸à¦®à¦¯":3427,"à¦²à¦¤à¦²":3428,"Ġà¦¤à¦²à¦¦":3429,"Ġà¦Ķà¦¦":3430,"ik":3431,"ĠÐ":3432,"Ġon":3433,"à¦¨à¦§":3434,"à§ģ'":3435,"Ġà¦¸à¦ĩà¦¤":3436,"à¦¦à¦®à§Ł":3437,"Ġà¦¹à¦ľà¦®":3438,"à¦¡à¦ī":3439,"à¦ļà¦Ĺ":3440,"à¦ĵà¦ĸ":3441,"Ġà¦ĵà¦¸à¦®":3442,"à¦īà¦¹":3443,"à¦¼à¥¤à¥¤":3444,"à¦¬à¦ªà¦¤":3445,"Ġà¦ħà¦¬à¦®":3446,"à¦®à¦£à¦°":3447,"Ġà§§à§¯à§¬":3448,"op":3449,"Ġan":3450,"à¦¨à¦°à¦®":3451,"à¦¤à¦ķà¦¤":3452,"à¦²à¦ķà¦Ł":3453,"à¦¯à¦ªà¦°":3454,"Ġà¦®à¦«à¦¸":3455,"à¦ľà§ľ":3456,"Ġà¦ħà¦ķà¦²":3457,"à¦Ĺà¦Ĺà¦¨":3458,"à¦§à¦°à¦£":3459,"à¦¹à¦Ĺ":3460,"à§ĩà¥¤âĢĺ":3461,"à¦ĵà¦ª":3462,"à¦Ńà¦²":3463,"à¦¼à¦¾;":3464,"à¦«à¦®":3465,"à¦Ĩà¦¸à¦¨":3466,"à¦°à¦¬à¦¸":3467,"à¦°à¦ķà¦£":3468,"Ġà¦Łà¦¬":3469,"Ġà¦ĩà¦¨à¦ķ":3470,"à¦ħà¦¸à¦®":3471,"à¦Ĺà¦¤à¦®":3472,"à¦ľà¦²à¦Ń":3473,"à§°à¦¸":3474,"à¦¼à§ģà¥¤":3475,"Ġà¦¨à¦¬à¦ľà¦¨":3476,"à¦Łà¦¬à¦ĩ":3477,"Ġà¦¦à¦¶à¦ľà¦¨":3478,"Ġà§§à§ª":3479,"à¦®à¦Łà¦®":3480,"Ġà¦īà§İà¦¸à¦¬à¦®":3481,"Ġà¦§à¦¨à¦¸à¦®":3482,"à¦ıà¦ĸà¦¨à¦ĵ":3483,"ld":3484,"Ø§":3485,"à§ĩ.":3486,"à¦¤à¦®à¦¯":3487,"à¦¯à¦ªà¦¥":3488,"à¦¼âĢĶâĢľ":3489,"à¦¸à¦ł":3490,"Ġà¦ªà¦ª":3491,"à¦¦à¦ĸ":3492,"Ġà¦¹à¦ľ":3493,"Ġà¦Ĺà¦ļ":3494,"Ġà¦ıà¦ķà¦®à¦¤":3495,"Ġà¦§à¦ª":3496,"à¦°à¦£à¦ĩ":3497,"à¦°à¦®à¦ľ":3498,"à¦¾à¦Ĥ,":3499,"à¦¨à¦¬à¦ķ":3500,"à¦¼à§ģ-":3501,"!âĢĿâĢĶ":3502,"end":3503,"ÂłÂłÂłÂłÂłÂłÂłÂłÂłÂłÂłÂłÂłÂłÂłÂłÂł":3504,"æŃĵæŃĵæŃĵæŃĵ":3505,"à¦¯à¦ĸ":3506,"Ġà¦®à¦¸à¦²":3507,"Ġà¦¦à¦¨":3508,"Ġà¦¦à¦¹":3509,"Ġà¦¹à¦ĩà¦Ľ":3510,"à¦Ĺà¦°à¦®":3511,"Ġà¦Ĺà¦®à¦¨":3512,"à¦£à¦§":3513,"Ġà¦¶à¦Ł":3514,"à¦Ńà¦°à¦¯":3515,"Ġà¦ĵà¦¤":3516,"Ġà¦§à¦¬à¦²":3517,"Ġà¦¸à¦®à¦¬à¦¯":3518,"à¦¼à¦¿âĢĶ":3519,"à¦°à¦£à§Łà¦¨":3520,"à¦īà§İà¦¸":3521,"Ġà¦¸à¦¬à¦Ĺ":3522,"à¦·à¦£à¦®":3523,"à¦ıà¦ĩà¦ĸ":3524,"Ġà¦ħà¦ľà¦ª":3525,"Ġà¦ķà¦¤à¦ľà¦¨":3526,"à§°à¦¨":3527,"à§°à¦®":3528,"à§§à§ª":3529,"Ġà¦¶à¦¹à¦°à¦¤à¦²":3530,"à§«à§¦":3531,"à¦ķà¦Ľà¦Ł":3532,"Ġà¦ħà¦¹à¦°à¦¹":3533,"à¦ĭà¦¤":3534,"Ġà§¨à§¦à§¦":3535,"Ġà¦Łà¦²à¦Łà¦²":3536,"Ġà§§à§¯à§¯à§¦":3537,"à¦¡à¦īà¦ĩà¦ļ":3538,"Ð¾":3539,"à¦¤à¦ļà¦°":3540,"à§ģ!âĢĿ":3541,"Ġà¦¸à§Ł":3542,"à¥¤'":3543,"à¦ĸà¦®à¦£":3544,"à¦Ĺà¦Ńà¦Ļ":3545,"à§Łà¦Ń":3546,"Ġà¦ĵà¦¬":3547,"Ġà¦«à¦¸à¦ķ":3548,"Ġà¦§à§ľ":3549,"à¦ľà¦¨à¦®":3550,"à¦Ĩà¦Ł":3551,"Ġà¦¬à¦²à¦²à¦®":3552,"à¦ıà¦ĩà¦¬":3553,"à¦ıà¦ĩà¦Ł":3554,"à¦¤à¦²à¦Ł":3555,"Ġà¦ħà¦ķà¦¸":3556,"Ġà§§à§¯à§®":3557,"ism":3558,"ad":3559,"Ġv":3560,"Ġà¦¬à¦°à¦®":3561,"Ġà¦¸à¦°à¦¬":3562,"Ġà¦Ĩà¦ĩà¦²":3563,"à¦¶à¦¤à¦²":3564,"Ġà¦ľà¦ĺà¦¨":3565,"à¦¾à¦ģ?":3566,"à¦¬à¦¨à¦¸":3567,"à¦°à¦£à¦¬":3568,"à¦®à¦¨à¦¨":3569,"à¦¬à¦°à¦Ĺ":3570,"Ġà¦¬à¦²à¦²à¦¬":3571,"?âĢĿâĢĶ":3572,"à¦Ŀà¦°à¦Ŀà¦°":3573,"Ġà¦Ĩà¦ĩà¦¸à¦ķ":3574,"Ġun":3575,"à¦°à¦ĺà¦°":3576,"à¦¿à¦¾":3577,"à¦¨à¦®à¦¤":3578,"à¦¯à¦¦à¦²":3579,"à¦¦à¦§":3580,"à¦ªà¦¬à¦¤":3581,"à¦ľà¦ĸ":3582,"Ġà¦¹à¦«à¦®":3583,"à¦·à¦¤à¦¬":3584,"Ġà¦ħà¦¨à¦Ń":3585,"Ġà¦ªà¦°à¦ª":3586,"Ġà¦§à¦ķà¦²":3587,"à¦īà¦£":3588,"à¦ıà¦Ľ":3589,"Ġà¦¸à¦¬à¦¥":3590,"à¦°à¦®à¦§":3591,"à¦¤à¦¨à¦ķ":3592,"Ġà¦ħà¦¸à¦¤":3593,"à¦¨à¦¬à¦¸à¦Ń":3594,"Ġà¦ľà¦²à¦§à¦°":3595,"à¦®à¦¤à¦¤":3596,"Ġà¦ħà¦ªà¦Ľà¦¨":3597,"Ġà¦¸à¦¹à¦ľà¦²à¦Ń":3598,"âĢ¦.":3599,"Ġà¦ĩà¦¨à¦Ń":3600,"Ġà¦¬à¦īà¦°":3601,"Ġne":3602,"Ġà¦ķà¦¨à¦ķà¦¨":3603,"ht":3604,"um":3605,"à¦¨à¦ľà¦Ł":3606,"à¦¬à¦§à¦°":3607,"à¦¬à¦īà¦¦":3608,"à¦¼)":3609,"à§ĭâĢĿ":3610,"Ġà¦ķà¦ĩà¦°":3611,"Ġà¦ªà¦łà¦¨":3612,"Ġà¦Ĩà¦¹à¦¸":3613,"Ġà¦®à¦°à¦²":3614,"à¦ľà¦ķà¦¤":3615,"à¦ļà¦®à¦ķ":3616,"Ġà¦Ĺà¦«":3617,"à¦£à¦«":3618,"Ġà¦°à¦£à¦ķ":3619,"à¦¿à¦ĤâĢĻ":3620,"à¦°à¦¦à¦ķ":3621,"à¦¼à§ĭ-":3622,"Ġà¦Ńà§Łà¦ķ":3623,"Ġà§§à§¯à§¨":3624,"ind":3625,"à¦¾âĢĿâĢĶ":3626,"nt":3627,"up":3628,"ĠW":3629,"à¦°à¦ĵà¦¯":3630,"à¦°à¦§à¦°":3631,"à¦®à¦·":3632,"Ġà¦¬à¦Ľ":3633,"Ġà¦¸à¦ļà¦°":3634,"Ġà¦Ĩà¦ĩà¦Ł":3635,"Ġà¦Ĩà¦ĵà¦¤":3636,"à¦Łà¦¯":3637,"Ġà¦¤à¦¬à¦²":3638,"à¦·à¦ķà¦¤":3639,"Ġà¦ľà¦¹à¦°":3640,"Ġà¦Ńà¦ľ":3641,"Ġà¦«à¦¸":3642,"à¦°à¦¤à¦¬":3643,"âĢĶâĢĶ":3644,"Ġà¦¸à¦®à¦Ń":3645,"ĠâĢĻ":3646,"Ġà¦Łà¦Ĺà¦¬":3647,"Ġà¦¡à¦¯":3648,"à¦ħà¦¤à¦²":3649,"à¦ħà¦®à¦°":3650,"à¦¯à¦¤à¦ķ":3651,"Ġà¦ħà¦ľà¦¯":3652,"à¦¤à¦ķà¦°à¦£":3653,"à§ĭ!âĢĻ":3654,"ant":3655,"ith":3656,"à§ĩâĢĿâĢĶ":3657,"Ġà¦¨à§ľà¦¬à§ľ":3658,"Ġà¦¨à¦ľà¦°à¦¦":3659,"Ġà¦¦à¦²à¦¬à¦¦":3660,"ab":3661,"à¦°à¦§à¦¨":3662,"à¦¤à¦Ŀà¦°":3663,"à¦¯à¦Ŀ":3664,"à¦¯à¦°à¦¶":3665,"à¦¯à¦¸à¦¨":3666,"Ġà¦ķà¦¦à¦¬":3667,"Ġà¦¸à¦ĵà¦¯":3668,"Ġà¦Ĩà¦ªà¦¦":3669,"à¦ľà¦ľ":3670,"Ġà¦Ńà¦ľà¦¨":3671,"Ġà¦°à¦ļà¦¯":3672,"à¦Ńà¦®":3673,"Ġà¦ĸà¦ª":3674,"à¦¤à¦°à¦Ń":3675,"à¦¿,âĢĻ":3676,"à¦Ĩà¦°à¦ľ":3677,"à¦ıà¦¤à¦¦":3678,"Ġà¦ĩà¦¤à¦°":3679,"Ġà¦ĩà¦ĵà¦°":3680,"à¦ĺà¦Ľ":3681,"à¦¼,âĢĿ":3682,"à¦·à¦£à¦Ĺ":3683,"à¦ĩà¦¨à¦¸":3684,"à¦®à¦£à¦ķ":3685,"Ġà¦«à¦²à¦ª":3686,"Ġà¦¦à¦²à¦Ł":3687,"à¤¨":3688,"Ġà¦ľà¦¨à¦¸à¦ļ":3689,"est":3690,"Ġà¦Łà¦Ĺà¦¬à¦Ĺ":3691,"à§ĩ'":3692,"à¦ķà¦®à¦¯":3693,"à¦¬à¦ĸ":3694,"Ġà¦ķà¦ľà¦¨":3695,"Ġà¦¯à¦¤à¦¨":3696,"à¦ļà¦¦":3697,"à¦ļà¦¤à¦²":3698,"à¦¥à¦¬à¦¹":3699,"à¦ĵà¦®":3700,"à¦Ļà¦ķ":3701,"Ġà¦¥à¦¤":3702,"à§ĩ,-":3703,"ĠâĢĿ":3704,"à¦¬à¦¨à¦¬à¦¤":3705,"Ġà¦ĺà¦·à¦¤":3706,"à¦¿à¥¤à¥¤":3707,"à¦ıà¦°à¦ĩ":3708,"Ġà¦ķà¦¥à¦ķ":3709,"à¦Ĺà¦²à¦ª":3710,"Ġà¦¬à¦ĩà¦®":3711,"à¦ľà¦²à¦¦":3712,"Ġà¦īà¦²à¦Ļ":3713,"à¦¬à¦¶à¦¤":3714,"Ġà¥¤à¥¤":3715,"Ġà¦ıà¦ķà¦ĩà¦¸à¦Ļ":3716,"Ġà¦ĺà¦¨à¦ĺà¦¨":3717,"à¦°à¦Ĺà¦£":3718,"Ġà¦ĸà¦¬à¦°à¦¦":3719,"à¦ľà¦®à¦¹à¦²":3720,"Ġà¦Ĩà§ľà¦®":3721,"à¦¯à¦ĸà¦¨à¦ĩ":3722,"à¦Ĩà¦§à¦Ł":3723,"Ġà¦®à¦Ĺà¦§":3724,"ill":3725,"Ġà¦¬à¦ķà¦¬à¦ķ":3726,"ri":3727,"à¦¨à¦ľà¦°":3728,"à¦¤à¦ªà¦¸":3729,"à¦²à¦ķà¦°":3730,"à¦²à¦ľà¦¯":3731,"à¦¯à¦¨à¦¤":3732,"Ġà¦¸à¦°à¦¤":3733,"Ġà¦¹à¦ĩà¦¨":3734,"à¦¶à¦ĸ":3735,"Ġà¦ħà¦ĩ":3736,"à¦ĸà¦¶":3737,"à¦ĸà¦ªà¦¤":3738,"à¦§à¦¯":3739,"à¦łà¦¹":3740,"à¦ŀà¦ª":3741,"à¦Ĩà¦Ń":3742,"Ġà¦Ĩà¦¸à¦Ĺà¦°":3743,"à¦ħà¦§à¦°":3744,"Ġà¦¬à¦¨à¦¸":3745,"Ġà¦ħà¦¸à¦Ļ":3746,"à¦°à¦¸à¦¹":3747,"Ġà¦ıà¦¤à¦ĸ":3748,"Ġà¦īà¦¤à¦²":3749,"Ġà¦ħà¦ľà§Ł":3750,"à§ĩ;-":3751,"Ġà¦Ĩà¦¦à¦¤":3752,"Ġà¦¹à¦°à¦·":3753,"à¤ķ":3754,"Ġà¦ļà¦®à¦ķà¦ª":3755,"Ġyou":3756,"Ġk":3757,"à§ĩâĢĻà¥¤":3758,"à¦²à¦ªà¦¥":3759,"à¦¯à¦¤à¦°":3760,"Ġà¦ķà¦®à¦¨":3761,"Ġà¦¬à¦Ĺ":3762,"à¦Łà¦ķà¦°":3763,"à¦ļà¦²à¦¬":3764,"Ġà¦Ĺà¦ª":3765,"Ġà¦ļà¦ªà¦²":3766,"à¦Ļà¦ļ":3767,"Ġà¦²à¦¹":3768,"à¦®à¦¨à¦ķ":3769,"à¦¸à¦¬à¦ľ":3770,"Ġà¦ľà¦²à¦¦à¦¸":3771,"à¦¯à¦¤à¦ĩ":3772,"à¦®à¦ķà¦¥":3773,"Ġà¦ķà¦¤à¦ķà¦Ł":3774,"à¦¢à¦²":3775,"Ġà¦ĭà¦ľ":3776,"Ġà¦ĭà¦Ĺà¦¬":3777,"Ġà¦ıà¦¸à¦¬à¦ĩ":3778,"à¤²":3779,"Ġà¦īà§ľà¦¨":3780,"res":3781,"art":3782,"Ġby":3783,"==":3784,"ac":3785,"ºçľ":3786,"ĠØ":3787,"à¦¨à¦§à¦°":3788,"à¦¯à¦ľà¦¨à¦ķ":3789,"à§ģà§į":3790,"à¦¬à¦¦à¦°":3791,"à¥¤\"":3792,"à¦¸à¦ĵà¦¯":3793,"Ġà¦®à§Ł":3794,"Ġà¦¤à§İ":3795,"Ġà¦ħà¦¹à¦¨":3796,"Ġà¦ķà¦°à¦¨":3797,"Ġà¦°à¦Ĺ":3798,"à¦«à¦¸à¦²":3799,"Ġà¦Łà¦®à¦Łà¦®":3800,"Ġà¦ĩà¦¨à¦Ł":3801,"à¦ħà¦¯":3802,"à¦ħà¦·":3803,"à¦²à¦ķà¦§":3804,"à¦¨à¦¬à¦®à¦¨":3805,"à¦ķà¦¤à¦ķ":3806,"Ġà¦ħà¦¤à¦Ł":3807,"Ġà¦Ĳà¦¤à¦°":3808,"Ġà¦Ĺà¦Ńà¦°":3809,"Ġà¦¬à¦ĩà¦ķ":3810,"Ġà¦ĵà¦ĩà¦Ł":3811,"à§§à§®":3812,"à¦īà¦²à¦¦":3813,"à¦ķà¦¶à¦ª":3814,"à¦®à§Łà¦ķà¦°":3815,"à§«à§Ń":3816,"à§©à§¦":3817,"Ġas":3818,"à¦ķà¦ľà¦®à¦ķ":3819,"Ġhave":3820,"ore":3821,"·çľ":3822,"Ð°":3823,"Ġhe":3824,"à¦¤à¦ªà¦¨":3825,"à¦²à¦®à¦£":3826,"à¦ķà¦§à¦°":3827,"à¦®à¦¥":3828,"Ġà¦¬à§İà¦¸":3829,"à¦¦à¦ľ":3830,"à¦Łà¦ķà¦²":3831,"à¦ªà¦¦à¦°":3832,"Ġà¦¤à§İà¦ª":3833,"à¦·à¦ªà¦¥":3834,"à¦¥à¦ĵ":3835,"Ġà¦ļà¦°à¦ķ":3836,"Ġà¦Ńà¦¬à¦¤":3837,"à§ĩà¥¤'":3838,"Ġà¦ĸà¦¯":3839,"Ġà¦®à¦¨à¦ĸ":3840,"à¦¤à¦°à¦Ĺ":3841,"à¦«à§ľ":3842,"à¦Ĩà¦¸à¦¬":3843,"à¦°à¦®à¦ķ":3844,"à¦·à¦£à¦ĵ":3845,"à¦ħà¦ªà¦®":3846,"à¦ħà¦¸à¦¹":3847,"Ġà¦ľà¦²à¦°à¦Ļ":3848,"à¦Ĺà¦²à¦¬":3849,"à¦¶à¦¨à¦ķ":3850,"Ġà¦īà¦ªà¦¡":3851,"Ġà¦ħà¦ªà¦¦":3852,"Ġà¦ľà¦®à¦¶":3853,"à¦ªà¦¦à¦¸":3854,"Ġà¦¸à¦®à§Łà¦ĩ":3855,"Ġà¦¯à¦ľà¦®":3856,"Ġà¦īà§ľà¦¤":3857,"à¦¾à¦ĥ!":3858,"Ġà¦¸à¦°à¦¸à¦¤":3859,"Ġà¦ªà¦Ļà¦ķ":3860,"ºçľºçľ":3861,"ak":3862,"ere":3863,"à¸":3864,"à¦¤à§ľ":3865,"à¦¤à¦ķà¦°":3866,"à¦®à¦°à¦¸":3867,"à¦®à¦ļà¦ķ":3868,"Ġà¦ķà¦¶":3869,"Ġà¦¸à¦Ĺ":3870,"Ġà¦¸à¦°à¦£":3871,"Ġà¦Ĩà¦īà¦²":3872,"Ġà¦¨à¦Ĺà¦¦":3873,"à¦ĩà¦¸à¦Ļ":3874,"Ġà¦Ĺà¦°à¦ľ":3875,"à¦£à¦ļà¦¨":3876,"Ġà¦ľà¦¬à¦°":3877,"Ġà¦ľà¦ĸà¦®":3878,"Ġà¦ĸà¦¤à¦®":3879,"âĢĶâĢĻ":3880,"à¦¼à¦¿?":3881,"à§ľà¦®":3882,"à¦Ĩà¦°à¦¬":3883,"à¦¬à¦ªà¦ķ":3884,"Ġà¦ħà¦¬à¦¤à¦°à¦£":3885,"Ġà¦¢à¦Ļ":3886,"Ġà¦ħà¦¸à¦¹à¦¯":3887,"à¦§à¦¨à¦ĩ":3888,"Ġà¦ķà¦¬à¦ľ":3889,"âĢĮà§į":3890,"Ġà¦ªà¦¤à¦Ļ":3891,"à¦°à¦ľà¦¨à¦¨":3892,"à§¨à§¦":3893,"à¦łà¦ķà¦ĸ":3894,"Ġà¦Ķà¦ľ":3895,"Ġare":3896,"Ġà§©à§¦":3897,"ass":3898,"ast":3899,"Ġde":3900,"Ġà¦ĸà¦Łà¦ĸà¦Ł":3901,"âĢĵâĢĵâĢĵâĢĵ":3902,"Ġà¦¸à¦«à¦Łà¦ĵà¦¯":3903,"·çľ·çľ":3904,"à¦¨à¦ĺà¦°":3905,"à¦ķà¦ļà¦ķ":3906,"à¦®à¦¶à¦ķ":3907,"Ġà¦¨à¦°à¦¨":3908,"à¦ĩà¦ıà¦°":3909,"Ġà¦¤à¦°à¦£":3910,"à¦ĸà§ľ":3911,"à¦§à¦¬à¦¦":3912,"âĢī":3913,"à¦ļà¦ķà¦°":3914,"Ġà¦¶à¦²":3915,"Ġà¦Ńà¦°à¦²":3916,"Ġà¦īà¦ĩà¦ķ":3917,"à¦īà¦Ńà¦¯":3918,"âĢĿ-":3919,"Ġà¦¬à¦²à¦²à¦«":3920,"Ġà¦Ŀà¦°à¦¤":3921,"à¦ĥâĢĵ":3922,"Ġà¦¬à¦¨à¦®":3923,"à¦¦à¦°à¦Ł":3924,"à¦ªà¦¤à¦Ļ":3925,"à¦¾âĢĻâĢĶ":3926,"Ġà¦Ŀà¦Łà¦ªà¦Ł":3927,"Ġ[":3928,"à§ĩ...":3929,"à¦¬à¦ľà¦Ĺà§İ":3930,"à¦®à¦®à¦¨":3931,"à¦®à¦ĵà¦¯":3932,"Ġà¦ķà¦ĵ":3933,"Ġà¦¸à¦°à¦®":3934,"à¥Ģ":3935,"à¦ĩà¦ħà¦ķ":3936,"à¦¡à¦¹":3937,"à¦¹à¦¬à¦§":3938,"Ġà¦¶à¦°à¦¬à¦¤":3939,"Ġà¦°à¦¸à¦¨":3940,"à§ĩà¥¤\"":3941,"à¦ĵà¦¬":3942,"Ġà¦ıà¦ķà¦§à¦°à¦¨":3943,"Ġà¦īà¦¸":3944,"à¦¾à¦ģ!":3945,"Ġà¦ĵà¦®à¦°":3946,"à¦ªà¦°à¦¬":3947,"à¦¤à¦°à¦«":3948,"à¦°à¦¬à¦Ĺ":3949,"à¦°à¦¬à¦®à§Ł":3950,"Ġà¦¸à¦¬à¦¶":3951,"à§Ī-":3952,"Ġà¦ĩà¦·":3953,"Ġà¦ªà¦¥à¦¹":3954,"Ġà¦Ĩà¦Ĺà¦¤":3955,"Ġà¦Ĺà¦²à¦¤":3956,"à¦¨à¦¬à¦¹":3957,"Ġà¦īà¦ªà¦ªà¦¤":3958,"à¦¬à¦¤à¦®":3959,"à¦¯à¦¤à¦¦":3960,"à¦·à¦¤à¦Ĺ":3961,"à¦·à¦ķà¦ķ":3962,"à¦¥à¦°à¦Ĺ":3963,"Ġà¦¬à¦Łà¦¤à¦²":3964,"à¦®à¦Ĺà¦ŀ":3965,"Ġà¦¶à¦¹à¦°à¦ķ":3966,"Ġà¦Ĺà¦®à¦Ĺà¦®":3967,"ate":3968,"Ġso":3969,"Ġman":3970,"ÂłÂłÂłÂłÂłÂłÂłÂłÂłÂłÂłÂłÂłÂłÂłÂłÂłÂł":3971,"The":3972,"se":3973,"à¦¤à¦¤à¦°":3974,"Ġà¦ķà¦²à¦¨":3975,"Ġà¦¸à¦¦à¦¯":3976,"à¥ĩ":3977,"Ġà¦Ĩà§Łà¦¤":3978,"à¦Łà¦¶":3979,"à¦Łà¦¡":3980,"Ġà¦ıà¦¹":3981,"à¦¶à¦ľà¦¨":3982,"Ġà¦ħà¦ĺà¦Łà¦¨":3983,"à¦¡à¦ľ":3984,"à¦¹à¦ľà¦¨à¦ķ":3985,"à¦£à¦¬à¦°":3986,"à¦¥à¦¶":3987,"Ġà¦°à¦¸à¦¬":3988,"Ġà¦Ĩà¦®à¦¤":3989,"Ġà¦²à¦ĵ":3990,"Ġà¦ĸà¦°à¦Ĺ":3991,"à¦Ŀà¦²à¦ķ":3992,"Ġà¦¡à¦¬à¦²":3993,"Ġà¦ĩà¦Ľ":3994,"Ġà¦ĩà¦ľà¦°":3995,"Ġà¦ĩà¦®à¦ª":3996,"Ġà¦Ŀà¦ª":3997,"Ġà¦¬à¦¨à¦²à¦¤":3998,"Ġà¦ªà¦¥à¦ĺ":3999,"à¦¨à¦¬à¦ķà¦²":4000,"Ġà¦ľà¦²à¦ĸ":4001,"à¦¶à¦¨à¦®":4002,"à¦°à¦²à¦¸":4003,"Ġà¦ħà¦§à¦¸":4004,"à¦¸à¦¨à¦ķ":4005,"à¦ªà¦¥à¦Ĺ":4006,"à¦ıà¦ķà¦¸à¦®à¦¯":4007,"Ġà¦¬à¦ĩà¦ªà¦¤":4008,"à¦¤à¦ķà¦¡":4009,"Ġà¦īà¦ªà¦°à¦¨":4010,"Ġà¦¦à¦²à¦Ĺà¦¤":4011,"à¦ķà¦¸à¦ľ":4012,"à¦ĩà¦ľà¦¡":4013,"Ġà¦ĸà¦¸à§ľ":4014,"ĠĠčĊĠĠ":4015,"ers":4016,"Ġor":4017,"og":4018,"pp":4019,"pt":4020,"tu":4021,"à¦°à§İ":4022,"à¦¨à¦ĺ":4023,"à¦¯à¦®à¦£":4024,"à¦¼âĢĿ":4025,"Ġà¦ªà¦ļà¦¨":4026,"à¦Łà¦ļ":4027,"Ġà¦®à¦ĩ":4028,"à¦Ľà¦¸":4029,"à¦Ľà¦ĩ":4030,"Ġà¦¤à¦¤à¦¬":4031,"à¦§à¦ļ":4032,"à¦¹à¦ľ":4033,"à¦¹à¦ĵ":4034,"Ġà¦Ĺà¦¤à¦°":4035,"Ġà¦ıà¦ķà¦¹":4036,"Ġà¦Ĩà¦®à¦¬":4037,"à¦Ĩà¦īà¦Ł":4038,"à¦¬à¦°à¦ª":4039,"Ġà¦¬à¦²à¦²à¦Ń":4040,"Ġà¦ľà¦¨à¦®à¦¤":4041,"à¦·à¦£à¦ľà¦¨":4042,"à¦¤à¦¨à¦ĩ":4043,"à¦¸à¦¬à¦ļ":4044,"à¦¤à¦¬à¦¬":4045,"Ġà¦ľà¦²à¦Ľ":4046,"à¦¨à¦ĵà¦ķ":4047,"à¦¨à¦ĵà¦®à¦¤":4048,"à¦²à¦¬à¦§":4049,"à§ĩ---":4050,"Ġà¦ªà¦¦à¦¤à¦²":4051,"Ġà¦¬à¦ĩà¦ĸ":4052,"à¦¤à¦ķà¦£":4053,"Ġà¦ĩà¦¨à¦²":4054,"à¦¶à¦ķà¦¦":4055,"à¦Ĩà¦ľà¦ĩ":4056,"à¦Ĺà¦ľà¦Ĺ":4057,"Ġà¦Ĩà¦ĩà¦¶":4058,"Ġà¦ıà¦ĩà¦°à¦ķà¦®à¦ĩ":4059,"Ġme":4060,"ich":4061,"qu":4062,"à¦¨à¦¬à¦ª":4063,"à¦¤à¦®à¦¨":4064,"à¦ķà¦Ńà¦°":4065,"à¦¬à¦ķà¦²":4066,"à¦®à§İ":4067,"Ġà¦¸à¦²à¦ľ":4068,"à¦¸à¦°à¦¸":4069,"à¦¦à¦®à¦¸":4070,"Ġà¦¨à¦ª":4071,"Ġà¦®à¦ľà¦²":4072,"à¦Ľà¦Ľ":4073,"Ġà¦¹à¦°à¦®":4074,"Ġà¦¤à§ľ":4075,"âĢĲ":4076,"à¦¡à¦ļ":4077,"à¦¹à¦¶":4078,"Ġà¦¬à¦²à¦¦":4079,"à¦ªà¦°à¦¸":4080,"à¦¤à¦°à¦®":4081,"à¦¤à¦°à¦ķà¦®":4082,"à¦Ĩà¦¸à¦Ľ":4083,"Ġà¦ĩà§Ł":4084,"à§Įà¥¤":4085,"à¦ĩà¦²à¦¸":4086,"à¦¾âĢĶâĢĺ":4087,"Ġà¦¬à¦Ľà¦°à¦ĸ":4088,"à¦ªà¦¦à¦ª":4089,"à¦¬à¦¸à¦¤":4090,"à¦¬à¦¶à¦°":4091,"à¦ķà¦ķà¦¥":4092,"à¦·à§Łà¦Ł":4093,"ÂłÂłÂłÂłÂłÂłÂłÂłÂłÂłÂłÂłÂłÂłÂłÂłÂłÂłÂł":4094,"ÂŃÂŃ":4095,"Ġà§§à§¯à§ªà§Ń":4096,"Ðµ":4097,"ÑĢ":4098,"ĠO":4099,"à¦¾/":4100,"à¦²à¦ľà¦²":4101,"à¦¬à¦ĩà¦¯":4102,"à¦®à¦°à¦¤":4103,"Ġà¦ªà¦ľ":4104,"à¦¦à¦°à¦ķ":4105,"à¦Łà¦ľà¦¨":4106,"Ġà¦®à¦ļ":4107,"à¦ľà¦¬à¦¨":4108,"Ġà¦¹à¦īà¦ķ":4109,"Ġà¦ıà¦¨à¦ķ":4110,"Ġà¦ıà¦¤à¦¬à¦¡":4111,"Ġà¦ħà¦¶à¦¨":4112,"Ġà¦ľà¦®à¦ķ":4113,"à¦Ńà¦¤":4114,"Ġà¦īà¦ĩà¦¶":4115,"à¦°à¦¬à¦ŀ":4116,"Ġà¦ķà¦¥à¦¨":4117,"Ġà¦¡à¦ľà¦¨":4118,"Ġà¦ĩà¦¬":4119,"à¦²à¦ķà¦¦":4120,"Ġà¦ľà¦²à¦Ľà¦¬":4121,"Ġà¦īà¦ªà¦Ĺ":4122,"à¦²à¦¬à¦¶à¦¤":4123,"à¦¦à§Łà¦Ł":4124,"à¦ıà¦ķà¦®":4125,"à§įâĢĮ!":4126,"à¦°à¦ļà¦²à¦¨":4127,"Ġà¦ħà¦²à¦¸à¦¤":4128,"à¦ľà¦¸à¦ľ":4129,"lect":4130,"Ġà§«à§¦":4131,"Ġex":4132,"ĠThe":4133,"âĢķâĢķâĢķâĢķ":4134,"ain":4135,"ge":4136,"ãģ":4137,"Ġ--":4138,"à¦¨à¦ķà¦²":4139,"à¦²à¦¬à¦°":4140,"à¦²à¦®à¦¤":4141,"à¦®à¦¬à¦¨":4142,"à¦®à¦°à¦¨":4143,"à¦®à¦ªà¦¥":4144,"Ġà¦¬à¦°à¦¬":4145,"Ġà¦¸à¦Ĺà¦°":4146,"Ġà¦Ĩà¦ĵà¦¡":4147,"à¦¦à¦ļ":4148,"à¦¦à¦¬à¦°":4149,"Ġà¦®à¦ĵà¦²":4150,"à¦ĩà¦ī":4151,"à§Ģ:":4152,"à¦ľà¦ļ":4153,"à¦¼à§ĩâĢ¦":4154,"à¦ĸà¦§":4155,"Ġà¦¶à¦°à¦®":4156,"Ġà¦ıà¦ķà¦²à¦¬":4157,"Ġà¦Ľà¦®":4158,"à¦łà¦Ń":4159,"Ġà¦īà¦¤à¦°":4160,"Ġà¦īà¦¸à¦ķ":4161,"à¦¾à¦ģà¥¤âĢĻ":4162,"à¦¬à¦¨à¦ªà¦¥":4163,"à¦«à¦²à¦ķ":4164,"à¦Ĩà¦¬à¦°":4165,"à¦ıà¦¤à¦ķ":4166,"âĢĻ!":4167,"Ġà¦ĩà¦Ń":4168,"à¦ĺà¦Łà¦ķ":4169,"à¦ħà¦Ł":4170,"Ġà¦Ĩà¦Ĺà¦¸":4171,"Ġà¦Ĺà¦²à¦¨":4172,"à¦¯à¦¬à¦ĩ":4173,"Ġà¦ħà¦Ńà§Ł":4174,"à¦°à¦¦à¦¤":4175,"Ġà¦ķà¦®à¦ĩ":4176,"Ġà¦®à¦°à¦Ľ":4177,"Ġà¦ĵà¦ĩà¦°à¦ķà¦®":4178,"ÂłÂłÂłÂłÂłÂłÂłÂłÂłÂłÂłÂłÂłÂłÂłÂłÂłÂłÂłÂł":4179,"Ġtr":4180,"à¦·à§Łà¦Ĺ":4181,"Ġà§¨à§¨":4182,"Ġà§¨à§ª":4183,"à§ĩâĢĻ,":4184,"Ġwas":4185,"à¦¯à¦¶à¦¸":4186,"Ġà¦Ĩà¦«à¦ľ":4187,"elf":4188,"Ġà§§à§¦à§¦":4189,"Ð¾Ð":4190,"hing":4191,"ust":4192,"à¦¤à¦¤à¦®":4193,"à¦ķà¦¸à¦®":4194,"à¦ķà¦¢":4195,"à§ĭà¦ĥ":4196,"Ġà¦¬à¦ĩà¦²":4197,"à¦¸à¦¨à¦¬":4198,"Ġà¦ªà§Ł":4199,"à¦¦à¦¡":4200,"à¦Łà¦ľ":4201,"Ġà¦¨à¦²à¦ķ":4202,"Ġà¦¨à¦¨à¦¦":4203,"à¦ĩà¦¸à¦²":4204,"à¦Ľà¦²à¦¤":4205,"Ġà¦ıà¦°à¦®à¦§":4206,"à¦¶à¦°à¦ķ":4207,"Ġà¦ħà¦¤à¦°":4208,"à¦ĸà¦ľ":4209,"à¦Ĺà¦¶":4210,"à¦¡à¦¤":4211,"à¦ļà¦£":4212,"à¦£à¦Ńà¦°":4213,"à¦¥à¦¦":4214,"Ġà¦¶à¦°à¦¦":4215,"à¦Ńà¦Ĺà¦¬":4216,"Ġà¦ªà¦°à¦ĸ":4217,"à¦¬à¦¨à¦ĵ":4218,"à¦¬à¦¨à¦ļà¦ķ":4219,"à¦¼à¦¿!":4220,"à¦ıà¦°à¦ķà¦®":4221,"à¦¬à¦°à¦ĵ":4222,"Ġà¦¬à¦²à¦²à¦¦":4223,"Ġà¦Ŀà¦²":4224,"à¦ĥ-":4225,"à¦¦à¦°à¦¦":4226,"à¦®à¦¤à¦²":4227,"à¦°à¦¹à¦¨":4228,"à¦°à¦¹à¦¸à¦¨":4229,"à¦®à¦²à¦¬":4230,"à¦§à¦¨à¦¸à¦Ļ":4231,"Ġà¦¸à¦¹à¦¬":4232,"Ġà¦¬à¦ĩà¦¬":4233,"à§ģà¦ĥà¥¤":4234,"à§Łà¦¨à¦¯":4235,"à¦¬à¦¬à¦Ļ":4236,"Ġ(âĢĺ":4237,"Ġà¦¸à¦®à§Łà¦Ł":4238,"Ġà¦¬à§ľà¦¦":4239,"Ġà¦§à¦¨à¦ŀ":4240,"Ġà¦Ĭà¦¨":4241,"Ġcom":4242,"Ġà¦ıà¦ķà¦ªà¦²à¦ķ":4243,"Ġà¦Ńà¦Ĺà¦¬à¦¤":4244,"Ġwith":4245,"Ġà¦ªà¦°à¦ªà¦°à¦ĩ":4246,"Ġits":4247,"!)":4248,"ia":4249,"ĠF":4250,"Ġ__":4251,"à¦°à¦ªà¦¨":4252,"à¦°à¦ļà¦°":4253,"à¦¨à¦ĵà¦¯":4254,"à¦¨à¦Ĺà¦¤":4255,"à¦¨à¦°à¦ķà¦®":4256,"à¦¬à¦ªà¦°":4257,"à¦®à¦ł":4258,"à¦®à¦¬à¦²":4259,"à¦®à¦¤à¦¨":4260,"Ġà¦¸à¦ļà¦ķ":4261,"à¦¸à¦°à¦¤":4262,"à¦Łà¦°à¦Ĺ":4263,"Ġà¦¦à¦ªà¦¦à¦ª":4264,"Ġà¦ıà¦¨à¦°":4265,"âĢ¢":4266,"à¦¡à¦ĵ":4267,"Ġà¦¯à¦®à¦ľ":4268,"à¦¹à¦°à¦ķ":4269,"à¦£à¦ķà¦°":4270,"à¦£à¦¸à¦®":4271,"Ġà¦ľà¦Łà¦²":4272,"Ġà¦Ńà¦¨":4273,"Ġà¦Ńà¦°à¦£":4274,"Ġà¦²à¦ĩà§Ł":4275,"Ġà¦ĸà¦Łà¦ķ":4276,"Ġà¦®à¦¨à¦ĵ":4277,"à¦¤à¦°à¦¦":4278,"à¦«à¦ª":4279,"Ġà¦Ĩà¦²à¦¬":4280,"Ġà¦¸à¦¬à¦ķà¦Ł":4281,"Ġà¦Łà¦Ļ":4282,"Ġà¦ľà¦¨à¦¶":4283,"à§ģà¦ģ,":4284,"Ġà¦Ĺà¦²à¦Ľ":4285,"Ġà¦ĵà¦łà¦¬":4286,"Ġà¦īà¦¦à¦°":4287,"à¦°à¦¹à¦°à¦Ĺ":4288,"Ġà¦īà¦ªà¦®à¦¹":4289,"Ġà¦ħà¦ªà¦ļà§Ł":4290,"Ġà¦īà§İà¦«":4291,"à¦¦à§Łà¦¸":4292,"à¦ħà¦¨à¦²":4293,"à¦¬à¦ķà¦ķ":4294,"à¦¬à¦ķà¦¥":4295,"Ġà¦Ĩà¦¦à¦®":4296,"Ġà¦¸à¦¹à¦ľà¦Ń":4297,"à¦¼--":4298,"ence":4299,"Ġà§§à§©à§§à§Ń":4300,"''":4301,"har":4302,"ment":4303,"Ġr":4304,"à¦¾.":4305,"à¦¨à¦¥":4306,"à¦¤à¦°à¦¤":4307,"à¦¤à¦ļà¦ķ":4308,"à¦²à¦ŀ":4309,"à¦¯à¦¯à¦¨":4310,"à¦®à¦²à¦ķ":4311,"à¥¤(":4312,"à¦¸à¦¶":4313,"Ġà¦Ĩà¦ĩà¦ľ":4314,"Ġà¦¨à¦¬à¦¨":4315,"à¦ľà¦²à¦¬":4316,"à¦¶à¦®à¦¯":4317,"à¦·à¦²":4318,"à¦·à¦¸à¦¦":4319,"à¦§à¦ļà¦¨":4320,"à§Łà¦¤à¦®":4321,"à¦£à¦¬à¦¦":4322,"à¦łà¦Ĺ":4323,"à¦łà¦Ĺà¦¡":4324,"Ġà¦¥à¦ķ":4325,"à¦°à¦£à¦®":4326,"à¦ŀà¦ķ":4327,"à¦¤à¦°à¦ľ":4328,"à¦īà¦¦à¦¯":4329,"à¦ıà¦®à¦¨à¦ĩ":4330,"Ġà¦¸à¦¬à¦°à¦ķà¦®":4331,"Ġà¦ħà¦¸à¦¹à¦¨":4332,"à¦²à¦ķà¦ķ":4333,"Ġà¦ħà¦Ńà¦¦":4334,"à¦¿à¦ĤâĢĶ":4335,"à¦ļà¦¨à¦ķ":4336,"à¦°à¦¦à§Ł":4337,"à¦ĩà¦¨à¦ķ":4338,"à¦ĩà¦¨à¦®":4339,"Ġà¦¤à¦¤à¦ĸ":4340,"à§¦à§«":4341,"Ġà¦Ĩà¦ĩà¦¨à¦ľ":4342,"Ġse":4343,"ould":4344,"Ġind":4345,"Ġwhich":4346,"Ġà¦¤à§İà¦ªà¦°à¦¤":4347,"ost":4348,"ĠK":4349,"Ġall":4350,"à¦¾à¥¥":4351,"à§ĩà§ĩ":4352,"à¦¨à¦ķà¦°":4353,"à¦¤à¦¤à¦¨":4354,"à¦¤à¦¦à¦¨":4355,"à¦ķà¦ªà¦ķ":4356,"à¦¯à¦Ĺà¦£":4357,"à§ģà§ģ":4358,"à§ģ?âĢĿ":4359,"à¦¬à¦ļà¦ķ":4360,"Ġà¦¸à§İà¦ķ":4361,"à¥¤âĢ¦":4362,"à¦¸à¦ķà¦°":4363,"Ġà¦Ĩà¦Łà¦ª":4364,"à¦Łà¦°à¦¶":4365,"à¦Łà¦Ĩà¦ª":4366,"Ġà¦®à¦Ĺà¦¨":4367,"Ġà¦®à¦²à¦®":4368,"Ġà¦®à¦²à¦¯":4369,"Ġà¦¹à¦¡":4370,"Ġà¦¤à¦°à¦¤à¦°":4371,"Ġà¦¤à§İà¦ªà¦°":4372,"à¦¶à¦®à¦¨":4373,"à¦ļà¦²à¦¨":4374,"à§Łà¦ªà¦°":4375,"à¦£à¦²":4376,"à¦¥à¦ªà¦¤":4377,"Ġà¦¶à§Łà¦¤":4378,"Ġà¦ľà¦¤":4379,"Ġà¦ıà¦ķà¦®à¦¨":4380,"Ġà¦ıà¦ķà¦ķà¦¥":4381,"à¦łà¦®":4382,"Ġà¦īà¦¶":4383,"Ġà¦ĵà¦°à¦ĩ":4384,"à¦°à¦¤à¦¤":4385,"Ġà¦ħà¦¨à¦¤":4386,"à¦ıà¦Ĩà¦ĩ":4387,"Ġà¦Łà¦²à¦¤":4388,"Ġà¦ĩà¦®à¦°":4389,"à¦ħà¦²à¦¸":4390,"Ġà¦Ĩà¦¶à¦«":4391,"à¦®à¦¤à¦®":4392,"à¦°à¦¹à¦¶":4393,"Ġà¦ķà¦¬à¦ļ":4394,"Ġà¦¨à§Łà¦¤":4395,"Ġà¦ħà¦Ĺà¦Ń":4396,"à¦ľà¦²à¦°":4397,"à¦¸à¦ķà¦¦":4398,"Ġà¦¦à¦²à¦¬à¦²":4399,"Ġà¦ĭà¦ķ":4400,"à§¨à§«":4401,"Ġà§§à§¯à§©":4402,"Ġà¦¹à¦ĩà¦¹à¦ĩ":4403,"Ġà¦īà§ľà¦Ľ":4404,"Ġà¦¹à¦¨à¦¹à¦¨":4405,"isha":4406,"ĠĠĠĠčĊč":4407,"Ġpro":4408,"10":4409,"ie":4410,"th":4411,"Ñģ":4412,"Ø±":4413,"à¦¾âĢĮ":4414,"à¦¯à¦ªà¦¨":4415,"à¦¯à¦Łà¦¨":4416,"à§ģ?âĢĻ":4417,"à¦®à¦¦à¦°":4418,"Ġà¦Ĩà¦ī":4419,"Ġà¦¨à¦Ĺà¦£":4420,"Ġà¦®à¦°à¦¦":4421,"à¦ľà¦®à¦£":4422,"à¦ľà¦§à¦°":4423,"Ġà¦¤à¦Ľà¦¨":4424,"Ġà¦¤à¦¨à¦¯":4425,"Ġà¦ħà¦¹à¦°":4426,"à¦§à¦§à¦°":4427,"à¦ļà¦¦à¦¶":4428,"à¦¹à¦¬à¦¨":4429,"à¦¹à¦¨à¦ķ":4430,"à¦¹à¦®à§Ł":4431,"à¦Ńà¦§":4432,"à¦Ńà¦°à¦¸":4433,"à¦łà¦ķà¦¦":4434,"Ġà¦īà¦Ł":4435,"Ġà¦Ĩà¦°à¦¨":4436,"Ġà¦¸à¦®à¦®":4437,"à¦¬à¦¨à¦ª":4438,"à¦¬à¦¨à¦Ńà¦°":4439,"à§ľà¦Ŀ":4440,"Ġà¦ĺà¦Łà¦ķ":4441,"à¦ŀà¦§à¦°":4442,"à§İà¦¬":4443,"à¦Ĩà¦·":4444,"à¦Ĩà§ľ":4445,"Ġà¦¬à¦²à¦²à¦¹":4446,"Ġà¦ªà¦¥à¦Ń":4447,"à¦¸à¦¬à¦®":4448,"Ġà¦ħà¦¤à¦¸":4449,"Ġà¦ľà¦®à¦¬":4450,"à¦°à¦ªà¦Ł":4451,"à¦ªà¦ķà¦Ń":4452,"à¦ľà¦²à¦§":4453,"à¦¾à¦ģ,âĢĿ":4454,"à¦¬à¦ĩà§Ł":4455,"Ġà¦¸à§İà¦¤":4456,"Ġsp":4457,"Ġsu":4458,"ord":4459,"Ġmy":4460,"ous":4461,"Ġint":4462,"à§ĩà§Ĺà¦ģ":4463,"Ġà¦Ķà¦°à¦¸à¦ľ":4464,"Ġà¦§à§ľà¦«à§ľ":4465,"Ġà¦¥à¦¤à¦®à¦¤":4466,"Ġà¦¤à¦Ľà¦¨à¦Ľ":4467,"àª":4468,"à¦¨à¦ľà¦²":4469,"à¦²à¦ªà¦¦":4470,"à¦¼à¦ĥà¥¤":4471,"à¦®à¦¸à¦¨":4472,"à¦®à¦¶à¦²":4473,"à¦®à¦ĺà¦Ł":4474,"Ġà¦ķà¦ŀ":4475,"Ġà¦¸à¦ĩà¦¬":4476,"à¦¸à¦ľà¦¨":4477,"à¦¸à¦¹à¦¯":4478,"à¦¦à¦ĺ":4479,"à¦¦à¦¹à¦¨":4480,"Ġà¦¨à¦¶":4481,"à¦ĩà¦Ļ":4482,"à¦ľà¦ĺ":4483,"Ġà¦¤à¦¹à¦¬":4484,"Ġà¦ħà¦¤à¦¨":4485,"à¦¡à¦ķà¦°":4486,"à§Łà¦Ł":4487,"à¦£à¦£":4488,"Ġà¦ıà¦ķà¦ĺà¦£":4489,"Ġà¦ĺà¦°à¦ķ":4490,"Ġà¦ıà¦ĩà¦ļ":4491,"à¦®à¦¨à¦Ń":4492,"à¦Ŀà¦®":4493,"à¦ŀà¦¸":4494,"à¦īà¦ĩà¦¯":4495,"à¦īà¦Ńà§Ł":4496,"Ġà¦Ĩà¦²à¦¨":4497,"à¦Ĩà§Łà¦¨":4498,"à¦°à¦¬à¦Ń":4499,"à¦ıà¦ª":4500,"Ġà¦¬à¦²à¦²à¦°":4501,"Ġà¦ĩà¦¸à¦°":4502,"à¦·à¦£à¦Ł":4503,"à¦ĥ!":4504,"Ġà¦ªà¦¥à¦ĵ":4505,"à¦ķà¦°à¦Ł":4506,"à¦ķà¦°à¦Ń":4507,"Ġà¦ľà¦²à¦Ń":4508,"à¦Ĺà¦²à¦¦":4509,"à¦¹à¦¸à¦ĩ":4510,"à¦®à¦²à¦Ĺ":4511,"à¦°à¦ľà¦²":4512,"à¦ļà¦²à¦Ł":4513,"à¦ĩà¦¨à¦«":4514,"à¦ıà¦ķà¦ĸ":4515,"à¦ıà¦ķà¦¦à¦®":4516,"à¦°à¦®à¦£à¦ª":4517,"à§¨à§¨":4518,"Ġà¦Ĩà¦ªà¦²":4519,"à§ĩ?âĢĿâĢĶ":4520,"Ġà¦¦à¦®à¦¦à¦®":4521,"à¦¥à¦²à¦ľ":4522,"à§ªà§«":4523,"Ġà¦Ĩà¦ĩà¦¨à¦ķ":4524,"Ġthey":4525,"Ġab":4526,"ĠpH":4527,"Ġfrom":4528,"ight":4529,"********":4530,"Ġà¦¨à¦¬à¦¬à¦§":4531,"Ġì":4532,"à¦¾à¦¾":4533,"à¦²à¦Ńà¦°":4534,"à§ģ!âĢĻ":4535,"Ġà¦¬à¦ļ":4536,"Ġà¦¸à¦¶à¦¬":4537,"Ġà¦Ĩà¦¤à¦°":4538,"à¦ªà¦§":4539,"à¦¶à¦ļà¦¨":4540,"Ġà¦ħà¦ķà¦°":4541,"à¦¡à¦ĩ":4542,"Ġà¦Ĺà¦¤à¦¬":4543,"Ġà¦¶à¦¬à¦°":4544,"Ġà¦ļà¦¯":4545,"Ġà¦ļà¦·":4546,"Ġà¦Ĩà¦®à¦²à¦ķ":4547,"Ġà¦ĵà¦¤à¦ª":4548,"Ġà¦ħà¦¨à¦Łà¦¨":4549,"à¦¬à¦¨à¦Ĺ":4550,"à¦¼à¦¿âĢĵ":4551,"Ġà¦ķà¦°à¦¤à¦²":4552,"à¦°à¦®à§Ł":4553,"à¦¨à¦¤à¦¨":4554,"à¦¨à¦¤à¦¤":4555,"Ġà¦¬à¦¨à¦ľ":4556,"Ġà¦¨à¦¤à¦ľ":4557,"Ġà¦ªà¦¥à¦Ĺ":4558,"Ġà¦Ĺà¦²à¦Ĺà¦²":4559,"à¦ķà¦Łà¦¬à¦°":4560,"à¦§à¦ķà¦ķ":4561,"à¦°à¦¹à¦¬":4562,"à¦²à¦¨à¦ĩ":4563,"à¦§à¦¨à¦Ĺ":4564,"Ġà¦ķà¦²à¦°":4565,"à¦¸à¦®à¦Ĺ":4566,"Ġà¦ħà¦ľà¦Ĺà¦°":4567,"Ġà¦ªà¦¦à¦¸":4568,"à¦¤à¦®à¦¶":4569,"à¦°à¦Ĺà¦®":4570,"à§¨à§§":4571,"à§¨à§Ń":4572,"à¦¨à¦Ńà¦Ļ":4573,"à¤¹":4574,"à¦¦à¦Ĺà¦¦":4575,"à¦¿âĢĻâĢĶ":4576,"à¦¬à¦Łà¦Ĺ":4577,"ong":4578,"à¦¬à¦ľà¦¨à¦¦":4579,"Ġà¦Ĭà¦¨à¦¬":4580,"Ġà§¨à§«":4581,"ition":4582,"our":4583,"à¦Ĺà¦łà¦¨à¦Ĺ":4584,"à¦Ĺà¦ªà§İ":4585,"Ġà§§à§§":4586,"Ġà¦¸à¦«à¦Łà¦ĵà§Ł":4587,",âĢĵ":4588,"ove":4589,"Ġal":4590,"à¦¨à¦®à¦Ĺ":4591,"à¦²à¦ļà¦°":4592,"à¦ķà¦¤à¦¬":4593,"à¦¯à¦Ĺà¦¨":4594,"à§ģâĢĿ":4595,"à¦¬à¦ļà¦°":4596,"Ġà¦ķà¦¸à¦®":4597,"Ġà¦¸à¦ķà¦°":4598,"à¥ģ":4599,"à¦Łà¦ķà¦Ł":4600,"Ġà¦®à¦ľà¦¨":4601,"à¦ªà¦®à¦¯":4602,"Ġà¦¦à¦¶à¦¬":4603,"Ġà¦¹à¦°à¦¤":4604,"Ġà¦ħà¦¹à¦®":4605,"à¦Ĺà¦§":4606,"à¦Ĺà¦°à¦¦":4607,"à¦·à¦§à¦°":4608,"à¦§à¦®à¦¯":4609,"à¦§à¦¶à¦¤":4610,"à§Łà¦¹":4611,"à§Łà¦ĵ":4612,"à¦Ńà¦¶":4613,"Ġà¦ĵà¦Ŀ":4614,"Ġà¦¥à¦ĩ":4615,"Ġà¦¬à¦²à§Ł":4616,"à¦¾à¥¤âĢĺ":4617,"à§ľà¦¯à¦¨":4618,"à¦¤à¦°à¦¯":4619,"à¦¤à¦°à¦¬à¦Ļ":4620,"à¦īà¦¥":4621,"à§İà¦ľ":4622,"Ġà¦¸à¦¬à¦¦":4623,"Ġà¦Łà¦ªà¦Łà¦ª":4624,"à¦ĺà¦ľ":4625,"Ġà¦§à¦°à¦®":4626,"à¦¬à¦²à¦ķ":4627,"Ġà¦ıà¦¬à¦¡":4628,"à¦°à¦®à¦ª":4629,"à¦°à¦®à¦ĩ":4630,"à¦ķà¦²à¦¸":4631,"à¦²à¦ķà¦ļ":4632,"à¦°à¦¸à¦¤":4633,"Ġà¦ľà¦²à¦ĵ":4634,"à¦²à¦¨à¦¸":4635,"à¦ļà¦²à¦®":4636,"Ġà¦ķà¦®à¦ªà¦ķ":4637,"à§ģâĢĻ-":4638,"Ġà¦īà¦ªà¦°à¦ĩ":4639,"à§°à¦¯":4640,"à¦īà¦²à¦°":4641,"Ġà§§à§¬":4642,"à¤¯":4643,"ans":4644,"Ġà¦ķà§Łà¦²":4645,"à¦ıà¦¸à¦¸":4646,"Ġà¦°à¦®à¦°à¦®":4647,"à¦ĩà¦ľà¦¨à¦ĩ":4648,"ical":4649,"ction":4650,"Ġà¦ķà¦ļà¦ķà¦ļ":4651,"Ġà¦¬à¦Ľà¦°à¦ĩ":4652,"ap":4653,"ib":4654,"iz":4655,"kh":4656,"ry":4657,"rit":4658,"ual":4659,"Ð»":4660,"ÙĨ":4661,"à¦°à¦Ĺà¦²":4662,"à¦¤à¦£":4663,"à¦¤à¦ļà¦¨":4664,"à¦¤à¦®à¦ķ":4665,"à¦²à¦¤à¦°":4666,"à¦ķà¦¤à¦¨":4667,"à¦®à¦°à¦®":4668,"Ġà¦ķà¦·à¦¤":4669,"Ġà¦ķà¦¤à¦°à¦ķà¦®":4670,"Ġà¦¸à¦¶":4671,"Ġà¦¸à¦ĵà¦¦":4672,"Ġà¦Ĩà¦ĵ":4673,"à¦¦à¦Ļ":4674,"à¦¦à¦«":4675,"à¦Łà¦°à¦¸":4676,"Ġà¦¨à¦ļ":4677,"Ġà¦®à§Łà¦¨":4678,"à¦ªà¦¬à¦°":4679,"Ġà¦¤à¦²à¦¬":4680,"à¦Ĺà¦®à¦¯":4681,"à¦¡à¦ĵà¦¯":4682,"à¦¹à¦ĸ":4683,"Ġà¦ķà¦°à¦®":4684,"à§Łà¦£à¦¤":4685,"Ġà¦Ĺà¦¦à¦Ĺà¦¦":4686,"à¦£à¦ľ":4687,"à¦Ńà¦²à¦¬":4688,"Ġà¦ıà¦ķà¦¤à¦°à¦«":4689,"à¦¼à¦¾à¥¤âĢĻ":4690,"Ġà¦īà¦¯":4691,"Ġà¦ĵà¦¥":4692,"Ġà¦«à§ľ":4693,"Ġà¦ªà¦°à¦®à¦¹":4694,"à¦ŀà¦¦":4695,"à¦ŀà¦¬à¦²":4696,"à¦īà§İà¦ª":4697,"Ġà¦Ĩà¦²à¦Ļ":4698,"à¦Ĩà¦ĺ":4699,"Ġà¦¬à¦²à¦²à¦ª":4700,"à§Īà¥¤":4701,"Ġà¦ĩà¦¸à¦®":4702,"ĠâĢĺâĢĺ":4703,"à¦°à¦®à¦¥à¦°":4704,"Ġà¦ľà¦²à¦¢":4705,"Ġà¦ľà¦²à¦Ľà¦Ł":4706,"à¦°à¦¶à¦®":4707,"Ġà¦ħà¦ªà¦Ł":4708,"Ġà¦ħà¦ªà¦ķà¦°":4709,"à¦ıà¦ĩà¦°à¦ķà¦®":4710,"Ġà¦Ĳà¦¸à¦¬":4711,"Ġà¦īà§İà¦ķà¦Ł":4712,"Ġà¦ħà¦Ĺà¦£à¦¨":4713,"à¦ıà¦ķà¦ķ":4714,"à¦ıà¦ķà¦¥":4715,"Ġà¦¶à¦¹à¦°à¦Ĺ":4716,"à§İà¦ķà¦®":4717,"Ġà¦ĵà¦ĩà¦¸à¦¬":4718,"à¦ķà¦¦à¦®":4719,"à§Ģ--":4720,"Ġà¦Īà¦ª":4721,"Ġà¦¶à¦¹à¦°à¦¬":4722,"à¦¬à¦¹à¦®":4723,",âĢĿâĢĶ":4724,"Ġà¦·à¦£":4725,"à¦¾âĢĿâĢĵ":4726,"Ġà¦°à¦¤à¦¨à¦ķ":4727,"Ġà¦ľà¦Ĺà§İà¦Ł":4728,"oug":4729,"Ġà¦®à¦¦à¦¨à¦ķ":4730,"ress":4731,"but":4732,"con":4733,"Ġ+":4734,"Ġ1":4735,"Ġj":4736,"à¦°à¦Ĺà¦°":4737,"à¦¨à¦ĩà¦²":4738,"à¦²à¦ķà¦²":4739,"à¦²à¦ľà§Ł":4740,"à¦¼à§įâĢĮ":4741,"Ġà¦¬à¦ª":4742,"Ġà¦¬à¦Ń":4743,"à¦¦à¦¨à¦¬":4744,"à¦¦à¦®à¦¤":4745,"Ġà¦¨à¦¬à¦¸":4746,"à¦ªà¦¬à¦¨":4747,"à¦ªà¦Łà¦²":4748,"à§Ģ!âĢĿ":4749,"à¦Ľà¦²à¦Ľà¦²":4750,"Ġà¦ħà¦¢":4751,"à¦·à¦°à¦¹":4752,"à¦¡à¦¦":4753,"à¦£à¦¤à¦°":4754,"Ġà¦°à¦®à¦¨":4755,"Ġà¦°à¦ĩà¦¬":4756,"à§ĩ,âĢĶ":4757,"à¦¬à¦¨à¦¶":4758,"Ġà¦ĺà¦¨à¦¤":4759,"à¦īà¦Łà¦°":4760,"à¦Ĩà¦°à¦£":4761,"à¦Ĩà¦²à¦¤":4762,"à¦°à¦¬à¦²à¦Ń":4763,"à¦°à¦ķà¦¦":4764,"âĢĻ!âĢĿ":4765,"à§Īà¦ĥà¥¤":4766,"Ġà¦ĩà¦Ĺ":4767,"à¦°à¦®à¦¸":4768,"à¦·à¦£à¦¤":4769,"à¦·à¦£à¦Ń":4770,"à¦¨à¦¤à¦¤à¦°":4771,"à¦¤à¦¨à¦ĵ":4772,"à¦ħà¦¬à¦¹":4773,"à¦²à¦ķà¦Ń":4774,"Ġà¦Ĩà¦ªà¦¨à¦®à¦¨":4775,"à¦ķà¦¤à¦Ł":4776,"à¦¯à¦ķà¦¥":4777,"à¦°à¦¯à¦¨":4778,"à¦¬à¦¤à¦¶":4779,"Ġà¦¸à¦¹à¦¨":4780,"Ġà¦¸à¦¹à¦¦":4781,"à¦¸à¦¨à¦¯à¦¨":4782,"à¦Ńà¦¬à¦ķ":4783,"Ġà¦ªà§ľà¦¨":4784,"Ġà¦Ĳà¦¦":4785,"Ġà¦Ĳà¦Ł":4786,"Ġà¦Ĳà¦°à¦ķà¦®":4787,"Ġà¦°à¦Ļà¦Ł":4788,"à¦ªà¦¥à¦¹":4789,"à¦ıà¦ķà¦ľ":4790,"à¦®à¦£à¦Ĺ":4791,"Ġà¦Ĩà¦§à¦Ł":4792,"à§ĩâĢĵâĢĻ":4793,"Ġà¦¦à¦¶à¦¦":4794,"à§¨à§ª":4795,"Ġà¦¦à¦°à¦ĸ":4796,"Ġà¦°à¦¸à¦¸":4797,"à§«à§¬":4798,"à¤Ĥ":4799,"ang":4800,"Ġà¦·à§ľà¦¯à¦¨":4801,"Ġà¦¸à§İà¦Ń":4802,"à§Ģ!âĢĻ":4803,"ory":4804,"Ġbut":4805,"à¦¿âĢĿâĢĶ":4806,"ings":4807,"Ġà¤¸":4808,"ĠBo":4809,"oss":4810,"ife":4811,"Ġà¦ļà¦Łà¦ķà¦¦":4812,"æŃĵæŃĵæŃĵæŃĵæŃĵæŃĵæŃĵæŃĵ":4813,"ach":4814,"Åĵ":4815,"Ð½":4816,"à¦¿...":4817,"à¦¤à¦®à¦£":4818,"à¦²à¦£":4819,"à¦²à¦ĺà¦°":4820,"à¦ķà¦¸à¦¬":4821,"à¦¯à¦¤à¦¨":4822,"à¦¯à¦Ńà¦°":4823,"Ġà¦ķà¦ĩà¦¤":4824,"Ġà¦¸à¦ªà¦¤":4825,"à¦¸à¦®à¦¨":4826,"Ġà¦ªà¦¸":4827,"Ġà¦ªà¦¸à¦°":4828,"à¦Łà¦§à¦°":4829,"à¦ªà¦²à¦¬":4830,"à¦ľà¦ªà¦¤":4831,"Ġà¦¤à¦¯":4832,"à¦ĸà¦¢":4833,"à¦Ĺà¦°à¦ķ":4834,"à¦Ĺà¦¹à¦¨":4835,"à¦Ĺà¦«à¦²":4836,"à¦§à¦ªà¦°":4837,"à¦§à¦¨à¦ĵ":4838,"à¦§à¦¬à¦¤":4839,"à¦¹à¦ļ":4840,"Ġà¦°à¦ĩ":4841,"Ġà¦ıà¦ķà¦§":4842,"à¦¼à¦¾âĢ¦":4843,"Ġà¦²à¦ĩ":4844,"Ġà¦ĵà¦§":4845,"Ġà¦«à¦ĸà¦°":4846,"à¦°à¦¤à¦Ń":4847,"Ġà¦§à¦®":4848,"à¦¬à¦¨à¦°":4849,"à¦¬à¦¨à¦ľ":4850,"à¦¬à¦¨à¦¡":4851,"à§ľà¦Ĺ":4852,"à¦Ŀà¦¬à¦¯":4853,"à¦īà¦¨à¦²":4854,"à§İà¦¶":4855,"à¦Ĩà¦ªà¦¦":4856,"à¦Ĩà¦¬à¦Ľ":4857,"Ġà¦¬à¦²à¦²à¦¸":4858,"Ġà¦¬à¦²à¦²à¦Ĩà¦ªà¦¨":4859,"Ġà¦¹à¦²à¦ĺà¦°":4860,"à§ģà¦ģà¥¤âĢĻ":4861,"Ġà¦Ĩà¦ľà¦®":4862,"à¦ħà¦²à¦ķ":4863,"à¦ķà¦Łà¦°":4864,"à¦°à¦¨à¦Ĺà¦°":4865,"Ġà¦Ĩà¦¶à¦¯":4866,"Ġà¦ħà¦¤à¦²à¦¸":4867,"Ġà¦®à¦¹à¦®":4868,"Ġà¦¸à¦°à¦·":4869,"Ġà¦ıà¦¤à¦¸à¦¬":4870,"Ġà¦ĵà¦°à¦«":4871,"à¦ªà¦ķà¦ķ":4872,"à¦¤à¦¤à¦¤":4873,"à¦¸à¦«à¦²à¦¤":4874,"Ġà¦¦à¦²à¦Ĺ":4875,"à¦¼à¦¾,âĢĿ":4876,"Ġà¦¸à¦®à§Łà¦ķ":4877,"Ġà¦ıà¦ķà¦ĩà¦°à¦ķà¦®":4878,"à§ĭâĢĶâĢĺ":4879,"Ġà¦§à¦¨à¦Ń":4880,"Ġà¦°à¦ĵà¦¶à¦¨à¦¦":4881,"Ġà¦¸à¦°à¦²à¦Ń":4882,"Ġà¦ªà¦°à¦¶à¦®à¦£":4883,"Ġà¦ıà¦°à¦ķà¦®à¦ĩ":4884,"à§¬à§¦":4885,"à¦¿?âĢĿâĢĶ":4886,"à¦¨à¦ľà¦¨à¦ĩ":4887,"à¦Ĳà¦¶":4888,"Ġà¦ıà¦ķà¦¦à¦®à¦ĩ":4889,"Ġà¦Ĺà¦ľà¦Ĺà¦ľ":4890,"Ġà¦¤à¦ªà¦¨à¦¬":4891,"Ġcan":4892,"Ġcol":4893,"à¦ķà¦ĵà¦¦":4894,"à¦Īà¦¦":4895,"à§§à§¯à§Ń":4896,"ĠRe":4897,"Ġà¦Ľà§Łà¦Ł":4898,"Ġà¦¹à¦ľà¦°à¦¤":4899,"ishakh":4900,"ies":4901,"ÙĦ":4902,"ĠU":4903,"ĠV":4904,"Ġà§·":4905,"Ġim":4906,"à¦¨à¦°à¦ķ":4907,"à¦¤à¦ªà¦¥":4908,"à¦ķà¦¨à¦ķ":4909,"à¦ķà¦ªà¦Ł":4910,"à¦¯à§İà¦ķ":4911,"à¦¬à¦Ĺà¦£":4912,"à¦®à¦ľà¦¨":4913,"à¦®à¦Ĺà¦¨":4914,"à¦®à¦ĺà¦°":4915,"à¦®à§İà¦¸":4916,"à§ĭâĢĿà¥¤":4917,"Ġà¦¸à¦¸à¦®":4918,"à¦¸à¦ľà¦²":4919,"Ġà¦ªà¦Łà¦ķ":4920,"Ġà¦Ĩà¦ĸà¦°":4921,"à¦¦à¦ĺà¦¨":4922,"à¦Ľà¦ĵ":4923,"Ġà¦¦à¦²à¦ķ":4924,"Ġà¦¹à¦ª":4925,"Ġà¦¤à¦°à¦¤":4926,"Ġà¦¤à§İà¦¸":4927,"Ġà¦ıà¦¥":4928,"à¦¶à¦®à¦¤":4929,"Ġà¦ħà¦ľà¦¨":4930,"à¦§à¦¡":4931,"à§Łà¦¶":4932,"à¦£à§Ł":4933,"à¦£à¦ķà¦²":4934,"à¦ĵà¦ľ":4935,"à¦Ńà¦ľà¦¨à¦ķ":4936,"à§ĩ,âĢĵ":4937,"Ġà¦ĸà¦ĩ":4938,"Ġà¦ĸà¦°à¦¸":4939,"Ġà¦ħà¦¨à¦Ĺ":4940,"à¦¬à¦¨à¦Ń":4941,"à¦¬à¦¨à¦²à¦¤":4942,"Ġà¦ıà¦ĩà¦°":4943,"Ġà¦ıà¦ĩà¦Ĺ":4944,"à§İà¦¸à¦¨":4945,"à¦Ĩà¦¸à¦¤":4946,"à¦ıà¦¨à¦ľ":4947,"âĢĿ!":4948,"à¦¬à¦°à¦¨":4949,"à¦¬à¦°à¦·":4950,"Ġà¦¡à¦²à¦«":4951,"Ġà¦Ĩà¦¬à¦¹à¦®":4952,"Ġà¦ħà¦¸à¦¤à¦¤":4953,"à¦¯à¦¬à¦ĩà§Ł":4954,"à¦¨à¦¬à¦ļ":4955,"Ġà¦¶à¦¬à¦¦":4956,"à¦ļà¦¨à¦ľà¦Ļ":4957,"Ġà¦Ńà¦°à¦Ľ":4958,"Ġà¦ķà¦®à¦°":4959,"à¦°à¦Ńà¦Ļ":4960,"à¦°à¦ĵà¦¶à¦¨":4961,"Ġà¦ĩà¦¨à¦¡":4962,"à¦ľà¦²à¦ª":4963,"à§°à¦ľ":4964,"Ġà¦¶à¦¤à¦¶":4965,"à§¨à§®":4966,"Ġà¦Ĺà¦£à¦ľ":4967,"Ġà¦¬à¦īà¦ł":4968,"Ġà¦ªà¦¶à¦®":4969,"à¦¬à¦¹à¦£":4970,"à§ĩâĢ¦à¥¤":4971,"Ġà¦ľà§Łà¦¯":4972,"à¦®à¦¦à¦ķ":4973,"à§ªà§¨":4974,"à§ªà§Ń":4975,"Ġà¦ļà¦Łà¦ľà¦²à¦¦":4976,"iter":4977,"Ġà¦°à¦¥à¦¯":4978,"Ġà¦¬à¦¶à¦¬à¦°":4979,"ount":4980,"Ġhas":4981,"à§°à¦¹à¦£":4982,"Ġà¦ľà¦¬à¦°à¦¦à¦¸":4983,"lective":4984,"ĠBoishakh":4985,"!'":4986,".âĢĻ":4987,"act":4988,"ohe":4989,"ya":4990,"Ġ×":4991,"à¦Ķ":4992,"à¦¨à¦°à¦¤":4993,"à¦¨à¦Ŀ":4994,"à¦¨à¦¡à¦°":4995,"à¦ķà¦Ŀ":4996,"à¦¬à¦¤à¦°":4997,"à¦¼à§Ī":4998,"à¦¸à¦ªà¦¨":4999,"Ġà¦Ĩà¦Łà¦²":5000,"Ġà¦Ĩà¦ĩà¦°":5001,"à¦¦à¦¬à¦ª":5002,"à¦¦à¦¸à¦®":5003,"Ġà¦¨à¦¬à¦ª":5004,"Ġà¦®à¦°à¦¸":5005,"Ġà¦®à¦°à¦¶":5006,"à¦ªà¦ļà¦°":5007,"à¦ĩà¦ªà¦°":5008,"à§ĢâĢ¦":5009,"à¦ľà¦Ńà¦¬à¦¨":5010,"Ġà¦¹à¦°à¦²":5011,"Ġà¦¤à¦ķà¦®":5012,"à¦¼à§ĩ:":5013,"à¦ĸà¦°à¦¤":5014,"à¦Ĺà¦°à¦¬":5015,"à¦·à¦¤à¦²":5016,"à¦¡à¦²à¦ķ":5017,"à¦£à¦ł":5018,"à¦£à¦®à¦¨":5019,"Ġà¦¶à¦¤à¦°":5020,"à¦¼à¦¾à¥¤âĢĿ":5021,"Ġà¦¬à¦²à¦Ł":5022,"Ġà¦«à¦¸à¦«":5023,"Ġà¦®à¦¨à¦¨à¦ķ":5024,"à¦°à¦£à¦ªà¦¤":5025,"Ġà¦ıà¦ĩà¦¸à¦®à¦¯":5026,"à¦¤à¦°à¦²":5027,"à¦¤à¦°à¦¹":5028,"à¦īà¦²à¦ķ":5029,"Ġà¦Ĩà¦²à¦ĸ":5030,"à¦Ĩà¦°à¦¤":5031,"à¦°à¦ķà¦°à¦£":5032,"à¦¬à¦°à¦¦":5033,"Ġà¦¬à¦²à¦²à¦¨":5034,"à¦¬à¦²à¦¦":5035,"âĢĵâĢľ":5036,"Ġà¦¬à¦¨à¦«":5037,"Ġà¦¬à¦¨à¦ªà¦¥":5038,"Ġà¦ħà¦¸à¦¦":5039,"à¦²à¦ķà¦ª":5040,"à¦°à¦¸à¦Ĺ":5041,"Ġà¦ħà¦¦à¦ķ":5042,"Ġà¦ľà¦²à¦Ńà¦°":5043,"à¦²à¦¬à¦ķ":5044,"à¦§à¦¨à¦Ł":5045,"à¦°à¦ľà¦¤":5046,"à¦°à¦¦à¦²":5047,"Ġà¦ħà¦ªà¦ķ":5048,"Ġà¦Ĳà¦ĸ":5049,"Ġà¦¬à¦Ľà¦°à¦Ĺ":5050,"à¦ªà¦¦à¦ļ":5051,"Ġà¦ħà¦Ĺà¦¸":5052,"à¦·à¦¤à¦ļ":5053,"Ġà¦«à¦²à¦Ł":5054,"à¦¿âĢĶâĢĺ":5055,"Ġà¦ĵà¦ĩà¦ĸ":5056,"Ġà¦¶à¦¤à¦ª":5057,"à¦¨à¦¸à¦ĩ":5058,"à¦°à¦®à¦£à¦ĩ":5059,"à§¨à§¬":5060,"à¦ľà¦¬à¦§":5061,"Ġà¦Ĩà¦ªà¦¶":5062,"à¦Łà¦®à¦¹à¦²":5063,"one":5064,"Ġà¦ľà¦Ĺà§İà¦ķ":5065,"Ġà¦°à¦¹à¦®à¦¤":5066,"ound":5067,"Ġà¦ķà¦¬à¦°à¦¸":5068,"Ġdo":5069,"Ġthis":5070,"Ġà§ªà§¦":5071,"own":5072,"ide":5073,"cial":5074,"ĠĠĠĠĠĠĠĠĠĠĠĠĠĠĠĠ":5075,"!âĢĵ":5076,"12":5077,"dv":5078,"ear":5079,"ial":5080,"ru":5081,"ter":5082,"ub":5083,"ue":5084,"ven":5085,"Ùħ":5086,"ÛĮ":5087,"æĹ":5088,"à§±":5089,"à¦¤à¦¤à¦ķ":5090,"à¦²à¦Ĺà¦¤":5091,"à¦²à¦¸à¦®":5092,"à¦²à¦ļà¦ķ":5093,"à¦ķà¦Ļ":5094,"à¦ķà¦¸à¦¨":5095,"à¦¬à¦¥":5096,"à¦¬à¦®à¦¨":5097,"à¦¬à¦ķà¦¬":5098,"Ġà¦ķà¦ļà¦²":5099,"Ġà¦¸à¦¶à¦°":5100,"à¦¦à¦ķà¦¤":5101,"à¦¦à¦¶à¦Ł":5102,"Ġà¦®à¦Ł":5103,"à¦ĩà¦Ŀ":5104,"à¦ĩà¦īà¦¨":5105,"à¦ľà¦¶à¦ķ":5106,"Ġà¦¤à¦®à¦¸":5107,"à¦ĸà¦°à¦ļ":5108,"à¦Ĺà¦¤à¦°":5109,"à¦·à¦Ľ":5110,"Ġà¦¯à¦¸":5111,"à¦ļà¦ķà¦¤":5112,"à¦¹à¦ĵà¦¯":5113,"à¦¹à¦Ńà¦°":5114,"Ġà¦Ĺà¦°à¦²":5115,"à¦£à¦¬à¦¤":5116,"à¦¥à¦¡":5117,"Ġà¦¶à¦¤à¦¬":5118,"à¦ĵà¦Ľ":5119,"à¦ĵà¦Ń":5120,"à¦Ńà¦ª":5121,"à¦Ńà¦ĩ":5122,"à¦Ńà¦ľà¦¨":5123,"Ġà¦ıà¦ķà¦°à¦¤":5124,"à¦łà¦ĸ":5125,"Ġà¦«à¦²à¦¬":5126,"Ġà¦ħà¦¨à¦¶à¦¨":5127,"Ġà¦ªà¦°à¦Ľ":5128,"âĢĶâĢĿ":5129,"Ġà¦®à¦¨à¦ª":5130,"à¦°à¦£à¦¹":5131,"à¦ľà¦¨à¦¸":5132,"à¦ľà¦¨à¦Ł":5133,"à¦ľà¦¨à¦ķà¦Ń":5134,"à¦īà¦¨à¦Ł":5135,"à¦¿,-":5136,"Ġà¦¬à¦²à¦²à¦¯":5137,"Ġà¦¬à¦²à¦²à¦Ĩà¦®à¦°":5138,"à¦ĺà¦¤à¦°":5139,"à§Į-":5140,"Ġà¦Ŀà¦°à¦¬":5141,"Ġà¦¬à¦¸à¦¤à¦¬":5142,"à¦¤à¦¨à¦Ł":5143,"Ġà¦¬à¦¨à¦Ĺ":5144,"Ġà¦ªà¦¥à¦¨":5145,"à¦¤à¦¬à¦¯":5146,"à¦Ĺà¦²à¦®à¦¯":5147,"à¦¿à¦Ĥ!":5148,"à¦Ľà¦¨à¦¦":5149,"à¦¯à¦¤à¦¤":5150,"à¦ķà¦¬à¦ļ":5151,"à¦¿---":5152,"Ġà¦ħà¦ľà¦°":5153,"Ġà¦ĵà¦ªà¦°à¦ĩ":5154,"à¦°à¦Ńà¦°":5155,"à¦ªà¦¦à¦ĵ":5156,"à¦ıà¦ķà¦¶":5157,"Ġà¦¬à¦ĩà¦ªà§ľ":5158,"à¦ļà¦ķà¦£":5159,"à¦¬à¦ķà¦£":5160,"à¦¹à¦¨à¦²":5161,"Ġà¦¨à¦¬à¦ļ":5162,"Ġà¦ļà¦ķà¦®à¦ķ":5163,"Ġà¦¬à¦īà§Ł":5164,"Ġà¦°à¦¸à¦¦":5165,"à§ĩâĢ¦âĢĻ":5166,"Ġà§§à§¯à§¦à§«":5167,"à¦¨à¦ªà¦ŀ":5168,"à¦ľà§Łà¦ķ":5169,"à¦¬à¦ľà¦¨à¦ª":5170,"Ġà¦ĵà¦·à¦§":5171,"Ġsom":5172,"à§ĩâĢĻâĢĶ":5173,"Ġlife":5174,"ĠInd":5175,"à¦īà¦ªà¦¹":5176,"ĠTh":5177,"Ġà¦ľà¦¨à¦ªà¦¦à¦¬":5178,"Ġà¦ĸà¦ļà¦ĸà¦ļ":5179,"Ġà¦ıà¦ķà¦Ŀà¦²à¦ķ":5180,"Ġcollective":5181,"ohela":5182,")âĢĵ":5183,"16":5184,"17":5185,"cc":5186,"ud":5187,"Ð¸":5188,"ÙĪ":5189,"Ú©":5190,"Ġë":5191,"à§įâĢĻ":5192,"à¦¨à¦Ĩà¦®":5193,"à¦²à¦¨à¦¬":5194,"à¦²à¦®à¦°":5195,"à¦ķà¦ķà¦²":5196,"à¦¯à¦®à¦¤":5197,"à¦¯à¦ªà¦¤":5198,"à¦¯à¦ªà¦¦":5199,"à¦¬à¦ĩà¦¨":5200,"à§ĭâĢĻà¥¤":5201,"Ġà¦ķà¦ĩà¦²":5202,"Ġà¦¬à¦ľà¦°":5203,"Ġà¦ªà§Łà¦²":5204,"Ġà¦Ĩà¦«à¦Ł":5205,"Ġà¦®à¦Łà¦ķ":5206,"Ġà¦ıà§Ł":5207,"à¦¶à¦¡":5208,"Ġà¦ħà§Ł":5209,"à¦Ĺà¦°à¦¤":5210,"à¦Ĺà¦¸à¦¨":5211,"à¦Ĺà¦Ńà¦°":5212,"à¦§à¦ľ":5213,"à¦§à¦¸à¦®":5214,"à¦§à¦ľà¦¯":5215,"à¦¹à¦¨à¦¦":5216,"à¦£à¦®à§Ł":5217,"Ġà¦Ńà¦¡":5218,"Ġà¦°à¦®à¦²":5219,"Ġà¦°à¦Łà¦¨":5220,"à§ĩà¥¤âĢ¦":5221,"Ġà¦īà¦Łà¦ķ":5222,"Ġà¦īà¦ľà¦²":5223,"Ġà¦īà¦Ľà¦²":5224,"Ġà¦ĵà¦ľ":5225,"Ġà¦ĵà§ľà¦¨":5226,"Ġà¦ĸà¦Ĺ":5227,"Ġà¦ħà¦¨à§ľ":5228,"Ġà¦§à§°":5229,"à¦īà¦Ń":5230,"à¦īà¦ŀ":5231,"Ġà¦Ĩà¦²à¦ª":5232,"à¦Ĩà¦ł":5233,"à¦°à¦ķà¦¯":5234,"Ġà¦¬à¦²à¦²à¦¶":5235,"Ġà¦ķà¦¥à¦ŀ":5236,"Ġà¦ķà¦¥à¦ķà¦¤":5237,"Ġà¦ĩà¦¹à¦²":5238,"à¦¬à¦²à§Ł":5239,"Ġà¦ħà¦¬à¦Ĺà¦¤":5240,"à¦ķà¦²à¦¤":5241,"à¦ķà¦²à¦¹":5242,"à¦ķà¦²à¦°à¦¬":5243,"à¦¤à¦¬à¦°à¦£":5244,"à¦ķà¦¤à¦¦":5245,"à¦¦à¦¨à¦¦":5246,"Ġà¦¬à¦°à¦¯":5247,"Ġà¦¸à¦¨à¦¦":5248,"à¦§à¦ķà¦¦":5249,"à¦°à¦¹à¦ķ":5250,"à¦°à¦¹à¦°à¦£":5251,"Ġà¦ĺà¦°à¦¦":5252,"à¦¸à¦®à¦°":5253,"Ġà¦Ĳà¦°":5254,"à¦¦à§Łà¦¬":5255,"à¦Łà¦²à¦Ĺ":5256,"Ġà¦«à¦²à¦®":5257,"à§ģ,âĢĿ":5258,"à¦ļà¦ķà¦¦":5259,"Ġà¦ĩà¦¨à¦¶":5260,"Ġà¦ľà¦°à¦®à¦¨":5261,"Ġà¦¶à¦¹à¦°à¦ľ":5262,"à¤®":5263,"Ġà¦ľà§Łà¦¦":5264,"à¦²à¦ļà¦²à¦¨":5265,"à¦ľà§Łà¦Ĺ":5266,"ontu":5267,"Ġthere":5268,"ise":5269,"à¦ıà¦®à¦¨à¦ķ":5270,"Ġsh":5271,"Ġwill":5272,"ary":5273,"Ġà¦°à¦£à¦ľ":5274,"Ġdis":5275,"Ġhis":5276,"Ġà§ªà§«":5277,"Ġà¦ļà¦ªà¦²à¦¤":5278,"ike":5279,"able":5280,"æĹ¥":5281,"23":5282,"24":5283,"TE":5284,"Ġ)":5285,"Ġ*":5286,"ĠJ":5287,"Ġat":5288,"à¦°à¦°à¦ķ":5289,"à¦¨à¦®à¦¸":5290,"à¦¤à¦Ļ":5291,"à¦¤à¦ªà¦¦":5292,"à¦¤à§İà¦ķ":5293,"à¦²à¦¹à¦°":5294,"à¦®à¦ĵà§Ł":5295,"Ġà¦Ĩà¦ĩà¦ļ":5296,"à¦Łà¦°à¦¬":5297,"Ġà¦®à¦ĸ":5298,"à¦ªà¦ľà¦¨":5299,"à¦ªà¦¸à¦®":5300,"à§ĢâĢĻà¥¤":5301,"à§Ģà¥¥":5302,"Ġà¦¦à¦ĩà§Ł":5303,"à¦ľà¦²à¦ķ":5304,"à¦¶à¦ķà¦²":5305,"à¦·à¦°à¦ķ":5306,"à¦ļà¦Ļ":5307,"à¦ļà¦¤à¦®":5308,"à¦¹à¦¤à¦¤":5309,"à§Łà¦ľà¦¨":5310,"Ġà¦Ĺà¦°à¦¬":5311,"Ġà¦Ĺà¦ľà¦²":5312,"à¦£à¦ªà¦¨":5313,"à¦£à¦¤à¦®":5314,"Ġà¦¶à§Łà¦¨":5315,"Ġà¦ľà¦łà¦°":5316,"Ġà¦°à¦¦":5317,"à¦Ńà¦ªà¦¤":5318,"Ġà¦Ľà¦ª":5319,"à¦łà¦«":5320,"à¦łà¦¤à¦®":5321,"Ġà¦²à¦ĩà¦¬":5322,"Ġà¦«à¦ľà¦°":5323,"Ġà¦ħà¦¨à¦§":5324,"à¦¾à¥¤\"":5325,"Ġà¦ªà¦°à¦°":5326,"à¦¬à¦¨à¦ļ":5327,"Ġà¦®à¦¨à¦®à¦°":5328,"à¦¿à¥¤\"":5329,"à¦Ŀà¦Ł":5330,"à¦ľà¦¨à¦Ĺ":5331,"à¦ŀà¦°":5332,"à¦«à¦²à¦¤":5333,"à¦ĺà¦ª":5334,"Ġà¦ľà¦¨à¦¹":5335,"Ġà¦Ŀà¦Ĺà§ľ":5336,"à§ĭà¦ģ-":5337,"à¦ħà¦¬à¦²":5338,"Ġà¦ªà¦¥à¦ķ":5339,"à¦ķà¦Łà¦®à¦¯":5340,"à¦¯à¦¬à¦¶à¦¤":5341,"à§ĭ,âĢĻ":5342,"à¦²à¦ķà¦¬":5343,"à¦¨à¦¬à¦¬":5344,"Ġà¦ľà¦²à¦¨":5345,"Ġà¦ľà¦²à¦ĩ":5346,"Ġà¦ľà¦²à¦ªà¦¥":5347,"à¦¶à¦¨à¦ĩ":5348,"à¦°à¦¹à¦¤":5349,"Ġà¦ĺà¦°à¦ľ":5350,"à¦²à¦¬à¦£":5351,"à¦ĩà¦¨à¦°":5352,"à¦¹à¦²à¦¦":5353,"Ġà¦¶à¦°à§İà¦ķ":5354,"à¦ªà¦¥à¦ļ":5355,"à¦¨à¦ķà¦ķ":5356,"à¦¤à¦®à§Ł":5357,"à§°à¦¬à¦¨":5358,"à§°à¦¥à¦®":5359,"à¦ªà¦¸à¦¦":5360,"à¦¯à¦°à¦ļà¦¨":5361,"Ġà¦ķà¦¨à¦Ń":5362,"à¦Ĩà¦²à¦®":5363,"à¦Ĩà¦²à¦¸":5364,"Ġà¦Īà¦Ĺà¦°":5365,"à¦¾âĢĻâĢĵ":5366,"Ġà¦īà¦ªà¦¨à¦¯":5367,"à¤µ":5368,"à¤Ł":5369,"à¦·à¦¦à¦Ĺ":5370,"à¦¬à¦Ńà¦Ļ":5371,"à¦¸à¦¹à¦®à¦°":5372,"ink":5373,"Ġà¦¸à§İà¦ļ":5374,"Ġà¦®à¦¶à¦Ĺ":5375,"Ġà¦Ĩà¦ļà¦°à¦£à¦¬":5376,"Ġà§¨à§¬":5377,"Ġch":5378,"Ġà¦Ŀà¦ķà¦®à¦ķ":5379,"à¦ľà¦¦à¦£":5380,"Ġwor":5381,"Ġà¦®à¦Ĺà¦§à¦°":5382,"Ġà¦®à¦¦à¦¨à¦®":5383,"à§ĩâĢĿâĢĵ":5384,"à§§à§¯à§«à§¨":5385,"ĠPohela":5386,"uth":5387,"Ġever":5388,"Ġà§§à§©à§§à§¬":5389,"Ġà¦¸à¦¬à¦¸à¦®à§Łà¦ĩ":5390,"Ġwho":5391,"--------":5392,"ºçľºçľºçľºçľ":5393,"âĢĵâĢĵâĢĵâĢĵâĢĵâĢĵâĢĵâĢĵ":5394,"·çľ·çľ·çľ·çľ":5395,"ãģ®":5396,"Ġitself":5397,"Ġà¦¥à¦ķà¦¥à¦ķ":5398,",âĢĶ":5399,"15":5400,"18":5401,"19":5402,"20":5403,"af":5404,"au":5405,"aw":5406,"pl":5407,"Ñĥ":5408,"Ġà§Ł":5409,"Ġ---":5410,"à¦°à¦ħ":5411,"à¦°à¦ªà¦¦":5412,"à¦¿à¥¥":5413,"à¦¤à¦ĺ":5414,"à¦¤à¦ĺà¦¡":5415,"à¦ķà¦°à¦ķà¦®":5416,"à¦¯à¦£":5417,"à¦¯à¦°à¦ķ":5418,"à¦¬à§İà¦¸à¦°":5419,"Ġà¦¸à¦ªà¦°":5420,"à¥ĭ":5421,"à¥¤âĢĵ":5422,"à¦¸à¦¤à¦°":5423,"Ġà¦Ĩà¦ĩà¦ķ":5424,"Ġà¦®à¦ļà¦ķ":5425,"à¦ªà¦ķà¦¤":5426,"à¦ľà¦®à¦¨":5427,"Ġà¦¤à¦Łà¦¸":5428,"Ġà¦ħà¦Ľ":5429,"Ġà¦ħà¦¹à¦²":5430,"à¦ĸà¦Ńà¦°":5431,"à¦·à¦ļ":5432,"à¦·à¦«":5433,"à¦·à¦¸à¦ķ":5434,"âĢ¨":5435,"Ġà¦¯à§İà¦¸":5436,"Ġà¦¯à¦¶à¦¸":5437,"à¦ļà¦ķà¦²":5438,"à§Łà¦ļ":5439,"à¦¥à¦°à¦ķ":5440,"Ġà¦¶à¦ķà¦Ł":5441,"Ġà¦¶à¦®à¦¶":5442,"Ġà¦ļà¦ļ":5443,"à¦ĵà¦¸":5444,"à¦ĵà¦¸à¦¬":5445,"à¦Ńà¦°à¦£":5446,"à¦Ńà¦¨à¦²":5447,"Ġà¦ıà¦ķà¦ĸà¦£":5448,"Ġà¦Ľà¦²à¦ķ":5449,"Ġà¦īà¦ĩà¦¸":5450,"Ġà¦²à¦²à¦¨":5451,"Ġà¦²à¦ĩà¦²":5452,"Ġà¦ĸà¦ŀ":5453,"Ġà¦ĸà¦²à¦¨":5454,"Ġà¦¸à¦®à¦ľà¦¦":5455,"à§ľà¦¸":5456,"à¦¿à¥¤âĢĺ":5457,"Ġà¦Ĩà¦²à¦Ł":5458,"à§İà¦°":5459,"à§İà¦ķà¦°":5460,"Ġà¦¸à¦¬à¦¸":5461,"à¦¬à¦°à¦ļ":5462,"Ġà¦¹à¦²à¦ķ":5463,"Ġà¦¹à¦²à¦«":5464,"à¦¬à¦²à¦ª":5465,"à¦°à¦®à¦²":5466,"à¦ħà¦¬à¦¤":5467,"Ġà¦ħà¦¸à¦ļ":5468,"à¦¨à¦¬à¦¯":5469,"à¦¨à¦¬à¦ľà¦¨":5470,"à¦ķà¦¤à¦ĩ":5471,"à¦Ĩà¦®à¦²":5472,"Ġà¦ľà¦²à¦Ł":5473,"à¦²à¦¤à¦®":5474,"à¦°à¦¹à¦Ł":5475,"à¦²à¦¨à¦Ĺ":5476,"à¦°à¦¶à¦®à¦¨":5477,"à¦®à¦²à¦Ń":5478,"à¦²à¦¬à¦¦":5479,"Ġà¦Ĩà¦¤à¦¤":5480,"Ġà¦¹à¦łà¦ķ":5481,"à¦Ńà¦¬à¦ĩ":5482,"à¦Ńà¦¬à¦ªà¦°":5483,"à¦Ĺà¦°à¦ª":5484,"à¦°à¦ĵà¦°":5485,"à¦ªà¦¥à¦ļà¦²":5486,"à¦¼à§ĩà¥¤âĢĻ":5487,"Ġà¦Ĺà¦¨à¦Ĺà¦¨":5488,"à§Ģà¥¤âĢĻ":5489,"à¦¬à¦¸à¦Ļ":5490,"Ġà¦¬à¦ĩà¦ª":5491,"à¦°à¦ķà¦®à¦ĩ":5492,"à¦ĺà¦°à¦Ĺ":5493,"Ġà¦Ĩà¦¹à¦®à¦¦":5494,"à§¨à§©":5495,"Ġà¦¬à§ľà¦ĩ":5496,"Ġà¦¸à¦Ńà¦¯":5497,"Ġà¦Īà¦®":5498,"à§©à§©":5499,"hen":5500,"Ġà¦®à¦¶à¦ķà¦°":5501,"red":5502,"à¦īà¦¡à¦¸":5503,"ish":5504,"à¦¬à§Łà¦¬":5505,"à¦¿âĢĿâĢĵ":5506,"âĢįà§įâĢį":5507,"à¦°à¦¬à¦£à¦¶à¦ķ":5508,"etect":5509,"à¦ĩà¦°à¦ķà¦®à¦ĩ":5510,"Ġà¦īà¦Ńà§Łà¦ĩ":5511,"use":5512,"ult":5513,"æĹ¥ãģ®":5514,"'à¥¤":5515,"11":5516,"13":5517,"14":5518,"22":5519,"25":5520,";âĢĵ":5521,"?\"":5522,"ah":5523,"cy":5524,"we":5525,"way":5526,"Ã©":5527,"Ġ#":5528,"Ġle":5529,"à§ĩ),":5530,"à¦¨à¦®à¦£":5531,"à¦¤à¦¬à¦¨":5532,"à¦²à¦Ŀà¦°":5533,"à¦ķà¦¬à¦¨":5534,"à¦ķà¦¦à¦°":5535,"à¦¯à¦¸à¦Ļ":5536,"à¦¬à¦ľà¦¯":5537,"à¦¼âĢĿà¥¤":5538,"à¦®à¦¹à¦¸":5539,"Ġà¦¬à¦°à¦ķ":5540,"à¥Ĥ":5541,"à¥¤)":5542,"à¦¸à¦¯à¦ľ":5543,"à¦ľà§Łà¦¨":5544,"à¦ľà¦®à¦¹":5545,"à¦ľà¦īà¦¦":5546,"Ġà¦¹à¦Łà¦²":5547,"Ġà¦¤à¦ªà¦¤":5548,"Ġà¦ıà¦¤à¦¬":5549,"à¦¶à¦°à¦®":5550,"à¦¶à¦®à¦£":5551,"à¦¼à§ĩâĢĻ":5552,"à¦·à¦¡":5553,"à¦·à¦®à¦¯":5554,"à¦·à¦²à¦§":5555,"à¦¹à¦Ĺà¦¨":5556,"Ġà¦ķà¦°à¦®à¦°":5557,"Ġà¦Ĺà§Łà¦¨":5558,"à¦ĵà¦·":5559,"à¦łà¦ĩ":5560,"à¦łà¦ļ":5561,"à¦¾à¦ģâĢ¦":5562,"Ġà¦¬à¦²à¦ª":5563,"Ġà¦ħà¦¨à¦®":5564,"Ġà¦®à¦¨à¦Ń":5565,"Ġà¦ıà¦ĩà¦¤":5566,"Ġà¦ıà¦ĩà¦ĩ":5567,"à¦ŀà¦Ń":5568,"à¦ªà¦¨à¦Ł":5569,"à§İà¦ļ":5570,"à¦Ĩà¦ĸ":5571,"à¦Ĩà¦Łà¦ķ":5572,"à¦ıà¦¡":5573,"Ġà¦¬à¦²à¦²à¦ıà¦ĩ":5574,"Ġà¦¡à¦¨":5575,"Ġà¦ĩà¦£":5576,"à¦¬à¦²à¦°":5577,"Ġà¦¢à¦ķ":5578,"à¦ħà¦ļà¦²":5579,"à¦ħà¦ķà¦¸":5580,"Ġà¦¨à¦¤à¦®":5581,"Ġà¦ªà¦¥à¦¶":5582,"Ġà¦Ĩà¦Ĺà¦®":5583,"Ġà¦ĵà¦łà¦¤":5584,"à¦ķà¦Łà¦¤à¦®":5585,"Ġà¦Ĩà¦ķà¦£":5586,"à¦°à¦¥à¦®à¦ľà¦¨":5587,"à¦¶à¦¨à¦Ĺ":5588,"Ġà¦ĺà¦°à¦Ľ":5589,"Ġà¦ĺà¦°à¦ĸ":5590,"à¦²à¦¨à¦ļ":5591,"Ġà¦īà¦ªà¦ķà¦¥":5592,"Ġà¦īà¦ªà¦ķà¦£":5593,"Ġà¦®à¦¹à¦ķ":5594,"Ġà¦¸à¦°à¦Ľ":5595,"à¦¨à¦ĵà¦°":5596,"à¦ĩà¦²à¦«à¦²à¦ķ":5597,"à¦§à¦¨à¦®":5598,"à¦§à¦¨à¦¶":5599,"à¦ļà¦²à¦Ľ":5600,"à¦®à¦ķà¦Ń":5601,"à¦ªà¦¦à¦ĩ":5602,"à§įâĢĮâĢĮ":5603,"à¦ľà¦²à¦¸":5604,"Ġà¦ħà¦²à¦°":5605,"à¦¸à¦«à¦²":5606,"à¦Ĺà¦ľà¦ĸ":5607,"Ġà¦ĸà¦¬à¦°à¦ĵ":5608,"Ġà¦¦à¦¶à¦°à¦¥":5609,"à¦®à¦¸à¦ľ":5610,"à¦®à¦¸à¦ļ":5611,"Ġà¦¬à§ľà¦¬":5612,"à¦¥à¦ķà¦Ń":5613,"à§ĩâĢ¦)":5614,"à¦¤à¦¦à¦¶":5615,"Ġà§§à§¯à§«":5616,"hed":5617,"à§ªà§¦":5618,"ret":5619,"Ġà§¨à§®":5620,"à§ĭ?âĢĿâĢĶ":5621,"à¦¶à¦¦à¦Ń":5622,"Ġà¦°à¦¤à¦¨à¦¬":5623,"à§İà¦ªà§°":5624,"à¦ľà¦¦à¦°à¦¬":5625,"Ġwe":5626,"arn":5627,"out":5628,"à¦®à¦Ŀà¦®":5629,"ict":5630,"Ġà¦łà¦ķà¦łà¦ķ":5631,"ĠIn":5632,"Ġà¦ľà¦¨à¦Ĺà¦£à¦ķ":5633,"ĠAI":5634,"Ġem":5635,"ose":5636,"Ġà¦¸à¦®à¦Ŀà¦¦":5637,"Ġà¦ķà¦ªà¦Łà¦¤":5638,"à§įâĢįâĢĮ":5639,"Ġcont":5640,"Ġà¦ĵà¦²à¦Łà¦ª":5641,"Ø§Ø":5642,"Ġà¦®à¦ļà¦®à¦ļ":5643,"dvik":5644,"Ġà¦®à¦ĸà¦®à¦²":5645,"',":5646,",--":5647,"-âĢĺ":5648,"21":5649,"30":5650,"ep":5651,"ff":5652,"gal":5653,"per":5654,"por":5655,"ĠĠĠčĊč":5656,"Ġà§¦":5657,"Ġáĥ":5658,"à¦¾),":5659,"à¦¾)à¥¤":5660,"à¦°à¦Ŀà¦°":5661,"à¦¿âĢĮ":5662,"à¦¨à¦ªà¦¨":5663,"à¦¤à¦ªà¦°":5664,"à¦¯à¦¦à¦°":5665,"à¦¬à§İà¦¸":5666,"à¦®à¦ªà¦¦":5667,"à¦®à¦«à¦²":5668,"à§ĭà§ĩ":5669,"Ġà¦ķà¦ĵà¦¯":5670,"Ġà¦ķà¦ĩà¦¬":5671,"Ġà¦¬à¦īà¦²":5672,"Ġà¦¬à¦ļà¦¸":5673,"Ġà¦¸à¦ĺà¦¨":5674,"à¦¸à¦¬à¦¨":5675,"à¦¸à§ľ":5676,"à¦¸à¦Ńà¦°":5677,"Ġà¦Ĩà¦£à¦¬":5678,"à¦Łà¦¤à¦°":5679,"Ġà¦¨à¦ĵà¦°":5680,"Ġà¦®à¦°à¦¨":5681,"Ġà¦®à¦Łà¦°":5682,"à¦ĩà¦ļà¦°à¦£":5683,"à§Ģà¦ĥ":5684,"Ġà¦¦à¦¦":5685,"Ġà¦¤à¦ĸ":5686,"à¦¶à¦²à¦¤":5687,"à¦ĸà¦²à¦¨":5688,"à¦Ĺà¦°à¦ľ":5689,"à¦§à¦¬à¦°":5690,"à¦ļà¦ªà¦²":5691,"à¦ļà¦¶à¦®":5692,"à¦ļà¦ĵà¦¡":5693,"à¦¹à¦®à¦¨":5694,"Ġà¦Ĺà¦Ł":5695,"à¦£à¦²à¦¤":5696,"Ġà¦¶à¦¶à¦¬":5697,"Ġà¦ľà¦ľ":5698,"Ġà¦Ńà¦°à¦¬":5699,"à§ĩà¥¤)":5700,"à¦¼à¦¾--":5701,"à¦łà¦ĵ":5702,"à§Ĥà¥¤":5703,"à¦Ļà¦Ł":5704,"Ġà¦¬à¦²à¦¨":5705,"Ġà¦§à¦²":5706,"Ġà¦¸à¦®à¦¦":5707,"ĠâĢĮ":5708,"à¦¼à¦¿;":5709,"à¦¼à¦¿âĢĻ":5710,"Ġà¦®à¦¨à¦ľ":5711,"à¦ľà¦¨à¦¹":5712,"à¦ľà¦¨à¦ªà¦¦à¦¬":5713,"à¦ŀà¦Ĺ":5714,"à¦īà¦¤à¦°":5715,"à¦īà¦ªà¦ķ":5716,"à¦Ĩà¦°à¦ķ":5717,"à¦°à¦¬à¦ļà¦¨":5718,"à¦°à¦ķà¦¥":5719,"Ġà¦¡à¦Ł":5720,"Ġà¦®à¦¤à¦Ń":5721,"Ġà¦Ŀà¦®":5722,"à¦°à¦®à¦®":5723,"à¦·à¦£à¦ª":5724,"à¦·à¦£à¦¹":5725,"à¦ħà¦£":5726,"à¦ħà¦¬à¦°":5727,"Ġà¦ªà¦¥à¦°":5728,"à¦ķà¦Łà¦®":5729,"Ġà¦ħà¦¸à¦®à¦¤":5730,"à¦¨à¦¬à¦®":5731,"à¦¦à¦¨à¦®":5732,"Ġà¦¹à¦¤à¦ļà¦ķ":5733,"Ġà¦Ĩà¦¨à¦¸":5734,"Ġà¦ľà¦²à¦®":5735,"à¦Ĺà¦²à¦¸":5736,"à¦Ĺà¦²à¦Ĺ":5737,"Ġà¦īà¦ªà¦¶à¦®":5738,"Ġà¦¸à¦°à¦¦":5739,"à¦°à¦²à¦®":5740,"à¦ļà¦²à¦Ĺ":5741,"Ġà¦¸à¦¹à¦§à¦°":5742,"Ġà¦Ĩà¦¤à¦¶à¦¬":5743,"à§Ģ,âĢĿ":5744,"Ġà¦Ĳà¦¹":5745,"à¦¤à¦²à¦Ĺ":5746,"Ġà¦ħà¦Ĺà¦®":5747,"Ġà¦ıà¦°à¦ļ":5748,"à¦¬à¦¦à¦°à¦¬":5749,"Ġà¦ĵà¦ĩà¦Ń":5750,"à¦ļà¦ķà¦ļà¦ķ":5751,"Ġà¦ıà¦ķà¦ľà¦¨à¦ĩ":5752,"Ġà¦Ńà¦¬à¦ĺ":5753,"à§°à¦¦":5754,"à§°à¦Ń":5755,"Ġà¦¤à¦²à¦ª":5756,"à¦¥à¦¨à¦¯":5757,"à¦°à¦ľà¦¨à¦ķ":5758,"à§¨à§¯":5759,"Ġà¦¦à¦°à¦¦à¦°":5760,"Ġà¦īà§İà¦¸à¦¬à¦Ĺ":5761,"à¦¾âĢĻ-":5762,"à¤ľ":5763,"à¦ķà¦¸à¦Ń":5764,"Ġà¦Ĩà¦ĩà¦¨à¦¶":5765,"Ġà¦¸à§İà¦ķà¦°":5766,"reat":5767,"reed":5768,"à¦¼!âĢĻ":5769,"ath":5770,"ated":5771,"ature":5772,"à¦¾âĢ¦à¥¤":5773,"Ġà¦°à¦ľà¦¤à¦ķ":5774,"Ġapp":5775,"à¦Łà¦¸à¦ħ":5776,"à¦Ŀà¦ķà¦Ŀà¦ķ":5777,"ard":5778,"Ġpr":5779,"Ġà§©à§«":5780,"à¦¬à¦°à¦²à¦¹à¦°":5781,"Ġthan":5782,"à¦¬à§İà¦¸à¦²":5783,"Ġà¦¨à¦ĸà¦¦à¦°":5784,"ally":5785,"Ġbet":5786,"ell":5787,"Ġone":5788,"ĠĠčĊĠĠĠ":5789,"-'":5790,"26":5791,"27":5792,"28":5793,"29":5794,"IN":5795,"ck":5796,"for":5797,"ph":5798,"ÑĤ":5799,"Ġà§°":5800,"à§»":5801,"à¦°à¦°à¦¥":5802,"à¦°à¦²à¦ķ":5803,"à§įà§į":5804,"à¦¿/":5805,"à¦¨à¦ł":5806,"à¦¨à¦ı":5807,"à¦¨à¦¸à¦°":5808,"à¦ķà¦ĺà¦°":5809,"à¦¯à¦·":5810,"à¦¬à¦°à¦¬à¦°":5811,"à¦¼/":5812,"à¦®à¦¬à¦°":5813,"Ġà¦¸à¦Łà¦ķ":5814,"Ġà¦¸à§°":5815,"à¦¦à¦ĸà¦²":5816,"à¦Łà¦ªà¦¤à¦Ļ":5817,"à¦ªà¦«":5818,"à¦ĩà¦®à¦¤":5819,"à¦ĩà¦²à¦¨":5820,"à¦ĩà¦ľà¦²":5821,"à¦ĩà¦¡à¦²":5822,"à¦ľà¦ªà¦°":5823,"à¦ľà¦ķà¦²":5824,"Ġà¦¤à¦ľ":5825,"Ġà¦ıà¦®à¦¤":5826,"Ġà¦ıà¦°à¦ĵ":5827,"à¦¶à¦ªà¦°à¦®":5828,"Ġà¦ħà¦«à¦²":5829,"à¦Ĺà¦°à¦¸":5830,"à¦Ĺà¦ĺà¦¨":5831,"à¦§à¦¤à¦°":5832,"à¦¡à¦²à¦¸":5833,"à¦ļà¦ļ":5834,"à¦¹à¦ªà¦°":5835,"à¦¹à¦²à¦ķ":5836,"à¦£à¦Ńà¦ķ":5837,"Ġà¦ļà¦ĸ":5838,"Ġà¦°à¦ĵà¦¯":5839,"Ġà¦°à¦Ĺà¦¡":5840,"à¦¼à¦¾âĢĿ":5841,"à§ĥà¦Ĥ":5842,"Ġà¦Ĩà¦®à¦¸":5843,"à¦łà¦ķà¦°":5844,"Ġà¦īà¦Ĺà¦°":5845,"Ġà¦ªà¦°à¦ľ":5846,"Ġà¦¸à¦®à¦ķà¦ķ":5847,"ĠâĢŀ":5848,"à§ľà¦Ł":5849,"Ġà¦®à¦¨à¦¯":5850,"à¦ľà¦¨à¦ľ":5851,"à¦¤à¦°à¦ŀ":5852,"à¦īà¦¤à¦²":5853,"à¦°à¦¬à¦¹à¦®":5854,"à¦ıà¦·":5855,"à¦ĺà¦¸à¦®à¦¯":5856,"Ġà¦§à¦°à¦¨à¦Ł":5857,"Ġà¦Ŀà¦°à¦£":5858,"à¦¬à¦²à¦¯":5859,"à¦°à¦®à¦¦":5860,"Ġà¦ıà¦¸à¦®à¦¯":5861,"Ġà¦Ĩà¦ľà¦Ĺ":5862,"Ġà¦¬à¦¨à¦°":5863,"Ġà¦¬à¦¨à¦ľà¦Ļ":5864,"Ġà¦ĵà¦łà¦Ľ":5865,"à¦ķà¦Łà¦²":5866,"à¦¾à¦Ĥ-":5867,"à¦¨à¦¬à¦¶":5868,"à¦¨à¦¬à¦Ĺ":5869,"Ġà¦Ĩà¦ªà¦¨à¦ľà¦¨":5870,"à¦¦à¦¨à¦ĩ":5871,"à¦¦à¦°à¦²":5872,"Ġà¦ľà¦²à¦¹":5873,"à¦Ĺà¦²à¦¨":5874,"Ġà¦¶à¦¬à¦¬":5875,"à¦¶à¦¨à¦ĵ":5876,"à¦ĩà¦²à¦¶":5877,"Ġà¦ħà¦ªà¦¦à¦¸":5878,"à¦Ńà¦¬à§İ":5879,"âĢ¦à¥¤âĢĿ":5880,"Ġà¦ķà¦®à¦£":5881,"Ġà¦īà§İà¦ĸ":5882,"à§Ģà¥¤à¥¤":5883,"Ġà¦²à¦ķà¦¡":5884,"à§°à¦ļ":5885,"Ġà¦¶à¦¤à¦Ń":5886,"Ġà¦¸à¦ķà¦²à¦ĩ":5887,"Ġà¦¤à¦²à¦¸":5888,"à¦¯à¦¥à¦Ń":5889,"Ġà¦¸à¦®à§Łà¦®à¦¤":5890,"Ġà¦ĸà¦¬à¦°à¦ĩ":5891,"à¤¦":5892,"à¦®à¦¦à¦¤":5893,"Ġà¦ľà¦Ĺà¦¤à¦Ł":5894,"à¦Ĺà¦£à¦¤à¦¨":5895,"à¦¶à¦°à§İ":5896,"ons":5897,"âĢ¦âĢĿâĢĶ":5898,"Ġà¦ļà¦Łà¦ļà¦Ł":5899,"ater":5900,"à¦ħà¦¬à¦¸à¦°":5901,"à¦¯à¦ľà¦Ĺà¦¤":5902,"à¦Ĺà¦Ńà¦¬à¦¨":5903,"Ġà¦¢à¦²à¦¢à¦²":5904,"à¦¾âĢĿ,":5905,"Ġà¦Ĩà¦Łà¦ľà¦¨":5906,"Ġà¦ĩà¦Łà¦¸":5907,"à¦¿âĢ¦à¥¤":5908,"Ġà¦¦à¦ĸà¦²à¦¦":5909,"Ġar":5910,"Ġcl":5911,"à§ĩ,âĢĿâĢĶ":5912,"Ġà¦¸à¦«à¦²à¦Ń":5913,"à¦Ĩà¦ļà¦®à¦ķ":5914,"à¦īà¦łà¦¤":5915,"ice":5916,"Ġà¦®à¦¦à¦¨à¦¦":5917,"Ġà§¨à§¦à§§à§¨":5918,"Ġà§¨à§¦à§§à§§":5919,"Ġà¤ª":5920,"Ġno":5921,"olog":5922,"igo":5923,"Ġà¦¨à¦ĵà¦¶":5924,"Ġà§Ńà§¦":5925,"cept":5926,"ower":5927,"Ġà§®à§¦":5928,"Ġà¦Łà¦¹à¦²à¦¦":5929,"uman":5930,"====":5931,"ough":5932,";âĢĶ":5933,"ek":5934,"from":5935,"ma":5936,"ne":5937,"ok":5938,"tle":5939,"Ø´":5940,"à§ĩà§Ģ":5941,"à§ĩ)à¥¤":5942,"à¦¨à¦¸à¦¬":5943,"à¦¨à¦ıà¦°":5944,"à¦¯à¦ļà¦ķ":5945,"à¦¬à¦¹à¦¤":5946,"à¦¼),":5947,"à¦®à¦ªà¦ķ":5948,"à¦®à¦®à§Ł":5949,"Ġà¦ķà§°":5950,"Ġà¦¬à¦°à¦¨":5951,"Ġà¦¬à¦Łà¦²":5952,"Ġà¦¸à¦ĩà¦¯":5953,"Ġà¦Ĩà¦£":5954,"à¦¦à¦¬à¦¨":5955,"à¦¦à¦¶à¦®":5956,"Ġà¦®à¦ª":5957,"Ġà¦®à§ľ":5958,"Ġà¦®à¦ĵà¦ķ":5959,"à¦ªà¦ªà¦°":5960,"à¦ªà¦Łà¦ķ":5961,"à¦ªà¦¬à§Łà¦¸":5962,"à¦ĩà¦®à¦¸":5963,"à¦ĩà¦¶à¦Ł":5964,"à§Ģ)":5965,"Ġà¦¦à¦ĩà¦¯":5966,"à¦ľà¦°à¦£":5967,"à¦ľà¦¸à¦®":5968,"Ġà¦ıà¦ĺà¦°":5969,"Ġà¦ħà§°":5970,"Ġà¦ħà¦¤à¦¬à¦¡":5971,"à¦ĸà¦ķà¦ķ":5972,"à¦Ĺà¦®à¦ķ":5973,"à¦¡à¦¡":5974,"à¦ļà¦ĸ":5975,"à¦ļà¦ĵ":5976,"à¦£à¦¬à¦¸":5977,"Ġà¦°à¦¥à¦¬":5978,"à¦ĵà¦«":5979,"Ġà¦ıà¦ķà¦ĺà¦°":5980,"à¦¾à¦ģâĢĻ":5981,"à§ĩ,--":5982,"Ġà¦ĸà§Ł":5983,"Ġà¦¸à¦®à¦ªà¦°":5984,"à¦ľà¦¨à¦Ĺà¦£":5985,"à¦¤à¦°à¦¶":5986,"à¦«à¦¦":5987,"à¦īà¦«":5988,"à¦īà¦ªà¦¤":5989,"à¦īà¦¦à§Ł":5990,"à¦ªà¦¨à¦¤":5991,"à§İà¦²":5992,"à¦Ĩà¦¹à¦¤":5993,"à¦°à¦¬à¦¬":5994,"à¦ıà¦ĵ":5995,"à¦ıà¦¤à¦Ł":5996,"à¦°à¦ķà¦ķ":5997,"à¦¬à¦°à¦¸":5998,"à¦¬à¦°à¦«":5999,"Ġà¦¹à¦²à¦Ł":6000,"Ġà¦ĩà¦¥":6001,"Ġà¦ĩà¦¬à¦¨":6002,"Ġà¦ĩà¦¶à¦¤":6003,"Ġà¦ĩà¦¨à¦¬à¦ķ":6004,"Ġà¦ľà¦¨à¦¶à¦ķ":6005,"Ġà¦Ŀà¦®à¦Ŀà¦®":6006,"à¦¬à¦²à¦¸":6007,"à¦·à¦£à¦ľ":6008,"à¦ħà¦¬à¦¨":6009,"à¦ħà¦¸à¦¤":6010,"à¦¸à¦¬à¦¹":6011,"Ġà¦Ĩà¦ķà¦¨":6012,"à¦¦à¦¨à¦ª":6013,"à¦°à¦¥à¦®à¦ľ":6014,"à§ĩ?\"":6015,"Ġà¦ıà¦²à¦¸":6016,"Ġà¦Ĩà¦¨à¦¯":6017,"Ġà¦ľà¦²à¦®à¦Ĺ":6018,"à¦Ĺà¦²à¦¬à¦¨":6019,"à¦²à¦¨à¦ĵ":6020,"à¦ĩà¦²à¦ĸ":6021,"à¦°à¦ľà¦Ń":6022,"à¦°à¦ľà¦Ĺà¦¤":6023,"à¦®à¦¯à¦ľ":6024,"Ġà¦ħà¦ľà¦®":6025,"Ġà¦ĵà¦ªà¦°à¦ĵ":6026,"Ġà¦¬à¦¹à¦°à¦®à¦ª":6027,"Ġà¦Ĺà¦°à¦Ĺà¦°":6028,"à¦®à¦£à¦¤":6029,"Ġà¦®à¦°à¦ļ":6030,"Ġà¦ħà¦ªà¦°à¦£":6031,"à¦·à¦¤à¦®":6032,"à¦°à¦ªà¦²":6033,"à¦°à¦ªà¦ķ":6034,"à¦¬à¦¦à¦®":6035,"à¦¯à¦®à¦ŀ":6036,"à§°à¦§":6037,"à¦ķà¦¨à¦¸":6038,"Ġà¦Ĺà§ľà¦Ĺà§ľ":6039,"Ġà¦ĺà¦¨à¦ĺ":6040,"Ġà¦ĺà¦¨à¦ĺà¦Ł":6041,"à¦°à¦®à¦£à¦¬":6042,"à¦¹à¦¤à¦Ń":6043,"Ġà¦Ĩà¦Ńà¦°à¦£":6044,"à¦ľà¦¬à¦ī":6045,"Ġà¦ķà¦²à¦ķà¦¬":6046,"à¦¦à¦®à¦¬à¦¨":6047,"Ġà¦ªà¦¶à¦²":6048,"à¤ª":6049,"Ġà¦®à¦²à§Ł":6050,"à§©à§¨":6051,"à§©à§Ń":6052,"à§©à§ª":6053,"à§©à§¯":6054,"à¦ļà§Łà¦ķ":6055,"Ġà¦Ĩà¦ĩà¦¨à¦¸":6056,"Ġà¦¸à§İà¦ļà¦°":6057,"Ġà¦®à¦¦à¦¨à¦¬":6058,"ality":6059,"ern":6060,"Ġour":6061,"Ġà¦ıà¦°à¦ªà¦°à¦ĩ":6062,"à¦¾âĢ¦âĢĻ":6063,"Ġà¦ľà¦¨à¦¸à¦Ń":6064,"Ġà¦°à¦ľà¦¤à¦¬":6065,"Ġam":6066,"à¦ĩà¦«à¦¯":6067,"à¦¾?âĢĿâĢĶ":6068,"à¦Ĩà¦¤à¦Ļ":6069,"Ġà¦Ĩà¦«à¦Ĺ":6070,"Ġà¦Ńà¦¬à¦¨à¦Ł":6071,"Ġà§©à§«à§¦":6072,"Ġà¤¬":6073,"à¦ĸà¦¬à¦°à¦Ł":6074,"Ġlove":6075,"Ġlike":6076,"Ġthings":6077,"stra":6078,"rad":6079,"à§§à§¯à§¬":6080,"à¦¶à¦¶à¦¤à¦ķ":6081,"à¦¡à¦Ńà¦£":6082,"Ġà¦ĸà¦²à¦ĸà¦²":6083,"Ġhad":6084,"ĠGod":6085,"Ġtrans":6086,"Ġ____":6087,"Ġindigo":6088,"!âĢĶ":6089,");":6090,"AI":6091,"led":6092,"oc":6093,"oy":6094,"ood":6095,"ther":6096,"à°":6097,"áĢ":6098,"ĠÑ":6099,"à¦°à¦ĵà§Ł":6100,"à¦°à¦ļà¦ķ":6101,"à§įâĢĵ":6102,"à¦¿)à¥¤":6103,"à¦¤à§°":6104,"à¦¤à¦ªà¦²":6105,"à¦¤à¦Ĺà¦£":6106,"à¦¤à¦¶à¦¤":6107,"à¦²à¦ªà¦°":6108,"à¦²à¦ªà¦®":6109,"à¦ķà¦ªà¦°":6110,"à¦ķà¦Ŀà¦²à¦ķ":6111,"à¦¯à¦¬à¦²":6112,"à¦¯à§Łà¦¨":6113,"à¦¬à¦ĺ":6114,"à¦¬à¦Łà¦¬":6115,"à¦®à¦ľà¦²":6116,"à¦®à¦§à¦°":6117,"Ġà¦¬à¦ĸ":6118,"Ġà¦¬à¦ķà¦¶":6119,"Ġà¦¸à¦¦à¦¨":6120,"Ġà¦¸à¦ĵà§Ł":6121,"à¥¤]":6122,"à¦¸à¦®à¦ķ":6123,"Ġà¦ªà¦ªà¦ķà¦°":6124,"Ġà¦Ĩà¦ĵà§ľ":6125,"à¦¦à¦ªà¦¦":6126,"à¦¦à¦Ńà¦°":6127,"à¦Łà¦ªà¦°":6128,"à¦Łà¦¤à¦®":6129,"Ġà¦®à¦«":6130,"à¦Ľà¦Ń":6131,"Ġà¦¦à¦¬":6132,"Ġà¦¦à¦§":6133,"à¦ľà¦¦à¦°":6134,"Ġà¦¹à¦Łà¦¬":6135,"Ġà¦¤à¦°à¦®":6136,"Ġà¦ıà¦§":6137,"Ġà¦ıà¦®à¦¬":6138,"Ġà¦ıà¦¨à¦¸":6139,"à¦¶à¦°à¦£":6140,"à¦¶à§Łà¦¨":6141,"Ġà¦ħà¦°à¦ķ":6142,"à¦Ĺà¦§à¦°":6143,"à¦·à¦ľà¦¨à¦ķ":6144,"à¦§à¦ªà¦¤":6145,"à¦¹à¦«":6146,"Ġà¦ķà¦°à¦¹":6147,"à§Łà¦ľ":6148,"Ġà¦Ĺà¦Ĺ":6149,"Ġà¦Ĺà¦Łà¦Ĺ":6150,"à¦£à¦ļà¦°":6151,"à¦¥à¦Ľ":6152,"à¦¥à¦°à¦¬":6153,"à¦ĵà¦ĵ":6154,"à¦Ńà¦ĵ":6155,"à¦¼à¦¾à¦ģ":6156,"à¦¼à¦¾à¦ĥ":6157,"à¦łà¦ľ":6158,"à¦łà¦¨à¦Ł":6159,"Ġà¦ĸà§ľà¦ķ":6160,"à¦°à¦¤à¦ķà¦°":6161,"Ġà¦ħà¦¨à¦¬":6162,"à¦¬à¦¨à¦ļà¦°":6163,"à§ľà¦¦":6164,"Ġà¦®à¦¨à¦ĩ":6165,"Ġà¦®à¦¨à¦Ĺ":6166,"à¦ľà¦¨à¦®à¦¤":6167,"à¦īà¦ĩà¦¨":6168,"à¦ıà¦ľ":6169,"à¦¬à¦°à¦ļà¦¨":6170,"Ġà¦Łà¦Ĺà¦°":6171,"Ġà¦¬à¦²à¦²à¦ıà¦ķà¦Ł":6172,"Ġà¦ĩà¦ķà¦¨":6173,"Ġà¦ĩà¦°à¦Ĺ":6174,"Ġà¦®à¦¤à¦ª":6175,"Ġà¦ıà¦¸à¦ª":6176,"à¦¤à¦¨à¦¬":6177,"Ġà¦¨à¦¤à¦¶":6178,"à¦¯à¦¬à¦ĩà¦¯":6179,"à¦¤à¦¬à¦®":6180,"à¦°à¦¸à¦¦à¦¨":6181,"à¦¨à¦¬à¦¸à¦¤":6182,"à¦¦à¦¨à¦Ĺ":6183,"Ġà¦Ĩà¦¨à¦ķ":6184,"Ġà¦īà¦¦à¦Ń":6185,"à¦Ĺà¦²à¦Ľ":6186,"à¦¿à¦ĤâĢĿ":6187,"à¦°à¦¹à¦ĵ":6188,"à¦°à¦¶à¦¯":6189,"à¦°à¦¶à¦¬":6190,"à¦¯à¦¤à¦²":6191,"Ġà¦ħà¦ªà¦²":6192,"Ġà¦ĵà¦°à¦ĵ":6193,"à¦ıà¦ĩà¦°":6194,"à¦ıà¦ĩà¦¤":6195,"âĢ¦âĢ¦":6196,"Ġà¦ıà¦Ĺà¦ľ":6197,"Ġà¦ªà¦¦à¦¤":6198,"à¦¸à¦°à¦ĺà¦°":6199,"à¦ıà¦ķà¦¦à¦²":6200,"Ġà¦¬à¦ĩà¦ĩ":6201,"à¦¯à¦®à¦ĩ":6202,"à¦¤à¦ķà¦°à¦¬":6203,"à¦¶à¦ķà¦ķ":6204,"à¦¬à¦ķà¦¨":6205,"à§ĩ;âĢĶ":6206,"Ġà¦ıà¦ķà¦ľà¦¨à¦ĵ":6207,"Ġà¦ıà¦ķà¦¬à¦Ľà¦°":6208,"à¦¸à¦ķà¦Ĺ":6209,"Ġà¦Ĩà¦ļà¦®":6210,"à¦ĩà¦Łà¦¸":6211,"à¦ĩà¦Łà¦Ĺ":6212,"Ġà¦Ĩà¦¦à¦ª":6213,"Ġà¦Ĩà¦¦à¦°à¦£":6214,"à¦°à¦¹à¦£à¦ķ":6215,"Ġà¦¹à¦°à¦°":6216,"Ġà¦¦à¦°à¦¶à¦¨":6217,"Ġà¦Ńà¦¦à¦ķ":6218,"à¤£":6219,"à¤¬":6220,"à¤Ĺ":6221,"à§©à§§":6222,"à¦¿âĢĻ!":6223,"à¦¿âĢĻ-":6224,"Ġà¦Ĩà¦ĩà¦¨à¦Ĺà¦¤":6225,"à¦ľà¦Ĺà¦ŀ":6226,"à¦ľà¦Ĺà§İà¦ķ":6227,"à¦¤à¦ĸà¦¨à¦ĵ":6228,"Ġà¦°à¦ľà¦¤à¦¦":6229,"Ġà¦ķà¦Łà¦®à¦Ł":6230,"engal":6231,"ital":6232,"Ġà¦ļà¦°à¦£à¦¤à¦²":6233,"Ġà¦Ĩà¦Łà¦ļà¦²":6234,"Ġà¦Ĩà¦ĩà¦ĵà¦Ł":6235,"à§ģ!)":6236,"à¦ĭà¦¦":6237,"Ġà¦Ĺà¦Ĺà¦¨à¦ļ":6238,"Ġà§©à§¨":6239,"Ġà¦¨à§ľà¦Ľ":6240,"Ġliter":6241,"à¦Īà¦¨":6242,"Ġà¦¨à¦Ĺà¦°à¦ķ":6243,"ĠAdvik":6244,"Ġbec":6245,"ĠBe":6246,"ĠBengal":6247,"à¦Ĭà¦·":6248,"Ġà¦¹à¦ľà¦¸à¦¨":6249,"Ġà¦§à¦ªà¦§à¦ª":6250,"Ġà§¨à§¦à§¦à§¯":6251,"âĢĶâĢĶâĢĶâĢĶ":6252,"Ġkn":6253,"Ġà¦°à¦¸à¦¬à¦¤":6254,"âĢķâĢķâĢķâĢķâĢķâĢķâĢķâĢķ":6255,"à§§à§¯à§Ńà§§":6256,"Ġà¦Ĺà¦Łà¦Ĺà¦Ł":6257,"31":6258,"32":6259,"34":6260,"AR":6261,"av":6262,"cle":6263,"ms":6264,"mat":6265,"yan":6266,"Ðº":6267,"Ġ..":6268,"Ġ...":6269,"Ġif":6270,"à¦¾à§į":6271,"à¦¾...":6272,"à§ĩâĢĮ":6273,"à§ĩ..":6274,"à§ĩ...âĢĿ":6275,"à¦°à¦Ĺà¦¨":6276,"à¦¨à¦¸à¦¤":6277,"à¦¨à¦¶à¦ķ":6278,"à¦¨à¦ªà¦Ł":6279,"à¦¨à¦ĺà¦¨":6280,"à¦¨à§Łà¦¬":6281,"à¦¤à¦Ŀ":6282,"à¦ķà¦¬à¦²":6283,"à¦ķà¦¦à¦²":6284,"à¦¯à¦ªà¦ķ":6285,"à¦¬à¦ĩà¦Ł":6286,"à§ĭ)":6287,"Ġà¦¬à¦ķà¦°":6288,"Ġà¦¬à§°":6289,"Ġà¦¸à¦°à¦¸à¦°":6290,"à¦¸à§ľà¦ķ":6291,"à¦¦à¦ļà¦¯":6292,"Ġà¦¨à¦Łà¦°":6293,"Ġà¦®à¦ķà¦¬":6294,"à¦ªà¦Ĺà¦¤":6295,"à¦ªà¦¬à¦¦":6296,"à¦ªà§°":6297,"à¦ĩà¦§":6298,"à¦ĩà¦ªà¦Ł":6299,"à¦ĩà¦ļà¦Ł":6300,"à¦Ľà§Ł":6301,"à¦Ľà¦²à¦¨":6302,"Ġà¦¹à¦Łà¦¤":6303,"Ġà¦ıà¦Ńà¦°":6304,"Ġà¦ıà¦®à¦ª":6305,"à¦¶à¦¸à¦®":6306,"Ġà¦ħà¦ªà¦¨":6307,"Ġà¦ħà¦®à¦¨à¦ĩ":6308,"à¦ĸà¦¹":6309,"à¦ĸà¦²à¦¤":6310,"à¦ĸà¦ľà¦¨à¦ķ":6311,"à¦Ĺà¦®à§Ł":6312,"à¦·à¦ĸ":6313,"à¦¡à¦ĵà§Ł":6314,"à¦ļà¦²à¦ķ":6315,"Ġà¦ķà¦°à¦ľ":6316,"Ġà¦ķà¦°à¦£à¦ķ":6317,"à§Łà¦¤à¦¨":6318,"Ġà¦¶à¦¬à¦¨à¦®":6319,"Ġà¦ļà¦®à¦ļ":6320,"à¦Ńà¦ŀ":6321,"à§ĥà§į":6322,"Ġà¦īà¦«":6323,"Ġà¦īà¦ĩà¦¦":6324,"à¦ĤâĢĶ":6325,"à¦ĤâĢĻ":6326,"à§Ĥ,":6327,"Ġà¦¬à¦²à¦¶":6328,"à¦°à¦¤à¦Ł":6329,"à¦°à¦¤à¦ĵ":6330,"Ġà¦§à¦¨à¦¬":6331,"à¦¬à¦¨à¦¨":6332,"à¦¬à¦¨à¦¹":6333,"à§ľà¦¹":6334,"à¦ŀà¦¬":6335,"à¦īà¦¶":6336,"à¦īà¦Łà¦¨":6337,"à¦īà¦ľà¦Ł":6338,"à¦Ĩà¦«":6339,"à¦Ĩà¦ĩà¦¡":6340,"à¦°à¦ķà¦¬":6341,"Ġà¦Łà§Łà¦²":6342,"âĢĻ)":6343,"Ġà¦ĩà¦Ĺà¦²":6344,"à¦ĺà¦·":6345,"Ġà¦®à¦¤à¦¨à¦ĩ":6346,"Ġà¦ľà¦¨à¦®à¦¨":6347,"Ġà¦Ŀà¦°à¦²":6348,"à¦¬à¦²à¦Ł":6349,"Ġà¦¬à¦¨à¦Ł":6350,"à¦ķà¦²à¦¬":6351,"Ġà¦ħà¦®à¦¤":6352,"Ġà¦ħà¦®à¦²à¦ķ":6353,"Ġà¦ªà¦¥à¦¯":6354,"Ġà¦Ĺà¦²à¦²":6355,"à¦ķà¦°à¦²":6356,"à¦ķà¦°à¦ĵ":6357,"à¦ķà¦Łà¦¸":6358,"à¦¸à¦¬à¦Ł":6359,"Ġà¦ħà¦¸à¦¤à¦°":6360,"Ġà¦ħà¦¸à¦®à¦°":6361,"à¦¨à¦¬à¦§à¦°":6362,"à¦ķà¦¤à¦®":6363,"à¦¦à¦¨à¦¹":6364,"à¦¦à¦¨à¦ĵ":6365,"Ġà¦¬à¦°à¦²":6366,"Ġà¦¬à¦°à¦ªà¦ķ":6367,"à¦¦à¦°à¦Ń":6368,"à¦Ĺà¦²à¦®":6369,"à¦®à¦¤à¦Ń":6370,"à¦°à¦¹à¦ĩ":6371,"Ġà¦¸à¦°à¦Ĺà¦°à¦®":6372,"à¦Ľà¦¨à¦Ł":6373,"à¦Ľà¦¨à¦ª":6374,"à¦®à¦²à¦¦":6375,"à§ĩâĢĶâĢĻ":6376,"Ġà¦ħà¦ªà¦¤":6377,"Ġà¦ħà¦ªà¦ª":6378,"Ġà¦ħà¦ªà¦¹à¦°à¦£":6379,"Ġà¦ķà¦²à¦Ł":6380,"Ġà¦¸à¦¹à¦®à¦¤":6381,"à¦ĩà¦¨à¦²":6382,"Ġà¦°à¦Ļà¦¬":6383,"Ġà¦°à¦Ļà¦§à¦¨":6384,"Ġà¦īà§İà¦°":6385,"Ġà¦¯à¦¤à¦Ĺ":6386,"à§ĩ!'":6387,"à¦ªà¦¦à¦Ł":6388,"à¦ªà¦¦à¦Ĺ":6389,"à¦ªà¦¥à¦Ł":6390,"à¦ıà¦ķà¦ª":6391,"Ġà¦ħà¦ªà¦°à¦ªà¦ķ":6392,"à§įâĢĮâĢĶ":6393,"Ġà¦«à¦²à¦¦":6394,"Ġà¦«à¦²à¦Ĺ":6395,"à§İà¦ķà¦£":6396,"à¦¤à¦ķà¦¦":6397,"à¦¤à¦¤à¦¸":6398,"à¦¯à¦¸à¦Ń":6399,"Ġà¦ªà¦¤à¦ŀ":6400,"à¦¨à¦¸à¦¹":6401,"à¦¨à¦°à¦°":6402,"à¦Łà¦¬à¦¡":6403,"à¦°à¦®à¦£à¦Ł":6404,"Ġà¦ķà¦·à¦²":6405,"Ġà¦¬à¦ķà¦Ľ":6406,"à§ĭ--":6407,"Ġà¦¬à§ľà¦²":6408,"à¤·":6409,"à¤¸":6410,"à§ĩâĢ¦.":6411,"Ġà¦ľà§Łà¦²":6412,"Ġà¦ľà§Łà¦ķ":6413,"Ġà¦Ĺà¦¹à¦¬à¦°":6414,"Ġà¦ļà¦¨à¦®à¦¨":6415,"à¦¬à¦Ńà¦ķ":6416,"à§©à§«":6417,"here":6418,"intu":6419,"à¦°à¦«à¦°à¦®":6420,"à¦¬à¦ľà¦¨à¦¨":6421,"Ġà¦Ĩà§Łà¦¤à¦¨":6422,"Ġthese":6423,"ener":6424,"Ġsol":6425,"Ġà¦Ńà¦Ĺà¦¬à¦¦":6426,"Ġmost":6427,"Ġà¦ıà¦®à¦ı":6428,"à¦ħà¦²à¦Ļ":6429,"Ġpart":6430,"à¦¾,âĢĿâĢĶ":6431,"ions":6432,"Ġhim":6433,"Ġhuman":6434,"Ġà¦ħà¦¬à¦¸à¦°à¦ª":6435,"à¦¬à§İà¦¸à¦®":6436,"Ġà¦ķà§ľà¦ķà§ľ":6437,"rag":6438,"Ġà§«à§¦à§¦":6439,"Ġres":6440,"____":6441,"idual":6442,"vers":6443,"Ġà§¬à§¦":6444,"ame":6445,"Ġà§§à§¯à§¯à§«":6446,"ake":6447,"ĠIndia":6448,"etective":6449,"reedom":6450,"Ġà¦ĩà¦ķà¦¨à¦®":6451,"33":6452,"35":6453,"are":6454,"der":6455,"ec":6456,"eg":6457,"hy":6458,"ile":6459,"iya":6460,"ll":6461,"man":6462,"ness":6463,"pH":6464,"pect":6465,"âĤ":6466,"ĠÂ":6467,"à§ĩ|":6468,"à¦°à¦¡à¦¬":6469,"à¦°à¦ĭà¦£":6470,"à¦¨à¦ļà¦¨":6471,"à¦¨à¦ıà¦ĩ":6472,"à¦¤à¦ªà¦¤":6473,"à¦²à¦Ĺà¦²":6474,"à¦²à¦§à¦°":6475,"à¦²à¦®à¦§":6476,"à¦²à¦ĸà¦£":6477,"à¦ķà¦Ĺà¦£":6478,"à¦¯à¦ĺ":6479,"à¦¯à¦¸à¦¬":6480,"à¦¯à¦²à¦ķ":6481,"à¦¯à¦¹à¦¤":6482,"à§ģ)":6483,"à¦¼âĢ¦âĢĿ":6484,"à¦®à¦¤à¦°":6485,"à¦®à¦Ĺà¦°":6486,"Ġà¦¬à¦ªà¦£":6487,"à¦¦à¦¶à¦ķ":6488,"à¦¦à¦ķà¦£":6489,"à¦Łà¦§":6490,"Ġà¦®à¦Ŀ":6491,"Ġà¦®à¦Ĺà¦ľà¦Ł":6492,"Ġà¦®à¦°à¦®à¦°":6493,"à¦ªà¦®à¦£":6494,"à¦ªà§Łà¦¸":6495,"à¦ĩà¦®à¦¨":6496,"à¦ĩà¦®à¦²":6497,"à¦ĩà¦¸à¦Ł":6498,"à¦ĩà¦īà¦°":6499,"à§ĢâĢ¦âĢĿ":6500,"à§ĢâĢĻ,":6501,"à¦Ľà¦ļ":6502,"Ġà¦¹à¦¦à¦¯":6503,"Ġà¦ıà¦Ļ":6504,"Ġà¦ıà¦Ĺà¦¤":6505,"Ġà¦ıà¦§à¦°à¦¨":6506,"à¦¼à§ĩ?âĢĿ":6507,"à¦·à¦¬à¦°à¦£":6508,"à¦§à¦®à¦¨":6509,"à¦§à¦®à¦ķ":6510,"Ġà¦¯à¦ľà¦¨":6511,"Ġà¦¯à§İ":6512,"à¦ļà¦°à¦®":6513,"à¦ļà¦®à¦¤":6514,"à¦ļà¦ªà¦¦à¦¸":6515,"Ġà¦ķà¦°à¦¦":6516,"Ġà¦ķà¦°à¦ª":6517,"à§Łà¦¸à¦Ļ":6518,"Ġà¦Ĺà¦¸":6519,"à¦£à¦ĸ":6520,"à¦£à¦ªà¦ķ":6521,"à¦£à¦¸à¦Ļ":6522,"à¦¥à¦ļ":6523,"à¦¥à¦¸à¦®":6524,"Ġà¦ľà¦Ń":6525,"Ġà¦ıà¦ķà¦ķà¦Ń":6526,"Ġà¦Ľà¦Łà¦ķ":6527,"Ġà¦Ľà¦²à¦ļ":6528,"à¦łà¦¤à¦°":6529,"Ġà¦īà¦Ľ":6530,"Ġà¦īà§°":6531,"à¦ĤâĢĵ":6532,"à¦ĤâĢ¦":6533,"à¦Ļà§ľ":6534,"Ġà¦²à¦¬à¦Ļ":6535,"Ġà¦ĵà¦ľà¦¸":6536,"à§ĩ,---":6537,"Ġà¦ħà¦¨à¦®à¦¨":6538,"à¦¾à¥¤âĢ¦":6539,"à§ľà¦Ń":6540,"à§ľà¦Ļ":6541,"Ġà¦®à¦¨à¦°":6542,"à¦ªà¦°à¦®à¦£":6543,"à¦®à¦¨à¦°":6544,"à¦®à¦¨à¦¦":6545,"à¦ľà¦¨à¦¬à¦°":6546,"à¦«à¦£":6547,"à¦īà¦ĸ":6548,"à¦īà¦¬à¦¨":6549,"à¦ªà¦¨à¦ķ":6550,"à§İà¦¸à¦¤":6551,"Ġà¦¸à¦¬à¦®":6552,"Ġà¦Łà¦¨à¦ķ":6553,"Ġà¦Łà¦²à¦Ľ":6554,"Ġà¦¬à¦²à¦²à¦ļà¦²":6555,"âĢĻà¥¤âĢĿ":6556,"Ġà¦ĩà¦®à¦¤":6557,"à¦ĺà¦ļ":6558,"Ġà¦ľà¦¨à¦¯":6559,"à¦¬à¦ªà¦¦":6560,"à¦°à¦®à¦¶à¦ķ":6561,"Ġà¦łà¦ķà¦¬":6562,"à¦¤à¦¨à¦¯":6563,"Ġà¦¢à¦ķà¦¢":6564,"à¦ħà¦ĺ":6565,"à¦ħà¦¥à¦°":6566,"à¦ħà¦Ĺà¦£":6567,"Ġà¦ħà¦®à¦°à¦¦":6568,"à¦ķà¦°à¦Ľ":6569,"Ġà¦Ĩà¦¶à¦°":6570,"à§ĩ?âĢĵ":6571,"à¦¾---":6572,"à¦¿à¦Ĥ)":6573,"Ġà¦ħà¦¤à¦ĸ":6574,"à¦²à¦¨à¦¶":6575,"Ġà¦īà¦ªà¦¶":6576,"Ġà¦®à¦¹à¦¡":6577,"à¦ĩà¦²à¦Ĺ":6578,"à¦§à¦¨à¦Ńà¦ľà¦¨":6579,"à¦°à¦ľà¦°":6580,"à¦°à¦ľà¦ķ":6581,"Ġà¦ķà¦²à¦ľ":6582,"à¦ļà¦²à¦Ń":6583,"à¦°à¦ĩà¦¬":6584,"Ġà¦Ĩà¦¤à¦ª":6585,"à¦ıà¦ĩà¦ĩ":6586,"à¦¸à¦®à¦·":6587,"Ġà¦¬à¦¹à¦¨à¦ķ":6588,"à¦Ĺà¦¨à¦¸":6589,"Ġà¦°à¦Ļà¦²":6590,"Ġà¦ªà¦¦à¦ª":6591,"à¦°à¦Ńà¦ŀ":6592,"à¦ªà¦¥à¦Ń":6593,"à¦¬à¦¸à¦Ń":6594,"Ġà¦¬à¦ĩà¦¸":6595,"Ġà¦¬à¦ĩà¦ıà¦°":6596,"à¦Łà¦²à¦®":6597,"Ġà¦«à¦²à¦ĵ":6598,"à¦·à¦ķà¦¥":6599,"à¦ľà¦²à¦ľ":6600,"Ġà¦Ĩà¦§à¦ª":6601,"Ġà¦Ĩà¦¡à¦®":6602,"à§°à¦¶":6603,"Ġà¦¶à¦¤à¦Ĺ":6604,"!âĢĿ,":6605,"Ġà¦¨à¦¬à¦¤à¦°":6606,"à¦¬à¦¶à¦Ļ":6607,"Ġà¦¸à¦®à§Łà¦¸":6608,"Ġ,âĢĶ":6609,"à¦Łà¦¬à¦ī":6610,"Ġà¦ĺà¦¨à¦¶":6611,"à¦®à§Łà¦¤":6612,"à¦²à¦Ĺà¦ŀ":6613,"à¦¹à¦°à¦£à¦ĩ":6614,"Ġà¦®à¦ľà¦¦":6615,"à¦¿;-":6616,"Ġà¦°à¦ĵà¦¶à¦¨à¦ĩ":6617,"à¤¶":6618,"à¤ļ":6619,"à§ĩâĢ¦à¥¤âĢĿ":6620,"à¦£à¦¨à¦Ĺà¦°":6621,"Ġà¦ħà¦Łà¦²à¦¤":6622,"Ġà¦Ĳà¦ķà¦®à¦¤":6623,"à¦ıà¦ĸà¦¨à¦ķ":6624,"Ġà§§à§¯à§§à§Ń":6625,"à¦¿âĢĻâĢĵ":6626,"hes":6627,"à§Ńà§¦":6628,"à¦¯à¦Ńà¦Ļ":6629,"à¦¸à¦¹à¦¬":6630,"ine":6631,"à¦·à§Łà¦¬à¦¸":6632,"Ġà¦ªà¦²à¦ķà¦¹":6633,"ree":6634,"Ġà¦Ĭà¦¹":6635,"Ġtheir":6636,"ĠĠčĊĠ":6637,"à¦¸à¦ķà¦²à¦ĩ":6638,"ens":6639,"à¦ıà¦®à¦¨à¦Ł":6640,"Ġà¦ľà§ľà¦¤":6641,"à¦¬à¦°à¦£à¦ķ":6642,"Ġsup":6643,"Ġà¦ļà¦°à¦£à¦§":6644,"à¦ļà¦°à¦£à¦¶":6645,"Ġà¦Ķà§İà¦¸":6646,"Ġag":6647,"Ġà¦ĩà¦®à¦ªà¦¸":6648,"à¦ĩà¦«à¦¸":6649,"Ġwere":6650,"à¦īà¦łà¦¬":6651,"à¦Ĩà¦¨à¦®à¦¨":6652,"à¦ħà¦Ĺà¦£à¦¨":6653,"Ġà¦¶à¦¨à¦¶à¦¨":6654,"Ġà§©à§¬":6655,"Ġà¦¨à¦Łà¦¬à¦°":6656,"Ġà§§à§¯à§Ńà§¦":6657,"Ġà¦ĸà¦°à¦ĸà¦°":6658,"Ġà¦¶à¦°à§İà¦¬":6659,"Ġà¤Ĩ":6660,"rav":6661,"ily":6662,"Ġrel":6663,"Ġwhat":6664,"age":6665,"Ġyour":6666,"à¦¦à¦«à¦¤à¦°":6667,"Ġà¦ļà¦®à¦ļà¦®":6668,"Ġà¦¢à¦ķà¦¢à¦ķ":6669,"!(":6670,"\"à¥¤":6671,")-":6672,",---":6673,"-âĢľ":6674,"37":6675,"?'":6676,"?âĢĶ":6677,"cend":6678,"ian":6679,"ire":6680,"ng":6681,"not":6682,"oT":6683,"rough":6684,"uch":6685,"ved":6686,"Â¦":6687,"×Ļ":6688,"à«":6689,"à®":6690,"âĨ":6691,"Ġz":6692,"Ġqu":6693,"ĠÑģ":6694,"à¦¾...âĢĿ":6695,"à¦¿à§ĩ":6696,"à¦¿ÂŃ":6697,"à¦¨à¦ªà¦ķ":6698,"à¦¤à¦ļà¦²":6699,"à¦¤à¦ľà¦²":6700,"à¦¤à¦°à¦¤à¦®":6701,"à¦ķà¦ĵà¦¯":6702,"à¦ķà¦¶à¦ķ":6703,"à¦¯à¦°à¦¤":6704,"à¦¯à¦Ĺà¦°":6705,"à¦¬à¦¬à¦¨":6706,"à¦¬à¦¸à¦°":6707,"à¦¬à¦Ńà¦°":6708,"à¦¬à¦ľà¦¨à¦ķ":6709,"à§ĭà¦¾":6710,"à§ĭ...":6711,"Ġà¦ķà¦Ľ":6712,"Ġà¦ķà¦Łà¦¨":6713,"Ġà¦ķà¦ĩà¦Ľ":6714,"à¥ĥ":6715,"à¦¸à¦¬à¦²":6716,"à¦¸à¦°à¦¶":6717,"à¦¸à¦¹à¦¨":6718,"à¦¸à¦¸à¦¹":6719,"Ġà¦Ĩà¦ĩà¦ª":6720,"à¦¦à¦°à¦¤":6721,"Ġà¦¨à¦°à¦¸":6722,"Ġà¦¨à¦ĸà¦°":6723,"Ġà¦®à¦ĩà¦¨":6724,"Ġà¦®à¦Ĺà¦Ł":6725,"à¦ªà¦¤à¦°":6726,"à¦ĩà¦·":6727,"à¦ĩà¦ı":6728,"à¦ĩà¦°à¦¨":6729,"à¦ĩà¦īà¦ľ":6730,"à§ĢâĢĿà¥¤":6731,"à¦Ľà¦®":6732,"à¦ľà¦®à¦¤":6733,"à¦ľà¦ªà¦¦":6734,"à¦ľà¦ĺà¦°":6735,"Ġà¦¤à¦¦à¦¬":6736,"Ġà¦¤à¦ªà¦¶":6737,"à¦ĸà¦¬à¦¨":6738,"à¦Ĺà¦ªà¦¥":6739,"à¦Ĺà¦ľà¦¨à¦ķ":6740,"à¦·à¦¦à¦°":6741,"à¦·à¦ªà¦¤":6742,"à¦§à¦°à¦¤":6743,"à¦§à¦¬à¦¨":6744,"à¦§à¦¬à¦²":6745,"à¦ļà¦«":6746,"à¦¹à¦ªà¦¤":6747,"à§Łà¦ª":6748,"à¦£à¦ĺ":6749,"à¦¥à¦Ļ":6750,"Ġà¦Ńà¦ķà¦¤":6751,"Ġà¦°à¦¸à¦®":6752,"Ġà¦ıà¦ķà¦ªà¦°":6753,"à¦¼à¦¾)":6754,"Ġà¦Ĩà¦®à¦°à¦£":6755,"à¦łà¦§":6756,"à¦Ļà¦¡":6757,"Ġà¦²à¦Łà¦ķ":6758,"Ġà¦²à¦ķà¦²à¦ķ":6759,"Ġà¦«à¦Łà¦«à¦Ł":6760,"Ġà¦«à§Łà¦¸":6761,"Ġà¦Ĩà¦°à¦ª":6762,"Ġà¦ĸà¦ļà¦°":6763,"Ġà¦§à¦¨à¦ķ":6764,"ĠâĢ¢":6765,"à¦¼à¦¿âĢ¦":6766,"Ġà¦ıà¦ĩà¦¦":6767,"à¦ľà¦¨à¦ª":6768,"Ġà¦Ĩà¦²à¦ķ":6769,"Ġà¦Ĩà¦²à¦¯":6770,"à§İà¦«":6771,"à¦Ĩà¦ĩà¦¸":6772,"à¦¬à¦°à¦°":6773,"Ġà¦¬à¦²à¦²à¦Ĩà¦°":6774,"Ġà¦¬à¦²à¦²à¦ıà¦¬":6775,"âĢĻ?":6776,"Ġà¦¡à¦Ļ":6777,"à§Ī,":6778,"Ġà¦ĩà¦«":6779,"Ġà¦ĩà¦īà¦ľ":6780,"à¦ĺà¦«":6781,"Ġà¦ļà¦²à¦ķ":6782,"à¦·à¦£à¦¬":6783,"Ġà¦ıà¦¸à¦¸":6784,"à¦¤à¦¨à¦¦":6785,"à¦¤à¦¨à¦Ĺ":6786,"Ġà¦¬à¦¨à¦¶":6787,"à¦ķà¦²à¦ľ":6788,"Ġà¦Ĩà¦Ĺà¦®à¦£":6789,"à¦²à¦ķà¦Ĺ":6790,"à¦¦à¦¨à¦§":6791,"à¦¦à¦¨à¦®à¦¯":6792,"Ġà¦¬à¦°à¦ĩ":6793,"à§ĩ?'":6794,"Ġà¦ıà¦²à¦ĩà¦¡":6795,"à¦Ĺà¦²à¦®à§Ł":6796,"à¦Ĺà¦¤à¦ĩ":6797,"à¦¿à¦Ĥ!âĢĿ":6798,"Ġà¦īà¦ªà¦¬à¦¨":6799,"Ġà¦īà¦ªà¦¸à¦°":6800,"à¦ĩà¦²à¦¹":6801,"à¦°à¦¦à¦®":6802,"à¦¨à¦¨à¦ķ":6803,"à¦¸à¦®à¦£":6804,"âĢ¦à¥¤âĢĻ":6805,"Ġà¦¬à¦Ľà¦°à¦ĵ":6806,"Ġà¦ªà¦¦à¦®à¦°":6807,"à§ĩ!)":6808,"à¦¶à¦¬à¦ķ":6809,"à¦ıà¦ķà¦¯":6810,"à¦ıà¦ķà¦«":6811,"à¦¨à¦ķà¦¶":6812,"à¦¨à¦ķà¦£":6813,"Ġà¦¬à¦ĩà¦ĵ":6814,"à¦¤à¦ķà§ľ":6815,"Ġà¦ĵà¦ĩà¦¦":6816,"à¦¹à¦¨à¦Ĺà¦ŀ":6817,"Ġà¦¶à¦¤à¦¶à¦¤":6818,"à¦¸à¦ķà¦¦à¦²":6819,"à¦ĩà¦Łà¦Ł":6820,"à¦¯à¦°à¦Ļ":6821,"à¦īà¦²à¦ĵ":6822,"à¦°à¦®à¦£à¦ªà¦¥":6823,"Ġà¦Ĺà¦£à¦¸":6824,"Ġà¦¬à§ľà¦°":6825,"à¦¦à¦¸à¦ĩ":6826,"à¦°à¦°à¦Ļ":6827,"Ġte":6828,"à§Ŀà¦Ń":6829,"à¦¸à¦¹à¦¦":6830,"Ġà¦¹à¦ĩà¦ļ":6831,"ank":6832,"ond":6833,"à§ĩ!âĢĿâĢĶ":6834,"Ġà¦Ĩà§ľà¦·":6835,"Ġà¦Ĩà¦ļà¦°à¦£à¦ķ":6836,"ata":6837,"ather":6838,"à¦¸à¦ķà¦²à¦ķ":6839,"Ġout":6840,"Ġà¦ıà¦°à¦ªà¦°à¦ĵ":6841,"à¦²à¦¦à¦¹":6842,"à¦Ńà§Łà¦ķ":6843,"à¦¯à¦Ĺà¦łà¦¨":6844,"Ġà¦Ķà¦°":6845,"Ġà¦²à§ľà¦Ľ":6846,"Ġà¦Ĩà¦Łà¦¶":6847,"Ġà¦Ĩà¦Łà¦ļ":6848,"Ġà¦ĩà¦Łà¦Ń":6849,"Ġà¦Ĩà¦ĩà¦ı":6850,"Ġcould":6851,"Ġoff":6852,"Ġpass":6853,"ÂłÂłÂłÂłÂłÂłÂłÂłÂłÂłÂłÂłÂłÂłÂłÂłÂłÂłÂłÂłÂłÂłÂłÂł":6854,"ick":6855,"ication":6856,"Ġà§©à§§":6857,"Ġà§©à§Ń":6858,"à¦ħà¦ªà¦°à¦¦":6859,"vel":6860,"old":6861,"Ġà§«à§«":6862,"à§§à§¯à§®":6863,"Ġbeing":6864,"ild":6865,"igh":6866,"igital":6867,"ĠSo":6868,"à¦¨à§Łà¦¨à¦ķ":6869,"ety":6870,"à¦¿'à¥¤":6871,"Ġà§Ńà§«":6872,"Ġgreat":6873,"áĥĺ":6874,"Ġà§§à§®à§«à§Ń":6875,"Ġà¦ĩà¦¨à¦«à¦°à¦®":6876,"à¦ıà¦®à¦ıà¦¸":6877,"ividual":6878,"ips":6879,"Ġnever":6880,"ack":6881,"Ġabstra":6882,"æŃĵæŃĵæŃĵæŃĵæŃĵæŃĵæŃĵæŃĵæŃĵæŃĵæŃĵæŃĵæŃĵæŃĵæŃĵæŃĵ":6883,"Ġworld":6884,"Ġevery":6885,"Ġà¦Ĩà¦ĩà¦ķà¦¨":6886,"âĢ¨čĊč":6887,"ways":6888,"Ġknow":6889,"!\"":6890,"!âĢ¦":6891,"-âĢĻ":6892,"36":6893,"?)":6894,"?âĢĵ":6895,"TI":6896,"aj":6897,"az":6898,"aut":6899,"bor":6900,"cl":6901,"hat":6902,"hol":6903,"ious":6904,"ject":6905,"low":6906,"ug":6907,"yst":6908,"¿½":6909,"Â¤":6910,"Ø¯":6911,"ï¿½":6912,"čĊ":6913,"Ġher":6914,"à§ĩà¦¾,":6915,"à¦°à¦²à¦¤":6916,"à¦°à¦ĩà¦²":6917,"à¦°à¦Ĩà¦¨":6918,"à§įâĢĶ":6919,"à¦¿à§Ģ":6920,"à¦¨à¦ļà¦ķ":6921,"à¦¤à§İ":6922,"à¦²à¦¬à¦ª":6923,"à¦²à¦ļà¦¨":6924,"à¦²à¦ªà¦ķ":6925,"à¦²à¦°à¦ķà¦®":6926,"à¦²à¦Łà¦¨":6927,"à¦ķà¦¨à¦Ł":6928,"à¦ķà¦¸à¦¬à¦ľ":6929,"à¦¬à§İà¦ķ":6930,"à¦¬à¦®à§Ł":6931,"à¦¬à¦®à¦¹":6932,"à¦¬à¦ľà§Ł":6933,"à¦¼âĢĻà¥¤":6934,"à¦®à¦®à¦£":6935,"à¦®à¦¸à¦²":6936,"à¦®à¦¸à¦Ļ":6937,"Ġà¦¸à¦°à¦¬à¦¤":6938,"Ġà¦¸à¦ĵà¦Ĺ":6939,"à¦¸à¦§":6940,"à¦¸à¦¯à¦¨":6941,"à¦¸à§İà¦ķ":6942,"Ġà¦Ĩà¦¹à¦²":6943,"à¦¦à¦²à¦¬":6944,"à¦¦à§°":6945,"à¦Łà¦ĺ":6946,"Ġà¦¨à¦¨à¦¸":6947,"Ġà¦¨à¦°à¦¹à¦°":6948,"Ġà¦¨à¦¦à¦¨à¦¦":6949,"Ġà¦®à¦°à¦ķ":6950,"Ġà¦®à¦²à¦¤":6951,"à¦ªà¦¹à¦°":6952,"à¦ªà¦®à§Ł":6953,"à¦ªà¦¯à¦ľ":6954,"à¦ĩà¦ĵà§Ł":6955,"à¦ĩà¦ĺà¦°":6956,"à¦ĩà¦¦à¦¹":6957,"Ġà¦¦à¦°à¦Ĺ":6958,"à¦ľà¦ĵà¦¯":6959,"à¦ľà¦¹à¦°":6960,"Ġà¦¹à¦°à¦ª":6961,"Ġà¦¤à¦¸à¦¬":6962,"à¦¶à¦²à¦¯":6963,"à¦¶à¦Ńà¦Ļ":6964,"à¦¼à§ĩ!âĢĿ":6965,"à¦¼à§ĩâĢĶâĢľ":6966,"Ġà¦ħà¦ĵ":6967,"Ġà¦ħà¦Ĺà¦¨":6968,"à¦ĸà¦ļà¦°":6969,"à¦ĸà¦®à§Ł":6970,"à¦Ĺà¦ªà¦°":6971,"à¦Ĺà¦ªà¦¤":6972,"à¦Ĺà¦¸à¦®":6973,"à¦Ĺà¦¸à¦¹":6974,"à¦§à¦¸à¦¤":6975,"à¦§à¦¶à¦ķ":6976,"à¦§à¦Ńà¦°":6977,"Ġà¦¯à¦®à¦¦":6978,"à¦ļà¦¢":6979,"Ġà¦ķà¦°à¦¸":6980,"à§Łà¦¡à¦«":6981,"Ġà¦Ĺà¦ľà¦¬":6982,"Ġà¦¶à§Ł":6983,"Ġà¦¶à¦¤à¦°à¦Ļ":6984,"Ġà¦ľà¦ªà¦¤":6985,"Ġà¦ļà§ľà¦¤":6986,"Ġà¦ļà¦ĵà§ľ":6987,"Ġà¦°à¦°":6988,"à¦Ńà¦ķà¦°":6989,"à¦Ńà§İà¦¸à¦¤":6990,"Ġà¦ıà¦ķà¦¶à¦¬":6991,"Ġà¦ıà¦ķà¦ıà¦ķà¦Ł":6992,"Ġà¦ıà¦ķà¦¶à¦¤":6993,"à¦¼à¦¾!âĢĿ":6994,"à¦¼à¦¾?âĢĿ":6995,"Ġà¦Ĩà¦®à¦¡":6996,"à¦łà¦ļà¦ķ":6997,"Ġà¦īà¦®à¦°":6998,"Ġà¦²à¦ĩà¦¤":6999,"Ġà¦ĵà¦ĺà¦°":7000,"Ġà¦«à¦ķà¦«":7001,"Ġà¦Ĩà¦°à¦¬à¦¦":7002,"à¦°à¦¤à¦ª":7003,"à¦°à¦¤à¦ļà¦¨":7004,"Ġà¦ªà¦°à¦ļ":7005,"Ġà¦§à¦¨à¦¦":7006,"Ġà¦¸à¦®à¦ħà¦§":7007,"à¦¬à¦¨à¦¤":7008,"à¦¬à¦¨à¦ĸ":7009,"à¦¬à¦¨à¦Ĺà¦°":7010,"à¦ªà¦°à¦Ł":7011,"à¦°à¦£à¦°":7012,"à¦°à¦£à¦ķà¦¬":7013,"à¦®à¦¨à¦®":7014,"à¦ľà¦¨à¦§à¦°":7015,"à¦ŀà¦¬à¦¨":7016,"à¦ŀà¦¸à¦®":7017,"à¦īà¦§":7018,"à¦īà¦ĵ":7019,"à¦īà¦ıà¦°":7020,"à¦Ĩà¦¬à¦¦":7021,"à¦Ĩà¦ĸà¦¡":7022,"à¦°à¦¬à¦ª":7023,"à¦°à¦¬à¦ĵ":7024,"à¦ıà¦¤à¦ĩ":7025,"à¦¬à¦°à¦¸à¦Ń":7026,"Ġà¦Łà¦ĩà¦Ł":7027,"Ġà¦¬à¦²à¦²à¦ĸ":7028,"Ġà¦¬à¦²à¦²à¦ıà¦ĸà¦¨":7029,"Ġà¦Ĩà¦¸à¦¨à¦Ł":7030,"Ġà¦ĩà¦īà¦ķ":7031,"Ġà¦ĩà¦¶à¦°":7032,"Ġà¦ªà¦¡à¦ķ":7033,"à¦ĺà¦Ń":7034,"à¦ĺà¦¦à¦²":7035,"Ġà¦ľà¦¨à¦¬":7036,"Ġà¦ľà¦¨à¦¸à¦¨":7037,"Ġà¦ľà¦¨à¦¬à¦¸à¦¤":7038,"à¦¬à¦²à¦Ń":7039,"à¦°à¦®à¦ĵ":7040,"à¦°à¦®à¦¥à¦¨":7041,"Ġà¦łà¦¨":7042,"à¦ħà§Łà¦¨":7043,"à¦ħà¦ĸà¦£":7044,"Ġà¦¬à¦¨à¦¦":7045,"Ġà¦ħà¦®à¦¸":7046,"Ġà¦ħà¦®à¦²à¦¤":7047,"à¦ķà¦Łà¦®à§Ł":7048,"à¦°à¦¨à¦¬":7049,"à¦²à¦ķà¦®à¦²":7050,"à¦¤à¦¬à¦¸":7051,"à¦¤à¦¬à¦¸à¦®":7052,"Ġà¦¹à¦¤à¦¦à¦°":7053,"Ġà¦Ĩà¦¨à¦ļ":7054,"Ġà¦ľà¦²à¦ļà¦°":7055,"à¦Ĺà¦²à¦ĩ":7056,"à¦Ĺà¦²à¦ĵ":7057,"à¦¶à¦¨à¦¸":7058,"à¦¶à¦¨à¦¶":7059,"Ġà¦ħà¦¤à¦ķ":7060,"Ġà¦ħà¦¤à¦¦":7061,"à¦°à¦¹à¦¹":7062,"Ġà¦īà¦ªà§ľ":7063,"à¦°à¦¯à¦¤":7064,"à¦ĩà¦²à¦ļ":7065,"à¦²à¦¬à¦¸":7066,"à¦²à¦¬à¦¦à¦²":7067,"Ġà¦ħà¦ªà¦ĺ":7068,"Ġà¦ķà¦²à¦®à¦Ł":7069,"à¦ļà¦²à¦ļ":7070,"à¦Ńà¦¬à¦ĵ":7071,"à¦¹à¦²à¦¹":7072,"Ġà¦°à¦Ļà¦¹":7073,"Ġà¦īà§İà¦¸à¦®":7074,"à¦¦à§Łà¦Ĺ":7075,"à¦ªà¦¦à¦¸à¦Ļ":7076,"à¦ıà¦ķà¦¸à¦®à§Ł":7077,"à¦®à¦£à¦¬":7078,"à¦¬à¦¸à¦²":7079,"à§įâĢĮâĢĻ":7080,"à¦°à¦ªà¦Ļ":7081,"Ġà¦«à¦²à¦²":7082,"Ġà¦ĩà¦¨à¦ª":7083,"à¦ªà¦ķà¦¤à¦°":7084,"Ġà¦Ĩà¦§à¦¬":7085,"à§ģâĢĻ,":7086,"à§ģâĢĻà¥¤":7087,"Ġà¦Ńà¦¬à¦®":7088,"à§°à¦ĩ":7089,"Ġà¦¦à¦²à¦ĩ":7090,"à¦¨à¦¸à¦Ń":7091,"à¦¨à¦°à¦Ļ":7092,"à¦ĩà¦Łà¦¨":7093,"Ġà¦Ĩà¦¦à¦¬":7094,"à¦īà¦²à¦Ł":7095,"à¦īà¦²à¦Ĺ":7096,"à¦Ŀà¦²à¦¸":7097,"à¦°à¦®à¦£à¦¸":7098,"à¦°à¦®à¦£à¦Ń":7099,"Ġà¦ķà¦¨à¦¡":7100,"Ġà¦°à¦ķà¦®à¦Ń":7101,"à¦®à¦¸à¦Ń":7102,"Ġà¦ľà¦°à§İà¦ķ":7103,"Ġà¦¨à¦°à¦®à¦¤":7104,"à¦Łà¦¨à¦®":7105,"à¦²à¦®à¦¹":7106,"à¦Ĺà¦®à¦Ĺ":7107,"Ġà¦§à¦¨à¦°à¦¤":7108,"à¦¡à¦²à¦«":7109,"à¦¨à¦Ńà¦¨":7110,"Ġà¦¶à¦¹à¦°à¦ĩ":7111,"Ġà¦ľà¦¬à¦ľà¦¬":7112,"Ġà¦¦à¦®à¦ķà¦²":7113,"à¦°à¦«à¦°":7114,"Ġà¦īà§ľà¦²":7115,"Ġà¦īà§ľà¦¬":7116,"à¦¶à¦¤à¦ªà¦¥":7117,"Ġà¦ĩà¦²à¦¶":7118,"ont":7119,"à¦¨à§Łà¦¨à¦¶":7120,"Ġà§¨à§Ń":7121,"à¦¾à¦ĥâĢĵ":7122,"Ġà¦ļà¦°à¦®à¦Ń":7123,"iss":7124,"Ġother":7125,"à§ĩâĢĻâĢĵ":7126,"Ġà¦²à§ľà¦¬":7127,"Ġad":7128,"ark":7129,"à§ģà¦Ĥ-":7130,"Ġpe":7131,"Ġfound":7132,"oub":7133,"Ġdes":7134,"Ġhor":7135,"à¦¤à¦ļà¦°à¦¬":7136,"Ġthink":7137,"à¦£à¦Ńà¦Ł":7138,"rah":7139,"Ġbeen":7140,"à¦£à¦Ĺà¦¤à¦®":7141,"Ġà¦īà¦ĩà¦²à¦¸à¦¨":7142,"Ġà¦ĺà¦·à¦Ľ":7143,"à¦®à¦«à¦²à¦ķ":7144,"à¦°à¦¡à¦ĵà¦¯":7145,"Ġgr":7146,"Ġà¦ķà¦¸à¦°à¦¤":7147,"áĥĲ":7148,"ĠRiya":7149,"Ġà§§à§¯à§ªà§¨":7150,"Ġà¦¹à¦°à¦«à¦Ĺ":7151,"ĠDetective":7152,"ĠNot":7153,"Ġà¦ĩà¦¸à¦®à¦¤à¦ķ":7154,"cience":7155,"Ġà§§à§Ńà§«à§¬":7156,"Ġonly":7157,"Ð°Ð":7158,"ered":7159,"ÂŃÂŃÂŃÂŃ":7160,"Ġ___":7161,"****************":7162,"Ġà¦«à¦¸à¦«à¦¸":7163,"Ġsome":7164,"Ġdisc":7165,"Ġclass":7166,"Ġà¦ĸà¦ļà¦°à¦ĸà¦ļà¦°":7167,"Ġà¦«à¦ķà¦«à¦ķ":7168,"!-":7169,"):":7170,"39":7171,"?-":7172,"ER":7173,"IoT":7174,"eb":7175,"ex":7176,"hin":7177,"ric":7178,"sh":7179,"sha":7180,"ted":7181,"vol":7182,"à´":7183,"ä¸":7184,"ĠX":7185,"ĠÃ":7186,"ĠÙ":7187,"Ġus":7188,"Ġro":7189,"Ġup":7190,"ĠÙĨ":7191,"ķ×":7192,"à§ĩà¦¾-":7193,"à§ĩà¦ĥà¥¤":7194,"à¦°à¦¡à¦ķ":7195,"à§į?":7196,"à¦¨à§ľ":7197,"à¦¨à¦¦à¦¯":7198,"à¦¤à¦ŀ":7199,"à¦¤à¦¦à¦°":7200,"à¦¤à¦¸à¦¨":7201,"à¦¤à¦¤à¦²":7202,"à¦¤à¦®à¦°":7203,"à¦¤à¦ªà¦Ł":7204,"à¦¤à¦¸à¦ķ":7205,"à¦¤à¦ľà¦¬":7206,"à¦²à¦¸à¦¬":7207,"à¦²à¦ĵà§Ł":7208,"à¦ķà¦®à¦¨":7209,"à¦ķà¦ķà¦°":7210,"à¦ķà¦ļà¦°":7211,"à¦ķà¦®à§Ł":7212,"à¦ķà¦ıà¦°":7213,"à¦¯à¦ķà¦¤":7214,"à¦¯à¦®à¦ķ":7215,"à¦¯à¦¶à¦ķ":7216,"à¦¯à§°":7217,"à§ģà§Ĥ":7218,"à§ģâĢ¦âĢĿ":7219,"à¦¬à¦ķà¦¤":7220,"à¦¬à¦Ĺà¦²":7221,"à¦¬à¦¬à¦¸":7222,"à¦¬à¦īà¦®":7223,"à¦®à¦¬à¦¤":7224,"à¦®à¦¸à¦¤":7225,"à¦®à¦ĺà¦¨":7226,"à¦®à¦·à¦ª":7227,"à§ĭâĢĿ,":7228,"Ġà¦ķà¦ķà¦Ł":7229,"Ġà¦¬hol":7230,"à¦¸à¦¤à¦¨":7231,"à¦¸à¦ķà¦¤":7232,"à¦¸à¦ĵà§Ł":7233,"Ġà¦ªà¦·":7234,"Ġà¦ªà¦¬à¦®":7235,"Ġà¦Ĩà¦¦à¦¨":7236,"Ġà¦Ĩà¦ĩà¦¬":7237,"à¦¦à¦ķà¦°":7238,"à¦¦à¦²à¦ķ":7239,"à¦¦à¦¤à¦¤":7240,"à¦Łà¦°à¦ķ":7241,"à¦Łà¦¬à¦ķ":7242,"Ġà¦¨à¦ĵà¦²":7243,"à¦ªà¦¸à¦¨":7244,"à¦ªà¦£à¦¤":7245,"à¦ĩà¦ķà¦²":7246,"à¦ĩà¦ķà¦Ł":7247,"à¦ĩà¦¸à¦®à¦¯":7248,"à¦ľà¦ŀ":7249,"à¦ľà¦¤à¦¤":7250,"Ġà¦¹à¦°à¦¨":7251,"Ġà¦ıà¦°à¦¶":7252,"à¦¼à§ĩ--":7253,"à¦ĸà¦®à¦¨":7254,"à¦Ĺà§İ":7255,"à¦Ĺà¦¬à¦²":7256,"à¦Ĺà¦Ĺà¦¤":7257,"à¦Ĺà¦£à¦¨":7258,"à¦Ĺà¦¯à¦ľ":7259,"à¦§à¦Ĺà¦²":7260,"Ġà¦¯à¦®à¦²":7261,"à¦ļà¦°à¦ķ":7262,"à¦ļà¦¨à¦¬":7263,"à¦ļà¦Ĺà¦¤":7264,"à¦¹à¦¡":7265,"à¦¹à¦¨à¦¤":7266,"à¦¹à¦Ĺà¦¤":7267,"à¦£à¦ķà¦£":7268,"à¦¥à¦ĸ":7269,"à¦¥à¦ķà¦°":7270,"à¦¥à¦°à¦ļ":7271,"Ġà¦¶à¦ķà¦¤":7272,"Ġà¦ľà¦Ĺà¦ľ":7273,"Ġà¦ļà¦®à¦¤":7274,"Ġà¦°à¦¡à¦Ł":7275,"à¦Ńà¦¡":7276,"à¦Ńà¦£":7277,"à¦¼à¦¾!âĢĻ":7278,"Ġà¦Ĩà¦®à¦ļ":7279,"à¦łà¦ł":7280,"Ġà¦īà¦Ń":7281,"à¦Ĥ!":7282,"Ġà¦ĵà¦¨à¦²":7283,"Ġà¦¥à¦ª":7284,"Ġà¦«à¦°à¦¹":7285,"Ġà¦ĸà¦¨à¦ķ":7286,"à¦¬à¦¨à¦²":7287,"à¦¬à¦¨à¦¸à¦Ļ":7288,"à¦¼à¦¿'":7289,"Ġà¦ĺà¦¸":7290,"à¦ªà¦°à¦¨":7291,"à¦°à¦£à¦¶":7292,"à¦®à¦¨à¦Ĺà¦°":7293,"à¦ľà¦¨à¦¯":7294,"à¦ŀà¦ķà¦°":7295,"à¦«à¦°à¦®":7296,"à¦īà¦°à¦²":7297,"à¦īà¦ªà¦¦":7298,"à¦īà¦¨à¦¸":7299,"à¦¿,--":7300,"Ġà¦Ĩà¦²à¦®à¦ķ":7301,"Ġà¦Ĩà¦²à¦ªà¦¥":7302,"à§İà¦ªà¦¦":7303,"à¦Ĩà¦ĩà¦²":7304,"à¦Ĩà¦ªà¦¡":7305,"à¦Ĩà¦¬à¦¹":7306,"à¦Ĩà¦Łà¦Ł":7307,"à¦°à¦¬à§İ":7308,"à¦°à¦¬à¦¦à¦¨":7309,"Ġà¦¬à¦²à¦²à¦ľ":7310,"Ġà¦¬à¦²à¦²à¦ł":7311,"à¦¼à¥¤âĢĺ":7312,"Ġà¦¹à¦²à¦ĵà¦¯":7313,"Ġà¦¹à¦²à¦«à¦¨":7314,"Ġà¦ĩà¦¹à¦ķ":7315,"ĠĠčĊčĊ":7316,"à¦¼,âĢĻ":7317,"à¦ĥâĢĻ":7318,"à¦ħà¦°à¦¬":7319,"à¦ħà¦«à¦²":7320,"Ġà¦¬à¦¨à¦¨":7321,"Ġà¦¬à¦¨à¦ļ":7322,"Ġà¦¬à¦¨à¦¬à¦¨":7323,"à¦ķà¦²à¦ķà¦²":7324,"à¦ķà¦°à¦¸":7325,"Ġà¦¹à§Łà¦°":7326,"à¦ķà¦Łà¦ĩ":7327,"à§ĭà¥¤\"":7328,"Ġà¦Ĩà¦ķà¦Ľ":7329,"à¦¤à¦¬à¦Ĺ":7330,"à¦¨à¦¬à¦¬à¦¨":7331,"Ġà¦ħà¦¦à¦²à¦¬à¦¦à¦²":7332,"Ġà¦ħà¦°à¦«":7333,"Ġà¦ľà¦²à¦¤":7334,"Ġà¦ħà¦¤à¦¶à¦¤":7335,"à¦¯à¦ķà¦¶":7336,"à¦§à¦ķà¦°à¦£":7337,"à¦¹à¦¸à¦ĵ":7338,"à¦¬à¦¤à¦²":7339,"Ġà¦¯à¦ĸà¦¨à¦¤à¦ĸà¦¨":7340,"à¦²à¦¬à¦¬":7341,"Ġà¦ıà¦®à¦¨à¦¤à¦°":7342,"Ġà¦ķà¦²à¦ªà¦¨":7343,"à¦¹à¦°à¦·":7344,"Ġà¦īà¦¤à¦¥":7345,"à¦ĩà¦¨à¦·":7346,"à¦ĩà¦¨à¦¹":7347,"à¦°à¦ªà¦°à¦¨":7348,"Ġà¦¹à¦łà¦¯":7349,"à¦Łà¦ķà¦¥":7350,"âĢ¦)":7351,"Ġà¦Ĳà¦Ń":7352,"Ġà¦°à¦Ļà¦ĵ":7353,"Ġà¦°à¦Ļà¦ļà¦Ļ":7354,"Ġà¦ªà¦¦à¦¶à¦¬":7355,"à¦¸à¦°à¦Ĺ":7356,"à§ĩ!âĢĶ":7357,"à¦¦à§Łà¦¤":7358,"à¦ıà¦ķà¦ªà¦°":7359,"à¦®à¦£à¦Ł":7360,"à¦®à¦£à¦ĩ":7361,"à¦¦à¦²à¦¬à¦²":7362,"à¦·à¦¤à¦Ł":7363,"à¦°à¦ªà¦ŀ":7364,"à¦Łà¦²à¦®à¦²":7365,"à¦¨à¦Łà¦°":7366,"à¦²à¦²à¦ĵà¦¹":7367,"Ġà¦ħà¦¶à¦ķ":7368,"Ġà¦Ĩà¦§à¦®à¦°":7369,"à¦¤à¦¤à¦¦":7370,"à¦¤à¦¤à¦ĩ":7371,"à¦¹à¦¨à¦ª":7372,"Ġà¦ħà¦²à¦Ĺ":7373,"à¦ªà¦Łà¦Ń":7374,"à§°à¦¬à¦²":7375,"à¦¸à¦«à¦°":7376,"Ġà¦¦à¦²à¦ĵ":7377,"Ġà¦Ĩà¦Ļà¦Ł":7378,"à¦¨à¦Ĺà¦®":7379,"ÂłÂłÂłÂłÂłÂłÂłÂłÂłÂłÂłÂłÂłÂłÂłÂłÂłÂłÂłÂłÂłÂłÂł":7380,"Ġà¦¸à¦¹à¦ľà¦¸":7381,"à¦¼à¦¾à¥¤à¥¤":7382,"à¦Ĩà¦°à¦Ĩà¦ĩ":7383,"à¦°à¦Ĺà¦ŀ":7384,"à¦°à¦®à¦£à¦¸à¦Ļ":7385,"Ġà¦ķà¦¨à¦Ńà¦¯":7386,"Ġà¦ķà¦¨à¦ķà¦²à¦¤":7387,"à¦®à§Łà¦²":7388,"Ġà¦Ĺà¦£à¦¹à¦¤":7389,"à¦ľà¦¬à¦īà¦¦":7390,"Ġà¦¬à¦īà¦¬":7391,"Ġà¦¬à¦īà¦Ŀ":7392,"à¦ªà¦£à¦¨":7393,"à¦ªà¦£à¦ķ":7394,"Ġà¦ħà¦Łà¦²à¦Ń":7395,"Ġà¦Īà¦Ļ":7396,"à¦Ĩà¦ķà¦¸":7397,"à¦ķà¦°à¦£à¦Ĺà¦¤":7398,"à¤§":7399,"à¤Ń":7400,"Ġà¦ľà§Łà¦ľà§Łà¦ķ":7401,"à§Ŀà¦ļ":7402,"à§©à§®":7403,"à¦®à¦ªà¦ŀ":7404,"inal":7405,"à¦°à¦«à§İ":7406,"à¦¤à¦¸à¦ĩ":7407,"à¦£à¦ķà¦®à¦²":7408,"à¦¬à¦®à¦Ļ":7409,"à¦¬à¦ľà¦¨à¦°":7410,"à¦¬à¦ľà¦¨à¦Ĺ":7411,"Ġà¦ĸà¦°à¦ļà¦ĵ":7412,"ative":7413,"à¦Ĩà¦¶à¦Ļ":7414,"à¦ħà¦¬à¦¸à¦¨":7415,"à¦Ĩà¦¬à¦°à¦£":7416,"Ġà¦ıà¦¡à¦Ń":7417,"ert":7418,"ished":7419,"Ġ''":7420,"à§¯à§«":7421,"ite":7422,"à§ĭ;-":7423,"à¦¦à¦ªà¦¤à¦¨":7424,"Ġcount":7425,"Ġà¦®à¦°à¦£à¦ķ":7426,"esh":7427,"Ġmore":7428,"Ġà¦Ĩà¦«à¦¨":7429,"Ġà¦°à¦£à¦¸":7430,"Ġposs":7431,"Ġpower":7432,"à¦ħà¦ªà¦²à¦ķ":7433,"Ġfact":7434,"Ġfreedom":7435,"Ġà¦ĩà¦īà¦ıà¦¸à¦¬":7436,"à¦¤à¦ļà¦°à¦¦":7437,"à§ĩâĢĿ,":7438,"Ġà¦¨à§ľà¦²":7439,"Ġà¦¶à¦¶à¦§à¦°":7440,"Ġà¤ī":7441,"à¦Īà¦®":7442,"Ġà¦¨à¦Ĺà¦°à¦¬":7443,"à§§à§¯à§ªà§Ń":7444,"Ġà¦Ńà¦Łà¦ļ":7445,"ign":7446,"ĠSt":7447,"à¦¯à¦ľà¦¨à¦ķà¦Ń":7448,"ĠRah":7449,"Ġà§§à§¯à§ªà§¯":7450,"ĠCom":7451,"Ġà§§à§¯à§¯à§¨":7452,"Ġà¦§à¦ķà¦§à¦ķ":7453,"Ġcons":7454,"Ġà§§à§¯à§¬à§Ń":7455,"Ġà§§à§¯à§¬à§®":7456,"Ġà§¨à§¦à§¦à§ª":7457,"Ġà§§à§¯à§®à§¯":7458,"Ġà¦ªà¦łà¦¨à¦ª":7459,"Ġà¦¤à§İà¦¸à¦¤":7460,"erson":7461,"Ġà¦ªà¦ļà¦¨à¦¶":7462,"Ġà¦¬à¦°à¦¬à§°":7463,"Ġà¦Ńà¦°à¦£à¦ª":7464,"Ġindividual":7465,"Ġinto":7466,"Ġà¦¥à¦ĩà¦¥à¦ĩ":7467,"Ġjust":7468,"Ġdoes":7469,"ipsism":7470,"Ġà¦ħà¦ĵà¦°à¦¤":7471,"ĠNothing":7472,"'-":7473,"38":7474,"42":7475,"43":7476,"45":7477,"ED":7478,"OO":7479,"RE":7480,"by":7481,"cret":7482,"eat":7483,"fin":7484,"ful":7485,"fore":7486,"ja":7487,"lo":7488,"oet":7489,"pan":7490,"pend":7491,"sl":7492,"self":7493,"ta":7494,"uhin":7495,"£áĥ":7496,"Â»":7497,"Ð²":7498,"Ð´":7499,"Ñĭ":7500,"Øª":7501,"ĠY":7502,"Ġ`":7503,"Ġê":7504,"Ġess":7505,"ĠâĨ":7506,"à¦¾à¦¿":7507,"à¦¾..":7508,"à§ĩ(":7509,"à¦¿...âĢĿ":7510,"à¦¨à¦ªà¦°":7511,"à¦¨à¦°à¦¦":7512,"à¦¨à¦®à¦ľ":7513,"à¦¤à¦²à¦¬":7514,"à¦¤à¦¦à¦²":7515,"à¦¤à¦¸à¦¤":7516,"à¦¤à¦§à¦°":7517,"à¦²à§ľ":7518,"à¦²à¦°à¦Ļ":7519,"à¦²à¦°à¦¤à¦¨":7520,"à¦ķà¦¥à¦¨":7521,"à¦¯à¦§à¦¨":7522,"à¦¯à¦¹à¦®":7523,"à¦¬à¦¹à¦¸":7524,"à¦¬à¦§à¦¨":7525,"à¦¬à¦®à¦£":7526,"à¦¬à¦®à¦¸":7527,"à¦¬à¦Łà¦Ł":7528,"à¦¬à¦īà§Ł":7529,"à¦®à¦¦à¦¨":7530,"à¦®à¦°à¦ľ":7531,"à¦®à¦Ńà¦ķ":7532,"à§ĭâĢĻ,":7533,"à§ĭâĢĿâĢĶ":7534,"à§ĭ...âĢĿ":7535,"Ġà¦¸à¦ĩà¦Ľ":7536,"Ġà¦¸à§Łà¦²":7537,"à¥¤-":7538,"à¥¤âĢĶ":7539,"à¦¸à¦¨à¦ĵ":7540,"à¦¸à¦ıà¦°":7541,"à¦¸à¦Ńà¦¯":7542,"Ġà¦Ĩà¦ļà¦°":7543,"Ġà¦Ĩà¦īà¦¡":7544,"à¦¦à¦°à¦¸":7545,"à¦¦à¦²à¦¤":7546,"à¦¦à¦Ĺà¦¤":7547,"à¦¦à¦®à¦ķ":7548,"à¦¦à¦ľà¦Ĺà¦¤":7549,"à¦Łà¦¥":7550,"à¦Łà¦¬à¦¸":7551,"à¦Łà¦°à¦Ł":7552,"Ġà¦¨à¦ĵà¦¯":7553,"Ġà¦®à¦Ĺà¦¡":7554,"Ġà¦®à¦Īà¦¨":7555,"à¦ªà¦§à¦°":7556,"à¦ªà¦īà¦·":7557,"à§Ģ'":7558,"à¦ľà¦¸à¦¨":7559,"à¦ľà¦¤à¦²":7560,"à¦ľà¦ķà¦¦":7561,"à¦ľà¦Ĺà¦£":7562,"Ġà¦¤à¦®à¦²":7563,"Ġà¦¤à¦Łà¦°":7564,"à¦¶à¦¬à¦°":7565,"à¦¶à¦¦à¦°":7566,"à¦¶à¦¤à¦ķ":7567,"à¦¶à¦Ńà¦°":7568,"Ġà¦ħà¦ķà¦²à¦Ļ":7569,"à¦ĸà¦Ŀ":7570,"à¦ĸà¦Ńà¦Ļ":7571,"à¦Ĺà§Ł":7572,"à¦Ĺà¦«":7573,"à¦Ĺà¦°à¦¨":7574,"à¦Ĺà¦®à¦¤":7575,"à¦·à¦°à¦ľ":7576,"à¦·à¦°à¦Ł":7577,"à¦§à¦§":7578,"à¦§à¦Ĺà¦¤":7579,"à¦§à¦®à¦¤":7580,"à¦§à¦ªà¦¥":7581,"à¦§à¦¤à¦®":7582,"à¦¡à¦Ļ":7583,"à¦ļà¦ľà¦¨à¦ķ":7584,"à¦¹à¦Ńà¦Ļ":7585,"à§Łà¦®à¦¨":7586,"à¦£à¦Ľ":7587,"à¦£à¦®à¦¤":7588,"à¦£à¦®à¦£":7589,"à¦£à¦§à¦°":7590,"à¦£à¦ķà¦¥":7591,"à¦ģà¦ģ":7592,"Ġà¦¶à¦°à¦¶à¦¯":7593,"Ġà¦Ńà¦¨à¦Ńà¦¨":7594,"Ġà¦°à¦Ĺà¦°":7595,"Ġà¦°à¦ĩà¦¤":7596,"Ġà¦°à¦ľà¦¬":7597,"Ġà¦°à¦£à¦¬":7598,"à§ĩà¥¤(":7599,"à¦ĵà¦²à¦ľ":7600,"Ġà¦ıà¦ķà¦ļà¦²":7601,"Ġà¦ıà¦ķà¦ıà¦ķ":7602,"Ġà¦Ľà¦ĩà¦¯":7603,"Ġà¦Ĩà¦®à¦ľà¦¨à¦¤":7604,"Ġà¦īà¦°à¦¸":7605,"Ġà¦īà¦Ńà¦ķ":7606,"à¦Ļà¦Ĺ":7607,"Ġà¦²à¦ķà¦Ł":7608,"Ġà¦ĵà¦ħà¦°":7609,"Ġà¦ĸà¦ķ":7610,"Ġà¦ĸà¦¶":7611,"Ġà¦ªà¦°à¦®à¦¤":7612,"Ġà¦§à¦¨à¦²":7613,"Ġà¦¸à¦®à¦®à¦¨":7614,"à¦¾,-":7615,"ĠâĢį":7616,"à§ľà¦ľ":7617,"Ġà¦ĺà¦°à¦®à¦¯":7618,"Ġà¦®à¦¨à¦Ńà¦°":7619,"à¦°à¦£à¦¸":7620,"à¦®à¦¨à¦¤à¦°":7621,"à¦Ŀà¦Ļ":7622,"à¦Ŀà¦Ĺà¦¡":7623,"à¦ľà¦¨à¦°":7624,"à¦¤à¦°à¦¨":7625,"à¦«à¦¹":7626,"à¦«à¦ĵ":7627,"à¦«à¦°à¦ķ":7628,"à¦īà¦Ŀ":7629,"à¦īà¦ĩà¦²":7630,"à¦īà¦ľà¦²":7631,"à¦īà¦ªà¦ļ":7632,"à¦īà¦ªà¦¬":7633,"à¦īà§ľà¦¨":7634,"à¦īà§İà¦ķà¦£":7635,"à¦ªà¦¨à¦¬":7636,"à¦ªà¦¨à¦¦":7637,"Ġà¦Ĩà¦²à§Ł":7638,"à§İà¦ªà¦¨":7639,"à¦Ĩà¦®à¦¨":7640,"à¦Ĩà¦ľà¦¨":7641,"à¦Ĩà¦°à¦®":7642,"à¦Ĩà¦¸à¦®":7643,"à¦Ĩà¦ĩà¦ª":7644,"à¦°à¦¬à¦²à¦¤":7645,"à¦°à¦¬à¦¤à¦®":7646,"à¦ıà¦¯":7647,"à¦ıà¦®à¦ľ":7648,"à¦°à¦ķà¦Łà¦Ń":7649,"Ġà¦¬à¦²à¦²à¦Ĳ":7650,"ĠâĢľâĢ¦":7651,"Ġà¦¡à¦ľ":7652,"Ġà¦ĩà¦²à¦¸":7653,"Ġà¦ĩà¦Ńà¦¨":7654,"ÂłĠÂłĠÂł":7655,"à¦ĺà¦¦à¦°":7656,"à§Į,":7657,"Ġà¦ľà¦¨à¦°":7658,"Ġà¦ľà¦¨à¦¬à¦²":7659,"Ġà¦ľà¦¨à¦ķà¦²":7660,"à¦¬à¦²à¦Ĺ":7661,"Ġà¦ıà¦¬à¦Ľà¦°":7662,"Ġà¦ħà¦¬à¦¬":7663,"Ġà¦ıà¦¸à¦Ľ":7664,"Ġà¦ıà¦¸à¦ıà¦¸à¦¸":7665,"à¦ħà¦¬à¦ķ":7666,"à¦ħà¦¸à¦®à¦¯":7667,"Ġà¦¬à¦¨à¦ķ":7668,"Ġà¦Ĺà¦²à¦¬":7669,"Ġà¦ħà¦¸à¦¬à¦°":7670,"à¦¯à¦¬à§Łà¦¸":7671,"à¦°à¦¥à¦ķ":7672,"à¦¨à¦¬à¦Ľà¦°":7673,"à§ĩ?-":7674,"à§ĩ?âĢ¦":7675,"Ġà¦Ĩà¦¨à¦ľ":7676,"Ġà¦īà¦¦à¦¬":7677,"Ġà¦ľà¦²à¦ļ":7678,"à¦Ĺà¦²à¦°":7679,"Ġà¦ħà¦Ńà¦ķ":7680,"à¦¶à¦¨à¦¦":7681,"à¦¿à¦Ĥ?":7682,"à¦°à¦¹à¦®":7683,"Ġà¦ĺà¦°à¦ĩ":7684,"à¦ļà¦¨à¦Ńà¦Ļ":7685,"à¦¹à¦¸à¦ķ":7686,"à¦¬à¦¤à¦¸":7687,"à§ĩâĢĶâĢĿ":7688,"à¦§à¦¨à¦ª":7689,"Ġà¦ħà¦ªà¦¹":7690,"Ġà¦ķà¦²à¦¶":7691,"Ġà¦¸à¦¹à¦®":7692,"Ġà¦¸à¦¹à¦®à¦°à¦£":7693,"à¦ĩà¦¨à¦ľ":7694,"à¦ķà¦¬à¦ķ":7695,"Ġà¦ħà¦ľà¦ªà¦¥":7696,"à¦¹à¦²à¦Ł":7697,"à¦¹à¦²à¦ª":7698,"Ġà¦Ĳà¦²":7699,"Ġà¦ķà¦¤à¦¶à¦¤":7700,"à¦¤à¦²à¦ľ":7701,"à¦Ĺà¦¨à¦ķ":7702,"Ġà¦īà§İà¦ªà¦²":7703,"à¦°à¦Ńà¦ķ":7704,"à¦¦à§Łà¦ĩ":7705,"à¦¿?\"":7706,"à¦ıà¦ķà¦Ĺ":7707,"à¦¨à¦ķà¦¯":7708,"Ġà¦¶à¦¹à¦°à¦ĵ":7709,"Ġà¦¬à¦ĩà¦ªà¦¡":7710,"à¦¬à¦¦à¦®à¦¨":7711,"à¦¤à¦ķà¦¥":7712,"à¦¤à¦®à¦®":7713,"Ġà¦ĩà¦¨à¦¹":7714,"à¦ľà¦²à¦®":7715,"Ġà¦Ĩà¦§à¦¶":7716,"à§ĩ;âĢĵ":7717,"à¦ķà¦¨à¦«":7718,"à¦¸à¦ķà¦®":7719,"à¦¸à¦ķà¦¶":7720,"Ġà¦īà¦²à¦Łà¦ª":7721,"Ġà¦¦à¦²à¦Ľ":7722,"Ġ(âĢľ":7723,"à¥¤âĢĻâĢĿ":7724,"à¦«à¦²à¦ĩ":7725,"Ġà¦¸à¦®à§Łà¦ĵ":7726,"Ġà¦¦à¦¶à¦Ĺ":7727,"à¦®à¦¸à¦¹":7728,"Ġà¦Ĺà¦£à¦¯":7729,"Ġà¦Ĺà¦£à¦Ĩà¦¨":7730,"à¦¹à¦°à¦£à¦ĵ":7731,"Ġà¦ĵà¦ķà¦¥":7732,"Ġà¦°à¦¸à¦¶":7733,"Ġà¦Īà¦¸":7734,"Ġà¦Ĩà¦ªà§İà¦ķ":7735,"à§¦à§§":7736,"Ġà¦ªà¦°à¦®à¦ª":7737,"Ġà¦°à¦ĵà¦¶à¦¨à¦ĵ":7738,"Ġà¦¨à¦ľà¦°à¦¬à¦¨":7739,"à¦ªà¦²à¦ĵà¦¯":7740,"Ġtim":7741,"à¦²à¦Ńà¦ª":7742,"à§Ńà§«":7743,"à§Ńà§¬":7744,"int":7745,"à§ªà§®":7746,"Ġà¦¬à¦¸à¦¨à¦ĸ":7747,"à¦·à§Łà¦Ń":7748,"Ġà¦Ĩà¦ĩà¦¨à¦Ńà¦Ļ":7749,"à¦¨à¦ªà¦¤à¦¨":7750,"ance":7751,"à¦¬à¦Łà¦¦":7752,"Ġà¦·à¦Ł":7753,"à¦¤à¦¸à¦ŀ":7754,"à¦ĸà¦ķà¦·":7755,"à¦¶à¦Ĺà¦Ļ":7756,"read":7757,"à¦¦à¦¬à¦¦à¦²":7758,"Ġà¦ľà¦Ĺà¦¬à¦¨":7759,"Ġà§¨à§©":7760,"à§¬à§§":7761,"Ġover":7762,"ita":7763,"Ġsil":7764,"à§®à§ª":7765,"à¦ªà¦Ĺà¦ª":7766,"Ġà¦²à§ľà¦¤":7767,"Ġ?\"":7768,"à¦¸à¦Ńà¦¬à¦¨":7769,"Ġact":7770,"Ġà¦¤à¦ªà¦¨à¦¦":7771,"à¦¬à¦Ĺà¦ŀ":7772,"Ġmuch":7773,"Ġwould":7774,"Ġword":7775,"Ġwhen":7776,"ara":7777,"arg":7778,"Ġbl":7779,"Ġpur":7780,"à¦īà¦łà¦²":7781,"Ġfun":7782,"à¦Ńà¦°à¦¤à¦¬":7783,"Ġà§©à§¯":7784,"Ġà¦ķà¦¬à¦°à¦Ł":7785,"à¦¼à¦¿à¦Ĥ-":7786,"Ġà¦ĩà¦īà¦®":7787,"Ġà¦ĩà¦īà¦ª":7788,"Ġà¦ĩà¦īà¦ıà¦¸":7789,"Ġà§§à§¯à§Ńà§«":7790,"Ġà§¨à§¦à§¦à§¦":7791,"Ġà¤®":7792,"à¦Īà¦°":7793,"à¦Īà¦·à§İ":7794,"stru":7795,"ĠPintu":7796,"igion":7797,"Ġreg":7798,"Ġà¦ķà¦¤à¦¬à¦¡":7799,"Ġà¦Ĺà¦łà¦¨à¦ķ":7800,"ural":7801,"ident":7802,"Ġà¦Ĩà¦īà¦Łà¦ª":7803,"Ġà¦ĸà§ľà¦Ĺ":7804,"Ġà§§à§¯à§ªà§«":7805,"Ġà§¯à§¯":7806,"à§İà¦¸à¦ķà¦¦":7807,"à¦ıà¦¨à¦ı":7808,"ciety":7809,"à¦¶à¦§à¦°à¦¦":7810,"Ġà¦īà¦ĩà¦¥":7811,"ĠEm":7812,"Ġà§§à§Ńà§«à§Ń":7813,"agore":7814,"à¦¯à¦Łà¦ķà¦¦":7815,"Ġà§§à§¯à§¬à§«":7816,"ople":7817,"Ġany":7818,"Ġà¦¦à¦¹à¦°à¦®":7819,"Ġval":7820,"Ġnew":7821,"Ġà§§à§¯à§¨à§¨":7822,"Ġsociety":7823,"Ġà¦Ĭà¦¨à¦¸à¦¤":7824,"Ġcomm":7825,"à¦ĩà¦¨à¦«à¦°à¦®":7826,"Ġalways":7827,"ought":7828,"Ġà¦«à¦¸à¦«à¦°":7829,"Ġsomet":7830,"Ġshould":7831,"uthor":7832,"Ġwhole":7833,"ºçľºçľºçľºçľºçľºçľºçľºçľ":7834,"âĢĵâĢĵâĢĵâĢĵâĢĵâĢĵâĢĵâĢĵâĢĵâĢĵâĢĵâĢĵâĢĵâĢĵâĢĵâĢĵ":7835,"·çľ·çľ·çľ·çľ·çľ·çľ·çľ·çľ":7836,"ween":7837,"arning":7838,"port":7839,"Ġbetween":7840,"Ġart":7841,"ĠÂ«":7842,"ĠSocial":7843,"ystem":7844,"áĥĲáĥ":7845,"Ġà¦°à¦Ĺà¦°à¦Ĺ":7846,"40":7847,"41":7848,"44":7849,"47":7850,"II":7851,"IS":7852,"In":7853,"RA":7854,"co":7855,"che":7856,"den":7857,"hil":7858,"ied":7859,"na":7860,"ple":7861,"uc":7862,"ves":7863,"Ð¿":7864,"ÙĤ":7865,"à¨":7866,"áŀ":7867,"ìĿ":7868,"ĠÕ":7869,"ĠÚ©":7870,"à§ĩà¦¾à¥¤":7871,"à¦°à¦²à¦¬":7872,"à§įâĢ¦":7873,"à¦¨à¦¬à¦²":7874,"à¦¨à¦®à¦§":7875,"à¦¨à¦Ĩà¦ªà¦¨":7876,"à¦¤à¦¸à¦Ļ":7877,"à¦¤à¦Ĩà¦Ł":7878,"à¦²à¦®à¦¯":7879,"à¦²à¦¸à¦¨":7880,"à¦²à¦¦à¦²":7881,"à¦²à¦ªà¦Ł":7882,"à¦²à¦ªà¦²":7883,"à¦ķà¦°à¦®":7884,"à¦ķà¦Ĺà¦¤":7885,"à¦ķà¦®à¦£":7886,"à¦¯à¦¡":7887,"à¦¯à¦®à¦°":7888,"à§ģâĢĿà¥¤":7889,"à¦¼âĢĻ,":7890,"à¦¼)à¥¤":7891,"à¦®à¦°à¦¬":7892,"à¦®à¦¬à¦¸":7893,"à§ĭ'":7894,"à§ĭâĢĻâĢĶ":7895,"Ġà¦ķà¦ľ":7896,"Ġà¦ķà¦ĸ":7897,"Ġà¦ķà¦Łà¦ķ":7898,"Ġà¦ķà¦¦à¦²":7899,"Ġà¦ķà¦ķà¦ª":7900,"Ġà¦¬à¦ķà¦¤":7901,"Ġà¦¸à§ľ":7902,"Ġà¦¸à¦²à¦¤":7903,"Ġà¦¸à¦ªà¦¥":7904,"Ġà¦¸à¦¶à¦ķ":7905,"à¦¸à¦¦à¦¨":7906,"à¦¸à¦ıà¦ķ":7907,"à¦¸à¦ĺà¦°":7908,"à¦¸à¦°à¦¬à¦°":7909,"Ġà¦ªà¦²à¦¤":7910,"Ġà¦ªà¦²à¦²":7911,"Ġà¦Ĩà¦Łà¦¨à¦®":7912,"à¦¦à§ľ":7913,"à¦¦à¦ªà¦Ł":7914,"à¦Łà§Ł":7915,"à¦Łà¦Ļ":7916,"à¦Łà¦®à¦¨":7917,"à¦Łà¦¸à¦®":7918,"à¦Łà¦®à¦£":7919,"à¦Łà¦¦à¦²":7920,"à¦Łà¦Ńà¦°":7921,"à¦Łà¦®à¦¸":7922,"Ġà¦¨à¦°à¦¬":7923,"Ġà¦¨à¦°à¦ª":7924,"Ġà¦¨à¦ĵà¦Ĺ":7925,"Ġà¦®à§ľà¦ķ":7926,"à¦ªà¦ĺ":7927,"à¦ªà¦Ľà¦¨":7928,"à¦ªà¦®à¦²":7929,"à¦ªà¦¶à¦¬":7930,"à¦ªà¦¸à¦¤":7931,"à¦ªà¦ļà¦ķ":7932,"à¦ĩà¦²à¦ķ":7933,"à§Ģ/":7934,"à§ĢâĢĿâĢĶ":7935,"Ġà¦¦à¦¦à¦°":7936,"à¦ľà¦¤à¦¬":7937,"à¦ľà¦¬à¦¦":7938,"à¦ľà¦Ńà¦¯":7939,"Ġà¦¹à¦°à¦¹":7940,"Ġà¦¤à¦ŀ":7941,"Ġà¦¤à¦¸à¦²":7942,"Ġà¦¤à¦ķà¦¤à¦ķ":7943,"Ġà¦ıà¦¨à¦ĵ":7944,"à¦¶à¦°à¦¥":7945,"à¦¶à¦ªà¦¤":7946,"à¦¶à¦¤à¦®":7947,"à¦¶à¦®à§Ł":7948,"à¦ĸà¦°à¦¦":7949,"à¦Ĺà¦¬à¦°":7950,"à¦Ĺà¦łà¦ķ":7951,"à¦·à§ľ":7952,"à¦§à¦¬à¦ª":7953,"à¦§à¦¹à¦¸":7954,"à¦§à¦®à§Ł":7955,"à¦¹à¦§":7956,"à¦¹à¦¬à¦²":7957,"à¦¹à¦²à¦¬à¦¶à¦¤":7958,"Ġà¦ķà¦°à¦¯":7959,"Ġà¦Ĺà¦ľà¦°":7960,"à¦£à¦ªà¦¤":7961,"à¦£à¦ļà¦ķ":7962,"à¦£à¦¬à¦ķ":7963,"à¦ģ?":7964,"à¦ģà¦¾":7965,"à¦¥à¦¨à¦ķ":7966,"Ġà¦ļà¦ĩà¦²":7967,"Ġà¦°à¦¦à¦¬à¦¦à¦²":7968,"à§ĩà¥¤âĢĵ":7969,"à§ĩà¥¤âĢľ":7970,"à¦ĵà¦ĺà¦°":7971,"à¦Ńà¦¹":7972,"à¦¼à¦¾:":7973,"à¦¼à¦¾?âĢĻ":7974,"Ġà¦Ľà¦Ĺà¦¨":7975,"Ġà¦Ĩà¦®à¦Ł":7976,"Ġà¦Ĩà¦®à§ľ":7977,"Ġà¦Ĩà¦®à¦¤à¦²":7978,"à¦łà¦Ńà¦°":7979,"Ġà¦īà¦¸à¦ĸ":7980,"Ġà¦ĸà¦°à¦¤":7981,"à¦°à¦¤à¦¸":7982,"à¦°à¦¤à¦ªà¦ķ":7983,"à¦¾à¥¤'":7984,"Ġà¦ªà¦°à¦ľà¦¨":7985,"âĢĶ\"":7986,"Ġà¦¸à¦®à¦§":7987,"Ġà¦¸à¦®à¦ªà¦¦":7988,"à¦¬à¦¨à¦¶à¦ķ":7989,"à¦¬à¦¨à¦ķà¦¥":7990,"à¦¼à¦¿?âĢĻ":7991,"à§ľà¦¶":7992,"Ġà¦ĺà¦¨à¦ķ":7993,"Ġà¦®à¦¨à¦¬":7994,"à¦Ŀà¦ª":7995,"à¦«à¦¥":7996,"à¦«à¦Ŀ":7997,"à¦īà¦¬à¦²":7998,"à¦īà¦ªà¦¯":7999,"à¦īà¦ªà¦ľ":8000,"à¦ªà¦¨à¦ĩ":8001,"à¦ªà¦¨à¦Ĺ":8002,"Ġà¦Ĩà¦²à¦¬à§İ":8003,"à§İà¦¹":8004,"à§İà¦Ĺà¦¤":8005,"à¦Ĩà¦ķà¦°":8006,"à¦Ĩà¦¨à¦Ĺ":8007,"à¦°à¦¬à¦¹":8008,"à¦¬à¦°à¦®à¦¯":8009,"Ġà¦¬à¦²à¦²à¦ļ":8010,"Ġà¦¬à¦²à¦²à¦ĵ":8011,"Ġà¦Ĩà¦¸à¦Ļ":8012,"čĊčĊč":8013,"Ġà¦Ĩà¦Ľà¦¨":8014,"Ġà¦¡à¦Ĺà¦®à¦Ĺ":8015,"Ġà¦ĩà¦Ĺà¦¨":8016,"Ġà¦ĩà¦¸à¦ª":8017,"Ġà¦ĩà¦«à¦¤":8018,"à¦ĺà¦¯":8019,"à¦ĺà¦ªà¦¥":8020,"Ġà¦®à¦¤à¦ķ":8021,"à¦¬à¦²à¦ĵ":8022,"à¦¬à¦²à¦¤à¦®":8023,"Ġà¦ħà¦¬à¦¦à¦®":8024,"à¦·à¦£à¦¯":8025,"à¦·à¦£à¦¦":8026,"à¦·à¦£à¦¤à¦°":8027,"Ġà¦ıà¦¸à¦ıà¦®à¦ıà¦¸":8028,"âĢĵâĢĺ":8029,"à¦ĥâĢĶ":8030,"à¦ħà¦ªà¦Ł":8031,"à¦ħà¦ķà¦¥":8032,"à¦ħà¦§à¦®":8033,"Ġà¦¬à¦¨à¦ª":8034,"à¦ķà¦²à¦Ń":8035,"Ġà¦ªà¦¥à¦ľ":8036,"à¦ķà¦°à¦ª":8037,"à¦ķà¦Łà¦Ĺ":8038,"Ġà¦ħà¦¸à¦®à§Ł":8039,"à¦¤à¦¬à¦§":8040,"à¦¤à¦¬à¦¸à¦¨":8041,"à¦°à¦¸à¦ª":8042,"à¦ķà¦¤à¦²":8043,"Ġà¦Ĩà¦¶à¦®":8044,"à¦°à¦¥à¦®à¦ª":8045,"Ġà¦¬à¦°à¦Ĺ":8046,"Ġà¦¹à¦¤à¦ļ":8047,"Ġà¦Ĩà¦¨à¦²à¦ķ":8048,"Ġà¦ħà¦¦à¦®à¦¨":8049,"à¦Ĩà¦®à¦Ĺ":8050,"Ġà¦ľà¦²à¦ļà¦ķ":8051,"à¦Ĺà¦²à¦ªà¦¥":8052,"Ġà¦ħà¦Ńà¦¬":8053,"à¦Ĺà¦¤à¦¦":8054,"Ġà¦¸à¦¨à¦¦à¦ªà¦¤":8055,"à¦¿à¦Ĥà¥¤âĢĻ":8056,"à¦¯à¦ķà¦Ń":8057,"à¦¯à¦ķà¦°à¦£":8058,"à¦°à¦¹à¦Ĺ":8059,"à¦°à¦¹à¦¨à¦ķ":8060,"Ġà¦ĺà¦°à¦¬à¦¨":8061,"à¦²à¦¨à¦¦":8062,"Ġà¦ķà¦°à¦¬à¦ĩ":8063,"à¦¹à¦¸à¦Ł":8064,"Ġà¦®à¦¹à¦¦":8065,"à¦°à¦¶à¦¤":8066,"à¦°à¦ľà¦®":8067,"à¦¼à§ĭ!":8068,"à¦¼à§ĭ?":8069,"à¦¼à§ĭâĢĵ":8070,"à¦ļà¦²à¦²":8071,"à¦ļà¦²à¦ĸ":8072,"à¦®à¦ķà¦¹":8073,"à¦¿à¦ĥ,":8074,"à¦¸à¦¨à¦¸":8075,"à¦¸à¦¨à¦¦":8076,"à¦ĩà¦¨à¦ĩ":8077,"à¦ķà¦¬à¦ĩ":8078,"à¦ķà¦¬à¦¦à¦²":8079,"à¦ıà¦ĩà¦ļà¦¡":8080,"Ġà¦ķà¦¬à¦Ľà¦°":8081,"à¦¸à¦®à¦¬":8082,"Ġà¦ªà§ľà¦¶":8083,"Ġà¦ħà¦ľà§Łà¦¦":8084,"à¦¹à¦²à¦ĩ":8085,"à¦¹à¦²à¦ĵ":8086,"Ġà¦ĵà¦ªà¦°à¦¦":8087,"âĢ¦!":8088,"âĢ¦!âĢĻ":8089,"Ġà¦ķà¦¤à¦ľà¦¨à¦ķ":8090,"Ġà¦¤à¦°à¦²à¦¤":8091,"Ġà¦°à¦Ļà¦ª":8092,"Ġà¦īà§İà¦¸à¦¬à¦ĩ":8093,"Ġà¦¯à¦¤Åĵ":8094,"Ġà¦ªà¦¦à¦®":8095,"Ġà¦ªà¦¦à¦Ł":8096,"Ġà¦ªà¦¦à¦¦à¦²":8097,"à¦®à¦°à¦§":8098,"à¦¸à¦°à¦²à¦¤":8099,"à§ĩ!(":8100,"à¦¦à§Łà¦ĵ":8101,"à¦ªà¦¦à¦¦":8102,"à¦ªà¦¦à¦¤à¦²":8103,"à¦ªà¦¥à¦ª":8104,"à¦¼à§ĩà¥¤à¥¤":8105,"Ġà¦¨à§Łà¦Ł":8106,"à¦ıà¦ķà¦ľà¦¨à¦ķ":8107,"à¦®à¦£à¦ķà¦¨":8108,"à¦·à¦¤à¦ĩ":8109,"à¦ĩà¦°à¦Ļ":8110,"à¦¬à¦¦à¦¤":8111,"à¦¯à¦®à§Łà¦¤":8112,"à¦·à¦ķà¦¶":8113,"à¦·à¦ķà¦Ĺà¦£":8114,"à¦¤à¦®à¦¸":8115,"à¦¤à¦®à¦ľ":8116,"à¦¾!'":8117,"à¦ªà¦ķà¦¨":8118,"à¦¤à¦¤à¦ªà¦ķ":8119,"à¦¯à¦¸à¦ŀ":8120,"Ġà¦¶à¦¤à¦§":8121,"à¦¸à¦«à¦Łà¦ĵà¦¯":8122,"Ġà¦¨à¦¬à¦Ĺ":8123,"à§ģ--":8124,"à¦¼à§Ģ?":8125,"à¦ĩà¦Łà¦°":8126,"à¦ĩà¦Łà¦¹":8127,"à¦¥à¦°à¦ĸà¦£":8128,"Ġà¦¸à¦¹à¦ľà¦¬":8129,"à§İà¦¸à¦¹":8130,"Ġà¦¬à¦²à¦¬à§İ":8131,"à¦īà¦²à¦¸":8132,"?âĢĻâĢĶ":8133,"à¦°à¦¹à¦£à¦ĩ":8134,"à¦·à¦®à¦Ń":8135,"à¦ķà¦¶à¦¤":8136,"Ġà¦ķà¦¨à¦ľ":8137,"à¦®à§Łà¦¦":8138,"à¦§à¦¬à¦¸à¦®":8139,"Ġà¦¦à¦¶à¦¤à¦²":8140,"Ġà¦Ĺà¦£à¦²":8141,"Ġà¦ļà¦ķà¦®":8142,"Ġà¦¬à¦īà¦Ń":8143,"à¦®à¦°à¦£à¦¶à¦ķ":8144,"Ġà¦°à¦¸à¦§":8145,"Ġà¦¬à§ľà¦ľà¦¨":8146,"Ġà¦¬à§ľà¦¸à§ľ":8147,"Ġà¦Īà¦·":8148,"à¦¾âĢĻ!":8149,"à§¦à§¨":8150,"à¦ķà¦°à¦£à¦¯":8151,"à¦¶à¦²à§Ł":8152,"à¦¿;âĢĵ":8153,"à¦łà¦ķà¦ĩ":8154,"à¦¬à¦¹à¦Ń":8155,"à¦ľà¦®à¦ľà¦®":8156,"à¦ĩà¦Ńà¦ĵà¦¯":8157,"à§©à§¬":8158,"à¦¸à¦¹à¦ķ":8159,"à¦¸à¦¹à¦ļà¦°":8160,"à§ªà§©":8161,"à§ªà§¯":8162,"à¦ļà§Łà¦ªà¦¤":8163,"à¦Ĩà¦Ĺà¦®à¦¨":8164,"à¦¶à¦¤à¦¦à¦²":8165,"Ġà¦ĵà¦ªà¦°à¦¤à¦²":8166,"à¦¤à¦ĸà¦¨à¦ķ":8167,"Ġà¦¶à¦ªà¦¥à¦¬":8168,"Ġà¦ļà¦Łà¦ķà¦²":8169,"à¦®à¦ļà¦°à¦£":8170,"à¦¬à¦ľà¦¨à¦¹":8171,"Ġà¦Ĭà¦·à¦°":8172,"Ġà¦Ĩà¦ļà¦°à¦£à¦ĩ":8173,"Ġà¦Ĩà¦ļà¦°à¦£à¦Ĺ":8174,"Ġà¦ķà¦ļà¦ĵ":8175,"Ġà¦®à¦¦à¦¤":8176,"Ġà§¨à§¯":8177,"à¦ªà§ľà¦¤":8178,"à¦®à¦®à¦Ń":8179,"Ġà¦°à¦ľà¦¤à¦ĵ":8180,"Ġthem":8181,"à¦ĩà¦ªà¦ĩ":8182,"erg":8183,"Ġà¦ļà¦°à¦®à¦ªà¦¨":8184,"Ġà¦ħà¦¬à¦¨à¦®à¦¨":8185,"ittle":8186,"à¦¾âĢ¦.":8187,"!âĢĻâĢĿ":8188,"Ġsk":8189,"à¦Ĩà¦¸à¦Ĺà¦°":8190,"à§®à§¦":8191,"Ġà¦ļà¦°à¦£à¦¦":8192,"à¦ļà¦°à¦£à¦ķ":8193,"Ġ?'":8194,"Ġac":8195,"à¦¸à¦°à¦£à¦ķ":8196,"Ġà¦Ĩà¦ĩà¦¨à¦¤":8197,"Ġcr":8198,"Ġà¦®à¦°à¦£à¦¶":8199,"ora":8200,"ork":8201,"oral":8202,"esc":8203,"Ġà¦Ńà¦Ĺà¦¬à¦¨":8204,"Ġmen":8205,"Ġmay":8206,"Ġmust":8207,"à¦ľà¦Ĺà¦¤à¦ķ":8208,"à¦¿.-":8209,"Ġpre":8210,"Ġprom":8211,"à¦¿âĢĿ-":8212,"anda":8213,"à¦īà¦łà¦Ľ":8214,"à¦Ĩà¦§à¦ĸ":8215,"Ġfe":8216,"à¦ªà¦ľà¦Ļ":8217,"ason":8218,"Ġdoub":8219,"à¦¼à¦¿à¦Ĥ,":8220,"à¦¼à¦¿à¦Ĥà¥¤":8221,"Ġhar":8222,"Ġhand":8223,"à¦²à¦ĵà¦Ń":8224,"à¦īà¦¬à¦ĵà¦¯":8225,"à¦ĸà¦¬à¦°à¦¦":8226,"Ġà¦¸à¦²à¦®à¦¨":8227,"Ġlo":8228,"Ġliv":8229,"à§ĭâĢ¦âĢĻ":8230,"allen":8231,"ĠAn":8232,"ĠAr":8233,"ĠAnd":8234,"Ġà§«à§¬":8235,"Ġà¦¥à¦²à¦¥à¦²":8236,"ĠPu":8237,"Ġev":8238,"Ġeven":8239,"ĠBut":8240,"à¦¼âĢ¦à¥¤":8241,"à¦¼âĢ¦âĢĻ":8242,"Ġà¦īà¦ĩà¦²à¦Ł":8243,"Ġreal":8244,"Ġà¦¸à¦¯à¦¤à¦¨":8245,"áĥĶ":8246,"ĠRup":8247,"Ġà¦ıà¦«à¦¬":8248,"very":8249,"ody":8250,"ular":8251,"Ġà§¯à§¦":8252,"Ġà§§à§«à§¦":8253,"Ġnothing":8254,"ivide":8255,"agin":8256,"ĠÐº":8257,"Ø§Ø±":8258,"Ø§ÙĦ":8259,"Ġà§§à§¯à§¨à§¯":8260,"Ġsocial":8261,"Ġmany":8262,"Ġtruth":8263,"Ġsuch":8264,"ized":8265,"angla":8266,"Ġcannot":8267,"Ġimagin":8268,"ĠĠĠĠĠĠĠĠĠĠĠĠĠĠĠĠĠĠĠĠĠĠĠĠĠĠĠĠĠĠĠĠ":8269,"ude":8270,"----------------":8271,"Ġsolipsism":8272,"Ġsuper":8273,"à¦¸à¦¹à¦¨à¦¶":8274,"velop":8275,"Ġsomething":8276,"Ġà¦ıà¦¨à¦ĵà¦¸":8277,"Ġà¦Ľà¦Ĺà¦¨à¦²":8278,"ĠRupsha":8279,".)":8280,"55":8281,"CT":8282,"EN":8283,"Fi":8284,"ITI":8285,"ON":8286,"SB":8287,"SI":8288,"ave":8289,"ble":8290,"bra":8291,"de":8292,"ga":8293,"hi":8294,"ix":8295,"ivers":8296,"lic":8297,"less":8298,"min":8299,"mal":8300,"over":8301,"pe":8302,"pr":8303,"rong":8304,"so":8305,"te":8306,"to":8307,"the":8308,"wn":8309,"ward":8310,"yn":8311,"yes":8312,"yond":8313,"Îµ":8314,"Ñĩ":8315,"ÑĪ":8316,"Ø³":8317,"Ùģ":8318,"âģ":8319,"Ġ0":8320,"Ġ6":8321,"Ġà§«à§¨":8322,"Ġà¦£":8323,"à¦¾\"":8324,"à¦¾(":8325,"à§ĩà§į":8326,"à¦°à¦Ńà¦¬":8327,"à§į:":8328,"à¦¨à¦¨à¦¬":8329,"à¦¨à¦ĩà¦¨":8330,"à¦¨à¦ªà¦¦":8331,"à¦¨à¦¸à¦ķ":8332,"à¦¨à¦Ĩà¦°":8333,"à¦¤à¦ĵà¦¯":8334,"à¦¤à¦ķà¦²":8335,"à¦¤à¦¸à¦°":8336,"à¦¤à¦¶à¦ķ":8337,"à¦¤à¦¸à¦¹":8338,"à¦²à¦¦à¦°":8339,"à¦²à¦¸à¦ķ":8340,"à¦ķà¦ªà¦¨":8341,"à¦ķà¦ħà¦¨":8342,"à¦ķà§°":8343,"à¦ķà¦¸à¦ª":8344,"à¦¯à¦¤à¦¬":8345,"à¦¬à¦®à¦¤":8346,"à¦¬à¦¹à¦°":8347,"à¦®à¦®à¦Ĺ":8348,"à¦®à¦ļà¦Ł":8349,"à¦®à¦Ĺà¦¤à¦Ń":8350,"Ġà¦ķà¦ªà¦°":8351,"Ġà¦¬à¦¨à¦¤à¦²":8352,"Ġà¦¸à¦ĩà¦²":8353,"Ġà¦¸à¦¦à¦Ĺ":8354,"Ġà¦¸à¦ĩà¦ľ":8355,"à¥¤*":8356,"à¦¸à¦¬à¦°":8357,"à¦¸à¦ļà¦²":8358,"à¦¸à¦¦à¦¸":8359,"à¦¸à¦¨à¦¤à¦¨":8360,"Ġà¦ªà¦Ĺ":8361,"Ġà¦ªà¦¹à¦°":8362,"Ġà¦ªà¦ĩà¦ªà¦ĩ":8363,"Ġà¦Ĩà§°":8364,"Ġà¦Ĩà¦Łà¦¬":8365,"à¦¦à¦ľà¦¨":8366,"à¦¦à¦²à¦¨":8367,"à¦¦æĹ¥ãģ®":8368,"à¦Łà¦®à¦°":8369,"à¦Łà¦¶à¦ķ":8370,"à¦Łà¦®à¦Łà¦®":8371,"Ġà¦¨à¦°à¦²":8372,"Ġà¦¨à¦¹à¦°":8373,"Ġà¦¨à§ľà¦¤":8374,"Ġà¦®à¦¬":8375,"Ġà¦®à¦°à¦¹":8376,"Ġà¦®à¦Ĺà¦°":8377,"Ġà¦®à¦²à¦®à¦²":8378,"à¦ªà§Ł":8379,"à¦ªà¦°à¦¤":8380,"à¦ªà¦¢":8381,"à¦ªà¦¹à¦¤":8382,"à¦ĩà¦£":8383,"à¦ĩà¦¶à¦¨":8384,"à¦ĩà¦¨à¦ĵ":8385,"à¦ĩà¦¤à¦²":8386,"à¦ĩà¦®à¦°":8387,"à¦Ľà¦ķà¦ĩ":8388,"à¦ľà§İ":8389,"à¦ľà¦¬à¦°":8390,"à¦ľà¦Ĺà¦¨":8391,"Ġà¦¹à¦°à¦ķ":8392,"à¦¶à¦ķà¦Ł":8393,"à¦¶à¦²à¦ķ":8394,"à¦¶à¦¨à¦¬":8395,"à¦¼à§ĩà¦¾":8396,"à¦¼à§ĩâĢĿ":8397,"à¦¼à§ĩ?âĢĻ":8398,"Ġà¦ħà¦°à¦¤":8399,"Ġà¦ħà¦°à¦¸":8400,"à¦ĸà¦«":8401,"à¦ĸà¦ķà¦ĩ":8402,"à¦·à¦ł":8403,"à¦·à¦ļà¦¨":8404,"à¦·à¦°à¦ĩ":8405,"à¦·à¦¬à¦¦":8406,"à¦§à¦ĸ":8407,"à¦§à¦°à¦²":8408,"âĢĥ":8409,"à¦¡à¦ĸ":8410,"à¦¡à¦¬à¦ķ":8411,"à¦¡à¦²à¦Ĺ":8412,"à¦ļà¦ł":8413,"à¦ļà¦¶à¦¬":8414,"à¦¹à¦ĩà¦²":8415,"à¦¹à¦ķà¦¦":8416,"Ġà¦ķà¦°à¦ķà¦°":8417,"à§Łà¦ĸ":8418,"Ġà¦Ĺà¦Ľ":8419,"Ġà¦Ĺà¦ªà¦Ĺà¦ª":8420,"à¦¥à¦®à¦ķ":8421,"à¦¥à¦¸à¦¨":8422,"à¦¥à¦ķà¦¦":8423,"Ġà¦¶à¦Łà¦Ĺ":8424,"Ġà¦¶à¦łà¦¤":8425,"Ġà¦ľà¦ªà¦®":8426,"Ġà¦°à¦²":8427,"Ġà¦°à¦¨à¦ķ":8428,"Ġà¦°à¦Łà¦²":8429,"Ġà¦°à¦¸à¦ķ":8430,"Ġà¦°à¦£à¦¨":8431,"Ġà¦°à¦ĩà¦ļ":8432,"à¦Ńà¦°à¦¦":8433,"Ġà¦ıà¦ķà¦Ľ":8434,"Ġà¦ıà¦ķà¦¤à¦®":8435,"Ġà¦ıà¦ķà¦¶à¦Ł":8436,"Ġà¦ıà¦ķà¦§à¦°à¦£":8437,"à¦¼à¦¾âĢĻà¥¤":8438,"Ġà¦Ľà¦ľà¦¨":8439,"à¦łà¦²":8440,"à¦łà¦¤à¦²":8441,"Ġà¦īà¦ŀ":8442,"Ġà¦īà¦¶à¦ķ":8443,"Ġà¦īà¦ĩà¦®":8444,"Ġà¦²à¦¬à¦¨":8445,"Ġà¦ĵà¦ĵ":8446,"Ġà¦ĵà¦Ļ":8447,"Ġà¦ĵà¦®à¦²":8448,"Ġà¦¬à¦²à¦ķ":8449,"Ġà¦¬à¦²à¦Ĺ":8450,"Ġà¦«à¦·":8451,"Ġà¦Ĩà¦°à¦°":8452,"Ġà¦Ĩà¦°à¦«":8453,"Ġà¦Ĩà¦°à¦¬à¦°":8454,"à¦¾à¥¤)":8455,"à¦¾à¥¤âĢĵ":8456,"Ġà¦ªà¦°à¦Ĺ":8457,"Ġà¦ªà¦°à¦¶à¦¨":8458,"Ġà¦§à¦²à¦¡":8459,"âĢĶ-":8460,"Ġà¦¸à¦®à¦ľ":8461,"à¦¾,--":8462,"à§ľà¦°":8463,"à¦ĸà¦¨à¦ĵ":8464,"Ġà¦®à¦¨à¦Ĺà¦¡":8465,"à¦ªà¦°à¦¬à¦¶":8466,"à¦°à¦£à¦¦":8467,"Ġà¦ıà¦ĩà¦¡":8468,"à¦¿à¥¤'":8469,"à¦®à¦¨à¦ľ":8470,"à¦ľà¦¨à¦ªà¦¦":8471,"à¦ŀà¦¨":8472,"à¦«à¦¶":8473,"à¦«à¦ĵà¦¯":8474,"à¦īà¦¥à¦²":8475,"à¦īà¦ªà¦®":8476,"à¦īà¦¬à¦Ł":8477,"à¦īà§İà¦¸à¦°":8478,"à¦īà¦°à¦¤à¦¨":8479,"à§İà¦Ľà¦²":8480,"à¦Ĩà¦ĵà¦¯":8481,"à¦Ĩà¦°à¦¶":8482,"à¦Ĩà¦¦à¦®":8483,"à¦Ĩà¦ĩà¦¶":8484,"à¦Ĩà¦«à¦¸":8485,"à¦°à¦¬à¦ĩ":8486,"à¦°à¦¬à¦£à¦ķ":8487,"à¦ıà¦¶":8488,"à¦ıà¦ľà¦¨":8489,"à¦ıà¦ķà¦°":8490,"à¦ıà¦¨à¦ª":8491,"à¦¬à¦°à¦Ļ":8492,"Ġà¦Łà¦®à¦Ł":8493,"Ġà¦¬à¦²à¦²à¦¸à¦¬":8494,"Ġà¦¬à¦²à¦²à¦ıà¦ĸ":8495,"Ġà¦¬à¦²à¦²à¦Ĩà¦Ĺ":8496,"čĊčĊ":8497,"Ġà¦Ĩà¦Ľà¦²":8498,"Ġà¦Ĩà¦Ľà¦®":8499,"âĢĻ;":8500,"Ġà¦¡à¦¬":8501,"Ġà¦¡à¦®":8502,"à§ĪâĢĵ":8503,"Ġà¦ĩà¦®à¦ªà¦°":8504,"Ġà¦ĩà¦īà¦¸":8505,"à¦ĺà¦°à¦¬":8506,"à¦ĺà¦®à¦²":8507,"à¦ĺà¦Ńà¦°":8508,"à¦°à¦®à¦Ł":8509,"à¦°à¦®à¦§à¦°":8510,"Ġà¦łà¦Ĺ":8511,"âĢĵà¥¤":8512,"âĢĵâĢĿ":8513,"à¦¤à¦¨à¦®":8514,"à¦ĥ?":8515,"à¦ħà¦ĩ":8516,"à¦ħà¦Ŀ":8517,"à¦ħà¦¶à¦¨":8518,"à¦ħà¦¬à¦§":8519,"à¦ħà¦¨à¦¬à¦¦":8520,"Ġà¦¬à¦¨à¦ªà¦°":8521,"Ġà¦¬à¦¨à¦Ĺà¦®à¦¨":8522,"à¦ķà¦²à¦°":8523,"Ġà¦ħà¦®à¦¯":8524,"Ġà¦ħà¦®à¦²à¦¬":8525,"Ġà¦ªà¦¥à¦¬":8526,"à¦ķà¦°à¦°":8527,"à¦ķà¦°à¦Ĺ":8528,"à¦¸à¦¬à¦¦":8529,"à¦¯à¦¬à¦ļ":8530,"à¦¯à¦¬à¦¸à¦¤":8531,"à¦°à¦¨à¦¦":8532,"à¦¤à¦¬à¦ľ":8533,"à¦¤à¦¬à¦¹":8534,"à¦¤à¦¬à§İ":8535,"à¦¤à¦¬à§Łà¦¸":8536,"à¦¨à¦¬à¦¦à¦²":8537,"à¦¦à¦¨à¦Ł":8538,"à¦¦à¦¨à¦ĸ":8539,"à¦¦à¦¨à¦ªà¦¤":8540,"Ġà¦¬à¦°à¦ª":8541,"Ġà¦¬à¦°à¦ĸ":8542,"Ġà¦¹à¦¤à¦¶":8543,"Ġà¦ıà¦²à¦®":8544,"à¦Ĩà¦®à¦¤":8545,"à¦Ĩà¦®à¦²à¦ķ":8546,"Ġà¦ľà¦²à¦¶":8547,"Ġà¦ľà¦²à¦ľà¦²":8548,"Ġà¦ľà¦²à¦ªà¦Ł":8549,"Ġà¦ľà¦²à¦¤à¦°à¦Ļ":8550,"Ġà¦¸à¦¨à¦ķ":8551,"à¦¿à¦ĤâĢĵ":8552,"à¦¿à¦ĤâĢ¦":8553,"Ġà¦ħà¦¤à¦Ĺ":8554,"à¦®à¦¤à¦ĩ":8555,"à¦§à¦ķà¦ĩ":8556,"Ġà¦®à¦¹à¦¬":8557,"à¦¨à¦ĵà¦¨":8558,"à¦¬à¦¤à¦ķ":8559,"à¦®à¦²à¦¯":8560,"à¦ĸà¦²à¦Ń":8561,"à¦°à¦ľà¦Ĺà§İ":8562,"à¦°à¦¦à¦£":8563,"Ġà¦ħà¦ªà¦Ń":8564,"Ġà¦ħà¦ªà¦¶à¦¨":8565,"Ġà¦ħà¦ªà¦¶à¦ķ":8566,"à¦°à¦²à¦¹à¦°":8567,"à¦¼à§ĭà¦ĥ":8568,"Ġà¦¸à¦¹à¦Ĺ":8569,"Ġà¦īà¦¤à¦·":8570,"à¦¸à¦¨à¦ĩ":8571,"à¦¸à¦¨à¦Ń":8572,"à¦¿-'":8573,"à¦Łà¦ķà¦ķ":8574,"à¦Łà¦ķà¦ĵ":8575,"à¦¹à¦²à¦ľà¦¨à¦ķ":8576,"Ġà¦Ĳà¦¯":8577,"Ġà¦°à¦Ļà¦ļà¦Ł":8578,"Ġà¦ªà¦¦à¦¸à¦ŀ":8579,"à§ĩ!\"":8580,"à§ĩ!âĢĵ":8581,"à¦¶à¦¬à¦¦":8582,"à¦¦à§Łà¦ª":8583,"à¦¦à§Łà¦ľ":8584,"à¦ªà¦¦à¦®":8585,"à¦¿?-":8586,"à¦¨à¦ķà¦°à¦£":8587,"Ġà¦ħà¦ķà¦£":8588,"à¦·à¦¤à¦ķ":8589,"à¦¯à¦®à¦¶":8590,"à¦¯à¦®à¦¹":8591,"à¦¤à¦ķà¦ķ":8592,"à¦¿âĢĶâĢĿ":8593,"à¦¿âĢĶâĢĻ":8594,"à¦ľà¦²à¦°à¦Ļ":8595,"à¦®à¦¬à¦§":8596,"à¦¶à¦ķà¦ĵ":8597,"à¦ĩà¦ķà¦®":8598,"à¦¢à¦Ļ":8599,"à¦¯à¦¸à¦¹":8600,"Ġà¦ħà¦²à¦¸à¦Ń":8601,"à¦¯à¦¦à¦¶":8602,"à§°à¦·":8603,"à§°à¦£":8604,"à¦¸à¦«à¦¡":8605,"Ġà¦¨à¦¬à¦ªà¦°":8606,"?âĢĿ,":8607,"?âĢĿâĢĵ":8608,"à¦¨à¦¸à¦¹à¦ķ":8609,"à¦ĩà¦¤à¦¸":8610,"à¦ªà¦¸à¦¹":8611,"à¦¬à¦¶à¦®":8612,"ÂłÂłÂłÂłÂłÂłÂłÂłÂłÂłÂłÂłÂłÂłÂłÂłÂłÂłÂłÂłÂł":8613,"Ġà¦¸à¦¹à¦ľà¦¤à¦°":8614,"Ġà¦ıà¦ķà¦ĩà¦¸":8615,"à¦Ĺà¦¬à¦§":8616,"à¦ķà¦¶à¦Ł":8617,"à¦¿!'":8618,"à¦¿!)":8619,"à¦§à¦¬à¦¹":8620,"Ġà¦¦à¦¶à¦Ń":8621,"à¦¨à¦¯à¦ľ":8622,"Ġà¦¨à¦°à¦®à¦Ń":8623,"à§Ģ---":8624,"à¦¦à¦®à¦Ĺ":8625,"Ġà¦¬à¦īà¦ĵ":8626,"Ġà¦¬à¦īà¦ıà¦°":8627,"Ġà¦°à¦¸à¦ª":8628,"à¦®à¦¹à¦ķ":8629,"à¦®à¦¹à¦¨à¦¨":8630,"Ġà¦Ĩà¦ªà¦Ĺ":8631,"à§Łà¦¤à¦ĩ":8632,"Ġà¦ķà¦ªà¦ļ":8633,"à§¦à§Ń":8634,"Ġà¦ħà¦¸à¦®à¦ŀ":8635,"à§«à§©":8636,"à¦łà¦ķà¦ĵ":8637,"Ġtw":8638,"à¦¿âĢĵâĢĵ":8639,"Ġà¦Ĺà¦°à¦®à¦ķ":8640,"à¦ķà¦ľà¦¨à¦¦":8641,"Ġà¦ľà§Łà¦ª":8642,"à¦£à¦¬à¦§à¦°":8643,"à¦ĩà¦¡à¦¬":8644,"à¦¥à¦²à¦Ń":8645,"Ġà§§à§¯à§«à§¦":8646,"Ġà§§à§¯à§§à§®":8647,"Ġà¦ľà¦Ĺà¦¤à¦ķ":8648,"à¦Ĩà¦Ĺà¦¸":8649,"Ġà¦¨à¦Ĺà¦°à¦Ĺ":8650,"Ġà¦¹à¦ĩà¦ĵ":8651,"à¦¶à¦¤à¦¬à¦°":8652,"à¦ľà¦Ĺà¦łà¦¨":8653,"Ġà¦¸à§İà¦¬":8654,"à¦¨à§Łà¦¨à¦®":8655,"Ġà¦Ĩà¦ļà¦°à¦£à¦Ĺà¦¤":8656,"Ġà¦ľà¦Ĺà¦Ĺ":8657,"Ġà¦ıà¦°à¦ķà¦®à¦Ł":8658,"Ġà¦ıà¦°à¦ķà¦®à¦Ń":8659,"Ġà¦ĸà¦°à¦ļà¦Ł":8660,"à§¬à§©":8661,"à¦ħà¦¬à¦Ĺ":8662,"Ġà¦ķà¦Łà¦ķà¦Ł":8663,"Ġ!'":8664,"Ġà¦ıà¦¡à¦®":8665,"Ġscience":8666,"à§®à§«":8667,"à§®à§©":8668,"Ġà¦ľà¦¨à¦¸à¦®à¦ķ":8669,"à¦¾!âĢĿâĢĶ":8670,"Ġà¦°à¦«à¦¤":8671,"Ġà¦Ńà¦°à¦¤à¦ķ":8672,"à¦ıà¦¤à¦¸à¦¬":8673,"à¦¿âĢ¦.":8674,"Ġà¦¤à¦ªà¦¨à¦ķ":8675,"Ġcir":8676,"Ġcult":8677,"à¦ķà¦¶à¦¨à¦Ł":8678,"Ġà¦ĩà¦¹à¦ľà¦Ĺà¦¤":8679,"Ġmat":8680,"Ġmontu":8681,"Ġà¦Ĩà¦«à¦¶":8682,"à¦¿.à¥¤":8683,"Ġpos":8684,"à¦¿âĢĿ,":8685,"à¥¤à¥¤/":8686,"à¥¤à¥¤âĢĺ":8687,"Ġfa":8688,"à¦ªà¦ķà¦¥à¦¨à¦ĩ":8689,"Ġà¦ħà¦²à¦ķà¦ķ":8690,"ÂłÂłÂłÂłÂłÂłÂłÂłÂłÂłÂłÂłÂłÂłÂłÂłÂłÂłÂłÂłÂłÂłÂłÂłÂłÂłÂłÂłÂłÂłÂłÂłÂłÂłÂłÂł":8691,"Ġà¦Ńà¦¬à¦¨à¦Ĺ":8692,"icism":8693,"à¦¶à¦¹à¦°à¦¤à¦²":8694,"ase":8695,"asure":8696,"Ġdra":8697,"Ġdif":8698,"Ġdist":8699,"Ġà§§à§¯à§Ńà§¨":8700,"Ġà¦Ĩà¦¬à¦°à¦£à¦Ł":8701,"Ġà¦ķà¦¦à¦®à¦Ĺ":8702,"Ġà¦ķà¦¦à¦®à¦«":8703,"à§ĢâĢĻâĢĶ":8704,"ome":8705,"Ġà§¨à§¦à§§à§¦":8706,"Ġà§¨à§¦à§§à§ª":8707,"Ġà¤ħ":8708,"Ġà¤Ĺ":8709,"à§ĭ!âĢĿâĢĶ":8710,"Ġlong":8711,"à¦Ĺà¦łà¦¨à¦ķ":8712,"Ġinst":8713,"à¦īà§İà¦¸à¦¬à¦®":8714,"ĠIsl":8715,"ots":8716,"other":8717,"Ġtoo":8718,"ĠAyan":8719,"Ġbeaut":8720,"Ġbeyond":8721,"Ġà¦¨à¦°à¦ķà¦ķ":8722,"ĠPau":8723,"Ġà§ªà§Ń":8724,"Ġà§ªà§®":8725,"à¦īà¦ªà¦¬à¦¨":8726,"ĠBhar":8727,"ĠBangla":8728,"ĠMy":8729,"ĠMontu":8730,"à¦£à¦ļà¦ŀ":8731,"ely":8732,"Ġà§§à§¦à§¦à§¦":8733,"Ġrec":8734,"Ġref":8735,"Ġrep":8736,"Ġreason":8737,"Ġà¦īà¦Ńà§Łà¦ķ":8738,"Ġgener":8739,"à¦¸à§İà¦¤":8740,"ations":8741,"ational":8742,"áĥķ":8743,"Ġà¦¶à¦ĵà¦ķà¦°":8744,"Ġà¦Ĺà¦²à¦¦à¦ĺà¦°":8745,"ulla":8746,"cious":8747,"Ġà¦¬à¦Ĺà¦²à¦¦":8748,"Ġà¦®à¦¤à¦²à¦¬à¦Ł":8749,"Ġstre":8750,"Ġà¦ľà¦¨à¦¸à¦®à¦°":8751,"ĠHind":8752,"Ġà¦¸à§ľà¦ķà¦ªà¦¥":8753,"ĠÐ³":8754,"ĠÐ·":8755,"ĠÐ¿":8756,"ope":8757,"Ġà§§à§¯à§®à§¦":8758,"ĠWi":8759,"ĠØª":8760,"ÐµÑĢ":8761,"à¦¦à¦ļà§Łà¦¨":8762,"Ð¾Ð»":8763,"Ġà§§à§¯à§©à§§":8764,"ĠUn":8765,"ccess":8766,"Ġatt":8767,"cycle":8768,"ology":8769,"Ġtranscend":8770,"Ġliterature":8771,"ĠBengali":8772,"âĤĤ":8773,"×Ļ×":8774,"Ġabstract":8775,"Ġpeople":8776,"Ġtime":8777,"allenge":8778,"ĠPuja":8779,"Ġdiff":8780,"ĠPaurav":8781,"![":8782,",'":8783,"46":8784,"49":8785,"50":8786,"?à¥¤":8787,"GO":8788,"Th":8789,"VR":8790,"ause":8791,"ces":8792,"col":8793,"digital":8794,"kn":8795,"nce":8796,"person":8797,"ty":8798,"ten":8799,"tion":8800,"ues":8801,"vest":8802,"wise":8803,"xx":8804,"ye":8805,"ym":8806,"||":8807,"Ã¦":8808,"Ùĩ":8809,"âĪ":8810,"âĭ":8811,"æĭ":8812,"Ġ3":8813,"ĠZ":8814,"ĠÎ":8815,"ĠĠĠčĊĠĠč":8816,"Ġà¦Ļ":8817,"à¦¾ÂŃ":8818,"à§ĩÂŃ":8819,"à¦°à¦«à¦²":8820,"à¦°à¦īà¦ĩà¦¨":8821,"à§į!âĢĻ":8822,"à¦¿..":8823,"à¦¿),":8824,"à¦¨à¦Ĩà¦®à¦°":8825,"à¦¨à¦ªà¦²":8826,"à¦¨à¦®à¦¨à¦¸":8827,"à¦¤à¦ķà¦Ł":8828,"à¦¤à¦²à¦ķ":8829,"à¦¤à¦ĸà¦¤":8830,"à¦²à¦°à¦ķ":8831,"à¦²à¦¤à¦¨":8832,"à¦²à¦²à¦¨":8833,"à¦²à¦Ĺà¦¨":8834,"à¦²à¦¸à¦«":8835,"à¦²à¦¶à¦¯":8836,"à¦ķà¦·à¦£":8837,"à¦ķà¦®à¦°":8838,"à¦ķà¦ªà¦¥":8839,"à¦ķà¦ľà¦¬":8840,"à¦ķà¦¯à¦ľ":8841,"à¦ķà¦Ĩà¦īà¦Ł":8842,"à§ģ.":8843,"à§ģâĢĮ":8844,"à¦¬à¦ĵà¦¯":8845,"à¦¬à¦¬à¦²":8846,"à¦¬à¦¬à¦¤":8847,"à¦¬à¦Ĺà¦®":8848,"à¦¬à¦īà¦¯":8849,"à¦¼...":8850,"à¦®à¦ķà¦¤":8851,"à¦®à¦¸à¦°":8852,"à¦®à¦¦à¦²":8853,"à¦®à¦ħà¦¨":8854,"à¦®à¦īà¦¨":8855,"à§ĭà¥¥":8856,"Ġà¦ķà¦¨à¦Ĺ":8857,"Ġà¦¬à¦ĸà¦¶":8858,"Ġà¦¸à¦¬à¦¨":8859,"Ġà¦¸à¦¸à¦ª":8860,"Ġà¦¸à¦¦à¦²à¦¬à¦²":8861,"à¥¤à¥¤âĢĻ":8862,"à¦¸à¦ļà¦ķ":8863,"à¦¸à¦Łà¦¨":8864,"à¦¸à¦ĺà¦¨":8865,"à¦¸à¦īà¦¦":8866,"Ġà¦ªà¦¦à¦°":8867,"Ġà¦ªà¦¨à¦°":8868,"Ġà¦ªà¦ļà¦¤":8869,"Ġà¦ªà¦ļà¦¬":8870,"Ġà¦ªà¦īà¦·":8871,"Ġà¦Ĩà¦Łà¦¤":8872,"Ġà¦Ĩà¦ĵà¦²":8873,"à¦¦à¦¤à¦²":8874,"à¦¦à¦ķà¦¦":8875,"à¦Łà¦¬à¦¨":8876,"à¦Łà¦®à¦¡":8877,"Ġà¦¨à¦²à¦Ł":8878,"Ġà¦¨à¦°à¦ĸ":8879,"Ġà¦¨à¦Ńà¦¸":8880,"Ġà¦¨à¦ĸà¦ļ":8881,"Ġà¦¨à¦¬à¦¤à¦®":8882,"Ġà¦¨à¦°à¦¹à¦¤":8883,"Ġà¦®à¦¸à¦¨à¦¦":8884,"à¦ªà§İ":8885,"à¦ĩà¦¥":8886,"à¦ĩà¦Ĩà¦®":8887,"à¦ĩà¦ĵà¦°":8888,"à¦ĩà¦ªà¦®":8889,"à¦ĩà¦ľà¦Ł":8890,"à¦ĩà¦¶à¦¤":8891,"à¦Ľà¦®à¦Ľà¦®":8892,"Ġà¦¦à¦Ļ":8893,"Ġà¦¦à¦¸à¦¤":8894,"à¦ľà¦°à¦ķ":8895,"à¦ľà¦¬à¦ª":8896,"à¦ľà¦®à¦°":8897,"à¦ľà¦¸à¦¤":8898,"à¦ľà¦ĺà¦¨":8899,"Ġà¦¹à¦°à¦¬":8900,"Ġà¦¹à¦®à¦ķ":8901,"Ġà¦¹à¦Łà¦ķ":8902,"Ġà¦¹à¦¸à¦ª":8903,"Ġà¦¹à¦ĵà¦¨":8904,"Ġà¦ıà¦¤à¦°":8905,"à¦¶à¦£":8906,"à¦¶à¦ªà¦°":8907,"à¦¶à¦²à¦¬":8908,"à¦¶à§Łà¦¤":8909,"Ġà¦ħà¦ĸà¦¨":8910,"à¦ĸà¦°à¦¬":8911,"à¦Ĺà¦¤à¦¬":8912,"à¦Ĺà¦¦à¦°":8913,"à¦Ĺà¦®à¦¸":8914,"à¦·à¦²à¦¤":8915,"à¦·à¦ķà¦¬":8916,"à¦§à¦ľà¦¨":8917,"à¦§à§°":8918,"à¦§à¦¶à¦°":8919,"âĢĭ":8920,"à¦¡à¦¸à¦¨":8921,"à¦¡à¦²à¦Ł":8922,"Ġà¦¯à¦ļ":8923,"à¦ļà¦ªà¦¦":8924,"à¦ļà¦¬à¦ķ":8925,"à¦ļà¦¤à¦¤":8926,"à¦¹à¦°à¦¸":8927,"Ġà¦ķà¦°à¦®à¦ļ":8928,"à§Łà¦¤à¦°":8929,"à§Łà¦¨à¦ķ":8930,"à§Łà¦®à¦Ĺ":8931,"Ġà¦Ĺà§Ł":8932,"Ġà¦Ĺà¦¤à¦®":8933,"Ġà¦Ĺà¦Ĺà¦²à¦¸":8934,"à¦£à¦°à¦ķ":8935,"à¦£à¦ľà¦¯":8936,"à¦¥à¦°à¦Ń":8937,"à¦¥à¦¬à¦¦":8938,"à¦¥à¦°à¦¥à¦°":8939,"Ġà¦¶à¦£":8940,"Ġà¦¶à¦®à¦¸":8941,"Ġà¦ľà¦°à¦ľà¦°":8942,"Ġà¦ļà¦°à¦¸":8943,"Ġà¦ļà§°":8944,"Ġà¦Ńà¦ľà¦¤":8945,"Ġà¦°à¦¸à¦°":8946,"Ġà¦°à¦ĩà¦Ľ":8947,"Ġà¦°à¦ľà¦ķ":8948,"Ġà¦°à¦®à¦ľ":8949,"Ġà¦°à¦¸à¦¤à¦¤":8950,"Ġà¦°à¦¨à¦ľ":8951,"Ġà¦°à¦¸à¦ķà¦·":8952,"à§ĩà¥¤à¥¤âĢĻ":8953,"à¦ĵà¦ľà¦¨":8954,"à¦ĵà¦°à¦ķ":8955,"à¦ĵà¦°à¦ĩ":8956,"à¦Ńà¦ļ":8957,"à¦Ńà¦Ń":8958,"à¦Ńà¦²à¦Ĺ":8959,"Ġà¦ıà¦ķà¦ªà¦ķ":8960,"Ġà¦ıà¦ķà¦ķà¦£":8961,"à¦¼à¦¾à¦¾":8962,"à¦¼à¦¾âĢ¦âĢĿ":8963,"à¦łà¦²à¦Ĺ":8964,"Ġà¦īà¦ĩà¦ļ":8965,"à§Ĥà§į":8966,"à¦¾à¦ģà¥¤âĢĿ":8967,"Ġà¦²à¦ķà¦¬à¦ķ":8968,"Ġà¦ĵà¦«":8969,"Ġà¦ĵà¦ľà¦°":8970,"Ġà¦¬à¦²à¦¹":8971,"Ġà¦Ĩà¦°à¦¨à¦¬":8972,"Ġà¦ĸà¦ĩà¦¯":8973,"à¦°à¦¤à¦ĩ":8974,"à¦°à¦¤à¦¨à¦¬":8975,"à¦¾à¥¤(":8976,"Ġà¦ªà¦°à¦¹":8977,"Ġà¦ªà¦°à¦£":8978,"Ġà¦ªà¦°à¦Ń":8979,"Ġà¦ªà¦°à¦®à¦°":8980,"Ġà¦ªà¦°à¦ªà¦ķ":8981,"à¦¾,âĢĶ":8982,"ĠâĢ¨":8983,"à¦¬à¦¨à¦®à¦°à¦£":8984,"à¦¬à¦¨à¦ķà¦£":8985,"à¦¼à¦¿à¥¤âĢĿ":8986,"à§ľà¦ĩ":8987,"Ġà¦ĺà¦°à¦®":8988,"Ġà¦ĺà¦°à¦ķà¦¨":8989,"à¦ªà¦°à¦ªà¦°":8990,"à¦°à¦£à¦¸à¦®":8991,"Ġà¦ıà¦ĩà¦¯":8992,"à¦ľà¦¨à¦§":8993,"à¦ľà¦¨à¦Ĺà¦¨":8994,"à¦ľà¦¨à¦Ĺà¦°":8995,"à¦¤à¦°à¦ļ":8996,"à¦¤à¦°à¦ªà¦¤":8997,"à¦«à¦ļ":8998,"à¦«à¦«":8999,"à¦īà§İ":9000,"à¦īà¦ĺ":9001,"à¦īà¦°à¦¨":9002,"à¦īà¦®à¦°":9003,"à¦īà¦¬à¦¯":9004,"à¦īà§İà¦°":9005,"à¦¿,âĢĶ":9006,"à¦ªà¦¨à¦ķà¦¥":9007,"à§İà¦¨":9008,"à§İà¦¦":9009,"à§İà¦ªà¦Ł":9010,"à¦Ĩà¦ĵ":9011,"à¦Ĩà¦°à¦ĩ":9012,"à¦°à¦¬à¦®":9013,"à¦ıà¦Ĩ":9014,"à¦ıà¦¸à¦ª":9015,"à¦ıà¦°à¦ªà¦°à¦ĩ":9016,"à¦°à¦ķà¦¤":9017,"à¦¬à¦°à¦®":9018,"à¦¬à¦°à¦ŀ":9019,"à¦¬à¦°à¦¦à¦¸":9020,"Ġà¦Łà¦Ł":9021,"Ġà¦¬à¦²à¦²à¦¡":9022,"Ġà¦¬à¦²à¦²à¦ı":9023,"à¦¼à¥¤(":9024,"Ġà¦¹à¦²à¦ĩ":9025,"Ġà¦īà¦łà¦¨":9026,"ĠâĢľâĢĺ":9027,"à¦ĺà¦°à¦ķ":9028,"à¦ĺà¦°à¦¦":9029,"Ġà¦ľà¦¨à¦ĩ":9030,"Ġà¦ľà¦¨à¦¬à¦¹":9031,"Ġà¦ħà¦¬à§Ł":9032,"à§ģà¦ģ-":9033,"à§ģà¦ģà¦ģ":9034,"à¦·à¦£à¦Ńà¦Ļ":9035,"à¦ħà¦¡":9036,"à¦ħà¦¸à¦°":9037,"à¦ħà¦ľà¦°":9038,"à¦ħà¦¯à¦¥":9039,"Ġà¦¬à¦¨à¦¹":9040,"à¦ķà¦²à¦Ł":9041,"à¦ķà¦²à¦¶":9042,"à¦ķà¦²à¦¬à¦¦":9043,"à¦ķà¦Łà¦ĵ":9044,"à¦¸à¦¬à¦¶à¦¤":9045,"Ġà¦ħà¦¸à¦«à¦²":9046,"à¦°à¦¥à¦ª":9047,"à¦¾à¦Ĥ!":9048,"à¦¾à¦Ĥà¥¤":9049,"à¦²à¦ķà¦ĵ":9050,"à¦¤à¦¬à¦¦":9051,"à¦¨à¦¬à§İ":9052,"à¦¦à¦¨à¦¯":9053,"à¦¦à¦¨à¦¸":9054,"à¦¦à¦¨à¦ªà¦¦":9055,"à§ĩ?âĢĶ":9056,"à¦Ĩà¦®à¦°à¦£":9057,"Ġà¦īà¦¦à¦Ĺà¦¤":9058,"à¦¾-'":9059,"à¦Ĺà¦²à¦Ń":9060,"à¦Ĺà¦²à¦ķà¦°":9061,"à¦Ĺà¦²à¦ľà¦¨à¦ķ":9062,"Ġà¦ħà¦Ńà¦Ļ":9063,"à¦¶à¦¨à¦°":9064,"à¦¶à¦¨à¦ª":9065,"à¦°à¦¹à¦Ńà¦°":9066,"Ġà¦ĺà¦°à¦ĵ":9067,"Ġà¦ĺà¦°à¦ĺà¦°":9068,"à¦²à¦¨à¦¯":9069,"à¦²à¦¨à¦Ł":9070,"à¦²à¦¨à¦ª":9071,"à¦²à¦¨à¦¹":9072,"Ġà¦īà¦ªà¦¬à¦°":9073,"Ġà¦īà¦ªà¦¦à¦²":9074,"Ġà¦īà¦ªà¦°à¦¤à¦²":9075,"à¦¬à¦¤à¦¤":9076,"à¦®à¦²à§Ł":9077,"à¦¯à¦¤à¦Ł":9078,"à¦§à¦¨à¦ªà¦¦":9079,"à¦°à¦ľà¦¯":9080,"à¦°à¦ľà¦¬à¦°à¦¦à¦¸":9081,"Ġà¦ķà¦²à¦ª":9082,"Ġà¦ķà¦²à¦Ĺ":9083,"Ġà¦ķà¦²à¦§":9084,"Ġà¦Ĩà¦¤à¦¸":9085,"Ġà¦ıà¦¤à¦ľà¦¨":9086,"à¦¿à¦ĥ!":9087,"à¦¸à¦¨à¦ļ":9088,"à¦¸à¦¨à¦ķà¦°":9089,"à¦¸à¦¨à¦ªà¦¤":9090,"Ġà¦ħà¦ļà¦²à¦¤":9091,"Ġà¦ľà¦®à¦ľ":9092,"à¦ıà¦ĩà¦ľà¦¨":9093,"à¦Ńà¦¬à¦¸":9094,"à¦¸à¦®à¦Ŀ":9095,"à§Ģ,-":9096,"Ġà¦īà¦¨à¦ªà¦ŀ":9097,"Ġà¦ħà¦ľà¦²":9098,"à¦¹à¦²à¦®à§Ł":9099,"Ġà¦ĺà¦Łà¦®":9100,"Ġà¦Ĳà¦ļ":9101,"Ġà¦Ĳà¦ķà¦¤":9102,"Ġà¦¬à¦¹à¦¤":9103,"Ġà¦ķà¦¤à¦Ń":9104,"à¦¾âĢĶâĢĿ":9105,"Ġà¦°à¦Ļà¦Ĺ":9106,"à¦Ĺà¦°à¦ĸ":9107,"Ġà¦ªà¦¦à¦²":9108,"Ġà¦ªà¦¦à¦ªà¦¥":9109,"à¦®à¦°à¦Ł":9110,"à¦¸à¦°à¦°":9111,"à¦¸à¦°à¦ŀ":9112,"à¦°à¦ĵà¦ĩ":9113,"à¦°à¦ĵà¦ªà¦°":9114,"à¦°à¦ĵà¦°à¦ĩ":9115,"à¦¦à§Łà¦ĸ":9116,"à¦ªà¦¦à¦¶":9117,"à¦ªà¦¦à¦ľà¦¨à¦ķ":9118,"Ġà¦¨à§Łà¦ķ":9119,"Ġà¦ħà¦®à¦²à¦ª":9120,"à¦ıà¦ķà¦ĩà¦Ń":9121,"à¦¨à¦ķà¦¨":9122,"à¦¨à¦ķà¦¡":9123,"à¦®à¦£à¦ĵ":9124,"à¦¦à¦²à¦ĩ":9125,"à¦¬à¦¸à¦ļ":9126,"à¦·à¦ķà¦ĵ":9127,"Ġà¦ĩà¦¨à¦«à¦°":9128,"à¦¬à¦ķà¦®":9129,"à§Łà¦¨à¦¶":9130,"Ġà¦īà¦ªà¦°à¦ĵ":9131,"Ġà¦Ńà¦¬à¦Ń":9132,"à§°à¦ª":9133,"à§°à¦Ĺ":9134,"à§°à¦¯à¦ľ":9135,"à¦ĸà¦¬à¦ĩ":9136,"à¦¸à¦ķà¦ķ":9137,"à¦¼à§Ģ!":9138,"à¦¼à§ĢâĢĶ":9139,"à¦¼à§ĢâĢĵ":9140,"?âĢĿà¥¤":9141,"à¦¨à¦¸à¦ŀ":9142,"à¦¬à¦¶à¦¸":9143,"à¦°à¦ľà¦¨à¦®":9144,"Ġà¦Ĩà¦¦à¦¬à¦ķ":9145,"à¥¤âĢĻâĢĻ":9146,"Ġà¦Ĩà¦¹à¦¤à¦¦":9147,"à¦īà¦²à¦ĩ":9148,"à¦°à¦Ĺà¦łà¦¨":9149,"à¦¿!(":9150,"Ġà¦ķà¦·à¦Ľ":9151,"Ġà¦¦à¦¶à¦ªà¦¨":9152,"Ġà¦īà§İà¦¸à¦ľ":9153,"à¦Ĩà¦²à¦¯":9154,"à¦Ĩà¦²à¦Ĺ":9155,"à¦¾âĢĵâĢĻ":9156,"Ġà¦¬à¦Łà¦®":9157,"Ġà¦¬à¦Łà¦ł":9158,"Ġà¦Ĺà¦£à¦ª":9159,"Ġà¦Ĺà¦£à¦®à¦¨":9160,"à¦®à¦°à¦£à¦ķ":9161,"à¦²à¦®à¦¶à¦²":9162,"à¦¹à¦°à¦£à¦Ĺ":9163,"Ġà¦°à¦¸à¦®à¦¯":9164,"Ġà¦§à¦¨à¦ªà¦¤":9165,"à¦®à¦¹à¦®":9166,"à¦®à¦¹à¦°à¦®":9167,"à¦¦à¦¸à¦¹":9168,"à¦¼âĢĶâĢĺ":9169,"à¦Łà¦«à¦°à¦®":9170,"à¦Ĩà¦ķà¦¬à¦°":9171,"à¦ķà¦°à¦£à¦ķ":9172,"à§«à§«":9173,"à§«à§ª":9174,"à§«à§¯":9175,"à¤¼":9176,"à¤ģ":9177,"à¤ł":9178,"à¦łà¦ķà¦¯":9179,"à¦¾à¥¤âĢĻâĢĿ":9180,"à¦ķà¦ľà¦¨à¦ĩ":9181,"à¦ķà¦ľà¦¨à¦ĵ":9182,"à§ĩà¥¤âĢĻâĢĿ":9183,"à§ĩâĢ¦à¥¤âĢĻ":9184,"Ġà¦ľà§Łà¦ıà¦°":9185,"à¦ıà¦¸à¦¬à¦ķ":9186,"à¦®à¦¦à¦Ĺ":9187,"à¦°à¦ĸà¦£":9188,"à§Ŀà¦ª":9189,"Ġà§§à§¯à§§à§¯":9190,"à§Ńà§§":9191,"à§ĭ!!":9192,"à¦ħà¦°à¦«":9193,"à¦¸à¦¹à¦ķà¦°":9194,"à§ªà§§":9195,"à§ªà§ª":9196,"à¦²à¦ªà§ľ":9197,"à¦·à§Łà¦ĩ":9198,"Ġà¦¨à¦Ĺà¦°à¦Ń":9199,"ana":9200,"à¦ľà§Łà¦§":9201,"Ġà¦ķà§Łà¦Ł":9202,"Ġà¦ªà¦²à¦ķà¦¬":9203,"Ġ-âĢľ":9204,"Ġà¦¶à¦ªà¦¥à¦Ĺ":9205,"Ġà¦¶à¦ªà¦¥à¦ªà¦¤":9206,"à¦¿à¥¤âĢĻâĢĿ":9207,"Ġà¦Ĩà§ľà¦ļ":9208,"à¦¬à¦ľà¦¨à¦¬":9209,"à¦¬à¦ľà¦¨à¦¸":9210,"à¦¦à¦¶à¦¦":9211,"Ġà¦Ĩà¦ļà¦°à¦£à¦Ł":9212,"Ġà¦ľà¦Ĺà§İà¦¸":9213,"à¦ªà§ľà¦¬":9214,"à¦®à¦®à¦ŀ":9215,"alk":9216,"à§¬à§«":9217,"Ġthen":9218,"à¦¸à¦¦à¦¦":9219,"à¦¸à¦®à§Łà¦¸":9220,"ery":9221,"ene":9222,"Ġà¦ħà¦¬à¦¨à¦®":9223,"Ġopp":9224,"itc":9225,"ited":9226,"itive":9227,"à¦¾âĢĿ-":9228,"à¦¾âĢ¦à¥¤âĢĿ":9229,"Ġsam":9230,"Ġà¦Ĺà¦łà¦¨à¦Ĺà¦¤":9231,"à¦¶à¦¹à¦°à¦Ł":9232,"Ġà¦ļà¦°à¦£à¦ª":9233,"Ġà¦ļà¦°à¦£à¦ļ":9234,"à§ĩâĢĻ-":9235,"Ġà¦Ĩà¦Łà¦¦":9236,"Ġà¦Ĩà¦Łà¦ĺ":9237,"Ġà¦Ńà¦°à¦¤à¦®":9238,"à¦¿âĢ¦âĢĻ":9239,"âĢįà§įâĢĮ":9240,"Ġacc":9241,"Ġauthor":9242,"à¦ĩà¦«à¦ķ":9243,"Ġà¦ĭà¦£à¦Ĺ":9244,"Ġcent":9245,"Ġcur":9246,"Ġcha":9247,"Ġchar":9248,"Ġà¦¸à¦®à¦¤à¦²à¦¬":9249,"Ġmet":9250,"Ġmem":9251,"Ġmind":9252,"ars":9253,"Ġbr":9254,"à¦¬à¦ªà¦¨à¦¦":9255,"à¦ĭà¦Ĺ":9256,"Ġper":9257,"Ġpain":9258,"à¦ļà¦®à§İà¦ķ":9259,"Ġà¦¬à¦°à¦«à¦ª":9260,"à¦ħà¦ªà¦Ľà¦¨":9261,"Ġfl":9262,"Ġfind":9263,"Ġfree":9264,"ional":9265,"à¦£à¦Ĺà¦ŀ":9266,"Ġdest":9267,"à¦¬à¦Ľà¦°à¦ĸ":9268,"Ġà§§à§¯à§Ńà§©":9269,"Ġà§§à§¯à§Ńà§¬":9270,"à¦¬à§ľà¦¦":9271,"Ġà¦ªà¦¥à¦ļà¦²à¦¤":9272,"Ġà§¨à§¦à§§à§«":9273,"Ġà§¨à§¦à§§à§©":9274,"Ġà¤¤":9275,"Ġà¤¨":9276,"Ġà¤°":9277,"Ġà¤¹":9278,"Ġà¤ķ":9279,"Ġà¤Ŀ":9280,"Ġlulla":9281,"à§ĭâĢ¦à¥¤":9282,"à¦Ŀà¦¨à¦Ŀà¦¨":9283,"ĠInt":9284,"***":9285,"à¦ıà¦ķà¦ĩà¦¸à¦Ļ":9286,"ĠAp":9287,"Ġà§«à§§":9288,"Ġà§«à§©":9289,"Ġbel":9290,"ental":9291,"Ġà§ªà§ª":9292,"à¦īà¦ªà¦²à¦¬":9293,"ĠBrah":9294,"ĠMan":9295,"ĠâĢ¦.":9296,"ĠâĢ¦à¥¤":9297,"ĠâĢ¦âĢĿ":9298,"ung":9299,"ĠTagore":9300,"à¦¿',":9301,"urn":9302,"à§¦à§¦à§¦":9303,"chn":9304,"áĥ£áĥ":9305,"ĠRo":9306,"à¦¤à¦ĸà¦°à¦ļ":9307,"à¦¬à¦Ĺà¦¤à¦Ń":9308,"Ġà¦¶à¦ĵà¦ķà¦¤à¦ķ":9309,"Ġà§§à§®à§¯":9310,"Ġà§§à§¯à§ªà§¦":9311,"Ġà§¬à§«":9312,"odu":9313,"odern":9314,"Ġà¦Ĺà¦²à¦¦à¦ĺ":9315,"Ġà¦Ĩà¦ªà¦¸à¦¹":9316,"Ġ|'":9317,"ĠDur":9318,"Ġà§§à§¨à§«":9319,"Ġà§§à§¨à§¦à§¦":9320,"ĠNaz":9321,"ĠNGO":9322,"irit":9323,"iven":9324,"ement":9325,"Ġyet":9326,"Ġconcept":9327,"ipend":9328,"ĠÐ²":9329,"Ġà§§à§¯à§®à§§":9330,"Ġà§§à§¯à§®à§«":9331,"ade":9332,"Ġunder":9333,"Ġneg":9334,"Ġneigh":9335,"Ġà§§à§¯à§¨à§§":9336,"Ġà§§à§¯à§¨à§©":9337,"ĠWIS":9338,"Ġà¦¬à¦Ľà¦°à¦ķ":9339,"resent":9340,"Ġà¦¤à§İà¦¸à¦®":9341,"à¦ķà¦ľà¦®à¦ķà¦ª":9342,"Ġheart":9343,"à¦¤à¦°à¦«à¦¦":9344,"Ġorig":9345,"ĠThere":9346,"à¦ĩà¦īà¦Ń":9347,"Ð¾Ð²":9348,"harma":9349,"Ġà§§à§¯à§©à§©":9350,"ief":9351,"Ġà¦Ĩà¦īà¦Łà¦²":9352,"à¦īà¦Ńà§Łà¦ĩ":9353,"Ġabout":9354,"ization":9355,"ritical":9356,"à¦°à¦Ĺà¦²à¦Ń":9357,"cons":9358,"ĠUSB":9359,"à¦Ķà¦¦":9360,"Ġà¦¶à¦¤à¦°à¦ŀ":9361,"ĠThis":9362,"Ġà¦ħà§Łà¦¨à¦ķ":9363,"TEM":9364,"radition":9365,"ledge":9366,"Ġà¦Ĺà¦Ĺà¦¨à¦¬":9367,"ĠBeing":9368,"egr":9369,"ĠÑģÐ»":9370,"à¦¬à¦¸à¦°à¦ľà¦¨":9371,"Ġknowledge":9372,"čĊĠĠč":9373,"Ġpossib":9374,"pany":9375,"hilos":9376,"Ġevil":9377,"velopment":9378,"brace":9379,"âģł":9380,"Ġtwo":9381,"ĠPaurava":9382,"âĭ¯":9383,"Ġlullaby":9384,"!]":9385,"!âĢĺ":9386,"'s":9387,"-(":9388,".,":9389,".à¥¤":9390,"48":9391,"?âĢ¦":9392,"AL":9393,"ATE":9394,"Int":9395,"Re":9396,"be":9397,"bi":9398,"bo":9399,"ber":9400,"body":9401,"ced":9402,"ds":9403,"ey":9404,"get":9405,"ght":9406,"has":9407,"ient":9408,"kan":9409,"les":9410,"land":9411,"ob":9412,"oint":9413,"ped":9414,"press":9415,"rul":9416,"rist":9417,"ses":9418,"ts":9419,"uce":9420,"ving":9421,"Â¸":9422,"Ã¡":9423,"ÏĦ":9424,"ÑĮ":9425,"Ñĸ":9426,"×ķ×":9427,"Ø¨":9428,"ÙĬ":9429,"à¯":9430,"à±":9431,"åķ":9432,"ï¼":9433,"Ġer":9434,"Ġra":9435,"Ġent":9436,"Ġend":9437,"Ġident":9438,"Ġvery":9439,"à¦¾à¦¼":9440,"à¦¾âĢį":9441,"à¦¾âĢĲ":9442,"à¦¾Â¤":9443,"à§ĩ\"":9444,"à§ĩà§ģ":9445,"à¦°à¦¨à¦¤":9446,"à¦°à¦°à¦¸":9447,"à¦°à¦°à¦¶":9448,"à¦°à¦īà¦¦":9449,"à¦°à¦Ŀà¦¡":9450,"à¦°Ã¦":9451,"à§į;":9452,"à¦¿|":9453,"à¦¿à§į":9454,"à¦¨à¦²à¦¬":9455,"à¦¨à¦°à¦Ń":9456,"à¦¨à¦¸à¦²":9457,"à¦¨à¦¸à¦Ļ":9458,"à¦¨à¦®à¦¶":9459,"à¦¨à¦Ĩà¦¸":9460,"à¦¤à¦¬à¦²":9461,"à¦¤à¦¯à¦¶":9462,"à¦²à¦ªà¦¨":9463,"à¦²à¦Ĩ":9464,"à¦²à¦¸à¦¤":9465,"à¦²à¦Ĩà¦ªà¦¨":9466,"à¦²à§İà¦ľ":9467,"à¦ķà¦ĺ":9468,"à¦ķà¦¨à¦¦":9469,"à¦ķà¦¥à¦ķ":9470,"à¦ķà¦¸à¦Ł":9471,"à¦ķà¦®à¦ª":9472,"à¦¯à¦¦à§Ł":9473,"à¦¯à¦ľà¦²":9474,"à¦¯à¦ľà¦¯":9475,"à§ģà§ĩ":9476,"à§ģà¥¥":9477,"à§ģ...":9478,"à¦¬à¦¤à¦¬":9479,"à¦¬à¦ľà¦°":9480,"à¦¬à¦ĩà¦¤":9481,"à¦¬à¦ĩà¦¬":9482,"à¦¬à¦®à¦ª":9483,"à¦¼âĢĻ-":9484,"à¦¼âĢĿâĢĶ":9485,"à¦®à¦Ĩà¦®":9486,"à¦®à¦¬à¦¦":9487,"à¦®à§°":9488,"à¦®à¦Łà¦°":9489,"à¦®à¦Ńà¦Ļ":9490,"Ġà¦¬à¦ķà¦²":9491,"Ġà¦¬à¦¶à¦®":9492,"Ġà¦¬à¦°à¦¬à¦°":9493,"Ġà¦¬à§İà¦¸à¦²":9494,"Ġà¦¸à¦¦à§Ł":9495,"à¦¸à¦¥":9496,"à¦¸à¦ªà¦°":9497,"à¦¸à¦°à¦¬":9498,"à¦¸à¦¯à¦¤":9499,"à¦¸à¦°à¦¦":9500,"Ġà¦ªà¦®":9501,"Ġà¦ªà¦ĸ":9502,"Ġà¦ªà¦ł":9503,"Ġà¦Ĩà¦ĩà¦¯":9504,"Ġà¦Ĩà¦īà¦°":9505,"à¦¦à¦ªà¦°":9506,"à¦¦à¦ªà¦¥":9507,"à¦¦à¦ľà¦²":9508,"à¦¦à¦§à¦°":9509,"à¦¦à¦ĩà§Ł":9510,"à¦Łà¦®à¦¤":9511,"à¦Łà¦°à¦¦":9512,"à¦Łà¦ªà¦¤":9513,"à¦Łà¦¸à¦¨":9514,"à¦Łà¦ķà¦Łà¦ķ":9515,"Ġà¦¨à¦°à¦¦":9516,"Ġà¦¨à¦°à¦¬à¦²":9517,"Ġà¦¨à¦¬à¦²à¦¬":9518,"Ġà¦¨à¦ŀà¦°":9519,"Ġà¦®à§İ":9520,"Ġà¦®à¦¦à¦¬":9521,"Ġà¦®à¦Łà¦°à¦¶":9522,"à¦ªà¦®à¦¨":9523,"à¦ªà¦ķà¦Ł":9524,"à¦ĩà§ľ":9525,"à¦ĩà¦ķà¦°":9526,"à¦ĩà¦¸à¦¨":9527,"à¦ĩà¦ªà¦¥":9528,"à¦ĩà¦Łà¦²":9529,"à¦ĩà¦®à¦Ł":9530,"à¦ĩà¦ªà¦²":9531,"à¦ĩà¦®à¦ª":9532,"à¦ĩà¦ľà¦¨à¦ķ":9533,"à¦ĩà¦īà¦Ł":9534,"à¦ĩà¦ĵà¦¨":9535,"à§Ģ)à¥¤":9536,"à¦Ľà¦ľ":9537,"à¦Ľà¦ªà¦Ł":9538,"à¦Ľà¦§à¦°":9539,"Ġà¦¦à¦ľ":9540,"Ġà¦¦à§°":9541,"à¦ľà¦²à¦¤":9542,"à¦ľà¦®à¦¯":9543,"Ġà¦¹à¦¸à¦¨":9544,"Ġà¦¹à¦¦à§Ł":9545,"Ġà¦¹à¦ķà¦¸":9546,"Ġà¦¤à¦ļ":9547,"Ġà¦¤à¦£":9548,"Ġà¦¤à¦ĸà¦¤":9549,"Ġà¦¤à¦«à¦¸":9550,"Ġà¦ıà¦Ĺà¦²":9551,"Ġà¦ıà¦®à¦¡":9552,"à¦¶à¦¬à¦¤":9553,"à¦¶à¦ķà¦¬":9554,"à¦¶à¦®à¦°":9555,"à¦¶à¦²à¦Ł":9556,"à¦¶à¦Ĺà¦¡":9557,"à¦ĸà¦°à¦ķ":9558,"à¦Ĺà¦ķà¦²":9559,"à¦Ĺà¦ķà¦°":9560,"à¦Ĺà¦¦à¦²":9561,"à¦Ĺà¦¢":9562,"à¦Ĺà§°":9563,"à¦Ĺà¦°à¦¤à¦²":9564,"à¦·à¦·":9565,"à¦·à¦¤à¦°":9566,"à¦·à¦°à¦¬":9567,"à¦·à¦¬à¦°":9568,"à¦·à¦¸à¦°":9569,"à¦·à¦Ńà¦°":9570,"à¦·à¦°à¦¸à¦®":9571,"à¦§à¦°à¦¬":9572,"à¦§à¦ĵà¦¯":9573,"à¦§à¦¬à¦ķ":9574,"à¦¡à¦¬à¦ľà¦¨à¦¨":9575,"Ġà¦¯à¦·":9576,"Ġà¦¯à¦£":9577,"Ġà¦¯à¦®à¦¸":9578,"à¦ļà¦ĵà¦¯":9579,"à¦ļà¦¤à¦¨":9580,"à¦ļà¦°à¦¨":9581,"à¦ļà§Łà¦¨":9582,"à¦ļà§°":9583,"à¦ļà¦Ĺà¦¡":9584,"à¦¹à¦ĺà¦°":9585,"à§Łà¦°à¦¤":9586,"à§Łà¦¶à¦ĩ":9587,"Ġà¦Ĺà¦®à¦ķ":9588,"à¦£à¦Ŀ":9589,"à¦£à¦ªà¦¦":9590,"à¦£à¦¸à¦¹":9591,"à¦£à¦²à¦Ļ":9592,"à¦£à¦ªà¦¦à¦ķ":9593,"à¦¥à¦°à¦¤":9594,"à¦¥à¦®à¦¯":9595,"à¦¥à¦°à¦ĵ":9596,"à¦¥à¦Ĺà¦ŀ":9597,"Ġà¦¶à¦ľ":9598,"Ġà¦¶à¦·":9599,"Ġà¦¶à¦ł":9600,"Ġà¦ļà¦ķà¦°":9601,"Ġà¦Ńà¦ª":9602,"Ġà¦Ńà¦ĩà¦²":9603,"Ġà¦°à¦ĵà§Ł":9604,"Ġà¦°à¦ľà¦Ĺ":9605,"Ġà¦°à¦ĩà¦®":9606,"à§ĩà¥¤-":9607,"à¦Ńà¦°à¦ª":9608,"Ġà¦ıà¦ķà¦ļà¦ķ":9609,"Ġà¦ıà¦ķà¦°à¦Ļ":9610,"à¦¼à¦¾/":9611,"Ġà¦Ľà¦ĩ":9612,"Ġà¦Ľà¦°à¦°":9613,"Ġà¦Ĩà¦®à¦ľ":9614,"Ġà¦Ĩà¦®à¦¹":9615,"Ġà¦Ĩà¦®à¦Ŀ":9616,"à¦łà¦ªà¦¥":9617,"à¦łà¦¨à¦ķ":9618,"Ġà¦īà¦¶à¦ĸ":9619,"à§Ĥà¦ĥ":9620,"à¦¾à¦ģâĢĵ":9621,"à¦Ļà¦°à¦¹":9622,"Ġà¦²à¦Ľ":9623,"Ġà¦²à¦ĸ":9624,"Ġà¦²à¦ĸà¦¨":9625,"Ġà¦²à¦ĩà¦¨":9626,"Ġà¦²à¦Ĺà¦¨":9627,"Ġà¦ĵà¦®à¦¨":9628,"Ġà¦¬à¦²à¦¬à¦¨":9629,"Ġà¦«à§Ł":9630,"Ġà¦«à¦°à¦Ĺ":9631,"Ġà¦Ĩà¦°à¦¸":9632,"Ġà¦Ĩà¦°à¦Ł":9633,"Ġà¦Ĩà¦°à¦Ń":9634,"Ġà¦ĸà¦¬":9635,"Ġà¦ĸà¦¸à¦²":9636,"à¦°à¦¤à¦¯":9637,"Ġà¦ħà¦¨à¦Ļ":9638,"Ġà¦ħà¦¨à¦¬à¦§":9639,"Ġà¦ªà¦°à¦Ĺà¦¨":9640,"Ġà¦ªà¦°à¦Ĺà¦£":9641,"Ġà¦¸à¦®à¦°à¦ķ":9642,"à¦¬à¦¨à¦Ľ":9643,"à¦¬à¦¨à¦«":9644,"à¦¬à¦¨à¦®à¦¯":9645,"à¦¼à¦¿!âĢĿ":9646,"à¦¼à¦¿à¥¤âĢĻ":9647,"à§ľà¦ª":9648,"Ġà¦ĺà¦°à¦¸":9649,"Ġà¦ĺà¦¨à¦¬à¦¸à¦¤":9650,"à¦ªà¦°à¦¯":9651,"à¦ªà¦°à¦ª":9652,"à¦°à¦£à¦ª":9653,"à¦°à¦£à¦ľà¦¨":9654,"à¦¿à¥¤(":9655,"à¦¿à¥¤âĢ¦":9656,"à¦Ŀà¦¸":9657,"à¦Ŀà¦¦":9658,"à¦ľà¦¨à¦°à¦¸":9659,"à¦ŀà¦®":9660,"à¦ŀà¦ĩ":9661,"à¦¤à¦°à¦ĸà¦°":9662,"à¦¤à¦°à¦ľà¦Ĺà¦¤":9663,"à¦«à¦ľ":9664,"à¦īà¦²à¦¤":9665,"à¦īà¦¸à¦«":9666,"à¦īà¦¸à¦ķ":9667,"à¦īà¦¬à¦Ĺ":9668,"à¦ªà¦¨à¦Ń":9669,"Ġà¦Ĩà¦²à¦®à¦Ĺ":9670,"à§İà¦Ł":9671,"à§İà¦ĸ":9672,"à¦Ĩà¦ŀ":9673,"à¦Ĩà¦¤à¦°":9674,"à¦Ĩà¦ªà¦¤":9675,"à¦Ĩà¦§à¦¬":9676,"à¦Ĩà¦ĩà¦ľ":9677,"à¦Ĩà¦¦à¦¬":9678,"à¦Ĩà¦¦à¦¤":9679,"à¦°à¦¬à¦Ł":9680,"à¦ıà¦¹":9681,"à¦ıà¦Ļ":9682,"à¦ıà¦¨à¦ķ":9683,"Ġà¦¸à¦¬à¦°":9684,"à¦¬à¦°à¦ľ":9685,"à¦¬à¦°à¦Ń":9686,"à¦¬à¦°à¦Ńà¦Ļ":9687,"Ġà¦Łà¦¸":9688,"Ġà¦Łà¦«":9689,"Ġà¦Łà¦²à¦¸":9690,"Ġà¦¬à¦²à¦²à¦¬à¦²":9691,"Ġà¦¬à¦²à¦²à¦ıà¦ķ":9692,"âĢĻâĢĻ":9693,"Ġà¦ķà¦¥à¦ķà¦ł":9694,"à¦¼à¥¤\"":9695,"Ġà¦¹à¦²à¦°":9696,"Ġà¦¹à¦²à¦¬":9697,"Ġà¦¹à¦²à¦®":9698,"Ġà¦¡à¦²à¦¤":9699,"Ġà¦ĩà¦ķà¦¬":9700,"Ġà¦ĩà¦Łà¦¬":9701,"à¦ĺà¦²à¦¤":9702,"à¦ĺà¦¢":9703,"à¦ĺà¦°à¦Ľ":9704,"Ġà¦ľà¦¨à¦ªà¦¥":9705,"Ġà¦§à¦°à¦ª":9706,"Ġà¦Ŀà¦¨à¦¨":9707,"à¦¬à¦ªà¦²":9708,"à§ģà¦ģ!":9709,"à¦°à¦®à¦Ĺ":9710,"à¦·à¦£à¦¨":9711,"à¦·à¦£à¦¤à¦¤":9712,"à¦¤à¦¨à¦¸à¦¹":9713,"à¦ħà¦ķà¦²":9714,"à¦ħà¦ªà¦¤":9715,"à¦ħà¦¹à¦²":9716,"à¦ħà¦Ńà¦¯":9717,"à¦ħà¦¬à¦ľ":9718,"à¦ħà¦ªà¦¬":9719,"à¦ķà¦²à¦Ĺ":9720,"à¦ķà¦²à¦¬à¦¨":9721,"Ġà¦Ĩà¦¬à¦¡":9722,"Ġà¦ħà¦®à¦°à¦ķ":9723,"à¦ķà¦°à¦ĩ":9724,"à¦ķà¦°à¦¹":9725,"à¦ķà¦Łà¦¨":9726,"à¦¸à¦¬à¦Ĺ":9727,"à¦¸à¦¬à¦§":9728,"à¦¸à¦¬à¦¸à¦®à¦¯":9729,"à¦¯à¦¬à§İ":9730,"à¦°à¦¨à¦®":9731,"à§ĭà¥¤âĢĺ":9732,"à§ĭ,-":9733,"à¦²à¦ķà¦®":9734,"à¦²à¦ķà¦¡":9735,"à¦²à¦ķà¦¥":9736,"à¦¤à¦¬à¦¦à¦²":9737,"à¦¤à¦¬à¦§à¦°":9738,"à¦°à¦¸à¦¦":9739,"à¦¨à¦¬à¦ĩ":9740,"à¦¨à¦¬à¦§":9741,"à¦¨à¦¬à¦¦à¦°à¦¦":9742,"à¦¦à¦¨à¦®à§Ł":9743,"à§ĩ?)":9744,"Ġà¦ıà¦²à¦Ĺ":9745,"Ġà¦Ĩà¦¨à§Łà¦¨":9746,"Ġà¦ħà¦¦à¦°":9747,"Ġà¦īà¦¦à§Łà¦¨":9748,"Ġà¦ľà¦²à¦¯":9749,"Ġà¦ľà¦²à¦Ĺ":9750,"à¦Ĺà¦²à¦§":9751,"à¦Ĺà¦²à¦ļ":9752,"à¦Ĺà¦²à¦¹":9753,"à¦Ĺà¦²à¦¶à¦Ļ":9754,"Ġà¦ħà¦¤à¦ĩ":9755,"à¦®à¦¤à¦ĵ":9756,"à¦§à¦ķà¦£":9757,"Ġà¦ĺà¦°à¦Ń":9758,"à¦ļà¦¨à¦ļ":9759,"à¦²à¦¨à¦ĸ":9760,"à¦²à¦¨à¦Ń":9761,"à¦²à¦¨à¦®à¦¯":9762,"à¦²à¦¨à¦Ĺà¦°":9763,"Ġà¦īà¦ªà¦ª":9764,"Ġà¦īà¦ªà¦Ĺà¦¤":9765,"Ġà¦īà¦ªà¦²à¦¦":9766,"Ġà¦¸à¦°à¦ľ":9767,"à¦°à¦¯à¦ľ":9768,"à¦¬à¦¤à¦ª":9769,"à¦¬à¦¤à¦ļ":9770,"à¦ĩà¦²à¦ĩ":9771,"à¦ĩà¦²à¦¡":9772,"à¦¯à¦¤à¦ĵ":9773,"à¦²à¦¬à¦¦à¦¨":9774,"à¦§à¦¨à¦°":9775,"à¦§à¦¨à¦¸":9776,"à¦°à¦ľà¦¦":9777,"à¦°à¦ľà§Ł":9778,"à¦¼à§ĭâĢĶ":9779,"Ġà¦ķà¦²à¦®à¦ļ":9780,"Ġà¦¸à¦¹à¦¶":9781,"Ġà¦¸à¦¹à¦ľà¦¨":9782,"à¦¹à¦°à¦°à¦®":9783,"à¦¿à¦ĥâĢĵ":9784,"à¦ĩà¦¨à¦¡":9785,"Ġà¦ħà¦ļà¦ķ":9786,"Ġà¦ľà¦®à¦¦à¦Ĺ":9787,"à¦ıà¦ĩà¦®à¦¤":9788,"à¦ıà¦ĩà¦¸à¦¬à¦ĩ":9789,"à¦¨à¦¨à¦¸":9790,"à¦¨à¦¨à¦Ń":9791,"à¦¹à¦²à¦®":9792,"Ġà¦ĵà¦ªà¦°à¦Ł":9793,"âĢ¦?âĢĿ":9794,"âĢ¦..":9795,"Ġà¦ķà¦®à¦ľ":9796,"Ġà¦ķà¦®à¦«":9797,"Ġà¦ķà¦®à¦²à¦ķ":9798,"Ġà¦ķà¦®à¦¬à¦¯":9799,"à¦¤à¦²à¦®":9800,"Ġà¦°à¦Ļà¦ĩ":9801,"à¦Ĺà¦°à¦°":9802,"à¦Ĺà¦°à¦ĵ":9803,"à¦¸à¦°à¦ĵ":9804,"à§ĩ!!":9805,"Ġà¦ıà¦Łà¦®":9806,"à¦°à¦Ńà¦¬à¦¨":9807,"à¦¦à§Łà¦®":9808,"à¦ªà¦¥à¦ķ":9809,"à¦ªà¦¥à¦ĩ":9810,"à¦¿?'":9811,"âĢĮâĢĮ":9812,"à¦ıà¦ķà¦ķà¦¥":9813,"à¦ıà¦ķà¦§à¦°à¦¨":9814,"à¦¾?'":9815,"à¦®à¦£à¦¯":9816,"à¦®à¦£à¦Ń":9817,"à¦¬à¦¸à¦®à¦ķ":9818,"à§įâĢĮ?":9819,"à§įâĢĮâĢ¦":9820,"à§įâĢĮ--":9821,"à¦Łà¦²à¦Ł":9822,"Ġà¦Ľà¦¬à¦Ľà¦°":9823,"à¦·à¦ķà¦¨":9824,"à¦¤à¦ķà¦¨":9825,"à¦¤à¦ķà¦Ĺ":9826,"à¦¤à¦ķà¦®à¦²":9827,"Ġà¦²à¦ķà¦ª":9828,"à¦ļà¦ķà¦¨":9829,"à¦ļà¦ķà¦Ń":9830,"à¦ħà¦¨à¦¡":9831,"à¦¼à§ĩ,âĢĿ":9832,"à¦¤à¦®à¦¬":9833,"à¦¾!!":9834,"à¦¾!âĢ¦":9835,"à¦ªà¦ķà¦®":9836,"à¦ªà¦ķà¦£":9837,"à¦¶à¦ķà¦®":9838,"Ġà¦Ĩà¦§à¦ĺà¦¨":9839,"à¦¬à¦ķà¦¨à¦¶":9840,"à§ĩ;--":9841,"à¦¢à¦ª":9842,"à§Łà¦¨à¦¹":9843,"à¦¬à¦¬à¦¶":9844,"à¦¹à¦¨à¦Ĺ":9845,"Ġà¦īà¦ªà¦°à¦ķ":9846,"Ġà¦ħà¦²à¦®":9847,"Ġà¦ħà¦²à¦ª":9848,"à¦¯à¦¦à¦¸":9849,"à§°à¦²":9850,"à¦¼à§ģâĢĶ":9851,"à¦ķà¦¨à¦Ĺ":9852,"Ġà¦¶à¦¤à¦ĸ":9853,"Ġà¦¶à¦¤à¦¸à¦¹à¦¸":9854,"à¦¸à¦«à¦°à¦®":9855,"Ġà¦¨à¦¬à¦īà¦¦":9856,"Ġà¦¨à¦¬à¦¤à¦°à¦Ļ":9857,"Ġà¦īà¦²à¦«":9858,"à¦·à¦°à¦°":9859,"à¦¼à§Ģ-":9860,"à¦¨à¦¸à¦¦":9861,"à¦Ĩà¦ľà¦¬":9862,"à¦Ĩà¦ľà¦Ĺ":9863,"à¦°à¦ľà¦¨à¦ĩ":9864,"à¦ĩà¦Łà¦¬":9865,"à¦ĩà¦Łà¦Ń":9866,"Ġà¦Ĺà§ľà¦¨":9867,"Ġà¦Ĺà§ľà¦Ľ":9868,"à¦Ĺà¦ľà¦ĩ":9869,"à¦Ĺà¦ľà¦ķà¦²à¦®":9870,"à§İà¦¸à¦ĩ":9871,"à¦Łà¦¬à¦ĩà§Ł":9872,"à¦²à¦Ľà¦¬":9873,"à¦°à¦¹à¦£à¦®":9874,"Ġà¦ĸà¦¬à¦°à¦Ĺ":9875,"Ġà¦ıà¦¨à¦ľà¦¯":9876,"à¦°à¦®à¦£à¦¯":9877,"à¦®à§Łà¦¬":9878,"Ġà¦°à¦ķà¦®à¦Ł":9879,"Ġà¦°à¦ķà¦®à¦«":9880,"à§ĭâĢĶâĢĿ":9881,"à§¨à§¦à§¦":9882,"Ġà¦Ĺà¦£à¦¬":9883,"Ġà¦Ĺà¦£à¦ªà¦¤":9884,"Ġà¦Ĺà¦£à¦¶à¦ķ":9885,"Ġà¦¨à¦°à¦®à¦ªà¦¨":9886,"à¦ľà¦¬à¦ľ":9887,"à¦ľà¦¬à¦ªà¦¨":9888,"Ġà¦Ńà§Łà¦Ł":9889,"Ġà¦Ńà§Łà¦Ń":9890,"ĠâĢĶâĢĶâĢĶ":9891,"Ġà¦¬à¦īà¦ĩ":9892,"à¦®à¦°à¦£à¦¯":9893,"à¦®à¦°à¦£à¦¶":9894,"Ġà¦ıà¦¸à¦¬à¦ĵ":9895,"à¦¹à¦°à¦£à¦Ł":9896,"Ġà¦°à¦¸à¦Ł":9897,"Ġà¦¬à§ľà¦®":9898,"à¦®à¦¹à§İ":9899,"Ġà¦Īà¦·à¦¦":9900,"Ġà¦§à¦°à¦¨à¦§":9901,"à§¦à§¬":9902,"à¦°à¦°à¦ļà¦¨":9903,"Ġà¦ªà¦°à¦®à¦¶":9904,"à¤¡":9905,"à¤ĺ":9906,"-----":9907,"à¦ķà¦¸à¦¹":9908,"Ġtri":9909,"à¦ľà¦®à¦¶":9910,"à§ĩâĢ¦âĢĿà¥¤":9911,"à§ĩâĢ¦âĢĿâĢĶ":9912,"Ġà¦ľà§Łà¦¬":9913,"Ġà¦ľà§Łà¦®":9914,"Ġà¦ľà§Łà¦Ł":9915,"à¦¤à¦ªà¦ŀ":9916,"à¦ĩà¦Ńà¦¸":9917,"Ġà¦Ĺà¦¹à¦¨à¦¤":9918,"à¦®à¦¶à¦ķà¦°":9919,"à¦®à¦¦à¦ª":9920,"Ġà¦¸à¦°à¦²à¦°":9921,"à¦¨à¦¶à¦Ł":9922,"à§Ŀà¦¸":9923,"Ġà§§à§¯à§©à§¦":9924,"à¦²à¦Ńà¦Ļ":9925,"hel":9926,"à§Ńà§¨":9927,"à§Ńà§®":9928,"à¦¯à§İà¦ĩ":9929,"à¦Ĺà¦£à¦ķ":9930,"ins":9931,"inu":9932,"à¦ľà¦Ľà¦¤":9933,"à¦°à¦¬à¦²à¦¤à¦°":9934,"Ġà¦«à¦°à¦«à¦°":9935,"Ġà¦Ĩà¦ĩà¦¨à¦ª":9936,"Ġà¦Ĩà¦ĩà¦¨à¦¸à¦Ļ":9937,"à¦¬à¦Łà¦¤à¦²":9938,"à¦ľà§Łà¦¬":9939,"à¦ľà§Łà¦°à¦¥":9940,"Ġà¦ķà§Łà¦ľà¦¨":9941,"à¦ľà¦Ĺà¦¦":9942,"Ġà¦¸à§İà¦®":9943,"Ġà¦¸à§İà¦ª":9944,"Ġà¦¸à§İà¦ªà¦¥":9945,"Ġà¦¸à§İà¦¸à¦Ļ":9946,"Ġà¦¶à¦ªà¦¥à¦ĩ":9947,"Ġà¦®à¦¨à¦¨à¦§":9948,"Ġà¦®à¦¨à¦¨à¦¶à¦ķ":9949,"Ġà¦Ĭà¦§":9950,"à¦²à¦ľà¦«":9951,"Ġà¦Ĩà¦ļà¦°à¦£à¦ĵ":9952,"Ġà¦ľà¦Ĺà¦Ŀà¦®":9953,"Ġà¦ĩà¦¸à¦ķà¦¨":9954,"ating":9955,"atri":9956,"à¦īà¦¡à¦Ĺ":9957,"à¦¯à¦ķà¦°à¦Ń":9958,"Ġà¦«à¦Łà¦ķà¦Ł":9959,"à¦¨à¦¬à¦ľà¦Ĺà¦¤":9960,"à¦¨à¦ľà¦¨à¦¨":9961,"Ġà¦ļà¦°à¦®à¦ªà¦¤":9962,"à¦«à¦Łà¦ı":9963,"à¦Ĳà¦ĸ":9964,"à¦Ĳà¦¤à¦°":9965,"Ġold":9966,"à§¯à§®":9967,"à¦£à¦¦à¦£":9968,"à¦ĵà¦ĩà¦ĸ":9969,"Ġsm":9970,"Ġsin":9971,"Ġsus":9972,"Ġsystem":9973,"à¦¬à§Łà¦ĩ":9974,"Ġà¦Ķà¦ļ":9975,"Ġà¦Ĩà¦Łà¦ĸ":9976,"Ġà¦Ĩà¦Łà¦·à¦Ł":9977,"Ġà¦Ĩà¦ĸà§ľ":9978,"à¦¿âĢ¦?âĢĿ":9979,"à¦¿âĢ¦à¥¤âĢĻ":9980,"à¦ĩà¦«à¦°à¦®":9981,"à¦¿?âĢĻâĢĶ":9982,"Ġà¦°à¦¥à¦ļà¦ķ":9983,"Ġà¦®à¦°à¦£à¦«":9984,"Ġà¦ĩà¦¹à¦ľ":9985,"Ġmer":9986,"Ġmake":9987,"Ġmiss":9988,"Ġwom":9989,"arch":9990,"Ġà¦ıà¦®à¦Ĩà¦°":9991,"à¦īà¦ĩà¦¥":9992,"Ġbir":9993,"Ġà¦°à¦£à¦¹":9994,"Ġà¦°à¦£à¦Ń":9995,"Ġà¦Ŀà§ľà¦Ŀà¦ŀ":9996,"Ġpla":9997,"Ġpoet":9998,"à¦¿âĢĿ!":9999,"Ġà¦ķà¦¦à¦®à¦¤à¦²":10000,"Ġà¦¬à¦°à¦«à¦¶":10001,"Ġfol":10002,"à¦ĺà¦Łà¦¨à¦ªà¦Ł":10003,"à§·à§·":10004,"Ġà§©à§®":10005,"à§Īà¦ĥ,":10006,"Ġda":10007,"à¦Ĩà¦ĩà¦ĵà¦Ł":10008,"à§Ģà¦Ĥà¥¤":10009,"Ġà§¨à§¦à§§à§Ń":10010,"Ġà§¨à§¦à§«à§¦":10011,"Ġà¤µ":10012,"Ġà¤¶":10013,"Ġà¤ĸ":10014,"Ġà¤Ľ":10015,"Ġà¤ľ":10016,"cture":10017,"Ġlight":10018,"Ġlaw":10019,"Ġlater":10020,"Ġthrough":10021,"ĠIt":10022,"Ġà¦¸à¦°à¦²à¦¤à¦®":10023,"Ġà¦ĵà¦ľà¦¨à¦¹":10024,"olo":10025,"Ġà¦¨à¦ĸà¦¦à¦¨":10026,"oth":10027,"à¦¶à¦ĵà¦ª":10028,"Ġà§«à§®":10029,"Ġbefore":10030,"ĠPr":10031,"entr":10032,"ution":10033,"Ġeach":10034,"à¦¨à¦¶à¦¨à¦Ł":10035,"ĠBip":10036,"à¦£à¦¸à¦ŀ":10037,"ĠSh":10038,"à¦Ĭà¦¨":10039,"ellect":10040,"à¦¼à§Ģà¥¤âĢĿ":10041,"Ġrem":10042,"Ġread":10043,"Ġà¦¨à¦ĵà¦ľ":10044,"à¦¿'!":10045,"à¦¾âĢ¦âĢĿâĢĶ":10046,"uring":10047,"Ġà§Ńà§§":10048,"Ġgot":10049,"Ġgod":10050,"à¦¼?âĢĿâĢĶ":10051,"imate":10052,"osa":10053,"osity":10054,"ĠRel":10055,"Ġà¦ķà¦¨à¦ķà¦¦":10056,"Ġà¦Ĩà¦īà¦Łà¦¡":10057,"usi":10058,"verse":10059,"à§ĭâĢ¦âĢĿâĢĶ":10060,"Ġà§§à§®à§¬à§¦":10061,"Ġà§§à§¯à§ªà§®":10062,"Ġà§¬à§¦à§¦":10063,"Ġwhose":10064,"Ġà¦ªà¦¬à¦¨à¦¦":10065,"ific":10066,"iful":10067,"ification":10068,"Ġà¦¸à¦®à¦¤à¦²à¦Ń":10069,"à¦¾'à¥¤":10070,"cient":10071,"Ġà¦īà¦ĩà¦Ļ":10072,"Ġhapp":10073,"Ġà¦¯à¦¬à¦¨à¦°":10074,"Ġà¦ľà¦¹à¦°à¦ķ":10075,"irst":10076,"Ġà¦īà¦ĩà¦¨à¦ļ":10077,"Ġstru":10078,"Ġstipend":10079,"Ġà¦ıà¦ķà¦¨à¦ľà¦°":10080,"!![":10081,"empor":10082,"à¦¸à¦®à¦¤à¦²":10083,"Ġà¦ĸà¦¨à¦¨à¦ķ":10084,"Ġà¦¨à¦¬à¦°à¦Ļ":10085,"à¦°à¦²à§Łà¦Ļ":10086,"ĠLED":10087,"istory":10088,"Ġà§§à§¯à§¬à§ª":10089,"à§§à§ªà§«":10090,"Ġà§¨à§¦à§¦à§®":10091,"Ġà¦Ĺà¦«à¦°à¦Ĺ":10092,"Ġà§§à§¯à§¨à§¦":10093,"Ġà§§à§¯à§¨à§Ń":10094,"ĠWe":10095,"anta":10096,"ants":10097,"à§ĩ'à¥¤":10098,"acy":10099,"ĠØ±":10100,"ĠØ´":10101,"Ġà¦®à§Łà¦®à¦¨à¦¸":10102,"Ð°Ñģ":10103,"Ġhere":10104,"Ġà¦ħà¦ĺà¦Łà¦¨à¦ĺà¦Łà¦¨à¦ªà¦Ł":10105,"Ġexper":10106,"Ġà¦Ŀà¦²à¦Ŀà¦²":10107,"Ġcome":10108,"Ġcomp":10109,"Ġà§§à§¯à§©à§ª":10110,"Ġà¦Ĩà¦īà¦Łà¦¬":10111,"Ġà¦Ĩà¦īà¦¶à¦Ń":10112,"Ġspe":10113,"Ġspirit":10114,"Ġsuccess":10115,"Ġintellect":10116,"Ġà¦Ĺà¦¤à¦¬à¦Ľà¦°":10117,"izon":10118,"cont":10119,"Ġà¦Ĳà¦°à¦ķà¦®à¦ĩ":10120,"ĠReality":10121,"ublic":10122,"Ġshall":10123,"Ġchild":10124,"Ġchallenge":10125,"Ġwork":10126,"afi":10127,"afÃ©":10128,"aught":10129,"Ġlearning":10130,"Ġà¦¬à¦°à¦ķà¦¤":10131,"Ġà§§à§¯à§«à§§":10132,"arna":10133,"Ø§Øª":10134,"Ġappro":10135,"Ġbetter":10136,"à§»à¦¾":10137,"à§»à§ĩ":10138,"à§įà§įà§įà§į":10139,"========":10140,"à¤ªà¤Ł":10141,"Ġ_____":10142,"ĠÑĪ":10143,"à¦¾à§įà¦ģ":10144,"ragment":10145,"________":10146,"Ġagain":10147,"Ġreligion":10148,"à«į":10149,"æŃĵæŃĵæŃĵæŃĵæŃĵæŃĵæŃĵæŃĵæŃĵæŃĵæŃĵæŃĵæŃĵæŃĵæŃĵæŃĵæŃĵæŃĵæŃĵæŃĵæŃĵæŃĵæŃĵæŃĵæŃĵæŃĵæŃĵæŃĵæŃĵæŃĵæŃĵæŃĵ":10150,"Ġà¦Łà¦ĩà¦Łà¦®":10151,"ship":10152,"Ġupon":10153,"ĠRahim":10154,"crete":10155,"ĠYou":10156,"Ġessay":10157,"ÂłĠÂłĠÂłĠÂł":10158,"Ġsilent":10159,"ìĿĺ":10160,"à§į:âĢĶ":10161,"Ġpositive":10162,"Ġbeautiful":10163,"ĠBharata":10164,"known":10165,"âĪĴ":10166,"à¦ľà¦¬à¦ªà¦£":10167,"à¦Ĩà¦°à¦ĩà¦ľ":10168,"Ġsamosa":10169,"ĠDurga":10170,"ĠNazrul":10171,"hilosop":10172,"ĠBipul":10173,"Ġstipends":10174,"!--":10175,"%-":10176,",/":10177,"51":10178,"57":10179,"AB":10180,"Al":10181,"BD":10182,"BS":10183,"Boss":10184,"Com":10185,"Digital":10186,"EC":10187,"HO":10188,"IF":10189,"Joy":10190,"LM":10191,"My":10192,"Man":10193,"Montu":10194,"Modern":10195,"NA":10196,"PM":10197,"RU":10198,"SP":10199,"TA":10200,"Tub":10201,"Work":10202,"aven":10203,"bal":10204,"bed":10205,"day":10206,"eed":10207,"ele":10208,"eep":10209,"ft":10210,"fter":10211,"fragment":10212,"gg":10213,"gan":10214,"hit":10215,"hrist":10216,"ih":10217,"io":10218,"ira":10219,"iverse":10220,"kind":10221,"ls":10222,"lit":10223,"me":10224,"men":10225,"mun":10226,"ning":10227,"ox":10228,"oon":10229,"oat":10230,"ole":10231,"pin":10232,"pen":10233,"part":10234,"pose":10235,"rat":10236,"rish":10237,"sc":10238,"tra":10239,"vas":10240,"»¿":10241,"Â°":10242,"Ã¤":10243,"Ã¼":10244,"Ä±":10245,"Ð±":10246,"Ò¯":10247,"Õ¥":10248,"Õ«":10249,"ÖĢ":10250,"×¢":10251,"Ú¯":10252,"à©":10253,"à¬":10254,"à²":10255,"à¶":10256,"å®":10257,"å¿":10258,"ê°":10259,"ï»¿":10260,"Ġ7":10261,"Ġen":10262,"ŀ×":10263,"Ġà¦¾":10264,"à§ĩ_":10265,"à¦°à¦ł":10266,"à¦°à¦°à¦¤":10267,"à¦°à¦ĸà¦¨":10268,"à¦°à¦°à¦¬":10269,"à¦°à¦Ĩà¦®":10270,"à¦°à¦Łà¦²":10271,"à¦°à¦ļà¦¯":10272,"à¦°à¦Ĩà¦°":10273,"à¦°à¦ıà¦°":10274,"à¦°à¦ħà¦²":10275,"à¦°à¦ĺà¦£":10276,"à¦°à¦ĺà¦¡":10277,"à§įâĢĻà¥¤":10278,"à¦¿âĢĲ":10279,"à¦¨à¦ĸà¦¨":10280,"à¦¨à¦Ĩ":10281,"à¦¨à¦°à¦¸":10282,"à¦¨à¦¦à¦°":10283,"à¦¨à¦ļà¦²":10284,"à¦¨à¦®à¦°":10285,"à¦¨à¦°à¦ª":10286,"à¦¨à¦®à¦¹":10287,"à¦¨à¦ľà¦®":10288,"à¦¨à¦ľà§Ł":10289,"à¦¨à¦ħà¦²":10290,"à¦¨à¦ķà¦¤à¦ķ":10291,"à¦¤à¦¶à¦¯":10292,"à¦¤à¦·à¦Ł":10293,"à¦¤à¦¯à¦ľ":10294,"à¦¤à¦°à¦¤à¦°":10295,"à¦¤à¦ļà¦°à¦£":10296,"à¦¤à¦°à¦¤à¦²":10297,"à¦²à¦·":10298,"à¦²à¦ı":10299,"à¦²à¦ıà¦ĩ":10300,"à¦²à¦«à¦²":10301,"à¦²à¦ªà¦¡":10302,"à¦²à¦ĩà¦¬":10303,"à¦²à¦®à§Ł":10304,"à¦²à¦¥à¦¤":10305,"à¦ķà¦Ĩ":10306,"à¦ķà¦ªà¦¤":10307,"à¦ķà¦ļà¦¤":10308,"à¦ķà¦ĺà¦¨":10309,"à¦¯à¦Ľ":10310,"à¦¯à¦«":10311,"à¦¯à¦Ńà¦¬":10312,"à¦¯à¦ĺà§ľ":10313,"à§ģ/":10314,"à§ģà¦¾":10315,"à¦¬à¦¸à¦¬":10316,"à¦¬à¦Ĺà¦¨":10317,"à¦¬à¦Łà¦°":10318,"à¦¬à¦īà¦ķ":10319,"à¦¬à¦īà¦Ł":10320,"à¦¬à¦īà¦°":10321,"à¦¼à§ĭà¥¤âĢĿ":10322,"à¦¼à§Īà¦ĥ":10323,"à¦¼âĢĿâĢĵ":10324,"à¦®à¦°à¦²":10325,"à¦®à¦¹à¦¨":10326,"à¦®à¦Ĺà¦ľ":10327,"à¦®à¦Ńà¦°":10328,"à¦®à¦ľà¦¯":10329,"à¦®à¦Ŀà¦°":10330,"à¦®à¦ĸà¦£":10331,"à¦®à¦łà¦¤":10332,"à¦®à¦°à¦¹à¦¸":10333,"à§ĭ.":10334,"à§ĭâĢĿâĢĵ":10335,"Ġà¦ķà¦ĩà¦¯":10336,"Ġà¦ķà¦ĩà¦®":10337,"Ġà¦ķà¦¸à¦®à¦¸":10338,"Ġà¦¬à¦ĵà¦¯":10339,"Ġà¦¬à¦¦à¦¹":10340,"Ġà¦¬à¦°à¦ķà¦¨":10341,"Ġà¦¬ab":10342,"Ġà¦¬à¦ľà¦¬à¦ľ":10343,"Ġà¦¸à§İà¦¸":10344,"à¦¸à¦ı":10345,"à¦¸à¦¦à¦°":10346,"à¦¸à¦Ĺà¦¤":10347,"à¦¸à¦ªà¦¥":10348,"à¦¸à¦ļà¦°":10349,"à¦¸à§°":10350,"à¦¸à¦°à¦¤à¦®":10351,"à¦¸à¦ĸà¦¨à¦ĵ":10352,"Ġà¦ªà¦¦à¦¨à¦ĸ":10353,"Ġà¦Ĩà¦ļà¦ķ":10354,"Ġà¦Ĩà¦ªà¦ķ":10355,"Ġà¦Ĩà¦ĩà¦Ľ":10356,"Ġà¦Ĩà¦ĵà¦°":10357,"à¦¦à¦¥":10358,"à¦¦à¦¦à¦°":10359,"à¦¦à¦¶à¦¨":10360,"à¦¦à¦¶à¦¬":10361,"à¦¦à¦ĩà¦¯":10362,"à¦¦à¦¬à¦§":10363,"à¦¦à¦Ńà¦Ļ":10364,"à¦¦à¦²à¦¬à¦¦":10365,"à¦Łà¦ł":10366,"à¦Łà¦Ŀ":10367,"à¦Łà¦Łà¦²":10368,"à¦Łà¦¬à¦¦":10369,"à¦Łà¦¨à¦Ł":10370,"à¦Łà¦ªà¦Ł":10371,"à¦Łà¦¬à¦¯":10372,"à¦Łà¦®à¦¹":10373,"à¦Łà¦¸à¦¸":10374,"Ġà¦¨à¦¬à¦²":10375,"Ġà¦¨à¦¬à¦¤":10376,"Ġà¦¨à¦§à¦°":10377,"Ġà¦¨à¦Łà¦¬":10378,"Ġà¦¨esc":10379,"Ġà¦®à¦ķà¦°":10380,"Ġà¦®à§°":10381,"Ġà¦®à¦Łà¦¨":10382,"Ġà¦®à¦¦à¦Ł":10383,"à¦ªà¦¸à¦¬":10384,"à¦ªà¦²à¦¤":10385,"à¦ªà¦®à¦¤":10386,"à¦ªà¦Ĩà¦²":10387,"à¦ªà¦Ńà¦¯":10388,"à¦ªank":10389,"à¦ĩà¦ķà¦¬":10390,"à¦ĩà¦ľà¦°":10391,"à¦ĩà¦«à¦²":10392,"à¦ĩà¦ľà¦¯":10393,"à¦ĩà¦īà¦¡":10394,"à§Ģà§į":10395,"à§Ģà¦ģ":10396,"à§ĢâĢĶâĢľ":10397,"à§Ģ),":10398,"à¦Ľà¦ĸ":10399,"à¦ľà¦£":10400,"à¦ľà¦«":10401,"à¦ľà¦¬à¦²":10402,"à¦ľà¦®à¦ķ":10403,"à¦ľà¦łà¦°":10404,"à¦ľà¦ĸà¦®":10405,"à¦ľà¦²à¦ķà¦£":10406,"Ġà¦¹à¦°à¦Ĺ":10407,"Ġà¦¹à¦Łà¦°":10408,"Ġà¦¹à¦°à¦¦à¦®":10409,"Ġà¦¤à¦°à¦ľ":10410,"Ġà¦¤à¦ĵà¦¬":10411,"Ġà¦ıà¦ªà¦°":10412,"Ġà¦ıà¦¨à¦Ł":10413,"Ġà¦ıà¦¨à¦Ĺ":10414,"Ġà¦ıà¦¤à¦°à¦ķà¦®":10415,"à¦¶à¦ľà¦²":10416,"à¦¶à¦ļà¦°":10417,"à¦¶à¦ªà¦Ł":10418,"à¦¶à¦¸à¦¹":10419,"à¦¼à§ĩ)":10420,"à¦¼à§ĩâĢ¦âĢĻ":10421,"Ġà¦ħà¦°à¦®":10422,"Ġà¦ħà¦¶à¦¬":10423,"Ġà¦ħà¦¯à¦¯":10424,"à¦ĸà¦°à¦¸":10425,"à¦ĸà¦¸à¦®":10426,"à¦ĸà¦°à¦Ĺ":10427,"à¦ĸà¦ĺà¦£":10428,"à¦Ĺà¦®à¦£":10429,"à¦Ĺà¦¬à¦¦":10430,"à¦Ĺà¦¶à¦ķ":10431,"à¦Ĺà¦¸à¦Ļ":10432,"à¦Ĺà¦¦à¦¤":10433,"à¦·à¦®à¦¨":10434,"à¦·à¦°à¦¶":10435,"à¦·à¦¨à¦ĵ":10436,"à¦·à¦¹à¦°":10437,"à¦·à¦¸à¦®":10438,"à¦·à¦®à¦£":10439,"à¦§à¦°à¦ķ":10440,"à¦§à¦¨à¦¤":10441,"à¦§à¦ļà¦ķ":10442,"à¦§à¦Ńà¦ķ":10443,"à¦§à¦¨à¦¤à¦¤":10444,"âĢŀ":10445,"à¦¡à§Łà¦¨":10446,"à¦¡à¦¬à¦Ń":10447,"à¦¡à¦īà¦ĩà¦¥":10448,"à¦ļà¦ľ":10449,"à¦ļà¦¹":10450,"à¦ļà¦°à¦¤":10451,"à¦ļà¦ªà¦°":10452,"à¦ļà§İ":10453,"à¦ļà¦°à¦¸":10454,"à¦ļà¦Łà¦ķ":10455,"à¦ļà¦ĺà¦°":10456,"à¦¹à¦°à¦¤":10457,"à¦¹à¦ķà¦¤":10458,"à¦¹à¦ªà¦¥":10459,"à¦¹à¦¬à¦¦":10460,"à¦¹à¦ĩà¦¬":10461,"à¦¹à¦ķà¦ķ":10462,"à¦¹à¦®à¦§":10463,"Ġà¦ķà¦°à¦ļ":10464,"à§Łà¦ķà¦°":10465,"à§Łà¦¨à¦¬":10466,"à§Łà¦®à¦ķ":10467,"Ġà¦Ĺà¦Ĺà¦²":10468,"Ġà¦Ĺà¦°à¦¦":10469,"Ġà¦Ĺà¦ľà¦¸":10470,"à¦£à¦§à¦¨":10471,"à¦£à¦Ńà¦¯":10472,"à¦£à¦¯à¦ľ":10473,"à¦£à¦ĺà¦Ł":10474,"à¦¥à¦ľ":10475,"à¦¥à¦¬à¦¨":10476,"à¦¥à¦ľà¦¨":10477,"à¦¥à¦²à¦¨":10478,"à¦¥à¦¸à¦°":10479,"Ġà¦¶à¦®à¦¨":10480,"Ġà¦¶à¦ķà¦²":10481,"Ġà¦¶à¦°à¦¨":10482,"Ġà¦¶à¦ĸà¦Ł":10483,"Ġà¦ľà¦¦":10484,"Ġà¦ľà¦ĸ":10485,"Ġà¦ľà¦ĵà¦¯":10486,"Ġà¦ľà¦°à¦¦":10487,"Ġà¦ľà¦ĵà¦¹":10488,"Ġà¦ļà¦°à¦¨":10489,"Ġà¦ļà§Łà¦¨":10490,"Ġà¦ļà¦°à¦Ľ":10491,"Ġà¦Ńà¦ľà¦®":10492,"Ġà¦°à¦ĩà¦¨":10493,"Ġà¦°à§Łà¦¨":10494,"Ġà¦°à¦ľà¦¸":10495,"Ġà¦°à¦¸à¦®à§Ł":10496,"à§ĩà¥¤--":10497,"à¦ĵà¦¥":10498,"à¦Ńà¦°à¦ķ":10499,"à¦Ńà¦¬à¦ª":10500,"à¦Ńà¦¨à¦¤":10501,"Ġà¦ıà¦ķà¦¡":10502,"Ġà¦ıà¦ķà¦¬à¦¸":10503,"Ġà¦ıà¦ķà¦²à¦Ĺ":10504,"Ġà¦ıà¦ķà¦¸à¦ª":10505,"Ġà¦ıà¦ķà¦ĺà¦¨":10506,"Ġà¦ıà¦ķà¦Ĩà¦§à¦Ł":10507,"à¦¼à¦¾à¦ĥà¥¤":10508,"à¦¼à¦¾âĢĻâĢĶ":10509,"à¦¼à¦¾---":10510,"à§ĥà¦ĥ":10511,"Ġà¦Ľà¦¸":10512,"Ġà¦Ĩà¦®à¦¸à¦¤":10513,"à¦łà¦®à¦¤":10514,"à¦łà¦¶à¦¬":10515,"à¦łà¦ĸà¦£":10516,"à¦łà¦ĸà¦¡":10517,"Ġà¦īà¦Ľà¦¸":10518,"à¦Ĥ;":10519,"à§Ĥ;":10520,"à§ĤâĢĵ":10521,"à¦¾à¦ģà¦ģ":10522,"à¦¾à¦ģâĢĶ":10523,"à¦¾à¦ģ!âĢĿ":10524,"Ġà¦²à¦¬à¦¸":10525,"Ġà¦²à¦¸à¦¸":10526,"Ġà¦¬à¦²à¦ĸ":10527,"Ġà¦¬à¦²à¦ªà¦¯":10528,"Ġà¦«à¦¨à¦ķ":10529,"Ġà¦Ĩà¦°à¦ªà¦¨":10530,"Ġà¦Ĩà¦°à¦¬à¦Ń":10531,"Ġà¦ĸà¦ĩà§Ł":10532,"Ġà¦ĸà¦°à¦¤à¦°":10533,"à¦°à¦¤à¦ªà¦°":10534,"Ġà¦ħà¦¨à¦¬à¦ļ":10535,"Ġà¦ªà¦°à¦§à¦°":10536,"Ġà¦ªà¦°à¦¶à¦ª":10537,"Ġà¦ªà¦°à¦®à¦¤à¦¤":10538,"Ġà¦§à¦ĩà¦°":10539,"âĢĶâĢĵ":10540,"Ġà¦¸à¦®à¦ª":10541,"Ġà¦¸à¦®à¦®à¦°":10542,"à¦¬à¦¨à¦®à§Ł":10543,"à¦¼à¦¿âĢĿ":10544,"à§ľà¦¸à¦®":10545,"à¦ĸà¦¨à¦¶":10546,"Ġà¦ĺà¦°à¦£":10547,"Ġà¦®à¦¨à¦¹":10548,"Ġà¦®à¦¨à¦®à¦¤":10549,"Ġà¦®à¦¨à¦ªà¦Ł":10550,"Ġà¦®à¦¨à¦ķà¦£":10551,"à¦ªà¦°à¦ĩ":10552,"à¦°à¦£à¦§":10553,"à¦°à¦£à¦Ĺà¦¤":10554,"Ġà¦ıà¦ĩà¦®à¦¤":10555,"à¦¿à¥¤)":10556,"à¦®à¦¨à¦¤":10557,"à¦Ŀà¦°à¦Ľ":10558,"à¦Ŀà¦Ĺà§ľ":10559,"à¦ľà¦¨à¦¸à¦®":10560,"à¦ŀà¦Ł":10561,"à¦ŀà¦ĵ":10562,"à¦ŀà¦ľà¦¨":10563,"à¦ŀà¦¦à¦ķ":10564,"à¦¤à¦°à¦°":10565,"à¦¤à¦°à¦ĸà¦£":10566,"à¦¤à¦°à¦ľà¦Ĺà§İ":10567,"à¦«à¦Ŀà¦®":10568,"à¦īà¦Ľà¦²":10569,"à¦īà¦ªà¦¶":10570,"à¦¿,âĢĵ":10571,"à¦ªà¦¨à¦°":10572,"à¦ªà¦¨à¦ļ":10573,"à¦ªà¦¨à¦ĵ":10574,"à¦ªà¦¨à¦Ĺà¦°":10575,"Ġà¦Ĩà¦²à¦ľ":10576,"Ġà¦Ĩà¦²à¦¹":10577,"Ġà¦Ĩà¦²à¦®à¦¦":10578,"à§İà¦®":10579,"à§İà¦ĵ":10580,"à¦Ĩà¦¨à¦¤":10581,"à¦Ĩà¦°à¦¨":10582,"à¦Ĩà¦Ĺà¦¨":10583,"à¦Ĩà¦¸à¦°":10584,"à¦Ĩà¦ĩà¦°":10585,"à¦Ĩà¦¸à¦ķ":10586,"à¦Ĩà¦¨à¦²":10587,"à¦Ĩà¦ªà¦¸":10588,"à¦Ĩà¦ĩà¦Ł":10589,"à¦Ĩà¦¹à¦°à¦£":10590,"à¦Ĩà¦ªà¦²":10591,"à¦Ĩà¦¶à¦¯":10592,"à¦°à¦¬à¦¶":10593,"à¦°à¦¬à¦°à¦£":10594,"à¦°à¦¬à¦ªà¦ķ":10595,"à¦°à¦¬à¦ľà¦¨à¦ķ":10596,"à¦ıà¦¥":10597,"à¦ıà¦²à¦ķ":10598,"à¦ıà¦®à¦¤":10599,"à¦°à¦ķà¦ĩ":10600,"âĢĿ?":10601,"Ġà¦¸à¦¬à¦¤":10602,"Ġà¦¸à¦¬à¦ĵ":10603,"à¦¬à¦°à¦§":10604,"Ġà¦¬à¦²à¦²à¦²":10605,"Ġà¦¬à¦²à¦²à¦Ĩà¦ľ":10606,"Ġà¦¬à¦²à¦²à¦Ĩà¦ļ":10607,"Ġà¦Ĩà¦¸à¦¹":10608,"âĢĻâĢ¦":10609,"à¦¼à¥¤'":10610,"à¦¼à¥¤âĢ¦":10611,"Ġà¦¹à¦²à¦¨":10612,"Ġà¦¹à¦²à¦ĵ":10613,"Ġà¦¡à¦«":10614,"Ġà¦ĩà¦°à¦¤":10615,"Ġà¦ĩà¦ķà¦²":10616,"Ġà¦ĩà¦¹à¦¸":10617,"Ġà¦ĩà¦¸à¦ķ":10618,"Ġà¦ĩà¦¡à¦²":10619,"Ġà¦ĩà¦¸à¦Ł":10620,"Ġà¦ĩà¦Łà¦ª":10621,"à¦ĺà¦ĩ":10622,"à¦ĺà¦ĵ":10623,"à¦ĺà¦Ŀ":10624,"à¦ĺà¦¬à¦¤":10625,"à¦ĺà¦¶à¦ķ":10626,"Ġà¦ľà¦¨à¦¸à¦Ļ":10627,"Ġà¦Ŀà¦¨à¦ķ":10628,"à¦¬à¦²à¦¶":10629,"à¦¬à¦²à¦¤à¦°":10630,"à¦¬à¦²à¦ľà¦²":10631,"à¦¼,--":10632,"à¦°à¦®à¦¥à¦ķ":10633,"Ġà¦łà¦Ł":10634,"à¦·à¦£à¦ªà¦¦":10635,"à¦·à¦£à¦¸à¦¹":10636,"à¦¨à¦¤à¦¬":10637,"à¦¨à¦¤à¦ĩ":10638,"Ġà¦ķà¦°à¦²à¦ķ":10639,"Ġà¦ıà¦¸à¦ĩà¦īà¦Ń":10640,"Ġà¦¬à¦¸à¦°":10641,"Ġà¦Ĩà¦ľà¦°":10642,"à¦¤à¦¨à¦ª":10643,"à¦¤à¦¨à¦¹":10644,"à¦¤à¦¨à¦¤à¦°":10645,"Ġà¦¢à¦ª":10646,"à¦ħà¦¤à¦¨":10647,"à¦ħà¦ķà¦°":10648,"à¦ħà¦¹à¦°":10649,"à¦ħà¦¸à¦¨":10650,"à¦ħà¦¬à¦ļ":10651,"à¦ħà¦¹à¦®":10652,"à¦ħà¦¹à¦Ļ":10653,"Ġà¦¬à¦¨à¦Ľ":10654,"Ġà¦¬à¦¨à¦Ŀ":10655,"Ġà¦¬à¦¨à¦°à¦ķ":10656,"Ġà¦¬à¦¨à¦«à¦²":10657,"à¦ķà¦²à¦ª":10658,"Ġà¦Ĩà¦¬à¦ķ":10659,"Ġà¦ħà¦®à¦°à¦ª":10660,"Ġà¦ªà¦¥à¦ĸ":10661,"Ġà¦Ĩà¦Ĺà¦°":10662,"Ġà¦Ĩà¦Ĺà¦°à¦¤à¦²":10663,"à¦ķà¦Łà¦Ł":10664,"à¦ķà¦Łà¦ľà¦¨à¦ķ":10665,"à¦¸à¦¬à¦ķà¦Ł":10666,"Ġà¦ħà¦¸à¦°à¦ķ":10667,"à¦¯à¦¬à§°":10668,"à¦¯à¦¬à¦ĩà¦¤":10669,"à¦°à¦¨à¦Ł":10670,"à¦°à¦¨à¦ĩ":10671,"à§ĩà¦ģà¥¤":10672,"à§ĭ,âĢĿâĢĶ":10673,"à¦²à¦ķà¦¤":10674,"à¦²à¦ķà¦ĩ":10675,"à¦¤à¦¬à¦Ń":10676,"à¦¤à¦¬à§İà¦¸":10677,"à¦°à¦¸à¦ľ":10678,"à¦¨à¦¬à¦Ł":10679,"à¦¨à¦¬à¦¡":10680,"à¦¨à¦¬à¦¤à¦°":10681,"à¦¨à¦¬à¦¬à¦°":10682,"à¦¨à¦¬à¦Ĺà¦£":10683,"Ġà¦Ĩà¦¶à¦ķ":10684,"à¦¦à¦¨à¦°":10685,"à¦¦à¦¨à¦¬à¦¨":10686,"Ġà¦ıà¦ĸà¦¨à¦¤":10687,"à¦°à¦¥à¦®à¦Ń":10688,"Ġà¦¬à¦°à¦ľ":10689,"Ġà¦¹à¦¤à¦ĩ":10690,"à§ĩ?à¥¤":10691,"à§ĩ?!âĢĿ":10692,"à§ĩ?---":10693,"Ġà¦ıà¦²à¦Ĺà¦°":10694,"Ġà¦Ĩà¦¨à¦®":10695,"Ġà¦ħà¦¦à¦²":10696,"Ġà¦īà¦¦à¦°à¦¸":10697,"à¦¦à¦°à¦ĵ":10698,"à¦¦à¦°à¦ŀ":10699,"Ġà¦ľà¦²à¦ªà¦°":10700,"Ġà¦ľà¦²à¦®à¦¯":10701,"Ġà¦ľà¦²à¦¸à¦¤":10702,"Ġà¦ľà¦²à¦¶à¦ķ":10703,"Ġà¦ľà¦²à¦Ŀà¦°":10704,"à¦Ĺà¦²à¦¤":10705,"à¦Ĺà¦²à¦ļà¦£":10706,"à¦¶à¦¨à¦¹":10707,"à¦¯à¦ķà¦¬":10708,"à¦¯à¦ķà¦£":10709,"à¦®à¦¤à¦ķ":10710,"à¦®à¦¤à¦ª":10711,"à¦§à¦ķà¦ĵ":10712,"à¦°à¦¹à¦®à¦¤":10713,"Ġà¦īà¦łà¦²à¦°":10714,"à¦ļà¦¨à¦Ł":10715,"à¦ļà¦¨à¦ĩ":10716,"à¦²à¦¨à¦¨":10717,"à¦¹à¦¸à¦Ļ":10718,"Ġà¦īà¦ªà¦²":10719,"Ġà¦īà¦ªà¦Ľ":10720,"Ġà¦īà¦ªà¦¢":10721,"Ġà¦®à¦¹à¦¨":10722,"Ġà¦¸à¦°à¦Ĺà¦®":10723,"à¦¨à¦ĵà¦ĩ":10724,"à¦¨à¦ĵà§Ł":10725,"à¦ĩà¦²à¦ª":10726,"à¦ĩà¦²à¦ĵ":10727,"à¦®à¦²à¦®":10728,"à¦²à¦¬à¦¸à¦¨":10729,"à¦ĸà¦²à¦®":10730,"à¦ĸà¦²à¦¹":10731,"à¦§à¦¨à¦Ń":10732,"à¦§à¦¨à¦Ńà¦Ļ":10733,"à¦°à¦ľà¦°à¦®à¦£":10734,"à¦°à¦¦à¦¸":10735,"à¦°à¦¦à¦¦":10736,"à¦°à¦¦à¦Ł":10737,"à¦°à¦¦à¦¶":10738,"Ġà¦ıà¦®à¦¨à¦¸à¦®à¦¯":10739,"Ġà¦ħà¦ªà¦¥":10740,"Ġà¦ħà¦ªà¦¶à¦¬":10741,"à¦°à¦²à¦¸à¦Ń":10742,"à¦¼à§ĭà¦ĥà¥¤":10743,"Ġà¦ķà¦²à¦ĺà¦°":10744,"Ġà¦ķà¦²à¦¸à¦ĸ":10745,"à¦ļà¦²à¦ĵ":10746,"Ġà¦¸à¦¹à¦¤":10747,"Ġà¦Ĩà¦¤à¦¶":10748,"à¦¸à¦¨à¦Ĺ":10749,"à¦ķà¦¬à¦§":10750,"à¦¨à¦¨à¦¨":10751,"à¦¨à¦¨à¦Ĺà¦°":10752,"à§ĩ-âĢĺ":10753,"à¦¸à¦®à¦ŀ":10754,"à¦Łà¦ķà¦¯":10755,"à¦Łà¦ķà¦ĩ":10756,"à¦Łà¦ķà¦ļ":10757,"à§Ģ,âĢĶ":10758,"à§Ģ,âĢĻ":10759,"Ġà¦īà¦¨à¦ļà¦²":10760,"à¦¹à¦²à¦®à¦¯":10761,"à¦¹à¦²à¦Ńà¦°":10762,"Ġà¦ķà¦®à¦¸":10763,"à¦¤à¦²à¦§":10764,"Ġà¦īà§İà¦ķà¦²":10765,"à¦®à¦°à¦ļ":10766,"à¦¸à¦°à¦·":10767,"à¦¸à¦°à§İ":10768,"à§ĩ!-":10769,"à§ĩ!''":10770,"à¦°à¦ĵà¦ķ":10771,"à¦¦à§Łà¦°":10772,"à¦¦à§Łà¦¦":10773,"à¦¦à§Łà¦ªà¦Ł":10774,"à¦ªà¦¦à¦Ĩà¦ªà¦¦":10775,"à¦ªà¦¥à¦°":10776,"Ġà¦ħà¦®à¦²à¦¦":10777,"Ġà¦ħà¦Ĺà¦£à¦¤":10778,"Ġà¦Ĺà¦°à¦ľà¦¨":10779,"à¦®à¦£à¦¶":10780,"Ġà¦ħà¦ķà¦®":10781,"à¦¦à¦²à¦ª":10782,"à¦¬à¦¸à¦¹":10783,"Ġà¦®à¦°à¦Łà¦¨":10784,"Ġà¦ħà¦ªà¦°à¦Ł":10785,"Ġà¦ħà¦ªà¦°à¦ľà¦¨":10786,"à§įâĢĮ;":10787,"à¦°à¦ªà¦¶":10788,"à¦°à¦ªà¦¤à¦¨":10789,"Ġà¦«à¦²à¦ľ":10790,"Ġà¦«à¦²à¦¬à¦¤":10791,"à¦¬à¦¦à¦ķ":10792,"à¦¯à¦®à¦Ł":10793,"à¦¯à¦®à¦ª":10794,"à¦¤à¦ķà¦®":10795,"à¦¤à¦ķà¦ª":10796,"à§ģà¦ĥ!":10797,"à¦ļà¦ķà¦®":10798,"à¦¤à¦®à¦¦":10799,"à¦¤à¦®à¦§":10800,"à¦¾!\"":10801,"Ġà¦ĩà¦¨à¦ķà¦°":10802,"à¦ľà¦²à¦Ľ":10803,"à¦ľà¦²à¦Ľà¦¬":10804,"Ġà¦ħà¦¶à¦¥":10805,"Ġà¦Ĩà¦§à¦ĺ":10806,"à¦¬à¦ķà¦ª":10807,"à¦£à¦¤à¦ĩ":10808,"à¦ĩà¦ķà¦¸":10809,"à§ģâĢĻâĢĵ":10810,"à¦¯à¦¸à¦ļ":10811,"à¦¬à¦¬à¦¹":10812,"à¦¬à¦¬à¦¶à¦¤":10813,"Ġà¦ħà¦²à¦ĸ":10814,"Ġà¦ħà¦²à¦ĵà¦¯":10815,"Ġà¦Ĩà¦¸à¦²à¦Ł":10816,"à§°à¦ķà¦²":10817,"à§°à¦®à¦£":10818,"à¦¼à§ģ!":10819,"à¦¼à§ģâĢĵ":10820,"Ġà¦¶à¦¤à¦¦":10821,"!âĢĿâĢĵ":10822,"Ġà¦¨à¦¬à¦§":10823,"Ġà¦¨à¦¬à¦Ń":10824,"à¦¼à§Ģ;":10825,"à¦ªà¦¸à¦ª":10826,"à¦ªà¦¸à¦ĩ":10827,"à¦ªà¦¸à¦ľ":10828,"à¦¬à¦¶à¦°à¦£":10829,"à¦¬à¦¶à¦¤à¦ĩ":10830,"à¦°à¦ľà¦¨à¦¨à¦ķ":10831,"à¦ĩà¦Łà¦ľ":10832,"à¦¥à¦°à¦ĸ":10833,"à¦¥à¦°à¦Ĺà¦¤":10834,"Ġà¦Ĺà§ľà¦²":10835,"à¦«à¦²à¦Ĺ":10836,"à¦«à¦²à¦ĵ":10837,"ÂłÂłÂłÂłÂłÂłÂłÂłÂłÂłÂłÂłÂłÂłÂłÂłÂłÂłÂłÂłÂłÂł":10838,"à¦Ĺà¦ľà¦ĵ":10839,"à¦Ĺà¦ľà¦ĸà¦£":10840,"Ġà¦¸à¦¹à¦ľà¦ª":10841,"Ġà¦¸à¦®à§Łà¦Ĺ":10842,"à¦īà¦²à¦ªà¦¨":10843,"à§ĩâĢĵâĢĵ":10844,"à¦°à¦¹à¦£à¦ĵ":10845,"Ġà¦ıà¦¨à¦Ĩà¦°à¦ĩà¦ľ":10846,"ĠâĢĵâĢĺ":10847,"Ġà¦ªà¦²à¦¸":10848,"Ġà¦°à¦ķà¦®à¦ĵ":10849,"Ġà¦¦à¦¶à¦ľà¦¨à¦ķ":10850,"à¦ķà¦ķà¦£":10851,"Ġà¦īà§İà¦¸à¦Ł":10852,"Ġà¦īà§İà¦¸à¦ĩ":10853,"Ġà¦ľà¦°à¦¡à¦¨":10854,"Ġà¦Ĺà¦£à¦¶":10855,"Ġà¦ķà¦²à¦ķà¦¬à¦ľ":10856,"Ġà¦Ńà§Łà¦ĩ":10857,"Ġà¦Ńà§Łà¦Ĺ":10858,"Ġà¦Ńà§Łà¦ĵ":10859,"à¦Łà¦°à¦°":10860,"à¦®à¦°à¦£à¦¸":10861,"à¦®à¦°à¦£à¦ľ":10862,"à¦²à¦®à¦Ĺ":10863,"à¦Ĺà¦®à¦ª":10864,"à¦Ĺà¦®à¦ľ":10865,"à¦Ĺà¦®à¦ĵ":10866,"à¦²à¦Ĺà¦¡":10867,"à¦ªà¦£à¦ĵ":10868,"à¦²à¦¸à¦¹":10869,"à¦¹à¦°à¦£à¦¤":10870,"Ġà¦°à¦¸à¦ľ":10871,"Ġà¦°à¦¸à¦Ń":10872,"Ġà¦īà§İà¦¸à¦¬à¦ļ":10873,"Ġà¦Īà¦Ĺà¦²":10874,"Ġà¦Īà¦¦à¦Ĺ":10875,"Ġà¦ªà¦¶à¦°":10876,"à¦ľà¦ķà¦¸":10877,"à¦¾âĢĻ?":10878,"à¦¯à¦ªà¦²":10879,"à§¦à§©":10880,"à¦°à¦°à¦ŀ":10881,"Ġà¦ªà¦°à¦®à¦§à¦°":10882,"Ġà¦¶à¦¹à¦°à¦®à¦¯":10883,"à¦¶à¦²à¦ĩ":10884,"à¦¶à¦²à¦ĵ":10885,"à§«à§®":10886,"à¤¥":10887,"à¤Ľ":10888,"à¦łà¦ķà¦Ĺ":10889,"à¦ķà¦¸à¦ĩà¦¤":10890,"à¦¬à¦£à¦ķ":10891,"à¦¬à¦£à¦§":10892,"à§Ģ?âĢĵ":10893,"Ġter":10894,"Ġturn":10895,"Ġà¦ļà¦®à¦ķà¦¦":10896,"à§ĩ?âĢĿà¥¤":10897,"Ġà¦ıà¦Ńà¦²":10898,"à¦·à¦¦à¦ķ":10899,"à¦·à¦¦à¦¬à¦°":10900,"à¦¾à¥¤âĢĻâĢĻ":10901,"à¦¹à¦®à¦¦":10902,"à§ĩâĢ¦?âĢĿ":10903,"à¦ĩà¦Ńà¦Ł":10904,"à¦®à¦¶à¦¯":10905,"à¦£à¦¬à¦Ļ":10906,"Ġà¦¸à¦°à¦²à¦ļ":10907,"à¦¨à¦¶à¦°":10908,"à¦¿âĢĻ?":10909,"Ġà¦ªà¦°à¦¶à¦ĸ":10910,"à¦Ĺà¦£à¦®":10911,"à¦Łà¦Ľà¦¡":10912,"Ġà¦¸à¦¦à¦Ĺà¦¤":10913,"ines":10914,"inct":10915,"inci":10916,"iness":10917,"à¦ķà¦Ĺà¦®à¦¨":10918,"à¦·à§Łà¦ª":10919,",âĢĿâĢĵ":10920,"anan":10921,"anch":10922,"à¦¥à¦®à¦¥à¦®":10923,"Ġà¦·à¦ĸà¦¨":10924,"à¦¦à¦ķà¦ĵ":10925,"à¦¨à¦ļà¦ļ":10926,"à¦¶à¦°à¦Ļ":10927,"à¦ľà§Łà¦ª":10928,"à§ĩ?âĢĻâĢĶ":10929,"à¦Ĺà¦¡à¦Ĺ":10930,"Ġ-'":10931,"Ġ-âĢĺ":10932,"ony":10933,"à¦¨à§Łà¦¨à¦ĩ":10934,"Ġà¦¶à¦ªà¦¥à¦¬à¦¦":10935,"Ġà¦®à¦¨à¦¨à¦ļà¦°":10936,"à¦Ĺà¦°à¦£à¦ĩ":10937,"Ġà¦Ĭà¦ł":10938,"Ġà¦Ĭà¦·à¦¸":10939,"Ġà¦Ĭà¦¹à¦Ĺ":10940,"Ġà¦Ĭà¦¨à¦ªà¦ŀ":10941,"Ġà¦ķà¦ļà¦¸":10942,"à¦ķà§ľà¦ķ":10943,"Ġà¦®à¦¦à¦®à¦¤":10944,"à¦ªà§ľà¦¶":10945,"atis":10946,"attle":10947,"atural":10948,"Ġà¦ķà¦²à¦®à¦ĩ":10949,"ale":10950,"aly":10951,"alism":10952,"à¦¼âĢĵâĢĻ":10953,"à¦ķà¦ĸà¦¨à¦ĩ":10954,"Ġthems":10955,"à¦ıà¦¸à¦ıà¦¸":10956,"à¦ıà¦¸à¦ıà¦¸à¦¸":10957,"à¦ĩà¦ªà¦Ĺ":10958,"Ġ!âĢĶ":10959,"Ġà¦ıà¦¡à¦®à¦¨":10960,"ised":10961,"ision":10962,"ishes":10963,"à¦Ĳà¦¨":10964,"ency":10965,"Ġown":10966,"à§¯à§¦":10967,"à§¯à§ª":10968,"its":10969,"ities":10970,"itude":10971,"à¦¯à¦Ĺà¦ļ":10972,"Ġshe":10973,"Ġsay":10974,"Ġsha":10975,"à§ĭ?âĢĿ,":10976,"Ġà¦ļà¦°à¦£à¦ķ":10977,"Ġà¦ļà¦°à¦£à¦¸":10978,"Ġà¦ļà¦°à¦£à¦Ĺ":10979,"à§ĩâĢĻ?":10980,"à¦ªà¦Ĺà¦ŀ":10981,"Ġà¦Ķà¦·":10982,"Ġà¦Ķà¦°à¦Ļ":10983,"à¦ħà¦®à¦Ļ":10984,"Ġà¦ĩà¦Łà¦Ĺ":10985,"Ġà¦Ńà¦°à¦¤à¦¨":10986,"Ġà¦Ńà¦°à¦¤à¦¸":10987,"Ġà¦Ńà¦°à¦¤à¦ª":10988,"Ġà¦Ńà¦°à¦¤à¦Ń":10989,"Ġ;âĢĶ":10990,"Ġ;--":10991,"à¦¿âĢ¦âĢĿà¥¤":10992,"à¦·à¦¬à§İ":10993,"Ġà¦ľà¦Ĺà§İà¦¦":10994,"Ġà¦ľà¦Ĺà§İà¦ľ":10995,"Ġaway":10996,"Ġafter":10997,"à¦Łà¦¸à¦Ĺ":10998,"à¦ĸà¦¸à¦ĸà¦¸":10999,"Ġà¦¬à¦¦à¦Ń":11000,"Ġà¦ĭà¦£à¦®":11001,"Ġà¦ĭà¦£à¦¶":11002,"Ġca":11003,"Ġcor":11004,"Ġcare":11005,"à¦ķà¦¶à¦¨à¦ĵ":11006,"Ġmach":11007,"Ġmade":11008,"Ġà¦¨à¦°à¦ĵà¦¯":11009,"arr":11010,"arun":11011,"arily":11012,"à¦¿!âĢĿâĢĶ":11013,"Ġà¦ıà¦®à¦Ĩà¦°à¦Ĩà¦ĩ":11014,"Ġback":11015,"à¦¬à¦ªà¦¨à¦®à¦¯":11016,"à¦ĭà¦Ĺà¦¬":11017,"à¦®à¦Ńà¦ľà¦¨":11018,"Ġà¦Ĺà¦¦à¦ĸ":11019,"Ġà¦Ŀà§ľà¦ĩ":11020,"Ġpol":11021,"Ġpri":11022,"andita":11023,"ingly":11024,"Ġà¦¬à¦°à¦«à¦Ŀà¦°":11025,"edic":11026,"à¦ħà¦ľà¦Ĺà¦°":11027,"Ġfar":11028,"Ġfri":11029,"Ġfac":11030,"ÂłÂłÂłÂłÂłÂłÂłÂłÂłÂłÂłÂłÂłÂłÂłÂłÂłÂłÂłÂłÂłÂłÂłÂłÂłÂłÂłÂł":11031,"ics":11032,"Ġà¦ķà¦¬à¦°à¦ĸ":11033,"ask":11034,"Ġdr":11035,"Ġdow":11036,"Ġdid":11037,"Ġdark":11038,"Ġdivide":11039,"Ġà¦®à§İà¦¸à¦ľ":11040,"Ġhig":11041,"Ġholo":11042,"Ġhistory":11043,"Ġà§§à§¯à§Ńà§®":11044,"Ġà¦¬à¦ĩà¦Łà¦ĩ":11045,"lex":11046,"Ġà¦ļà§ľà¦ķ":11047,"Ġà¦ļà§ľà¦ķà¦Ĺ":11048,"vere":11049,"à¦īà¦¬à¦ĵà§Ł":11050,"Ġà¦ķà¦²à¦¤à¦²":11051,"à¦¿,âĢĿâĢĶ":11052,"Ġà¤¦":11053,"ctu":11054,"Ġlab":11055,"Ġthy":11056,"Ġà¦ĸà¦¨à¦ĸà¦¨":11057,"à¦Īà¦ķ":11058,"à¦Īà¦Ĺà¦°":11059,"Ġà¦¦à¦®à¦¨à¦¨":11060,"Ġà¦¨à¦Ĺà¦°à¦ľ":11061,"ĠIN":11062,"olar":11063,"Ġà¦²à¦¬à¦£à¦ĩà¦²":11064,"Ġtoward":11065,"Ġà§«à§ª":11066,"à§§à§¯à§¨à§¦":11067,"Ġà¦īà¦ªà¦ķà¦°à¦£à¦Ĺ":11068,"Ġà¦¨à§Łà¦¨à¦ľà¦²":11069,"ĠĠĠĠĠĠ":11070,"ĠPH":11071,"ĠPM":11072,"ĠPart":11073,"ential":11074,"ute":11075,"uture":11076,"Ġà¦¨à¦¬à¦¦à¦®":11077,"Ġà§ªà§§":11078,"Ġà§ªà§¨":11079,"Ġà§ªà§©":11080,"Ġà§ªà§¦à§¦":11081,"ilo":11082,"illa":11083,"Ġà¦Łà¦²à¦·":11084,"Ġà§§à§©à§¨":11085,"à¦¶à¦ªà¦¥à¦¬à¦¦":11086,"Ġà¦Ŀà¦Łà¤ªà¤Ł":11087,"ĠSam":11088,"ĠSum":11089,"à¦Ĭà¦¨à¦¬":11090,"elves":11091,"Ġà¦ĸà¦Łà¦®à¦Ł":11092,"Ġrevol":11093,"à§ĩ):":11094,"ĠTarun":11095,"uru":11096,"urope":11097,"à§į!!":11098,"à§į!]":11099,"à¦¸à§İà¦ªà¦¥":11100,"à¦¼à§ĩ!'":11101,"iment":11102,"ows":11103,"à¦¶à¦¶à¦§à¦°":11104,"à¦·à¦ľà¦¨à¦¦":11105,"à¦·à¦ľà¦¨à¦ĵ":11106,"Ġà¦ĸà§ľà¦ĸà§ľ":11107,"Ġà¦ıà¦«à¦Ĩà¦°à¦Ĩà¦ĩ":11108,"Ġà¦¶à¦ĵà¦ķà¦¤à¦ĵ":11109,"Ġà§§à§®à§¦":11110,"Ġà§§à§¯à§ªà§§":11111,"Ġà§§à§¯à§ªà§ª":11112,"Ġwhile":11113,"ĠCon":11114,"à§Ģ?âĢĿâĢĶ":11115,"Ġà¦¦à¦²à¦¬à¦¦à¦²":11116,"Ġà¥¥âĢĿ":11117,"ĠDJ":11118,"ĠDe":11119,"ĠDharma":11120,"Ġà§§à§¨à§©":11121,"Ġà§¯à§®":11122,"ĠNe":11123,"ĠNandita":11124,"à¦ħà¦¹à¦°à¦¹":11125,"à¦ªà¦°à¦¶à¦®à¦£":11126,"Ġà¦īà¦ĩà¦ł":11127,"Ġà¦²à¦Łà¦ªà¦Ł":11128,"Ġforce":11129,"Ġà¦ľà¦¹à¦°à¦¤":11130,"Ġstill":11131,"Ġstate":11132,"Ġstrong":11133,"ĠGand":11134,"ĠGang":11135,"Ġà¦ªà¦¦à¦¯à¦¨":11136,"ĠHe":11137,"empt":11138,"Ġà¦¨à¦¬à¦¬à¦¸à¦¨":11139,"ĠEd":11140,"istic":11141,"ipon":11142,"ĠÐ½":11143,"Ġà§§à§¯à§¬à§¨":11144,"Ġà§§à§¯à§¬à§¦":11145,"Ġà§§à§¯à§¬à§¬":11146,"Ġà¦®à¦«à¦¸à¦¸à¦²":11147,"Ġà§§à§ªà§ª":11148,"Ø§Ùħ":11149,"à§ĩ.à¥¤":11150,"Ġà¦Ĺà¦®à¦¨à¦ª":11151,"Ġà§¨à§¦à§¦à§§":11152,"Ġà§¨à§¦à§¦à§¨":11153,"à¦Ĩà¦Łà¦ľà¦¨":11154,"Ġà§§à§¯à§®à§¨":11155,"Ġà§§à§¯à§®à§¬":11156,"Ġvan":11157,"Ġvision":11158,"Ġvilla":11159,"Ġà¦¸à¦°à¦¬à§İ":11160,"Ġà§§à§¯à§¨à§«":11161,"erest":11162,"Ġà¦Ĩà¦īà¦²à¦ļ":11163,"aste":11164,"Ġdeath":11165,"Ġdevelopment":11166,"Ġsoon":11167,"ĠĠčĊĠĠĠĠĠč":11168,"Ġmeans":11169,"ÐµÑģ":11170,"Ġexc":11171,"Ġexist":11172,"Ġà¦ĵà¦ĩà¦°à¦ķà¦®à¦ĩ":11173,"Ġtry":11174,"Ġà¦Ĭà¦¨à¦ļà¦²":11175,"Ġwithout":11176,"Ġrather":11177,"Ġsee":11178,"Ġseem":11179,"ishav":11180,"Ġprog":11181,"iew":11182,"Ġsub":11183,"Ġintegr":11184,"àª°":11185,"Ġà¦¶à¦¬à¦°à¦¸":11186,"Ġà¦¶à¦¬à¦°à¦¦":11187,"Ġà¦ķà¦°à¦¤à¦²à¦Ĺà¦¤":11188,"à¤¹à¤°":11189,"Ġalso":11190,"Ġà¦¤à§İà¦¸à§İ":11191,"à¦Ķà¦·à¦§":11192,"ears":11193,"ĠThrough":11194,"ÙĪØ´":11195,"awn":11196,"etected":11197,"Ġà¦ıà¦¤à¦¬à¦Ľà¦°":11198,"Ġà§§à§¯à§«à§«":11199,"Ġà§§à§¯à§«à§®":11200,"iction":11201,"Ġemp":11202,"Ġemerg":11203,"à§°à¦¦à§°":11204,"Ġprodu":11205,"à¦ľà¦¨à¦Ĺà¦£à¦®à¦¨":11206,"Ġliterary":11207,"âĢķâĢķâĢķâĢķâĢķâĢķâĢķâĢķâĢķâĢķâĢķâĢķâĢķâĢķâĢķâĢķ":11208,"hys":11209,"Ġqual":11210,"Ġpassion":11211,"áĥĺáĥ":11212,"Ġabstraction":11213,"Ġadop":11214,"Ġthinking":11215,"Ġgrand":11216,"ÂŃÂŃÂŃÂŃÂŃÂŃÂŃÂŃ":11217,"ĠÃĹ":11218,"finite":11219,"ĠâĨĴ":11220,"Ġà¦ªà¦°à¦®à¦¤à¦¸à¦¹":11221,"ready":11222,"Ġfunction":11223,"struction":11224,"ĠEmbrace":11225,"Ġvalue":11226,"Ġvalues":11227,"ucation":11228,"čĊčĊčĊč":11229,"Ġaccept":11230,"Ġfeel":11231,"Ġharl":11232,"overn":11233,"âĢĥčĊč":11234,"Ġà¦Łà¦®à¦Łà¦®à¦Ł":11235,"Ġinstinct":11236,"ĠIslam":11237,"ĠHindu":11238,"Ġdiffere":11239,"æĭŃ":11240,"Ġauthority":11241,"Ġmemory":11242,"ĠAparna":11243,"ĠRohit":11244,"ĠWISH":11245,"Ġpossibly":11246,"Ġidentity":11247,"ĠâĢĶâĢĶâĢĶâĢĶ":11248,"Ġdaily":11249,"Ġexperiment":11250,"ĠYouTub":11251,"LMS":11252,"Ġà¦¬à¦¦à¦¹à¦ľà¦®":11253,"Ġà¦¬abu":11254,"Ġà¦¨escafÃ©":11255,"à¦ªankar":11256,"Ġà¦ľà¦ĵà¦¹à¦°à¦²":11257,"Ġthemselves":11258,"Ġfriend":11259,"Ġdowry":11260,"Ġhigher":11261,"ĠYouTube":11262,"!*":11263,"!..":11264,"'!":11265,"'--":11266,"(!)":11267,").":11268,",\"":11269,".-":11270,"52":11271,":-":11272,"?âĢĺ":11273,"AD":11274,"AM":11275,"AP":11276,"AT":11277,"Advik":11278,"But":11279,"CE":11280,"If":11281,"It":11282,"MO":11283,"OR":11284,"OS":11285,"On":11286,"PR":11287,"PU":11288,"Pro":11289,"Red":11290,"Ripon":11291,"SO":11292,"Se":11293,"Sha":11294,"STEM":11295,"TU":11296,"Un":11297,"VE":11298,"VIN":11299,"[*":11300,"]à¥¤":11301,"ace":11302,"app":11303,"action":11304,"br":11305,"bel":11306,"cra":11307,"cess":11308,"cla":11309,"count":11310,"cern":11311,"dom":11312,"dam":11313,"desh":11314,"ever":11315,"go":11316,"ges":11317,"hip":11318,"husi":11319,"ior":11320,"iel":11321,"iosity":11322,"jun":11323,"lim":11324,"lant":11325,"mation":11326,"ner":11327,"oes":11328,"ool":11329,"off":11330,"ping":11331,"pos":11332,"pid":11333,"rb":11334,"rvas":11335,"su":11336,"tic":11337,"ters":11338,"tick":11339,"ura":11340,"va":11341,"vo":11342,"vin":11343,"with":11344,"water":11345,"work":11346,"xt":11347,"yanta":11348,"za":11349,"³´":11350,"¿Ĵ":11351,"ÃĹ":11352,"Î±":11353,"Ïģ":11354,"Ïħ":11355,"Ð³":11356,"Ð·":11357,"Ð¼":11358,"Õ¡":11359,"Õ¸":11360,"×¨":11361,"Ø¬":11362,"ÚĨ":11363,"ÛĴ":11364,"àµ":11365,"à·":11366,"ç¿Ĵ":11367,"é³´":11368,"ĉčĊč":11369,"Ġ&":11370,"Ġ2":11371,"ĠQ":11372,"Ġed":11373,"Ġri":11374,"Ġ10":11375,"Ġvers":11376,"ĠĠâĢ¨":11377,"ıãģ":11378,"Ŀáĥ":11379,"Ġà¦ŀ":11380,"à¦¾_":11381,"à¦¾|":11382,"à¦¾à§ĩà¦ģ":11383,"à¦¾âĢķ":11384,"à§ĩà¦¿":11385,"à§ĩà¦¼":11386,"à§ĩà§ĭ":11387,"à¦°à¦¢":11388,"à§į'":11389,"à§į!âĢĿ":11390,"à¦¿(":11391,"à¦¿\"à¥¤":11392,"à¦¿Â¤":11393,"à¦¿âĭ¯":11394,"à¦¨à¦²à¦ķ":11395,"à¦¨à¦®à¦ķ":11396,"à¦¨à¦ıà¦ķ":11397,"à¦¨à¦°à¦Ł":11398,"à¦¨à¦¢":11399,"à¦¨à§İà¦¸":11400,"à¦¨à¦ªà¦¡":11401,"à¦¨à¦ıà¦ķà¦Ł":11402,"à¦¨à¦Ŀà¦°":11403,"à¦¨à¦ıà¦Ł":11404,"à¦¨à¦Ĩà¦¤":11405,"à¦¨à¦īà¦¤":11406,"à¦¨à¦ĺà¦£":11407,"à¦¨à¦ĸà¦ļ":11408,"à¦¤à¦ł":11409,"à¦¤à¦Ĺà¦²":11410,"à¦¤à¦®à¦¤":11411,"à¦¤à¦¹à¦¸":11412,"à¦¤à¦ķà¦¬":11413,"à¦¤à¦Ĺà¦¨":11414,"à¦¤à¦¶à¦¬":11415,"à¦¤à¦Ĺà¦®":11416,"à¦¤à¦ľà¦¨à¦ķ":11417,"à¦¤à§İà¦ªà¦°":11418,"à¦²à¦°à¦¬":11419,"à¦²à¦°à¦¸":11420,"à¦²à¦Ĩà¦®":11421,"à¦²à¦ĩà¦²":11422,"à¦²à¦¢":11423,"à¦²à¦ĩà¦¯":11424,"à¦²à¦ıà¦ķà¦Ł":11425,"à¦²à¦¹à¦®":11426,"à¦²à¦īà¦¦":11427,"à¦²à¦ĺà¦¡":11428,"à¦ķà§İ":11429,"à¦ķà¦Ĺà¦²":11430,"à¦ķà¦ĸà¦¤":11431,"à¦ķà¦ĵà§Ł":11432,"à¦ķà¦¸à¦²":11433,"à¦ķà¦Ľà¦¬":11434,"à¦¯à¦ļà¦¨":11435,"à¦¯à¦¹à¦¸":11436,"à¦¯à¦¶à¦¬":11437,"à¦¯à¦¸à¦¤":11438,"à¦¯à¦ħà¦¨":11439,"à¦¯à¦ĩà¦¤":11440,"à¦¯à¦²à¦Ĺ":11441,"à¦¯à¦ĺà¦¨":11442,"à¦¯à¦¶à¦°":11443,"à¦¯à¦ĸà¦£":11444,"à¦¯à¦ĸà¦ļ":11445,"à§ģà§ĥ":11446,"à§ģà§įâĢĮ":11447,"à§ģâĢĶâĢľ":11448,"à¦¬à¦ł":11449,"à¦¬à¦¶à¦¬":11450,"à¦¬à¦®à¦¬":11451,"à¦¬à¦ĺà¦°":11452,"à¦¬à¦īà¦²":11453,"à¦¬à§İà¦ĩ":11454,"à¦¬à¦ľà¦Ĺà§İà¦ķ":11455,"à¦¼.":11456,"à¦¼âĢĻâĢĶ":11457,"à¦®à¦¢":11458,"à¦®à§Łà¦¨":11459,"à¦®à¦Ĩà¦ªà¦¨":11460,"à¦®à¦Ńà¦¯":11461,"à¦®à¦ľà¦®":11462,"à¦®à¦«à¦¸":11463,"à¦®à¦°à¦®à¦°":11464,"à§ĭ\"":11465,"à§ĭà§į":11466,"à§ĭà¦¿":11467,"à§ĭà¦¾à¦ģ":11468,"Ġà¦ķà¦ĩà¦¨":11469,"Ġà¦ķà¦Łà¦²":11470,"Ġà¦ķà¦¹à¦¤":11471,"Ġà¦¬à¦ĵ":11472,"Ġà¦¬à¦¤à¦°":11473,"Ġà¦¬à¦¨à¦¤":11474,"Ġà¦¬à¦°à¦¸":11475,"Ġà¦¬à¦Łà¦ķ":11476,"Ġà¦¬à¦¹à¦²":11477,"Ġà¦¬à¦¢":11478,"Ġà¦¬à¦īà¦¨":11479,"Ġà¦¬à¦·à¦Ł":11480,"Ġà¦¸à¦ĸà¦¨":11481,"Ġà¦¸à¦ªà¦Ł":11482,"Ġà¦¸à¦²à¦Ń":11483,"Ġà¦¸à¦²à¦«":11484,"à¥Į":11485,"à¦¸à¦¸à¦¬":11486,"à¦¸à¦Ĺà¦°":11487,"à¦¸à¦Łà¦¬":11488,"à¦¸à¦ľà¦¨à¦ķ":11489,"à¦¸à¦Ńà¦Ļ":11490,"à¦¸à¦ªà¦°à¦Ł":11491,"Ġà¦ªà¦ĩ":11492,"Ġà¦ªà¦¢":11493,"Ġà¦ªà¦¯à¦°":11494,"Ġà¦ªà¦Łà¦¨":11495,"Ġà¦ªà¦ªà¦²":11496,"Ġà¦Ĩà¦ķà¦²":11497,"Ġà¦Ĩà¦§à¦ķ":11498,"Ġà¦Ĩà¦ĸà¦¤":11499,"Ġà¦Ĩà§İà¦ķ":11500,"Ġà¦Ĩà¦¢":11501,"Ġà¦Ĩà¦ĩà¦«":11502,"à¦¦à¦¸à¦¨":11503,"à¦¦à¦Ĺà¦®":11504,"à¦¦à¦ľà¦Ĺà§İ":11505,"à¦¦à¦¨à¦¤à¦¤":11506,"à¦Łà¦ŀ":11507,"à¦Łà¦Ĩ":11508,"à¦Łà¦¬à¦°":11509,"à¦Łà¦²à¦¤":11510,"à¦Łà¦ļà¦ķ":11511,"à¦Łà¦¨à¦¦":11512,"à¦Łà¦ĺà¦°":11513,"à¦Łà¦¸à¦¹":11514,"à¦Łà¦ĺà¦¡":11515,"Ġà¦¨à¦ĵà§Ł":11516,"Ġà¦¨à¦¸à¦°":11517,"Ġà¦¨à¦ĩà¦¬":11518,"Ġà¦¨à¦ķà¦¸":11519,"Ġà¦¨à¦ĸà¦ķ":11520,"Ġà¦¨à¦ĸà¦Ĺ":11521,"Ġà¦®à¦¹à¦¸":11522,"Ġà¦®à¦ĩà¦°":11523,"Ġà¦®à¦Ľà¦²":11524,"Ġà¦®à¦¦à¦ķ":11525,"Ġà¦®à¦Łà¦°à¦¸":11526,"à¦ªà¦ł":11527,"à¦ªà¦¬à¦²":11528,"à¦ªà¦Ĺà¦¨":11529,"à¦ªà¦¬à¦¸":11530,"à¦ªà¦¶à¦ķ":11531,"à¦ªà§İà¦¸":11532,"à¦ªà¦²à¦¸":11533,"à¦ªà¦¬à¦§":11534,"à¦ªà¦Ńà¦Ļ":11535,"à¦ĩà¦Łà¦ķ":11536,"à¦ĩà¦¸à¦ķ":11537,"à¦ĩà¦Ĩà¦°":11538,"à¦ĩà¦Ŀà¦°":11539,"à§Ģà§Ģ":11540,"à§ĢâĢĿâĢĵ":11541,"à¦Ľà¦«":11542,"à¦Ľà¦ĵà¦¯":11543,"Ġà¦¦à¦°à¦®":11544,"Ġà¦¦à¦¶à¦¨":11545,"Ġà¦¦à¦®à¦Ł":11546,"à¦ľà¦°à¦¨":11547,"à¦ľà¦¹à¦¸":11548,"à¦ľà¦ĵà§Ł":11549,"à¦ľà¦¯à¦¨":11550,"à¦ľà¦®à¦Ł":11551,"à¦ľà¦ªà¦¦à¦¬":11552,"à¦ľà¦¸à¦°à¦ŀ":11553,"Ġà¦¤à¦Ľ":11554,"Ġà¦¤à¦¹":11555,"Ġà¦¤à¦Ľà¦°":11556,"Ġà¦¤à¦¥à¦¨":11557,"Ġà¦¤à¦ķà¦¦":11558,"Ġà¦¤à¦Łà¦Ń":11559,"Ġà¦ıà¦²à¦ķ":11560,"Ġà¦ıà¦°à¦²":11561,"Ġà¦ıà¦ľà¦²":11562,"Ġà¦ıà¦Ĩà¦°":11563,"à¦¶à¦·":11564,"à¦¶à¦ł":11565,"à¦¶à¦ĺ":11566,"à¦¶à¦¬à¦²":11567,"à¦¶à¦¬à¦ª":11568,"à¦¶à¦¤à¦¬":11569,"à¦¶à¦°à¦¦":11570,"à¦¶à¦ļà¦²":11571,"à¦¶à¦Ŀà¦°":11572,"à¦¶à¦Ĩà¦ĩà¦¨":11573,"à¦¶à¦¬à¦¨à¦®":11574,"à¦¼à§ĩà§ĩ":11575,"à¦¼à§ĩà¦ģ":11576,"à¦¼à§ĩâĢ¦âĢĿ":11577,"Ġà¦ħà¦°à¦¥":11578,"Ġà¦ħà¦Łà¦ķ":11579,"Ġà¦ħà¦ĩà¦¯":11580,"Ġà¦ħà¦£à¦¨":11581,"à¦ĸà¦ŀ":11582,"à¦ĸà¦ĺ":11583,"à¦ĸà¦°à¦®":11584,"à¦ĸà¦²à¦ķ":11585,"à¦ĸà¦¦à¦°":11586,"à¦ĸà¦°à¦¹":11587,"à¦ĸà¦¹à¦°":11588,"à¦ĸà¦ľà¦²":11589,"à¦ĸà¦§à¦°":11590,"à¦ĸà§ľà¦ķ":11591,"à¦ĸà¦ľà¦¨à¦ķà¦Ń":11592,"à¦Ĺà¦ľà¦¨":11593,"à¦Ĺà¦ªà¦¨":11594,"à¦Ĺà¦ĺ":11595,"à¦Ĺà¦®à¦²":11596,"à¦Ĺà¦¹à¦°":11597,"à¦Ĺà¦®à¦°":11598,"à¦Ĺà¦ľà¦²":11599,"à¦Ĺà¦£à¦¤":11600,"à¦Ĺà¦ķà¦¨":11601,"à¦Ĺà¦¶à¦¯":11602,"à¦Ĺà¦¸à¦¦":11603,"à¦Ĺà¦ĸà¦£":11604,"à¦·à¦¬à¦¨":11605,"à¦·à¦°à¦ĵ":11606,"à¦·à¦ªà¦²":11607,"à¦·à¦¸à¦¹":11608,"à¦§à§ľ":11609,"à¦§à¦Ŀ":11610,"à¦§à¦°à¦¦":11611,"à¦§à¦°à¦Ľ":11612,"à¦§à¦¬à¦¬":11613,"à¦§à¦Ĺà¦£":11614,"âĢĬ":11615,"à¦¡à¦¯":11616,"à¦¡à¦§":11617,"à¦¡à¦¬à¦²":11618,"à¦¡à¦¨à¦ķ":11619,"à¦¡à¦°à¦Ł":11620,"à¦¡à¦¬à¦¬":11621,"à¦¡à¦ĸà¦£":11622,"à¦¡à¦¬à¦ªà¦ķ":11623,"à¦¡à¦ķà¦¨à¦¸":11624,"à¦ļà¦°à¦¬":11625,"à¦ļà¦°à¦¦":11626,"à¦ļà¦¬à¦¯":11627,"à¦¹à¦§à¦¨":11628,"à¦¹à¦ĵà§Ł":11629,"à¦¹à¦¨à¦¨":11630,"à¦¹à¦ĸà¦£":11631,"à¦¹à¦¬à¦¶à¦¤":11632,"Ġà¦ķà¦°à¦Ĺ":11633,"Ġà¦ķà¦°à¦°à¦¸":11634,"à§Łà¦¦à¦°":11635,"à§Łà¦®à¦®":11636,"Ġà¦Ĺà¦¥":11637,"Ġà¦Ĺà¦¬à¦°":11638,"Ġà¦Ĺà§°":11639,"Ġà¦Ĺà¦ľà¦®":11640,"à¦£à¦ľà¦¨":11641,"à¦£à¦°à¦¥":11642,"à¦£à¦°à¦¶":11643,"à¦£à¦Ĺà¦°":11644,"à¦£à¦ªà¦¥":11645,"à¦£à¦ĺà¦¨":11646,"à¦£à¦£à¦ķ":11647,"à¦£à¦ªà¦¶":11648,"à¦£à¦ľà¦Ĺà¦¤":11649,"à¦£Åĵ":11650,"à¦ģ!":11651,"à¦ģ,":11652,"à¦ģ-":11653,"à¦ģâĢ¦":11654,"à¦¥à¦®à¦¨":11655,"à¦¥à¦¬à¦²":11656,"à¦¥à¦°à¦ª":11657,"à¦¥à¦¤à¦¤":11658,"à¦¥à¦§à¦°":11659,"à¦¥à¦²à¦Ĺ":11660,"à¦¥à¦²à¦Ł":11661,"Ġà¦¶à¦°à¦ķ":11662,"Ġà¦¶à¦¤à¦®":11663,"Ġà¦¶à¦¶à¦ķ":11664,"Ġà¦¶à§°":11665,"Ġà¦¶à¦°à¦¸à¦¨":11666,"Ġà¦ľà¦Ĺà¦²":11667,"Ġà¦ľà¦ĵà§Ł":11668,"Ġà¦ľà§°":11669,"Ġà¦ļà¦°à¦¤":11670,"Ġà¦ļà¦°à¦ª":11671,"Ġà¦ļà¦ªà¦Ł":11672,"Ġà¦Ńà¦·":11673,"Ġà¦Ńà¦ŀ":11674,"Ġà¦Ńà¦°à¦ķ":11675,"Ġà¦Ńà¦²à¦ķ":11676,"Ġà¦Ńà¦²à¦¤":11677,"Ġà¦°à§ľ":11678,"Ġà¦°à¦¦à¦¨":11679,"Ġà¦°à¦¸à¦¤":11680,"Ġà¦°à¦¸à¦²":11681,"Ġà¦°à¦®à¦¸":11682,"Ġà¦°à¦¡à¦°":11683,"à§ĩà¥¤âĢĶ":11684,"à¦ĵà¦§":11685,"à¦ĵà¦¬à¦¨":11686,"à¦ĵà¦Ĩà¦®":11687,"à¦ĵà¦ĩà¦Ł":11688,"à¦ĵà§ľà¦¨":11689,"à¦Ńà¦Ľ":11690,"à¦Ńà¦²à¦ķ":11691,"à¦Ńà¦¶à¦ķ":11692,"Ġà¦ıà¦ķà¦ķà¦¤":11693,"Ġà¦ıà¦ķà¦¶à¦°":11694,"Ġà¦ıà¦ķà¦ıà¦ķà¦ľà¦¨":11695,"Ġà¦ıà¦ķà¦ıà¦ķà¦¸à¦®à¦¯":11696,"à§ĥ:":11697,"à§ĥà¦¾":11698,"Ġà¦Ľà¦°":11699,"Ġà¦Ľà¦«":11700,"Ġà¦Ľà¦®à¦ķ":11701,"Ġà¦Ľà¦ªà¦Ľ":11702,"Ġà¦Ľà¦ĩà¦ĵà¦¯":11703,"Ġà¦Ĩà¦®à¦ķ":11704,"Ġà¦Ĩà¦®à¦ª":11705,"à¦łà¦¯":11706,"à¦łà¦¬à¦¨":11707,"à¦łà¦ªà¦°":11708,"à¦łà¦°à¦¸":11709,"à¦łà¦¬à¦¦":11710,"à¦łà¦ļà¦°":11711,"à¦łà¦¨à¦ĩ":11712,"à¦łà¦Ĺà§ľ":11713,"à¦łç¿Ĵ":11714,"Ġà¦īà¦ķà¦Ł":11715,"Ġà¦īà¦¨à¦¬":11716,"Ġà¦īà¦¶à¦¨":11717,"Ġà¦īà¦ĩà¦¯":11718,"Ġà¦īà¦®à¦¦":11719,"à¦Ĥ?":11720,"à¦¾à¦ģà¦¾":11721,"à¦¾à¦ģ?âĢĿ":11722,"à¦¾à¦ģ?âĢĻ":11723,"à¦Ļà¦¶":11724,"Ġà¦²à¦ª":11725,"Ġà¦²à¤¹à¤°":11726,"Ġà¦ĵà¦¶":11727,"Ġà¦ĵà¦¤à¦°":11728,"Ġà¦ĵà¦²à¦¨":11729,"Ġà¦ĵà¦ªà¦¥":11730,"Ġà¦¥à¦¸":11731,"Ġà¦¥à¦ªà¦¥à¦ª":11732,"Ġà¦¬à¦²à¦¬à¦¤":11733,"Ġà¦ĸà¦Ļ":11734,"Ġà¦ĸà¦²à¦Ł":11735,"Ġà¦ĸà¦¸à¦Ľ":11736,"à¦°à¦¤à¦§":11737,"à¦°à¦¤à¦°à¦Ļ":11738,"Ġà¦ħà¦¨à¦ªà¦¨":11739,"à¦¾à¥¤âĢĶ":11740,"Ġà¦¹à¦¯à¦°à¦¤":11741,"Ġà¦§à¦¬à¦¨":11742,"âĢĶà¥¤":11743,"âĢĶâĢĮ":11744,"Ġà¦¸à¦®à¦¬à§Łà¦¸":11745,"à¦¾,âĢĵ":11746,"à¦¬à¦¨à¦®à¦¨":11747,"à¦¬à¦¨à¦°à¦ķ":11748,"à¦¬à¦¨à¦Ĺà¦¤":11749,"à¦¬à¦¨à¦¸à¦®":11750,"à¦¬à¦¨à¦¨à¦¦":11751,"à¦¬à¦¨à¦°à¦Ļ":11752,"à¦¬à¦¨à¦°à¦¹à¦¸":11753,"à¦¼à¦¿?âĢĿ":11754,"à§ľà¦ļ":11755,"à§ľà¦«":11756,"à§ľà¦¤à¦²":11757,"à¦ĸà¦¨à¦ĸ":11758,"Ġà¦ĺà¦¨à¦¨":11759,"Ġà¦®à¦¨à¦¶":11760,"Ġà¦®à¦¨à¦¨à¦¯":11761,"Ġà¦®à¦¨à¦¨à¦ĩ":11762,"Ġà¦®à¦¨à¦¨à¦ļ":11763,"Ġà¦®à¦¨à¦Ĺà§ľ":11764,"à¦ªà¦°à¦¹à¦°":11765,"à¦°à¦£à¦ķà¦ķ":11766,"Ġà¦ıà¦ĩà¦¸à¦Ļ":11767,"Ġà¦ıà¦ĩà¦¸à¦¬à¦ĩ":11768,"à¦¿à¥¤âĢĵ":11769,"à¦®à¦¨à¦ª":11770,"à¦®à¦¨à¦§":11771,"à¦Ŀà¦Ń":11772,"à¦ľà¦¨à¦°à¦¤":11773,"à¦ŀà¦ªà¦°":11774,"à¦ŀà¦¤à¦¤":11775,"à¦¤à¦°à¦§":11776,"à¦¤à¦°à¦ķà¦£":11777,"à¦¤à¦°à¦ªà¦¶":11778,"à¦«à¦°à¦¸":11779,"à¦īà¦Ľ":11780,"à¦īà¦°à¦ķ":11781,"à¦īà¦Ĺà¦²":11782,"à¦īà¦²à¦¨":11783,"à¦īà¦®à¦Ĺ":11784,"à¦īà¦łà¦¨":11785,"à¦īà¦¥à¦ª":11786,"à¦īà§İà¦ķà¦°":11787,"à¦īà¦°à¦¤à¦¨à¦¬":11788,"à¦¿,---":11789,"à¦ªà¦¨à¦¸":11790,"à§İà¦¸à¦®":11791,"à§İà¦¶à¦ķ":11792,"à§İà¦«à¦¨":11793,"à¦Ĩà¦£":11794,"à¦Ĩà¦Ĩ":11795,"à¦Ĩà¦²à¦ķ":11796,"à¦Ĩà¦Ĺà¦¤":11797,"à¦Ĩà¦²à¦¬":11798,"à¦Ĩà¦¨à¦ķ":11799,"à¦Ĩà¦°à¦ª":11800,"à¦Ĩà¦ķà¦¨":11801,"à¦Ĩà¦¬à¦¶":11802,"à¦Ĩà¦¹à¦¬":11803,"à¦Ĩà§Łà¦°":11804,"à¦°à¦¬à¦¯":11805,"à¦°à¦¬à¦¹à¦¨":11806,"à¦ıà§Ł":11807,"à¦ıà¦ŀ":11808,"à¦ıà¦°à¦ĵ":11809,"à¦ıà¦¤à¦Ĺ":11810,"à¦°à¦ķà¦ª":11811,"à¦°à¦ķà¦ĵ":11812,"à¦°à¦ķà¦¦à¦®":11813,"âĢĿâĢĶâĢľ":11814,"Ġà¦¸à¦¬à¦¬":11815,"Ġà¦¸à¦¬à¦°à¦Ļ":11816,"à¦¬à¦°à¦ĸ":11817,"Ġà¦Łà¦Ĺ":11818,"Ġà¦Łà§Ł":11819,"Ġà¦Łà¦ªà¦¨":11820,"Ġà¦Łà¦²à¦ķ":11821,"Ġà¦Łà¦¨à¦Ł":11822,"Ġà¦Łuhin":11823,"Ġà¦¬à¦²à¦²à¦Ĺ":11824,"Ġà¦¬à¦²à¦²à¦¥":11825,"Ġà¦¬à¦²à¦²à¦¬à¦¨":11826,"Ġà¦¬à¦²à¦²à¦ªà¦°":11827,"Ġà¦¬à¦²à¦²à¦ħà¦¨":11828,"Ġà¦¬à¦²à¦²à¦¯à¦¦":11829,"Ġà¦¬à¦²à¦²à¦Ĩà¦¸":11830,"Ġà¦¬à¦²à¦²à¦¦à¦°à¦ľ":11831,"Ġà¦¬à¦²à¦²à¦ıà¦ĸà¦¨à¦ĵ":11832,"Ġà¦Ĩà¦Ľà¦°":11833,"Ġà¦Ĩà¦Ľà¦¯":11834,"Ġà¦¹à¦²à¦¸":11835,"Ġà¦¹à¦²à¦Ĺ":11836,"Ġà¦īà¦łà¦²à¦¤":11837,"Ġà¦¡à¦®à¦°":11838,"Ġà¦¡à¦Łà¦ª":11839,"Ġà¦¡à¦Ĺà¦¡à¦Ĺ":11840,"à§Ī!":11841,"Ġà¦ĩà¦¬à¦°":11842,"Ġà¦ĩà¦¬à¦²":11843,"Ġà¦ĩà¦°à¦®":11844,"Ġà¦ĩà¦²à¦¯":11845,"à¦ĺà¦¤":11846,"à¦ĺà¦¹":11847,"à¦ĺà¦ĺ":11848,"à¦ĺà¦ķà¦£":11849,"Ġà¦ľà¦¨à¦ªà¦°":11850,"Ġà¦Ŀà¦ĩ":11851,"à¦¬à¦²à¦ļ":11852,"à¦¬à¦²à¦Ŀà¦²":11853,"ĠâĢĺ)à¥¤":11854,"à§ģà¦ģâĢĻ":11855,"Ġà¦ļà¦²à¦¦":11856,"à¦°à¦®à¦ļ":11857,"à¦°à¦®à¦Ń":11858,"à¦°à¦®à¦ªà¦°":11859,"à¦°à¦®à¦ŀ":11860,"à¦°à¦®à¦¹à¦²":11861,"à¦°à¦®à¦ªà¦¦":11862,"Ġà¦łà¦ķà¦²":11863,"à¦·à¦£à¦¸à¦®":11864,"à¦·à¦£à¦¶à¦ķ":11865,"à¦·à¦£à¦°à¦ķà¦®":11866,"à¦·à¦£à¦§à¦°":11867,"Ġà¦ķà¦°à¦²à¦«":11868,"Ġà¦ıà¦¸à¦ķ":11869,"Ġà¦ıà¦¸à¦¡":11870,"à¦¤à¦¨à¦¸":11871,"à¦ĥ/":11872,"à¦ĥâĢ¦":11873,"à¦ħà§Ł":11874,"à¦ħà¦ªà¦¨":11875,"à¦ħà¦¨à¦¬":11876,"à¦ħà¦ľà§Ł":11877,"à¦ħà¦Ĺà¦¸":11878,"à¦ħà¦¨à¦Łà¦¨":11879,"Ġà¦¬à¦¨à¦¯":11880,"Ġà¦¬à¦¨à¦ľà¦²":11881,"Ġà¦¨à¦¤à¦®à¦¸":11882,"Ġà¦ħà¦®à¦ĺ":11883,"Ġà¦ªà¦¥à¦®":11884,"Ġà¦ªà¦¥à¦¦":11885,"Ġà¦ªà¦¥à¦¸à¦Ļ":11886,"Ġà¦Ĩà¦Ĺà¦¡":11887,"Ġà¦Ĩà¦Ĺà¦°à¦ĵà¦¯":11888,"Ġà¦Ĺà¦²à¦ª":11889,"Ġà¦Ĺà¦²à¦«":11890,"à¦ķà¦Łà¦ª":11891,"à¦¸à¦¬à¦¤":11892,"à¦¸à¦¬à¦¸":11893,"à¦¸à¦¬à¦¸à¦®à§Ł":11894,"Ġà¦ħà¦¸à¦®à¦¸":11895,"à¦¯à¦¬à¦¦à¦²":11896,"à¦°à¦¨à¦¨":11897,"à¦°à¦¨à¦ķ":11898,"à¦°à¦¨à¦ľ":11899,"à¦°à¦¥à¦¯":11900,"Ġà¦¤à¦¬à¦ķ":11901,"à¦¾à¦ĤâĢĮ":11902,"à¦¤à¦¬à¦Ł":11903,"à¦¤à¦¬à¦ĩ":11904,"à¦¤à¦¬à¦¶":11905,"à¦¤à¦¬à§ľ":11906,"à¦¤à¦¬à¦ķà¦Ĺ":11907,"à¦°à¦¸à¦¡":11908,"à¦°à¦¸à¦°à¦¤":11909,"à¦¨à¦¬à¦Ń":11910,"à¦¨à¦¬à¦¶à¦ķ":11911,"à¦¨à¦¬à¦ļà¦°":11912,"à¦¨à¦¬à¦¶à¦°":11913,"à¦ķà¦¤à¦¤":11914,"Ġà¦Ĩà¦¶à¦¨":11915,"à¦¦à¦¨à¦ļà¦ķ":11916,"à¦¦à¦¨à¦¸à¦¹":11917,"à¦°à¦¥à¦®à¦ĩ":11918,"Ġà¦¹à¦¤à¦ľ":11919,"à§ĩ?(":11920,"Ġà¦ıà¦²à¦¬":11921,"Ġà¦īà¦¦à¦®":11922,"Ġà¦ħà¦°à¦²":11923,"à¦¦à¦°à¦Ĺ":11924,"Ġà¦ľà¦²à¦¬à¦¨":11925,"Ġà¦ľà¦²à¦ľà¦¨":11926,"Ġà¦ľà¦²à¦«":11927,"Ġà¦ľà¦²à¦¬à¦°":11928,"Ġà¦ľà¦²à¦ĺ":11929,"Ġà¦ľà¦²à¦¬à¦¤":11930,"Ġà¦ľà¦²à¦¸à¦®":11931,"Ġà¦ľà¦²à¦Łà¦²":11932,"Ġà¦ľà¦²à¦ľà¦®":11933,"Ġà¦ľà¦²à¦Ľà¦¡":11934,"à¦Ĺà¦²à¦¶":11935,"à¦Ĺà¦²à¦ĺ":11936,"à¦Ĺà¦²à¦®à¦¤":11937,"à¦Ĺà¦²à¦¸à¦°":11938,"à¦Ĺà¦²à¦ļà¦ķ":11939,"à¦Ĺà¦²à¦¤à¦¤":11940,"à¦Ĺà¦²à¦Ĺà¦ŀ":11941,"à¦Ĺà¦²à¦ĺà¦Ł":11942,"à¦²à¦¤à¦¤":11943,"à¦²à¦¤à¦¦":11944,"à¦Ĺà¦¤à¦¸":11945,"à¦Ĺà¦¤à¦ĵ":11946,"à¦¶à¦¨à¦²":11947,"à¦¶à¦¨à¦¶à¦¨":11948,"à¦¶à¦¨à¦®à¦¯":11949,"à¦¯à¦ķà¦¨":11950,"à¦®à¦¤à¦²à¦¬":11951,"à¦°à¦¹à¦Ļ":11952,"à¦°à¦¹à¦°à¦ĩ":11953,"à¦°à¦¹à¦¨à¦¨":11954,"à¦°à¦¹à¦°à¦Ł":11955,"à¦°à¦¹à¦¨à¦¯":11956,"Ġà¦īà¦łà¦²à¦¨":11957,"Ġà¦īà¦łà¦²à¦ĵà¦¹":11958,"à¦ļà¦¨à¦®":11959,"à¦ļà¦¨à¦¶":11960,"à¦ļà¦¨à¦ĵ":11961,"à¦²à¦¨à¦°":11962,"à¦²à¦¨à¦ķà¦°":11963,"Ġà¦īà¦ªà¦¸à¦®":11964,"à¦¨à¦ĵà¦ª":11965,"à¦¨à¦ĵà¦Ĺà¦¤":11966,"Ġà¦¯à¦ĸà¦¨à¦ķ":11967,"à¦ĩà¦²à¦ªà¦¤":11968,"à¦®à¦²à¦¸":11969,"à¦²à¦¬à¦Ł":11970,"à¦²à¦¬à¦ĩ":11971,"à¦²à¦¬à¦¶":11972,"à¦²à¦¬à¦Ĺ":11973,"à¦²à¦¬à¦ĵ":11974,"à¦§à¦¨à¦§":11975,"à¦§à¦¨à¦ªà¦¥":11976,"à¦§à¦¨à¦¯à¦ľ":11977,"à¦°à¦¦à¦Ĺ":11978,"Ġà¦ħà¦ªà¦¶":11979,"Ġà¦ħà¦ªà¦ļ":11980,"Ġà¦ħà¦ªà¦Ĺà¦¤":11981,"à¦°à¦²à¦Ĺ":11982,"Ġà¦ķà¦²à¦¹à¦ĩ":11983,"à¦ļà¦²à¦¸à¦®":11984,"à¦ªà¦¤à¦®":11985,"Ġà¦Ĩà¦¤à¦²":11986,"Ġà¦Ĩà¦¤à¦¸à¦¬":11987,"à¦¹à¦°à¦ª":11988,"à¦¸à¦¨à¦®":11989,"à¦¸à¦¨à¦Ł":11990,"à¦ĩà¦¨à¦ª":11991,"à¦ıà¦ĩà¦¯":11992,"à¦ıà¦ĩà¦¦":11993,"à¦ıà¦ĩà¦Ĺ":11994,"à¦¨à¦¨à¦¦":11995,"à§ĩ-âĢľ":11996,"à§ĩ----":11997,"à¦°à¦ªà¦°à¦ıà¦ķà¦Ł":11998,"Ġà¦ķà¦¬à¦¯":11999,"à¦Ńà¦¬à¦¶à¦ķ":12000,"Ġà¦ıà¦ĸà¦ĸ":12001,"à¦¿-âĢĺ":12002,"à¦Łà¦ķà¦®":12003,"à¦Łà¦ķà¦Ĺ":12004,"à§Ģ,âĢĵ":12005,"à§Ģ,--":12006,"Ġà¦īà¦¨à¦¸à¦¤":12007,"Ġà¦ĩà¦¤à¦°à¦¤":12008,"Ġà¦ĵà¦ªà¦°à¦ķ":12009,"âĢ¦?":12010,"âĢ¦?âĢĻ":12011,"âĢ¦âĢĿà¥¤":12012,"Ġà¦ĺà¦Łà¦Ł":12013,"Ġà¦ķà¦®à¦ĵ":12014,"à¦¤à¦²à¦ĸ":12015,"à¦¾âĢĶâĢĻ":12016,"à¦Ĺà¦¨à¦¦":12017,"Ġà¦īà§İà¦¸à¦ķ":12018,"Ġà¦¬à¦Ľà¦°à¦Ł":12019,"Ġà¦¬à¦Ľà¦°à¦Ńà¦°":12020,"à¦Ĺà¦°à¦ļ":12021,"Ġà¦ıà¦Ĺà¦ļ":12022,"Ġà¦¯à¦¤à¦ľà¦¨":12023,"Ġà¦¯à¦¤à¦¸à¦¬":12024,"Ġà¦ªà¦¦à¦¦":12025,"Ġà¦ªà¦¦à¦ĵ":12026,"à§ĩ!âĢ¦":12027,"à§ĩ!--":12028,"à¦°à¦Ńà¦¯":12029,"à¦°à¦Ńà¦®à¦¯":12030,"à¦°à¦ĵà¦¨":12031,"à¦¦à§Łà¦Ńà¦°":12032,"à¦ªà¦¦à¦§":12033,"à¦ªà¦¦à¦¹":12034,"à¦ªà¦¥à¦¬":12035,"à¦ªà¦¥à¦¶":12036,"à¦ªà¦¥à¦ĺ":12037,"à¦¿?âĢĵ":12038,"à¦¿?''":12039,"à¦¼à§ĩà¥¤\"":12040,"à¦¼à§ĩà¥¤'":12041,"Ġà¦¨à§Łà¦ĩ":12042,"Ġà¦¨à§Łà¦¨à¦¬":12043,"Ġà¦¨à§Łà¦¨à¦ľ":12044,"Ġà¦ħà¦Ĺà¦ª":12045,"à¦ıà¦ķà¦ļ":12046,"à¦ıà¦ķà¦¹":12047,"à¦ıà¦ķà¦®à¦¨":12048,"à¦ıà¦ķà¦Ŀ":12049,"à¦ıà¦ķà¦°à¦ķà¦®":12050,"à¦¾?\"":12051,"à¦¾?âĢĶ":12052,"à¦®à¦£à¦¸à¦®":12053,"à¦¦à¦²à¦®":12054,"à¦¦à¦²à¦Ł":12055,"Ġà¦¶à¦¹à¦°à¦ª":12056,"à¦¬à¦¸à¦¯":12057,"à§įâĢĮ!âĢĻ":12058,"à¦°à¦ªà¦£":12059,"à¦°à¦ªà§ľ":12060,"Ġà¦«à¦²à¦ĩ":12061,"Ġà¦«à¦²à¦Ń":12062,"à¦¯à¦®à¦Ĺ":12063,"à¦¯à¦®à¦§":12064,"à¦¯à¦®à¦ĵ":12065,"à¦·à¦ķà¦ľ":12066,"à¦·à¦ķà¦®à¦£":12067,"à¦¿à¦ģ,":12068,"à¦¿à¦ģ-":12069,"à§ģ,âĢĿâĢĶ":12070,"Ġà¦²à¦ķà¦Ĺ":12071,"à§ģà¦ĥ,":12072,"à¦¾!)":12073,"à¦¾!âĢĶ":12074,"à¦ªà¦ķà¦ĩ":12075,"à¦ªà¦ķà¦°à¦£":12076,"à¦ľà¦²à¦ĸ":12077,"à¦ľà¦²à¦ļà¦ķ":12078,"à¦ľà¦²à¦¢":12079,"à¦ľà¦²à¦§à¦°":12080,"à¦ľà¦²à¦Ńà¦°":12081,"à¦ľà¦²à¦®à¦Ĺ":12082,"à¦®à¦¬à¦¯":12083,"à¦®à¦¬à¦¡":12084,"à¦¶à¦ķà¦£":12085,"à¦¨à¦¦à¦¶":12086,"Ġà¦Ĩà¦§à¦®":12087,"à¦¬à¦ķà¦¶":12088,"à¦¬à¦ķà¦Ĺ":12089,"à¦¬à¦ķà¦ľà¦¨":12090,"à§ĩ;---":12091,"à¦£à¦¤à¦¤":12092,"à¦ĩà¦ķà¦ª":12093,"à¦¤à¦¤à¦Ł":12094,"à¦°à¦Ľà¦¡":12095,"à¦¯à¦¸à¦®à¦¯":12096,"à¦¬à¦¬à§İ":12097,"à¦¹à¦¨à¦ľà¦²":12098,"Ġà¦ħà¦²à¦Ł":12099,"à¦ľà¦°à¦°":12100,"à¦ľà¦°à¦Ĺ":12101,"à§°à¦ľà¦¨":12102,"à§°à¦Ĺà¦¤":12103,"à¦¸à¦ķà¦®à¦£":12104,"Ġà¦¨à¦¬à¦°à¦¤":12105,"Ġà¦Ĺà¦¤à¦¯":12106,"à§ģà¥¤âĢĺ":12107,"Ġà¦¦à¦²à¦¦à¦²":12108,"Ġà¦¬à¦¦à¦²à¦ª":12109,"Ġà¦Ĩà¦ļà¦£":12110,"Ġà¦Ĩà¦ļà¦®à¦¨":12111,"Ġà¦īà¦ľà¦¬":12112,"à¦¥à¦¨à¦ĩ":12113,"à¦¨à¦¸à¦Ł":12114,"à¦¨à¦¸à¦ª":12115,"à¦¨à¦¸à¦ĸ":12116,"à¦¨à¦¸à¦ªà¦Łà¦ķ":12117,"à¦ªà¦¸à¦¦à¦¨":12118,"à¦ªà¦¸à¦®à¦¯":12119,"à¦¨à¦°à¦Ĺ":12120,"à¦¨à¦°à¦ľà¦¨":12121,"Ġà¥¤'":12122,"à¦ĩà¦Łà¦®":12123,"à¦ĩà¦Łà¦ª":12124,"Ġà¦Ĩà¦¦à¦°à¦®":12125,"Ġà¦Ĩà¦¦à¦®à¦¶":12126,"à¥¤âĢĻ)":12127,"à¥¤âĢĻ)à¥¤":12128,"à¦«à¦²à¦¸":12129,"à¦«à¦²à¦Ł":12130,"à¦Ĺà¦ľà¦¬":12131,"à¦Ĺà¦ľà¦¸":12132,"Ġà¦¸à¦¹à¦ľà¦¤":12133,"Ġà¦¸à¦¹à¦ľà¦¤à¦®":12134,"Ġà¦¸à¦¹à¦ľà¦¸à¦°à¦²":12135,"à§İà¦¸à¦ķà¦°":12136,"Ġà¦¬à¦²à¦¬à¦ĩ":12137,"à¦īà¦²à¦Ļ":12138,"à¦īà¦²à¦§à¦°":12139,"à¦Łà¦¬à§ľ":12140,"à¦Łà¦¬à¦ĩà¦¯":12141,"Ġà¦ĭà¦®à¦¨":12142,"Ġà¦ĭà¦ķà¦¬":12143,"à§ĩâĢĵâĢľ":12144,"Ġà¦ıà¦ķà¦ĩà¦¸à¦®à¦¯":12145,"à¦°à¦Ĺà¦Ł":12146,"à¦°à¦Ĺà¦¡":12147,"à¦°à¦®à¦£à¦Ĺ":12148,"à¦¿!âĢĶ":12149,"à¦¿!âĢ¦":12150,"Ġà¦¦à¦°à¦ķà¦·":12151,"à¦ıà¦¬à¦®":12152,"à¦®à§Łà¦ķ":12153,"Ġà¦°à¦ķà¦®à¦¸à¦ķà¦®":12154,"Ġà¦¦à¦¶à¦ıà¦Ĺ":12155,"Ġà¦ķà¦ĸà¦¨à¦ĵà¦ķà¦ĸà¦¨à¦ĵ":12156,"Ġà¦¤à¦¤à¦¸":12157,"à¦ķà¦¡à¦ĩà¦¨":12158,"à¦¾;-":12159,"Ġà¦¹à¦°à¦ł":12160,"à¦Ĩà¦²à¦Ł":12161,"à¦Ĩà¦²à¦«":12162,"à¦¯à¦¯à¦ľ":12163,"Ġà¦¬à¦ķà¦ļ":12164,"Ġà¦Ĺà¦£à¦¦":12165,"Ġà¦¬à§Łà¦«":12166,"à¦®à¦§à¦®":12167,"Ġà¦ķà¦²à¦ķà¦ľ":12168,"Ġà¦ķà¦²à¦ķà¦¥":12169,"ĠâĢĶ-":12170,"ĠâĢĶâĢĺ":12171,"à¦²à¦®à¦¸à¦²":12172,"à¦²à¦Ĺà¦¹":12173,"à¦²à¦Ĺà¦£":12174,"à¦²à¦Ĺà¦Ĺà¦¨":12175,"à¦²à¦¸à¦¦":12176,"à¦²à¦¸à¦Ł":12177,"à¦²à¦¸à¦ĵ":12178,"Ġà¦°à¦¸à¦ĩ":12179,"Ġà¦°à¦¸à¦¹":12180,"à¦¼?'":12181,"à¦¼?âĢĶ":12182,"Ġà¦īà§İà¦¸à¦¬à¦®à¦£":12183,"à¦®à¦¹à¦¦":12184,"à¦¹à¦łà¦¯":12185,"Ġà¦¸à¦Ńà§Ł":12186,"à¦¾âĢĻâĢĻ":12187,"à¦¥à¦ķà¦¤à¦°":12188,"à¦¸à¦Łà¦¸":12189,"à§¦à§¯":12190,"à¦¬à¦Ľà¦¬":12191,"à¦¬à¦Ľà¦°à¦ĩ":12192,"à¦ķà¦°à¦£à¦¬":12193,"à¦ķà¦°à¦£à¦Ĺ":12194,"à¦ķà¦°à¦£à¦¹":12195,"à¦¶à¦²à¦Ĺà¦¤":12196,"à¦¿;---":12197,"Ġà¦ıà¦ķà¦®à¦ŀ":12198,"à¤«":12199,"à¦łà¦ķà¦®":12200,"à¦łà¦ķà¦¸":12201,"à¦łà¦ķà¦ª":12202,"à¦łà¦ķà¦¸à¦®":12203,"à¦łà¦ķà§Łà¦²":12204,"Ġtak":12205,"Ġtake":12206,"Ġtalk":12207,"Ġtradition":12208,"à§ĩ?âĢĿ,":12209,"Ġà¦Ĺà¦°à¦®à¦Ł":12210,"à§ĩâĢ¦!":12211,"à§ĩâĢ¦?":12212,"Ġà¦ľà§Łà¦¸":12213,"à¦¤à¦ªà¦¬à¦¨":12214,"à¦ĩà§Łà¦°":12215,"à¦°à¦ĸà¦ļ":12216,"à¦¼à¦Ĥà¥¤":12217,"à¦ķà¦Ńà¦ķ":12218,"à¦ĩà¦¡à¦¸":12219,"à¦ĩà¦¡à¦¶":12220,"à¦¥à¦²à¦ªà¦¥":12221,"à§Ŀà¦¬":12222,"Ġà§§à§¯à§§à§§":12223,"Ġà§§à§¯à§«à§¬":12224,"à¦²à¦Ńà¦¤":12225,"hemat":12226,"à§Ńà§Ń":12227,"à§ĭ!'":12228,"à¦¸à¦¹à¦ª":12229,"à¦®à¦ľà¦Ĺà¦¤":12230,"à¦¯à§İà¦Ł":12231,"à¦¯à§İà¦ĵ":12232,"à¦¸à¦Ľà¦¯":12233,"à¦¼à¦¿à¥¤à¥¤":12234,"à¦¤à¦¹à¦¬":12235,"Ġà¦¸à¦¦à¦¬":12236,"à§ªà§¬":12237,"à¦ļà§Łà¦Ł":12238,"à¦·à§Łà¦ĵ":12239,"Ġà¦Ĩà¦ĩà¦¨à¦®à¦¨":12240,"Ġà¦Ĩà¦ĩà¦¨à¦¸à¦®":12241,"Ġà¦ªà¦£à¦ª":12242,"Ġà¦¨à¦Ĺà¦°à¦°":12243,"Ġà¦¨à¦Ĺà¦°à¦ª":12244,"à¦¨à¦ªà¦²à¦ķ":12245,"Ġà¦¹à¦ĩà¦¹":12246,"anic":12247,"anya":12248,"à¦īà¦¦à¦ĺ":12249,"à¦ľà§Łà¦¸":12250,"à¦ľà§Łà¦ªà¦¤":12251,"à¦¤à¦Ńà¦Ļ":12252,"à¦¤à¦¸à¦Ń":12253,"à¦ĩà¦®à¦®":12254,"..à¥¤":12255,"à¦ĩà¦ľà¦ĵ":12256,"âĢ¦âĢĿ,":12257,"à¦¿à¥¤âĢĻâĢĻ":12258,"Ġà¦¬à¦¸à¦¤à¦ĺà¦°":12259,"Ġà¦®à¦¨à¦¨à¦Ĺà¦°":12260,"à¦Ĺà¦°à¦£à¦ķ":12261,"à¦¬à¦ľà¦¨à¦ĩ":12262,"à¦¦à¦¶à¦ľà¦¨":12263,"à¦¦à¦¶à¦¬à¦°":12264,"à¦ħà¦¸à§İ":12265,"Ġà¦ľà¦Ĺà§İà¦ª":12266,"à¦¯à¦Łà¦ķà¦°":12267,"à¦¯à¦Łà¦¨à¦ķ":12268,"ator":12269,"Ġà¦ķà¦²à¦®à¦ĸ":12270,"Ġà¦ķà¦²à¦®à¦ĵ":12271,"à¦¾à¦ĥâĢĻ":12272,"alf":12273,"à¦¨à¦®à¦ŀ":12274,"à§¬à§¯":12275,"à§¬à§®":12276,"à¦ķà¦ªà¦ŀ":12277,"à¦īà¦ľà¦ª":12278,
[...]
