#version: 0.2 - Trained by `huggingface/tokenizers`
à ¦
à §
Ġ à¦
à¦ ¾
à§ ĩ
à¦ °
à§ į
à¦ ¿
à¦ ¨
à¦ ¤
à¦ ²
à¦ ķ
à§ ģ
à¦ ¬
à¦ ¯
à¦ ®
à¦ ¼
à§ ĭ
Ġà¦ ķ
Ġà¦ ¬
Ġà¦ ¸
Ġà¦ ª
à¦ ¸
Ġà¦ Ĩ
à ¥
à¥ ¤
à¦ ¦
Ġà¦ ¨
Ġà¦ ®
à¦ Ł
à§ Ģ
à¦ ª
à¦ ĩ
Ġà¦ ¦
Ġà¦ ¤
à¦ ľ
à¦ Ľ
à¦ ¶
Ġà¦ ¹
Ġà¦ ı
à§ Ł
Ġà¦ ħ
à¦ ĸ
à¦ ·
à¦ Ĺ
à¦¼ à§ĩ
à¦ §
â Ģ
Ġà¦ ¯
à¦ ¹
à¦ ļ
à¦ £
Ġà¦ķ à¦°
à¦ ģ
Ġà¦ Ĺ
à¦ ¡
à¦ ¥
Ġà¦ ¶
Ġà¦ ľ
Ġà¦ Ń
Ġà¦ ļ
Ġ Ġ
Ġà¦ °
à¦ ĵ
à§ ĥ
à¦ Ń
à§ĩ à¥¤
Ġà¦Ĩ à¦®
Ġà¦ Ľ
Ġà¦ı à¦ķ
à§ Ĥ
à¦ Ĥ
à¦ ł
Ġà¦ ī
à¦ Ļ
à¦¾ à¦ģ
à§ĩ ,
à¦¼ à¦¾
Ġà¦ ¥
Ġà¦ ĵ
à§ ľ
Ġà¦ ²
Ġà¦ «
à¦° à¦¤
Ġà¦Ĩ à¦°
Ġà¦ ĸ
Ġà¦¬ à¦²
Ġà¦ħ à¦¨
âĢ Ķ
Ġà¦ §
à¦¾ ,
Ġà¦ª à¦°
à¦¾ à¥¤
à¦¬ à¦¨
Ġà¦¸ à¦®
Ġà¦¹ à¦¯
à¦ĸ à¦¨
Ġà¦ ĺ
Ġ âĢ
Ġà¦® à¦¨
à¦° à¦£
âĢ Ļ
à¦® à¦¨
à¦¿ ,
à¦ª à¦°
à¦¼ à¦¿
à¦ ŀ
Ġà¦ı à¦ĩ
à§ İ
à¦° à¦¬
à¦¤ à¦°
à¦ Ŀ
à¦ľ à¦¨
à¦¿ à¥¤
à¦ ī
Ġà¦ıà¦ķ à¦Ł
à¦¬ à¦°
Ġà¦Ĩ à¦²
à¦° à¦ķ
à¦ª à¦¨
à¦ «
à¦ ı
Ġà¦¸ à¦¬
à§ Į
Ġà¦Ĩ à¦¸
à¦ Ĩ
Ġà¦® à¦¤
ĠĠ Ċ
Ġà¦ķ à¦¥
à¦ ĺ
Ġà¦ ¡
à§ Ī
Ġà¦Ĩ à¦Ľ
Ġà¦ Ł
Ġà¦ľ à¦¨
Ġà¦ı à¦¬
à¦¬ à¦ª
à¦¬ à¦²
Ġà¦ Ŀ
Ġà¦¹ à¦²
ĠâĢ ĺ
Ġà¦ ĩ
à§ģ à¦ģ
âĢ ĵ
âĢ Ŀ
Ġà¦¹ à§Ł
Ġà¦ī à¦ł
à¦ ĥ
Ġà¦¬à¦² à¦²
Ġà¦¹ à¦¬
Ġà¦¸ à¦Ļ
Ġà¦§ à¦°
Ġà¦ħ à¦¬
à¦· à¦£
à¦¼ à¥¤
à¦ĵ à¦¯
Ġà¦® à¦§
Ġà¦ķà¦° à¦¤
à¦° à¦®
Ġà¦ª à¦¡
à¦¼ ,
ĠâĢ ľ
à¦¨ à¦¤
Ġà¦ļ à¦²
à§ĭ à¦ģ
Ġà¦ª à¦¥
Ġà¦¬ à¦¨
Ġà¦¬ à¦¸
Ġà¦ĵ à¦ł
Ġà¦ ł
à¦ ħ
à¦¤ à¦¨
Ġà¦ħ à¦®
Ġà¦ı à¦¸
Ġà¦ ¢
Ġà¦¨ à¦¤
Ġà¦Ĩ à¦ľ
Ġà¦ħ à¦¸
à¦ķ à¦²
Ġà¦Ĩ à¦¬
Ġà¦Ĩà¦® à¦°
Ġà¦Ĩ à¦Ĺ
à¦¬ à¦¤
Ġà¦ķà¦° à¦²
à§ĩ à¦ģ
à§ĭ ,
Ġà¦Ĩ à¦ķ
à¦¸ à¦¬
à¦¤ à¦¬
Ġà¦¸ à¦¤
Ġà¦Ĩ à¦¶
Ġà¦Ĺ à¦²
Ġà¦Ĩ à¦¨
à¦ķ à¦°
Ġà¦ī à¦¦
Ġà¦¤ à¦¬
Ġà¦¨ à¦¯
à¦¦ à¦¨
à¦ķ à¦Ł
à¦¾ -
à¦° à¦¸
à¦° à¦¨
à¦² à¦ķ
à¦° à¦¥
à¦¾ à¦Ĥ
à¦¦ à¦¯
Ġà¦ħ à¦°
Ġà¦ı à¦ĸà¦¨
Ġà¦¬ à¦°
à¦ķ à¦¤
à§ĩ ?
Ġà¦® à¦¹
à¦¯ à¦¬
Ġà¦¶ à¦¬
Ġà¦ķ à¦ĸà¦¨
à§ĭ à¥¤
Ġà¦¤ à¦ĸà¦¨
à¦¦ à¦°
Ġà¦ľ à¦²
à¦Ĺ à¦¤
Ġà¦ķ à¦¬
à¦° à¦¹
Ġà¦ħ à¦¦
Ġà¦¹ à¦¤
Ġà¦ħ à¦¤
à¦¿ à¦Ĥ
à¦°à¦¥ à¦®
Ġà¦° à¦ķ
Ġà¦ħ à¦Ń
Ġà¦¯ à¦¦
à¦¨ à¦ĵ
à¦§ à¦ķ
à¦ĵ à§Ł
Ġà¦¸ à¦¨
à¦¨ à¦¬
Ġà¦Ĩ à¦ªà¦¨
Ġà¦¸ à¦°
Ġà¦¯ à¦ĸà¦¨
à¦² à¦¤
à¦§ à¦¨
à¦¯ à¦¤
à§ĩ -
Ġà¦ĺ à¦°
à¦² à¦¨
à¦¯ à¦ķ
Ġà¦ı à¦²
Ġà¦ª à§ľ
à¦® à¦¤
à¦Ĩ à¦®
à¦¹ à¦¸
Ġà¦ī à¦ª
Ġà¦ı à¦®à¦¨
Ġà¦¸à¦® à¦¯
à¦ļ à¦¨
Ġà¦ķà¦° à¦Ľ
à¦Ĺ à¦²
à§ĩ âĢĶ
à¦¿ à¦ĥ
à¦° à¦¶
Ġà¦¨ à¦¦
Ġà¦ķ à¦²
à¦° à¦¦
à¦² à¦¬
Ġà¦ķà¦° à¦¬
Ġà¦Ĩ à¦¤
à¦ĸ à¦¤
à¦ļ à¦²
à¦® à¦¯
Ġà¦¸ à¦¹
à¦® à¦ķ
Ġà¦ħ à¦ª
à¦° à¦¯
à¦® à¦²
à¦¹ à¦°
à¦Ľ à¦¨
à¦¸ à¦¨
à¦° à¦ĩ
à¦ª à¦¦
à¦° à¦ľ
à¦¶ à¦¨
Ġà¦¶ à¦ķ
Ġà¦ķ à¦£
Ġà¦ħ à¦§
à¦ĸ à¦²
Ġà¦ħ à¦ķ
Ġà¦Ń à¦°
Ġà¦ı à¦¤
à¦ª à¦¤
Ġà¦īà¦ł à¦²
à§Ģ ,
Ġà¦ķ à¦¤
à¦° à¦²
à¦¨ à¦¨
Ġà¦¬ à¦¡
Ġ à§
à¦¦ à§Ł
Ġà¦¬ à¦¹
Ġà¦Ĺ à¦¡
à¦ĩ à¦²
Ġà¦° à¦Ļ
à¦ķ à¦¬
à¦¿ -
Ġà¦ī à¦¤
à¦Ĺ à¦¨
Ġà¦ħ à¦ľ
Ġà¦ĺ à¦Ł
à§İ à¦¸
Ġà¦ĩ à¦¤
à¦· à¦¤
Ġà¦ľ à¦®
Ġà¦ħ à¦¥
Ġà¦ħ à¦ļ
à¦¯ à¦¨
à¦ı à¦ĩ
Ġà¦¹ à¦ł
à¦ĩ à¦¨
Ġà¦¨ à§Ł
à¦¼ à§ĭ
à¦¸ à¦®
Ġà¦ī à¦¨
Ġà¦¹ à¦ļ
Ġà¦¤ à¦°
Ġà¦ª à¦¦
à¦¬ à¦¦
Ġà¦ĵ à¦°
Ġà¦ĵ à¦ªà¦°
Ġà¦ħ à¦Ĺ
à¦¶ à¦¬
Ġà¦ħà¦® à¦²
à¦° à¦ªà¦°
Ġà¦¬à¦² à¦¤
à¦Ń à¦¬
à¦¾ âĢĶ
à¦® à¦°
à§ģ à¦ĥ
à¦¹ à¦²
Ġà¦ı à¦ĸ
à¦® à¦£
à¦Ĺ à¦°
à¦ª à¦¥
Ġà¦® à¦°
à¦¤ à¦²
Ġà¦ī à¦ļ
à¦Ł à¦ķ
Ġà¦¯ à¦¤
Ġà¦Ľ à¦¡
âĢ ¦
Ġà¦ķ à¦®
à¦¯ à¦®
Ġà¦¸à¦® à¦¸
à¦¤ à¦ķ
à¦¨ à¦ķ
Ġà¦¶ à¦°
à¦Ľ à¦°
à¦° à¦ĵ
Ġà¦¶ à¦¹à¦°
âĢ Į
Ġà¦¬ à¦¯
à§Ģ à¥¤
Ġà¦Ĺ à¦Ń
à¦¸ à¦°
à¦¤ à¦¤
à¦° à¦Ń
à¦· à¦ķ
Ġà¦ħ à¦ªà¦°
Ġà¦Ĺ à¦°
Ġà¦ı à¦Ĺ
à¦¿ à¦ģ
Ġà¦Ĺ à¦¨
à¦¿ ?
à¦¾ ?
à§į âĢĮ
Ġà¦¬ à¦ĩ
Ġà¦Ĩà¦° à¦ĵ
Ġà¦¸ à¦ķ
à¦¤ à¦®
à§ģ âĢĻ
§ à§
Ġ âĢĶ
Ġà¦ Ĳ
à¦¬ à¦¸
à¦ª à¦ķ
à¦Ł à¦²
à§ģ ,
Ġà¦ħ à¦¶
Ġà¦ı à¦Ł
Ġà¦¬ à¦Ľà¦°
Ġà¦ĵ à¦ĩ
Ġà¦« à¦²
à§İ à¦ķ
à¦ı à¦ķ
à¦ļ à¦°
Ġà¦Ľ à¦¬
à¦¦ à¦²
Ġà¦ı à¦°
Ġà¦ħ à¦²
Ġà¦ħà¦¨ à¦¨
à¦ļ à¦¯
Ġà¦Ŀ à¦°
à¦ħ à¦¨
à¦° à¦ª
Ġà¦¦ à¦°à¦ľ
Ġà¦Ń à¦¯
à§ĩ ;
à§ °
à¦¿ âĢĶ
à¦¶ à¦ķ
Ġà¦Ĩà¦¨ à¦¨
à¦°à¦¬ à¦¤
à¦¬ à¦ķ
Ġà¦ıà¦ķ à¦ľà¦¨
à¦ĩ à¦°
à¦® à§Ł
à¦ļ à¦ķ
à¦ ¢
à§Ł à¦¨
à¦£ à¦¤
à¦¼à§ĩ à¥¤
à¦§ à¦¤
à¦¯à¦¬ à¦¹
à¦¸ à¦Ļ
Ġà¦ıà¦ķ à¦¦
à¦¹ à¦¨
à¦¼à§ĩ ,
à§ĩ !
Ġà¦ī à¦ľ
à¦¨ à¦¬à¦¤
à¦ľ à¦²
à¦® à¦¬
Ġà¦ª à¦¤
à¦° à¦ļ
Ġà¦² à¦ķ
Ġà¦¶ à¦¤
à¦· à¦¯
Ġà¦¸à¦® à§Ł
à¦Ŀ à¦¤
Ġà¦ĩ à¦¨
à¦¨ à¦¦
Ġà¦Ĩ à¦§
âĢ ľ
à¦¸ à¦²
Ġà¦ħà¦¥ à¦ļ
Ġà¦Ĺ à§ľ
à¦· à¦°
Ġà¦Ń à¦¬
à¦¸ à¦¤
Ġ (
Ġà¦¸ à¦ķà¦²
Ġà¦ Ī
à¦ľ à¦°
Ġà¦¨ à¦¬
à¥¤ âĢĿ
Ġà¦° à¦¬
Ġà¦ĩ à¦ļ
Ġà¦ī à§İ
à¦° à¦Ł
à§ģ -
à¦¯ à¦°
à¦¯à¦¬ à¦¸
Ġà¦ħà¦¬ à¦¸
à¦ª à¦Ł
Ġà¦ħ à¦Ļ
à¦¨ à¦°
à§ĩ âĢĵ
à¦¬ à¦¬
à¦ĩ à¦ķ
à¦°à¦ķ à¦®
Ġà§ §à§
Ġà¦Ĩà¦ľ à¦ķ
à¦¨ à¦Ł
à§ ¦
à¦¬ à¦¯
à¦² à¦²
à¦ķ à¦¨
à§Į à¦ģ
à¦¯ à¦¦
Ġà¦ķà¦ĸà¦¨ à¦ĵ
Ġà¦ıà¦ķ à¦¬
à¦ĸ à¦¬
Ġà¦¬à¦² à¦Ľ
Ġà¦ī à¦¡
à¦¾ !
Ġà¦Ľ à§ľ
Ġà¦Ĩ à¦¦
à¦¨ à¦¸
Ġ Ċ
Ġà¦¬ à¦¦à¦²
Ġà¦Ĩ à¦ļ
à¦¯ à¦¸
Ġà¦¬ à§ľ
à¦¥ à¦°
Ġà¦Ĩ à¦¹
Ġà¦ª à¦ķ
Ġà¦Ľ à¦¨
Ġà¦° à¦¹à¦¸
Ġà¦Ĩ à¦¡
à¦§ à¦°
à¦Ļ à¦²
Ġà¦Ĩ à¦Ļ
Ġà¦Ĺ à¦¤
à§ģ à¥¤
à¦¯ à¦¥
à¦ª à¦¸
¯ à§
Ġà¦Ĩà¦¸ à¦²
Ġà¦ī à¦²
à¦¼ à§ģ
à¦¨ à¦Ĺ
à¦°à¦¹ à¦°
Ġà¦ħà¦¥ à¦¬
Ġà¦¬à¦² à¦¬
Ġà¦ī à¦ªà¦°
Ġà¦¬ à§Ł
à¦° à¦ľà¦¨
Ġà¦ħà¦¬ à¦¶
à¦« à¦²
à¦° à¦Ľ
à¦¨ à¦²
Ġà¦Ń à§Ł
à¦Ĺ à¦ľ
Ġà¦ ĭ
Ġà¦¤ à¦²
à¦¥ à¦¨
Ġà¦ļ à¦ķ
à¦¼ à§Ģ
à¦¸ à¦«
à¦¼à¦¾ ,
Ġà¦ħà¦¦ à¦®
à¦¸ à¦ķ
Ġà¦¸à¦¹ à¦ľ
à¦ĸ à¦Ľ
à¦° à¦Ĺ
Ġà¦Ĩà¦¸ à¦Ľ
à§ĭ ?
Ġà¦ĺ à¦¨
à¦¬ à¦¶
à¦ĺ à¦°
à¦Ł à¦¤
Ġà¦ļ à¦°
Ġà¦ĺà¦Ł à¦¨
à§Ģ -
à¦· à¦®
à¦ľ à¦¯
Ġà¦ī à§İà¦¸
Ġà¦¦ à¦²
Ġà¦ķ à¦¯
à¦¹ à¦¤
Ġà¦Ĩà¦¸ à¦¬
à¥¤ âĢĻ
Ġà¦ıà¦ķ à¦ĩ
à¦ľ à¦¸
à¦ī à¦¨
Ġà¦ĵ à¦¦
Ġà¦ķ à¦ł
Ġà¦¨ à¦ķ
à¦°à¦® à¦£
à¦°à¦¹ à¦£
Ġà¦¹ à¦ĵà¦¯
à¦¯ à¦¯
Ġà¦¦ à¦°
à¦ı à¦°
Ġà¦°à¦ķ à¦®
à¦¾ âĢĻ
à¦Ń à¦°
! âĢĿ
à¦¾ ;
Ġà¦ĸ à¦¬à¦°
à¦® à¦¸
Ġà¦¤ à¦¥
Ġà¦¹ à¦°
à¦ĩ à¦¤
à¦ª à¦·
Ġà¦ª à¦²
Ġà¦ı à¦¨
à¦¾ âĢĵ
à¦ı à¦¬
à¦ķ à¦ķ
Ġà¦¬ à¦Ł
à¦ĩ à¦¯
Ġà¦Ĩ à¦ª
Ġà¦ķ à¦·
à¦ĩ à¦Ł
Ġà¦ħ à¦Łà¦²
à§ ¨
Ġà¦¬ à¦ķ
à§ Ŀ
à¦§ à¦¬
à¦¯ à¦ĩ
Ġà¦Ĩ à¦¯
à¦Ĩ à¦ľ
à§ĭ -
Ġà¦īà§İ à¦¸à¦¬
Ġà¦ī à§ľ
Ġà¦¸à¦¤ à¦¤
à¦¦ à¦®
Ġà¦ľ à¦¯
à§ĩà¥¤ âĢĿ
Ġà¦Ī à¦¶
à§Ł à¦¤
Ġà¦¦ à¦°à¦ķ
à¦Ĺ à¦¬
Ġà¦Ĩ à¦Ń
à¦Ł à¦°
Ġà¦ıà¦ĸà¦¨ à¦ĵ
à¦Ł à¦¬
Ġà¦° à¦ĩà¦²
Ġà¦ķ à¦¨
Ġà¦¤ à¦¤
à¦ķ à¦¡
Ġà¦¸ à¦ļ
Ġà¦§à¦° à¦¨
à¦ĩ à¦¬
à¦ª à¦£
Ġà¦Ĳ à¦¤
à¦² à¦Ľ
Ġà¦¸ à¦ŀ
Ġà¦ľ à¦¡
à¦Ĩ à¦²
Ġà¦ľ à¦°
à¦ĸ à¦°
Ġà¦¯ à¦¥
à¦° à¦§
à¦Ĩ à¦°
à¦° à§Ł
à¦Ł à¦¨
à¦¶ à¦ª
à¦® à¦Ĺ
à¦ª à¦¡
à¦ľ à¦¬
à¦² à¦¸
à¦ı à¦ķà¦Ł
à¦® à¦§
Ġà¦° à¦¯
Ġà¦¸ à¦Ń
Ġà¦¸à¦¬ à¦ļ
âĢĻ ,
à§ĭ âĢĶ
Ġà¦Ĩ à¦Łà¦ķ
Ġà¦ı à¦¦
Ġ :
à¦® à¦°à¦£
Ġà¦¯ à¦¨
à¦® à¦¹
à¦¸à¦¬ à¦ĩ
à¦ł à¦¸
? âĢĻ
à¦¹ à¦°à¦£
à¦· à¦®à¦¤
Ġà¦¸ à¦°à¦ķ
Ġà¦Ĩà¦¸ à¦¤
à¦Ĺ à¦®
ĠâĢ ĵ
Ġà¦Ĩà¦ľ à¦ĵ
Ġà¦Ĩ à¦¦à¦°
Ġà¦Ĺ à¦£
Ġà¦¨ à¦°à¦®
âĢ ĺ
à¦¼à¦¾ à¥¤
à¦Ŀ à¦²
Ġà¦§ à¦¨
à¦¨ à¦¯
Ġà¦ħ à¦«
à¦ł à¦ķ
Ġà¦ª à¦¶
à¦¼ âĢĶ
Ġà¦° à§Ł
Ġà¦¦ à¦¶
à¦¨ à¦Ń
Ġà¦¸ à¦¦
Ġà¦° à¦ļà¦¨
Ġà¦¤à¦ĸà¦¨ à¦ĩ
Ġà¦ªà¦° à¦¬à¦°
à¦ķ à¦¦
à¦¯ à¦ª
à¦Ĩà¦® à¦°
à¦ľ à¦¤
Ġà¦īà¦ª à¦¸
à¦£ à¦ķ
Ġà¦¤à¦° à¦Ļ
Ġà¦īà¦ł à¦¤
à¦ĥ à¥¤
à¦¬ à¦ļ
Ġà¦ªà¦° à¦®
à¦ŀ à¦¤
à¦¡ à¦²
à¦ķ à¦¥
à¦² à¦Ĺ
à¦² à¦®
à¦¿ ;
Ġà¦ī à¦·
Ġà¦² à¦ľ
âĢĻ à¥¤
Ġà¦¨ à¦¨
à¦Ł à¦«
Ġà¦Ń à¦¦
Ġà¦ıà¦¸ à¦¬
à¦¼ -
? âĢĿ
à¦¨ à¦ĩ
Ġà¦ķ à¦²à¦ķ
à¦² à¦¯
Ġà¦Ĺ à¦¹
à¦¿ âĢĵ
Ġà¦® à¦ŀ
Ġà¦ı à¦Ń
à¦® à¦Ł
à¦¼ à¦Ĥ
à¦ī à¦ķ
à¦¿ !
Ġà¦® à¦£
Ġà¦ªà¦¦ à¦ķ
à¦¶ à¦²
Ġà¦ħà¦¸ à¦®
à¦ķ à¦¶
à¦¤ à¦¹
Ġà¦®à¦¤ à¦¨
Ġà¦ħà¦ľ à¦¸
Ġà¦¨ à¦ľà¦°
à¦Ŀ à¦°
Ġà¦ķ à¦ª
à¦· à§Ł
Ġà¦¶ à¦¹
Ġà¦° à¦®à¦£
à¦¸ à¦¹
Ġà¦® à¦¸
Ġà¦¦ à¦ķ
à§Ģ ?
Ġà¦® à¦ľ
Ġà§§à§ ¯à§
Ġà¦² à¦¡
à¦° à¦°
à§ §à§
à¦¸ à¦®à¦¯
à¦ķ à¦°à¦£
à¦ľ à¦ķ
à¦ī à¦¯
Ġ t
Ġà¦¸à¦¬ à¦ĩ
à¦ĩ à¦Ľ
à¦Ľ à¦¬
à¦¥ à¦ķ
Ġà¦ļ à¦¤
à¦¼ ?
à¦® à¦ľ
à¦ī à¦²
Ġà¦® à¦²
à¦° à¦¬à¦¨
à¦ľ à¦®
à¦¯ à¦Ń
Ġà¦Ń à¦Ļ
à¦¦ à¦Ĺ
à¦² à¦®à¦²
à¦°à¦¬ à¦²
Ġà§ ¨
Ġà¦Ĩà¦° à¦®
à¦¤ à¦¦
à¦ķ à¦Ĺ
à¦¸ à¦ª
Ġà¦¬à¦¸ à¦¨
à¦® à¦¶
Ġà¦ļ à¦®à¦ķ
à¦Ń à¦¯
à ¤
Ġà¦ĵ à¦ķ
à¦¬ à¦ĩ
Ġà¦ıà¦®à¦¨ à¦ķ
à¦Ĩ à¦ªà¦¨
Ġà¦īà¦ł à¦¬
à¦² à¦Ł
Ġà¦ķ à§Ł
Ġà¦Ĩ à§ľ
Ġà¦ļà¦² à¦¤
à¦¥ à¦²
Ġà¦¨ à¦®
à¦ķ à§ľ
à¦£ à¦¨
Ġà¦¹ à¦¸
Ġà¦¹à§Ł à¦¤
Ġà¦ľ à¦¬
à¦¹ à¦¯
h e
à¦® à¦¦
à§ §
Ġà¦ľ à§Ł
à¦¤ à¦ª
à¦° à¦Ĺà¦¤
à¦ª à¦ļ
Ġà¦Ĺ à¦¬
à¦ł à¦¨
Ġà¦¸à¦° à¦²
Ġà¦ªà¦° à¦¶
à¦ķ à¦Ń
Ġà¦ħ à¦°à¦£
à¦¬ à¦Ń
Ġà¦ħ à¦Ł
Ġà¦ıà¦ķ à¦®
à¦ķ à¦¸
à¦ļ à¦¡
à¦ı à¦¸à¦¬
âĢĶ âĢľ
à¦° à¦ĸ
Ġà¦ıà¦ķ à¦¸à¦Ļ
Ġà¦ī à¦°
Ġà¦¸à¦® à¦¨
à¦ª à§ľ
à¦¨ à¦¶
Ġà¦ļ à¦¨
à¦Ĺ à¦£
à¦¾à¥¤ âĢĿ
à¦Ĩ à¦ķ
Ġà¦ª à¦£
à¦ı à¦Ł
Ġà¦¥ à¦®à¦ķ
à¦¬ à¦¹
Ġà¦° à¦¸
à¦ĩ à§Ł
Ġà¦Ĺ à¦Ļ
Ġà¦¸ à¦ł
Ġà¦īà¦ł à¦Ľ
Ġà¦ļà¦² à¦Ľ
Ġà¦¯à¦¤ à¦ĩ
Ġà¦Ĩ à¦ĺ
Ġà¦§à¦° à¦²
à§ ©
à¦¡ à¦¬
à¦ª à¦®
à¦ª à¦²
Ġà¦¸ à¦ľ
à¦¤ à¦¨à¦¤
à¦¬à¦² à¦ľ
Ġà¦ıà¦ķ à¦¤
à¦Ł à¦ª
à¦¦ à¦ķ
Ġà¦¹ à¦¨
Ġà¦Ŀ à¦²à¦®à¦²
à¦ļ à¦¤
Ġà¦® à¦®à¦¤
Ġà¦ħ à¦ŀ
à¦¹ à¦ł
à¦ĺ à¦¨
a n
à¦¬ à¦Ľ
à¦¾à¦ģ ,
é Ł
à¦ļ à§Ł
éŁ ¿
à¦¹ à¦®
à¦ī à¦¦
Ġà¦ħà¦¤ à¦ıà¦¬
Ġà¦ªà§ľ à¦²
i n
à¦¯ à§İ
à¦¶ à¦®
à¦° à¦Ļ
à¦ķ à¦Ľ
Ġà¦¹ à¦ĩ
Ġà¦ħà¦¸ à¦¹
Ġà¦Ĳ à¦ķ
Ġà¦ª à¦ŀ
Ġà¦¨ à¦Ĺà¦°
à¦ĩ à¦¡
à¦¤ à¦¸
à§ «
éŁ¿ éŁ¿
à§¦ à§¦
à¦· à¦¦
Ġà¦ħà¦ķ à¦¸
Ġà¦ľ à¦Ĺà¦¤
à¦¤ à¦Ł
à§ĩ âĢ¦
Ġà¦¸ à§İ
Ġà¦® à¦¦
à§ ª
Ġà¦ Ĭ
à¦° à¦¦à¦°
à¦¨ à¦ª
Ġà¦¬ à¦ľ
à¦¨ à¦ļ
à¦® à¦ļ
Ġà¦ľ à§ľ
Ġà¦¦ à¦®
à¦Ľ à¦²
à¦¼ ;
Ġà¦ħà¦¤ à¦²
à¦® à¦ª
Ġà¦Ĺ à¦°à¦®
Ġà¦ħà¦® à¦°
à¦ķ à¦ľà¦¨
à¦¦ à¦Ł
Ġà¦ķà¦² à¦®
à¦ļ à¦°à¦£
Ġà¦Ĩ à¦ĩà¦¨
à§ĩà¥¤ âĢĻ
à§ ¯à§
à¦¸ à¦Ł
Ġà¦¸ à¦ª
à¦ī à¦°
Ġà¦® à¦¶
à¦¥ à¦¤
à¦Ŀ à¦ĸ
à¦· à¦Ł
Ġà¦ľ à¦Ł
Ġà¦®à¦¨ à¦¨
Ġà¦¨ à¦·
Ġà¦¶ à¦ªà¦¥
Ġà¦¬à¦¸ à¦²
Ġà¦¤ à¦¨
à¦¬ à¦§
à¦¦ à¦¸
à¦° à¦«
Ġà¦ļ à¦Ł
à¦¬à¦² à¦¤
à¦°à¦¸ à¦Ļ
à¦ħ à¦°
à¦Ł à¦Ľ
Ġà¦ĵ à¦·
à¦¶ à¦¯
à¦Ĺ à¦°à¦£
Ġà¦ĺ à¦£
Ġà¦¹ à¦ĵà§Ł
à¦ķ à¦£
Ġà¦Ĩ à¦ĵà¦¯
à¦ĩ à¦Ń
à¦¿ âĢĻ
Ġà¦ħ à¦¹
à¦ī à§Ł
Ġà¦¸à¦¬ à¦ķ
à¦ľ à§Ł
à¦ı à¦ĸà¦¨
Ġà¦ĭ à¦·
Ġà¦ļ à¦¡
à¦ļ à¦Ł
à¦² à¦Ń
Ġà¦Ĺ à¦®
à¦®à¦¨ à¦ĩ
à¦ĸ à¦ķ
Ġà¦² à¦®
à¦¬ à¦£
à§ĩ? âĢĿ
à¦¤ à¦Ń
Ġà¦ª à¦Ľà¦¨
à¦ľ à¦Ĺà¦¤
à¦Ľ à¦¤
à¦¾à¥¤ âĢĻ
à¦¼ âĢĵ
à¦Ĺ à¦¡
à§ĩ? âĢĻ
à¦¯ à¦¹
Ġà¦ķà¦¤ à¦Ł
r e
à¦ı à¦ĸ
Ġà¦ª à¦²à¦ķ
à¦® à¦ªà¦°
Ġà¦Ĩà¦ļ à¦°à¦£
Ġà¦Ŀ à¦¡
à¦ħ à¦¬
à¦¶ à¦°
à¦² à¦ľ
Ġà¦Ĩ à¦¨à¦¤
à¦°à¦¬ à¦°
à¦¬ à¦Ł
à¦¤ à¦ĩ
à¦£ à¦¬
à¦¨ à§Łà¦¨
à¦² à¦ª
à¦ķ à¦ĩ
Ġà¦ ·
Ġà¦ħà¦¨ à¦²
à¦ĺ à¦²
à¦ķ à¦®
à¦¬à¦² à¦¨
à§ĭ !
à¦¸ à¦¤à¦¤
à¦ī à¦Ł
à¦¬ à¦®
à¦¬ à§Ł
Ġà¦ı à¦°à¦ķà¦®
o n
Ġà¦ıà¦¤ à¦ķ
Ġà¦ī à¦ªà¦¨
à¦ķ à¦ļ
à¦ļ à§ľ
Ġà¦¬à¦ĩ à¦¯
à¦¨ à¦Ľ
Ġà¦ª à¦Ł
Ġà¦Ĩ à§Ł
à¦ĩ à¦¸
à¦ľ à¦Ł
à¦Ĺ à¦Ľ
à¦¬ à¦ľà¦¨
à¦ħ à¦ļ
à¦¾ à¦ĥ
à¦² à§Ł
à¦ľ à¦Ľ
à¦¸ à¦Ľ
à¦¦ à¦¶
à¦¡ à¦¬à¦¦
Ġà¦īà¦ª à¦²à¦¬
Ġà¦² à¦²
à¦ķ à¦ĸà¦¨
à¦¥ à¦®
Ġà¦ļà¦² à¦²
Ġà¦« à¦¸à¦²
Ġà¦Ĺ à¦¦
à¦¿à¥¤ âĢĿ
Ġà¦¸à¦¹ à¦®à¦°
à¦¦ à¦¬
à¦¶ à¦¤
Ġà¦° à¦ļ
Ġà¦¬à¦¸ à¦¤
à¦® à¦¡
à¦Ĩ à¦Ĺ
à¦¬ à¦°à¦¤
Ġà¦¸à¦® à¦°
à§Ł à¦®
Ġà¦ļ à¦ŀ
Ġà¦Ĩà¦ķ à¦°
Ġà¦² à¦¤
à¦ľà¦¨ à¦ķ
Ġà¦ĸ à¦¸
Ġà¦ĩ à¦²
à¦ħ à¦¤
à¦¬ à¦¡
Ġà¦ħ à¦®à¦¨
à¦ĩ à¦ľ
Ġà¦ħà¦ª à¦®
à¦¬ à¦°à¦£
à¦® à¦®
Ġà¦ķ à¦Ł
à§ĩ âĢĻ
à¦ĸ à¦£
à¦°à¦ķ à¦²
Ġà¦ıà¦¤ à¦Ł
Ġà¦ħ à¦¬à¦²
à¦ľ à¦Ĺ
à§ Ń
Ġà¦ªà¦¦ à¦ļ
, âĢĿ
à¦¤ à¦Ĺ
Ġà¦ĵ à¦ª
à¦¨à¦¬ à¦ľ
à§į à¥¤
Ġà¦¶ à¦Ļ
Ġà¦ľà¦¨ à¦¨
Ġà¦¬ à¦Ļ
Ġà¦° à¦¥
à¦¦ à¦¹
à¦¶ à¦Ł
à¦¸à¦¬ à¦ķ
Ġà¦¬à§Ł à¦¸
Ġà¦¬ à¦ī
Ġà¦ľ à¦Ļ
Ġà¦¨ à¦°
Ġà¦ļ à¦®
Ġà¦ĵ à¦¯
Ġà¦ıà¦ķ à¦²
Ġà¦ļà¦² à¦¬
a t
à¦¯à¦¤ à¦®
à¦§ à¦¹à¦¯
Ġà¦ļ à¦°à¦®
Ġà¦¶ à¦¸
Ġà¦Ĭ à¦°
à§ĩ :
Ġà¦Ŀ à¦²à¦ķ
a l
à¦¯ à¦®à¦¯
à¦Ń à¦Ļ
à¦ľ à¦ª
Ġà¦¸ à¦¹à¦¸
à¦¼à¦¾ -
à¦¬à¦² à¦Ľ
à¦ħ à¦¸
Ġt he
à§ĩ à¦¾
à¦² à¦ļ
à¦¸ à¦¸
Ġà¦¸à¦¹ à¦¯
Ġà¦īà§İ à¦ª
Ġà¦Ŀ à§ľ
à¦°à¦® à¦¶
à§ ¬
à¦¹ à¦ķ
Ġà¦Ń à¦ķ
à¦¯ à¦ķà¦°
Ġà¦¸ à¦«
à¦ĵ à¦°
âĢĶ âĢĺ
à¦Ĩ à¦¶
à¦¶ à¦Ĺ
Ġà¦ª à¦¬
à§Ł à¦Ĺ
à¦Ń à¦ķ
à¦ Ī
Ġà¦¬à¦¸ à¦¬
Ġ .
à¦² à¦ĩ
Ġà¦ĵ à§ľ
Ġà¦ª à¦¯
à¦¸ à¦Ń
à¦¼ à¦¿,
e r
Ġà¦¯ à¦ľ
Ġà¦ıà¦ķ à¦¸
Ġà¦¬à¦¨ à¦¹
Ġà¦ķ à¦Ļ
Ġà¦ķ à¦¬à¦°
Ġà¦¨ à¦ĩ
à¦¬à¦¨ à¦ķ
Ġà¦īà¦ª à¦¹
i s
à§ ¯
Ġà¦Ĩà¦® à¦¨
à§Ł à¦ķ
Ġà¦ªà¦° à¦¸
à¦ľà¦¨ à¦¶
à¦¤à¦° à¦Ļ
à¦¿à¥¤ âĢĻ
à¦¬à¦¨ à¦¯
. .
à¦¨ à¦®
à¦¤ à¦ĸà¦¨
à¦£ à¦¦
Ġà¦§ à¦°à¦¤
Ġà¦¬ à¦ŀ
Ġà¦®à¦¨ à¦¸
Ġà¦Ĩà¦¬ à¦¦
Ġà¦¬à¦ĩ à§Ł
à¦¤ à¦ľ
à¦¬ à¦ľ
à¦Ľ à¦ª
à¦¥ à¦¬
à¦ĺ à¦¶
Ġà¦ıà¦¤ à¦¦
à¦¸à¦® à§Ł
Ġà¦¨ à¦¡
à¦Ľ à¦Ł
Ġà¦ıà¦ĩ à¦¸à¦¬
à¦¯ à§Ł
Ġà¦ľ à¦Ĺ
Ġà¦ıà¦ķ à¦¨
à¦ªà¦ķ à¦¥
à§ĩ! âĢĿ
à¦¯ à¦Ĺ
à¦¯ à¦ĸà¦¨
à¦¶ à§Ł
e n
Ġà¦¬à¦¹ à¦¨
Ġà¦ĭ à¦¤
à§ ®
Ġà¦ Ķ
Ġà¦ĩ à¦¦
Ġà¦¢ à¦²
à¦ª à¦Ľ
Ġà¦Ń à¦Ĺ
à¦Ĩ à¦¬
à¦¦ à¦¦
à§Ģ âĢĶ
Ġà¦Ĺ à¦¹à¦¨
âĢĻ -
à¦¼ !
Ġà¦Ĩ à¦¬à¦°
à¦¾ âĢ¦
Ġà¦Ń à¦°à¦¸
à¦° à¦·
à¦ķ à¦ª
à¦¯ à¦ľ
Ġà¦¦ à¦ĸà¦²
Ġà¦ĵ à¦ĸ
à¦ī à¦ľ
Ġà¦ħà¦¬ à¦¹
à¦¾ âĢĿ
Ġà¦ķ à¦«
Ġà§ ©
Ġà¦ª à¦Ļ
Ġà¦® à¦Ļ
Ġà¦¤à¦ĸà¦¨ à¦ĵ
à¦ĩ à¦®
Ġà¦ĸ à¦£
à¦Ĩ à¦¸
à¦ĺ à¦®
Ġ a
Ġà¦¸à¦® à¦Ĺ
à¦¯ à¦Ł
à¦Ł à¦Ł
à¦ª à¦¬
à¦ı à¦®à¦¨
o r
Ġ w
Ġà¦®à¦¨ à¦ķ
) ,
Ġà¦Ĩ à¦ĵà§Ł
à¦Ĺ à¦Ń
à¦ı à¦¸à¦¬à¦ĩ
Ġà¦Ĩà¦¸ à¦¨
à¦ī à¦¡
Ġà¦® à¦Ĺ
Ġà¦² à§ľ
à¦Łà¦« à¦°
à§ľ à¦ķ
Ġ s
à§Ģ !
i t
à¦¯ à¦¶
Ġà¦¨ à¦ĩà¦²
Ġà¦ªà§ľ à¦Ľ
Ġà¦¤ à¦ªà¦¸
Ġà¦ĩ à¦¸
a r
à¦¨ à¦¹
Ġà¦ķ à¦ļ
Ġà¦¨ à¦Ĺ
Ġà¦Ŀ à¦²à¦¸
à¦Ĩà¦ľ à¦ķ
à¦² à¦«
Ġà¦ĩ à¦Ļ
à¦® à¦Ľ
à¦Ł à¦®
Ġà¦¶ à¦¯
à¦ĵ à¦¨
Ġà¦ħà¦¬ à¦§
à¦Ł à¦¸
à¦ĩ à¦¦
Ġà¦¨à¦ķ à¦¶
Ġà¦ı à¦°à¦ªà¦°
Ġà¦Ŀ à¦¨
à¦¤ à¦°à¦£
à¦² à¦¦
Ġà¦® à¦¯
à¦Ń à§Ł
Ġà¦¬ à¦ªà¦¨
Ġà¦¨ à§ľ
Ġà¦ĵ à¦Ł
à¦°à¦ļ à¦£
à§ĭ ;
à¦¦ à¦¤
à¦§ à¦®
Ġà¦ªà¦¥ à¦ļà¦²
Ġà¦¸ à¦ĸ
Ġà¦Ĩ à¦ĸ
à¦¤ à¦Ľ
à¦ħ à¦®
Ġà¦īà¦¦ à¦¯
à¦¶ à¦¹à¦°
à¦ļ à¦¬
à¦ĩ à¦ª
à¦· à¦¸
Ġà¦° à¦ŀ
à§¨ à§¦à§¦
à¦¾ :
Ġà¦Ĩ à¦«
Ġà¦« à¦°
Ġà¦ĸ à¦°à¦ļ
Ġà¦ļà¦® à§İà¦ķ
à¦® à¦ĩ
à¦¼à¦¿ à¥¤
à§İ à¦ª
à¦ħ à¦¦
Ġà¦ķ à¦ķ
à¦¿ âĢ¦
Ġà¦¸ à¦¤à¦°
Ġà¦ħà¦¬ à¦¦
o u
Ġà¦ıà¦®à¦¨ à¦ĩ
à¦¯à¦® à§Ł
éŁ¿éŁ¿ éŁ¿éŁ¿
Ġà¦¸à¦® à¦¤
Ġà¦Ŀ à¦°à¦¨
à¦² à¦¬à¦¨
à¦Ĩ à¦¤
à¦¯ à¦ĵ
à¦°à¦¥à¦® à¦¤
à¦°à¦¤ à¦°
Ġà¦ĸ à¦°
à¦ħ à¦¬à¦¶
à¦ª à¦Ĺ
Ġà¦¯ à¦®
Ġ b
Ġà¦ķ à¦¡
Ġà¦¹à§Ł à¦¨
à¦· à§İ
Ġà¦¶ à¦¤à¦ķ
à¦ ĭ
à§Ł à¦°
à¦ĸ à¦¸
Ġà¦ıà¦ķ à¦ķ
à§İ à¦¸à¦¬
Ġà¦ķà¦² à¦°à¦¬
Ġà¦ª à¦¨
Ġà¦Ń à¦Ĺà¦¬
à¦Ł à¦ĸ
à§Ģ à¦Ĥ
Ġà¦ļ à§ľ
à¦ı à¦Ń
à¦¾? âĢĻ
à¦¶ à¦¦
à¦Ŀ à¦¬
Ġà¦Ĩà¦² à¦®
Ġà¦ĩ à¦¯
à¦ħ à¦²
à¦ħ à¦¶
à¦ Ĳ
à§ģ âĢĶ
Ġà¦° à¦¶
à¦¯ à¦¬à¦¤
à§ĭ âĢĵ
Ġà¦ķ à¦®à¦²
à¦¸ à¦°à¦£
Ġà¦® à¦¡
à¦ª à¦¯
Ġà¦¦ à¦Ĺ
Ġà¦īà¦ª à¦ķ
Ġà¦¦ à¦¯
Ġà¦¹ à¦ĵ
Ġà¦Ĩà¦¬ à¦Ľ
à¦°à¦¥à¦® à¦¬
e s
Ġà¦ħà¦¬ à¦ķ
à¦® à§ľ
à¦¦ à¦£
à¦ª à¦¶
Ġà¦ı à¦¡
Ġà¦Ĳ à¦¶
à¦¶ à¦ĩ
Ġà¦Ī à¦·à§İ
Ġà¦¬ à¦§
à¦¸ à¦ķà¦²
Ġà¦ĩ à¦Ł
à¦¸ à¦¦
à¦Ł à¦¦
à¦ļ à¦®
à¦¨ à¦ľà¦¨
à§Ł à¦¬
Ġà¦ıà¦ķ à¦ĸ
an d
e d
Ġ m
Ġà¦¬ à¦¦
Ġà¦ħ à¦¬à¦¨
à¦¿? âĢĿ
Ġà¦¨à¦¬ à¦ľ
à¦¬ à§ľ
Ġà¦ħ à¦ļà¦²
Ġà¦Ŀ à¦ķ
Ġà¦ªà§ľ à¦¤
Ġà¦ķà¦¤ à¦ķ
à¦ľ à¦ķà¦°
à¦Ń à¦¨
Ġà¦Ľ à¦²
à¦ľà¦¨ à¦¤
Ġà¦ĩ à¦¸à¦²
âĢĿ à¥¤
Ġà¦ªà¦¥ à¦ļ
à¦¿? âĢĻ
à¦¸à¦² à¦®
Ġà¦ĩ à¦¶
Ġ -
Ġà¦ıà¦ķ à¦°
à§ľ à¦¨
à¦Ŀ à¦ķ
Ġà¦¯à¦¤ à¦Ł
Ġ c
à¦¦ à¦ª
Ġà¦ľà¦¨ à¦¸
à¦¶ à¦¹
à§İ à¦ªà¦°
Ġ o
Ġà¦Ĺ à¦ľ
Ġà¦ľà¦² à¦¬
Ġà¦īà¦ª à¦Ń
à¦ķ à¦ł
Ġà¦¨ à¦°à¦ķ
âĢĿ -
Ġà¦Ĩà¦¤ à¦Ļ
Ġà¦Ĩ à§Łà¦¨
Ġà¦¨ à¦¹
Ġà¦¯à¦¤ à¦¦
Ġà¦ĭ à¦£
Ġà¦° à¦¤
à§ĭ âĢĻ
Ġà¦¬ à¦¶
à¦Ń à¦¬à¦¤
Ġà¦ľà¦² à¦°
à¦¿à¦Ĥ -
à¦ķ à¦·
Ġà¦Ń à¦°à¦¤
Ġà¦ľà¦Ĺ à§İ
à¦¬ à¦¤à¦¨
Ġà¦¸ à¦°à¦¸
à¦ĸ à¦Ł
à¦¤ à¦¬à¦¤
à¦Ł à¦Ĺ
Ġ I
à§Ł à¦¸
à¦Ĺ à¦¸
Ġà¦ĺ à¦¡
Ġà¦ıà¦ĸà¦¨ à¦ĩ
Ġà¦¦ à¦£
Ġà¦ļ à¦°à¦£
Ġà¦ħà¦¨ à¦¬à¦¦
à¦°à¦£ à¦¯
Ġà¦Ĩà¦¸ à¦°
Ġà¦Ĩà¦¹ à¦¤
Ġà¦ħà¦Ĺ à¦£
à¦¬ à¦Ĺ
Ġà¦® à¦Ĺà¦ľ
Ġà¦Ĺ à¦łà¦¨
Ġà¦Ĩà¦¸ à¦®
à§Ī à¦ĥ
à¦ħ à¦Ń
à¦® à¦ĵ
à¦£ à¦®
à¦ĵ à¦ĩ
Ġà¦ĵ à¦¡
Ġà¦ªà§ľ à¦¬
à§ĩâĢĶ âĢľ
à¦¾! âĢĿ
à¦· à¦¬
à¦Ĺ à¦¦
Ġà¦ıà¦ķ à¦¶
à¦« à¦²à¦¨
à¦ıà¦ķ à¦¦
à¦¸ à¦°à¦ķ
à¦Ľ à¦Ĺ
à¦ı à¦Ĺ
à¦ħ à¦Ĺ
Ġà¦īà¦ª à¦¯
Ġà¦Ĩà¦ļ à¦®à¦ķ
Ġ f
Ġà¦¤ à¦ª
Ġ n
Ġà¦Ĩ à¦Ł
Ġà¦Ĩà¦¨ à¦¬
à¦ĸ à¦ļ
Ġà¦ļ à¦¶à¦®
à¦ı à¦¸
à¦Ĩ à¦ļ
Ġà¦¬à¦¨ à¦¬
Ġà¦īà¦ª à¦¦
Ġà¦¬ à¦°à¦£
Ġà¦ķà¦¤ à¦¦
Ġà¦ļà¦ķ à¦ļà¦ķ
i l
Ġà¦¦ à¦¤
Ġà¦ī à¦ķ
Ġà¦¯ à¦¯
à§İà¦¸ à¦°
Ġà¦¤ à¦¦
à¦¶ à¦¸
Ġà¦Ĩà¦® à¦²
Ġà¦² à¦¹à¦°
Ġà¦ĩ à¦ŀ
à¦ħ à¦ľ
Ġà¦ķ à¦¸
à¦· à¦ª
à¦ī à¦ĩ
Ġà¦ħ à¦¯
à¦¾à¦ģ à¥¤
à¦ī à¦¤
à¦² à¦°
à§ľ à¦Ľ
à¦°à¦¬ à¦£
à¦¨à¦ĵ à¦¦
à¦°à¦¤ à¦®
à¦¼à¥¤ âĢĿ
à§ģ à¦Ĥ
à¦Ł à¦ĵà¦¯
à¦· à¦¨
à¦¿ :
Ġà¦ıà¦ĩ à¦Ł
à¦ĺ à¦Łà¦¨
Ġà¦ľà¦¨ à¦®
à¦°à¦¸ à¦°
! âĢĻ
à§Ģ âĢĻ
à¦Ĩ à¦§
Ġà¦® à§İà¦¸
Ġà¦ħ à¦¬à¦°
à¦ī à¦¸
Ġà¦Ŀ à¦Ĺà¦¡
Ġà¦Ĩà¦¬ à¦¹
Ġà¦Ĩ à¦ªà¦¤
Ġà¦® à§Ł
Ġà¦° à¦®
Ġà¦Ĩà¦Ĺ à¦®à¦¨
Ġà¦Ŀà¦ķ à¦Ŀà¦ķ
à¦ª à§Ł
Ġà¦®à¦¨ à¦Ł
Ġà¦ıà¦ĩ à¦Ń
à¦ī à¦¬
Ġà¦Ĩà¦ľ à¦ĩ
à¦ªà¦ķ à¦¥à¦¨
Ġo f
à§ģ ?
à¦ĵ à¦¡
Ġà¦¸ à¦«à¦²
à¦¼à§ĩ -
à¦°à¦¤ à¦¬à¦°
à¦®à¦¨ à¦¸
à¦Ĩ à¦¨
à¦¯à¦¬ à¦¦
âĢ į
Ġà¦ħà¦¬ à¦¤
à¦ħ à¦ª
Ġà¦ľà¦² à¦§
Ġà¦ķ à§ľ
à§Ģ âĢĵ
Ġà¦¤ à¦ķ
Ġà§§à§¯à§ Ń
in g
Ġ *
à¦ª à¦ķà¦²
Ġà¦§ à¦°à¦¬
Ġà¦Ł à¦°
à¦ħ à¦ķ
Ġà¦Ĩà¦¶ à¦Ļ
Ġà¦Ĩà¦¨ à¦²
Ġà¦¬à¦° à¦«
à§ĭà¥¤ âĢĿ
Ġà§ §
à¦ľ à¦Ļ
à¦ĺ à¦ķ
à¦¾? âĢĿ
à¦Łà¦« à¦Ł
à¦® à¦Ń
à¦ĩ à¦«
à¦Ĺ à¦ķ
à¦ı à¦¤
à¦¯ à¦ŀ
à¦£ à¦Ĺ
Ġà¦« à¦Ł
âĢ¦ âĢĿ
o m
Ġ O
Ġ and
Ġà¦® à¦°à¦£
à¦£ à¦¬à¦¨
Ġà¦ħà¦¬à¦² à¦®
Ġà¦¸ à¦¸
Ġà¦Ĩ à¦ĩ
Ġà¦¦ à¦¶à¦ķ
à¦ĵ à¦²
Ġà¦Ľ à¦Łà¦«à¦Ł
Ġà¦ªà¦° à¦¦
Ġà¦¸à¦® à¦¬
à§ ·
Ġà¦¤ à¦¤à¦ķ
Ġà¦ħ à¦·
Ġà¦¥ à¦°
à§ľ à¦¤
Ġà¦Ĩà¦² à¦¤
Ġà¦¦ à¦¸
Ġà¦Ĺ à¦Ĺà¦¨
à¦Ļ à¦¤
Ġà¦Ĩà¦° à¦¬
à¦¤à¦° à¦ķ
Ġà¦ķà¦² à¦Ļ
Ġà¦ıà¦ķà¦¦ à¦®
à¦ķà¦¸ à¦ĩ
à¦ľ à¦ĩ
Ġà¦Ĩà¦° à¦ľ
Ġà§ ª
Ġà¦ĺà¦Ł à¦²
Ġ d
à¦¾ à¦ĥà¥¤
à¦¯ à¦°à¦ķà¦®
à§ĭ à¦Ĥ
Ġà¦ķ à¦¦
Ġà¦ķ à¦ĩ
à¦Ĺ à¦łà¦¨
Ġà¦¡ à¦Ĺ
Ġà¦ľà¦¨ à¦¤
Ġà¦ħà¦§ à¦°
à¦¿ !âĢĿ
à¦Ĺ à§ľ
Ġà¦ĵ à§Ł
Ġ S
à¦¨ à¦ľ
à¦¤ à¦ļ
à¦¬ à¦ļà¦¨
à¦¬ à¦Ľà¦°
à§Ģ ;
à¦Ĺ à¦Ĺ
à¦¼à§ĩ âĢĶ
à¦Ń à¦¦
à§ĩ, âĢĿ
Ġà¦ıà¦ĩ à¦°à¦ķà¦®
Ġà¦®à¦¹ à¦°
Ġà¦¯à¦¤ à¦ķ
à§ĭ? âĢĿ
Ġà¦¬à¦Ł à¦Ĺ
à¦ķ à¦¶à¦¨
Ġà¦ī à¦§
à¦« à¦Ł
à§ĩ âĢĿ
à¦¿ âĢĿ
à¦² à¦ĸ
à¦ıà¦ķ à¦ľà¦¨
Ġà¦ĭ à¦¦
à¦¹à¦°à¦£ à¦¸
à¦ĩ à¦ľà¦¨
Ġà¦¦ à§Ł
à¦ļ à¦¸
à¦« à¦°
h a
i c
à¦ª à¦ľ
Ġà¦ī à¦Ńà¦¯
Ġà¦¥ à¦®
à¦°à¦£ à¦¨
Ġà¦ĩ à¦īà¦¨
à¦¿ .
Ġà¦¹ à¦Ł
Ġà¦ī à§İà¦ķ
à¦¬à¦° à¦²
Ġà¦ĩ à¦¹
i on
à¦² à¦ĵ
Ġà¦ıà¦¤ à¦ĩ
à¦¸ à¦ĩ
Ġà¦¨ à¦ĸ
Ġà¦ħ à¦²à¦ķ
à¦· à¦ĩ
Ġà¦ĵ à¦Ĺ
Ġà¦ħà¦¨ à¦¬à¦°à¦¤
Ġà¦ľà¦¨ à¦Ĺà¦£
à¦¤ à¦§
à¦ĩ à¦ļ
Ġà¦¦ à¦®à¦¨
à¦ľ à¦¦
à¦ľ à¦§
à¦ľ à¦ªà¦¥
à¦£ à¦ļ
Ġà¦Ł à¦²
à¦¿à¦Ĥ ,
à¦® à¦²à¦¤
Ġà¦ª à¦¹
à¦£ à¦°
Ġà¦° à¦«
Ġà¦ħà¦¬ à¦ļ
Ġà¦Ĩà¦ķ à¦¸
à¦ķ à¦¬à¦°
à¦ĩ à¦ĸ
à¦Ĺ à¦ŀ
Ġà¦ıà¦ķ à¦ª
Ġà¦ī à¦Ĺ
âĢĻ âĢĶ
) à¥¤
Ġ p
à¦¯ à¦Ļ
Ġà¦® à¦¥
Ġà¦² à¦¯
Ġà¦§ à¦®à¦ķ
Ġà¦ĩ à¦®
Ġà¦ħà¦¬ à¦¸à¦°
Ġ A
à¦° à¦ĸà¦°
à¦Ĺ à¦ª
Ġà¦Ń à¦¬à¦¨
à¦Ŀ à¦¡
à¦Ĩ à¦¹
Ġà¦ľà¦² à¦ľ
Ġà¦ª à¦°à¦¤
Ġà¦Ĩ à¦ł
Ġà¦° à¦¤à¦¨
à¦°à¦¸ à¦¨
Ġà¦ªà¦¦ à¦§
Ġà¦Ľ à¦²à¦¨
à¦ł à¦°
à¦Ĩ à¦¨à¦¨
Ġà¦Ī à¦°
à¦ķ à¦ĵ
à§ģ !
à¦¬ à¦ĵ
à¦¼ à§į
à¦¦ à¦ĩ
Ġà¦Ľ à¦¦
Ġà¦ĺ à¦·
Ġà¦¬à¦ĩ à¦Ł
Ġà¦īà¦² à¦Ł
à¦ķ à¦«
Ġà¦¹ à¦ķ
à¦¥ à¦ª
Ġà¦ĸ à¦¨
Ġà¦ıà¦ĸà¦¨ à¦ķ
à¦®à¦£ à¦¦
à¦¾ à§ĩ
Ġà¦ļ à¦£
Ġà¦Ľ à¦¤
Ġà¦Ī à¦¦
l e
v e
à§Ł à¦£
Ġà¦ªà¦¥ à¦ª
Ġà¦Ńà¦° à¦ª
ĠâĢĶ âĢĺ
Ġà¦¦à¦¶ à¦Ł
Ġà¦ķ à¦²à¦¤
Ġà¦¬ à§İà¦¸à¦°
Ġà¦¯ à¦¶
à§ľ à¦¬
Ġà¦īà¦ª à¦®
Ġà¦ĩà¦¤ à¦¸
r o
à¦ª à¦ĩ
à¦®à¦¨ à¦Ł
à§İ à¦ĩ
Ġà§ «
Ġà¦¤à¦¤ à¦ĩ
Ġà¦ªà¦Ł à¦Ń
Ġà¦¥à¦® à¦¥à¦®
a s
à¦® à¦¸à¦®
à¦ħ à¦®à¦²
Ġà¦° à¦¹
Ġà¦ıà¦ķ à¦Ĺ
à¦ī à¦ªà¦¸
à¦ī à§İà¦¸à¦¬
Ġà¦ľà¦² à¦ª
à¦¬ à§İ
Ġà¦¦ à¦¡
Ġà¦¦ à¦¹à¦¨
à¦Ĺ à¦Ł
Ġà¦ıà¦ķ à¦¥
à¦Ĥ ,
à¦ł à¦¤
à¦Ĩ à¦ª
à¦ĺ à¦¦
Ġà¦ļà¦² à¦®
Ġà¦® à¦®
à¦ª à¦ª
Ġà¦¶ à¦¨
à¦ħ à¦ªà¦°
Ġà¦Ĩà¦¬ à¦°à¦£
à§ĭ? âĢĻ
à¦ħà¦¤ à¦ıà¦¬
Ġ P
à¦° à¦ļà¦²
à¦¤ à¦¶
à¦ķ à¦ľ
Ġà¦¤ à¦°à¦²
Ġà¦ħ à¦£
Ġà¦ĺ à§ľ
Ġà¦Ĩà¦Ľ à¦¡
Ġà§§à§ ¦
à¦¸ à¦ĵ
à¦ł à¦¶
Ġà§§à§¯à§Ń à§§
Ġà¦ı à¦°à¦ĩ
Ġà¦¡ à¦ķ
Ġ à¥¤
à¦° à¦¸à¦¬
à¦¬ à¦ªà¦¨
Ġà¦ķ à¦¦à¦®
Ġà¦ª à¦ļ
à¦ĸ à¦®
Ġà¦Ń à¦¸
à¦Ń à¦°à¦¤
Ġà¦ıà¦ķ à¦¸à¦®à¦¯
à¦¼à¦¾ âĢĶ
à¦°à¦¥ à¦°
Ġà¦¸ à¦¯à¦¤
Ġà¦¨ à¦ĵ
à¦ĩ à¦¶
à§Ł à¦¬à¦¦
Ġà¦² à¦¹à¦®
à¦°à¦£ à¦¤
Ġà¦¹à¦¤ à¦Ń
à§§à§ §
à¦® à¦Ŀ
à¦¹ à¦¦
Ġà¦ħà¦® à¦°à¦¤
à¦§à¦¨ à¦ķ
à¦ĵ à¦¤
à¦Ń à¦¸
à¦Ļ à¦¨
Ġà¦¥ à¦°à¦¥à¦°
à¦°à¦¬ à¦¦
Ġà§§à§¯à§ «
à¦Ī à¦¶
à¦¸ à¦Ĺ
à¦§ à¦²
à¦¥ à¦ķà¦¤
Ġà¦ľ à¦²à¦ķ
à¦¸à¦® à¦¸
u t
æ Ń
Ġà¦¯à¦ĸà¦¨ à¦ĩ
Ġà¦¬à¦¹ à¦®
æŃ ĵ
Ġ in
à¦Ĺ à¦ĩ
Ġà¦° à¦Ł
à¦« à¦¨
à¦ħ à¦§
Ġà§§à§ ®
æŃĵ æŃĵ
Ġ C
à¥ ¥
Ġà¦® à¦ľà¦¬
à¦ľ à¦Ń
à¦¹ à¦¬
Ġà¦° à¦£
Ġà¦®à¦¹ à§İ
âĢį à§į
à¦¤ à¦ĵ
à¦Ľ à¦ķ
à¦¡ à¦ķ
à¦¼à¦¿ à¦Ĥ
à¦ī à¦ļ
à¦Ĩ à¦Ļ
a m
à¦ľ à¦¹
à¦· à¦Ĺ
à¦ł à¦ķà¦ķ
à¦¼à¦¿ -
Ġà¦ľà¦¨ à¦ªà¦¦
Ġà¦¸à¦° à¦²à¦¤
Ġt h
Ġ B
à¦¨ à§Ł
à¦® à¦ŀ
Ġà¦« à¦£
Ġà¦¬à¦² à¦°
Ġà¦ıà¦®à¦¨ à¦Ń
Ġà¦īà§İà¦¸ à¦°
Ġà¦¸à¦¦ à¦¸
à§§à§ ¨
Ġ à¤
à¦¨ à¦Ĺà¦°
Ġà¦ª à¦¤à¦¨
à¦¸ à¦¯
à¦ľ à¦ĵ
Ġà¦ı à¦ª
Ġà¦Ľ à¦ķ
Ġà¦§ à¦°à¦£
Ġà¦ħà¦ª à¦¬
Ġà§ ¬
en t
Ġà¦¦ à¦ª
à¦¶ à¦Ĺà¦¤
Ġà¦ı à¦Ľ
à¦§ à¦Ł
à¦¡ à¦¨
à¦ī à¦®
à¦« à¦¸
à¦Ĩ à¦ĩ
éŁ¿éŁ¿éŁ¿éŁ¿ éŁ¿éŁ¿éŁ¿éŁ¿
Ġ [
à¦¤ à¦²à¦¤
Ġà¦¦ à¦ĩ
Ġà¦¤ à§İà¦ķ
à¦£ à¦ª
Ġà¦° à¦ľà¦¨
Ġà¦Ľ à¦²à¦Ľ
Ġà¦² à¦Ļ
Ġà¦Ĩà¦° à¦£
à¦Ŀ à¦¨
à¦ķà¦² à¦®
à§ĭà¥¤ âĢĻ
Ġà¦®à¦¸ à¦ľ
à¦® à¦¹à¦¤
à¦ĵ à¦¦
à§ľ à¦²
Ġà¦¸à¦¬ à¦¸à¦®à¦¯
Ġ l
à¦° à¦ŀ
à¦¬ à¦¹à¦¨
à¦¸ à¦¡
à¦· à¦ĵ
Ġà¦ĵ à¦¸à¦¬
Ġà¦ĸ à¦¡
à¦°à¦¬ à¦£à¦¤
à¦¤à¦° à¦Ł
à¦¨ à¦®à§Ł
à¦¹ à§İ
Ġà¦ķà¦° à¦£
à¦°à¦® à¦°
Ġà¦¶à¦° à§İ
à¦Ĺ à¦®à¦¨
Ġà¦Ĺ à¦¤à¦ķ
Ġà¦Ľ à¦Ł
Ġà¦ªà¦° à¦ĵ
à¦ī à¦ł
Ġà¦ĩ à¦ľ
Ġà¦ħà¦² à¦¸
Ġà¦Ńà§Ł à¦Ļ
Ġà¦Ĺà¦£ à¦¤à¦¨
o l
Â ·
Ġ e
à¦ª à¦¹
à§Ł à¦¦
à¦¾, âĢĿ
Ġà¦¸à¦¹ à¦ķà¦°
à¦ıà¦ķ à¦ĩ
Ġà¦Ľà¦²à¦Ľ à¦²
à¦ķ à¦ĸ
Ġà¦¹ à¦¨à¦¨
à¦Ĺ à¦¯
à¦§ à¦¦
à¦¡ à¦¬à¦°
ĠâĢ ¦
Ġà¦ĺà¦° à¦Ł
Ġà§ Ń
Ġà¦ĺà¦Ł à¦¬
à¦¾âĢĻ à¥¤
al l
Ġ R
à¦¯ à¦ľà¦¨
Ġà¦ı à¦ĵ
à¦ļ à¦Ľ
Ġà¦Ĺ à¦¯
Ġà¦Ľ à¦¯
à¦°à¦¬ à¦§
Ġà¦ľà¦¨ à¦ķ
Ġà¦¬à¦¨ à¦Ń
à¦ķà¦Ł à¦ķ
à¦Ĳ à¦¤
o t
à§ģ ;
à¦® à¦ļà¦¨
Ġà¦¨ à¦Ł
à¦Ł à¦Ń
Ġà¦¦ à¦°à¦¬
Ġà¦¹ à¦°à¦£
à¦£ à¦¸
Ġà¦ıà¦ķ à¦ľ
Ġà§§à§ ¨
Ġà¦¸à¦« à¦²à¦¤
.. .
à¦ĭ à¦·
e l
à§ĭ âĢ¦
à¦¦ à¦Ľ
à¦ª à¦Ŀ
à¦Ľ à¦¡
à¦ĸ à¦ĸ
à¦¡ à¦Ĺ
Ġà¦®à¦¤ à¦ĩ
Ġà¦®à¦¹ à¦²
à§§à§ ¯à§
à¦¬ à¦¸à¦¨
Ġà¦Ĩ à¦ŀ
à§Ł à¦¤à¦®
Ġà¦ĵ à¦ľà¦¨
Ġà¦¸à¦¬ à¦ĸ
ĠĠĊ ĠĠ
à¦°à¦® à§Ł
Ġà¦¬à¦° à¦ŀ
à¦·à¦° à¦Ĺ
à¦¸à¦ķ à¦·
à¦¯ à¦²
à¦¸ à¦ļ
à¦¸ à§İ
à¦ĸ à¦¬à¦°
à¦ļ à¦¶
à¦¥ à¦¹
à¦Ĩ à¦¯
Ġà¦Ĩà¦¶ à¦ª
à¦¾âĢĻ ,
u n
à¦¨ à¦®à¦¯
à¦¡ à¦°
à¦ħ à¦¨à¦¨
à¦°à¦¶ à¦¸
Ġà¦Ŀà¦° à¦Ľ
Ġà¦Ŀà¦° à¦Ŀà¦°
à§Ŀ à¦¤
Ġà¦¤à¦¤ à¦Ł
à¦¤à¦ĸà¦¨ à¦ĩ
à¦¤ à¦¥
à¦¦ à¦ĵ
Ġà¦¨ à¦²
Ġà¦¨ à¦®à¦¸
Ġà¦Ĩà¦² à¦Ĺ
à¦ı à¦¦
à¦·à¦£ à¦ķ
à¦ħ à¦¥
Ġà¦ķà¦² à¦¸
Ġà§§à§ ©
ç ľ
à§ĩ )
Ġà¦ķ à¦¤à¦¬
à¦¦ à¦®à¦¯
à¦ĸ à¦Ĺ
Ġà¦² à¦ĺ
Ġà¦ªà¦° à¦¨
à¦°à¦ķ à¦°
Ġà¦Ŀ à¦Ļ
Ġà¦ķà¦¤ à¦Ĺ
Ġ D
Ġ T
à¦¶ à¦¶
Ġà¦ı à¦®
Ġà¦² à¦Ĺ
à¦Ĩ à¦¦
à¦¼à¥¤ âĢĻ
Ġà¦®à¦¹ à¦¤
Ġà¦ķà¦¤ à¦ķà¦Ĺ
Ġà¦ĺà¦Ł à¦¤
à¦£ à¦Ń
à¦ĵ à§ľ
à¦°à¦¤ à¦¤
à¦ı à¦²
Ġà¦ľà¦¨ à¦ª
Ġà¦ħà¦¬ à§Łà¦¬
Ġà¦¬à¦ĩ à¦¤
à§§à§ ¦
e t
à¦¿ âĢĻà¥¤
Ġà¦Ĩ à¦¦à¦²
Ġà¦¤ à¦¸
à¦¶ à¦Ļ
à¦ļ à§Łà¦¤
à¦¡ à¦¸
à¦¡ à¦ª
Ġà¦ĸ à§ľ
Ġà¦ħà¦² à¦Ļ
Ġà¦ľà§Ł à¦Ĺ
à¦· à¦Ń
Ġà¦° à¦ľ
Ġà¦ıà¦ķ à¦¦à¦²
à¦°à¦¤ à¦²
Ġà¦¸à¦¬ à¦Ł
Ġà¦¹à¦² à¦¦
Ġà¦Ĩà¦Ĺ à¦²
Ġà¦ķà¦ĸà¦¨ à¦ĩ
à¦¯ à¦°à¦¸
Ġà¦¦ à¦«
à¦ľ à¦¡
Ġà¦¶ à¦ĸ
Ġà¦° à¦¨
Ġà¦° à¦ĵà¦¨
Ġà¦² à§Ł
à¦¬à¦¨ à¦¬
Ġà¦ľà¦¨ à¦Ĺ
à¦°à¦® à¦¹
Ġà§§à§¯à§« à§¨
Ġ ?
à¦¿ âĢĻ,
à¦¯ à¦¬à¦°
à¦® à¦¹à¦°
Ġà¦² à¦£
Ġà¦Ĩà¦¨ à¦Ľ
à§° à¦¹
Ġà¦Ī à¦Ĺà¦²
à¦¯ à¦ļ
à¦¯ à¦®à¦¨
à¦¼ :
à¦Ł à¦ĩ
à¦Ł à¦ĵà§Ł
à¦ĩ à¦¸à¦¬
à¦Ń à¦Ł
Ġà¦² à¦¬à¦£
à¦¬à¦¦ à¦²
Ġà¦ĩà¦¨ à¦¸
à¦¨ à¦ĸ
à§ĭ !âĢĿ
Ġà¦Ĩ à¦·
à¦Ĺ à¦¹
à¦Ĺ à¦Ļ
Ġà¦ħà¦¨ à¦Ļ
à¦ĺ à¦Ł
Ġà¦ľà¦¨ à¦ľ
Ġà¦ł à¦ķ
à¦ľà¦¸ à¦Ń
s t
à¦¨ à¦·
à¦ķ à¦¯
Ġà¦¸ à¦¡
à¦Ĺ à¦ł
âĢĶ âĢĶ
à¦¬à¦¨ à¦Ł
à¦°à¦£ à§Ł
à¦ı à¦ķà¦¬
à§įâĢĮ à¥¤
à§° à¦¸
Ġà¦ĸà¦¬à¦° à¦Ł
à§ĩ âĢĻ,
Ġà¦ª à¦¦à¦¯
à¦¬à¦° à¦ķ
à¦Ĺà¦¤ à¦Ń
u r
à¦¤ à¦ĸ
à¦® à¦«
Ġà¦ª à§Łà¦¸
Ġà¦¨ à¦ķà¦²
Ġà¦¤ à¦Ł
à¦¶ à¦ĵ
Ġà¦¹ à¦¦
à¦¹ à¦Ł
Ġà¦ıà¦ķ à¦°à¦ķà¦®
à¦¿, âĢĿ
à¦¬à¦² à¦®
à¦°à¦ªà¦° à¦ĵ
Ġà¦ı à§ľ
à¦· à¦ķà¦°
à¦£ à¦ĵ
Ġà¦ıà¦ĩ à¦ĸ
à¦ī à§ľ
à¦Ĩ à¦¸à¦²
Ġà¦Ł à¦²à¦®à¦²
Ġà¦§à¦° à¦Ľ
Ġà¦¬à¦ĩ à¦Ĺ
Ġà¦¸à¦ķà¦² à¦ķ
c t
i m
Ġà¦¸à¦® à¦ķ
à¦Ŀ à¦°à¦¨
à¦ħ à¦ľà¦¸
à¦°à¦¶ à¦ķ
Ġà§ ¦
Ġà¦¬à¦ĩ à¦Ľ
à§° à¦¤
Ġà¦Ĩà¦¹ à¦®
Ġà§§à§¯à§ ª
à§¯à§ «
o w
à¦¨ à¦¸à¦®
à¦¬ à§°
Ġà¦Ĩà¦° à¦ķ
à¦¬à¦¨ à¦§
à¦Ŀ à§ľ
à¦°à¦ķ à¦Ł
à¦¬à¦² à¦¬
Ġà¦¬à¦¨ à¦®
à¦¦à¦° à¦ľ
à§¯à§ ¬
Ġ h
à¦¤ à¦Ńà¦°
à¦² à¦¡
à¦¸ à¦ľ
à¦ªà¦° à¦®
à¦¦à¦¨ à¦¶
à¦°à¦² à¦¯
Ġà§ ®
à¦¶ à¦Ŀ
à¦§ à¦¶
à¦£ à¦ĩ
Ġà¦ī à¦ĩà¦²
Ġà¦§ à¦¡
à¦¬à¦² à¦ĩ
à¦¤à¦¬ à¦ķ
Ġà¦ķà¦¤ à¦ĸ
Ġb e
Ġ M
à¦° à¦ªà¦¤
à¦ª à¦²à¦ķ
Ġà¦¦ à§ľ
à¦· à¦Ļ
à¦· à¦ªà¦°
à¦§ à¦Ń
à¦£ à¦¯
à¦¡ à¦Ł
Ġà¦ī à¦®
Ġà¦®à¦¨ à¦¨à¦¶
à¦¦à¦¨ à¦ķ
à¦¿à¦ĥ à¥¤
Ġà¦ķà¦² à¦ķà¦²
Ġ g
à¦¨ à¦¶à¦¨
à¦¨ à¦Ńà¦°
Ġà¦¨ à¦¸
à¦Ĺ à¦¬à¦¤
à¦ļ à¦ľà¦¨
à¦ļ à¦²à¦¤
à¦¥ à¦¸
ĠĠ ĠĠ
Ġà¦ĸ à¦²
à¦ī à¦Ĺ
Ġà¦ĩ à¦īà¦°
Ġà¦ķà¦°à¦¤ à¦²
âĢ¦ à¥¤
à¦·à¦ķ à¦¦
Ġà¦¤à¦¤ à¦¦
Ġà¦Ķ à¦°à¦¸
Ġà¦¶à¦°à§İ à¦ļà¦¨
à¦® à¦ĸ
Ġà¦¬ à¦£
Ġà¦® à¦°à¦¤
Ġà¦¹ à¦¤à¦¬
Ġà¦Ĺ à¦ļ
Ġà¦Ń à¦Ł
Ġà¦ĵ à¦¹
Ġà¦ªà¦° à¦²
à¦·à¦£ à¦¸
à¦¨à¦¤ à¦®
à¦²à¦ķ à¦£
à¦¦à¦° à¦¬à¦¨
Ġà¦īà¦ª à¦¤
Ġà¦ıà¦®à¦¨ à¦Ł
Ġà¦īà¦ªà¦° à¦¨
Ġà¦ıà¦ķà¦ĩ à¦Ń
Ġà¦Ĺà¦£ à¦®
Ġ is
à¦¤ à¦¬à¦°
à¦² à¦Ļ
à¦² à¦Ĺà¦°
à¦¬ à¦ŀ
Ġà¦ķ à¦ªà¦Ł
à¦ª à¦¶à¦¨
Ġà¦¤ à¦¦à¦¨
Ġà¦ı à¦«
à¦Ĺ à¦ļ
Ġà¦ī à¦Ńà§Ł
Ġà¦¸à¦® à¦·
à¦ľà¦¨ à¦¨
à¦ľà¦¨ à¦ĩ
à¦ı à¦ķà¦¤
Ġà¦ħà¦¬ à¦¸à¦¨
à¦²à¦¨ à¦®
à¦ıà¦ĩ à¦¸à¦¬
à¦ªà¦Ł à¦ª
i d
à¦¨ à¦¬à¦°
à¦² à¦¹
à§ĭ :
Ġà¦¬ à¦®
à¦ª à¦ŀ
Ġà¦ħ à¦ĸà¦£
à¦ĸ à¦®à¦¯
à¦ĵ à¦ł
Ġà¦« à¦¡
Ġà¦ĺ à¦°à¦¬
à¦ĺ à¦£
âĢĿ âĢĶ
à¦ħ à¦¦à¦®
Ġà¦¸à¦¹ à¦ļà¦°
Ġà¦¸à¦¹ à¦¨à¦¶
Ġà¦ĺà¦Ł à¦Ľ
à§İà¦¸ à¦ķ
Ġà¦¸ à¦²
Ġà¦¨ à¦Ń
Ġà¦¤ à¦«
à§Ł à¦¶à¦ĩ
à¦¡ à¦Ń
Ġà¦« à¦²à¦¤
Ġà¦ªà¦° à¦ĩ
Ġà¦ľà¦² à¦¸
Ġà¦ħà¦¹ à¦Ļ
Ġà¦¸à¦« à¦°
Ġà¦¹à¦¤à¦Ń à¦®
à¦¤ à¦¯
Ġà¦¸ à¦¯
à¦¸ à¦ĸ
Ġà¦¨ à¦¥
Ġà¦® à¦Ī
à¦ĩ à¦ĩ
Ġà¦¦ à¦°à¦¦
à¦¶ à¦ªà¦¥
à¦ĸ à¦¯
à¦Ĺ à¦ĵ
à¦¹ à¦£
à¦£ à¦Ĺà¦¤
Ġà¦ıà¦ķ à¦¯
Ġà¦ľà¦² à¦¦
Ġà¦¸à¦¹ à¦¦
Ġà¦¯à¦¤ à¦ĸ
à¦®à¦¬ à¦Ļ
Ġà¦Ĭ à¦·
à§¯à§ Ń
Ġà¦īà§İà¦ķ à¦£
c h
à§ģ âĢĵ
à¦® à¦®à¦¤
Ġà¦¬ à¦īà¦¦
à¦¼à§ĩ ?
à¦§ à¦¸
Ġà¦¶ à¦®
à¦¬à¦¨ à¦®
Ġà¦Ĩà¦¶ à¦«
à¦¾âĢĶ âĢľ
Ġà¦· à¦¡
Ġà¦Łà¦² à¦Łà¦²
1 9
i g
¯ à§¦
à§ĩ âĢĻà¥¤
à§Ł à¦¶
à¦§ à¦ĩ
Ġà¦ľ à¦ª
à¦ī à¦ª
Ġà¦¤à¦ĸà¦¨ à¦ķ
à¦²à¦¨ à¦ķ
Ġà¦¤à¦° à¦«
Ġà¦¨à¦¬ à¦¬à¦°
Ġt o
à¦ħà¦¥ à¦ļ
Ġ L
à¦¯ à¦ķà¦²
à¦¼ à§ģ,
Ġà¦ķ à¦¨à¦ķ
à¦¦ à¦ªà¦¤
à¦ĩ à¦°à¦ķà¦®
Ġà¦ªà¦° à¦ķ
Ġà¦Ŀ à¦Łà¦ķ
à¦ħ à¦¹
à¦ķà¦° à¦¶
Ġà¦¸à¦¹ à¦ª
Â· Â·
à¦¨ à¦®à¦¨
Ġà¦ķ à¦¬à¦²
Ġà¦ķ à¦¨à¦¸
Ġà¦¯ à¦ķ
Ġà¦° à¦ĺ
à¦ī à¦¶à¦¨
à¦« à¦¡
Ġà¦ªà¦¥ à¦Ł
à¦ķà¦² à¦ķ
Ġà¦ıà¦ķà¦ľà¦¨ à¦ķ
Ġà§¨ à§§
m a
à§ĩ à¦¾à¦ģ
à¦® à¦ķà¦°
Ġà¦¸ à§ľà¦ķ
Ġà¦¦ à¦®à¦ķ
Ġà¦¤ à¦®
à¦· à¦ľ
à¦£ à¦ªà¦£
Ġà¦ľ à¦Ĺà¦¨
âĢĶ âĢĻ
à¦¨à¦¬ à¦¦
Ġà¦īà¦ª à¦²à¦ķ
Ġà¦ħà¦ª à¦²à¦ķ
à§° à¦¬
Ġà§§à§ Ń
Ġà§¨ à§¦
Ġà¦Ŀà¦¨ à¦Ŀà¦¨
Ġà¦ħà¦¬à¦¨ à¦¤
Ġf or
à¦° à¦Ŀ
Ġà¦¸ à¦¦à¦°
à¦¦ à¦¬à¦¦
à¦Ł à¦ĵ
à¦§ à¦ķà¦¤
Ġà¦« à¦¤
à¦ħ à¦°à¦£
à¦¨à¦ĵ à¦Ń
à¦² à¦¶
Ġà¦ķ à¦¹
à¥ į
à§Ģ ?âĢĻ
à¦· à¦¹
à¦£ à¦¹
à¦¡ à¦®
Ġà¦¶ à¦°à¦£
Ġà¦° à¦ĵ
Ġà¦Ĩà¦² à¦¸
Ġà¦Ĩà¦Ĺ à¦¨
à¦°à¦¹ à¦¸
Ġà¦īà¦ª à¦¬
Ġà¦īà¦ª à¦ļ
à¦°à¦ľ à¦¬
à¤ ¾
r a
Ġà¦® à¦Ľ
à¦§ à¦ĵ
à¦£ à¦Ł
à¦Ļ à¦¬
Ġà¦ĵ à¦¸
Ġà¦ªà¦° à¦¬
à¦ıà¦ķ à¦¸
Ġà¦īà§İ à¦ªà¦¤
n d
à¦¬ à¦¬à¦°
à¦¯ à¦§
à¦ľ à¦¶
Ġà¦ħ à¦Ŀ
à¦¼à§ĩ âĢĵ
Ġà¦¶ à¦²
à§Ĥ -
Ġà¦ĸ à¦ļ
Ġà¦¸à¦® à¦¤à¦²
Ġà¦ıà¦ĩ à¦¬
Ġà¦ĩ à¦ī
Ġà¦Ĩà¦¹ à¦¬
Ġà¦¹à¦° à¦«
Ġà¦¦à¦® à¦¬à¦¨
at ion
Ġ re
à¦¾ )
à¦¯ à¦®à¦¨à¦¸
à¦Ľ à¦¦
à¦¶ à¦ľ
à¦· à¦§
Ġà¦ıà¦ķ à¦ļ
Ġà¦ĵ à¦²
à¦°à¦¬ à¦®à¦¯
à¦¬à¦² à¦²
Ġà¦ħà¦¬ à¦Ĺ
à¦¿à¦Ĥ à¥¤
à§¯à§ ¯
u l
à¦¿ )
à¦¤ à¦°à¦¤
à¦¤ à¦ļà¦°
à¦¼ à¦ĥ
Ġà¦¸ à¦ĩà¦¤
Ġà¦® à¦¶à¦²
à¦ª à¦ķà¦°
à¦§ à¦¹
à¦¥ à¦Ĺ
Ġà¦Ń à¦£
Ġà¦ĵ à¦Ń
Ġà¦« à¦ķ
Ġà¦ıà¦ĩ à¦®
à¦ħ à¦«
à¦ķà¦² à¦¨
Ġà¦¸à¦¹ à¦ķ
Ġà§ ¯
à¦°à¦ªà¦° à¦ĩ
Ġà¦«à¦² à¦¶
Ġà§§à§ «
à¦ľà¦Ĺ à§İ
Ġà¦Ĩà¦« à¦¸
à¦° à¦ĺ
à¦¼ ?âĢĻ
Ġà¦¸ à¦Ĺ
Ġà¦¸ à¦ľà¦²
à¦ª à¦¤à¦¨
à¦¶ à¦Ľ
à¦¶ à¦¬à¦¨
Ġà¦ħ à¦¡
à¦ĺ à§ľ
à§Ī -
Ġà¦ħà¦¬ à¦ľ
Ġà¦¨à¦¤ à¦ľ
à§ĭ, âĢĿ
Ġà¦ħà¦§ à¦®
Ġà¦¬à¦Ł à¦¬
Ġà¦¦à¦¶ à¦¦
a d
c e
i r
u s
Ġ ;
Ġ H
Ġ ha
à¦ķ à¦®à¦¤
Ġà¦¸ à¦Ł
à¦¶ à¦Ń
à¦¶ à¦«
à¦¶ à¦ķà¦°
Ġà¦Ń à¦°à¦¦
à¦ĵ à¦Ł
ĠĠĊ Ġ
à§¯ à§¦
Ġà¦°à¦ĵ à¦¶
à¦² à¦®à¦¨
à¦¼ à§Ĥ
Ġà¦Ĩ à¦Łà¦Ł
à¦Ł à¦¬à¦²
à¦ª à¦ĵ
Ġà¦ľ à¦¸
Ġà¦ľ à¦®à¦¤
Ġà¦° à¦¹à¦®
à¦Ĥ à¥¤
à¦Ļ à¦°
Ġà¦¥ à¦²
Ġà¦ĸ à¦°à¦Ĺ
Ġà¦®à¦¤ à¦²à¦¬
Ġà¦ĩ à§Ł
à¦ĥ ,
Ġà¦¢ à¦Ļ
à¦ªà¦¦ à¦ķ
Ġà¦īà¦¤ à¦Ļ
Ġà§§à§ ¬
à¦°à¦¹à¦£ à¦¯
à¦·à§Ł à¦ķ
à§¯à§ ª
Ġà¦Ķ à¦¦
Ġà¦Ķ à¦ªà¦¨
à¦¥à¦ª à¦°à¦¤
Ġ N
à¦° à¦¦à¦¯
à¦¤ à¦¡
à¦² à¦Ŀ
à¦¬ à¦Ļ
à¦¬ à¦¶à¦ķ
à¦¼ à§Ģ,
Ġà¦¸ à¦ĸà¦¨
Ġà¦¸ à¦ĵà§Ł
Ġà¦¤ à¦°à¦¬
Ġà¦¤ à¦ªà¦¨
à¦¹ à¦ĩ
à¦¹ à¦Ļ
à¦¹ à¦¨à¦¬
à¦Ĩ à¦ĩà¦¨
Ġà¦Ŀ à¦Ł
âĢĿ âĢĵ
Ġà§§à§ ª
Ġà¦¬à§ľ à¦ĩ
Ġà¦Ĩà¦¹ à¦°à¦£
Ġà¦ľà§Ł à¦§
à§¨à§¦à§¦ à§¦
à¦¶à¦¶ à¦¤à¦ķ
a y
m ent
á ĥ
à¦¯ à¦ªà¦Ł
Ġà¦¬ à¦ļà¦¨
à¦¸ à¦ªà¦¤
à¦¦ à¦®à¦¨
à¦ĸ à¦¡
à¦ĸ à¦ķà¦¦
à¦· à¦²
à¦· à¦¶
à¦Ĺ à¦¬à¦¨
à¦£ à¦§
Ġà¦¶ à¦ļ
Ġà¦ĸ à¦¦
à¦°à¦£ à¦Ń
à¦Ŀ à¦ªà¦¥
à¦ľà¦¨ à¦¦
à¦Ĩ à¦¡
Ġà¦ħà¦ªà¦° à¦ķ
à§ĩ! âĢĻ
Ġà¦Ĺà§ľ à¦¤
Ġà¦īà§İ à¦ķà¦°
à¦¾! âĢĻ
à¦Ĩà¦ľ à¦ĵ
Ġà§§à§¯à§ ®
à¦¬à¦® à¦ŀ
Ġà¦°à¦¤à¦¨ à¦¬
æŃĵæŃĵ æŃĵæŃĵ
Ġà¦®à¦Ī à¦¨
Ġ !
à¦ Ĭ
à¦¬ à¦°à¦¬
à¦® à¦§à¦¨
Ġà¦ķ à¦Ń
Ġà¦¬ à¦īà¦¯
à¦¸ à¦ŀ
à¦¦ à¦Ń
à¦ĩ à¦Ĺ
Ġà¦¹ à¦ĩà¦²
à¦¹ à¦ļà¦°
Ġà¦Ĺ à¦£à¦¤
à¦Ĥ -
à¦®à¦¨ à¦¨
à¦ĺ à¦¡
Ġà¦ĩ à¦ķ
Ġà¦Ĩà¦¨ à¦®à¦¨
Ġà¦īà¦¦ à§Ł
Ġà¦ħà¦ķ à¦ªà¦Ł
Ġà¦ħà¦ļ à¦ŀ
à¦Ĺà¦ľ à¦Ł
Ġà¦ķà¦¨ à¦«
Ġà§¨ à§¨
à§¨à§¦à§¦ à§¨
v er
Ġ y
à¦¯ à¦ļà¦°
à¦¦ à¦®à¦¸
à¦ª à¦Ļ
Ġà¦¤ à¦°à¦ķ
à§Ł à¦ĩ
à¦ĸ à¦ķà¦°
à¦· à¦ľà¦¨
Ġà¦¯ à¦®à¦ľ
Ġà¦¶ à¦¶
Ġà¦¶ à¦°à¦¤
Ġà¦Ń à¦ľ
à¦Ń à§İà¦¸
à¦ī à¦ªà¦°
Ġà¦¸à¦¬ à¦Ĺ
Ġà¦ļà¦² à¦¨
Ġà¦ļà¦² à¦ļ
à¦¬à¦¤ à¦ĩ
Ġà¦ķà¦² à¦¹
à¦¾à¦ĥ ,
à¦®à¦¸à¦® à¦°
l y
o s
Ġ ,
à¦¤ à§ľ
à¦ķ à¦¸à¦Ļ
à¦¯ à¦ªà¦°
à¦¼ âĢ¦
à¦¸ à¦°à¦²
Ġà¦Ĩ à¦ľà¦¨
Ġà¦Ĩ à¦ĩà¦¡
Ġà¦® à¦¸à¦²
à¦¾à¦ģ -
à¦¬à¦¨ à¦¦
à¦°à¦¬ à¦ķ
Ġà¦Ĩà¦Ľ à§ľ
à¦¨à¦ĵ à¦°à¦ķà¦®
Ġà¦īà¦ª à¦ķà¦°à¦£
Ġà¦¬à¦ī à¦®
ma il
à¦¨ à¦ªà¦¥
à¦¤ à¦Ļ
à¦ķ à¦¹
à¦¯ à¦Łà¦ķ
Ġà¦® à¦°à¦¬
à¦Ł à¦Ĺà¦²
à¦ĩ à¦ĵ
Ġà¦¤ à§ľ
à¦Ľ à¦¤à¦²
Ġà¦¹ à¦ĩà¦¬
Ġà¦ļ à¦ķà¦²
Ġà¦Ľ à§Ł
Ġà¦ıà¦ĩ à¦ľà¦¨
à¦Ŀ à¦ŀ
à¦Ĩ à¦¦à¦°
à¦ĺ à¦¸
Ġà¦Ŀ à¦ŀ
Ġà¦ħà¦¸ à¦¤
Ġà¦ķà¦¬ à¦ļ
Ġà¦ħà¦ķ à¦¥
Ġà¦ĭ à¦Ĺà¦¬
Ġà¦īà§ľ à¦¨
Ġà¦ªà¦Ł à¦ļ
Ġà¦¹à¦ķ à¦ļà¦ķ
à¦¨ à¦¡
à¦¤ à¦Ĺà¦¤
à¦ķ à¦§
Ġà¦¬ à¦¹à¦°
Ġà¦¬ à¦¦à¦®
à¦¸ à¦ĺ
Ġà¦¨ à¦°à¦¨
à¦¶ à¦§
Ġà¦¹ à¦ĩà¦¤
Ġà¦ı à¦¶
Ġà¦ħ à¦ĺ
à¦ĸ à¦¬à¦¤
à¦¹ à¦®à¦¯
à¦ļ à¦ª
à¦Ń à¦ľ
à¦ł à¦¦
Ġà¦ī à¦¥
Ġà¦« à¦ľà¦²
Ġà¦§ à¦¬
à¦¬à¦° à¦ĩ
Ġà¦ħà¦¸ à§İ
Ġà¦ħà¦¶ à¦°
à¦¨à¦¦ à¦£
Ġà¦Ĩà¦ª à¦¡
à¦¤ à¦°à¦¬
à§Ł à¦²
âĢ ķ
à¦¹ à¦Ń
à¦¹ à§Łà¦¤
à¦¥ à¦ªà¦°
Ġà¦ī à¦¬
à¦Ļ à¦ļ
Ġà¦ħà¦¨ à¦°
Ġà¦ħà¦¨ à¦¸
Ġà¦ªà¦° à¦ĸ
âĢĿ ,
Ġà¦Ĩà¦¬ à¦¶
à¦¸à¦¬ à¦¶
à¦¨à¦¬ à¦¸à¦®
Ġà¦ıà¦®à¦¨ à¦ĵ
à§ĩâĢĶ âĢĺ
Ġà¦°à¦Ļ à¦§à¦¨
Ġà¦ľà¦® à¦ľà¦®
à¦ıà¦ķ à¦¸à¦Ļ
à¦Ĺà¦¬ à¦Ĺ
Ġw h
, -
i k
Ġ 19
Ġà¦® à¦ĸ
Ġà¦¤ à¦¡
Ġà¦¤ à¦Ľà¦¨
à¦§ à¦Ľ
Ġà¦Ĺ à¦ł
à¦ĵ à¦ķ
à¦ł à¦¬
Ġà¦ī à¦Ł
à§ľ à¦®
Ġà¦« à¦¨
Ġà¦ĸ à¦Ł
Ġà¦īà§ľ à¦¤
Ġà¦¶à¦¹ à¦°à¦¤à¦²
Ġà§¨ à§ª
à§¨à§¦à§¦ à§ª
Ġà¦¤à¦Ľà¦¨ à¦Ľ
, âĢĻ
a g
Ġ E
à¦² à¦¥
à¦¯ à¦¸à¦®
à¦¦ à¦®à§Ł
à¦Ľ à§ľ
à§Ł à¦ļ
à¦¼à§ĩ ;
à¦§ à¦¯
à¦¹ à¦ª
à¦¥ à¦ĩ
Ġà¦ĵ à¦¤
Ġà¦§ à¦¸
Ġà¦¸à¦® à¦Ŀ
à¦°à¦ķ à¦¦
Ġà¦¸à¦¬ à¦¸à¦®à§Ł
Ġà¦Ł à¦ķà¦Łà¦ķ
Ġà¦ľà¦¨ à¦¹
à¦¨à¦ĵ à¦Ł
âĢ¦ .
âĢ¦ âĢĻ
Ġà¦ħà¦ªà¦° à¦¦
Ġà¦¨à¦¬ à¦¯
à§ĭâĢĶ âĢľ
à¦¾âĢ¦ âĢĿ
Ġà¦¨à§ľ à¦¬à§ľ
Ġn ot
Ġà¦®à¦ĸ à¦®à¦²
à¦² à¦ĺ
à¦® à¦ĺ
à¦¼ ?âĢĿ
Ġà¦¨ à¦®à¦¨
Ġà¦¶ à§Łà¦¤
Ġà¦ľ à¦ŀ
Ġà¦ľ à¦ĸà¦®
Ġà¦² à¦¬
à¦°à¦¤ à¦¨
à¦°à¦£ à¦¬
à¦ī à¦·
Ġà¦Ł à¦ķ
Ġà¦¬à¦¨ à¦¸
à¦¤à¦¨ à¦Ń
Ġà¦ªà¦¤ à¦Ļ
Ġà§§à§ §
Ġà¦Ĩà¦¦ à¦®
Ġà¦īà§ľ à¦Ľ
à§¨à§¦à§¦ à§©
à¦Ĳ à¦ķ
Ġm y
Ġà¦§à¦¬ à¦§à¦¬
Ġ W
à§į ,
à¦¤ à¦ķà¦°
Ġà¦Ĩ à¦°à¦¤
Ġà¦Ĩ à§Łà¦¤
à¦¦ à¦§
Ġà¦¨ à¦ľ
Ġà¦® à¦ķ
Ġà¦® à¦°à¦®
à¦ª à¦Ń
à¦ľ à¦¤à¦¨
à¦¶ à¦ļ
Ġà¦ħ à¦ķà¦²
Ġà¦ħ à¦¯à¦¤
à¦§ à¦ª
à¦§ à¦°à¦¨
à¦£ à¦¶
Ġà¦Ĩà¦® à¦Ĺ
à¦ł à¦ª
Ġà¦§ à§ľ
à¦°à¦£ à¦ķ
à¦ľà¦¨ à¦¬
Ġà¦Ĩà¦¸ à¦ķ
Ġà¦ĩ à¦°
Ġà¦īà¦ª à§ľ
à¦®à¦£ à¦°
à¤ °
à§¦à§¦ à§¦
à¦ķà¦ĸà¦¨ à¦ĵ
à¦ĭ à¦£
éŁ¿éŁ¿éŁ¿éŁ¿éŁ¿éŁ¿éŁ¿éŁ¿ éŁ¿éŁ¿éŁ¿éŁ¿éŁ¿éŁ¿éŁ¿éŁ¿
º çľ
Ġ G
Ġ k
Ġ on
à§ĩ à¦ĥ
à¦¤ à¦ľà¦¬
à¦¬ à¦¦à¦¨
à¦¼ âĢĻ
Ġà¦¬ à¦īà¦ķ
Ġà¦¸ à¦ļà¦²
à¦¸ à¦®à¦¤
à¦Ł à¦¹
à§Ģ âĢĻ,
à¦ľ à¦ķà¦¨
Ġà¦ħ à¦ĸ
à¦§ à¦Ĺ
Ġà¦ī à¦¥à¦²
Ġà¦² à¦¨
à¦¬à¦° à¦¹
Ġà¦¸à¦¬ à¦ľ
Ġà¦ħà¦¬ à¦¯
Ġà¦ħà¦Ń à¦¯
Ġà¦ħà¦ª à¦¦
Ġà¦ıà¦¤ à¦Ĺ
Ġà¦¨à§Ł à¦¨
Ġà¦ķà¦® à¦¬
à§įâĢĮ -
à§° à¦®
à¦¿âĢĶ âĢľ
à¦¬à¦¶ à¦¤
à¦°à¦®à¦£ à¦ķ
à§¯à§ §
Ġà¦®à§Ł à¦²
Ġy ou
· çľ
Ġ à¥¥
à¦° à¦ļà¦¨
à§ģ :
à§ģ à§į
à¦¯ à¦ªà¦¥
à¦® à¦¹à¦²
à¦¼ à§ĭà¥¤
Ġà¦¸ à¦°à¦¬à¦°
à¦ĩ à¦¨à¦¬
Ġà¦¦ à¦²à¦¬
à¦ĸ à¦®à¦£
à¦· à¦°à¦£
à¦¥ à¦¯
à¦Ń à¦°à¦¶
Ġà¦² à¦ŀ
Ġà¦ħà¦¨ à¦¡
à¦°à¦£ à¦Ł
à¦Ĩ à¦ļà¦°à¦£
Ġà¦Ł à¦Ĺà¦¬à¦Ĺ
à¦·à¦£ à¦ĩ
à¦°à¦® à¦¤
Ġà¦Ĺà¦² à¦¦
Ġà¦¸à¦° à¦ŀ
à¦°à¦² à§Ł
à¦¦à§Ł à¦ķ
Ġà¦ķà¦® à¦ª
Ġà¦¸à¦®à§Ł à¦ĩ
Ġà§§à§¯à§ ¬
Ġà§§à§¯à§ ¯à§
Ġà¦°à¦¸ à¦Ĺ
Ġà¦· à§ľ
Ġà¦ĸà¦¸ à¦ĸà¦¸
Ġn e
il l
ºçľ ºçľ
o d
u re
à¦¬ à¦ľà¦Ĺà¦¤
à¦¼ à§ĭ,
Ġà¦® à¦«à¦¸
à§Ģ âĢĿ
à¦¶ à¦§à¦°
Ġà¦ħ à¦¹à¦°
à¦¼à§ĩ !
Ġà¦¯ à¦¤à¦¬
à¦¥ à¦Ł
Ġà¦ļ à¦ª
Ġà¦ļ à¦ĵà¦¡
Ġà¦ıà¦ķ à¦°à¦¤
à¦¼à¦¾ à¦Ĥ
à¦¼à¦¾ âĢĵ
Ġà¦² à¦Ł
à¦¬à¦¨ à¦ĩ
à¦ªà¦° à¦¬à¦°
à¦°à¦¬ à¦ļ
à¦Ĩ à¦°à¦ĵ
Ġà¦ķà¦¥ à¦ķ
à¦ĺ à¦¬
Ġà¦Ł à¦ªà¦ķ
à¦¬à¦ª à¦¤
à¦°à¦® à¦¯
à¦°à¦® à¦¬à¦°
à¦ħ à¦Ļ
Ġà¦¶à¦¤ à¦§à¦¨
Ġà¦Ĺà¦£ à¦ªà¦°
Ġà¦¦à¦¶ à¦ľà¦¨
à¦ļà§Ł à¦ĩ
Ġa re
it y
·çľ ·çľ
e m
Ġ he
à§ Ĺ
à¦¨ à¦¤à¦°
à¦² à¦ªà¦¤
à¦® à¦ªà¦¤
à¥¤ âĢ¦
à¦¶ à¦°à¦¤
Ġà¦ļ à¦Łà¦ķ
à¦ĵ à¦ª
à¦ĵ à¦Ĺ
Ġà¦« à¦°à¦¸
Ġà¦« à¦Łà¦ķ
Ġà¦ªà¦° à¦ªà¦°
Ġà¦Ĩà¦² à¦ªà¦¨
à¦ħ à¦¤à¦²
Ġà¦īà¦¦ à¦Ĺ
à¦¯à¦¬ à¦§
Ġà¦īà¦ª à¦ľ
à¦®à¦ķ à¦°à¦£
à¦ĩà¦² à¦Ł
à¦®à¦£ à¦ķ
à¦¬à¦ķ à¦¦
Ġà¦¦à¦¶ à¦®
à¤ ¤
à§ĩâĢ¦ âĢĿ
Ġà¦¦à¦Ĺ à¦¦à¦Ĺ
am e
à¦¨ à¦ªà¦¤
à¦¬ à¦Ĺà¦¤
Ġà¦¸ à¦ªà¦¨
Ġà¦¨ à¦¶
à¦¶ à¦Ńà¦ķ
Ġà¦¯ à¦¬à¦¨
Ġà¦ĵ à¦¨
Ġà¦« à¦¸
Ġà¦Ĩà¦° à¦¶
Ġà¦ĸ à¦¨à¦¨
à¦°à¦£ à¦Ĺ
à¦¤à¦° à¦¸
à¦²à¦ķ à¦§
Ġà¦®à¦° à¦Ľ
Ġà¦¬à¦ĩ à¦ªà¦¤
Ġà¦«à¦² à¦¸
à¦®à§Ł à¦¤
Ġà§§à§ ¯
à¦¨à¦¸ à¦ªà¦Ł
à¦Ĺà¦ľ à¦ªà¦¤
... âĢĿ
o p
à§į -
à¦¬ à¦®à¦¯
à¦¼ à§Ģà¥¤
Ġà¦¬ à¦¤
Ġà¦¸ à¦ĩ
Ġà¦¦ à¦¨
à¦ľ à§ľ
Ġà¦¯ à¦¬
Ġà¦ľ à¦®à¦ķ
à¦Ń à¦¬à¦¨
Ġà¦ıà¦ķ à¦Ŀ
Ġà¦¥ à¦°à¦¹à¦°
à¦ªà¦° à¦ķ
Ġà¦¸à¦¬ à¦²
à§Į à¥¤
à¦ĺ à¦¤à¦®
Ġà¦Ł à¦®
à¦ĥ âĢĵ
à¦¤à¦¨ à¦¦
Ġà¦ħà¦¸ à¦Ń
à¦¾à¦Ĥ ,
à¦¨à¦¬ à¦¸
à¦§à¦¨ à¦¹
à§įâĢĮ ,
Ġà¦Ĺà§ľ à¦¬
Ġà¦īà¦² à¦Ļ
Ġà¦Ĺà¦£ à¦¨
Ġà¦¶à¦¹ à¦°à¦ķ
à¦¸à¦¹ à¦ľ
Ġà§¨ à§«
à¦¬à§Ł à¦¸
Ġà¦ªà¦Ļ à¦ķ
Ġw e
Ġà¦ľà¦²à¦ķ à¦£
Â Ń
Ø §
à§ĩ à¦Ĥ
à¦¯ à¦¸à¦¨
à¦® à¦®à¦°
à¦® à¦īà¦¦
Ġà¦¬ à¦¦à¦¨
à¦¦ à¦ľ
Ġà¦ħ à¦°à¦¨
à¦§ à¦¨à¦¬
à¦¹ à§Ł
à¦ļ à¦ĩ
Ġà¦¶ à¦«
Ġà¦ıà¦ķ à¦Ń
Ġà¦« à¦°à¦®
Ġà¦« à¦²à¦ķ
Ġà¦§ à¦ķ
à¦ªà¦° à¦¦
à¦°à¦¦ à¦ķ
à¦¯à¦® à¦Ĺ
Ġà¦īà§İ à¦ªà¦¨
Ġà¦°à¦ķà¦® à¦ĩ
à¦ĭ à¦¤
à¦Ĩà¦§ à¦Ł
Ġà¦®à§Ł à¦¦
âĢķ âĢķ
* *
n t
u b
à¦¨ à¦¬à¦¨
à§ģ à¥¤âĢĿ
à¦¬ à¦¸à¦®
à¦® à¦°à¦ķ
Ġà¦¬ à¦Ľ
à¦ª à¦¬à¦¯
Ġà¦ı à¦¯
Ġà¦ı à¦ľà¦¨
à¦§ à¦ķà¦°
à¦¹ à¦°à¦¨
à§ĥ -
Ġà¦ıà¦ķ à¦¸à¦®à§Ł
à§ĩ, -
Ġà¦ĵ à¦°à¦ķà¦®
à§ľ à¦¸
Ġà¦¬à¦² à¦ļ
Ġà¦Ł à¦ª
Ġà¦Ł à¦²à¦¤
à¦ħ à¦Łà¦²
à¦¸à¦¬ à¦ĸ
à¦¤à¦¬ à¦¡
Ġà¦ķà¦¤ à¦ĩ
Ġà¦ªà¦¦ à¦¬
à¦¤à¦® à§Ł
ĠâĢĶ âĢĿ
à¦®à§Ł à¦ķà¦°
Ġà¦¶à¦¤ à¦¬à¦°
Ġà¦¨à¦¬ à¦ľà¦¨
à§§à§ ©
à¦®à¦Ľ à¦®
ĠT he
t h
à§ĩ .
à¦¤ à¦Ŀà¦°
à¦² à¦®à¦£
à¦¬ à¦ķà¦Ł
à¦¯ à¦¤à¦°
Ġà¦¬ à¦ļ
à¦¸ à¦°à¦¤
à¦¦ à¦°à¦®
à¦ĩ à¦¹
Ġà¦¦ à¦¹
à¦ľ à¦ĸ
à¦ľ à¦°à¦£
Ġà¦ı à¦ľ
Ġà¦ħ à§Łà¦¨
Ġà¦ħ à¦¯à¦¥
à¦· à¦¤à¦¬
à¦¹ à¦Ĺ
à¦ļ à¦¤à¦°
à¦¡ à¦¶
Ġà¦ľ à¦¹
à¦Ń à¦°à¦¯
Ġà¦Ĩà¦® à¦¦
Ġà¦ī à¦ĩ
à¦¼à¦¾ ?
Ġà¦¥ à¦ĩ
Ġà¦ªà¦° à¦ª
à¦°à¦£ à¦ĵ
Ġà¦ıà¦ĩ à¦¤
à¦ī à¦ªà¦¨
à¦¬à¦° à¦Ł
Ġà¦Ĩà¦² à¦ĸ
à¦ı à¦ķà¦²
à¦Ĩ à¦Ľ
à§Ī à¦ĥà¥¤
à¦ıà¦ĩ à¦Ń
à§Ģà¥¤ âĢĻ
Ġà¦Ĳ à¦¨
à¦¿! âĢĻ
à¦ķà¦Ľ à¦Ł
a b
r i
Ġ K
à¦¯ à¦¬à¦¨
à¦¯ à¦Ŀ
Ġà¦ķ à¦¶
Ġà¦ķ à¦¦à¦°
Ġà¦ª à¦¬à¦¨
Ġà¦ª à¦Łà¦²
Ġà¦Ĩ à¦ĵà§ľ
Ġà¦® à¦¦à¦¨
à¦Ł à¦°à¦ķ
à§Ģ ?âĢĿ
Ġà¦¹ à¦ĩà¦¯
Ġà¦ı à¦Ĩà¦ĩ
à¦¥ à¦¶
Ġà¦ľ à¦Łà¦²
Ġà¦« à¦²à¦¨
Ġà¦¬à¦² à¦¯
Ġà¦§ à¦¬à¦²
à¦ı à¦¨
Ġà¦ķà¦¥ à¦ŀ
Ġà¦ħà¦¬ à¦®
Ġà¦ªà¦¥ à¦ĺ
Ġà¦¬à¦¸ à¦Ľ
à¦ħ à¦Ł
Ġà¦Ĩà¦ľ à¦¬
Ġà¦ħà¦¸ à¦¨
Ġà¦ħà¦ª à¦¸
Ġà¦¬à¦ĩ à¦ĸ
Ġà¦¨à¦¬ à¦¬à¦§
Ġà¦īà§İ à¦«
à§§à§ ®
Ġà§¨ à§¯
Ġà¦Ĩà¦ĩà¦¨ à¦¸
Ġà¦®à¦¶ à¦Ĺ
it h
es s
à¦¦à¦°à¦® à¦¹à¦²
i ve
à¦¤ à¦ľà¦¨
à§ģ âĢ¦
à¦¬ à¦ĸ
à¦® à§İ
à¦® à¦ļà¦°
à¦¼ !âĢĿ
à§ĭ âĢĻ,
Ġà¦ķ à¦ľà¦¨
à¦Ł à¦ķà¦°
Ġà¦ħ à¦¤à¦°
âĢ ¢
Ġà¦° à¦ª
Ġà¦° à¦ľà¦¤
Ġà¦° à¦£à¦ķ
à§Ĥ à¦ģ
Ġà¦ī à¦¸
Ġà¦ĵ à¦®
Ġà¦ĵ à¦²à¦Ł
Ġà¦ĸ à¦Łà¦ķ
Ġà¦ªà¦° à¦°
Ġà¦ĺ à¦°à¦®à§Ł
Ġà¦®à¦¨ à¦ĸ
à¦ªà¦° à¦¶
à¦Ĩ à¦Ł
Ġà¦ªà¦¥ à¦ĩ
à¦°à¦¸ à¦®
à¦ªà¦¦ à¦¬
à¦ĩà¦¨ à¦Ĺ
à¦¼à§ĭ -
à¦¤à¦ķ à¦£
à§° à¦ľ
Ġà¦ķà¦ĸà¦¨à¦ĵ à¦ĩ
Ġà¦īà§İà¦¸à¦¬ à¦®
à¦Ĺà¦® à¦ŀ
Ġà§§à§¯à§ ¯à§¦
Ġà§© à§¦
Ġà¦®à¦Ĺ à¦§
ou s
à¦Ĺà¦ª à§İ
Ġe mail
ĠR e
q u
y a
à¦° à¦ªà¦¥
à¦¨ à¦¸à¦¨
à¦² à¦ľà¦¯
à¦¯ à¦¨à¦¤
à¦¯ à¦®à¦£
à¦® à¦Ļ
Ġà¦ķ à¦ļà¦ķ
Ġà¦ķ à¦¨à¦Ł
Ġà¦¸ à§Ł
Ġà¦¹ à¦ľà¦®
à¦ĸ à¦ª
à¦· à¦ªà¦¥
à¦Ĺ à¦²à¦ķ
Ġà¦¶ à¦ª
Ġà¦ľ à¦¤
Ġà¦Ń à¦²
à¦Ń à¦§
Ġà¦Ľ à¦®à¦Ľà¦®
Ġà¦ī à¦¹
à¦¾à¦ģ ?
Ġà¦« à¦¸à¦ķ
à¦°à¦¤ à¦ķ
Ġà¦ĸ à§ľà¦ķ
à¦¬à¦¨ à¦¸à¦Ļ
âĢĻ ;
à¦°à¦¬ à¦Ĺ
à¦« à¦ķ
à¦¬à¦ª à¦ķ
à¦ħ à¦ŀ
à¦¤à¦¨ à¦¶
Ġà¦ħà¦¸ à¦®à¦¯
Ġà¦Ĩà¦¨ à¦Ĺ
à¦°à¦¥à¦® à¦Ł
à¦¨à¦ĵ à¦ķ
Ġà§ ¯à§
à¦ıà¦ĩ à¦Ł
Ġà¦ķà¦® à¦Ľ
Ġà¦ĵà¦ĩ à¦¸à¦¬
à¦¬à¦¬ à¦Ļ
à§ģà¥¤ âĢĻ
Ġà¦ıà¦¨ à¦ľ
à¦Ŀà¦² à¦®à¦²
is t
ou r
om ment
ro w
ĠĠĊĠĠ Ġ
Ġà¦¤à¦°à¦« à¦¦
à§ĩ à§Ĺ
à¦° à¦®à¦¨
à¦° à¦ĺà¦°
Ġà¦ķ à¦®à¦¤
Ġà¦ª à§Ł
Ġà¦Ĩ à¦ĩà¦²
Ġà¦Ĩ à¦īà¦Ł
à¦Ľ à¦¯
à¦ĸ à¦ĩ
à¦ĸ à¦ĵ
à¦Ĺ à¦§
à¦¹ à¦¹
à¦£ à¦®à¦¯
à¦¥ à¦Ń
Ġà¦ľ à§Łà¦¨
Ġà¦ľ à¦ĺà¦¨
Ġà¦° à¦®à¦¨
à¦ĵ à¦¹
à¦Ń à¦Ĺ
à¦Ļ à¦Ľ
Ġà¦§ à¦®à¦¨
à¦®à¦¨ à¦ķ
à¦ľà¦¨ à¦®
à¦ı à¦Ľ
à¦ı à¦°à¦ªà¦°
Ġà¦Ł à¦¬
Ġà¦ħà¦¬ à¦¤à¦°à¦£
à¦°à¦® à¦¬
Ġà¦ħà¦® à¦Ļ
Ġà¦Ĩà¦ķ à¦¬à¦°
à¦°à¦¸ à¦Ń
à¦¨à¦ĵ à¦®à¦¤
Ġà¦ħà¦ª à¦ķ
Ġà¦ħà¦ª à¦Ľà¦¨
à¦ĩà¦¨ à¦Ł
Ġà¦ĭ à¦ľ
Ġà§¨ à§Ń
Ġà¦ķà§Ł à¦²
Ġa s
u p
à¦¨ à¦ľà¦Ł
à¦¬ à¦ķà¦°
à¦¯ à¦Ĺà¦¤
à¦¯ à¦Łà¦¨
à¦¼ à¦ĥà¥¤
Ġà¦¬ à§İà¦¸
Ġà¦¬ à¦īà¦Ł
Ġà¦¸ à¦°à¦¬
Ġà¦¸ à¦²à¦ľ
à¦¸ à¦ł
Ġà¦Ĩ à¦ĩà¦¸
Ġà¦® à¦ł
à¦ª à¦®à§Ł
Ġà¦ħ à¦ķà¦°
à¦Ĺ à¦Ńà¦Ļ
à¦¹ à¦ķà¦°
à¦ļ à¦ŀ
Ġà¦ıà¦ķ à¦¤à¦²
à¦ł à¦Ł
à¦¤à¦° à¦ª
à¦Ŀ à¦²à¦¸
à¦ķà¦² à¦Ļ
Ġà¦īà¦¦ à¦°
Ġà¦ľà¦² à¦ĸ
à¦²à¦¬ à¦§
Ġà¦ħà¦ª à¦ļà¦¯
à§İà¦¸ à¦²
Ġà¦ļà¦Ł à¦ªà¦Ł
re d
à§ĭ! âĢĻ
Ġà¦¸à¦« à¦Łà¦ĵà¦¯
à¦ıà¦®à¦¨ à¦ķ
Ġs t
Ġà¦ľà¦¨à¦¸ à¦ļ
Ġth at
d s
u m
» ¿
ï »¿
à¦¨ à¦°à¦®
à¦¨ à¦ľà¦°
à¦¤ à¦ªà¦ķ
à¦² à¦ķà¦Ł
à¦¯ à¦¸à¦Ļ
à¦® à¦·
à¦® à¦¥
à¦® à¦®à¦¯
à§ĭ âĢĻà¥¤
Ġà¦¬ à¦Ĺà¦²
à¦¸ à¦¹à¦¸
Ġà¦® à¦°à¦²
à¦ª à¦¬à¦¤
Ġà¦¹ à¦ĩà¦¨
Ġà¦ı à¦¹
à¦Ĺ à¦°à¦®
à¦¹ à¦®à¦¨
à¦¥ à¦¬à¦¹
Ġà¦Ń à¦¬à¦¤
Ġà¦ļ à¦ªà¦²
Ġà¦ıà¦ķ à¦«
Ġà¦² à¦°
Ġà¦¬à¦² à§Ł
Ġà¦Ł à¦¹à¦²
Ġà¦Ŀ à¦°à¦£
Ġà¦ĩ à¦¬
Ġà¦ªà¦¥ à¦°
à¦ħ à¦¸à¦¹
à¦ħ à¦¥à¦¬
à¦¬à¦¤ à¦®
Ġà¦ľà¦² à¦Ľà¦¬
à¦Ĺà¦¤ à¦®
à¦¨à¦¬ à¦®à¦¨
à¦²à¦¤ à¦²
Ġà¦ĺà¦° à¦Ĺ
à¦Ĺà¦² à¦Ł
à¦¸à¦¨ à¦ķ
à¦·à¦¤ à¦Ĺ
Ġà¦ĵà¦ĩ à¦Ł
Ġà¦ĵà¦ĩ à¦ĸ
Ġà¦ĩà¦¨ à¦«
à¦¨à¦Ł à¦¨
à¦°à¦ľà¦¨ à¦¨
à¦łà¦ķ à¦ĸ
à¤ ¿
he r
Ġw ith
à¦¿âĢ¦ âĢĿ
Ġà¦¸à¦°à¦¸ à¦¤
a p
à¦¤ à¦¦à¦¨
à¦¤ à¦ļà¦ķ
à¦ķ à§Ł
à¦¯ à¦°à¦¶
à¦¯ à¦ľà¦¨à¦ķ
à¦® à¦°à¦¤
à¦® à¦®à§Ł
à§ĭ âĢ¦âĢĿ
Ġà¦¸ à¦¶à¦¸
Ġà¦ª à¦łà¦¨
Ġà¦Ĩ à¦¤à¦°
Ġà¦Ĩ à¦ĵà¦¤
à¦ª à¦ĸ
Ġà¦¤ à¦¬à¦²
Ġà¦¤ à§İà¦ªà¦°
à§Ł à¦Ń
à¦ĸ à¦¶
à¦ļ à¦®à¦ķ
à¦£ à¦«
Ġà¦Ĺ à¦®à¦¨
Ġà¦Ĺ à¦ľà¦²
à¦¡ à¦¬à¦Ń
Ġà¦ľ à¦łà¦°
Ġà¦ıà¦ķ à¦ĺ
à¦¼à¦¾ âĢĻ
à§ľ à¦Ĺ
Ġà¦² à¦ķà¦²à¦ķ
à¦¬à¦¨ à¦¸
à¦°à¦£ à¦®à¦¯
à¦« à¦¤
Ġà¦Ł à¦¨à¦Łà¦¨
Ġà¦ľà¦¨ à¦¸à¦®
à¦°à¦® à¦ľ
Ġà¦Ĩà¦ªà¦¨ à¦ľà¦¨
à¦¯à¦¤ à¦ĩ
Ġà¦īà¦ª à¦¡
Ġà¦ªà¦¦ à¦¤à¦²
Ġà¦Ńà¦¬ à¦ĺ
à¦Ŀà¦° à¦Ŀà¦°
Ġà§§à§¯à§ ¨
à¦ıà¦ĸà¦¨ à¦ĩ
re s
Ġà¦Ńà¦°à¦¤ à¦¬
Ġà¦·à§ľ à¦¯à¦¨
g e
h t
l d
à¦¯ à¦¯à¦¨
à¦® à¦¸à¦¨
Ġà¦¬ à¦ķà¦¬
Ġà¦Ĩ à¦ªà¦¸
à¥¤ [
Ġà¦¨ à¦ª
à§Ģ âĢĻà¥¤
Ġà¦¤ à¦°à¦£
Ġà¦¤ à§İ
à¦ĸ à¦¦
à¦§ à¦ªà¦°
à¦¡ à¦ĩ
Ġà¦ļ à¦¬
Ġà¦« à§ľ
Ġà¦ĸ à¦¤
Ġà¦ħà¦¨ à§ľ
Ġà¦¸à¦® à¦¬à¦¯
ĠâĢ Ļ
à¦°à¦£ à§Łà¦¨
à¦°à¦¬ à¦¸
à¦°à¦¬ à¦®à§Ł
à¦ī à¦¹
à¦ı à¦®
à¦Ĩ à§Ł
Ġà¦Ŀ à¦°à¦¤
à¦¨à¦¤ à¦²
à¦ħ à¦¬à¦¸
Ġà¦ħà¦¸ à¦Ļ
Ġà¦Ĩà¦Ĺ à¦¸
à¦§à¦¨ à¦ĩ
Ġà¦¸à¦¹ à¦ľà¦²
à¦ıà¦ĩ à¦¬
Ġà¦¶à¦¹à¦° à¦Ł
à§Ģà¥¤ âĢĿ
Ġà¦Ńà§Ł à¦ķ
à¦¸à¦¹ à¦¦
Ġà§§à§¯à§ ©
à§§à§ Ń
Ġt im
an t
in d
à¦ķà¦ľà¦¨ à¦ķ
Ġà¦· à¦·
on g
Ġà¦Ķ à¦·à¦§
Ġà¦Ĩà¦« à¦ľ
ou t
Ġth is
ĠĠĠĠ ĠĠĠĠ
Ġà¦ķà¦¨à¦ķ à¦¨
Ġà¦¸à¦ĸà¦¨ à¦ĵ
Ġà¦¸à¦¹à¦ľà¦² à¦Ń
e ct
i f
l a
Ġ "
Ġ Y
Ġ Ø
Ġ an
Ġ or
à¦¯ à¦ĸ
Ġà¦ķ à¦ļà¦²
Ġà¦¸ à¦°à¦£
Ġà¦¸ à¦Ĺà¦°
Ġà¦¸ à¦ļà¦ķ
Ġà¦Ĩ à¦ªà¦¦
à¥¤ à¥¤
à¦¦ à¦°à¦¬
à¦Ł à¦ļ
Ġà¦¤ à¦®à¦¸
à¦¶ à¦¤à¦²
à¦ĸ à¦Ń
à¦· à¦ķà¦¤
à¦ļ à¦ķà¦°
Ġà¦° à¦¸à¦¨
à¦ĵ à¦ľ
à¦Ń à¦®
Ġà¦ıà¦ķ à¦®à¦¤
à¦¼à¦¿ âĢĶ
à¦¬à¦° à¦¦
à¦« à§ľ
à¦·à¦£ à¦®
à¦·à¦£ à¦Ĺ
à¦°à¦® à¦ķ
Ġà¦Ĩà¦ķ à¦£
à¦¦à¦¯ à¦¨
Ġà¦ľà¦² à¦°à¦Ļ
à¦¿à¦Ĥ âĢĻ
à¦¯à¦¤ à¦ķ
à¦®à¦¤ à¦²
à¦®à¦ķ à¦¥
à¦®à¦² à¦Ĺ
à¦¶à¦¨ à¦ķ
Ġà¦ħà¦§ à¦¸
Ġà¦ħà¦ľ à¦ª
à§ģà¦ĥ à¥¤
à¦¾âĢĻ âĢĶ
Ġà§§à§¯à§ §à§
à§§à§ ª
Ġà§¨ à§®
Ġà¦Ĩà§ľ à¦®
à¦°à¦« à¦¤
à§İà¦ª à¦°à¦¤
Ġc on
Ġd e
Ġtim e
a ve
i p
Ġ V
à¦° à¦§à¦°
Ġà¦¸ à¦¶à¦°
à¥¤ )
à¥¤ âĢĺ
Ġà¦¨ à¦Ĺà¦£
Ġà¦® à¦Ł
à¦Ł à¦¶
à¦ĩ à¦ªà¦°
à¦¶ à¦®à¦£
Ġà¦ı à¦¨à¦ķ
à¦£ à¦®à§Ł
Ġà¦¶ à¦°à¦¬à¦¤
Ġà¦Ń à¦°à¦£
à¦Ń à¦¤
Ġà¦ĸ à¦ª
Ġà¦§ à¦ª
à¦¤à¦° à¦®
à¦« à¦²à¦ķ
à¦ĺ à¦Ľ
Ġà¦ľà¦¨ à¦¶
à¦°à¦¹ à¦¸à¦¨
Ġà¦ħà¦¤ à¦Ł
à¦¨à¦¬ à¦ķ
à¦Ĺà¦² à¦¬
Ġà¦¬à¦ĩ à¦¬
Ġà¦¬à¦ĩ à¦®
Ġà¦«à¦² à¦ª
à¦¶à¦ķ à¦¦
Ġà¦¶à¦¤ à¦ªà¦¥
Ġà¦¤à¦² à¦¦
Ġà¦¦à¦² à¦Ł
Ġà¦ĸà¦¬à¦° à¦¦
à§¨ à§¦
Ġà¦ªà¦°à¦® à¦¸à¦¤
Ġà§¨ à§¬
à¦ķà¦¸ à¦ľ
Ġà¦Ĭ à¦¨
à§¯à§ ®
à¦¯à¦ĸà¦¨ à¦ĩ
Ġà¦Ķ à¦ľ
ĠI nd
Ġ* **
Ġà¦Ĩà¦ĩ à¦¸à¦ķ
Ġà¦ľà¦¨à¦Ĺ à¦£à¦ķ
Ġha ve
. âĢĿ
i v
s e
Ù Ħ
Ġ U
Ġ v
Ġ à§ľ
Ġ ro
à¦¨ à¦°à¦ķ
à¦ķ à¦ļà¦ķ
à§ģ à§ģ
à§ĭ âĢĿ
Ġà¦¬ à¦°à¦ķ
Ġà¦¸ à§İà¦ķ
Ġà¦¸ à¦ļà¦°
à¦¸ à¦ĸà¦¨
à¥ ĩ
Ġà¦® à¦ľà¦²
à¦ĩ à¦ħà¦ķ
Ġà¦ħ à¦ĺà¦Łà¦¨
à¦· à¦°à¦¤
à¦ļ à¦Ĺ
Ġà¦Ĺ à¦ª
Ġà¦¶ à¦Ł
à¦ĵ à¦®
Ġà¦ī à¦¸à¦ķ
Ġà¦² à¦¸
Ġà¦§ à¦ķà¦²
à¦¬à¦¨ à¦ªà¦¥
âĢĻ âĢĵ
à¦¬à¦² à§Ł
Ġà¦Ŀ à¦²
Ġà¦Ŀ à¦°à¦¬
Ġà¦ĩ à¦¤à¦°
à¦·à¦£ à¦ľà¦¨
à¦°à¦¸ à¦¹
à¦²à¦ķ à¦¨
Ġà¦¬à¦° à¦¦
à¦Ĺà¦¤ à¦ķ
à¦¨à¦¬ à¦¸à¦Ń
Ġà¦Ĩà¦¤ à¦¤
Ġà¦ħà¦ª à¦ļà§Ł
à¦°à¦ľ à¦²
à§İà¦¸ à¦®
Ġà¦ħà¦¥ à¦°
à¦ıà¦ĩ à¦ļ
à¦ªà¦¥ à¦Ĺ
à¦¤à¦ķ à¦°à¦£
ĠâĢĶ âĢĶâĢĶ
à¦ľà¦² à¦°
à¦ľà¦² à¦¦
Ġà§§à§ ¯à§¦
à¦Łà¦¤ à¦ĩ
Ġà¦ıà¦¸à¦¬ à¦ĩ
à¦·à§Ł à¦Ĺ
à§§à§ ¯
Ġà¦¹à¦ĩ à¦ļà¦ĩ
Ġà¦¸à§İ à¦¤
Ġà¦ĸà¦¸ à¦¡
Ġb y
Â·Â· Â·
æŃĵæŃĵæŃĵæŃĵ æŃĵæŃĵæŃĵæŃĵ
Ġà¦¦à¦²à¦¬ à¦¦
) -
l is
à§ĩ ),
à¦° à¦ĵà¦¯
à¦¬ à¦ī
à¦¬ à¦īà¦¦
à¦® à¦¶à¦ķ
à¦® à¦«à¦²
Ġà¦¬ à¦ĩà¦²
Ġà¦¸ à¦¦à¦¯
Ġà¦¸ à¦ĩà¦¬
Ġà¦® à¦Łà¦ķ
à¦ľ à¦ľ
à¦ľ à¦ĸà¦¬à¦°
à¦¶ à¦¤à¦ķ
à¦Ĺ à¦°à¦¦
à¦£ à¦Ńà¦°
à¦¡ à¦ļ
à¦¡ à¦īà¦ĩ
Ġà¦ļ à¦°à¦ķ
Ġà¦° à¦ļà¦¯
Ġà¦¬à¦² à¦ª
à¦¬à¦¨ à¦ľ
à¦¬à¦¨ à¦ĵ
à¦°à¦¬ à¦ŀ
à¦¤à¦° à¦Ĺ
à¦ı à¦¸à¦¸
à¦ĺ à¦¦à¦²
Ġà¦ĩ à¦īà¦Ł
Ġà¦ªà¦¥ à¦¹
Ġà¦¬à¦¸ à¦¤à¦¬
Ġà¦Ĩà¦¬ à¦¹à¦®
à¦¤à¦¬ à¦¬
à¦°à¦¸ à¦¤
à¦²à¦ķ à¦ļ
Ġà¦ªà§ľ à¦¶
à§ĩâĢĶ âĢĻ
Ġà¦¸à¦¹ à¦¬
à¦ªà¦¦ à¦¸
Ġà¦īà¦¤ à¦²
à¦¤à¦ķ à§ľ
à¦ªà¦ķ à¦Ń
à§° à¦ķ
à¦°à¦Ĺ à¦£
à¦ķà¦ķ à¦¥
à§¨ à§¨
à¦®à¦Ł à¦®
Ġt r
à¦ıà¦ĸà¦¨ à¦ĵ
Ġà¦¨à¦Ĺ à¦¦
à¦·à¦¸ à¦¦
es t
Ġm an
Ġà¦Ķà¦°à¦¸ à¦ľ
o re
x t
Ġ Ð
Ġ it
à¦¾ ),
à¦° à¦Ĩà¦¨
à¦¤ à¦ªà¦¸
à¦² à¦ļà¦°
à¦ķ à¦Ŀ
à¦ķ à¦Ĩà¦ª
à§ģ )
à¦¼ âĢĿ
Ġà¦ķ à¦¬à¦¨
Ġà¦ķ à¦ĩà¦°
Ġà¦¸ à¦¸à¦®
Ġà¦Ĩ à¦ĩà¦Ł
à¦¦ à¦ĸ
à¦¦ à¦ļ
Ġà¦¨ à¦¬à¦°
Ġà¦® à¦°à¦¦
Ġà¦® à§Łà¦¨
à¦Ł à¦§à¦°
Ġà¦¤ à§İà¦ªà¦°à¦¤
à¦ľ à¦ļ
à¦ľ à¦§à¦°
à¦Ľ à¦¸
à¦¶ à¦®à¦¨
à¦ĸ à§ľ
à¦ļ à¦£
à¦¥ à¦°à¦Ł
Ġà¦ľ à¦¬à¦°
à§ĩà¥¤ âĢ¦
Ġà¦ıà¦ķ à¦ķà¦¥
à¦ł à¦Ń
à¦ł à¦Ĺà¦¡
à¦¼à¦¾ ;
Ġà¦² à¦Ń
à¦¬à¦¨ à¦¦à¦°
Ġà¦¸à¦® à¦Ń
Ġà¦ĺ à¦°à¦ķ
à¦ªà¦° à¦¸
à¦ľà¦¨ à¦ĵ
à¦¬à¦° à¦Ĺ
à¦Ĩ à¦īà¦Ł
à¦ĺ à¦Ĺ
Ġà¦Ł à¦¨
à¦·à¦£ à¦¶
Ġà¦ªà¦¥ à¦Ĺ
à¦ħ à¦°à¦¬
à¦¸à¦¬ à¦ľ
à¦ķà¦Ł à¦¬à¦°
à¦°à¦¥ à¦ķ
à¦ķà¦¤ à¦ķ
à¦°à¦¥à¦® à¦¦
à¦¯à¦¤ à¦¦
à¦°à¦¶ à¦¬
Ġà¦ħà¦ľ à¦°
Ġà¦¶à¦¤ à¦¦
Ġà¦¸à¦®à§Ł à¦ķ
Ġà¦ĩà¦¨ à¦ľ
à¦Łà¦¬ à¦ĩ
Ġà§¨ à§©
à¤ ²
à¤ ķ
Ġà¦Ńà¦Ĺ à¦¬à¦¦
Ġw as
Ġw ill
Ġs e
à§ĩâĢĿ âĢĶ
à¦Ĭ à¦°
Ġà¦§à§ľ à¦«à§ľ
Ġà¦¬à¦ķà¦¬ à¦ķ
! )
, âĢĶ
1 0
r om
t er
Ġ un
à¦° à¦§à¦¨
à¦¤ à¦®à¦¨
à¦¤ à¦ķà¦¤
à¦ķ à¦ĺà¦°
à¦ķ à¦¶à¦ª
à¦¬ à¦ļà¦ķ
à¦¬ à¦ĩà¦¯
à¦¯ à¦¦à¦²
à¦¼ à§ģ-
Ġà¦ķ à¦®à¦¨
Ġà¦Ĩ à¦ĩà¦Ľ
à¦¦ à¦°à¦ķ
à¦¦ à¦¹à¦¨
Ġà¦¨ à¦¬à¦¦
Ġà¦® à§ľ
Ġà¦® à§ľà¦ķ
Ġà¦¦ à¦ĸ
à¦§ à¦®à§Ł
à¦¹ à¦ľà¦¨à¦ķ
Ġà¦Ĺ à¦«
Ġà¦ļ à¦·
à¦ĵ à¦¸à¦¬
Ġà¦ıà¦ķ à¦²à¦¬
à¦ł à¦Ĺ
à¦ł à¦¹
Ġà¦ī à¦Ĺà¦°
Ġà¦ĸ à¦ŀ
Ġà¦ħà¦¨ à¦¤
âĢĶ -
à¦¬à¦¨ à¦¬à¦¤
à¦°à¦£ à¦ĩ
à¦ŀ à¦¸
à§İ à¦ķà¦°
à¦¤à¦° à¦ŀ
à¦¤à¦° à¦«
à¦Ŀ à¦Ľ
à¦°à¦ķ à¦£
Ġà¦ķà¦¥ à¦¨
Ġà¦¡ à¦°
Ġà¦ľà¦¨ à¦¸à¦Ń
Ġà¦ĵà¦ł à¦¬
à¦ķà¦° à¦¦
Ġà¦īà¦¦ à¦ĺ
à¦²à¦ķ à¦¦
à¦¯à¦¬ à¦ĩ
à¦¨à¦¬ à¦ķà¦²
Ġà¦Ĩà¦ªà¦¨ à¦ķ
à¦Ĺà¦² à¦¬à¦¨
Ġà¦Ĩà¦¤ à¦¶à¦¬
Ġà¦ıà¦¤ à¦ĸ
à¦ªà¦¤ à¦Ļ
à¦°à¦² à¦¸
Ġà¦ħà¦Ĺ à¦£à¦¨
à¦¬à¦ķ à¦ķ
Ġà¦¶à¦¤ à¦ķà¦°
Ġà¦Ĩà¦§ à¦ª
à¦¥à¦° à¦Ĺ
Ġà¦¬à¦Ł à¦¤à¦²
à¦¼âĢĶ âĢľ
Ġà¦¦à¦¶ à¦°à¦¥
à¦°à¦¬à¦² à¦Ń
à¤ ¨
à§« à§¦
à§ĩâĢ¦ à¥¤
en d
Ġa d
or y
Ġà¦¨à¦ľ à¦°à¦¦
à¦ĵà¦ľ à¦«
a in
a ut
c i
o g
à¦¨ à¦ĺ
à¦¤ à¦§à¦¨
à¦¤ à¦®à¦¤
à¦¤ à¦ªà¦¦
à§ģ !âĢĿ
à¦® à¦ļà¦ķ
à¦¼ )
Ġà¦¸ à¦¶à¦¬
Ġà¦ª à¦ļà¦¨
Ġà¦¨ à¦ĸà¦°
à¦ĩ à¦ŀ
à¦¶ à¦ĵà¦¯
à§Ł à¦Ł
à¦· à¦°à¦¹
à¦§ à¦Ĺà¦®
à¦£ à¦¬à¦°
à¦£ à¦ªà¦ķ
à¦¡ à¦ľ
Ġà¦ľ à¦®à¦²
Ġà¦Ń à§ľà¦ķ
à¦Ń à¦²
Ġà¦ĵ à¦¬
Ġà¦ĵ à¦§
Ġà¦² à¦ĩà¦¯
Ġà¦« à¦¸à¦«
Ġà¦ĸ à§Ł
Ġà¦¬à¦² à¦Ł
Ġà¦ħà¦¨ à¦Ń
à¦¬à¦¨ à¦ª
à¦ŀ à¦ª
à§İ à¦¸à¦¨
à¦¬à¦² à¦°
Ġà¦ĩ à¦¡
Ġà¦ªà¦¥ à¦¨
Ġà¦ªà¦¥ à¦Ń
à¦¤à¦¨ à¦ķ
Ġà¦¢ à¦ķ
à¦²à¦ķ à¦ķ
à¦²à¦ķ à¦Ń
Ġà¦ħà¦Ń à§Ł
Ġà¦ĺà¦° à¦¦
Ġà¦Ĩà¦¤ à¦°à¦¬
Ġà¦ħà¦ª à¦Ł
à¦·à¦¤ à¦²
Ġà¦¹à¦ł à¦ķ
Ġà¦ªà¦¦ à¦¶à¦¬
à¦¤à¦² à¦Ł
Ġà¦Ĳ à¦°
Ġà¦«à¦² à¦®
Ġà¦¸à¦¹à¦ľ à¦Ń
à¦¨à¦Ń à¦Ļ
à§§à§ «
Ġà¦Ĩà§ľ à¦ļ
he d
at h
Ġà¦ķà¦¬à¦° à¦¸
Ġa m
ar t
Ġn o
le ct
id e
à¦¡à¦īà¦ĩ à¦ļ
! !
c k
à¦° à¦¡
à¦° à¦Ĺà¦²
à§į âĢį
à¦¿ âĢĿà¥¤
à¦¨ à¦ľà¦¨à¦ķ
à¦² à¦§
à¦² à¦¸à¦¨
à¦² à¦Ńà¦°
à¦ķ à¦°à¦¬
à¦¬ à¦¦à¦°
Ġà¦¸ à¦¶
Ġà¦¸ à¦ĵà¦¦
à¦¸ à¦ĵà¦¯
à¥¤ âĢĵ
Ġà¦¦ à¦¦
Ġà¦¦ à¦ĩà§Ł
à¦ľ à¦²à¦¬
à§Ł à¦ĵ
à¦· à¦¬à¦°
à¦Ĺ à¦°à¦ķ
à¦¹ à¦ĵ
à¦ļ à¦Ń
à¦ļ à¦²à¦¨
à¦ļ à¦²à¦¬
Ġà¦ķà¦° à¦¨
Ġà¦ķà¦° à¦ļ
Ġà¦Ĺ à¦ŀ
à¦¡ à¦¦
à¦¡ à¦«
à¦¥ à¦¦
Ġà¦¶ à¦ķà¦Ł
à¦Ń à¦Ĺà¦¬
Ġà¦ıà¦ķ à¦§à¦°à¦¨
à¦ł à¦ľ
à¦¾à¦ģ à¥¤âĢĻ
Ġà¦ĸ à¦¤à¦®
Ġà¦¬à¦² à¦¦
Ġà¦§ à§°
à¦¬à¦¨ à¦°
à¦¤à¦° à¦ĵ
Ġà¦Ĩà¦² à¦«
à¦ĺ à¦Łà¦ķ
Ġà¦¹à¦² à¦ĺà¦°
ĠâĢĺ âĢĺ
à¦·à¦£ à¦ĵ
Ġà¦ªà¦¥ à¦ĵ
Ġà¦Ĩà¦ľ à¦®
à¦°à¦¹ à¦°à¦£
à¦²à¦¨ à¦¸
à¦¦à§Ł à¦¸
à¦ıà¦ĩ à¦°à¦ķà¦®
Ġà¦ªà¦¦ à¦¸
âĢĮ à§į
Ġà¦¬à¦ĩ à¦ķ
à§° à¦Ń
Ġà¦¶à¦¤ à¦¶
Ġà¦Ĩà¦§ à¦ĸ
Ġà¦¦à¦² à¦Ĺà¦¤
Ġà¦Ĺà¦£ à¦ľ
Ġà¦§à¦¨ à¦¸à¦®
Ġà¦ħà¦¸à¦® à¦ŀ
in e
Ġà¦ħà¦¹ à¦°à¦¹
à¦Ī à¦¦
à¦¾âĢĿ âĢĶ
Ġl o
Ġà¦ķà¦ªà¦Ł à¦¤
ik e
res s
? âĢĶ
h ar
i an
r y
Ġ =
Ġà¦ £
à¦¨ à¦§
à¦¨ à¦®à¦¤
à¦¨ à¦ļà¦°
à¦¤ à¦«
à¦¤ à¦®à¦¯
à¦ķ à¦Ńà¦°
à¦¯ à¦Ĺà¦¨
à¦® à¦Ĺà¦°
Ġà¦¬ à¦°à¦¬
Ġà¦¸ à¦ĵà¦¯
Ġà¦¸ à¦ªà¦ķ
Ġà¦ª à¦ª
à¥ Ģ
à¦Ł à¦ľ
à¦ª à¦ľà¦¨
Ġà¦¦ à¦Ļ
Ġà¦¤ à¦ĸ
Ġà¦¹ à¦īà¦ķ
Ġà¦ħ à¦¤à¦¨
Ġà¦¯ à¦¶à¦¸
à¦¹ à¦®à§Ł
à¦ļ à¦¤à¦²
Ġà¦° à¦Ĺ
Ġà¦Ĩà¦® à¦¬
à¦ł à¦®
Ġà¦ī à¦ĩà¦¨
à¦¼à¦¾ !
à¦¬à¦¨ à¦ļà¦ķ
Ġà¦®à¦¨ à¦ĵ
âĢĻ !
à¦¿, -
Ġà¦ıà¦ĩ à¦¸à¦®à¦¯
à¦°à¦¬ à¦Ń
à¦ī à¦Ńà¦¯
à¦« à¦ª
à¦ı à¦ĵ
Ġà¦¸à¦¬ à¦¥
Ġà¦Ĩà¦¸ à¦¸
Ġà¦Ĩà¦¸ à¦ļ
Ġà¦®à¦¤ à¦¬
Ġà¦¬à¦¨ à¦ľ
Ġà¦ĵà¦ł à¦²
à¦¤à¦¨ à¦¬
Ġà¦Ĩà¦Ĺ à¦¤
à¦²à¦ķ à¦¬
à¦°à¦¹ à¦¶
à¦¿à¦Ĥ âĢĶ
Ġà¦ªà§ľ à¦¨
Ġà¦īà¦ª à¦Ĺ
à¦°à¦¦ à§Ł
Ġà¦ħà¦ľ à¦Ĺà¦°
Ġà¦¨à§Ł à¦¤
Ġà¦ķà¦® à¦ĩ
à¦¤à¦¤ à¦®
à¦°à¦Ń à¦Ļ
à¦°à¦¹à¦° à¦Ĺ
Ġà¦ıà¦ķà¦ĩ à¦¸à¦Ļ
!âĢĿ âĢĶ
Ġà¦Ĩà¦ª à¦²
Ġà¦ļà¦®à¦ķ à¦ª
à¦¬à¦¹ à¦®
à§© à§©
an g
à¦ľà¦Ĺà¦¤ à¦ķ
Ġà¦°à¦¥ à¦¬
at ed
à¦¾âĢĿ à¥¤
Ġà¦®à¦Ĺ à¦§à¦°
it e
it er
à§¨à§¦à§¦ à§«
Ġm e
Ġn ame
om e
ic h
Ġà¦ľà¦²à¦ķ à¦¨
Ġà¦ľà¦¨à¦ªà¦¦ à¦¬
Ġà¦¦à¦« à¦¤à¦°
à¦¡à¦Ń à¦£
Ġà¦Ŀà¦Ł à¦ªà¦Ł
ºçľºçľ ºçľºçľ
·çľ·çľ ·çľ·çľ
ub lis
b s
d v
e p
n ow
s er
ã ģ
Ġ _
Ġ j
à§į âĢĻ
à¦¨ à¦¬à¦ª
à¦¨ à¦ĵà¦¯
à¦¨ à¦ķà¦°
à¦¤ à¦¬à¦¨
à¦¤ à¦¤à¦²
à¦² à¦ľà§Ł
à¦ķ à¦¤à¦°
à¦ķ à¦®à¦¯
à¦ķ à¦®à¦²
à¦¯ à¦®à¦¤
à¦® à¦¶à¦²
Ġà¦ķ à¦¸à¦®
Ġà¦ķ à§°
Ġà¦¬ à¦ļà¦¸
Ġà¦ª à¦ľ
Ġà¦Ĩ à¦ī
à¦¦ à¦¬à¦¤
Ġà¦® à¦ĩ
à¦Ł à¦Ĩà¦ª
à¦ª à¦®à¦¯
Ġà¦¤ à¦°à¦¤
Ġà¦¤ à¦¤à¦¬
à¦ľ à¦¶à¦ķ
à¦Ľ à¦ĩ
Ġà¦ı à¦ŀ
à§Ł à¦ªà¦°
Ġà¦ħ à¦¹à¦®
à¦Ĺ à¦¶
à¦¼à§ĩ âĢĻ
à¦§ à¦ľà¦¯
à¦£ à¦¶à¦ķ
Ġà¦Ĺ à¦¤à¦°
Ġà¦ļ à¦ĵà§ľ
ĠĠ ĠĠĊ
à§ĩà¥¤ à¥¤
à§ĩ, âĢĶ
à§ľ à¦Ļ
Ġà¦² à¦Łà¦ķ
Ġà¦ĸ à¦¯
Ġà¦ĸ à¦Łà¦ĸ
Ġà¦§ à¦¨à¦ķ
Ġà¦®à¦¨ à¦®
à§İ à¦ªà¦¤
à¦°à¦¬ à¦ªà¦ķ
à¦ī à¦£
à¦¬à¦° à¦ļ
Ġà¦Ĩà¦² à¦ª
à¦ı à¦®à¦¨à¦ĩ
à¦ı à¦Ĩà¦ĩ
Ġà¦¸à¦¬ à¦¦
à¦Ĩ à¦Ń
Ġà¦ķà¦¥ à¦ķà¦¤
à¦ĺ à¦¬à¦¦
Ġà¦¡ à¦²
Ġà¦ĩ à¦¥
à§ģà¦ģ à¥¤
à¦°à¦® à¦²
à¦ħ à¦£
Ġà¦Ĺà¦² à¦¤
à¦°à¦¹ à¦ķ
à¦¨à¦ĵ à¦ĸ
à¦°à¦¶ à¦®
Ġà¦ħà¦ª à¦Ń
à¦¶à¦¨ à¦Ł
Ġà¦ķà¦¤ à¦ľà¦¨
à§İà¦¸ à¦ķà¦¦
Ġà¦ľà¦® à¦Ľ
à¦¤à¦ķ à¦¡
à¦¬à¦¸ à¦¤
à¦ħà¦¨ à¦²
à§¦ à§¯
Ġà¦Ĩà¦¦ à¦¤
Ġà¦¬à§ľ à¦¦
Ġà¦ĭ à¦Ĺ
à§¨ à§«
Ġà¦īà§ľ à¦¬
Ġà¦¹à¦¨ à¦¹à¦¨
à§« à§Ń
Ġà¦ĸà¦¸ à§ľ
Ġà¦ľà¦Ĺ à¦¦
ar k
Ġà¦ıà¦°à¦ªà¦° à¦ĵ
Ġà¦¨à§ľ à¦Ľ
ha k
ĠA nd
ut h
Ġà§§à§¯à§ª à§Ń
Ġà¦ĸà¦Łà¦ĸ à¦Ł
a k
i es
i red
u g
u st
Ð °
Ġ F
à¦¾ .
à¦¾ âĢĮ
à¦¤ à¦¸à¦®
à¦² à¦ªà¦¥
à¦² à¦ľà¦²
à¦ķ à¦¦à¦®
à¦¬ à¦ªà¦°
à¦® à¦ł
à¦® à¦¬à¦²
à¦® à¦Ĺà¦¤
à§ĭ à¦ĥ
à¦¸ à§ľ
Ġà¦¨ à¦¬à¦ª
à¦ĩ à¦®à¦¨
à¦¶ à¦°à¦ķ
Ġà¦¹ à¦°à¦ª
Ġà¦ı à¦¤à¦¬à¦¡
Ġà¦ħ à¦Ĺà¦¤
à¦ĸ à¦§
à¦ĸ à¦°à¦ļ
à¦· à¦¡
à¦· à¦§à¦°
à¦¹ à¦¬à¦¨
à¦£ à¦ľ
Ġà¦Ĺ à¦°à¦ľ
Ġà¦Ĺ à¦®à¦Ĺ
à¦¡ à¦ĵà¦¯
à¦¥ à¦ĵ
Ġà¦Ń à¦¨
Ġà¦Ń à¦ľà¦¨
à¦ĵ à¦ĸ
à§ĥ à¦Ĥ
à¦Ń à¦°à¦¸
à¦ľà¦¨ à¦ªà¦¦à¦¬
à¦ī à¦¥
à¦ī à§İà¦ª
à¦ı à¦°à¦ķà¦®
à¦ı à¦¤à¦¦
à¦Ĩ à¦¬à¦Ľ
à¦ĺ à¦ľ
à¦ĺ à¦°à¦Ł
Ġà¦Ł à¦Ļ
Ġà¦Ł à¦®à¦Łà¦®
âĢĿ !
à¦¼, âĢĿ
Ġà¦¬à¦¨ à¦²à¦¤
Ġà¦Ĺà¦² à¦Ľ
Ġà¦Ĺà¦² à¦Ĺà¦²
à¦°à¦¸ à¦Ĺ
à¦¦à¦° à¦¦
Ġà¦ľà¦² à¦Ľ
Ġà¦ķà¦¬ à¦ľ
Ġà¦ħà¦Ń à¦¦
à¦§à¦¨ à¦¶
Ġà¦ıà¦®à¦¨ à¦¤à¦°
à¦ļà¦¨ à¦ľà¦Ļ
à¦ĩà¦¨ à¦¸
à¦ĩà¦¨ à¦«
à¦¬à¦¦ à¦°à¦¬
Ġà¦Ĺà¦Ń à¦°
à¦ıà¦ķ à¦¥
à¦¬à¦ķ à¦¥
à¦°à¦ļ à¦²à¦¨
Ġà¦Ĺà§ľ à¦¨
Ġà¦Ī à¦ª
Ġà§§à§ §à§
à§¦ à§§
Ġà¦Ĩà¦ļ à¦®
à¦¸à¦ķ à¦¦
à§¨ à§§
à¦®à¦Ĺ à¦ŀ
à¦ľà¦¬ à¦§
Ġà¦§à¦¨ à¦ŀ
à¦łà¦ķ à¦¦
?âĢĿ âĢĶ
Ġà¦¶à¦¹ à¦°à¦¬
à¦¦à¦Ĺ à¦¦
à¦ķà§ľ à¦¸
à¦ĩà§Ł à¦°
à¦°à¦®à¦¶ à¦ĩ
Ġà¦¸à¦« à¦Łà¦ĵà§Ł
à¦¾âĢĿ âĢĵ
Ġs o
ou nt
Ġb row
ĠB o
à§§à§¯à§ «
à¦Ĺà¦ł à¦¨à¦Ĺ
Ġwh o
Ġne xt
dv ik
! âĢĶ
i a
i el
i ya
o k
Ð µ
Ð ¾
Ù Ĩ
Ġ r
Ġ al
à§ĩ /
à¦¨ à¦«
à¦¨ à¦ªà¦ķ
à¦¨ à¦®à¦¨à¦¸
à¦¤ à¦®à¦£
à¦² à¦¤à¦°
à¦ķ à¦°à¦¤
à¦ķ à¦°à¦ķ
à¦ķ à¦¸à¦¬
à¦¬ à¦®à§Ł
à¦® à¦¬à¦¨
à¦® à¦²à¦ķ
à¦® à¦¦à¦°
Ġà¦¬ à¦ĸ
Ġà¦Ĩ à¦ĵà¦¡
à¦¦ à¦ĺà¦¨
à¦Ł à¦¯
à§Ģ :
à¦ĩ à¦¸à¦²
à¦ľ à¦®à¦¹
à¦Ľ à¦²à¦¤
à¦¶ à¦ĸ
Ġà¦ħ à¦Ľ
Ġà¦ħ à¦ľà¦¨
Ġà¦ħ à¦°à¦ķ
Ġà¦ħ à§°
à¦§ à¦ļ
à¦¹ à¦ľ
à¦¹ à¦¶
à¦¹ à¦Ńà¦°
à¦£ à¦¸à¦®
Ġà¦Ĺ à§Łà¦¨
Ġà¦Ĺ à¦¦à¦Ĺà¦¦
à¦¡ à¦ĵ
à¦¥ à¦ªà¦¤
Ġà¦ľ à¦ľ
Ġà¦° à¦¦
à§ĩà¥¤ âĢĺ
Ġà¦Ĩà¦® à¦ľ
Ġà¦ıà¦ķ à¦¤à¦°à¦«
Ġà¦ī à¦Łà¦ķ
Ġà¦ĵ à¦¤à¦ª
Ġà¦ĸ à¦ĩ
à¦¾, âĢĻ
à¦¬à¦¨ à¦Ńà¦°
à¦°à¦£ à¦¹
à¦ŀ à¦¬à¦²
à¦¤à¦° à¦¦
à¦ľà¦¨ à¦ª
à¦ī à¦Ńà§Ł
à¦¬à¦° à¦§
Ġà¦Ĩà¦² à¦Ł
à¦°à¦ķ à¦¥
à¦ı à¦°à¦ĩ
à¦ı à¦¤à¦ķ
à§Ī à¥¤
Ġà¦Ł à¦¯
Ġà¦Ł à¦Ĺà¦°
Ġà¦ĩ à¦£
Ġà¦ĩ à¦¹à¦²
Ġà¦ĩ à¦¨à¦ķ
à¦ĥ âĢĶ
à¦ħ à¦¯
à¦¸à¦¬ à¦®
à¦¤à¦¬ à¦®
Ġà¦Ĺà¦² à¦¨
Ġà¦Ĩà¦¨ à¦¸
Ġà¦ľà¦² à¦¯
Ġà¦ľà¦² à¦Ń
à¦§à¦¨ à¦Ĺ
à¦²à¦¨ à¦ĩ
Ġà¦ħà¦ª à¦ķà¦°
Ġà¦ķà¦¤ à¦ķà¦Ł
Ġà¦ªà¦¦ à¦®à¦ķ
âĢ¦ ..
à¦¯à¦® à§Łà¦¤
Ġà¦Ĺà¦¨ à¦Ĺà¦¨
à§ģâĢĻ -
Ġà¦ħà¦² à¦¸à¦¤
à¦°à¦ª à¦Ł
à¦°à¦ª à¦Ļ
à§° à¦ľà¦°
à¦¿âĢĶ âĢĻ
à¦¢ à¦²
à§Łà¦¨ à¦¯
à¦¼à§ĩà¥¤ âĢĿ
Ġà¦ıà¦ķà¦¬ à¦ļà¦¨
à¦°à¦®à¦£ à¦ª
à§¨ à§ª
Ġà¦īà§İà¦¸à¦¬ à¦Ĺ
à¤ ¯
à¤ ¹
à¦¬à¦ĩ à§Ł
à¦®à¦¦ à¦ķ
Ġà¦°à¦¸ à¦¦
Ġà¦Ĭ à¦¨à¦¬
à¦ļà¦°à¦£ à¦ķ
à§¯à§ ©
Ġà¦ıà¦°à¦ķà¦® à¦ĩ
Ġà¦ķà¦Ł à¦®à¦Ł
à§ĩâĢĻ âĢĶ
à§¬ à§¦
er s
Ġà¦Ĩà¦ĸ à¦¡
à§Ģà¦Ĥ à¥¤
ĠS ave
as t
à¦ķà¦ľ à¦®à¦ķ
el f
éŁ¿éŁ¿éŁ¿éŁ¿éŁ¿éŁ¿éŁ¿éŁ¿éŁ¿éŁ¿éŁ¿éŁ¿éŁ¿éŁ¿éŁ¿éŁ¿ éŁ¿éŁ¿éŁ¿éŁ¿éŁ¿éŁ¿éŁ¿éŁ¿éŁ¿éŁ¿éŁ¿éŁ¿éŁ¿éŁ¿éŁ¿éŁ¿
âĢķâĢķ âĢķâĢķ
à§ľà¦¸ à¦ĵà§Ł
ĠU n
1 1
1 2
1 6
2 0
d ress
i ver
p e
w e
Ù ħ
Ù İ
à ¸
Ġ ï»¿
à§ĩ âĢĿà¥¤
à¦° à§İ
à¦¨ à¦ĩà¦²
à¦ķ à¦¤à¦¬
à¦ķ à§°
Ġà¦¬ à¦¦à¦°
à¦¸ à¦®à¦¨
Ġà¦Ĩ à¦ĵ
à¦¦ à¦ĺ
Ġà¦¨ à¦²à¦ķ
à¦Ł à¦¤à¦°
à§Ģ âĢ¦
à¦ª à¦¬à¦¨
à¦ª à¦¤à¦°
Ġà¦¤ à¦¸à¦²
Ġà¦¹ à¦®
Ġà¦¹ à¦°à¦¤
à§Ł à¦¤à¦¨
à§Ł à¦£à¦¤
à¦ĸ à¦ľ
à¦· à¦ļ
à¦Ĺ à¦°à¦¤
à¦§ à¦ļà¦¨
à¦§ à§ľà¦ķ
à¦¹ à¦ļ
à¦¹ à¦¬à¦§
à¦ļ à¦ĸ
à¦ļ à¦¬à¦°
à¦£ à¦ł
Ġà¦ķà¦° à¦ľ
à¦Ń à§Łà¦ķ
Ġà¦Ĩà¦® à¦²à¦ķ
à§Ĥ ,
à¦ł à¦¤à¦®
Ġà¦ī à¦¶
à¦¾à¦ģ âĢĻ
Ġà¦¥ à¦¤à¦®à¦¤
à¦¾à¥¤ âĢ¦
Ġà¦¸à¦® à¦¦
à¦®à¦¨ à¦¦
à¦®à¦¨ à¦Ń
à¦ŀ à¦ķ
à¦Ŀ à¦¬à¦¯
à¦ľà¦¨ à¦§
à¦ī à§İà¦¸
à¦ī à¦Łà¦¨
à¦¬à¦° à¦ļà¦¨
Ġà¦Ĩà¦² à¦¨
à¦« à¦¸à¦²
Ġà¦Ŀ à¦Ĺà§ľ
Ġà¦¬à¦¨ à¦°
à¦ħ à¦®à¦¨
à¦ħ à¦¸à¦®
Ġà¦Ĩà¦ľ à¦°
Ġà¦¬à¦° à¦¯
à¦¯à¦¬ à¦¶à¦¤
Ġà¦ľà¦² à¦ļà¦°
à¦¨à¦¬ à¦ľà¦¨
Ġà¦ĺà¦° à¦Ľ
Ġà¦ķà¦² à¦®à¦Ł
à¦ªà¦¦ à¦Ĺ
à¦°à¦ľ à¦°
à¦ĩà¦² à¦¸
à¦¾âĢĶ âĢĺ
à¦¤à¦® à¦¶
à§° à¦¨
Ġà¦¶à¦¤ à¦Ĺ
Ġà¦¨à¦¬ à¦®
Ġà¦īà§İ à¦ķà¦Ł
à§¦ à§©
Ġà¦Ĩà¦¦ à¦ª
à¦°à¦®à¦£ à¦¬
Ġà¦ĸà¦¬à¦° à¦ĵ
à¦°à¦« à¦°
à¦¿âĢĻ âĢĶ
Ġà¦ķà¦¬à¦° à¦ĸ
Ġà¦Ńà¦Ĺ à¦¬à¦¤
Ġm ark
Ġà¦Ŀà¦ķ à¦®à¦ķ
Ġc omment
ĠI n
Ġf iel
Ġp ublis
Ġà¦°à¦¹ à¦®à¦¤
ĠC omment
Ġà¦łà¦ķ à¦łà¦ķ
ĠN ame
ĠE mail
Ġwe bs
ĠRe qu
ĠY our
Ġad dress
Ġbrow ser
Ġmark ed
Ġfiel ds
Ġpublis hed
Ġwebs ite
ĠRequ ired
1 3
1 4
1 5
1 7
1 8
2 2
2 4
2 5
T he
a v
f f
l ed
u c
u d
Å ĵ
Ø ±
à¦¾ )à¥¤
à¦° à¦ħ
à¦° à¦ªà¦ķ
à§į à§į
à¦¨ à¦ĺà¦°
à¦¨ à¦®à¦¸
à¦¤ à¦¤à¦°
à¦¤ à¦ªà¦¥
à¦² à¦¬à¦°
à¦² à¦ķà¦°
à¦² à¦ļà¦ķ
à¦¬ à§İà¦¸
à¦¬ à¦ľà¦Ĺà§İ
à¦® à¦ªà¦¥
à¦® à¦§à¦°
Ġà¦ķ à¦ŀ
Ġà¦¬ à¦Ĺ
Ġà¦¬ à¦°à¦®
Ġà¦¬ à¦ķà¦°
Ġà¦¬ à¦®à¦¬
Ġà¦¬ à¦īà§Ł
Ġà¦¸ à¦°à¦¤
à¦¸ à¦¶
Ġà¦Ĩ à¦Łà¦ª
à¥ ģ
Ġà¦® à¦²à¦®
à¦Ł à¦ľà¦¨
à¦ľ à¦°à¦¤
à¦ľ à¦¬à¦¨
à¦¶ à¦²à¦¤
Ġà¦ħ à¦ĩ
Ġà¦ħ à¦¢
à¦ĸ à¦°à¦¤
à¦Ĺ à¦Ĺà¦¨
à¦Ĺ à¦®à§Ł
à¦§ à¦¨à¦ĵ
à¦ļ à¦Ļ
à¦£ à§Ł
à¦¡ à¦²à¦ķ
Ġà¦° à¦¡
à¦Ń à¦²à¦Ń
Ġà¦Ĩà¦® à¦°à¦£
Ġà¦ıà¦ķ à¦¤à¦®
à¦Ļ à¦ķ
Ġà¦ĵ à¦ľ
à§ľ à¦Ŀ
Ġà¦ĸ à¦¨à¦ª
Ġà¦ħà¦¨ à¦¬
Ġà¦ĺ à¦¨à¦¤
à§İ à¦°
à¦°à¦¬ à§İ
à¦¤à¦° à¦²
à¦¤à¦° à¦ĩ
à¦ī à¦¦à¦¯
à¦ī à¦¨à¦²
à¦ī à¦ĩà§Łà¦°
à¦« à¦²à¦¤
Ġà¦¸à¦¬ à¦¶
Ġà¦¡ à¦¨
Ġà¦¡ à¦ľà¦¨
Ġà¦Ŀ à¦ª
à¦ĥ !
à¦·à¦£ à¦Ń
Ġà¦ªà¦¥ à¦¶
Ġà¦¬à¦¨ à¦ļ
à¦ħ à¦¬à¦²
à¦ħ à¦®à¦°
à¦ħ à¦§à¦°
Ġà¦ħà¦¸ à¦ļ
Ġà¦ħà¦¸ à¦¹à¦¨
à¦¯à¦¬ à§Łà¦¸
à¦¦à¦° à¦Ł
Ġà¦ľà¦² à¦Ł
Ġà¦ľà¦² à¦Ńà¦°
à¦°à¦¹ à¦¨
à¦²à¦¨ à¦ļ
à¦®à¦¤ à¦¤
à¦®à¦¤ à¦®
Ġà¦īà¦ª à¦ªà¦¤
à¦Ĺà¦² à¦ª
Ġà¦ħà¦ª à¦¹à¦°à¦£
à¦ªà¦¦ à¦ª
à¦¦à§Ł à¦Ł
à¦·à¦¤ à¦ķ
Ġà¦ħà¦Ĺ à¦Ń
à¦Ńà¦¬ à§İ
à¦¨à¦ķ à¦£
à¦·à¦ķ à¦ķ
à§įâĢĮ âĢĶ
Ġà¦Ĳ à¦ķà¦¤
à¦ıà¦ķ à¦®
à¦ļà¦ķ à¦ķ
à¦¹à¦¨ à¦¦
Ġà¦ĩà¦¨ à¦Ł
Ġà¦ļà¦ķ à¦®à¦ķ
à§¨ à§©
à¦Ĩà¦ľ à¦ĩ
he n
Ġà¦ľà§Ł à¦¯
à§ĩâĢ¦ âĢĻ
à§ª à§©
Ġà¦ļà¦Ł à¦ķà¦²
on s
at er
is hak
à¦ıà¦®à¦¨ à¦Ł
or d
Ġà¦¨à¦Ĺ à¦°à¦¬
à§§à§¯à§ Ń
Ġà§§à§¯à§ª à§ª
Ġà¦ĸà¦² à¦ĸà¦²
ig ht
à¦ĩà¦°à¦ķà¦® à¦ĩ
à¦§à¦¹ à§Ł
Ġ19 6
Ġà¦¸à¦¬à¦¸à¦®à§Ł à¦ĩ
Ġk now
Ġà¦¬à¦Ľ à¦°à¦ĩ
Ġà§¯à§ «
à§ĩà§Ĺ à¦ģ
Ġà¦¬à¦°à¦ķ à¦¤
Ġtr uth
aut y
Ġà¦Ĺà¦®à¦Ĺ à¦®
ishak h
. -
2 1
2 3
3 0
a h
h o
n ing
o he
w ay
Ð »
Ñ Ģ
à ª
æ Ĺ
Ġ ë
Ġ ì
à§ĩ à§ĩ
à§ĩ ...âĢĿ
à¦° à¦ªà¦¨
à§į !
à¦¨ à¦°à¦¤
à¦¨ à¦®à¦Ĺ
à¦¤ à¦²à¦¬
à¦¤ à¦ªà¦¤
à¦² à¦ķà¦²
à¦² à¦Ĺà¦²
à¦¬ à¦°à¦¬à¦°
à¦¯ à¦ªà¦¦
à¦¯ à§Łà¦¨
à¦¯ à¦§à¦°
à¦¯ à¦Ńà¦°
à¦® à§İà¦¸
à¦® à¦ĺà¦Ł
à¦¼ âĢĻ,
Ġà¦¬ à¦Ń
Ġà¦¬ à¦īà¦²
Ġà¦¬ à¦īà¦°
Ġà¦¸ à¦¬à¦°
à¦¸ à¦®à¦ķ
Ġà¦Ĩ à¦¹à¦²
Ġà¦Ĩ à¦ĩà¦°
Ġà¦Ĩ à¦ĩà¦ķ
Ġà¦® à¦°à¦ķ
à¦Ł à¦°à¦Ĺ
à¦ª à¦§
à¦ª à¦ļà¦°
à¦ĩ à¦īà¦°
Ġà¦¤ à¦°à¦¤à¦°
à¦ľ à¦ķà¦¤
à¦· à¦°à¦¬
à¦§ à¦¬à¦¤
âĢ ī
à¦¹ à¦ĸ
à¦¹ à¦¨à¦ķ
à¦ļ à¦¦à¦¶
à¦£ à¦¤à¦°
à¦£ à¦ķà¦°
Ġà¦Ĺ à¦°à¦²
à¦¡ à¦¹
à¦¥ à¦°à¦ķ
Ġà¦¶ à¦¤à¦°
Ġà¦° à¦¸à¦¬
Ġà¦° à¦ĩà¦¬
Ġà¦° à¦Łà¦¨
à§ĩ, âĢĻ
à¦¼à¦¾ à¥¤âĢĿ
Ġà¦ĸ à¦Ĺ
Ġà¦§ à¦®
Ġà¦ªà¦° à¦Ĺ
à¦¬à¦¨ à¦Ĺ
Ġà¦ĺ à¦·à¦Ł
à¦ªà¦° à¦¬
à¦¼à¦¿ ?
à¦ŀ à¦°
Ġà¦ıà¦ĩ à¦ļ
à§İ à¦²
à§İ à¦¬
à¦Ŀ à¦Ł
à¦ī à¦ªà¦ļ
à¦¬à¦° à¦«
Ġà¦Ĩà¦² à¦¬
à¦°à¦ķ à¦¨
Ġà¦¸à¦¬ à¦ķà¦Ł
à¦Ĩ à¦¬à¦°
à¦Ĩ à¦¸à¦Ľ
Ġà¦®à¦¤ à¦Ń
à¦°à¦® à¦¸
Ġà¦ªà¦¥ à¦ķ
Ġà¦ħà¦¸ à¦¦
Ġà¦ħà¦¸ à¦¤à¦¤
à¦¸à¦¬ à¦ļ
à¦¦à¦¨ à¦ĩ
à¦ķà¦¤ à¦®
à¦ķà¦¤ à¦Ł
à¦¯à¦¬ à¦¯
à¦¨à¦¬ à¦®
à¦²à¦¬ à¦¦
à¦²à¦¬ à¦¶à¦¤
à¦ļà¦² à¦Ł
à¦®à¦ķ à¦Ń
Ġà¦Ńà¦° à¦²
Ġà¦ħà¦ľ à¦¯
Ġà¦ħà¦ľ à¦®
à¦¸à¦® à¦Ĺ
à¦ªà¦¥ à¦¹
Ġà¦ķà¦® à¦ªà¦ķ
Ġà¦¶à¦¹à¦° à¦Ĺ
Ġà¦ĵà¦ĩ à¦°à¦ķà¦®
à¦ıà¦ķ à¦ķ
à¦¿âĢĶ âĢĺ
Ġà¦Ĩà¦§ à¦ĺà¦£
Ġà¦ĭ à¦ķ
à¦¹à¦¤ à¦Ń
à¦¾âĢĻ -
à§¨ à§¯
Ġà¦¤à¦¤ à¦ĸ
Ġà¦ªà¦¶ à¦®
à¦·à§Ł à¦Ł
à¦¸à¦¹ à¦¯
à¦¸à¦¹ à¦®à¦°
à¤ Ĥ
Ġà¦¸à§İ à¦ļ
Ġà¦¸à§İ à¦Ń
à¦¬à¦Ł à¦Ĺ
à¦¬à§Ł à¦¬
à¦ĩà¦ľ à¦¡
Ġà¦ĵà§ľ à¦¨
Ġà§© à§©
it ion
ou ld
Ġb ut
ing s
om p
à§ĩâĢĿ âĢĵ
Ġà¦¨à¦ĸ à¦¦à¦°
Ġp H
ĠA dvik
as s
Ġà§§à§¦ à§¦
à¦ľà¦Ń à¦¬à¦¨
Ġà¦°à¦£ à¦ľ
el l
à§§à§¯à§ ª
âĢĶâĢĶ âĢĶâĢĶ
ul t
Ġha d
à¦¤à¦°à¦¬ à¦Ļ
Ġà¦ļà¦ª à¦²à¦¤
if e
Ġcon t
Ġà¦ľà¦¬à¦° à¦¦à¦¸
ãģ ®
ĠBo ishakh
ohe la
- -
2 6
2 7
2 8
2 9
c on
d e
h il
i e
i z
n e
¥ ãģ®
Ã ©
à¦ Ķ
à¦¾ à¦¾
à¦° à¦Ĺà¦°
à¦° à¦ļà¦°
à§į âĢĻ,
à¦¿ à¦¾
à¦¨ à¦¥
à¦¨ à¦§à¦°
à¦¤ à§İ
à¦² à¦ĺà¦°
à¦ķ à¦®à§Ł
à§ģ âĢĿ
à¦® à¦®à¦¨
à¦¼ âĢĻà¥¤
à§ĭ à§ĩ
Ġà¦ķ à¦ĩà¦Ľ
Ġà¦¬ à¦¬
Ġà¦¬ à¦ª
Ġà¦¸ à¦ªà¦°
Ġà¦ª à¦¸
Ġà¦ª à¦¸à¦°
à¦¸ à¦¨à¦¬
Ġà¦Ĩ à¦¹à¦¸
Ġà¦Ĩ à¦ĩà¦¬
à¦¦ à¦¬à¦°
Ġà¦¨ à¦ļ
Ġà¦¨ à¦¬à¦¨
Ġà¦¨ à¦¬à¦¸
Ġà¦® à¦°à¦¶
Ġà¦® à¦²à¦¯
à¦Ł à¦¡
à¦ª à¦¬à¦°
à¦ª à¦ķà¦¤
à¦ĩ à¦ĵà¦¯
Ġà¦¦ à¦¬
Ġà¦¤ à¦°à¦®
Ġà¦¤ à¦¸à¦¬
Ġà¦¤ à¦ķà¦®
Ġà¦¤ à¦¹à¦¬
à¦ľ à¦²à¦ķ
à¦ľ à¦®à§Ł
Ġà¦¹ à¦ª
Ġà¦¹ à¦¡
Ġà¦ħ à¦«à¦²
Ġà¦ħ à¦®à¦¨à¦ĩ
à¦Ĺ à¦®à¦¯
à¦Ĺ à¦Ńà¦°
à¦§ à¦ľ
à¦¹ à¦¨à¦¤
Ġà¦Ĺ à¦°à¦¬
à¦¡ à¦¡
à¦¡ à¦ĵà§Ł
à¦¡ à¦¬à¦ªà¦ķ
Ġà¦¶ à¦ľ
Ġà¦¶ à¦°à¦¦
ĠĠ ĠĊ
Ġà¦ıà¦ķ à¦§
Ġà¦ıà¦ķ à¦ļà¦ķ
Ġà¦ĵ à¦Ŀ
à§ľ à¦Ł
à§ľ à¦¨à¦ķ
Ġà¦« à¦²à¦¬
à¦¬à¦¨ à¦²à¦¤
Ġà¦®à¦¨ à¦¨à¦ķ
Ġà¦ıà¦ĩ à¦®à¦¤
à¦°à¦¬ à¦¬
à¦¤à¦° à¦ķà¦®
à¦ī à¦ªà¦ķ
à¦Ĩ à¦°à¦¬
Ġà¦¡ à¦¬à¦²
Ġà¦ľà¦¨ à¦¯
Ġà¦ľà¦¨ à¦ªà¦¥
à¦¬à¦² à¦¦
Ġà¦ĩ à¦Ń
Ġà¦ĩ à¦ķà¦¬
à¦·à¦£ à¦¤
à¦°à¦® à¦§
à¦¨à¦¤ à¦¨
Ġà¦¬à¦¨ à¦¦
à¦ħ à¦ķà¦¸
Ġà¦Ĩà¦ľ à¦Ĺ
Ġà¦ħà¦¸ à¦®à§Ł
à¦ķà¦² à¦¹
à¦ķà¦° à¦Ł
Ġà¦ľà¦² à¦ĵ
Ġà¦ľà¦² à¦Ľà¦Ł
Ġà¦¹à¦¤ à¦¶
Ġà¦ħà¦¤ à¦²à¦¸
à¦¨à¦¬ à¦¹
à¦®à¦¤ à¦Ń
à¦¹à¦¸ à¦ĩ
à¦Ĺà¦² à¦®à¦¯
à¦°à¦¦ à¦¤
à¦ļà¦² à¦®
Ġà¦ħà¦ª à¦¤
à¦¦à§Ł à¦¤
Ġà¦°à¦Ļ à¦¬
Ġà¦ħà¦ľ à§Ł
à¦·à¦¤ à¦ļ
à¦ªà¦¥ à¦ļ
Ġà¦ĵà¦ĩ à¦Ń
à¦ıà¦ķ à¦ľ
à¦ļà¦ķ à¦£
Ġà¦ıà¦ķà¦¦ à¦®à¦ĩ
Ġà¦ķà¦ĸà¦¨à¦ĵ à¦¬
à¦¨à¦¸ à¦ĩ
à¦Ĺà¦ľ à¦Ĺ
à¦¸à¦« à¦²à¦¤
à¦¾âĢĻ âĢĵ
à§§à§ ¬
he re
Ġà¦¸à¦°à¦² à¦Ń
an a
an k
à¦¾à¦ģ, âĢĿ
in ation
à¦ľà§Ł à¦ķ
à§ĩ?âĢĿ âĢĶ
à¦¦à¦¶ à¦Ł
à¦²à¦ļ à¦²à¦¨
à¦Ī à¦ľ
à§® à§®
à§Ģ! âĢĻ
à¦¯à¦¶ à¦¸
Ġc ol
Ġà¦Ĺà¦ľ à¦Ĺà¦ľ
Ġl ike
à§§à§¯à§ ©
à§§à§¯à§« à§¨
æĹ ¥ãģ®
) ;
) âĢĵ
- âĢĺ
3 1
3 2
T E
a f
a ch
h at
h ol
i al
s elf
Ù Ī
Ġ +
Ġ Ñ
Ġ im
à§ ±
à¦° à¦ªà¦¦
à¦¿ ),
à¦¤ à¦¸à¦¨
à¦² à¦ĵà¦¯
à¦² à¦§à¦¨
à¦² à¦ªà¦¦
à¦ķ à¦¢
à¦¬ à¦®à¦¨
à¦¬ à¦ķà¦²
à¦¯ à¦ªà¦ķ
à¦¯ à§İà¦ķ
à¦¼ à§ģà¥¤
Ġà¦ķ à¦ĵà§Ł
Ġà¦ķ à¦®à¦£
Ġà¦¸ à¦ľà¦¨
à¦¸ à¦¬à¦¨
à¦¸ à¦ľà¦¨
à¦¸ à¦ªà¦¨
à¦¸ à¦¯à¦ľ
Ġà¦Ĩ à¦īà¦²
Ġà¦Ĩ à¦īà§ľ
Ġà¦¨ à¦°à¦ª
à§Ģ )
à¦ĩ à¦Ļ
Ġà¦¦ à¦ªà¦¦à¦ª
Ġà¦¤ à¦ªà¦¤
à¦ľ à¦®à¦£
à¦Ľ à¦ĵ
à¦¶ à¦ļà¦¨
Ġà¦¹ à¦°à¦¹
Ġà¦¹ à¦°à¦²
Ġà¦¹ à¦ľà¦°à¦¤
Ġà¦ı à§Ł
Ġà¦ħ à¦¶à¦¨
à¦ĸ à¦Ńà¦°
à¦Ĺ à¦ªà¦°
à¦Ĺ à¦®à¦ķ
à¦¼à§ĩ âĢ¦
Ġà¦¯ à¦¤à¦¨
à¦ļ à¦ĵà¦¡
Ġà¦Ĺ à¦¤à¦¬
à¦¡ à¦¤
à¦¡ à¦¬à¦ķ
Ġà¦Ń à¦°à¦¬
Ġà¦° à¦ľà¦¸
à¦ĵ à¦Ľ
Ġà¦ıà¦ķ à¦ĸà¦£
Ġà¦« à§Ł
à¦°à¦¤ à¦¬
Ġà¦ĸ à¦°à¦¸
Ġà¦ªà¦° à¦Ĺà¦¨
à¦¬à¦¨ à¦¤
à¦¬à¦¨ à¦ļ
à¦®à¦¨ à¦Ĺà¦°
à¦¼à¦¿ !
Ġà¦ıà¦ĩ à¦Ĺ
à§İ à¦¨
à¦°à¦¬ à¦¸à¦Ń
à¦¤à¦° à¦ľ
à¦¤à¦° à¦Ń
à¦ı à¦¡
à¦ı à¦«
à¦Ĩ à¦ł
à¦Ĩ à¦¸à¦¨
à¦Ĩ à¦°à¦ľ
Ġà¦ľà¦¨ à¦®à¦¨
Ġà¦Ŀ à¦°à¦²
Ġà¦ĩ à¦·
Ġà¦ĩ à¦®à¦ª
Ġà¦ĩ à¦¶à¦¤
Ġà¦ħà¦¬ à¦Ĺà¦¤
à¦·à¦£ à¦Ł
à¦·à¦£ à¦¹
à¦ķà¦Ł à¦°
Ġà¦®à¦¹ à¦¡
à¦¯à¦¬ à¦ļ
Ġà¦ľà¦² à¦¨
Ġà¦ħà¦¦ à¦ķ
à¦²à¦¤ à¦®
à¦¯à¦ķ à¦£
à¦ļà¦¨ à¦ķ
à¦°à¦¦ à¦²
à¦°à¦¦ à¦®
Ġà¦°à¦Ļ à¦ļà¦Ļ
Ġà¦ħà¦Ĺ à¦¸
à¦Ńà¦¬ à¦ķ
à¦®à¦£ à¦¬
à¦¨à¦ķ à¦¶
Ġà¦¶à¦° à§İà¦ķ
à¦¤à¦¤ à¦¸
à¦·à¦ķ à¦¶
Ġà¦¬à¦Ľà¦° à¦ĸ
à§° à¦¯
à§° à¦¶
à§Łà¦¨ à¦ªà¦°
Ġà¦¸à¦®à§Ł à¦Ł
à§¦ à§¨
Ġà¦¤à¦² à¦ª
Ġà¦ĺà¦¨ à¦ĺà¦¨
Ġà¦¦à¦² à¦Ľ
à¦ľà¦¸ à¦ľ
Ġà¦¬à¦ķ à¦¶
Ġà¦Ĺà¦£ à¦¸
Ġà¦ªà¦¶ à¦²
à¤ ®
à¦Ĺà¦£ à¦¤à¦¨
à§© à§¦
in t
à§« à§¬
Ġà¦¦à¦® à¦¦à¦®
Ġà¦ļà¦Ł à¦ľà¦²à¦¦
à¦¶à¦° à§İ
Ġà¦Ĩà§Ł à¦¤à¦¨
à¦¾à¦ĥ !
à¦¾à¦ĥ âĢĵ
is h
à¦¾âĢ¦ à¥¤
Ġa b
Ġw or
ar y
ou g
à¦Ĳ à¦¶
à¦¨à¦ľà¦¨ à¦ĩ
Ġà¦ıà¦ĩà¦°à¦ķà¦® à¦ĩ
à¦¬à¦°à¦² à¦¹à¦°
ro p
ĠP ohela
ĠB e
à§§à§¯à§ ¬
Ġg o
Ġà¦īà¦Ńà§Ł à¦ĩ
Ġwh ich
Ġon ly
Ġà§§à§¯à§¯à§ «
Ġà¦¥à¦ĩ à¦¥à¦ĩ
Ġà¦ķà¦ļà¦ķ à¦ļ
à¦¸à¦ĸà¦¨ à¦ĵ
, âĢĵ
3 4
; âĢĶ
i b
n g
t e
Ġ ×
Ġ à§Ł
Ġ le
Ġ áĥ
à§į âĢĶ
à¦¨ à¦ł
à¦¨ à¦ªà¦°
à¦¨ à¦ĸà¦ļ
à¦² à¦£
à¦² à¦ŀ
à¦ķ à¦¬à¦¨
à¦ķ à¦ªà¦°
à¦ķ à¦¬à¦²
à¦ķ à¦ªà¦Ł
à§ģ ?âĢĻ
à¦¬ à¦ĺ
à¦¬ à¦ļà¦°
à¦¬ à¦§à¦°
à¦¬ à¦¹à¦¤
à¦¯ à¦¬à¦²
à¦® à¦ĵà¦¯
à¦® à¦Ĺà¦¨
Ġà¦ķ à¦ĵ
Ġà¦ķ à¦®à¦°
Ġà¦¬ à¦®à¦¨
Ġà¦¬ à¦ķà¦¤
Ġà¦¬ à¦ªà¦£
Ġà¦¸ à¦ķà¦°
Ġà¦¸ à¦¦à¦²
à¦¸ à¦ľà¦²
Ġà¦Ĩ à¦ĩà¦ľ
à¥¤ ]
à¦¦ à¦ĸà¦²
Ġà¦® à¦°à¦¸
à§Ģ à¦ĥ
à¦ª à¦²à¦¬
à¦ª à¦ªà¦¤
à¦ª à¦Łà¦ķ
à¦ĩ à¦¡à¦²
Ġà¦¦ à¦²à¦¨
à¦¶ à¦°à¦£
Ġà¦¹ à¦ĩà§Ł
Ġà¦ı à¦¤à¦¬
à¦ĸ à¦ķà¦ķ
à¦§ à¦¡
à¦§ à¦¬à¦ª
à¦§ à¦®à¦¯
Ġà¦¯ à§İ
Ġà¦¯ à¦ľà¦¨
à¦ļ à¦¦
à¦ļ à¦¤à¦®
à¦ļ à¦ªà¦¦à¦¸
à¦£ à¦¤à¦®
Ġà¦ķà¦° à¦®
Ġà¦¶ à¦¤à¦¬
Ġà¦¶ à¦¬à¦¨à¦®
Ġà¦ľ à¦¹à¦°
Ġà¦ļ à¦ĸ
Ġà¦ļ à§Łà¦¨
à¦ĵ à¦¬
Ġà¦Ľ à¦²à¦ļ
Ġà¦ıà¦ķ à¦¶à¦¤
à¦Ĥ âĢĶ
à¦ł à¦ĵ
à¦ł à¦Ĺà§ľ
à¦¾à¦ģ ?âĢĻ
à¦¼à¦¾ âĢ¦
à§ľ à¦Ń
à¦¾à¥¤ )
à¦¬à¦¨ à¦Ń
Ġà¦®à¦¨ à¦ĩ
à¦°à¦£ à¦®
à¦°à¦£ à¦ªà¦¤
à§İ à¦¶
à¦¤à¦° à¦¹
à¦¿à¥¤ âĢ¦
à¦ī à¦¶
à¦ī à¦Łà¦°
à¦ī à¦ľà¦ª
à¦Ĩ à¦¸à¦¬
à¦Ĩ à§Łà¦¨
Ġà¦ķà¦¥ à¦ķà¦ł
à¦ĺ à¦ª
Ġà¦¡ à¦Ł
Ġà¦ľà¦¨ à¦ķà¦²
à¦¬à¦ª à¦¦
Ġà¦¹à¦² à¦«
Ġà¦ĩ à¦Ľ
âĢĵ âĢĿ
à¦ĥ -
à¦°à¦® à¦¦
à¦°à¦® à¦ª
à¦°à¦® à¦ĩ
à¦¨à¦¤ à¦¤
Ġà¦¬à¦¨ à¦ªà¦°
Ġà¦¬à¦¨ à¦«
à¦¤à¦¨ à¦ĩ
à¦¤à¦¨ à¦ĵ
Ġà¦¨à¦¤ à¦®
Ġà¦Ĩà¦Ĺ à¦°à¦¬
à¦¸à¦¬ à¦¶à¦¤
Ġà¦Ĩà¦¨ à¦ķ
à¦ķà¦° à¦Ń
à¦°à¦¨ à¦Ĺà¦°
Ġà¦ľà¦² à¦ªà¦¥
Ġà¦ľà¦² à¦®à¦Ĺ
Ġà¦ľà¦² à¦¤à¦°à¦Ļ
à¦°à¦¹ à¦¤
Ġà¦¹à¦¤ à¦ļ
Ġà¦¹à¦¤ à¦ļà¦ķ
à¦°à¦¥à¦® à¦ľà¦¨
Ġà¦¸à¦¨ à¦¦
à¦¨à¦¬ à¦ļ
à¦¨à¦¬ à¦§à¦°
à¦§à¦¨ à¦®
à¦²à¦¨ à¦Ĺ
Ġà¦īà¦ª à¦¶
à¦°à¦¦ à¦Ĺ
Ġà¦¸à¦¹ à¦§à¦°
Ġà¦ħà¦ª à¦ª
à¦ªà¦¦ à¦ļ
Ġà¦ħà¦ķ à¦®
à¦¦à§Ł à¦¬
à§İà¦¸ à¦Ļ
à¦ĩà¦¨ à¦°
à¦¸à¦® à¦¬
à¦ªà¦¥ à¦ļà¦²
à§ģâĢĻ à¥¤
à¦ıà¦ķ à¦¶
à¦ıà¦ķ à¦ĸ
à¦ıà¦ķ à¦¦à¦®
à§° à¦ķà¦²
à§° à¦®à¦£
à¦¬à¦ķ à¦£
Ġà¦ıà¦ķà¦ľà¦¨ à¦ĩ
Ġà¦ıà¦ķà¦ľà¦¨ à¦ĵ
à¦ļà¦ķ à¦¦
à¦ļà¦ķ à¦ļà¦ķ
à¦¢ à¦ª
Ġà¦īà¦ľ à¦²
à¦ľà¦² à¦§
Ġà¦¸à¦®à§Ł à¦®à¦¤
Ġà¦Ĩà¦§ à¦Ł
Ġà¦Ĩà¦¦ à¦°à¦£
à¦¸à¦« à¦¡
Ġà¦¦à¦² à¦Ĺ
Ġà¦¦à¦² à¦¬à¦²
à¦°à¦®à¦£ à¦ĩ
Ġà¦¦à¦° à¦ĸ
à¦®à¦¸ à¦ľ
à¦Ĩà¦² à¦®
âĢĻ, âĢĻ
à§ĭâĢĶ âĢĺ
à¦ķà¦¥ à¦ķ
à¤ ¦
à¦¥à¦² à¦ľ
he s
Ġà¦¸à¦°à¦² à¦°
Ġà¦ªà¦°à¦¶ à¦®à¦£
à§© à§§
Ġà¦¹à¦ĩ à¦¹à¦ĩ
à¦¤à¦¸ à¦Ń
Ġà¦Ĩà¦ĩà¦¨ à¦¶
à¦ľà§Ł à¦Ĺ
at ure
à¦¤à¦ĸà¦¨ à¦ĵ
Ġà¦¦à¦ĸà¦² à¦¦
Ġà§© à§§
Ġs p
à¦Łà¦¸ à¦ħ
Ġà¦Ĩà¦ĸ à§ľ
à¦¿?âĢĿ âĢĶ
Ġc l
à¦¿âĢĿ âĢĶ
ic al
ĠA r
as e
Ġà¤ ª
Ġl ife
Ġe x
ĠT h
Ġà§¦ à§§
Ġh im
à¦£à¦Ĺà¦¤ à¦®
Ġ19 7
ag e
Ġà§§à§¯à§¯à§ ¨
æŃĵæŃĵæŃĵæŃĵæŃĵæŃĵæŃĵæŃĵ æŃĵæŃĵæŃĵæŃĵæŃĵæŃĵæŃĵæŃĵ
Ġman y
à§§à§¯à§Ń à§§
; -
? )
a c
a ct
b ut
e k
g al
o y
p er
s ity
u al
Ð ½
Û Į
Ġ J
à§ĩ à¦ĥà¥¤
à§ĩ )à¥¤
à§ĩ ...
à¦° à¦ĭà¦£
à§į ?
à§į à¦ģ
à¦¿ /
à¦¨ à¦Ĺà¦¤
à¦¨ à¦ªà¦Ł
à¦¤ à¦ªà¦°
à¦¤ à¦ĺ
à¦¤ à¦Ĺà¦£
à¦² à¦ĵà§Ł
à¦² à¦ļà¦¨
à¦² à¦®à¦§
à¦ķ à¦ªà¦ķ
à¦¬ à¦¬à¦¤
à¦¯ à¦°à¦ķ
à¦¯ à¦ļà¦ķ
à¦¯ à¦¹à¦¤
à¦® à¦ľà¦¨
à¦® à¦¤à¦¨
à¦® à¦ĵà§Ł
à¦® à¦ĺà¦°
Ġà¦ķ à¦ĩà¦²
Ġà¦¸ à¦²à¦¤
Ġà¦¸ à¦ªà¦¤
à¦¸ à¦ĺà¦°
Ġà¦Ĩ à¦Łà¦ĸ
à¥ ĭ
à¦¦ à¦ķà¦¤
à¦¦ à¦®à¦¤
Ġà¦¨ à¦°à¦ĸ
Ġà¦® à¦ļ
Ġà¦® à¦°à¦¨
Ġà¦® à¦°à¦¹
à¦Ł à¦ªà¦°
à¦Ł à¦ķà¦Ł
à¦Ł à¦°à¦¸
à¦Ł à¦ªà¦¤à¦Ļ
à§Ģ !âĢĿ
à¦ª à¦Łà¦²
à¦ĩ à¦ī
à¦ĩ à¦¸à¦Ļ
Ġà¦¦ à¦²à¦ķ
Ġà¦¤ à¦¯
Ġà¦¤ à¦²à¦¬
Ġà¦¤ à¦Łà¦¸
à¦ľ à¦ªà¦°
à¦ľ à¦ªà¦¤
à¦Ľ à¦²à¦¨
à¦¶ à¦®à§Ł
Ġà¦¹ à¦Łà¦¤
à¦ĸ à¦®à¦¨
à¦ĸ à¦²à¦¨
à¦· à¦°à¦ķ
à¦· à¦²à¦¤
à¦Ĺ à¦¸à¦¨
à¦Ĺ à¦¹à¦¨
à¦§ à¦°à¦£
à¦§ à¦¸à¦®
à¦§ à¦¬à¦¦
à¦§ à¦§à¦°
à¦¹ à¦ªà¦°
à¦ļ à¦ķà¦²
Ġà¦Ĺ à¦°à¦¹
Ġà¦Ĺ à¦ľà¦°
Ġà¦¶ à¦°à¦®
Ġà¦ļ à¦¯
à¦ĵ à¦·
à¦ĵ à¦Ń
Ġà¦Ľ à¦®
Ġà¦Ľ à¦²à¦ķ
Ġà¦ıà¦ķ à¦ĺà¦£
à¦ł à¦ļ
Ġà¦ī à¦¤à¦°
Ġà¦¥ à¦ķà¦¥à¦ķ
Ġà¦« à§Łà¦¸
Ġà¦ĸ à¦²à¦¨
Ġà¦¬à¦² à¦¶
Ġà¦ħà¦¨ à¦®
Ġà¦ħà¦¨ à¦®à¦¨
Ġà¦ħà¦¨ à¦¶à¦¨
âĢĶ âĢĿ
Ġà¦§ à¦²
à¦¬à¦¨ à¦ĸ
à¦¬à¦¨ à¦¹
à¦¬à¦¨ à¦¡
Ġà¦ĺ à¦·à¦¤
Ġà¦®à¦¨ à¦ª
âĢĻ ?
à§İ à¦ªà¦¦
à¦Ŀ à¦®
à¦Ŀ à¦²à¦ķ
à¦ľà¦¨ à¦ķà¦Ń
à¦¿à¥¤ à¥¤
à¦ī à¦¬à¦¨
à¦¬à¦° à¦¸
à¦¬à¦° à¦ĵ
Ġà¦Ĩà¦² à¦ªà¦¥
à¦°à¦ķ à¦°à¦£
à¦ªà¦¨ à¦¤
à¦ı à¦ľ
à¦ı à¦·
ĠĠĊ Ċ
à¦ĺ à¦ļ
Ġà¦ľà¦¨ à¦®à¦¤
Ġà¦ľà¦¨ à¦¶à¦ķ
Ġà¦ıà¦¬ à§ľ
à¦¨à¦¤ à¦¤à¦°
Ġà¦ĵà¦ł à¦¤
à¦ħ à¦·
Ġà¦ħà¦® à¦¤
Ġà¦ħà¦¸ à¦¹à¦¯
à¦¤à¦¬ à¦°à¦£
à¦¦à¦¨ à¦Ĺ
à¦²à¦ķ à¦®à¦²
à¦¯à¦¬ à¦ĩà§Ł
Ġà¦¶à¦¬ à¦¬
Ġà¦ľà¦² à¦¹
à¦¿à¦Ĥ âĢĿ
à¦§à¦¨ à¦Ł
Ġà¦ıà¦² à¦®
Ġà¦īà¦ª à¦¬à¦¨
Ġà¦īà¦ª à¦¸à¦°
Ġà¦īà¦ª à¦ķà¦¥
à¦Ĺà¦² à¦Ĺà¦ŀ
Ġà¦ķà¦² à¦°
à¦ĩà¦² à¦«à¦²à¦ķ
Ġà¦ľà¦® à¦¬
à¦¸à¦® à¦°
Ġà¦ªà¦¦ à¦ª
Ġà¦ĵà¦ªà¦° à¦ĩ
Ġà¦ĵà¦ªà¦° à¦ĵ
à¦ªà¦¥ à¦Ń
à¦·à¦ķ à¦¥
à¦¤à¦® à¦®
Ġà¦«à¦² à¦ĵ
à¦ıà¦ķ à¦¸à¦®à¦¯
à¦°à¦ª à¦ŀ
Ġà¦¶à¦¤ à¦ª
Ġà¦¶à¦¤ à¦¦à¦²
Ġà¦ĩà¦¨ à¦Ń
à§¦ à§ª
Ġà¦¬à¦Ł à¦®
à§¨ à§®
Ġà¦Ĺà¦£ à¦¹à¦¤
à¦ķà¦¦ à¦£
à¦£à¦ķ à¦£
Ġà¦®à¦ľ à¦¦
à¦ľà¦® à¦¹à¦²
à¤ £
à¤ Ł
à§© à§ª
in k
à§ĩâĢ¦ )
à§ĩâĢ¦ .
Ġà¦ľà§ľ à¦¤
à¦ıà¦ĸà¦¨ à¦ķ
à¦¬à§Ł à¦®
al k
Ġà¦ľà¦Ĺ à§İà¦ķ
à§® à§«
Ġà§© à§Ń
Ġw ater
Ġà¦¨à§ľ à¦¬
Ġà¦Ĩà¦« à¦Ĺ
Ġà¦ľà¦Ĺà§İ à¦Ł
à¦°à¦¬à¦£ à¦¶à¦ķ
Ġà¦°à¦® à¦°à¦®
Ġà¦®à¦°à¦£ à¦¶
Ġà§« à§¦
ĠB en
Ġà¤ ¸
ĠD e
et ect
Ġà¦ĸà§ľ à¦Ĺ
Ġà§§à§¯à§ª à§©
Ġà¦Ľà§Ł à¦Ł
Ġà¦ªà¦°à¦ªà¦° à¦ĩ
Ø§ Ø
Ġde ath
ĠInd ian
Ġà§§à§¯à§¦ à§«
ĠUn iver
Ġà¦Ĩà¦ĵ à¦°à¦¤
Ġà¦Ĩà¦ĩà¦ķ à¦¨
ĠUniver sity
3 3
3 5
e c
e re
l l
n a
p en
p or
r it
t a
u ch
Ð ¸
Ú ©
Ġ #
Ġ at
Ġ ed
Ġ out
Ġà¦ Ļ
à¦¾ /
à¦° à¦ĵà§Ł
à¦¿ ÂŃ
à¦¨ à¦Ŀ
à¦¨ à¦ļà¦ķ
à¦¨ à¦ľà¦²
à¦¤ à¦¹à¦¤
à¦² à¦¨à¦¬
à¦² à¦¦à¦¹
à¦ķ à¦ĵà§Ł
à¦ķ à¦¸à¦®
à¦ķ à¦°à¦ķà¦®
à§ģ âĢĺ
à¦¬ à¦ľà¦¯
à¦¬ à¦Łà¦¬
à¦¬ à¦Ĺà¦¤à¦Ń
à¦¯ à¦°à¦¤
à¦¯ à¦ªà¦¨
à¦¯ à§°
à¦® à¦ķà¦²
à¦® à¦¹à¦¸
à¦¼ à§Ī
à¦¼ âĢĿà¥¤
à§ĭ âĢĿà¥¤
Ġà¦¬ à§°
Ġà¦¬ hol
à¦¸ à¦¤à¦°
à¦¸ à¦°à¦¸
à¦¸ à¦¹à¦¨
à¦¸ à¦«à¦²
Ġà¦Ĩ à¦£à¦¬
à¦¦ à¦Ļ
à¦¦ à¦ķà¦°
à¦ª à¦«
à¦ª à¦¸à¦®
à¦ª à¦®à¦£
à¦ª à¦¯à¦ľ
à¦ĩ à¦Ŀ
Ġà¦¦ à¦ĩà¦¯
à¦ľ à§İ
à¦ľ à¦¯à¦¨
à¦ľ à¦¸à¦®
à¦ľ à§Łà¦¨
à¦ľ à¦¦à¦£
à¦¶ à¦ľà¦¨
à§Ł à¦¹
à§Ł à¦ľà¦¨
Ġà¦ħ à§Ł
à¦ĸ à¦¹
à¦· à§ľ
à¦· à¦«
à¦· à¦ļà¦¨
à¦¼à§ĩ :
à¦§ à¦¤à¦®
à¦§ à¦¶à¦¤
âĢ ¨
Ġà¦¯ à¦¸
Ġà¦¯ à¦ľà¦®
Ġà¦¯ à¦®à¦¦
à¦¹ à¦§
à¦¹ à¦°à¦ķ
à¦¹ à¦¬à¦²
à¦¹ à¦Ĺà¦¨
à¦ļ à¦®à¦¤
à¦£ à¦ĸ
à¦£ à¦§à¦°
à¦ģ âĢĻ,
Ġà¦Ĺ à¦¸
Ġà¦¶ à§Łà¦¨
Ġà¦° à¦°
Ġà¦° à¦ĩ
Ġà¦° à¦£à¦¨
à¦Ń à¦ª
à¦Ń à¦ĵ
à¦Ń à¦°à¦£
à§Ĥ à¥¤
à¦ł à¦ķà¦°
à¦¼à¦¾ à¥¤âĢĻ
Ġà¦ĵ à§İ
Ġà¦ĵ à¦°à¦ĩ
Ġà¦ĵ à¦ľà¦¸
à§ľ à¦¹
Ġà¦² à¦ĩ
Ġà¦² à¦Ľ
Ġà¦ĸ à¦¨à¦ķ
Ġà¦¬à¦² à¦¬à¦¤
Ġà¦ħà¦¨ à¦Łà¦¨
Ġà¦ªà¦° à¦Ľ
à¦¾à¥¤ à¥¤
à¦¬à¦¨ à¦¶
Ġà¦ĺ à¦°à¦£
ĠâĢ Ŀ
Ġà¦®à¦¨ à¦°
Ġà¦®à¦¨ à¦®à¦°
à¦ŀ à¦¦
Ġà¦ıà¦ĩ à¦¡à¦¸
à¦ľà¦¨ à¦¬à¦°
à¦ī à¦¤à¦°
à¦ī à¦²à¦ķ
à¦ī à¦¨à¦ķ
à¦ī à¦ĩà¦¯
à¦¬à¦° à¦°
à¦¬à¦° à¦ª
à¦°à¦ķ à¦¯
à§Į -
à¦Ĩ à¦°à¦£
à¦ĺ à¦·
à¦ĺ à¦¤à¦°
Ġà¦ľà¦¨ à¦¸à¦¨
Ġà¦ĩ à¦®à¦¨
Ġà¦ĩ à¦®à¦°
à§ģà¦ģ ,
à¦·à¦£ à¦ľ
Ġà¦ªà¦¥ à¦¯
Ġà¦¬à¦¸ à¦°
à¦ħ à¦²à¦ķ
à¦ħ à¦¸à¦¤
Ġà¦ıà¦¸ à¦®à¦¯
à¦ķà¦² à¦¤
à¦ķà¦² à¦¸
à¦¤à¦¬ à§Łà¦¸
Ġà¦Ĺà¦² à¦Ĺ
à¦ķà¦° à¦ĵ
Ġà¦īà¦¦ à¦Ń
à¦¦à¦¨ à¦Ł
à¦ķà¦Ł à¦®à¦¯
à¦ķà¦¤ à¦¦
Ġà¦ľà¦² à¦ĩ
à¦°à¦¹ à¦Ĺ
à¦¨à¦¬ à¦¬à¦¨
Ġà¦¸à¦° à¦·
Ġà¦īà¦ª à¦®à¦¹
à¦Ĺà¦² à¦¦
à¦¿à¦ĥ ,
à¦°à¦¦ à¦£
à¦®à¦¯ à¦ľ
Ġà¦¸à¦¹ à¦¨
Ġà¦¸à¦¹ à¦®à¦°à¦£
à¦°à¦¯ à¦¨
à¦Ľà¦¨ à¦¦
à¦°à¦ľ à¦Ĺà¦¤
à§Ģ, âĢĿ
Ġà¦ĩà¦¤ à¦°à¦¬
Ġà¦ªà¦¦ à¦Ł
à¦¾âĢĶ âĢĻ
Ġà¦®à¦° à¦ļ
à¦°à¦Ń à¦°
à§įâĢĮ âĢĻ
ĠâĢĶ -
à§İà¦ķ à¦ļ
à§İà¦ķ à¦£
à§° à¦ļà¦£
à¦¼à§ĩà¥¤ âĢĻ
Ġà¦ªà¦¤ à¦ŀ
Ġà¦¶à¦¤ à¦ļ
Ġà¦¶à¦¤ à¦¶à¦¤
à¦¯à¦° à¦ļà¦¨
à¦¨à¦° à¦Ļ
à§¦ à§®
Ġà¦¬à§ľ à¦²
à¦¯à¦¥ à¦Ń
à¦Ĺà¦ľ à¦ĸ
Ġà¦ıà¦ķà¦ĩ à¦¸
Ġà¦ıà¦ķà¦ĩ à¦°à¦ķà¦®
Ġà¦¹à¦° à¦·
à¦¦à¦® à¦¬à¦¨
Ġà¦ķà¦¨ à¦Ń
à¦®à¦¹ à¦ķ
Ġà¦Ĺà¦¹ à¦¨à¦¤
à¤ µ
à¦®à¦¦ à¦¤
Ġà¦ľà§Ł à¦²
à¦¬à¦Ń à¦Ļ
à¦ªà§ľ à¦¶
Ġà¦°à¦¸ à¦¸
à¦¦à¦ķ à¦£
Ġà¦®à¦¦ à¦¤
à§ª à§Ń
à¦¨à¦ª à¦ŀ
Ġà¦¦à¦® à¦ķà¦²
Ġà¦Ĩà¦ĩà¦¨ à¦ķ
Ġà¦Ĩà¦ĩà¦¨ à¦ľ
à¦¨à§Łà¦¨ à¦¶
à¦¬à¦® à¦Ļ
on e
à§ĩâĢĻ -
à¦ľà¦Ĺ à§İà¦ķ
à§Ń à§§
,âĢĿ âĢĶ
Ġà¦°à¦¥ à¦¯
at a
at ic
Ġthe re
Ġthe se
Ġà§© à§§à§©
Ġà§© à§«à§¦
Ġà¦Ĩà¦« à¦Ł
Ġà¦ĸà¦° à¦ĸà¦°
ed ic
à§ĭâĢĻ âĢĶ
Ġà¦¬à¦¶ à¦¬à¦°
Ġà¦ļà¦°à¦£ à¦§
Ġn ow
à¦Ĩà¦ļ à¦®à¦ķ
il e
Ġà§ª à§¦à§¦
Ġd rop
Ġà¦¡à¦Ĺ à¦®à¦Ĺ
Ġà¦ıà¦ķà¦ª à¦²à¦ķ
à§ľà¦² à¦£
all uc
ĠR up
Ġh is
Ġà¦®à¦Ī à¦¨à¦ķ
os e
os s
Ġà§§à§¯à§¯à§ ª
ure s
Ġà¦ıà¦ķà¦Ŀ à¦²à¦ķ
Ø§ ÙĦ
ĠĠĠĠĠĠĠĠ ĠĠĠĠĠĠĠĠ
Ġà¦Ńà¦°à¦£ à¦ª
à¦ķà¦Ŀ à¦²à¦ķ
Ġà¦«à¦¸à¦« à¦°
Ġà¦¸à¦¬à¦° à¦ķà¦®
Ġcol lect
ĠBen gal
alluc ination
a re
b or
e ar
f ul
h in
i ous
l ow
t o
v en
v ed
â Ĩ
å ĵ
Ġ )
à§ĩ à¥¥
à¦° à¦°à¦¥
à¦° à¦Ĺà¦¨
à¦° à¦¡à¦¬
à§į âĢĻà¥¤
à¦¨ à¦¶à¦ķ
à¦¨ à¦°à¦ķà¦®
à¦¤ à¦ķà¦²
à¦¤ à¦¦à¦°
à¦¤ à¦ĸà¦¤
à¦¤ à¦ļà¦²
à¦¤ à¦¤à¦ķ
à¦² à¦¦à¦°
à¦² à¦®à¦¤
à¦² à¦¸à¦®
à¦² à¦®à§Ł
à¦² à¦°à¦Ļ
à¦ķ à¦ķà¦°
à¦ķ à¦¸à¦¨
à§ģ '
à¦¬ à¦ķà¦¤
à¦¬ à¦ķà¦¬
à¦¬ à¦®à¦¶
à¦¯ à¦®à¦ķ
à¦¯ à¦ľà¦Ĺà¦¤
à¦® à¦¬à¦°
à¦® à¦ªà¦¨
à¦® à¦°à¦¸
à¦® à¦²à¦¬
Ġà¦ª à§°
Ġà¦ª à§Łà¦²
à¥ Ĥ
à¥¤ -
à¦¦ à¦ķà¦ķ
Ġà¦¨ à¦¹à¦°
Ġà¦® à¦Ĺà¦¡
à¦Ł à¦®à¦¨
à¦Ł à¦°à¦¬
à¦Ł à¦ĺ
à¦Ł à¦¸à¦®
à¦ª à¦Ľà¦¨
à¦ĩ à¦·
à¦ĩ à¦ķà¦Ł
Ġà¦¦ à¦¶à¦¬
Ġà¦¤ à¦Łà¦°
à¦ľ à¦ªà¦¦
à¦ľ à¦¤à¦¤
à¦Ľ à¦®
à¦Ľ à¦Ľ
à¦¶ à¦ķà¦Ł
à¦¶ à¦ķà¦¤
à¦¶ à¦¨à¦ĵ
à¦¶ à¦®à¦¤
Ġà¦ı à¦®à¦¤
Ġà¦ħ à¦°à¦¬
Ġà¦ħ à¦¤à¦¬à¦¡
à¦ĸ à¦¬à¦¨
à¦ĸ à¦ªà¦¤
à¦· à¦Ľ
à¦· à¦ĸ
à¦· à¦®à¦¯
à¦Ĺ à§Ł
à¦Ĺ à¦¤à¦°
à¦Ĺ à¦Ĺà¦¤
à¦Ĺ à¦ªà¦¤
à¦Ĺ à¦ªà¦¥
à¦Ĺ à¦«à¦²
à¦Ĺ à¦¶à¦¯
à¦§ à§°
à¦§ à¦¸à¦ļ
Ġà¦¯ à§İà¦¸
à¦ļ à¦ļ
à¦ļ à¦ķà¦¤
à¦£ à¦ªà¦°
à¦£ à¦ĺ
Ġà¦ķà¦° à¦¦
à¦¡ à¦§
à¦¥ à¦¡
Ġà¦ļ à¦ļ
à¦Ń à¦ŀ
à¦Ń à¦²à¦¬
à§ĩà¥¤ âĢĵ
Ġà¦Ĩà¦® à¦¤
à¦Ĥ âĢĵ
à¦¾à¦ģ âĢĶ
à¦¼à¦¾ âĢĿ
à¦¼à¦¾ à¦ĥ
Ġà¦ĵ à¦¨à¦¨
Ġà¦² à¦¹
Ġà¦² à¦¬à¦Ļ
Ġà¦« à¦¯
Ġà¦ħà¦¨ à¦Ĺ
à¦¾, -
Ġà¦¸à¦® à¦ķà¦ķ
Ġà¦®à¦¨ à¦Ń
Ġà¦ıà¦ĩ à¦°
à§İ à¦ľ
à¦ī à¦ŀ
à¦°à¦ķ à¦ķ
à¦ı à¦ª
à¦Ĩ à§ľ
à¦Ĩ à¦°à¦ķ
à¦Ĩ à¦ªà¦¦
à¦Ĩ à¦Łà¦ķ
à¦ĺ à¦«
Ġà¦¡ à¦²à¦«
Ġà¦Ł à¦ªà¦Łà¦ª
Ġà¦¹à¦² à¦Ł
Ġà¦ļà¦² à¦ķ
Ġà¦¬à¦¨ à¦ķ
Ġà¦¬à¦¨ à¦ľà¦Ļ
à¦ħ à¦¬à¦¤
à¦ħ à¦ªà¦®
Ġà¦ħà¦¸ à¦®à¦¤
à¦ķà¦² à¦ľ
Ġà¦Ĩà¦ķ à¦¨
à¦¦à¦¨ à¦¹
à¦²à¦ķ à¦ª
Ġà¦¶à¦¬ à¦¦
à¦¦à¦° à¦ª
Ġà¦ľà¦² à¦®
Ġà¦ľà¦² à¦ļ
à¦°à¦¹ à¦Ł
à¦¿à¦Ĥ !
à¦§à¦ķ à¦°à¦£
à¦¨à¦¬ à¦¯
Ġà¦¸à¦° à¦Ľ
à¦¯à¦ķ à¦¥
à¦Ĺà¦² à¦ĩ
à¦Ĺà¦² à¦Ľ
à§ĩâĢĶ âĢĿ
Ġà¦ķà¦² à¦ª
à¦°à¦¯ à¦ľ
à¦¸à¦¨ à¦Ń
à¦°à¦ľ à¦ķ
à¦¶à¦¨ à¦ĩ
Ġà¦Ńà¦° à¦Ľ
à¦°à¦² à¦¹à¦°
à¦ķà¦¬ à¦ļ
Ġà¦īà¦¤ à¦¥
à¦ıà¦ĩ à¦ĩ
Ġà¦ªà¦¦ à¦¦à¦²
Ġà¦ĵà¦° à¦«
Ġà¦ħà¦Ĺ à¦®
à¦°à¦ªà¦° à¦¨
à¦Ńà¦¬ à¦ĩ
à¦¹à¦² à¦®à§Ł
à¦®à¦£ à¦¤
âĢ¦ )
Ġà¦Ĺà¦° à¦Ĺà¦°
Ġà¦¬à¦ĩ à¦ªà§ľ
à¦ªà¦ķ à¦¦
Ġà¦¬à¦Ľà¦° à¦Ĺ
à§° à¦²
à§° à¦¦
à§° à¦¥à¦®
à¦¹à¦¨ à¦²
Ġà¦¨à¦¬ à¦¤à¦°
à¦°à¦ķà¦® à¦ĩ
à§¦ à§«
à¦¯à¦¦ à¦¸
Ġà¦Ĩà¦¦ à¦¬
à¦¯à¦¸ à¦Ń
Ġà¦Ĩà¦¡ à¦®
Ġà¦Ĺà¦¤ à¦ľà¦¨
à¦¸à¦« à¦°
à¦¸à¦« à¦Łà¦ĵà¦¯
à¦°à¦Ĺ à¦®
à¥¤âĢĻ âĢĿ
à¦°à¦¹à¦£ à¦ķ
!âĢĿ ,
à§¨ à§Ń
à§¨ à§¬
Ġà¦īà§İà¦¸à¦¬ à¦ĩ
à¦®à¦¹ à¦¨à¦¨
à¦¹à¦°à¦£ à¦ĵ
Ġà¦Ĺà¦¹ à¦¬à¦°
à¦·à§Ł à¦¬à¦¸
à¦¸à¦¹ à¦¬
à¦ķà¦°à¦£ à¦°
à¦¥à¦ķ à¦Ń
Ġà§¨ à§¦à§¦
à¦¬à¦¹ à¦£
Ġà¦°à¦¸ à¦¬à¦¤
à§© à§®
an s
Ġà¦¸à§İ à¦ªà¦¥
Ġà¦¸à§İ à¦ļà¦°
à§ª à§¨
à§ª à§§
Ġà¦ļà¦Ł à¦ļà¦Ł
Ġà¦ĵà¦· à¦§
à¦ħà¦¬ à¦¸à¦°
on d
Ġà¦Ĩà§Ł à¦¶
à¦¬à¦ľà¦¨ à¦¦
at e
is m
is s
à§® à§¬
à¦¾âĢĿ ,
ar a
ar d
Ġà¦¨à§ľ à¦²
à¦¿âĢ¦ à¥¤
à¦Ŀà¦ķ à¦Ŀà¦ķ
Ġc an
Ġo ld
Ġà¦¨à¦°à¦ķ à¦¬
Ġà¦¸à¦°à¦¸ à¦°
Ġf rom
Ġà¦¸à¦«à¦² à¦Ń
Ġà§§à§¯à§Ń à§©
Ġà§ª à§«
Ġà¦ķà¦¦ à¦®à¦¤à¦²
à§ĭ?âĢĿ âĢĶ
ĠA s
le t
à¦®à¦Ŀ à¦®
Ġth y
à¦¨à¦®à§Ł à¦¤
ĠR iya
Ġà§§à§¨ à§¦à§¦
Ġà§¦ à§¨
Ġà§¦ à§ª
Ġbe en
Ġbe auty
Ġg row
Ġà¦Ńà¦Ł à¦ļ
Ġà¦ķà¦¨à¦ķ à¦¦
Ġà¦ķà¦¨à¦ķ à¦ļ
Ġre f
ir d
à¦·à¦² à¦§
à§ģà§į à¦ģ
Ġne ver
Ġà¦ļà¦Łà¦ķ à¦¦
Ġà¦¬à¦Ľ à¦°à¦ķ
Ġà¦§à¦ª à¦§à¦ª
Ġ*** *
Ġlo ve
ºçľºçľºçľºçľ ºçľºçľºçľºçľ
·çľ·çľ·çľ·çľ ·çľ·çľ·çľ·çľ
Ġà¦Ĩà¦ī à¦¸à¦¹
led ge
oug h
Ġà¦¸à¦¦à¦² à¦¬à¦²
åĵ į
3 6
3 7
? âĢ¦
a w
d ig
e op
i x
j a
o ci
p t
s ha
t her
u hin
y st
Â ¦
Ù Ĭ
Ġ &
Ġ en
Ġ all
à¦° à¦°à¦ķ
à§į âĢĵ
à¦¿ à§ĩ
à¦¿ âĢĮ
à¦¿ ...
à¦¨ à¦¬à¦²
à¦¨ à¦ķà¦²
à¦¨ à¦ªà¦¦
à¦¤ à§Ł
à¦¤ à§°
à¦² à¦¬à¦¤
à¦² à¦¹à¦°
à¦² à¦ªà¦ķ
à¦² à¦§à¦°
à¦ķ à¦ªà¦¥
à§ģ ?âĢĿ
à¦¬ à¦¬à¦²
à¦¯ à¦£
à¦¯ à¦¤à¦¨
à¦¯ à¦ªà¦¤
à¦¯ à¦®à¦°
à¦¯ à¦Ĺà¦°
à¦® à¦¸à¦²
à§ĭ ),
Ġà¦ķ à¦¤à¦°à¦ķà¦®
à¦¸ à¦ķà¦°
à¦¸ à¦¨à¦ĵ
à¦¸ à¦¸à¦¹
à¦¸ à§ľà¦ķ
Ġà¦Ĩ à¦£
Ġà¦Ĩ à¦ĩà¦¯
Ġà¦Ĩ à¦ĸà¦°
à¥¤ (
à¥¤ âĢĶâĢĺ
à¦¦ à¦¡
à¦¦ à¦¬à¦ª
à¦¦ à¦¨à¦¤à¦¤
Ġà¦¨ à¦°à¦¸
Ġà¦¨ à¦¨à¦¦
Ġà¦® à¦ļà¦ķ
à¦Ł à¦°à¦¶
à¦Ł à¦¤à¦®
à¦ª à¦¦à¦°
à¦ª à¦¬à¦¦
à¦ª à§°
à¦ĩ à¦¥à¦¨
à¦ĩ à¦īà¦¨
à¦ĩ à¦īà¦ľ
Ġà¦¦ à§°
Ġà¦¤ à¦£
à¦ľ à¦®à¦¨
à¦ľ à¦°à¦¨
à¦ľ à¦¤à¦²
à¦Ľ à¦ķà¦ĩ
à¦¶ à¦°à¦®
à¦¶ à¦²à¦Ĺ
Ġà¦¹ à¦°à¦¨
Ġà¦¹ à¦Łà¦²
Ġà¦¹ à¦ĵà¦¨
Ġà¦ı à¦·
Ġà¦ı à¦§
Ġà¦ı à¦¥
Ġà¦ı à¦°à¦ĵ
Ġà¦ı à¦Ńà¦°
Ġà¦ħ à¦ªà¦¨
Ġà¦ħ à¦¹à¦²
à¦ĸ à¦°à¦¬
à¦ĸ à¦²à¦¤
à¦ĸ à¦Ńà¦Ļ
à¦· à¦°à¦ľ
à¦· à¦¸à¦ķ
à¦· à¦¬à¦°à¦£
à¦¼à§ĩ )
à¦§ à¦°à¦¤
à¦§ à¦¬à¦¨
à¦§ à¦®à¦ķ
à¦¹ à¦«
à¦ļ à¦°à¦¬
à¦ļ à¦°à¦®
à¦¥ à¦ļ
à¦¥ à¦¸à¦®
Ġà¦¶ à¦°à¦¶
Ġà¦Ń à§ľ
ĠĠ Ġ
Ġà¦° à¦ĵà¦¯
Ġà¦° à¦Ĺà§ľ
à¦Ń à¦ĩ
à¦Ń à¦ªà¦¤
à§ĩà¥¤ )
Ġà¦Ĩà¦® à¦ľà¦¨à¦¤
Ġà¦Ľ à¦ª
Ġà¦ıà¦ķ à¦¹
à¦Ĥ âĢ¦
à¦ł à¦ĸ
à¦ł à¦«
Ġà¦ī à¦ĩà¦ķ
à¦Ļ à¦Ł
à¦¾à¦ģ !
à¦¾à¦ģ âĢ¦
à§ĩ, âĢĵ
Ġà¦¥ à¦ķ
Ġà¦² à¦²à¦¨
Ġà¦« à¦ľà¦°
Ġà¦« à¦°à¦«à¦°
à¦°à¦¤ à¦¯
à¦°à¦¤ à¦Ń
Ġà¦ĸ à¦¸à¦²
Ġà¦ħà¦¨ à¦§
Ġà¦ħà¦¨ à¦²à¦¸
à¦¾à¥¤ âĢĺ
Ġà¦¸à¦® à¦ªà¦°
ĠâĢ ŀ
Ġà¦®à¦¨ à¦ľ
à¦®à¦¨ à¦°
à¦¿, âĢĶ
à¦¼à¦¿ âĢĵ
Ġà¦ıà¦ĩ à¦ĩ
à§İ à¦Ł
à§İ à¦ªà¦²
à¦°à¦¬ à¦ļà¦¨
à¦¤à¦° à¦¥
à¦ľà¦¨ à¦°
à¦ľà¦¨ à¦Ł
à¦ľà¦¨ à¦Ĺ
à¦ľà¦¨ à¦¹
à¦ī à¦ĸ
à¦ī à¦ªà¦Ĺ
à¦ī à§İà¦¸à¦°
à¦¬à¦° à¦®à¦¯
Ġà¦Ĩà¦² à¦ķ
à¦« à¦¦
à¦ı à¦¤à¦Ł
à¦ı à¦¨à¦ľ
Ġà¦¸à¦¬ à¦¸
à¦Ĩ à¦ĸ
à¦Ĩ à¦·
à¦Ĩ à¦ĩà¦¸
Ġà¦Ł à¦ĩà¦Ł
Ġà¦Ł à¦²à¦Ľ
Ġà¦ľà¦¨ à¦¬à¦¹
à¦¬à¦² à¦¯
à¦¬à¦² à¦¹
Ġà¦ĩ à¦Ĺ
Ġà¦ĩ à¦¬à¦¨
Ġà¦ĩ à¦Ĺà¦²
Ġà¦ĩ à¦¨à¦¬à¦ķ
âĢĵ à¥¤
âĢĵ âĢĵ
à¦ĥ ?
Ġà¦ħà¦¬ à¦¦à¦®
Ġà¦ªà¦¥ à¦ľ
Ġà¦ł à¦¨
à¦ħ à¦ªà¦Ł
à¦ħ à¦²à¦¸
à¦ħ à¦¬à¦¹
Ġà¦ħà¦® à¦²à¦¤
Ġà¦ıà¦¸ à¦ª
Ġà¦ħà¦¸ à¦¬à¦°
à¦ķà¦² à¦°à¦¬
Ġà¦Ĩà¦¬ à¦¡
à¦¬à¦¤ à¦ķ
à¦¸à¦¬ à¦Ł
à¦¤à¦¬ à¦¸
Ġà¦Ĩà¦¨ à¦ļ
à¦ķà¦° à¦Ľ
Ġà¦īà¦¦ à¦Ĺà¦¤
à¦¦à¦¨ à¦®
à¦¦à¦¨ à¦§
à¦¦à¦¨ à¦ĵ
à¦¦à¦¨ à¦®à¦¯
à¦¾à¦Ĥ à¥¤
Ġà¦ľà¦² à¦ªà¦°
Ġà¦ľà¦² à¦¢
Ġà¦¸à¦¨ à¦ķ
à¦¨à¦¬ à§İ
à¦¨à¦¬ à¦¸à¦¤
à¦§à¦¨ à¦ª
Ġà¦ĺà¦° à¦ĸ
à¦Ĩà¦® à¦²
à¦Ĺà¦² à¦ĵ
à¦Ĺà¦² à¦®à§Ł
Ġà¦ķà¦² à¦Ł
à¦²à¦¬ à¦£
Ġà¦ħà¦ª à¦²
Ġà¦ħà¦ª à¦¹
à¦¶à¦¨ à¦²
à¦°à¦² à¦®
à¦°à¦² à¦¸à¦Ń
à¦¦à§Ł à¦ľ
Ġà¦°à¦Ļ à¦ļà¦Ł
Ġà¦ħà¦¥ à¦ĩ
à¦ĩà¦¨ à¦ķ
Ġà¦ªà¦¦ à¦¦
Ġà¦ªà¦¦ à¦®à¦°
à¦¶à¦¬ à¦ķ
à¦¹à¦² à¦¦
à¦ªà¦¥ à¦¯
à¦¤à¦² à¦Ĺ
âĢ¦ âĢ¦
à¦¤à¦ķ à¦¥
à¦¤à¦ķ à¦°à¦¬
Ġà¦¶à¦¹à¦° à¦ľ
à¦¸à¦° à¦ŀ
à§įâĢĮ âĢį
à§ģâĢĻ ,
ĠâĢĶ âĢľ
Ġà¦Ĳ à¦¤à¦°
à¦Łà¦² à¦Ĺ
Ġà¦ĵà¦ĩ à¦¦
à§İà¦ķ à¦®
Ġà¦ħà¦² à¦°
Ġà¦ħà¦² à¦ķà¦Ł
à¦°à¦ª à¦²
à§° à¦¥
Ġà¦Ĺà§ľ à¦Ľ
Ġ( âĢĺ
Ġà¦¸à¦ķà¦² à¦ĩ
Ġà¦Ī à¦Ļ
Ġà¦¨à¦¬ à¦ļ
Ġà¦ıà¦ķà¦¬ à¦Ľà¦°
Ġà¦Ĩà¦ļ à¦®à¦¨
à¦¼à¦¾, âĢĿ
à¦°à¦Ĺ à¦®à¦¨
Ġà¦ĺà¦¨ à¦ĺà¦Ł
à¦¬à¦¶ à¦°
Ġà¦īà§İà¦¸ à¦®
Ġà¦°à¦ķà¦® à¦Ń
Ġà¦ĸà¦¬à¦° à¦ĩ
Ġà¦¬à¦ķ à¦Ľ
Ġà¦ķà¦¨ à¦¡
à¦®à¦°à¦£ à¦¶à¦ķ
Ġà¦Ĺà¦£ à¦ªà¦¤
Ġà¦ªà¦°à¦® à¦ª
Ġà¦ķà¦²à¦ķ à¦£
à¦°à¦° à¦ļà¦¨
à¦ķà¦°à¦£ à¦¯
à¦ķà¦°à¦£ à¦ª
à¦°à¦¬à¦² à¦¤à¦°
à¤ ¸
à¤ ļ
à¤ ľ
he l
à§© à§«
an ce
à¦ļà§Ł à¦ķ
in al
à¦ļà¦°à¦£ à¦¶
Ġà¦®à¦¶ à¦ķà¦°
à¦¦à¦¸ à¦ĩ
à¦ĩà¦Ń à¦¸
Ġà¦īà¦ªà¦¨ à¦¯
à¦¬à¦°à¦£ à¦ķ
Ġà¦ļà¦°à¦® à¦Ń
al f
al con
Ġthe y
Ġà¦Ŀà§ľ à¦ķ
à§¬ à§«
er n
en ce
Ġà¦Ķ à§İà¦¸
Ġà¦Ńà¦Ĺ à¦¬à¦¨
Ġà¦Ńà¦°à¦¸ à¦¨
Ġà§© à§«
Ġà§© à§ª
Ġa c
Ġw alk
à¦īà¦¡ à¦¸
Ġà¦²à§ľ à¦¤
Ġà¦²à§ľ à¦Ľ
Ġà¦¨à§ľ à¦¤
à¦Ĩà¦¤ à¦Ļ
à¦ĭ à¦¦
à§Ģà¦Ĥ ,
à¦¶à¦¦ à¦Ń
es c
ĠI nt
Ġf e
Ġà¦Ĩà¦Ł à¦ļà¦²
à¦ħà¦ª à¦Ľà¦¨
Ġà§§à§¯à§Ń à§«
Ġà¦Ĩà¦ĩ à¦ĵà¦Ł
Ġà§ª à§¦
ĠS oci
à¦ĩà¦ľà¦¨ à¦ĩ
ic e
ion s
ve l
Ġà¦ķà¦²à¦¤ à¦²
ĠC h
ol d
ĠD etect
à§°à¦¹ à¦£
Ġà§¦ à§«
ow n
Ġh allucination
Ġh alf
ĠM ay
Ġà¦ķà¦°à¦¤à¦² à¦Ĺà¦¤
ig n
Ġà§§à§Ń à§ªà§©
Ġà¦ĸà¦ļ à¦ĸà¦ļ
us ion
Ġà§§à§¯à§® à§¯
ver y
Ġon e
Ġà¦ĸà¦¨à¦¨ à¦ķ
Ġà¦Łà¦¹à¦² à¦¦
ĠY ou
ĠâĢĶâĢĶâĢĶ -
Ġà¦ĺà¦°à¦ķ à¦¨
Ġà¦¬à¦°à¦¬ à§°
ang u
iter ature
way s
Ġab out
âĢ¨ Ċ
ĠRup sha
à¦ķà¦°à¦£à¦° à¦ļà¦¯
! âĢ¦
C O
F i
O de
T h
c le
f t
f or
f rom
h i
h y
j un
l es
n ess
r ish
s p
s y
t le
u e
w o
y es
¿ ½
Ð ¿
Ñ ģ
Ø ´
à «
à °
ï ¿½
Ġ Z
Ġ up
Ġ ÙĨ
à¦¾ à¥¥
à¦° à¦¯à¦¤
à¦¨ à¦¦à¦¯
à¦¨ à¦ļà¦¨
à¦¨ à¦¸à¦¤
à¦¤ à¦ªà¦¨
à¦¤ à¦®à¦ķ
à¦¤ à¦¶à¦¤
à¦¤ à§İà¦¸à¦®
à¦² à¦ªà¦¨
à¦² à¦®à¦°
à¦² à¦®à¦¹
à¦² à¦ªà¦®
à¦² à¦¶à¦¯
à¦ķ à¦¥à¦¨
à§ģ à¥¥
à§ģ âĢ¦à¥¤
à¦¬ à¦¹à¦¸
à¦¬ à¦¹à¦°
à¦¯ à¦¡
à¦¯ à¦¹à¦®
à¦® à¦¬à¦¤
à¦® à¦¸à¦¤
à¦® à¦ĺà¦¨
à¦¼ ),
Ġà¦ķ à¦ĸ
Ġà¦¬ à¦ķà¦²
Ġà¦¬ à¦¶à¦®
Ġà¦¸ à¦ĩà¦Ľ
Ġà¦ª à¦²à¦²
à¦¸ à¦®à¦²
à¦¸ à¦Ńà¦°
Ġà¦Ĩ à¦ļà¦²
à¥¤ âĢĶ
à¥¤ âĢľ
à¥¤ âĢĶâĢĻ
à¦¦ à¦¸à¦®
à¦¦ à§°
à¦¦ à¦ĺà¦°
à¦¦ à¦¸à¦¹
Ġà¦¨ à¦¦à¦¨
Ġà¦¨ à¦§à¦°
Ġà¦¨ à¦¬à¦¤à¦®
Ġà¦® à¦«
Ġà¦® à¦Ļà¦²
à¦Ł à¦®à¦¸
à§Ģ ),
à¦ª à¦ĺ
à¦ª à¦Ĺà¦¤
à¦ª à¦¸à¦¤
à¦ª à¦¹à¦¤
à¦ª à§Łà¦¸
à¦ĩ à¦ı
à¦ĩ à¦²à¦¬
à¦ĩ à¦®à¦²
à¦ĩ à¦¤à¦²
à¦ĩ à¦¶à¦Ł
Ġà¦¦ à¦§
Ġà¦¦ à¦¶à¦¨
à¦ľ à¦¬à¦°
à¦ľ à¦ķà¦²
à¦ľ à¦¤à¦¬
à¦ľ à¦ĺà¦°
à¦Ľ à¦Ń
à¦¶ à¦¡
à¦¶ à¦¬à¦°
à¦¶ à¦®à¦¯
à¦¶ à¦®à¦°
à¦¶ à¦ªà¦°à¦®
Ġà¦¹ à¦ĩà¦Ľ
Ġà¦¹ à¦¸à¦ª
Ġà¦ı à¦®à¦ª
à§Ł à¦ľà¦¨à¦¦
Ġà¦ħ à¦°à¦¤
à¦ĸ à¦¢
à¦· à¦°à¦®
à¦· à¦¦à¦°
à¦· à¦¨à¦ĵ
à¦Ĺ à¦¸à¦®
à¦Ĺ à¦®à¦¸
à¦Ĺ à¦¸à¦¹
à¦Ĺ à¦ľà¦¨à¦ķ
à¦Ĺ à¦¯à¦ľ
à¦Ĺ à¦¦à¦¤
à¦¼à§ĩ ?âĢĻ
à¦¼à§ĩ âĢ¦à¥¤
à¦§ à¦°à¦ķ
à¦§ à¦Ńà¦°
à¦¹ à¦²à¦ķ
à¦£ à¦²
à¦£ à¦¬à¦¤
à¦£ à¦ªà¦¦
Ġà¦ķà¦° à¦¸
Ġà¦ķà¦° à¦Ĺ
à¦¡ à§Łà¦¨
Ġà¦¶ à¦¶à¦¬
Ġà¦Ń à¦¡
Ġà¦° à¦£à¦®
Ġà¦Ĩà¦® à¦ļ
Ġà¦ıà¦ķ à¦®à¦¨
Ġà¦ıà¦ķ à¦¬à¦¸
Ġà¦ıà¦ķ à¦ĺà¦°
à¦Ĥ )
à¦ł à¦§
à¦ł à¦Ńà¦°
Ġà¦ī à¦Ń
à¦Ļ à§ľ
à¦¾à¦ģ âĢĵ
Ġà¦² à¦ĸ
à¦°à¦¤ à¦Ł
Ġà¦Ĩà¦° à¦¬à¦°
Ġà¦ĸ à¦ķ
Ġà¦¬à¦² à¦ķ
Ġà¦§ à¦ĩà¦°
Ġà¦ªà¦° à¦ļ
Ġà¦ªà¦° à¦ªà¦ķ
à¦¬à¦¨ à¦Ĺà¦°
à¦¬à¦¨ à¦ķà¦¥
Ġà¦¸à¦® à¦®
Ġà¦¸à¦® à¦ª
Ġà¦®à¦¨ à¦¯
Ġà¦ıà¦ĩ à¦ľ
à§İ à¦ªà¦¨
à¦°à¦¬ à¦¹
à¦°à¦¬ à¦²à¦¤
à¦°à¦¬ à¦£à¦ķ
à¦°à¦¬ à¦¹à¦®
à¦ľà¦¨ à¦ľ
à¦ľà¦¨ à¦Ĺà¦£
à¦ī à¦ĵ
à¦ī à¦ªà¦¤
à¦ī à¦ªà¦¯
à¦ı à¦¯
à¦ı à¦Ĩ
à¦ı à¦¤à¦ĩ
à§Į ,
à¦Ĩ à¦¬à¦¦
Ġà¦®à¦¤ à¦Ł
Ġà¦ķà¦¥ à¦®
à¦ĺ à¦Ń
à¦ĺ à¦°à¦Ĺ
à¦ĺ à¦¸à¦®à¦¯
Ġà¦¡ à¦¬
Ġà¦Ĩà¦Ľ à¦²
à¦¬à¦² à¦ķ
Ġà¦Ŀ à¦®à¦Ŀà¦®
Ġà¦¹à¦² à¦ķ
Ġà¦ĩ à¦īà¦¸
à¦ĥ âĢ¦
Ġà¦ħà¦¬ à§Ł
à¦°à¦® à¦Ł
à¦°à¦® à¦¥
à§ĭà¦ģ ,
Ġà¦¬à¦¨ à¦¶
à¦ħ à¦¬à¦°
à¦ħ à¦«à¦²
à¦¤à¦¨ à¦Ł
à¦¤à¦¨ à¦ļ
Ġà¦ıà¦¸ à¦ıà¦¸à¦¸
Ġà¦ħà¦¸ à¦¤à¦°
à¦¬à¦¤ à¦¤
à¦¬à¦¤ à¦¸
à¦¬à¦¤ à¦¶
à¦¤à¦¬ à¦¯
à¦¤à¦¬ à¦¸à¦®
Ġà¦Ĺà¦² à¦¸
Ġà¦Ĩà¦¨ à¦¯
à¦¦à¦¨ à¦¬
à¦¦à¦¨ à¦ªà¦¤
à¦ķà¦Ł à¦²
à¦ķà¦Ł à¦®
à¦ķà¦Ł à¦¸
à¦ķà¦Ł à¦Ĺ
Ġà¦¬à¦° à¦²
Ġà¦¬à¦° à¦ª
Ġà¦¬à¦° à¦ĸ
à§ĩ? âĢĶ
Ġà¦®à¦¹ à¦ķ
à¦¿à¦Ĥ âĢĵ
Ġà¦Ĩà¦ªà¦¨ à¦®à¦¨
à¦²à¦¨ à¦ª
à¦¯à¦ķ à¦¨
à¦Ĩà¦® à¦Ĺ
Ġà¦īà¦ª à¦¶à¦®
à¦Ĺà¦² à¦¸
à¦Ĺà¦² à¦Ĺ
à¦°à¦¶ à¦®à¦¨
Ġà¦Ĩà¦¤ à¦ª
Ġà¦Ĩà¦¤ à¦¶
à¦ļà¦² à¦Ĺ
à¦ļà¦² à¦ļ
à¦ļà¦² à¦Ń
Ġà¦¸à¦¹ à¦®
à¦¸à¦¨ à¦¦
à¦ªà¦¦ à¦ĵ
à¦°à¦ľ à¦¦
à¦°à¦ľ à¦Ń
à¦¶à¦¨ à¦Ĺ
Ġà¦°à¦Ļ à¦¹
Ġà¦°à¦Ļ à¦ĵ
à¦ķà¦¬ à¦¦à¦²
à§İà¦¸ à¦¤
à§İà¦¸ à¦¹
à¦·à¦¤ à¦®
Ġà¦ľà¦® à¦¦à¦Ĺ
à¦ıà¦ĩ à¦¤
à¦Ńà¦¬ à¦ĵ
à¦Ńà¦¬ à¦ªà¦°
à¦Ĺà¦° à¦ª
Ġà¦¯à¦¤ à¦Ĺ
Ġà¦¯à¦¤ Åĵ
âĢ¦ à¥¤âĢĻ
âĢ¦ âĢ¦.
à¦·à¦ķ à¦Ĺà¦£
Ġà¦ħà¦ªà¦° à¦ľà¦¨
à§įâĢĮ !
Ġà¦¬à¦ĩ à¦ĵ
à¦¤à¦® à¦ľ
Ġà¦Ĳ à¦²
Ġà¦Ĳ à¦ĸ
à¦Łà¦² à¦®à¦²
Ġà¦«à¦² à¦Ł
à§° à¦ĩ
à§° à¦§
à§° à¦£
à¦®à¦¬ à¦§
Ġà¦¸à¦®à§Ł à¦ĵ
Ġà¦ĩà¦¨ à¦¹
Ġà¦Ĩà¦§ à¦¬
Ġà¦Ī à¦®
Ġà¦Ī à¦·à¦¦
Ġà¦¨à¦¬ à¦¬
Ġà¦īà§İ à¦ĸ
à¦¨à¦¸ à¦ª
Ġà¦Ĩà¦¹ à¦®à¦¦
à¦¼à§Ģ -
à¦¸à¦« à§ľ
Ġà¦¦à¦² à¦ªà¦¤
Ġà¦°à¦ķà¦® à¦«
à¦®à¦¸ à¦ļ
Ġà¦Ĩà¦ª à¦Ĺ
Ġà¦ķà¦· à¦²
à¦ĩà¦Ł à¦Ĺ
à§Ŀ à¦Ń
à¦¦à¦® à¦ľ
à¦Ĩà¦² à¦Ĺ
à¦ľà¦¬ à¦īà¦¦
à¦¹à¦°à¦£ à¦Ĺ
Ġà¦§à¦¨ à¦ªà¦¤
à¦¼âĢĶ âĢĻ
Ġà¦¸à¦¦ à¦Ĺ
à¦¸à¦¹ à¦ļà¦°
à¦ķà¦°à¦£ à¦¬
à¦īà¦² à¦¦
à¦¯à¦Ń à¦Ļ
à¦¤à¦¦ à¦¶
à¦ķà¦Ĺ à¦£
à¤ ¬
à¤ Ĺ
à¦¤à¦ª à¦ŀ
à§© à§¨
Ġà¦Ĳà¦ķ à¦®à¦¤
Ġà¦ľà¦Ĺà¦¤ à¦Ł
re e
re t
Ġà¦Ĩà¦ļà¦°à¦£ à¦ķ
à¦¬à§Ł à¦ĩ
on t
à¦Ĩà¦Ĺ à¦¸
Ġà¦ķà¦Ł à¦ķà¦Ł
Ġà¦¬à¦ī à¦Ŀ
Ġthe ir
à§¬ à§¯
is ed
à¦¾âĢ¦ âĢĻ
Ġà§© à§¦à§¦
Ġa r
Ġs m
ou nd
Ġb es
Ġb et
Ġb alcon
Ġà¦ļà§ľ à¦¤
à§ģâĢĶ âĢĻ
à¦¸à¦ķà¦² à¦ĩ
Ġc ount
Ġc ould
Ġà¦ľà¦Ĺà§İ à¦¬
Ġà¦ļà¦°à¦£ à¦ļ
Ġf am
à¦ħà¦ª à¦²à¦ķ
Ġà¦ķà§ľ à¦ķà§ľ
à§· à§·
Ġd r
Ġà¦ķà¦¦ à§°
à¦¤à¦ļ à¦°à¦¦
Ġà¦ľà¦¨à¦Ĺà¦£ à¦®à¦¨
Ġp ro
Ġà¦ħà¦¬à¦¸à¦° à¦ª
Ġà¦°à¦¤à¦¨ à¦¦
Ġà§§à§¦ à§¦à§¦
Ġà¦ķà¦¦à¦® à¦«
Ġà§§à§® à§Ń
Ġà¦°à¦£ à¦Ń
ĠB ut
à¦¨à§Ł à¦¨à¦ķ
Ġà¤ ¬
Ġl ong
ol og
Ġà¦¨à¦Ł à¦¬à¦°
à§§à§¯à§ ®
Ġà§§à§© à§«à§¦
ĠD o
ĠD iya
et y
ur av
Ġà§§à§¯à§ª à§«
Ġbe c
ĠM em
à¦īà¦ª à¦²à¦¬
ĠL ond
ad e
Ġà¦¤à¦ªà¦¨ à¦ķ
Ġà§§à§¯à§® à§¬
Ġà¦¶à¦¶ à¦§à¦°
Ġà¦Ĺà¦ł à¦¨à¦ķ
ag es
ĠW i
Ġà¦Ĺà¦²à¦¦ à¦ĺà¦°
Ġà§§à§¯à§¬ à§¦
Ġà¦īà¦ĩ à¦²à¦ķ
ab le
Ġà¦®à¦¦à¦¨ à¦¬
à¦®à§İ à¦²
Ġà¦ĵà¦²à¦Ł à¦ª
Ġà§§à§¯à§¨ à§¯
Ġà§§à§¯à§§à§ ª
Ġro ad
ug g
ug ht
Ġal ways
âĢķâĢķâĢķâĢķ âĢķâĢķâĢķâĢķ
Ġknow ledge
à§§à§¯à§ª à§Ń
Ġwor k
à¦¸à¦¹à¦¨ à¦¶
Ġcollect ive
ĠBengal i
Ġà¦¶à¦°à¦¶ à¦¯
ĠSoci ety
ĠDetect ive
ĠMay a
Ġbes ide
Ġbalcon y
ĠLond on
. à¥¤
. âĢĻ
3 8
4 0
4 3
4 5
A I
E R
a j
b o
d er
g r
i o
i re
l ess
m s
o b
o ve
o st
p h
r u
r ing
r ic
u k
Ð º
Ñ Ĥ
Ø ¯
Ù Ĳ
à ¨
à ´
Ġ '
Ġ ra
Ġ âĨ
Ġ very
Ĳ áĥ
à§ĩ à§Ģ
à§ĩ ..
à¦° à¦Ŀà¦°
à§į âĢĻ-
à¦¨ à¦ªà¦¨
à¦¨ à¦¦à¦°
à¦¨ à¦®à¦£
à¦¨ à¦ĺà¦¨
à¦¤ à¦£
à¦¤ à¦¸à¦°
à¦¤ à¦¸à¦ķ
à¦¤ à¦ĺà§ľ
à¦¤ à¦ĺà¦¡
à¦² à¦¸à¦¬
à¦² à¦°à¦ķà¦®
à¦² à¦ĸà¦£
à§ģ à§ĩ
à§ģ !âĢĻ
à¦¬ à¦¥
à¦¬ à¦¤à¦°
à¦¬ à¦ĩà¦Ł
à¦¬ à¦®à¦¹
à¦¬ à¦Ĺà¦£
à¦¬ à§İà¦¸à¦°
à¦¯ à¦°à¦¬
à¦¯ à¦ķà¦¤
à¦¯ à¦¶à¦ķ
à¦® à¦ªà¦¦
à¦® à¦ªà¦ķ
à¦® à¦¸à¦Ļ
à¦® à¦ľà¦²
à¦® à¦·à¦ª
à¦¼ âĢ¦âĢĿ
à§ĭ âĢĿ,
Ġà¦¸ à§ľ
Ġà¦¸ à¦¦à¦¨
Ġà¦¸ à§İà¦¸
Ġà¦¸ à¦Łà¦ķ
Ġà¦¸ à§°
Ġà¦¸ à¦ĵà¦Ĺ
Ġà¦ª à¦·
Ġà¦ª à¦Łà¦ķ
à¦¸ à¦¬à¦°
à¦¸ à¦ĵà§Ł
Ġà¦Ĩ à¦ĩà¦ª
à¥ ĥ
à¦¦ à§ľ
à¦¦ à¦«
à¦¦ à¦ļà¦¯
à¦¦ à¦¶à¦ķ
à¦¦ à¦ķà¦¦
à¦¦ à¦¶à¦®
à¦¦ æĹ¥ãģ®
Ġà¦® à§°
Ġà¦® à¦°à¦®à¦°
Ġà¦® à¦¸à¦¨à¦¦
à¦Ł à¦§
à¦Ł à¦Ńà¦°
à¦Ł à¦¸à¦¹
à¦Ł à¦®à¦Łà¦®
à§Ģ à§ĩ
à§Ģ âĢĿà¥¤
à¦ª à¦®à¦²
à¦ª à¦¬à§Łà¦¸
à¦ĩ à¦¥
à¦ĩ à¦®à¦¸
Ġà¦¦ à¦²à¦¤
Ġà¦¤ à¦¨à¦¯
Ġà¦¤ à¦ķà¦¤à¦ķ
à¦ľ à¦ŀ
à¦ľ à¦¸à¦¤
à¦ľ à¦ĸà¦®
à¦¶ à¦ªà¦¤
à¦¶ à¦ķà¦¬
Ġà¦¹ à¦īà¦¨
Ġà¦¹ à¦Łà¦¬
Ġà¦ı à¦ľà¦²
Ġà¦ı à¦°à¦®à¦§
à§Ł à¦ª
Ġà¦ħ à¦¯à¦¯
à¦· à¦¤à¦°
à¦· à¦ªà¦¤
à¦· à¦Ĺà¦£
à¦· à¦ĩà§Ł
à¦Ĺ à¦£à¦¨
à¦Ĺ à¦ĺà¦¨
à¦¼à§ĩ âĢĿ
à¦§ à¦®à¦¨
à¦§ à¦¬à¦²
Ġà¦¯ à¦·
Ġà¦¯ à¦®à¦²
à¦¹ à¦ĵà¦¯
à¦¹ à¦®à¦§
à¦ļ à¦ĵ
à¦ļ à§°
à¦ļ à¦¶à¦®
à¦ļ à¦¬à¦Ł
à¦£ à¦®à¦¨
à¦£ à¦ļà¦°
à¦ģ -
à¦ģ à¦ģ
Ġà¦Ĺ à¦ľà¦¬
à¦¡ à¦¬à¦ª
à¦¡ à¦²à¦¸
à¦¥ à¦²à¦¨
Ġà¦¶ à¦¤à¦°à¦Ļ
Ġà¦° à¦ĩà¦¤
Ġà¦° à¦£à¦¬
Ġà¦° à¦£à¦¦
à¦ĵ à¦¸
à¦Ń à¦¸à¦¸
Ġà¦Ľ à¦ĩà¦¯
Ġà¦ıà¦ķ à¦¬à¦°
à¦ł à¦ĩ
à¦ł à¦ł
à¦ł à¦ļà¦ķ
à¦ł à¦²à¦Ĺ
Ġà¦ī à¦¯
Ġà¦ī à¦ŀ
Ġà¦ī à¦®à¦°
Ġà¦ī à¦Ńà§Łà¦ķ
à¦Ļ à¦¡
à¦¼à¦¾ âĢĻ,
Ġà¦ĵ à¦Ļ
Ġà¦ĵ à¦®à¦°
à§ľ à¦¶
Ġà¦² à¦ĵ
Ġà¦« à¦°à¦¹
à¦°à¦¤ à¦ĵ
Ġà¦ĸ à¦°à¦¦
Ġà¦¬à¦² à¦¨
Ġà¦ħà¦¨ à¦¶
âĢĶ à¥¤
âĢĶ âĢĵ
Ġà¦§ à¦¨à¦¬
Ġà¦ªà¦° à¦ľà¦¨
à¦¬à¦¨ à¦°à¦ķ
Ġà¦¸à¦® à¦°à¦¸
Ġà¦¸à¦® à¦ħà¦§
Ġà¦¹à¦¯ à¦°à¦¤
Ġà¦ĺ à¦¸
Ġà¦ĺ à¦°à¦®
Ġà¦®à¦¨ à¦Ĺ
Ġà¦®à¦¨ à¦¹
âĢĻ )
à¦¿, âĢĻ
à¦¼à¦¿ âĢĻ
Ġà¦ıà¦ĩ à¦¸
à¦°à¦¬ à¦ª
à¦°à¦¬ à¦°à¦£
à¦°à¦¬ à¦¦à¦¨
à¦°à¦¬ à¦¤à¦®
à¦¤à¦° à¦¯
à¦¤à¦° à¦¶
à¦¤à¦° à¦ľà¦Ĺà¦¤
à¦ī à¦ªà¦¦
à¦¬à¦° à¦ŀ
Ġà¦Ĩà¦² à¦¯
Ġà¦Ĩà¦² à§Ł
à¦« à¦®
à¦« à¦«
à¦« à¦°à¦®
Ġà¦¸à¦¬ à¦®
à¦Ĩ à¦ĺ
à¦Ĩ à¦²à¦¤
à¦ĺ à¦ĵ
à¦¬à¦² à¦¤à¦®
Ġà¦ĩ à¦¶à¦ķ
Ġà¦ĩ à¦¹à¦ķ
Ġà¦ĩ à¦īà¦ľ
Ġà¦ĩ à¦īà¦¡
Ġà¦ĩ à¦Łà¦¸
à¦¼à¥¤ âĢ¦
à¦°à¦® à¦¬à¦¶à¦¤
Ġà¦¬à¦¨ à¦¨
Ġà¦¬à¦¨ à¦ª
Ġà¦¬à¦¨ à¦ªà¦¥
Ġà¦ĵà¦ł à¦Ľ
à¦ħ à¦¨à¦¬
à¦ħ à¦ļà¦²
à¦ħ à§°
à¦ħ à¦Ĺà¦£
à¦ħ à¦¹à¦®
à¦ħ à¦§à¦®
à¦ķà¦² à¦Ĺ
à¦ķà¦² à¦¬à¦¦
à¦¬à¦¤ à¦¬
à¦¬à¦¤ à¦ļ
à¦¸à¦¬ à¦¹
à¦ķà¦° à¦²
à¦ķà¦Ł à¦ĩ
à¦°à¦¸ à§İ
à¦²à¦ķ à¦Ĺ
à¦°à¦¥ à¦ª
à¦¾à¦Ĥ -
à¦¾à¦Ĥ âĢĶ
Ġà¦¬à¦° à¦·
Ġà¦®à¦¹ à¦®
à¦¯à¦¬ à§İ
Ġà¦¶à¦¬ à¦¯
à§ĭà¥¤ âĢĵ
Ġà¦ľà¦² à¦¦à¦¸
à¦°à¦¹ à¦¹
Ġà¦ħà¦¦ à¦®à¦¨
Ġà¦ħà¦¤ à¦ĩ
Ġà¦ħà¦¤ à¦ĸ
à¦¿à¦Ĥ )
à¦°à¦¥à¦® à¦ľ
Ġà¦ħà¦Ń à¦ķ
Ġà¦ħà¦Ń à¦¬
à¦§à¦ķ à¦¦
à¦¨à¦¬ à¦¬
à¦¨à¦¬ à¦¶
à¦¨à¦¬ à¦§
Ġà¦¸à¦° à¦¦
Ġà¦¸à¦° à¦Ĺà¦°à¦®
à§ĩ- âĢĺ
Ġà¦ĺà¦° à¦ľ
à¦²à¦¨ à¦¶
à¦¯à¦ķ à¦Ń
à¦¹à¦¸ à¦ķ
Ġà¦īà¦ª à¦¢
à¦¿à¦ĥ !
à¦¿à¦ĥ âĢĶ
Ġà¦ķà¦² à¦ľ
Ġà¦¸à¦¹ à¦®à¦¤
à¦®à¦ķ à¦¹
Ġà¦ħà¦ª à¦ĺ
Ġà¦ħà¦ª à¦¦à¦¸
à¦¹à¦° à¦²
à¦¹à¦° à¦ª
à¦¸à¦¨ à¦ļ
à¦ªà¦¦ à¦Ł
à¦ªà¦¦ à¦ĩ
à¦ªà¦¦ à¦¶
à¦¶à¦¨ à¦¸
à¦¶à¦¨ à¦ª
à¦¦à§Ł à¦ª
à¦¦à§Ł à¦Ĺ
Ġà¦¬à¦¹ à¦¨à¦ķ
à¦ĩà¦² à¦ª
à¦Ĺà¦¨ à¦¸
à¦ıà¦ĩ à¦ĸ
à¦¼à§ĭ âĢĻ
Ġà¦ªà¦¦ à¦ªà¦²
à¦®à¦£ à¦Ń
à¦Łà¦ķ à¦®à§Ł
Ġà¦ķà¦® à¦ľ
à¦¯à¦® à¦ĩ
à¦¯à¦® à¦¹
à¦¯à¦® à¦ŀ
à¦¨à¦ķ à¦¯
Ġà¦ıà¦Ĺ à¦ľ
à¦¤à¦® à¦¸
à§ģ, âĢĿ
Ġà¦«à¦² à¦Ń
à¦ıà¦ķ à¦«
Ġà¦ħà¦² à¦®
à¦ħà¦¨ à¦Ļ
à¦¬à¦ķ à¦¨
à¦§à¦¤ à§İà¦¸à¦®
Ġà¦¸à¦®à§Ł à¦¹
Ġà¦ĩà¦¨ à¦¸à¦ª
Ġà¦Ĩà¦§ à¦®à¦°
Ġ( ?)
Ġà¦īà§İ à¦ªà¦²
à¦¬à¦¬ à§İ
à¦ķà¦¨ à¦¸
à¦¯à¦¦ à¦¶
à¦¨à¦¸ à¦¹
à¦¨à¦¸ à¦¹à¦ķ
Ġà¦¬à§ľ à¦°
à¦ªà¦¸ à¦ª
à¦¨à¦Ĺ à¦£
à¦¸à¦ķ à¦¶
à¥¤âĢĻ âĢĻ
à¦°à¦®à¦£ à¦Ń
à¦°à¦®à¦£ à¦¸à¦Ļ
Ġà¦¬à¦ķ à¦ļ
Ġà¦īà§ľ à¦²
Ġà¦īà§ľ à¦¨à¦ļ
Ġà¦Ĩà¦Ń à¦°à¦£
à¦ªà¦£ à¦¨
à¦Ĩà¦² à¦¸
à§ĭâĢĶ âĢĻ
Ġà¦Ĺà¦£ à¦Ĩà¦¨
à¦²à¦Ĺ à¦ŀ
à¦¿âĢĵ âĢĵ
à¦®à¦¶ à¦¹à¦°
à¤ ª
Ġà¦Ĩà§ľ à¦·
Ġà¦ľà§Ł à¦®
Ġà¦¸à¦°à¦² à¦®à¦¤
à¦ķà¦¸ à¦Ł
à¦¬à¦¹ à¦Ń
à§© à§Ń
à¦ļà§Ł à¦¹
Ġà¦¨à¦Ĺà¦° à¦ª
à§ĩâĢ¦ à¥¤âĢĿ
à§ª à§«
à¦¨à¦ª à¦¤à¦¨
à¦®à¦ļ à¦°à¦£
Ġà¦Ĩà¦ĩà¦¨ à¦Ĺà¦¤
à¦¿âĢĻ -
à¦¿âĢĻ ;
à¦¿âĢĻ âĢĵ
re at
à¦ħà¦¬ à¦¸à¦¨
à¦¬à¦ľà¦¨ à¦¬
à¦¾à¦ĥ âĢĶ
à¦¬à¦°à¦¤ à¦ª
al e
à§¬ à§¨
à§¬ à§Ń
à¦¶à¦Ĺ à¦Ļ
à¦Ī à¦®
is e
à¦¤à¦ĸà¦¨ à¦ķ
Ġà¦ıà¦ķà¦¨ à¦ľà¦°
Ġà¦¢à¦² à¦¢à¦²
Ġà§© à§¨
Ġà§© à§¬
Ġà¦²à§ľ à¦¬
Ġs h
Ġs am
Ġs ome
ar g
ar ning
Ġà¦¨à¦Ĺ à¦°à¦ķ
à§İà¦ª à§°
Ġb re
Ġà¦ıà¦¡ à¦¸
Ġà¦Ńà¦°à¦¤ à¦ķ
ĠI s
Ġà¦ļà¦°à¦£ à¦¤à¦²
à¦¾!âĢĿ âĢĶ
Ġà¦ıà¦ķà¦¶ à¦Ń
à¦ĩà¦« à¦¯
âĢ¦âĢĿ âĢĶ
om s
Ġà¦Ĺà¦Ĺà¦¨ à¦ļ
Ġd o
Ġd y
ha m
à¦²à¦ĵ à¦Ń
à¦ľà¦¦ à¦°à¦¬
ĠA c
Ġà¦ĺà¦· à¦Ľ
Ġà¥¤ à¥¤
Ġà¦¨à¦ĵ à¦¶
Ġà¦ľà¦²à¦ķ à¦·
ut ta
à¦¼à¦¿à¦Ĥ -
Ġà¤ Ĩ
Ġ[ âĢĺ
Ġà§§à§¨ à§¯à§§
à§§à§¯à§ ¨
un d
Ġà§§à§© à§¬
ĠD edic
et h
à¦®à¦« à¦²à¦ķ
Ġà§¦ à§©
Ġà§¦ à§¯
Ġà§§à§¯à§ª à§¦
Ġà§§à§¯à§ª à§¨
id ent
ig h
ĠL ect
à¦ħà¦¹ à¦Ļ
ra h
ul ar
us e
áĥ Ĳáĥ
Ġà§§à§¯à§® à§§
Ġà§§à§¯à§® à§«
à¦¶à¦§ à¦°à¦¦
Ġwh at
Ġà¦¸à¦®à¦Ŀ à¦¦
Ġà§§à§¯à§¬ à§ª
Ġà§§à§¯à§¬ à§¯
Ġà¦·à§ľ à¦ĭà¦¤
Ġhe art
Ġwe re
ist ory
Ġà§§à§¯à§¨ à§§
à¦ıà¦® à¦ıà¦¸
Ġà§§à§¯à§© à§®
ĠâĢĶâĢĶâĢĶ âĢĶâĢĶâĢĶâĢĶ
Ġit s
Ġit self
à¦°à¦Ĺà¦² à¦Ń
ers on
we en
we et
ight ing
ank ar
Ġà¦¨à¦°à¦ª à¦¶
Ġà§ªà§¦à§¦ à§ª
eop le
Ġà¦Łà¦ĩà¦Ł à¦®
Ġà¦¨à¦¦à¦¨ à¦¦
Ġbet ween
Ġà¦īà§ľà¦¨à¦ļ à¦£
ĠDedic ated
ĠLect ures
) !
3 9
4 2
4 4
I n
U R
] ,
a z
a ck
a ught
c y
c ount
e x
e or
f ore
g a
g et
p H
r id
s o
v a
v ol
x x
y m
Ð ²
Ñ ĥ
Ø ª
Ù ĩ
á Ģ
Ġ 1
Ġ X
Ġ ]
Ġ us
Ġ ill
Ġ Ø§ÙĦ
à¦¾ ...âĢĿ
à¦¾ Â·Â·Â·
à§ĩ à§į
à§ĩ à¦¾-
à§ĩ âĢĮ
à¦° à¦²à¦ķ
à¦° à¦²à¦¤
à¦¿ à§į
à¦¿ )à¥¤
à¦¿ ...âĢĿ
à¦¨ à¦°à¦¦
à¦¤ à¦¬à¦²
à¦¤ à¦®à¦°
à¦¤ à¦«à¦²
à¦² à¦ªà¦°
à¦² à¦Łà¦¨
à¦ķ à¦Ļ
à¦ķ à¦®à¦¨
à¦ķ à¦ĵà¦¯
à¦ķ à¦Ĺà¦¤
à¦ķ à¦ļà¦°
à¦ķ à¦ľà¦²
à¦ķ à¦¨à¦Ł
à¦¬ à¦¬à¦¨
à¦¬ à¦®à¦¤
à¦¬ à¦®à¦£
à¦¬ à¦¸à¦°
à¦¬ à¦Ńà¦°
à¦¬ à¦®à¦¸
à¦¬ à¦ĩà¦¤
à¦¯ à¦·
à¦¯ à¦¶à¦¬
à¦¯ à¦Ńà¦¬
à¦¯ à¦ľà¦²
à¦¯ à¦ľà¦¯
à¦® à¦ħà¦¨
à¦® à¦¢
à¦® à¦īà¦¨
à¦® à¦Ĺà¦¤à¦Ń
à¦¼ âĢĻ-
à§ĭ à¦ĥ,
Ġà¦ķ à¦Ľ
Ġà¦¬ à¦¨à¦¤
Ġà¦¬ à¦ľà¦°
Ġà¦¸ à¦¶à¦Ļ
Ġà¦¸ à§Łà¦²
Ġà¦¸ à¦ªà¦¸à¦ª
Ġà¦ª à¦¹à¦°
Ġà¦ª à¦ªà¦ķà¦°
à¦¸ à¦¯à¦¤
à¦¸ à¦¦à¦¦
Ġà¦Ĩ à¦īà¦¨
Ġà¦Ĩ à¦Łà¦¬
à¦¦ à¦¬à¦¨
à¦¦ à¦Ĺà¦²
à¦¦ à¦Ńà¦°
Ġà¦¨ à¦°à¦¬
Ġà¦¨ à¦°à¦¦
Ġà¦¨ à¦°à¦¹à¦°
Ġà¦® à¦Ĺà¦¨
Ġà¦® à¦ĵà¦ķ
à¦Ł à§Ł
à¦Ł à¦¸à¦¨
à¦Ł à¦¬à¦¸
à¦Ł à¦®à§Ł
à¦Ł à¦ļà¦ķ
à§Ģ âĢĿâĢĶ
à¦ª à¦®à¦¨
à¦ª à¦¢
à¦ª à¦£à¦¤
à¦ª à¦Ńà¦°
à¦ª à¦ľà¦Ļ
à¦ĩ à¦°à¦¨
à¦ĩ à¦²à¦ķ
à¦ĩ à¦ĵà§Ł
à¦ĩ à¦ªà¦Ł
Ġà¦¦ à¦¦à¦°
Ġà¦¦ à¦°à¦Ĺ
Ġà¦¤ à¦ŀ
Ġà¦¤ à¦¦à¦¬
Ġà¦¤ à¦ªà¦¶
Ġà¦¤ à§İà¦¸à¦®
à¦ľ à¦²à¦¤
à¦ľ à¦ĺà¦¨
à¦ľ à¦īà¦¦
à¦¶ à¦¸à¦®
à¦¶ à¦®à¦¶
Ġà¦¹ à¦°à¦¬
Ġà¦¹ à¦¦à¦¯
Ġà¦ı à¦£
Ġà¦ı à¦®à¦¬
Ġà¦ı à¦¨à¦Ĺ
à§Ł à¦®à¦ķ
Ġà¦ħ à¦ĸà¦¨
Ġà¦ħ à¦ĩà¦¬
à¦ĸ à¦®à§Ł
à¦· à¦·
à¦· à¦¤à¦¨
à¦· à¦®à§Ł
à¦· à¦ªà¦²
à¦Ĺ à¦°à¦¬
à¦Ĺ à¦«
à¦Ĺ à¦®à¦¤
à¦Ĺ à¦¬à¦¦
à¦Ĺ à¦®à¦£
à¦¼à§ĩ à¦¾
à¦§ à¦ªà¦¶
Ġà¦¯ à¦ĸ
Ġà¦¯ à¦®à¦°
à¦¹ à¦¡
à¦¹ à¦ĵà§Ł
à¦¹ à¦ľà¦¨à¦ķà¦Ń
à¦ļ à¦¢
à¦ļ à¦ĺà¦°
à¦£ à¦Ľ
à¦£ à¦ªà¦¨
à¦£ à¦¢
à¦£ à¦ľà¦¯
à¦£ à¦¸à¦¹
à¦£ à¦ªà¦¦à¦ķ
Ġà¦ķà¦° à¦ª
Ġà¦ķà¦° à¦®à¦°
Ġà¦Ĺ à¦¥
Ġà¦Ĺ à§İ
Ġà¦Ĺ à¦ľà¦¸
à¦¡ à¦¸à¦®
à¦¥ à¦°à¦¬
à¦¥ à¦ľà¦¨
à¦¥ à¦®à§Ł
Ġà¦¶ à¦¶à¦ķ
Ġà¦¶ à¦¤à¦°à¦ŀ
Ġà¦ľ à¦ł
Ġà¦Ń à¦£à¦ĩ
Ġà¦ļ à¦ķà¦°
Ġà¦ļ à¦°à¦¨
Ġà¦ļ à¦®à¦¤
Ġà¦ļ à¦ĩà¦²
Ġà¦° à¦ĵà§Ł
Ġà¦° à¦Ĺà¦°
Ġà¦° à¦ľà¦¬
Ġà¦° à¦ľà¦ķ
Ġà¦° à¦Ĺà¦¡
Ġà¦° à¦²à¦°
à¦ĵ à¦²à¦ľ
à¦Ń à¦¡
à¦Ń à¦²à¦Ĺ
à¦Ń à¦ľà¦¨à¦ķ
à¦Ń à¦£à¦ĩ
Ġà¦ıà¦ķ à¦ķà¦Ń
Ġà¦ıà¦ķ à¦¶à¦Ł
Ġà¦ī à¦¶à¦ķ
à¦¼à¦¾ ?âĢĿ
Ġà¦ĵ à¦¥
Ġà¦ĵ à¦®à¦¨
Ġà¦ĵ à¦¸à¦®
à§ľ à¦¬à§ľ
à¦°à¦¤ à¦¸
Ġà¦Ĩà¦° à¦¨
Ġà¦Ĩà¦° à¦¨à¦²
Ġà¦ĸ à¦¬
Ġà¦ĸ à¦Ļ
Ġà¦ĸ à¦ĩà§Ł
Ġà¦ĸ à§İà¦¨
Ġà¦ªà¦° à¦ľ
Ġà¦ªà¦° à¦®à¦¹
à¦¬à¦¨ à¦²
Ġà¦¸à¦® à¦°à¦ķ
Ġà¦¸à¦® à¦ªà¦¦
Ġà¦¸à¦® à¦®à¦°
ĠâĢ Į
Ġà¦®à¦¨ à¦®à¦¤
âĢĻ !âĢĿ
à¦®à¦¨ à¦¤à¦°
à¦¼à¦¿ âĢ¦
à¦¼à¦¿ à¥¤âĢĻ
à¦ŀ à¦¬
à¦ŀ à¦ķà¦°
à§İ à¦®
à§İ à¦ļ
à¦°à¦¬ à¦¶
à¦¤à¦° à¦°
à¦Ŀ à¦Ļ
à¦Ŀ à¦¨à¦¦
à¦Ŀ à¦Ĺà¦¡
à¦ľà¦¨ à¦¯
à¦ľà¦¨ à¦¸
à¦ī à¦°à¦¨
à¦ī à¦ĩà¦¨
à¦ī à¦ªà¦¶
à¦ī à¦ªà¦¹
à¦ī à§İà¦°
à¦ī à§İà¦ķà¦£
à¦¬à¦° à¦¸à¦Ń
à¦ı à¦¹
Ġà¦Ĩà¦¸ à¦Ļ
Ġà¦Ĩà¦¸ à¦¨à¦Ł
à¦Ĩ à¦®à¦¨
à¦Ĩ à¦ĩà¦²
à¦Ĩ à¦¹à¦¤
à¦ĺ à¦¯
à¦ĺ à¦ªà¦¥
Ġà¦¡ à¦Ļ
Ġà¦¡ à¦®à¦°
à§Ī ,
Ġà¦Ĩà¦Ľ à¦¨
Ġà¦Ł à§Ł
Ġà¦Ł à¦¸à¦Ł
Ġà¦ľà¦¨ à¦°
Ġà¦ľà¦¨ à¦¬
Ġà¦ľà¦¨ à¦ĩ
Ġà¦ľà¦¨ à¦ļ
Ġà¦ıà¦¬ à¦®
à¦¬à¦ª à¦Ł
à¦¬à¦² à¦Ĺ
à¦¬à¦² à¦ļ
Ġà¦¹à¦² à¦ĵ
Ġà¦ĩ à¦«
Ġà¦ĩ à¦¸à¦®
à§ģà¦ģ -
à§ģà¦ģ âĢĻ
Ġà¦¹à§Ł à¦°
à¦·à¦£ à¦¬
à¦·à¦£ à¦ª
à¦·à¦£ à¦ªà¦¦
à¦°à¦® à¦ĵ
à§ĭà¦ģ âĢ¦)
Ġà¦¬à¦¨ à¦Ĺ
Ġà¦ł à¦ķà¦¬
à¦ħ à¦ªà¦¤
à¦ħ à¦ĸà¦£
à¦ħ à¦¨à¦¬à¦¦
à¦¤à¦¨ à¦®
à¦¤à¦¨ à¦Ĺ
Ġà¦ħà¦® à¦²à¦ķ
Ġà¦ħà¦¸ à¦®à¦°
à¦ķà¦² à¦¬
à¦ķà¦² à¦ĩ
Ġà¦Ĩà¦Ĺ à¦®
à¦¤à¦¬ à¦ĩ
Ġà¦Ĩà¦¶ à¦¯
Ġà¦Ĩà¦¶ à¦°à¦«
Ġà¦Ĺà¦² à¦¬
Ġà¦Ĩà¦¨ à¦²à¦ķ
à¦ķà¦° à¦°
Ġà¦īà¦¦ à¦¬
à¦ķà¦Ł à¦ĵ
à¦ķà¦Ł à¦¤à¦®
à¦ķà¦Ł à¦®à§Ł
à¦°à¦¸ à¦°à¦®
Ġà¦ıà¦ĸà¦¨ à¦¤
à§ĩ? )
à§ĩ? âĢ¦
Ġà¦®à¦¹ à¦¸
à¦¯à¦¬ à§°
à¦¯à¦¬ à¦ĩà¦¯
à¦¦à¦° à¦²
à¦¦à¦° à¦Ń
Ġà¦ľà¦² à¦ķà¦²
Ġà¦ľà¦² à¦ļà¦ķ
à¦Ĺà¦¤ à¦ĩ
à¦°à¦¹ à¦¬
à¦°à¦¹ à¦°à¦¤
Ġà¦ħà¦¦ à¦²à¦¬
Ġà¦ħà¦¤ à¦Ĺ
Ġà¦°à¦ķ à¦¬
à¦¨à¦ĵ à¦¨
à¦¨à¦ĵ à¦ª
Ġà¦¸à¦¨ à¦¦à¦ªà¦¤
à¦¨à¦¬ à¦ľà¦Ĺà¦¤
Ġà¦Ĩà¦ªà¦¨ à¦ľà¦¨à¦¦
à¦§à¦¨ à¦°
à¦§à¦¨ à¦Ńà¦Ļ
à¦¯à¦¤ à¦¤
à¦²à¦¨ à¦¹
Ġà¦ıà¦² à¦Ń
Ġà¦ıà¦² à¦ĩà¦¡
à¦Ĺà¦² à¦®
à¦°à¦¶ à¦¤
à¦²à¦¬ à¦¶
à¦²à¦¬ à¦°à¦£
à¦²à¦¬ à¦¦à¦¨
Ġà¦¸à¦¹ à¦¬à¦¤
Ġà¦ħà¦ª à¦°à¦£
à¦¸à¦¨ à¦ªà¦¤
à¦°à¦ľ à¦¤
à¦°à¦ľ à¦®
à¦¶à¦¨ à¦®
Ġà¦ħà¦ķ à¦£
Ġà¦Ńà¦° à¦Ĺ
à¦°à¦² à¦Ļ
Ġà§ ·
Ġà§ ¯à§¦
à¦¦à§Ł à¦ĸ
à¦¦à§Ł à¦ĵ
à¦ĩà¦² à¦ĸ
Ġà¦°à¦Ļ à¦Ĺ
à¦Ĺà¦¨ à¦°à¦ķ
à§İà¦¸ à¦ķà¦°
à¦·à¦¤ à¦¸
à¦·à¦¤ à¦Ł
à¦ĩà¦¨ à¦®
à¦¼à§ĭ ?
à¦¼à§ĭ âĢĶ
Ġà¦¤à¦° à¦²à¦¤
à¦¬à¦¦ à¦¤
à¦¬à¦¦ à¦®à¦¨
à¦¹à¦² à¦¹
à¦®à¦£ à¦ĩ
à¦®à¦£ à¦ĵ
à¦Ĺà¦° à¦ĵ
à¦ªà¦¥ à¦Ł
Ġà¦¯à¦¤ à¦¸à¦¬
à¦¯à¦® à¦ª
à¦¤à¦ķ à¦¦
à¦¨à¦ķ à¦ķ
à¦¸à¦° à¦²à¦¤
à¦¤à¦¤ à¦¤
Ġà¦¬à¦ĩ à¦¸
Ġà¦Ĳ à¦Ł
Ġà¦Ĳ à¦¹
à¦¬à¦¸ à¦Ļ
Ġà¦«à¦² à¦¬à¦¤
à¦ıà¦ķ à¦¨
à¦ıà¦ķ à¦¯
à¦ıà¦ķ à¦ª
à¦ıà¦ķ à¦Ĺ
à¦ıà¦ķ à¦ªà¦°
à¦ıà¦ķ à¦¦à¦²
à¦ıà¦ķ à¦°à¦ķà¦®
à¦ıà¦ķ à¦ľà¦¨à¦ķ
à¦°à¦ª à¦¤à¦¨
à§ĩ; âĢĶ
à¦¶à¦ķ à¦ķ
à¦¬à¦ķ à¦ª
à¦ļà¦ķ à¦¡
Ġà¦ıà¦ķà¦¦ à¦£
à§ĩ! )
Ġà¦²à¦ķ à¦¡
Ġà¦¶à¦¤ à¦Ń
Ġà¦ĩà¦¨ à¦¡
Ġà¦Ĩà¦§ à¦²
Ġà¦Ĩà¦§ à¦ªà§ľ
Ġà¦Ĩà¦§ à¦ĺà¦¨
Ġà¦Ńà¦¬ à¦Ń
à¦¬à¦¬ à¦¶
à§¦ à§¬
à¦ķà¦¨ à¦«
à¦¾! âĢĶ
à¦¨à¦¸ à¦ķ
Ġà¦¬à§ľ à¦¶
Ġà¦¬à§ľ à¦¸à§ľ
à¦ªà¦¸ à¦¹
à¦°à¦ľà¦¨ à¦ķ
à¦«à¦² à¦ĩ
Ġà¦ļà¦ķ à¦ĸà§ľ
à¦¼à§Ģ âĢĶ
Ġà¦¸à¦¹à¦ľ à¦¬
à¦°à¦Ĺ à¦ŀ
à¦¬à¦¶ à¦¸
à¦°à¦®à¦£ à¦Ł
Ġà¦¦à¦° à¦¦à¦°
Ġà¦ªà¦² à¦¸
à¦ĩà¦Ł à¦¸
à¦ĩà¦Ł à¦Ł
à§Ŀ à¦ļ
à¦¦à¦® à¦Ĺ
à¦ªà¦£ à¦ĵ
?âĢĻ -
?âĢĻ âĢĶ
Ġà¦Ĺà¦£ à¦²
Ġà¦¦à¦¶ à¦Ĺ
Ġà¦¦à¦¶ à¦¤à¦²
Ġà¦ķà¦²à¦ķ à¦¬
à¦¶à¦² à¦Ĺà¦¤
à¦ķà¦¶ à¦¤
à¦·à§Ł à¦°
à¦°à¦° à¦ŀ
Ġt wo
Ġà¦®à¦² à§Ł
à¤ ·
à¦¥à¦² à¦ªà¦¦
à¦£à¦¨ à¦Ĺà¦°
Ġà¦ľà¦¬ à¦ľà¦¬
Ġà¦ľà§Ł à¦¬
Ġà¦ľà§Ł à¦ľà§Łà¦ķ
Ġà¦ħà¦Ł à¦²à¦¤
à§© à§¯
an c
Ġà¦¹à¦ĩ à¦ĵ
à§« à§§
à§ĩâĢ¦ âĢ¦
Ġà¦¸à§İ à¦ķà¦°
à§ª à§¦
Ġà¦Ĺà¦°à¦® à¦ķ
Ġà¦¶à¦ªà¦¥ à¦¬
Ġà¦Ĩà¦ļà¦°à¦£ à¦ĩ
Ġà¦· à¦£
à¦¬à¦ľà¦¨ à¦¹
à§ĩâĢĻ âĢĵ
Ġà¦¬à¦ī à¦¬
at ing
Ġà¦Ŀà§ľ à¦Ŀ
à¦Ī à¦¯
Ġ. .
is ions
à¦¯à¦Ĺ à¦łà¦¨
en s
en ds
Ġà¦Ķ à¦·
à¦¼! âĢĻ
à¦¾âĢĿ -
Ġa g
Ġw ould
Ġw here
Ġs ing
Ġs un
Ġs ub
Ġs uch
it al
ar s
Ġà¦ıà¦°à¦ªà¦° à¦ĩ
à§¨à§¦à§¦ à§§
à¦¸à¦ķà¦² à¦ķ
Ġm ount
Ġà¦ħà¦¬à¦¨ à¦®à¦¨
Ġc h
Ġc all
à¦¦à¦ª à¦¤à¦¨
Ġà¦Ńà¦°à¦¤ à¦®
Ġà¦Ĺà¦łà¦¨ à¦®
Ġf l
à¦īà¦¬ à¦ĵà§Ł
Ġà¦¬à¦°à¦« à¦ª
à¦ĩà¦« à¦°à¦®
om en
Ġà¦®à¦°à¦£ à¦ķ
ĠS e
ĠS t
à¦¤à¦ļ à¦°à¦¬
à¦£à¦ļ à¦ŀ
Ġp r
Ġp eople
Ġà¦ĸà¦¨ à¦ĸà¦¨
à¦ħà¦ªà¦° à¦¦
ĠP h
ĠP art
Ġà¦¨à¦ĵ à¦Ĺ
Ġà§§à§¯à§« à§¦
Ġà§§à§¯à§« à§§
Ġà§§à§® à§«à§Ń
Ġà§§à§® à§¬à§¦
ĠC ult
Ġth r
Ġth ird
Ġà¤ ®
Ġà¤ ī
Ġà¤ Ĺ
Ġà¤ ľ
à¦Ĩà¦ĩ à¦ĵà¦Ł
à¦īà¦ł à¦¬
Ġe ach
ĠâĢ¦ âĢĿ
ĠR am
un g
un t
Ġà§¦ à§®
ow er
Ġh and
ĠM an
ĠM ar
ĠL al
ĠL et
ĠL angu
à¦°à¦Ŀ à¦²à¦¸
ul l
ĠH ere
Ġha s
ĠN ighting
ay s
áĥ ĺ
à¦Ĭ à¦·
à¦Ńà§İà¦¸ à¦¤
os a
os op
Ġà¦Ĩà¦ľà¦¨ à¦¬
ag ore
ĠW e
ĠW here
Ġà¦·à§ľ à¦ľ
od s
Ġhe r
op t
Ġwe ar
ab u
ab y
à¦ıà¦¨ à¦ı
um ar
Ġwith out
Ġà¦ªà¦łà¦¨ à¦ª
res ent
Ġà§§à§¯à§© à§©
la ce
Ġor ig
Ġcon s
Ġà¦Ĭà¦¨ à¦¸à¦¤
ĠInd o
ĠInd ia
Ġro ot
Ġro ck
ĠâĢĶâĢĶâĢĶ âĢĵ
Ġà§§à§¯à§¦ à§Ń
est ion
ain s
Ġà¦«à¦¸à¦« à¦¸
Ġam ong
Ð° Ð
Ġso ft
éŁ¿éŁ¿éŁ¿éŁ¿éŁ¿éŁ¿éŁ¿éŁ¿éŁ¿éŁ¿éŁ¿éŁ¿éŁ¿éŁ¿éŁ¿éŁ¿éŁ¿éŁ¿éŁ¿éŁ¿éŁ¿éŁ¿éŁ¿éŁ¿éŁ¿éŁ¿éŁ¿éŁ¿éŁ¿éŁ¿éŁ¿éŁ¿ éŁ¿éŁ¿éŁ¿éŁ¿éŁ¿éŁ¿éŁ¿éŁ¿éŁ¿éŁ¿éŁ¿éŁ¿éŁ¿éŁ¿éŁ¿éŁ¿éŁ¿éŁ¿éŁ¿éŁ¿éŁ¿éŁ¿éŁ¿éŁ¿éŁ¿éŁ¿éŁ¿éŁ¿éŁ¿éŁ¿éŁ¿éŁ¿
à§įà§į à§įà§į
Ġà§©à§© à§«
hil osop
ne y
af i
ĠBe auty
æŃĵæŃĵæŃĵæŃĵæŃĵæŃĵæŃĵæŃĵæŃĵæŃĵæŃĵæŃĵæŃĵæŃĵæŃĵæŃĵ æŃĵæŃĵæŃĵæŃĵæŃĵæŃĵæŃĵæŃĵæŃĵæŃĵæŃĵæŃĵæŃĵæŃĵæŃĵæŃĵ
Ġà¦®à¦ļ à¦®à¦ļ
por t
Ġwalk s
sy ch
Ġfam il
ĠMem or
ugg estion
à¦ħà¦¨à¦¬ à¦°à¦¤
Ġsam osa
eor ge
Ġà¦°à¦Ĺà¦° à¦Ĺ
Ġà¦Łà¦¸à¦Ł à¦¸
Ġà¦ħà¦¦à¦²à¦¬ à¦¦à¦²
ĠNighting ale
, "
, à¥¤
- âĢľ
/ âĢĻ
4 1
: -
; âĢĵ
? -
? âĢĵ
A R
C T
D E
E N
I I
I O
I o
M S
M y
S p
a i
a it
a ce
b er
c ol
e w
h an
h ing
l s
l and
n ot
o ck
p r
p ed
r an
r am
s a
s h
t s
t y
u ce
v i
v es
v as
w ise
Â ¤
Â °
Ï ģ
Ñ ĭ
Ø ¨
Ø ³
Ù Ĥ
ê °
Ġ x
Ġ Ï
Ġ Õ
Ġ à§İà¦ķ
Ġ à§İà¦ªà¦°
Ġ our
Ġ end
Ġ ident
Ġà¦ ŀ
à¦¾ à§į
à¦¾ ...
à¦¾ à§įà¦ģ
à§į à¥¤âĢĻ
à¦¨ à¦°à¦¸
à¦¨ à¦²à¦ķ
à¦¨ à¦®à¦ķ
à¦¨ à¦ĩà¦¨
à¦¨ à¦¸à¦Ļ
à¦¨ à¦ĸà¦°
à¦¨ à¦®à¦ľ
à¦¨ à¦īà¦¦
à¦¨ à¦ķà¦¤à¦ķ
à¦¤ à¦ł
à¦¤ à¦¤à¦¨
à¦¤ à¦ļà¦¨
à¦¤ à§İà¦ķ
à¦¤ à¦§à¦°
à¦¤ à¦¸à¦¹
à¦² à¦Ĺà¦¤
à¦² à¦¦à¦²
à¦² à¦«à¦²
à¦² à¦°à¦¤à¦¨
à¦ķ à¦ªà¦¨
à¦ķ à¦°à¦®
à¦ķ à¦¦à¦°
à¦ķ à¦ķà¦¬
à¦ķ à¦®à¦°
à¦ķ à¦®à¦£
à¦ķ à¦¨à¦ķ
à¦ķ à¦¶à¦ķ
à¦ķ à¦¸à¦ª
à¦ķ à¦¸à¦¬à¦ľ
à§ģ âĢĮ
à§ģ ),
à¦¬ à¦§à¦¨
à¦¬ à¦¬à¦¸
à¦¬ à¦ľà¦°
à¦¯ à¦¦à¦°
à¦¯ à¦§à¦¨
à¦¯ à¦¹à¦¸
à¦¯ à¦¦à§Ł
à¦¯ à¦«à¦²
à¦¯ à¦Ĺà¦£
à¦¯ à§Łà¦ķ
à¦® à¦°à¦¨
à¦® à¦°à¦¹
à¦® à§°
à¦® à¦®à¦Ĺ
à¦® à¦łà¦¤
à¦¼ à¦¾à¦ģ
à¦¼ âĢĿ-
à¦¼ âĢĿâĢĵ
à§ĭ )
à§ĭ âĢĿâĢĶ
Ġà¦ķ à¦ķà¦Ł
Ġà¦ķ à¦·à¦¤
Ġà¦¬ à¦°à¦¬à¦°
Ġà¦¬ à¦¦à¦¹
Ġà¦¬ abu
Ġà¦¸ à¦§
Ġà¦¸ à¦°à¦¹
Ġà¦¸ à¦ªà¦¥
Ġà¦¸ à¦¶à¦ķ
Ġà¦¸ à¦ĩà¦¯
Ġà¦¸ à¦§à¦¬
Ġà¦¸ à¦¦à¦®
Ġà¦¸ à¦ĺà¦¨
Ġà¦¸ à¦Īà¦¦
Ġà¦¸ à¦¦à§Łà¦¤
Ġà¦¸ à§İà¦¸à¦Ļ
Ġà¦ª à¦ĩ
Ġà¦ª à¦Ĺ
Ġà¦ª à¦ļà¦¤
à¦¸ à¦§
à¦¸ à¦¦à¦¨
à¦¸ à¦ļà¦²
à¦¸ à¦¨à¦¤à¦¨
Ġà¦Ĩ à¦Łà¦²
Ġà¦Ĩ à§°
Ġà¦Ĩ à¦ļà¦ķ
Ġà¦Ĩ à¦ĩà§Ł
à¦¦ à¦°à¦¸
à¦¦ à¦ªà¦¦
à¦¦ à¦ªà¦¥
à¦¦ à¦¬à¦ķ
à¦¦ à¦ľà¦Ĺà§İ
Ġà¦¨ à¦¬à¦²
Ġà¦¨ à¦Łà¦°
Ġà¦¨ à¦²à¦Ĺ
Ġà¦¨ à¦ĵà¦°
Ġà¦¨ à¦°à¦¹à¦¤
Ġà¦¨ esc
Ġà¦® à¦°à¦ľ
Ġà¦® à¦¶à¦ķ
à¦Ł à¦Ŀ
à¦Ł à¦ķà¦²
à¦Ł à¦®à¦°
à¦Ł à¦¬à¦ķ
à¦Ł à¦Ĺà¦£
à¦Ł à¦®à¦¡
à§Ģ âĢ¦âĢĿ
à¦ª à§İ
à¦ª à¦¦à¦¯
à¦ª à¦¶à¦ķ
à¦ª ankar
à¦ĩ à¦£
à¦ĩ à¦ķà¦²
à¦ĩ à¦²à¦¨
à¦ĩ à¦®à¦°
à¦ĩ à¦«à¦²
à¦ĩ à¦ľà¦¯
à¦ĩ à¦¸à¦®à¦¯
à¦ĩ à¦¡à¦¬
Ġà¦¦ à¦ľ
Ġà¦¦ à¦¹à¦²
Ġà¦¤ à¦¹
Ġà¦¤ à¦ļ
Ġà¦¤ à¦Łà¦Ń
Ġà¦¤ à§İà¦¸à¦¤
à¦ľ à¦¬à¦²
à¦ľ à¦®à¦°
à¦ľ à¦Ĺà¦£
à¦ľ à¦Ńà¦ķ
à¦Ľ à¦ķà¦Ł
à¦Ľ à¦²à¦Ľ
à¦¶ à¦¸à¦¹
Ġà¦¹ à¦°à¦ķ
Ġà¦¹ à§ľà¦ķ
Ġà¦¹ à¦«à¦®
Ġà¦ı à¦ªà¦°
à§Ł à¦ľ
à§Ł à¦¬à¦°
à§Ł à¦®à¦Ĺ
Ġà¦ħ à¦°à¦®
Ġà¦ħ à¦Ĺà¦¨
à¦ĸ à¦Ŀ
à¦Ĺ à¦¤à¦¬
à¦Ĺ à¦°à¦¸
à¦Ĺ à¦¢
à¦Ĺ à¦ķà¦¨
à¦§ à¦¬à¦°
à¦§ à¦°à¦¥
à¦§ à¦¶à¦ķ
à¦§ à¦¸à¦¤
Ġà¦¯ à¦ļ
Ġà¦¯ à§İà¦ªà¦°
à¦¹ à¦°à¦¸
à¦¹ à¦®à¦¶
à¦ļ à¦¤à¦¨
à¦ļ à¦°à¦¨
à¦ļ à¦Ĺà¦¤
à¦ļ à¦°à¦¦
à¦ļ à¦ªà¦²
à¦£ à¦ķà¦²
à¦£ à¦²à¦¤
à¦£ à¦ļà¦¨
à¦£ à¦ªà¦¤
à¦£ à¦¬à¦¦
à¦ģ âĢĻ
Ġà¦Ĺ à¦Ľ
Ġà¦Ĺ à¦®à¦ķ
Ġà¦Ĺ à¦Łà¦Ĺ
Ġà¦Ĺ à§Łà¦²
à¦¡ à¦£
à¦¡ à¦¬à¦¬
à¦¡ à¦Ńà¦¨
à¦¥ à¦ľ
à¦¥ à¦Ľ
à¦¥ à¦ķà¦°
à¦¥ à¦¦à¦°
à¦¥ à¦¸à¦¨
à¦¥ à¦°à¦ĵ
à¦¥ à¦°à¦¹à¦°
à¦¥ à¦Łà¦¬
à¦¥ à¦²à¦Ĺ
Ġà¦¶ à§Ł
Ġà¦¶ à¦·
Ġà¦¶ à¦¬à¦°
Ġà¦¶ à¦¤à¦®
Ġà¦ľ à¦¦
Ġà¦ľ à¦®à¦¨
Ġà¦Ń à¦ľà¦®
Ġà¦Ń à§İà¦°
Ġà¦ļ à¦°à¦Ľ
Ġà¦ļ à§ľà¦ķ
Ġà¦° à¦²
Ġà¦° à¦¸à¦ķà¦·
à¦ĵ à¦°à¦ķà¦®
à¦Ń à¦¹
à¦Ń à¦ļ
à¦Ń à¦ķà¦°
à§ĩà¥¤ [
Ġà¦Ĩà¦® à¦¤à¦²
Ġà¦ıà¦ķ à¦¤à¦°
Ġà¦ıà¦ķ à¦ļà¦²
Ġà¦ıà¦ķ à¦ıà¦ķà¦Ł
à¦Ĥ ;
à¦Ĥ âĢĻ
à¦ł à¦¤à¦°
à¦ł à¦¨à¦ķ
à¦ł à¦¨à¦Ł
à¦ł à¦ĸà¦£
Ġà¦ī à¦ĩà§Ł
Ġà¦ī à¦Ľà¦²
Ġà¦ī à¦¸à¦ĸ
à¦Ļ à¦°à¦¹
à¦¾à¦ģ à¥¤âĢĿ
à¦¼à¦¾ ?âĢĻ
à¦¼à¦¾ à¦ĥà¥¤
à¦¼à¦¾ âĢĻà¥¤
Ġà¦ĵ à¦ľà¦°
à§ľ à¦¦
à§ľ à¦ľ
à§ľ à¦«
à§ľ à¦ĺà¦°
Ġà¦² à¦ķà¦Ł
Ġà¦² à¦ĩà§Ł
Ġà¦« à¦ľ
à¦°à¦¤ à¦ª
à¦°à¦¤ à¦ªà¦ķ
Ġà¦Ĩà¦° à¦ªà¦¨
Ġà¦¬à¦² à¦¦à¦°
Ġà¦§ à¦¨à¦¦
Ġà¦§ à¦¨à¦²
Ġà¦ªà¦° à¦£
Ġà¦ªà¦° à¦®à¦¬
à¦¾à¥¤ âĢĶ
à¦¾à¥¤ âĢĵ
à¦¾à¥¤ ..
à¦¬à¦¨ à¦¨
à¦¬à¦¨ à¦®à¦¯
Ġà¦¸à¦® à¦²
Ġà¦ĺ à¦·à¦¬
Ġà¦®à¦¨ à¦¶
Ġà¦®à¦¨ à¦Ĺà§ľ
à¦°à¦£ à¦¦
à¦°à¦£ à¦¶
à¦°à¦£ à¦ľà¦¨
à¦°à¦£ à¦¬à¦¬
âĢĻ :
âĢĻ âĢĶâĢĺ
âĢĻ /âĢĻ
à¦®à¦¨ à¦®
à¦ªà¦° à¦²
à¦ªà¦° à¦¯
à¦ªà¦° à¦¬à¦¶
à¦¼à¦¿ à¦Ĥ,
à§İ à¦¦
à§İ à¦«
à§İ à¦ªà¦Ł
à§İ à¦Ĩà¦¤
à¦°à¦¬ à¦ĩ
à¦¤à¦° à¦ķà¦£
à¦ľà¦¨ à¦®à¦¤
à¦ľà¦¨ à¦ªà¦¦
à¦¿à¥¤ "
à¦¿à¥¤ [
à¦¿à¥¤ âĢĺ
à¦ī à¦Ŀ
à¦ī à¦°à¦ķ
à¦ī à¦¤à¦²
à¦ī à¦¨à¦Ł
à¦ī à¦²à¦Ĺ
à¦ī à¦łà¦¤
à¦¬à¦° à¦Ļ
à¦¬à¦° à¦®à§Ł
Ġà¦Ĩà¦² à¦®à¦¦
à¦ªà¦¨ à¦¸
à¦ªà¦¨ à¦ĵ
à¦ªà¦¨ à¦¸à¦°
à¦« à¦°à¦ķ
à¦« à¦Ŀà¦®
à¦ı à¦«à¦¸
à§Į âĢĵ
Ġà¦Ĩà¦¸ à¦¹
à¦Ĩ à¦°à¦¤
à¦Ĩ à¦°à¦¶
à¦Ĩ à¦¦à¦®
à¦Ĩ à¦ªà¦¡
à¦Ĩ à¦ķà¦¸
à¦Ĩ à¦¬à¦¹
à¦Ĩ à¦ªà¦²
à¦Ĩ à¦ĩà¦¡
à¦Ĩ à¦ĩà¦ª
Ġà¦®à¦¤ à¦¨à¦ĩ
à¦ĺ à¦¤
à¦ĺ à¦¦à¦°
à¦ĺ à¦²à¦¤
à¦ĺ à¦®à§Ł
à¦ĺ à¦Ńà¦°
à¦ĺ à¦ĸà¦£
à¦ĺ à¦®à§Łà¦¤
Ġà¦¡ à¦«
Ġà¦¡ à¦Łà¦ª
à§Ī âĢĵ
Ġà¦Ł à§Łà¦²
Ġà¦ľà¦¨ à¦°à¦¬
à¦¬à¦ª à¦£
à¦¬à¦² à¦Ł
à¦¬à¦² à¦ª
à¦¬à¦² à¦¤à¦°
Ġà¦Ŀ à¦®
Ġà¦ĩ à¦īà¦ķ
Ġà¦ĩ à¦ĵà¦°
à§ģà¦ģ à¦ģ
âĢĵ !
âĢĵ âĢľ
âĢĿ .
à¦ĥ )
à¦·à¦£ à¦¤à¦°
à¦¼à¥¤ à¥¤
à¦°à¦® à¦®
à¦°à¦® à¦ŀ
à¦°à¦® à¦ªà¦¦
à¦°à¦® à¦§à¦°
à§ĭà¦ģ âĢĻ,
Ġà¦¬à¦¨ à¦¬à¦¨
à¦ħ à¦¡
à¦ħ à¦ªà¦¬
à¦¤à¦¨ à¦¯
Ġà¦ħà¦® à¦°à¦ª
Ġà¦ıà¦¸ à¦ıà¦®à¦ıà¦¸
à¦ķà¦² à¦¨à¦Ĺ
Ġà¦Ĩà¦Ĺ à¦°à¦¤à¦²
à¦¬à¦¤ à¦ª
à¦¬à¦¤ à¦ĵ
à§ĩà¦ģ ,
à§ĩà¦ģ à¥¤âĢĻ
à§ĩà¦ģ âĢĻ,
Ġà¦Ĩà¦ķ à¦Ľ
à¦¸à¦¬ à¦¦
à¦¤à¦¬ à¦®à¦¨
Ġà¦Ĩà¦¶ à¦ķ
à¦ķà¦° à¦ĩ
à¦ķà¦° à¦Ĺ
à¦¦à¦¨ à¦ķà¦ķ
à¦°à¦¨ à¦®
à¦²à¦ķ à¦¥
Ġà¦¬à¦° à¦ªà¦ķ
à§ĩ? -
à§ĩ? ?
à§ĩ? âĢĵ
Ġà¦®à¦¹ à¦¦
Ġà¦®à¦¹ à¦°à¦®
à§ĭà¥¤ âĢĺ
Ġà¦ľà¦² à¦¶
Ġà¦ľà¦² à¦ľà¦²
Ġà¦ľà¦² à¦§à¦°
Ġà¦ķà¦¬ à¦·
à¦°à¦¹ à¦®
Ġà¦¹à¦¤ à¦¦à¦°
Ġà¦ħà¦¤ à¦ķ
à¦¿à¦Ĥ !âĢĿ
à¦¿à¦Ĥ !âĢĻ
à¦¨à¦ĵ à¦ĩ
à¦¨à¦¬ à¦Ĺ
à¦¨à¦¬ à¦¤à¦°
à¦¨à¦¬ à¦¸à¦¨
Ġà¦¸à¦° à¦¯
Ġà¦¸à¦° à¦Ĺà¦®
à¦§à¦¨ à¦¸
à¦§à¦¨ à¦¦
Ġà¦ĺà¦° à¦ª
à¦²à¦¨ à¦Ń
à¦²à¦¨ à¦®à¦¯
à¦¯à¦ķ à¦¬
à¦¯à¦ķ à¦°à¦£
Ġà¦ıà¦² à¦Ĺ
à¦®à¦¤ à¦ĩ
à¦¹à¦¸ à¦®
Ġà¦īà¦ª à¦ķà¦£
à¦ļà¦¨ à¦Ńà¦Ļ
à¦Ĺà¦² à¦ķà¦°
Ġà¦ķà¦² à¦ĺà¦°
à¦®à¦¯ à¦¨
Ġà¦¸à¦¹ à¦°
à¦®à¦ķ à¦¥à¦¨
Ġà¦ħà¦ª à¦¶à¦¨
à¦¸à¦¨ à¦ªà¦°
à¦ªà¦¦ à¦®
à¦ªà¦¦ à¦§
Ġà¦ħà¦ķ à¦¬
à¦¦à§Ł à¦¦
à¦ķà¦¬ à¦ľ
à¦¿- âĢĺ
Ġà¦īà¦¤ à¦·
à§İà¦¸ à¦ĩ
Ġà¦¨à§Ł à¦ķ
à¦¼à§ĭ à¦ĥ
à¦¸à¦® à¦·
Ġà¦ªà¦¦ à¦¤
Ġà¦ªà¦¦ à¦²
Ġà¦ªà¦¦ à¦®
Ġà¦ªà¦¦ à¦¹
Ġà¦ªà¦¦ à¦ªà¦¥
à¦¾âĢĶ -
à¦¹à¦² à¦ĵ
à¦®à¦£ à¦¸
à¦®à¦£ à¦Ł
à¦®à¦£ à¦ķà¦¨
à¦Łà¦ķ à¦¯
âĢ¦ à¥¤âĢĿ
à¦¤à¦ķ à¦®
à¦¤à¦ķ à¦ª
à¦¸à¦° à§İ
à¦¸à¦° à¦ĺà¦°
à¦¤à¦¤ à¦¦
à¦°à¦Ń à¦®à¦¯
à¦·à¦ķ à¦ĵ
à¦¾? âĢ¦
Ġà¦¬à¦ĩ à¦ªà¦¡
à§ģâĢĻ âĢĵ
Ġà¦Ĳ à¦ļ
à¦ªà¦ķ à¦Ĺ
Ġà¦ħà¦¶ à¦¤
Ġà¦«à¦² à¦Ĺ
Ġà¦ıà¦° à¦ļ
à§° à¦ª
à§° à§Ł
à§° à¦¯à¦ľ
à¦¿âĢĶ -
à¦ĩà¦° à¦Ļ
à¦®à§Ł à¦²
à¦¢ à¦ķ
à§ĩ! âĢ¦
à¦ľà¦² à¦®
à¦ľà¦² à¦°à¦Ļ
Ġà¦¶à¦¤ à¦§
Ġà¦ĩà¦¨ à¦¶
Ġà¦ĩà¦¨ à¦Ńà¦²à¦Ń
à¦¸à¦² à¦ĸ
Ġ( !)
Ġà¦Ī à¦Ĺà¦²à¦ķ
Ġà¦¨à¦¬ à¦§
Ġà¦¨à¦¬ à¦ķà¦²
Ġà¦¨à¦¬ à¦īà¦¦
Ġà¦¨à¦¬ à¦¤à¦°à¦Ļ
Ġà¦īà§İ à¦°
à¦¯à¦° à¦Ļ
à¦¯à¦° à¦ľà¦¨
à§ĩâĢĵ !
à¦°à¦ķà¦® à¦Ń
à§¦ à§Ń
à¦ķà¦¨ à¦®
à¦¾! âĢ¦
à¦¨à¦¸ à¦¦
à¦¯à¦¸ à¦ĸ
Ġà¦¬à§ľ à¦¬
Ġà¦Ĩà¦Ļ à¦Ł
Ġà¦Ĺà¦¤ à¦¯
à¦ªà¦¸ à¦ĩ
à¦¼à§ģ âĢĶ
Ġà¦īà¦ªà¦° à¦ĩ
Ġà¦¤à¦² à¦¸
Ġà¦ļà¦ķ à¦®
à¦¼à§Ģ !
à¦¸à¦ķ à¦¦à¦²
Ġà¦¸à¦¹à¦ľ à¦¸à¦°à¦²
à¦°à¦Ĺ à¦Ŀ
Ġà¦ĺà¦¨ à¦ĺ
à¦¬à¦¶ à¦Ļ
Ġà¦īà§İà¦¸ à¦Ł
Ġà¦¦à¦² à¦ĩ
à¦°à¦®à¦£ à¦ªà¦¥
à¦¾âĢĻ ;
à¦¾âĢĻ ?
à¦¾âĢĻ !âĢĿ
Ġà¦ĸà¦¬à¦° à¦Ĺ
Ġà¦¹à¦° à¦°
à§Ŀ à¦¸
à§Ŀ à¦ª
à§Ŀ à¦¤à¦°
à§Ŀ à¦¤à¦®
à¦Ĩà¦ľ à¦Ĺ
Ġà¦īà§İà¦¸à¦¬ à¦ķ
Ġà¦¦à¦°à¦ķ à¦·
à¦Łà¦° à¦Ĺà¦¤
Ġà¦ķà¦¨ à¦ľ
Ġà¦§à¦°à¦¨ à¦§
à¦ªà¦£ à¦ķ
à¦²à¦Ľ à¦¬
à¦Ĩà¦° à¦Ĩà¦ĩ
à¦°à§Ł à¦¹
à¦Łà¦¨ à¦Ĺà¦°
à¦ľà¦¬ à¦ĩ
Ġ: -
à¦®à¦¹ à¦¦
à¦¹à¦°à¦£ à¦Ł
à¦Ĺà¦® à¦ľ
Ġà¦Ĺà¦£ à¦ħà¦Ń
Ġà¦¨à¦°à¦® à¦¤
Ġà¦§à¦¨ à¦§
Ġà¦§à¦¨ à¦°à¦¤
à¦¼âĢĶ âĢĺ
à¦¨à¦Ń à¦¨
à¦¯à¦ª à¦²
à¦£à¦ķ à¦¥
à¦²à¦Ĺ à¦¡
à¦¿; âĢĶ
à¦¼à¦Ĥ ,
à¦¿! )
à¦¶à¦² à¦ĩ
à¦¶à¦² à¦ĵ
à¦·à§Ł à¦Ń
Ġà¦¶à¦¹ à¦°à¦®à§Ł
à¦°à¦° à¦Ļ
à§§à§ §à§
à¦¤à¦¦ à¦¸
à¦ķà¦Ĺ à¦ŀ
à¤ ¶
à¤ ł
à¦¬à¦ĩ à¦Ĺ
à¦¥à¦² à¦ªà¦¥
à¦¤à¦ª à¦²
à¦ķà¦¸ à¦Ń
à¦Ĺà¦£ à¦®
Ġà¦°à¦¸ à¦§
an ya
in c
in s
à¦¤à¦¸ à¦ŀ
à§« à§¨
à§« à§«
à§« à§®
à§ĩâĢ¦ ..
à§ª à§¬
à§ª à§¯
Ġà¦Ĭ à¦·à¦°
à¦ķà¦ľà¦¨ à¦ĩ
à§¯à§ ¨
Ġà¦®à¦¨à¦¨ à¦¶à¦ķ
Ġà¦¶à¦ªà¦¥ à¦Ĺ
Ġà¦¶à¦ªà¦¥ à¦¬à¦¦
à¦¿âĢĻ !
Ġà¦Ĩà¦ļà¦°à¦£ à¦¬
Ġà¦Ĩà¦ļà¦°à¦£ à¦Ł
Ġà¦Ĩà¦ļà¦°à¦£ à¦Ĺà¦¤
à¦ħà¦¬ à¦ľ
Ġà¦ħà¦¨à¦² à¦¶
à¦ĺà¦² à¦¦
Ġà¦Ĩà§Ł à¦ķà¦°
à¦ķà¦ĸà¦¨ à¦ĩ
à¦¦à¦¬ à¦Ĺà¦ŀ
à¦¶à¦¤ à¦¬à¦°
à¦®à¦® à¦Ń
à§ĩâĢĻ ;
à§Ń à§¨
à§Ń à§®
Ġà¦¬à¦ī à¦ĵ
at ri
at her
at tle
Ġà¦ļà¦°à¦® à¦ªà¦¤
Ġà¦Ŀà§ľ à¦ľà¦²
à¦¯à¦ķà¦° à¦Ń
Ġà¦¸à¦« à¦Ł
à¦Ī à¦·à§İ
à¦¸à¦Ń à¦¬à¦¨
à¦¨à¦® à¦ŀ
à§ĩ!âĢĿ âĢĶ
à¦¼! âĢ¦
à¦¾âĢ¦ âĢ¦
Ġà§© à§®
Ġw ind
Ġw hen
Ġs k
Ġs u
Ġs ay
Ġs up
Ġs ong
Ġs pe
it ed
ar at
Ġà¦Ĩà¦« à¦°
à¦¿âĢ¦ âĢĻ
à¦ªà¦Ĺ à¦ª
Ġb ot
à¦ĭ à¦ľ
Ġà¦Ńà¦Ĺà¦¬ à§İ
Ġà¦Ńà¦Ĺà¦¬ à¦Ĺà¦ŀ
Ġà¦ļà§ľ à¦Ľ
Ġà¦ıà¦¡ à¦ĵà¦¯
Ġm ore
Ġm ix
Ġc or
Ġc ha
Ġc har
Ġc omp
Ġo ther
Ġà¦Ĺà¦ľ à¦¦à¦¨
Ġà¦Ńà¦°à¦¤ à¦ª
ĠI f
Ġà¦ļà¦°à¦£ à¦¸
Ġf ar
Ġà¦Ĩà¦Ł à¦¶
Ġà¦Ĩà¦Ł à¦ľà¦¨
Ġà¦Ĩà¦Ł à¦¤à¦²
il ity
Ġà¦ķà¦¸ à¦°à¦¤
Ġof f
à¦Ĩà¦¨ à¦®à¦¨
Ġà§§à§¯à§Ń à§¦
Ġà§§à§¯à§Ń à§¨
Ġà§§à§¯à§Ń à§¬
ing d
ing u
à¦ıà¦¤ à¦¸à¦¬
om b
om m
ĠO ff
Ġà¦Ĩà¦ĩ à¦¸à¦²
Ġà§ª à§©
Ġà§ª à§®
à¦¿!âĢĿ âĢĶ
ĠS en
ĠS un
à§ĩ,âĢĿ âĢĶ
à§ĩâĢĿ ,
à¦¿âĢĿ ,
ic t
à¦¿. -
Ġp o
Ġp it
Ġp le
Ġp ass
ĠA I
ĠA f
ĠA t
Ġà¦°à¦¤à¦¨ à¦²
Ġà§« à§¦à§¦
à¦īà§İà¦¸à¦¬ à¦®
ĠP l
ĠP r
ĠP ro
ĠP ur
Ġin dig
ĠC omp
Ġà¦°à¦£ à¦¹
à¦¼à¦¿à¦Ĥ à¥¤
am es
Ġth an
Ġà¤ ¦
Ġà¦¶à¦°à§İ à¦¬
ol ar
ol um
à¦¾,âĢĿ âĢĶ
à¦ıà¦ķà¦ĩ à¦¸à¦Ļ
ĠâĢ¦ .
ĠâĢ¦ à¥¤
all y
ĠR ah
à¦¯à¦ľà¦¨ à¦ķà¦Ń
ot her
Ġà§§à§¨ à§®à§®
el o
à§ĭâĢ¦ à¥¤
ĠĠĊĠĠ ĠĠĠĠ
ĠT agore
à¦¶à¦¶ à¦§à¦°
Ġà¦ĸà§ľ à¦®
à§ĭ!âĢĿ âĢĶ
ur al
Ġà§¦ à§Ń
Ġà§¦ à§¬
Ġà§§à§¯à§ª à§§
Ġà§® à§¦
Ġbe fore
Ġà¦¸à¦¯ à¦¤à¦¨
Ġà¦®à¦Ī à¦¨à¦ĵ
à¦¹à¦£ à¦ªà¦°
ĠL ike
ĠL iterature
Â·Â· Â·Â·
Ġà§§à§Ń à§«à§Ń
Ġà§§à§Ń à§«à§¬
Ġà¦¸à¦¦à¦° à¦ĺ
Ġà¦ĩà¦ī à¦¥
Ġà¦¹à¦°à¦« à¦Ĺ
ation s
Ġre c
Ġre s
Ġre al
ir it
ir st
ĠH e
ĠH ow
ĠH ind
ĠH istory
Ġà¦®à¦¤à¦²à¦¬ à¦¬
Ġà¦®à¦¤à¦²à¦¬ à¦Ł
à¦·à¦² à¦ªà¦°
Ġà§§à§¯à§® à§¨
Ġà§§à§¯à§® à§Ń
Ġà§§à§¯à§® à§®
Ġy et
à¦ªà¦Ļ à¦ķ
Ġ19 à§ª
ĠE d
Ġà¦ħà¦ķà¦² à¦Ļ
ĠG o
ĠG and
ĠG od
ĠG eorge
à¦¸à¦®à¦¤ à¦²
Ġyou r
Ġà§§à§¯à§¬ à§®
Ġà§§à§¯à§¯à§ ©
od ern
Ġà¦¯à¦¬à¦¨ à¦°
op ment
Ø§ Ø±
ub e
ĠThe re
Ġà¦¦à¦¹ à¦°à¦®
à¦ľà¦°à¦£ à¦®à§Ł
ri p
à¦ªà¦°à¦¶ à¦®à¦£
ous e
ist ic
Ġst ip
Ġà¦ľà¦¨à¦¸à¦® à¦°
Ġà§§à§¯à§¨ à§¬
ant a
ĠØ ±
Ġan y
Ġde ad
ip on
ĠV olum
Ġà¦®à¦Ł à¦°à¦¶
iv es
iv ide
à§ģà§ģ à§ģ
à¦¦à¦ļ à§Łà¦¨
Ġà¦Ĩà¦ĩà¦Ľ à¦¸
Ġlo ok
ry an
Ġà¦°à¦Ĺ à¦ļà¦Ł
Ġà¦Ĩà¦ī à¦Łà¦ª
Ð° Ñģ
à¦ĩà¦¨à¦« à¦°à¦®
Ðµ ÑĢ
Ġr un
Ġal so
à¦īà¦Ńà§Ł à¦ĩ
Ġcont in
Ġcont ri
-- -
hil d
TE M
af Ã©
à§§à§¯à§¬ à§«
Ġgo od
ĠAr jun
Ġed ition
Ġà¦²à¦Ľ à¦®à¦¨
vel opment
rish na
à¦Ĥ) ]
Ġsm all
Ġdy ing
erson al
cy cle
Ġill usion
Ġthr ough
hilosop hy
Ġfamil y
ĠMemor ial
Io T
Ġà¦¬à¦¦à¦¹ à¦ľà¦®
Ġà¦¨esc afÃ©
à¦Ľà¦²à¦Ľ à¦²
Ġà¦Ĺà¦Łà¦Ĺ à¦Ł
Ġindig o
Ġstip ends
ĠVolum e
- ,
. )
0 0
4 6
4 7
A r
A dvik
A ryan
B oss
E D
F rom
G O
I A
I N
I nt
L MS
N I
O C
P ro
R I
R ed
R ipon
S ec
S olar
T ube
] à¥¤
a u
a il
a ir
a urav
b e
b t
b an
b le
c o
c he
c in
c om
e al
e gr
h ana
i y
i ra
i atic
k er
l o
l an
l am
m p
m at
m er
m ed
m ur
n n
n ce
o x
o ff
p resent
r vas
s ide
s uggestion
t en
u es
u ja
w am
w ord
¢ ×
£ áĥ
Ã ¡
Î µ
Ñ Ī
Ñ Į
× Ļ
× ľ
× ¢×
Ù ¾
Ù ģ
Ù ĳ
à ±
ì Ŀ
Ġ 4
Ġ 8
Ġ ð
Ġ !âĢĻ
Ġ ent
Ġ qu
Ġ ÙĦ
Ġ Â·Â·Â·
Ġ Ùħ
à¦¾ '
à¦¾ à§ĭ
à¦¾ à§ĩ,
à§ĩ (
à§ĩ à§ĭ
à§ĩ à¦¾,
à§ĩ à¦¾à¥¤
à¦° à¦°à¦¤
à¦° à¦¨à¦¤
à¦° à¦°à¦¶
à¦° à¦ĺà¦£
à§į âĢĻâĢĶ
à¦¿ à§Ģ
à¦¿ âĢĿ-
à¦¿ à¥¥
à¦¨ à¦Ĺà¦²
à¦¨ à¦¸à¦°
à¦¨ à¦°à¦ª
à¦¨ à¦°à¦Ł
à¦¨ à¦ľà§Ł
à¦¨ à§ľà¦¬à§ľ
à¦¤ à¦ŀ
à¦¤ à¦²à¦ķ
à¦¤ à¦ľà¦²
à¦¤ à¦ªà¦Ł
à¦¤ à¦¯à¦¶
à¦¤ à§İà¦ªà¦°
à¦¤ à¦°à¦¤à¦®
à¦² à¦¬à¦ª
à¦² à¦¬à¦²
à¦² à¦°à¦¸
à¦² à¦¨à¦ĵ
à¦² à¦¦à¦ķ
à¦² à¦īà¦¦
à¦² à¦¥à¦¤
à¦² à¦Ĩà¦¨
à¦ķ à¦¸à¦¹
à¦ķ à¦ĺà¦¨
à¦ķ à¦°à¦¤à¦²
à¦ķ à¦Ĩà¦īà¦Ł
à§ģ .
à§ģ à¦¾
à¦¬ à¦ĵà¦¯
à¦¬ à§İà¦ķ
à¦¬ à¦ĩà¦¬
à¦¬ à¦īà§Ł
à¦¬ à¦īà¦®
à¦¬ à§İà¦¸à¦²
à¦¯ à¦Ľ
à¦¯ à¦ĺ
à¦¯ à¦²à¦ķ
à¦¯ à¦²à¦¤
à¦¯ à¦ĺà¦¨
à¦¯ à¦ĸà¦£
à¦¯ à¦ĸà¦ļ
à¦® à¦®à¦£
à¦® à¦Ŀà¦°
à¦® à¦ľà¦ķ
à¦® à¦°à¦¹à¦¸
à¦¼ )à¥¤
à¦¼ à¥¥
à¦¼ ...
à§ĭ à¦¾
à§ĭ à§į
à§ĭ à¥¥
à§ĭ ...
à§ĭ ...âĢĿ
Ġà¦ķ à¦¤à¦°
Ġà¦ķ à¦ĵà¦¯
Ġà¦ķ à¦¦à¦²
Ġà¦ķ à¦ĩà¦¤
Ġà¦ķ à¦ĩà¦¯
Ġà¦ķ à¦ĩà¦¬
Ġà¦ķ à¦Łà¦¨
Ġà¦ķ à¦ķà¦ª
Ġà¦ķ à¦¸à¦°à§İ
Ġà¦¬ à¦¤à¦°
Ġà¦¬ à¦ĵà¦¯
Ġà¦¬ à¦°à¦¨
Ġà¦¬ à¦ľà¦²
Ġà¦¬ à¦ķà¦¨
Ġà¦¬ à¦¦à¦¤
Ġà¦¬ à¦°à¦¬à¦§
Ġà¦¬ à¦¨à¦¤à¦²
Ġà¦ª à¦®
Ġà¦ª à¦ł
Ġà¦ª à¦ĩà¦¡
Ġà¦ª à¦ĩà¦¸
à¦¸ à¦¬à¦²
à¦¸ à¦¤à¦¨
à¦¸ à¦ķà¦¤
à¦¸ à¦¦à¦°
à¦¸ à¦Ĺà¦¤
à¦¸ à¦¯à¦¨
à¦¸ à¦¸à¦®
à¦¸ à¦ļà¦°
à¦¸ à§°
à¦¸ à¦ļà¦ķ
à¦¸ à¦ĸà¦£
à¦¸ à¦ħà¦²
à¦¸ à¦°à¦¸à¦¤
Ġà¦Ĩ à¦¥
Ġà¦Ĩ à¦ªà¦ķ
Ġà¦Ĩ à¦Łà¦¤
Ġà¦Ĩ à¦īà¦°
Ġà¦Ĩ à¦ħà¦°
Ġà¦Ĩ à¦īà¦¡
Ġà¦Ĩ à¦Łà¦¦
à¦¦ à¦ķà¦²
à¦¦ à¦¦à¦°
à¦¦ à¦¤à¦²
à¦¦ à¦ªà¦Ł
à¦¦ à¦Ńà¦Ļ
à¦¦ à¦²à¦¬à¦¦
Ġà¦¨ à¦¬à¦¤
Ġà¦¨ à¦¨à¦¸
Ġà¦® à¦ķà¦°
Ġà¦® à¦¦à¦ķ
Ġà¦® à¦Ľà¦²
à¦Ł à¦Ļ
à¦Ł à¦¬à¦¨
à¦Ł à¦Ĩ
à¦Ł à¦°à¦¦
à¦Ł à¦ªà¦¦
à¦Ł à¦¬à¦¦
à¦Ł à¦°à¦ĵ
à¦Ł à¦®à¦¹
à¦Ł à¦ķà¦Łà¦ķ
à§Ģ âĢĿâĢĵ
à¦ª à¦ªà¦¨
à¦ª à¦ķà¦Ł
à¦ª à¦¹à¦°
à¦ª à¦¸à¦¨
à¦ª à¦¶à¦¬
à¦ª à¦ļà¦ķ
à¦ª à¦Ŀà¦°
à¦ĩ à¦§
à¦ĩ à¦¬à¦¨
à¦ĩ à¦¨à¦ĵ
à¦ĩ à¦®à¦¤
à¦ĩ à¦¸à¦¨
à¦ĩ à¦¸à¦ķ
à¦ĩ à¦ªà¦²
à¦ĩ à¦¸à¦Ł
à¦ĩ à¦īà¦Ł
à¦ĩ à¦¦à¦¹
à¦ĩ à¦Ĺà¦ŀ
Ġà¦¦ à¦ĩà¦Ń
Ġà¦¤ à¦°à¦¸
Ġà¦¤ à¦ĸà¦¤
Ġà¦¤ à¦ĸà¦²
Ġà¦¤ à¦¸à¦°
à¦ľ à¦Ŀ
à¦ľ à¦ĺ
à¦ľ à¦¦à¦°
à¦ľ à¦¬à¦¦
à¦ľ à¦¬à¦ªà¦£
à¦Ľ à¦ļ
à¦Ľ à¦¤à¦®
à¦¶ à¦²à¦ķ
à¦¶ à¦¤à¦®
à¦¶ à¦ªà¦Ł
à¦¶ à¦°à¦Ļ
à¦¶ à§Łà¦ķ
Ġà¦¹ à¦Ĺà¦²
Ġà¦¹ à¦¸à¦¨
Ġà¦ı à¦Ļ
Ġà¦ı à¦¹à¦¨
Ġà¦ı à¦ľà¦°
Ġà¦ı à¦¨à¦Ł
Ġà¦ı à¦ĺà¦°
à§Ł à¦®à¦¨
à§Ł à¦¨à¦ķ
à§Ł à¦ķà¦¦
Ġà¦ħ à¦ķà¦Ł
Ġà¦ħ à¦°à¦¸
Ġà¦ħ à¦¦à¦°
Ġà¦ħ à¦¶à¦¬
Ġà¦ħ à¦¹à¦¨
Ġà¦ħ à¦Ľà¦²
à¦ĸ à¦°à¦Ĺ
à¦· à¦ķà¦¬
à¦· à¦¸à¦®
à¦· à¦ľà¦®
à¦Ĺ à¦°à¦¨
à¦Ĺ à¦¸à¦°
à¦Ĺ à§°
à¦Ĺ à¦¶à¦ķ
à¦Ĺ à¦łà¦ķ
à¦Ĺ à¦£à¦ķ
à¦¼à§ĩ !âĢĿ
à¦¼à§ĩ ?âĢĿ
à¦¼à§ĩ âĢĶâĢľ
à¦§ à¦ľà¦¨
à¦§ à¦Ĺà¦¤
à¦§ à¦°à¦¦
à¦§ à¦ªà¦¥
à¦§ à¦¸à¦¹
Ġà¦¯ à¦®à¦¸
Ġà¦¯ à¦®à¦®
à¦¹ à¦ķà¦¤
à¦¹ à¦ªà¦¤
à¦¹ à¦¨à¦¨
à¦¹ à¦¤à¦¤
à¦¹ à¦Ńà¦Ļ
à¦ļ à¦¹
à¦ļ à¦°à¦¤
à¦ļ à¦¬à¦¨
à¦ļ à¦°à¦ķ
à¦ļ à¦«
à¦ļ à¦ķà¦Ł
à¦ļ à¦¶à¦¬
à¦ļ à§Łà¦¨
à¦£ à¦°à¦ķ
à¦£ à¦®à¦¤
Ġà¦ķà¦° à¦¹
à¦ģ ,
à¦ģ âĢĻà¥¤
Ġà¦Ĺ à¦Ĺ
Ġà¦Ĺ à¦ľà¦®
Ġà¦Ĺ à¦ªà¦Ĺà¦ª
à¦¡ à¦¯
à¦¡ à¦ľà¦¨
à¦¡ à¦¬à¦¸
à¦¡ à¦¨à¦®
à¦¡ à¦¸à¦ĵ
à¦¥ à¦ĸ
à¦¥ à¦®à¦ķ
à¦¥ à¦°à¦ĩ
à¦¥ à¦¬à¦¦
à¦¥ à¦¦à¦£
Ġà¦¶ à¦£
Ġà¦¶ à¦®à¦¨
Ġà¦¶ à¦®à¦¸
Ġà¦¶ à¦łà¦¤
Ġà¦ľ à¦ķ
Ġà¦ľ à¦ĸ
Ġà¦ľ à¦°à¦Ĺ
Ġà¦ľ à¦īà¦¨
Ġà¦ľ à¦ªà¦®
Ġà¦Ń à¦²à¦ķ
Ġà¦Ń à¦ľà¦¸
Ġà¦Ń à¦ľà¦¤
Ġà¦Ń à¦¨à¦Ńà¦¨
Ġà¦ļ à¦°à¦¤
Ġà¦° à¦¸à¦®
Ġà¦° à¦®à¦ľ
Ġà¦° à¦ļà§Ł
Ġà¦° à¦Ńà¦¸
à¦ĵ à¦«
à¦ĵ à¦Ĺà¦°
à§ĥ à§į
à¦Ń à¦£
à¦Ń à¦¨à¦¤
à¦Ń à¦²à¦ķ
à§ĩà¥¤ "
à§ĩà¥¤ âĢľ
Ġà¦Ĩà¦® à¦ª
Ġà¦Ĩà¦® à¦¹
Ġà¦Ľ à¦ĩ
Ġà¦ıà¦ķ à¦Ľ
Ġà¦ıà¦ķ à¦¡
Ġà¦ıà¦ķ à¦ł
Ġà¦ıà¦ķ à¦¶à¦¬
Ġà¦ıà¦ķ à¦ıà¦ķ
à§Ĥ à§į
à§Ĥ âĢĵ
à§Ĥ à¦ĥ
à¦Ĥ /
à¦ł à¦¯
à¦ł à¦¤à¦²
à¦ł à¦®à§Ł
Ġà¦ī à¦«
Ġà¦ī à¦ĩà¦ª
Ġà¦ī à¦ĩà¦¶
à¦Ļ à¦®à§Ł
à¦¼à¦¾ )
à¦¼à¦¾ :
à¦¼à¦¾ !âĢĿ
à¦¼à¦¾ âĢ¦âĢĿ
Ġà¦ĵ à¦ªà¦¨
Ġà¦ĵ à¦®à¦²
à§ľ à¦°
à§ľ à¦ļ
Ġà¦² à¦¬à¦¨
Ġà¦« à¦·
à¦°à¦¤ à¦ĩ
à¦°à¦¤ à¦ļ
Ġà¦ĸ à¦Ĺà¦®
Ġà¦ĸ à§Łà¦°
Ġà¦ħà¦¨ à¦ªà¦¨
Ġà¦ħà¦¨ à¦¬à¦§
âĢĶ "
à¦¾, âĢĶ
Ġà¦ªà¦° à¦¹
Ġà¦ªà¦° à¦Ń
Ġà¦ªà¦° à¦®à¦¤
Ġà¦ªà¦° à¦®à¦°
à¦¬à¦¨ à¦«
à¦¬à¦¨ à¦ļà¦°
Ġà¦¸à¦® à¦ľ
Ġà¦¸à¦® à¦°à¦¨
Ġà¦ĺ à¦¨à¦¬à¦¸à¦¤
ĠâĢ ¢
Ġà¦®à¦¨ à¦¬
Ġà¦®à¦¨ à¦ķà¦£
à¦°à¦£ à¦¸à¦®
âĢĻ .
âĢĻ âĢ¦
à¦ªà¦° à¦¨
à¦ªà¦° à¦ªà¦°
à¦ªà¦° à¦¹à¦°
à¦ªà¦° à¦®à¦£
à¦¼à¦¿ âĢĿ
à¦¼à¦¿ !âĢĿ
à¦¼à¦¿ âĢĻà¥¤
à¦ŀ à¦¨
à¦ŀ à¦Ĺ
à¦ŀ à¦ľà¦¨
à§İ à¦Ĺà¦¤
à§İ à¦¶à¦ķ
à§İ à¦Ľà¦²
à§İ à¦«à¦¨
à¦¤à¦° à¦ĸ
à¦¤à¦° à¦ĸà¦£
à¦Ŀ à¦ª
à¦Ŀ à¦°à¦£
à¦Ŀ à¦°à¦Ľ
à¦ľà¦¨ à¦Ń
à¦ľà¦¨ à¦®à¦¨
à¦¿à¥¤ (
à¦¿à¥¤ )
à¦ī à§İ
à¦ī à¦«
à¦ī à¦¬à¦²
à¦ī à¦Ĺà¦²
à¦ī à§İà¦ķ
à¦ī à¦¦à¦Ĺ
à¦ī à¦ľà¦Ł
à¦ī à¦ªà¦¬
à¦ī à§ľà¦¨
à¦ī à¦¬à¦Ĺ
à¦ī à§İà¦ªà¦²
à¦¬à¦° à¦¨
à¦¬à¦° à¦®
à¦¬à¦° à¦ľ
Ġà¦Ĩà¦² à¦¹
Ġà¦Ĩà¦² à¦Ļ
Ġà¦Ĩà¦² à¦®à¦Ĺ
à¦°à¦ķ à¦¬
à¦°à¦ķ à¦ĩ
à¦°à¦ķ à¦ĸà¦£
à¦ªà¦¨ à¦ķ
à¦ªà¦¨ à¦Ł
à¦ªà¦¨ à¦ĩ
à¦ªà¦¨ à¦Ń
à¦« à¦Ĺ
à¦« à¦£
à¦« à¦ĵ
à¦« à¦°à¦¸
à¦ı à¦¶
à¦ı à¦ķà¦°
à¦ı à¦¨à¦ķ
à¦ı à¦°à¦ĵ
à¦ı à¦¨à¦¸
Ġà¦¸à¦¬ à¦¤
Ġà¦¸à¦¬ à¦ķà¦¥
à¦Ĩ à¦²à¦¬
à¦Ĩ à¦¸à¦®
à¦Ĩ à¦¨à¦ķ
à¦Ĩ à¦¸à¦¤
à¦Ĩ à¦ĩà¦¯
à¦Ĩ à¦¬à¦¡
à¦Ĩ à¦ĩà¦ľ
ĠĠĊ ĠĊ
à¦ĺ à¦¹
à¦ĺ à§İ
à¦ĺ à¦Ĺà¦°
Ġà¦Ł à¦ªà¦¨
Ġà¦Ł uhin
Ġà¦ľà¦¨ à¦¬à¦¸à¦¤
à¦¬à¦² à¦¸
Ġà¦ĩ à¦Ĺà¦¨
Ġà¦ĩ à§Łà¦°
Ġà¦ĩ à¦ķà¦¨à¦®
à§ģà¦ģ âĢĻ,
Ġà¦īà¦ł à¦¨
à¦·à¦£ à¦¯
à¦·à¦£ à¦¯à¦¨
Ġà¦ªà¦¡ à¦ķ
Ġà¦ļà¦² à¦°
Ġà¦ļà¦² à§İà¦¶à¦ķ
à§ĭà¦ģ -
Ġà¦ªà¦¥ à¦¬
Ġà¦ªà¦¥ à¦¸
Ġà¦¬à¦¨ à¦Ł
Ġà¦¬à¦¨ à¦Ĺà¦®à¦¨
Ġà¦ł à¦®à¦ķ
à¦ħ à¦ĵ
à¦ħ à¦¬à¦¨
à¦ħ à¦Ŀ
à¦ħ à¦ľà¦°
à¦ħ à¦ķà¦¥
à¦ħ à¦¸à¦®à¦¯
à¦ħ à¦Ńà¦¯
Ġà¦ħà¦® à¦¯
Ġà¦ħà¦® à¦¸
Ġà¦ħà¦® à¦°à¦ķ
Ġà¦ħà¦® à¦ĺ
Ġà¦ħà¦® à¦°à¦¦
Ġà¦ħà¦® à¦²à¦¬
Ġà¦ıà¦¸ à¦®
Ġà¦Ĩà¦ľ à¦®à¦ķ
Ġà¦ħà¦¸ à¦«à¦²
à¦ķà¦² à¦°
à¦ķà¦² à¦¬à¦¨
à¦ķà¦² à¦ķà¦²
Ġà¦Ĩà¦¬ à¦ķ
à¦¬à¦¤ à¦Ĺ
à¦¬à¦¤ à¦°à¦£
à§ĭ, -
à§ĭ, âĢĶ
à¦¸à¦¬ à¦¸à¦®à¦¯
à¦¤à¦¬ à¦Ĺ
Ġà¦Ĩà¦¨ à¦ľ
Ġà¦Ĩà¦¨ à¦¹
Ġà¦Ĩà¦¨ à§Łà¦¨
à¦ķà¦° à¦¨
Ġà¦īà¦¦ à¦ķ
à¦¦à¦¨ à¦¨
à¦¦à¦¨ à¦¸
à¦¦à¦¨ à¦ª
à¦¦à¦¨ à¦°à¦¤
à¦¦à¦¨ à¦ļà¦ķ
à¦ķà¦Ł à¦ª
à¦ķà¦Ł à¦¬à¦¤
à¦°à¦¨ à¦ķ
à¦°à¦¨ à¦¬
à¦°à¦¥ à¦¸
à¦¾à¦Ĥ !âĢĻ
Ġà¦¬à¦° à¦ĩ
Ġà¦¬à¦° à¦ĵ
à¦ķà¦¤ à¦¤
Ġà¦®à¦¹ à¦¨
Ġà¦®à¦¹ à¦¬
Ġà¦®à¦¹ à§ľ
Ġà¦®à¦¹ à¦«
Ġà¦¶à¦¬ à¦Ĺ
Ġà¦ľà¦² à¦¬à¦¨
Ġà¦ľà¦² à¦ľà¦¨
Ġà¦ľà¦² à¦ĺ
Ġà¦ľà¦² à¦Ŀà¦°
à¦Ĺà¦¤ à¦¦
à¦°à¦¹ à¦ĵ
à¦°à¦¹ à¦Ļ
Ġà¦ħà¦¦ à¦²
Ġà¦ħà¦¤ à¦¸
Ġà¦ħà¦¤ à¦¦
Ġà¦ħà¦¤ à¦¶à¦¤
à¦°à¦¥à¦® à¦Ń
à¦¨à¦ĵ à¦°
à¦¨à¦ĵ à§Ł
à¦¯à¦¤ à¦¦à¦£
Ġà¦ĺà¦° à¦¬à¦¨
à¦²à¦¨ à¦Ł
à¦²à¦¨ à¦ķà¦°
Ġà¦ıà¦² à¦Ĺà¦°
à¦®à¦¤ à¦ĵ
à¦®à¦¤ à¦²à¦¬
à¦Ĩà¦® à¦¬
à¦Ĩà¦® à¦°à¦£
à¦¹à¦¸ à¦Ł
à¦¹à¦¸ à¦ĵ
à¦ļà¦¨ à¦¶
à¦Ĺà¦² à¦¶
à¦Ĺà¦² à¦ļ
à¦Ĺà¦² à¦¬à¦Ł
à§ĩâĢĶ -
à¦¿à¦ĥ âĢĵ
à¦°à¦¦ à¦¸
à¦²à¦¬ à¦ķ
à¦²à¦¬ à¦¸à¦¨
à¦²à¦¬ à¦¹à¦¨à¦ķ
Ġà¦ķà¦°à¦¬ à¦ĩ
à¦ļà¦² à¦²
Ġà¦¸à¦¹ à¦Ĺ
Ġà¦¸à¦¹ à¦ľà¦¨
Ġà¦ħà¦ª à¦¶
Ġà¦ħà¦ª à¦ļ
Ġà¦ħà¦ª à¦¥
à¦®à¦² à¦¤à¦°
à¦Ľà¦¨ à¦Ł
à¦¸à¦¨ à¦¸
à¦¸à¦¨ à¦Ł
à¦¸à¦¨ à¦ĩ
à¦¸à¦¨ à¦¶
à¦¸à¦¨ à¦¹
à¦°à¦ľ à¦¯
à¦¶à¦¨ à¦¹
Ġà¦ħà¦§ à¦®à¦ķ
Ġà¦ıà¦¤ à¦¸à¦¬
à¦ªà¦¤ à¦®
Ġà§ °
à¦¦à§Ł à¦ĩ
à¦¦à§Ł à¦¹
à¦¦à§Ł à¦Ĺà¦£
Ġà¦¬à¦¹ à¦ĩ
à¦ĩà¦² à¦Ĺ
à¦ĩà¦² à¦ĵ
à¦ĩà¦² à¦Łà¦¦
Ġà¦°à¦Ļ à¦ª
Ġà¦°à¦Ļ à¦ĩ
à¦ķà¦¬ à¦ķ
à¦ķà¦¬ à¦ĩ
Ġà¦ħà¦ľ à¦²
Ġà¦ĺà¦Ł à¦ķ
à¦·à¦¤ à¦ĩ
Ġà¦ľà¦® à¦ľ
à¦ıà¦ĩ à¦®
à¦ıà¦ĩ à¦Ĺ
à¦ıà¦ĩ à¦ļà¦¡
à¦ĩà¦¨ à¦²
à¦ĩà¦¨ à¦¡
à¦ĩà¦¨ à¦¸à¦ª
Ġà¦¨à§Ł à¦¨à¦Ńà¦°
à¦¼à§ĭ !
Ġà¦īà¦¨ à¦Ĩà¦¶
Ġà¦ªà¦¦ à¦Ľ
à¦¬à¦¦ à¦®
à¦¬à¦¦ à¦¶
Ġà¦ĵà¦ªà¦° à¦ĵà¦¯
à¦¶à¦¬ à¦¬
à¦¶à¦¬ à¦ĩ
Ġà¦ħà¦®à¦² à¦¸
Ġà¦ħà¦®à¦² à¦§
à¦¾âĢĶ âĢĿ
à¦®à¦° à¦¬à¦¨
à¦¹à¦² à¦®
à¦¹à¦² à¦Ł
à¦¹à¦² à¦ª
à¦¹à¦² à¦Ĺ
à¦®à¦£ à¦Ĺ
à¦®à¦£ à¦¸à¦®
à¦¤à¦² à¦¦
à¦¤à¦² à¦ª
à¦Łà¦ķ à¦®
à¦Łà¦ķ à¦ļ
à¦Łà¦ķ à¦¥
âĢ¦ âĢĻà¥¤
Ġà¦ķà¦® à¦¸
à¦¯à¦® à¦¶
à¦¯à¦® à¦ĵ
à¦¤à¦ķ à¦ķ
à¦¤à¦ķ à¦ļ
à¦¤à¦ķ à¦ĵ
à¦¨à¦ķ à¦¥
à¦°à¦ĵ à¦ĩ
Ġà¦¶à¦¹à¦° à¦ĵ
à¦¸à¦° à¦Ĺ
à¦°à¦Ń à¦ķ
Ġà¦ħà¦ªà¦° à¦Ł
à¦¾? âĢĶ
à¦¾? âĢĵ
à§įâĢĮ âĢĮ
Ġà¦¬à¦ĩ à¦ª
à¦¤à¦® à¦¦
à§ģâĢĻ âĢĶ
à¦¬à¦¸ à¦²
Ġà¦ħà¦¶ à¦¥
Ġà¦«à¦² à¦ĩ
à§İà¦ķ à¦®à¦²
à¦ıà¦ķ à¦Ń
à¦ıà¦ķ à¦ķà¦¥
Ġà¦Ľà¦¬ à¦Ľà¦°
Ġà¦ħà¦² à¦¸à¦Ń
à¦ħà¦¨ à¦¡
à§ĩ; âĢĵ
à§° à¦ļ
à§° à¦¬à¦¨
à§° à¦ľà¦ĩ
à¦¶à¦ķ à¦ĩ
à¦¶à¦ķ à¦ĵ
à¦®à§Ł à¦ķ
à¦ļà¦ķ à¦®
à¦ļà¦ķ à¦ĵ
à¦¢ à¦Ļ
à§ĩ! âĢĶ
Ġà¦īà¦ľ à¦¬
à¦ľà¦² à¦ª
à¦ľà¦² à¦ľ
à¦ľà¦² à¦Ľ
à¦ľà¦² à¦Ńà¦°
Ġà¦¶à¦¤ à¦§à¦®
Ġà¦¸à¦®à§Ł à¦¸
Ġà¦¸à¦®à§Ł à¦Ĺ
Ġà¦ĩà¦¨ à¦ª
Ġà¦Ĩà¦§ à¦«
Ġà¦Ĺà§ľ à¦Ĺà§ľ
Ġà¦Ńà¦¬ à¦¬à¦²
Ġà¦Ī à¦ľ
Ġà¦īà§İ à¦ķà¦²
à¦ªà¦Ł à¦Ń
à§ĩâĢĵ âĢĻ
à¦¨à¦¸ à¦ŀ
à¦¨à¦¸ à¦ªà¦Łà¦ķ
à¦¯à¦¸ à¦¹
à¦¥à¦° à¦ĸ
à¦¥à¦° à¦ĸà¦£
à¦ªà¦¸ à¦ľ
à¦¨à¦Ĺ à¦®
à¦¨à¦Ĺ à¦¦
à¦¨à¦Ĺ à¦Ĺ
à¦°à¦ľà¦¨ à¦ĩ
Ġà¦Ńà§Ł à¦Ń
Ġà¦ĭ à¦®à¦¨
Ġà¦¸à¦¹à¦ľ à¦¸
Ġà¦¸à¦¹à¦ľ à¦¤à¦°
à¦°à¦Ĺ à¦Ł
à¦·à¦® à¦Ń
à¥¤âĢĻ âĢĶ
à¦°à¦®à¦£ à¦¯
à¦°à¦¹à¦£ à¦ĩ
à¦°à¦¹à¦£ à¦ĵ
Ġà¦°à¦ķà¦® à¦Ł
à¦¾âĢĻ !
à¦¾; -
Ġà¦ıà¦¨ à¦¡
Ġà¦ıà¦¨ à¦Ń
à¦ıà¦¬ à¦®
à¦ıà¦¬ à¦®à¦¸
à¦ķà¦ķ à¦£
Ġà¦Ĩà¦ª à¦¶
à¦ĩà¦Ł à¦¨
à¦§à¦¬ à¦ĵ
à¦Ĩà¦ľ à¦¬
Ġà¦īà§İà¦¸à¦¬ à¦ļ
à§Łà¦¤ à¦ĩ
à¦Ĺà¦¬ à§İà¦¸
à¦Łà¦° à¦°
Ġà¦ķà¦¨ à¦Ńà¦¯
à¦Ĩà¦² à¦Ł
à¦®à¦Ĺ à¦£
à¦ľà¦¬ à¦ªà¦¨
Ġà¦¸à¦Ń à¦¯
à¦¹à¦°à¦£ à¦ĩ
Ġà¦Ĺà¦£ à¦¬
Ġà¦§à¦¨ à¦Ń
à¦¨à¦¯ à¦ľ
à¦łà¦ķ à¦¸à¦®
Ġà¦¦à¦¶ à¦Ń
à¦¨à¦Ń à¦¸
Ġà¦¸à¦¦ à¦Ĺà¦¤
à¦¡à¦² à¦Ł
à¦¡à¦² à¦ª
à¦²à¦Ĺ à¦ª
à¦Łà¦« à¦°à¦®
Ġà¦ıà¦¸à¦¬ à¦ĵ
Ġà¦¨à¦ľà¦° à¦Ł
à¦¸à¦¹ à¦ķ
à§Ģ? âĢĶ
à¦ľà¦ķ à¦®
Ġt old
Ġt ree
à¦īà¦² à¦Ł
Ġà§¨ à§¦à§¦à§¦
Ġà¦¬à¦¸à¦¨ à¦ĸ
à¦®à¦¶ à¦¤
à¤ ¥
à¤ ģ
Ġà¦ķà§Ł à¦Ł
Ġà¦Ĩà§ľ à¦¤
à¦¥à¦² à¦Ń
he ad
à¦®à¦¦ à¦ª
Ġà¦ľà§Ł à¦ķ
Ġà¦ľà§Ł à¦¦
Ġà¦ľà§Ł à¦¢
à¦¬à¦Ń à¦ķ
à¦°à¦ĸ à¦ļ
à§© à§¬
à¦ĺà¦¨ à¦ĸ
an y
éŁ¿ åĵį
in ess
Ġà¦ľà¦Ĺà¦¤ à¦ķ
à§ĩâĢ¦ à¥¤âĢĻ
Ġà¦¸à§İ à¦¬
Ġà¦¸à§İ à¦®
Ġà¦¸à§İ à¦ª
Ġà¦®à¦¦ à¦¬
Ġà¦®à¦¦ à¦®à¦¤
à§ª à§®
Ġà¦Ĭ à¦§
Ġà¦Ĭ à¦¨à¦¤
à¦®à¦ļ à¦Ł
Ġà¦ķà¦²à¦® à¦ĵ
à¦ļà¦°à¦£ à¦ĵ
Ġà¦Ĩà¦ĩà¦¨ à¦ª
Ġà¦Ĩà¦ĩà¦¨ à¦Ĺ
Ġà¦¶à¦ªà¦¥ à¦ª
Ġà¦¶à¦ªà¦¥ à¦ªà¦¤
à¦°à¦« à§İ
à§ĩ?âĢĻ âĢĶ
à¦¯à¦¹ à¦ĩ
re ad
à¦¶à¦° à¦ŀ
à¦¬à¦Ł à¦¦
à¦¨à§Łà¦¨ à¦®
Ġà¦ıà¦°à¦ķà¦® à¦Ł
Ġà¦ıà¦°à¦ķà¦® à¦Ń
on th
à¦ļà§ľ à¦ĵ
à¦¬à¦ľà¦¨ à¦°
à¦¬à¦ľà¦¨ à¦ķ
à¦¬à¦ľà¦¨ à¦ª
à¦¬à¦ľà¦¨ à¦¹à¦¤
à¦¬à¦ľà¦¨ à¦¸à¦®à¦ķ
à¦¦à¦¶ à¦ªà¦¦
Ġà¦ĩà¦² à¦°
à§Ń à§¦
à§Ń à§«
Ġà¦°à¦¥ à¦ļ
Ġà¦°à¦¥ à¦ļà¦ķ
Ġà¦¨à¦° à¦ĵà¦¯
at s
at es
à§ĩ: -
al a
al m
à¦ħà¦¸ à§İ
à§¬ à§®
à¦¹à¦ķ à¦ª
à¦Ī à¦°
er t
Ġà¦ķà¦¬à¦° à¦ķ
is hed
is hes
à¦¿à¥¤âĢĻ âĢĿ
à¦£à¦¦ à¦£
à¦¯à§Ł à¦ĩ
à¦¯à¦Ĺ à¦ļ
en se
à§® à§Ń
à§® à§¯
Ġà¦Ķ à¦¡
à¦ĩà¦® à¦ªà¦¸
Ġa p
Ġa ct
à¦ıà¦®à¦¨ à¦ĵ
or a
or iz
Ġw ine
Ġw omen
Ġw ait
Ġs ha
Ġs low
it s
ar re
ar th
ar ri
ar ds
à¦¶à¦¹à¦° à¦Ł
Ġà¦Ĩà¦« à¦¤
Ġà¦ĸà¦°à¦ļ à¦ĵ
Ġà¦ĸà¦°à¦ļ à¦ªà¦¤
ou ch
à¦¯à¦®à§Ł à¦Ń
éŁ¿éŁ¿éŁ¿éŁ¿ éŁ¿éŁ¿
Ġà¦ļà§ľ à¦ļà§ľ
à¦¸à¦°à¦£ à¦ķ
Ġà¦ĩà¦Ł à¦Ĺ
à¦ļà¦® à§İà¦ķ
and y
Ġm ot
Ġm ur
Ġm ust
Ġm ade
Ġm onth
Ġc re
Ġc ur
Ġc ult
Ġc hild
Ġà¦ľà¦¨à¦¸ à¦®à¦ķ
à¦¶à¦¹ à¦°à¦¤à¦²
Ġo pen
Ġà¦¨à¦°à¦ķ à¦ķ
Ġà¦ĭà¦£ à¦Ĺ
à¦Ĺà¦¸ à¦ĩ
à¦¬à¦Ĺ à¦ŀ
à§Īà¦ĥ âĢĶ
à§Īà¦ĥ âĢĵ
à¦·à¦¬ à§İ
à¦ħà¦Ĺ à¦£à¦¨
Ġf ret
Ġf ound
Ġf irst
à§ĢâĢĻ âĢĶ
Ġà¦®à§İà¦¸ à¦ľ
à¦īà¦¬ à¦ĵà¦¯
Ġà¦¬à¦°à¦« à¦¶
Ġà¦«à¦Ł à¦ķà¦Ł
om es
ĠO n
Ġà¦®à¦°à¦£ à¦ª
Ġà¦Ĩà¦ĩ à¦¶
Ġà¦Ĩà¦ĩ à¦¸à¦¬
Ġà¦Ĩà¦ĩ à¦ĵà¦¨
Ġà§ª à§Ń
Ġd id
Ġd ry
Ġd own
à¦¯à¦°à¦ķà¦® à¦Ń
Ġà¦ķà¦ĩ à¦ĵ
ĠS a
ĠS h
ĠS y
ĠS ar
ĠS uk
ĠS weet
à§ĭ?âĢĿ ,
à¦¿âĢĿ âĢĵ
ic ro
Ġà¦ĩà¦¹ à¦ľ
Ġp re
Ġp ur
Ġp alm
ĠA ng
Ġà¦Ńà¦¬à¦¨ à¦¦
Ġà¦Ńà¦¬à¦¨ à¦Ł
Ġà¦°à¦¤à¦¨ à¦ª
Ġà¦ĺà¦· à¦²
ro k
ro ok
Ġà§« à§¬
as ure
ĠP H
ĠP ra
ĠP ap
ĠP ublis
ĠP arg
ĠP sych
ĠP aurav
ĠP uja
à¦Ńà¦°à¦¤ à¦¬
ĠC ent
ĠC ol
ĠC rook
Ġà¦°à¦£ à¦§
Ġth ine
Ġth ose
ĠB ang
Ġà¤ ¤
Ġà¤ µ
Ġà¤ ¹
Ġà¤ ħ
Ġà¤ Ŀ
Ġà§¬ à§¬
Ġà§¬ à§¯
à¦¶à¦Ĺà¦¤ à¦Ń
Ġà¦²à¦Ļ à¦ĺà¦¨
Ġl iter
ol o
ol ation
Ġe p
Ġe ase
Ġe yes
Ġe ves
ĠR aj
ĠR ock
Ġà¦¹à¦°à¦£ à¦ķ
à¦£à¦¸ à¦ŀ
el ig
ĠĠĊĠĠ ĠĠĠ
à¦¸à§İ à¦¤
à¦¸à§İ à¦ļà¦°
ĠD J
ĠD r
ĠD ur
ĠT ham
à¦£à¦Ń à¦Ł
st r
Ġà¦ªà¦¦à¦¯ à¦¨
ur b
ur n
ur y
im ent
Ġh und
ĠM a
Ġg u
Ġg ave
Ġg reat
Ġg ods
id er
Ġà¦¸à¦² à¦®à¦¨
à¦¶à¦ªà¦¥ à¦¬à¦¦
à¦ħà¦¹ à¦ŀ
Ġà¦¸à§ľà¦ķ à¦ªà¦¥
Ġà§§à§Ń à§Ńà§®
Ġà¦¸à¦®à¦¤à¦² à¦Ń
Ġre m
Ġre v
Ġre ad
Ġre ap
ad em
ir l
ir th
ĠH ya
ĠH ouse
Ġha unt
à¦¶à¦Ń à¦¬à¦¨
ĠN GO
Ġà§§à§ª à§¦à§¦
à¦¦à¦®à¦¨ à¦ķ
Ġà§§à§¯à§® à§¦
Ġà§§à§¯à§® à§©
Ġà§§à§¯à§® à§ª
à¦¶à¦§ à¦°à¦ķ
Ġ19 5
à¦²à¦¥ à¦Ĺà¦¤
Ġmy self
ĠW hen
ĠW ho
ĠW hat
Ġà¦Ĺà¦²à¦¦ à¦ĺ
Ġà§§à§¯à§¬ à§«
Ġà§§à§¯à§¬ à§Ń
Ġne w
Ġà¦¯à¦¤à¦¬ à¦¡
em s
Ġhe re
à¤¤ à¤°
Ġà¦«à¦¸ à¦²à¦¬
Ġà¦īà¦ĩ à¦¥
Ġà¦īà¦ĩ à¦ł
à§§à§® à§¬
ĠRe use
ĠRe cycle
Ġà§¯à§ ª
Ġà§¯à§ ®
our ney
Ġst re
um mer
Ġà¦¬à¦Ĺà¦² à¦¦
Ġà¦ĩà¦¨à¦« à¦°à¦®
Ġà§§à§¯à§¨ à§Ń
Ġà§§à§¯à§© à§¨
à§§à§Ń à§¯à§©
if ic
ĠØ ´
Ġà§§à§¯à§§à§ ¬
Ġà§§à§¯à§§à§ ®
Ġà§§à§¯à§§à§ ¯
Ġcon f
Ġde ep
ĠV is
Ġà¦®à¦Ł à¦®à¦Ł
iv ed
Ġv al
Ġà¦ĩà¦¤à¦° à¦ľà¦¨
Ġtr ans
ore word
ĠÐ ²
ĠÐ ¿
à¦Ĩà¦īà¦Ł à¦¡
Ġse e
og n
Ġà¦ªà¦ļà¦¨ à¦¶
Ġlo st
à§©à§© à§©à§©
Ġj oy
Ġj ourney
ak e
ĠF oreword
Ġà§§à§§à§ ¦
Ðµ Ð
Ðµ Ð»
Ð¾ Ð»
ĠIn st
Ġ196 7
Ġà¦¸à¦¬à¦° à¦Ļ
Ġà¦ıà¦ĩà¦ļ à¦ıà¦¸à¦¸
à¦Ŀà¦Ł à¦ªà¦Ł
iz arre
ĠĠĠĊ ĠĠ
à¦īà¦ªà¦ķ à¦°à¦£
à§§à§¯à§© à§®
ĠÑ Ī
Ġà¦«à§Ł à¦¸à¦²
à§§à§¯à§¬ à§¨
ib ility
Ġle ave
Ġle arning
Ġáĥ Ľ
Ġex p
act er
act ory
ĠDe velopment
Ġà¦ħà§Ł à¦¨à¦ķ
à¦ĩà¦· à¦·
Ġà¦ĵà¦¨à¦¨ à¦ķ
ĠAs iatic
ºçľºçľºçľºçľºçľºçľºçľºçľ ºçľºçľºçľºçľºçľºçľºçľºçľ
·çľ·çľ·çľ·çľ·çľ·çľ·çľ·çľ ·çľ·çľ·çľ·çľ·çľ·çľ·çľ·çľ
dig ital
yst ic
à¦¤à§Ł à¦Ńà¦¸
Ġà¦łà¦¨ à¦łà¦¨
ĠInt egr
Ġfe ver
ĠYou Tube
yes ha
à« į
à¦ıà¦Ĩ à¦ĩà¦¯
Ġà¦ħà¦¬à§Ł à¦¬à¦¹
Ġar t
Ġdr ink
à§§à§¯à§® à§«
urav as
Ġra in
ĠâĨ Ĵ
Ġbre ast
rah m
Ġmount ains
Ġfl ies
ĠSe lect
ĠCult ure
ĠLal on
ĠLangu ages
Ġwear iness
Ġorig inal
Ġroot s
Ġsoft ly
IO N
Ġident ity
Ġspe ak
ĠOff ice
Ġpit ri
ĠGand har
Ġcontin u
Red uce
cin th
mur ous
rvas i
Ġà¦ªà¦ĩà¦¸ à¦ĩ
à¦¡à¦¸à¦ĵ à¦ħà§°
Ġmur murous
ĠSuk umar
ĠParg iter
ĠPaurav a
ĠCrook es
Ġease ful
ĠDur ga
ĠTham es
Ġhund red
ĠHya cinth
! âĢĵ
) .
) âĢĶ
) âĢĻ
- âĢĻ
. ,
4 8
4 9
5 0
C U
C omp
I F
M O
O O
O R
P M
R elig
S I
S e
U M
W hat
Y ou
a ud
b i
b r
b as
c l
c ess
c omp
c ult
c hes
c utta
d en
d ing
d el
e e
e ch
e let
g ards
i j
i er
i ed
i ent
i os
i um
j i
l u
l led
m al
m it
m ot
m atic
n ation
n ight
o on
o le
o ol
o ver
o od
o int
p le
p ly
p pen
r s
r ul
r us
r ist
r up
r ings
s s
s il
t he
t al
v ent
w or
w ater
w ard
y o
y pe
y anta
¦ ģ
Ã ¶
Ä ±
Î ±
Ï ħ
Ð ·
× ŀ
Ø ¶
Ø ·
Ú ¯
Ú Ĩ
à ©
à ¬
à µ
á ŀ
â ¦ģ
ä ¸
ï ¼
Ċ Ċ
Ġ 2
Ġ 3
Ġ 7
Ġ z
Ġ |
Ġ Î
Ġ er
Ġ ut
Ġ ess
Ġ if
Ġ 10
Ġ Ú©
Ġ Ù¾
Ġ ÚĨ
Ĳ âĨ
ĳ ĺ
Ķ áĥ
Ŀ áĥ
ł áĥ
Ġà¦ ģ
Ġà¦ Ĥ
à¦¾ _
à¦¾ à¦¿
à¦¾ à§ĩ?
à¦¾ âĢį
à§ĩ à¦¿
à§ĩ à§ģ
à§ĩ ÂŃ
à§ĩ Â·Â·Â·
à§ĩ à§įà¦ģ
à¦° à¦°à¦¸
à¦° à¦°à¦¹
à¦° à¦²à¦¬
à¦° à¦Ŀà¦¡
à¦° à¦ĭà¦¤
à¦° à¦īà¦ĩà¦¨
à¦° afi
à§į âĢĻ;
à¦¿ Â¤
à¦¨ å
à¦¨ à¦°à¦¥
à¦¨ à¦¹à¦¸
à¦¨ à¦®à¦²
à¦¨ à¦¶à¦¬
à¦¨ à¦¦à¦²
à¦¨ à¦ĩà¦¤
à¦¨ à¦Ŀà¦°
à¦¨ à¦īà¦¤
à¦¤ à¦ĵà¦¯
à¦¤ à¦Ĺà¦¨
à¦¤ à¦¸à¦¤
à¦¤ à¦·à¦Ł
à¦¤ à¦ľà¦¨à¦¨
à¦¤ à§İà¦ªà¦°à¦¤
à¦² à§İ
à¦² à¦ľà¦¨
à¦² à¦°à¦ķ
à¦² à¦¤à¦¬
à¦² à¦®à¦¯
à¦² à¦Ĺà¦¨
à¦² à¦ªà¦Ł
à¦² à¦Ŀà¦°
à¦² à¦ļà¦¡
à¦² à¦ªà§ľ
à¦² à¦¦à¦¸
à¦² à¦ĺà¦¡
à¦² à§İà¦ľ
à¦ķ à¦·à¦£
à¦ķ à¦¤à¦¨
à¦ķ à¦ķà¦²
à¦ķ à¦¦à¦¨
à¦ķ à¦·à¦¤
à¦ķ à¦¦à¦²
à¦ķ à¦§à¦°
à¦ķ à¦¸à¦®à¦¯
à¦ķ à¦ľà¦®
à¦ķ à§Łà¦²
à§ģ ]
à§ģ âĢĿà¥¤
à§ģ âĢ¦.
à§ģ Â·Â·Â·
à¦¬ à¦·
à¦¬ à¦«
à¦¬ à¦Ĺà¦²
à¦¬ à¦¦à§Ł
à¦¬ à¦Ĺà¦¨
à¦¬ à¦¶à¦¬
à¦¬ à¦£à¦ķ
à¦¬ à¦īà¦ķ
à¦¬ à¦®à¦ª
à¦¬ à¦īà¦Ł
à¦¬ à§İà¦¸à¦®
à¦¯ à¦¸à¦¬
à¦¯ à¦¤à¦¬
à¦¯ à¦°à¦¥
à¦¯ à¦¦à¦¯
à¦¯ à¦¨à¦¨
à¦¯ à¦¶à¦°
à¦® à¦¤à¦°
à¦® à¦¦à¦¨
à¦® à¦¸à¦°
à¦® à¦Ĺà¦ľ
à¦® à¦Ńà¦°
à¦® à§Ŀ
à¦® à¦¦à¦Ĺ
à¦¼ âĢĻâĢĶ
à¦¼ âĢ¦à¥¤
à¦¼ âĢĿâĢĶ
à¦¼ âĢĿ,
à§ĭ âĢĮ
à§ĭ âĢĻ-
à§ĭ âĢĿâĢĵ
Ġà¦ķ à¦ľ
Ġà¦ķ à¦ªà¦°
Ġà¦ķ à¦¬à¦¤
Ġà¦ķ à¦¸à¦¬
Ġà¦ķ à¦¹à¦°
Ġà¦¬ à¦ĵà§Ł
Ġà¦¬ à¦¢
Ġà¦¬ à¦ĸà¦°
Ġà¦¬ à¦¶à¦¤
Ġà¦¬ à¦ĸà¦¶
Ġà¦¸ à¦·
Ġà¦¸ à¦£
Ġà¦¸ à¦¦à§Ł
Ġà¦¸ à¦Ĺà¦¨
Ġà¦ª à¦¦à¦°
Ġà¦ª à¦²à¦¤
à¦¸ à¦¥
à¦¸ à¦ªà¦°
à¦¸ à¦°à¦¬
à¦¸ à¦¦à¦¯
à¦¸ à¦°à¦¹
à¦¸ à¦ªà¦¥
à¦¸ à¦ªà¦ķ
à¦¸ à§İà¦ķ
à¦¸ à¦¢
à¦¸ à¦ľà¦®
à¦¸ à¦īà¦¦
à¦¸ à¦Ńà¦Ļ
Ġà¦Ĩ à¦¬à¦²
Ġà¦Ĩ à¦ķà¦²
Ġà¦Ĩ à¦ļà¦¨
Ġà¦Ĩ à¦ĩà¦¤
Ġà¦Ĩ à¦Łà¦Ĺ
à¥¤ ..
à¦¦ à¦¥
à¦¦ à¦°à¦¤
à¦¦ à¦ªà¦°
à¦¦ à¦²à¦ķ
à¦¦ à¦²à¦¬
à¦¦ à¦Ľà¦¨
à¦¦ à¦¤à¦¤
à¦¦ à¦¬à¦§
à¦¦ à¦ľà¦Ĺà¦¤
à¦¦ à¦Ńà¦ķ
à¦¦ à¦°à¦¤à¦®
Ġà¦¨ à¦°à¦¶
Ġà¦¨ à¦ĩà¦ķ
Ġà¦¨ à¦Łà¦¬
Ġà¦¨ à¦°à¦¬à¦²
Ġà¦¨ à¦Ī
Ġà¦¨ à¦¬à¦ªà¦¤
Ġà¦¨ à¦ŀà¦°
Ġà¦® à¦Ń
Ġà¦® à¦Ĺà¦°
Ġà¦® à¦¥à¦¨
Ġà¦® à¦Łà¦°
Ġà¦® à¦Łà¦¨
Ġà¦® à§İà¦¸à¦°
Ġà¦® à¦ĵà¦²
à¦Ł à¦¬à¦°
à¦Ł à¦ķà¦¤
à¦Ł à¦²à¦¤
à¦Ł à¦®à¦¯
à¦Ł à¦®à¦£
à¦Ł à¦Łà¦²
à¦Ł à¦¸à¦ķ
à¦Ł à¦£à¦ª
à¦Ł à¦Ĺà¦¬à¦Ĺ
à§Ģ ]
à§Ģ à§Ģ
à§Ģ à¦ģ
à§Ģ à¦ĥà¥¤
à§Ģ âĢĶâĢľ
à§Ģ )à¥¤
à¦ª à¦®à¦¤
à¦ª à§İà¦¸
à¦ª à¦ľà¦²
à¦ª à¦¸à¦²
à¦ª à¦§à¦°
à¦ª à¦ľà¦Ĺà¦¤
à¦ª à§İà¦¸à¦Ļ
à¦ĩ à§ľ
à¦ĩ à¦¨à¦¤
à¦ĩ à¦¶à¦¨
à¦ĩ à¦Ĺà¦¨
à¦ĩ à¦¸à¦®
à¦ĩ à¦®à¦ª
à¦ĩ à¦ļà¦Ł
à¦ĩ à¦ľà¦Ł
à¦ĩ à¦ĵà¦¨
à¦ĩ à¦¶à¦¦
Ġà¦¦ à¦°à¦¶
Ġà¦¦ à¦®à¦¯
Ġà¦¦ à¦¹à¦¤
Ġà¦¤ à¦Ĺ
Ġà¦¤ à¦¥à¦¨
Ġà¦¤ uhin
à¦ľ à¦°à¦ķ
à¦ľ à¦®à¦¤
à¦ľ à¦®à¦¯
à¦ľ à¦ļà¦ķ
à¦ľ à§Łà¦¤
à¦ľ à¦ķà¦¦
à¦ľ à¦®à¦¨à¦¸
à¦ľ à¦¬à¦¦à¦²
à¦Ľ à¦¹
à¦Ľ à¦«
à¦Ľ à¦ĵà¦¯
à¦Ľ à¦§à¦°
à¦Ľ à¦®à¦Ľà¦®
à¦¶ à¦£
à¦¶ à§İ
à¦¶ à¦ĺ
à¦¶ à¦¤à¦¬
à¦¶ à¦¦à¦°
à¦¶ à¦Ĺà¦²
à¦¶ à¦Ńà¦°
à¦¶ à§Łà¦¤
à¦¶ à¦Ńà¦Ļ
Ġà¦¹ à¦Ĺ
Ġà¦¹ à¦¦à§Ł
Ġà¦¹ à¦°à¦Ĺ
Ġà¦¹ à¦ķà¦¦
Ġà¦ı à¦¤à¦°
Ġà¦ı à¦¤à¦¨
Ġà¦ı à¦¨à¦¸
Ġà¦ı à¦¨à¦²
à§Ł à¦ĸ
à§Ł à¦§
à§Ł à¦ķà¦°
à§Ł à¦¨à¦¬
à§Ł à¦¸à¦Ļ
Ġà¦ħ à¦ĵ
à¦ĸ à§İ
à¦ĸ à¦¤à¦°
à¦ĸ à¦®à¦¤
à¦ĸ à¦¸à¦Ļ
à¦ĸ à¦ľà¦¨à¦ķ
à¦· à¦ĺ
à¦· à¦°à¦¶
à¦· à¦°à¦ĩ
à¦· à¦¬à¦¦
à¦· à¦®à¦£
à¦· à¦Ńà¦°
à¦· à¦²à¦Ĺ
à¦· à¦¦à¦Ĺ
à¦· à¦¸à¦Ł
à¦· à¦ľà¦Ĺà¦¤
à¦· à¦°à¦®à§Ł
à¦Ĺ à¦ľà¦¨
à¦Ĺ à¦ħ
à¦Ĺ à¦¤à¦¨
à¦Ĺ à¦ķà¦°
à¦Ĺ à¦²à¦¨
à¦Ĺ à¦°à¦²
à¦Ĺ à¦¦à¦²
à¦Ĺ à¦Ĺà¦£
à¦Ĺ à¦°à¦¬à§İ
à¦¼à§ĩ ),
à¦§ à¦ĸ
à¦§ à¦¤à¦°
à¦§ à¦«
à¦§ à¦¨à¦¤
à¦§ à¦ķà¦²
à¦§ à¦¹à¦¸
à¦§ à¦Ĺà¦²
à¦§ à¦ªà¦¤
à¦§ à¦ļà¦°
à¦§ à¦¬à¦ķ
à¦§ à¦Ĺà¦£
à¦§ à¦¶à¦°
âĢ Ĳ
Ġà¦¯ à¦¡
Ġà¦¯ à¦®à¦ķ
Ġà¦¯ à¦¤à¦°à¦ķà¦®
à¦¹ à¦°à¦¤
à¦¹ à¦¬à¦°
à¦¹ à¦§à¦¨
à¦¹ à¦®à¦¸
à¦¹ à¦ķà¦¦
à¦¹ à¦¬à¦¶à¦¤
à¦¹ à¦²à¦¬à¦¶à¦¤
à¦¹ à¦²à¦¬à¦¶
à¦ļ à¦·
à¦ļ à¦ħ
à¦ļ à¦²à¦ķ
à¦ļ à¦¨à¦ĵ
à¦ļ à¦ªà¦Ł
à¦ļ à¦°à¦ķà¦®
à¦ļ à¦¸à¦¹
à¦ļ à¦ľà¦¨à¦ķ
à¦ļ à¦¬à¦°à¦£
à¦ļ à¦ĵà§ľ
à¦£ à¦¡
à¦£ à¦°à¦¸
à¦£ à¦ªà¦¥
à¦£ à¦¬à¦ķ
à¦£ à¦¸à¦Ļ
à¦£ à¦¬à¦¯
à¦£ à¦®à¦§
à¦£ à¦¬à¦§
à¦£ à¦¯à¦ľ
à¦£ à¦Ńà§Ł
à¦£ Åĵ
Ġà¦ķà¦° à¦°
à¦ģ !
à¦ģ âĢĵ
à¦ģ à¥¤âĢĻ
Ġà¦Ĺ à¦Ł
Ġà¦Ĺ à¦ľà¦¨
Ġà¦Ĺ à¦¢
Ġà¦Ĺ à¦ľà¦Ĺ
Ġà¦Ĺ à¦Ĺà¦²à¦¸
à¦¡ à¦¹à¦°
à¦¡ à¦®à§Ł
à¦¡ à¦¬à¦ĩ
à¦¡ à¦ķà¦Ń
à¦¡ à¦ľà¦Ł
à¦¥ à¦°à¦ª
à¦¥ à¦°à¦ļ
à¦¥ à¦¸à¦ķ
à¦¥ à¦°à¦¥à¦°
Ġà¦¶ à¦ĵ
Ġà¦¶ à¦ł
Ġà¦¶ à¦°à¦¬
Ġà¦¶ à¦ķà¦²
Ġà¦¶ à¦°à¦¨
Ġà¦¶ à¦°à¦¬à¦°
Ġà¦ľ à¦ĵ
Ġà¦ľ à¦°à¦¥
Ġà¦ľ à¦°à¦¦
Ġà¦ľ à§°
Ġà¦ľ à¦Ĺà¦ľ
Ġà¦ľ à§Łà¦¤
Ġà¦ľ à¦¬à¦°à¦¦
Ġà¦ľ à¦°à¦ľà¦°
Ġà¦Ń à¦·
Ġà¦Ń à¦°à¦®
Ġà¦Ń à¦ķà¦¤
Ġà¦Ń à¦Ĺà¦°
Ġà¦Ń à¦°à¦¤à¦°
Ġà¦Ń à¦Łà¦Ń
Ġà¦ļ à¦ĩ
Ġà¦ļ à¦°à¦¸
Ġà¦ļ à¦°à¦¦
Ġà¦ļ à¦°à¦ª
ĠĠ âĢ¨Ċ
Ġà¦° à¦ĸ
Ġà¦° à¦¬à¦¨
Ġà¦° à¦¦à¦¨
Ġà¦° à¦Łà¦²
Ġà¦° à¦¸à¦®à¦¯
Ġà¦° à¦ĩà¦Ľ
Ġà¦° à¦¸à¦ª
Ġà¦° afi
à¦ĵ à¦ªà¦°
à¦ĵ à¦ľà¦¨
à¦ĵ à¦¨à¦ķ
à¦ĵ à¦ĺà¦°
à¦ĵ à¦ĩà¦Ł
à¦ĵ à¦ıà¦¸
à§ĥ .
à§ĥ âĢĻ
à¦Ń à¦Ń
à¦Ń à¦¬à¦¦
à¦Ń à¦°à¦£à¦Ń
Ġà¦Ĩà¦® à¦¸
Ġà¦Ĩà¦® à¦ĵ
Ġà¦Ĩà¦® à¦Ŀ
Ġà¦Ĩà¦® à¦¸à¦¤
Ġà¦Ľ à¦°à¦°
Ġà¦ıà¦ķ à¦ķà¦Ł
Ġà¦ıà¦ķ à¦®à¦£
Ġà¦ıà¦ķ à¦°à¦Ļ
à¦Ĥ ?
à¦ł à¦ĺ
à¦ł à¦ķà¦¬
à¦ł à¦¶à¦¬
à¦ł à¦ªà¦Ł
à¦ł à¦ĸà¦¡
Ġà¦ī à¦·à¦°
Ġà¦ī à¦ĩà¦«
à¦Ļ à¦¨à¦ĩ
à¦¾à¦ģ âĢĿà¥¤
Ġà¦¥ à¦¤
Ġà¦¥ à¦¬
Ġà¦ĵ à¦«
Ġà¦ĵ à¦Ĺà¦°
à§ľ à¦ĩ
à§ľ à¦ĸ
à§ľ à¦ĵ
à§ľ à¦ªà¦¤
Ġà¦² à¦ª
Ġà¦² à¦ĸà¦¨
Ġà¦² à¦Ĩ
Ġà¦² à¦ĩà¦Ľ
Ġà¦² à¦Ĺà¦¬à¦Ĺ
Ġà¦² à¦Ńà¦¤
Ġà¦² à¦ķà¦¬à¦ķ
Ġà¦« à¦Łà¦°
à¦°à¦¤ à¦°à¦¤
à¦°à¦¤ à¦ļà¦¨
à¦°à¦¤ à¦Ńà¦Ļ
Ġà¦Ĩà¦° à¦¬à¦¦
Ġà¦ĸ à¦°à¦¶
Ġà¦ĸ à¦¸à¦®
Ġà¦ĸ à¦¸à¦¤
Ġà¦ĸ à§ľà¦¬
Ġà¦¬à¦² à¦ľ
Ġà¦¬à¦² à¦ªà§Ł
Ġà¦ħà¦¨ à¦¬à¦°à¦²
âĢĶ ?âĢĻ
à¦¾, "
Ġà¦ªà¦° à¦Ĺà¦£
à¦¾à¥¤ [
à¦¬à¦¨ à¦°à¦¸
à¦¬à¦¨ à¦Ĺà¦¤
à¦¬à¦¨ à¦®à§Ł
à¦¬à¦¨ à¦¸à¦¹
à¦¬à¦¨ à¦ĺà¦¨
à¦¬à¦¨ à¦°à¦Ļ
Ġà¦¸à¦® à¦§
Ġà¦¸à¦® à¦¦à¦°
Ġà¦¸à¦® à§Łà¦¨
à¦ĸà¦¨ à¦¨
à¦ĸà¦¨ à¦ķ
Ġà¦ĺ à¦²
Ġà¦ĺ à¦°à¦¨
Ġà¦ĺ à¦°à¦¹
Ġà¦ĺ à¦¨à¦ķ
Ġà¦ĺ à¦¨à¦¦
Ġà¦®à¦¨ à¦¶à¦¨
Ġà¦®à¦¨ à¦ªà¦Ł
Ġà¦®à¦¨ à¦Ńà¦°
Ġà¦®à¦¨ à¦¨à¦¯
Ġà¦®à¦¨ à¦¨à¦ļ
à¦°à¦£ à¦·
à¦°à¦£ à¦ķà¦ķ
âĢĻ ]
âĢĻ à¥¤âĢĿ
âĢĻ ?âĢĿ
à¦®à¦¨ à¦ª
à¦®à¦¨ à¦¬à¦¤
à¦®à¦¨ à¦¨à¦¶
à¦ªà¦° à¦°
à¦ªà¦° à¦¥
à¦¼à¦¿ ;
à¦¼à¦¿ à¥¤âĢĿ
à¦ŀ à¦ĩ
à¦ŀ à¦Ń
à§İ à¦¹
à§İ à§ľ
à§İ à¦«à¦°
à¦°à¦¬ à¦¸à¦¨
à¦¤à¦° à¦§
à¦¤à¦° à¦ļ
à¦¤à¦° à¦ľà¦¨
à¦¤à¦° à¦ªà¦¤
à¦Ŀ à¦Ŀ
à¦ľà¦¨ à¦Ĺà¦¨
à¦¿à¥¤ -
à¦¿à¥¤ âĢĵ
à¦ī à¦§
à¦ī à¦ı
à¦ī à¦²à¦¤
à¦ī à¦®à¦ª
à¦ī à¦ªà¦ľ
à¦ī à§İà¦ķà¦°
à¦¬à¦° à¦Ń
à¦¬à¦° à¦¯à¦¨
à¦°à¦ķ à¦ļ
à¦°à¦ķ à¦ªà¦°
à¦ªà¦¨ à¦Ĺ
à¦ªà¦¨ à¦ļ
à¦ªà¦¨ à¦¤à¦®
à¦ªà¦¨ à¦ķà¦¥
à¦ªà¦¨ à¦¸à¦°à¦ķ
à¦« à¦¶
à¦ı à¦¥
à¦ı à¦¨à¦Ł
à¦ı à¦¸à¦ª
à¦ı à¦¤à¦Ĺ
à¦ı à¦°à¦ªà¦°à¦ĵ
Ġà¦¸à¦¬ à¦²à¦¤
à§Į ?
à¦Ĩ à¦ŀ
à¦Ĩ à¦«
à¦Ĩ à¦ĵà¦¯
à¦Ĩ à¦°à¦¸
à¦Ĩ à¦Ĺà¦¤
à¦Ĩ à¦Ĺà¦¨
à¦Ĩ à¦ĩà¦°
à¦Ĩ à¦ªà¦¸
à¦Ĩ à¦ĩà¦¤
à¦Ĩ à¦ĩà¦Ł
Ġà¦®à¦¤ à¦ķ
Ġà¦®à¦¤ à¦ĵ
Ġà¦ķà¦¥ à¦¯
à¦ĺ à¦Ŀ
à¦ĺ à¦Ĺà¦²
à¦ĺ à¦¢
à¦ĺ à¦Ŀà¦°
à¦ĺ à¦Ŀà¦¡
Ġà¦¡ à¦¸
Ġà¦¡ à¦¹à¦°
Ġà¦¡ à¦¬à¦ķ
à§Ī à¦Ĥ
Ġà¦Ĩà¦Ľ à¦°
Ġà¦Ł à¦¸
Ġà¦Ł à¦¨à¦ķ
Ġà¦Ł à¦ªà¦²
Ġà¦ľà¦¨ à¦¬à¦²
Ġà¦ıà¦¬ à¦¡
à¦¬à¦² à¦¶
à¦¬à¦² à¦Ń
Ġà¦Ŀ à¦Ŀ
Ġà¦Ŀ à¦ķà¦®
Ġà¦¹à¦² à¦ĩ
ĠâĢĺ âĢĶ
ĠâĢĺ âĢĵ
Ġà¦ĩ à¦®à¦¤
Ġà¦ĩ à¦¹à¦¸
Ġà¦ĩ à¦®à¦²
Ġà¦ĩ à¦Łà¦ķ
Ġà¦ĩ à¦ľà¦°
Ġà¦ĩ à¦Łà¦¬
Ġà¦ĩ à¦¸à¦¹
Ġà¦ĩ à¦Łà¦ª
Ġà¦ĩ à¦¸à¦¸
Ġà¦ĩ à¦īà¦ª
Ġà¦ĩ à¦«à¦¤
à§ģà¦ģ !
à§ģà¦ģ âĢĶ
à§ģà¦ģ à¦ĥ
à§ģà¦ģ âĢ¦
âĢĵ âĢĻ
âĢĵ âĢĺ
âĢĿ âĢĶâĢľ
Ġà¦īà¦ł à¦ļ
Ġà¦¬à¦²à¦² à¦®
Ġà¦ħà¦¬ à¦¬
Ġà¦ħà¦¬ à¦Ľ
à¦·à¦£ à¦¸à¦¹
à¦°à¦® à¦Ĺ
à¦°à¦® à¦°à¦ķ
à¦°à¦® à¦ķà¦°
à§ĭà¦ģ âĢĶ
Ġà¦ªà¦¥ à¦®
Ġà¦ªà¦¥ à¦®à§Ł
Ġà¦¬à¦¨ à¦ľà¦¨
Ġà¦¬à¦¨ à¦ĺ
Ġà¦¬à¦¨ à¦®à¦²
Ġà¦¬à¦¨ à¦ľà¦²
Ġà¦¬à¦¨ à¦ķà¦ª
Ġà¦¬à¦¸ à¦¨à¦Ĺ
Ġà¦ł à¦Ĺ
à¦ħ à¦ķà¦²
à¦ħ à§Łà¦¨
à¦ħ à¦¥à¦°
à¦ħ à¦ľà¦®
à¦ħ à¦ľà¦ª
à¦¤à¦¨ à¦°
à¦¤à¦¨ à¦¸
à¦¤à¦¨ à¦ª
à¦¤à¦¨ à¦ĸ
à¦¤à¦¨ à¦ŀ
Ġà¦ıà¦¸ à¦ıà¦¸
Ġà¦¢ à¦²à¦ķ
Ġà¦¨à¦¤ à¦¶
Ġà¦¨à¦¤ à¦®à¦¸
Ġà¦Ĩà¦ľ à¦Ł
Ġà¦Ĩà¦ľ à¦Ĺà¦¬
Ġà¦ħà¦¸ à¦¸
Ġà¦ħà¦¸ à¦«à¦²à¦¤
à¦ķà¦² à¦Ł
à¦ķà¦² à¦Ń
à¦ķà¦² à¦¤à¦²
Ġà¦Ĩà¦Ĺ à¦·
Ġà¦Ĩà¦Ĺ à¦ļ
Ġà¦Ĩà¦Ĺ à¦®à¦£
Ġà¦Ĩà¦Ĺ à¦°à¦ĵà¦¯
à§ĩà¦ģ âĢĻà¥¤
à§ĭ, âĢĻ
Ġà¦Ĩà¦ķ à¦¡
à¦¸à¦¬ à¦¸
à¦¸à¦¬ à¦§
à¦¸à¦¬ à¦ķà¦Ł
à¦¸à¦¬ à¦¸à¦®à§Ł
à¦¤à¦¬ à¦ľ
à¦¤à¦¬ à¦¶
à¦¤à¦¬ à¦¹
à¦¤à¦¬ à§İ
à¦¤à¦¬ à¦¸à¦¨
à¦¤à¦¬ à¦¦à¦²
à¦¤à¦¬ à¦ķà¦Ĺ
Ġà¦Ĩà¦¶ à¦°
Ġà¦Ĩà¦¶ à¦®
Ġà¦Ĩà¦¶ à¦ķà¦¥
Ġà¦Ĺà¦² à¦²
Ġà¦Ĩà¦¨ à¦°
Ġà¦Ĩà¦¨ à¦®
Ġà¦Ĩà¦¨ à¦ª
à¦ķà¦° à¦ª
à¦ķà¦° à¦ĸ
Ġà¦īà¦¦ à¦°à¦¸
Ġà¦īà¦¦ à¦°à¦ª
Ġà¦¤à¦¬ à¦ķ
à¦¦à¦¨ à¦¸à¦®
à¦¦à¦¨ à¦¸à¦¹
à¦¾- âĢĺ
à¦°à¦¸ à¦¦
à¦°à¦¸ à¦ª
à¦°à¦¸ à¦ľ
à¦°à¦¨ à¦Ł
à¦²à¦ķ à¦¤
à¦²à¦ķ à¦®
à¦²à¦ķ à¦°à¦¤
à¦¾à¦Ĥ !
à¦¾à¦Ĥ âĢĵ
à¦¾à¦Ĥ âĢ¦
à¦¾à¦Ĥ âĢĮ
à¦¾à¦Ĥ âĢĻ-
Ġà¦ħà¦° à¦ľ
Ġà¦ħà¦° à¦ľà¦¨
Ġà¦¬à¦° à¦ľ
Ġà¦¬à¦° à¦Ĺ
à¦ķà¦¤ à¦²
à¦ķà¦¤ à¦ĩ
à¦ķà¦¤ à¦Ń
à¦ķà¦¤ à¦ķà¦Ĺ
à§ĩ? "
à¦¯à¦¬ à¦ķ
à¦¯à¦¬ à¦ĩà¦¤
Ġà¦¶à¦¬ à¦Ĺà¦¨
à§ĭà¥¤ à¥¤
à§ĭà¥¤ âĢ¦
à¦¦à¦° à¦°
Ġà¦ľà¦² à¦¤
Ġà¦ľà¦² à¦Ĺ
Ġà¦ľà¦² à¦¬à¦°
Ġà¦ľà¦² à¦¹à¦¸
Ġà¦ľà¦² à¦®à¦¯
Ġà¦ľà¦² à¦¸à¦®
Ġà¦ľà¦² à¦®à¦£
Ġà¦ľà¦² à¦Ľà¦¡
à¦Ĺà¦¤ à¦¸
à¦Ĺà¦¤ à¦ĵ
à¦°à¦¹ à¦¯
à¦°à¦¹ à¦ĩ
à¦°à¦¹ à¦°à¦ķ
à¦°à¦¹ à¦¯à¦¨
à¦°à¦¹ à¦Ńà¦°
Ġà¦¹à¦¤ à¦ĩ
Ġà¦ħà¦¤ à¦²à¦¤
à¦¿à¦Ĥ ?
Ġà¦ħà¦Ń à¦Ļ
Ġà¦¸à¦¨ à¦¨
à¦¨à¦¬ à¦ĩ
à¦¨à¦¬ à¦¬à¦°
à¦¨à¦¬ à¦ľà¦®
à¦¨à¦¬ à¦Ĺà¦£
Ġà¦¸à¦° à¦²à¦¬
à¦²à¦¤ à¦ĩ
à¦§à¦¨ à¦²
à¦§à¦¨ à¦Ń
à¦¯à¦¤ à¦²
à¦²à¦¨ à¦ĸ
à¦²à¦¨ à¦Ĺà¦°
à¦²à¦¨ à¦ķà¦¶
à¦¯à¦ķ à¦ķ
à¦¯à¦ķ à¦ĵ
à¦¯à¦ķ à¦ªà¦°
Ġà¦ıà¦² à¦¬
à¦®à¦¤ à¦ķ
à¦Ĩà¦® à¦²à¦ķ
Ġà¦īà¦ª à¦Ľ
Ġà¦īà¦ª à¦§
Ġà¦īà¦ª à¦®à¦¨
Ġà¦īà¦ª à¦Ĺà¦¤
Ġà¦īà¦ª à¦²à¦¦
à¦ļà¦¨ à¦¦
à¦Ĺà¦² à¦Ń
à¦Ĺà¦² à¦ľà¦®
à¦Ĺà¦² à¦ĺà¦Ł
à§ĩâĢĶ âĢĶ
Ġà¦ķà¦² à¦®à¦ķ
à¦°à¦¦ à¦¦
à¦°à¦¦ à¦¶
à¦²à¦¬ à¦¸
à¦ļà¦² à¦¸
à¦ļà¦² à¦ĸ
Ġà¦¸à¦¹ à¦¤
Ġà¦ħà¦ª à¦¶à¦¬
Ġà¦ħà¦ª à¦¶à¦ķ
à¦®à¦² à¦¯
à¦®à¦² à¦Ń
à¦¸à¦¨ à¦Ĺ
à¦°à¦ĩ à¦²
à¦ªà¦¦ à¦²
à¦ªà¦¦ à¦¦
à¦ªà¦¦ à¦£
à¦ªà¦¦ à¦¸à¦Ļ
à¦°à¦ľ à¦¸
à¦°à¦ľ à¦ľ
à¦°à¦ľ à¦¡
à¦°à¦ľ à§Łà¦¨
à¦¶à¦¨ à¦¶
à¦ĸà¦² à¦®
Ġà¦ķà¦¤ à¦²
Ġà¦ķà¦¤ à¦¶à¦¤
à¦°à¦² à¦ª
à¦¨à¦¨ à¦¸
à¦¦à§Ł à¦®
à¦¦à§Ł à¦®à§Ł
Ġà¦¬à¦¹ à¦¤
à¦ĩà¦² à¦ĩ
Ġà¦°à¦Ļ à¦°
Ġà¦°à¦Ļ à¦Ł
à¦ķà¦¬ à¦¸à¦¤
à¦Ĺà¦¨ à¦ķ
à¦Ĺà¦¨ à¦¦
à¦Ĺà¦¨ à¦Ĺ
à¦Ĺà¦¨ à¦¹
Ġà¦ħà¦ľ à¦ªà¦¥
Ġà¦ĺà¦Ł à¦®
à§İà¦¸ à¦ķà¦ĩ
à¦·à¦¤ à¦®à§Ł
Ġà¦ħà¦ļ à¦°
à¦ıà¦ĩ à¦°
à¦ĩà¦¨ à¦ľ
à¦ĩà¦¨ à¦·
à¦ĩà¦¨ à¦ļ
à¦ĩà¦¨ à¦¸à¦®
à¦¼à§ĭ âĢĵ
à¦¼à§ĭ âĢĻ,
à¦¸à¦® à¦Ŀ
Ġà¦īà¦¨ à¦ļà¦²
Ġà¦ªà¦¦ à¦Ń
Ġà¦ªà¦¦ à¦ĺ
à¦¬à¦¦ à¦®à¦¨à¦ķ
Ġà¦ĵà¦° à¦ĵ
Ġà¦ħà¦®à¦² à¦Ń
à¦¹à¦² à¦ĩ
à¦®à¦£ à¦ª
à¦®à¦£ à¦¶
à¦ªà¦¥ à¦°
à¦ªà¦¥ à¦²
à¦ªà¦¥ à¦ª
à¦ªà¦¥ à¦ĩ
à¦ªà¦¥ à¦ĺ
à¦¤à¦² à¦ľ
à¦¤à¦² à¦ĸ
âĢ¦ "
âĢ¦ ?âĢĻ
Ġà¦ķà¦® à¦«
Ġà¦ķà¦® à¦²à¦ķ
à¦¯à¦® à¦¬
à¦¯à¦® à¦¦
à¦¯à¦® à¦°à¦¹
à¦¤à¦ķ à¦¨
à¦¤à¦ķ à¦ĩ
à¦¨à¦ķ à¦·
à¦¨à¦ķ à¦°à¦£
à¦°à¦ĵ à¦°
Ġà¦¶à¦¹à¦° à¦ª
à¦¤à¦¤ à¦ĩ
à¦°à¦Ń à¦¬à¦¨
à¦·à¦ķ à¦®à¦£
Ġà¦ħà¦ªà¦° à¦ªà¦ķ
Ġà¦Ĺà¦° à¦ľà¦¨
à¦¿à¦ģ -
à¦¿? -
à¦¿? âĢĵ
à§įâĢĮ !âĢĻ
Ġà¦¬à¦ĩ à¦ĩ
à¦¤à¦® à¦ª
à¦¤à¦® à¦§
à¦¤à¦® à¦Ń
ĠâĢĶ âĢĻ
Ġà¦Ĳ à¦¸à¦¬
Ġà¦Ĳ à¦°à¦ķà¦®
Ġà¦Ĳ à¦®à§Ŀ
à¦¬à¦¸ à¦¦
à¦¬à¦¸ à¦¹
à¦ªà¦ķ à¦ķ
à¦ªà¦ķ à¦®
à¦ªà¦ķ à¦ĩ
à¦ªà¦ķ à¦ĵ
à¦Łà¦² à¦Ł
à¦Łà¦² à¦Łà¦²
à§ģ, -
Ġà¦¬à¦Ľà¦° à¦ĵ
Ġà¦«à¦² à¦¦
à¦ıà¦ķ à¦¹
à¦ıà¦ķ à¦Ŀ
à¦ıà¦ķ à¦¸à¦®à§Ł
Ġà¦ħà¦² à¦ª
Ġà¦Ŀà¦° à¦ª
à¦ħà¦¨ à¦Ń
à§ĩ; -
à§° à¦¬à¦²
à§° à¦¬à§°
à¦¿âĢĶ âĢĿ
à¦¶à¦ķ à¦£
à¦¶à¦ķ à¦¥
à¦¬à¦ķ à¦§
à¦¬à¦ķ à¦ĵ
à¦®à§Ł à¦¨
à§Łà¦¨ à¦¶
à¦¼à§ĩà¥¤ âĢ¦
à¦§à¦¤ à¦Ń
à¦¹à¦¨ à¦Ĺ
à¦ľà¦² à¦ĵ
à¦®à¦¬ à¦ĩà¦Ĺ
Ġà¦¶à¦¤ à¦¸
Ġà¦¶à¦¤ à¦Ł
Ġà¦¶à¦¤ à¦¸à¦¹à¦¸
Ġà¦ĩà¦¨ à¦²
Ġà¦ĩà¦¨ à¦«à¦°
Ġà¦Ĩà¦§ à¦¸
Ġà¦Ĩà¦§ à¦¹
Ġà¦Ĩà¦§ à¦Ń
Ġà¦Ĩà¦§ à¦®à¦¯
à¦·à¦° à¦°
à¦ľà¦° à¦Ł
Ġà¦°à¦¬ à¦¸à¦¨
à¦°à¦Ł à¦¨
à¦¨à¦° à¦Ĺ
à§ĩâĢĵ à¥¤
à§ĩâĢĵ âĢĿ
à¦¬à¦¬ à¦¹
à¦¬à¦¬ à¦¶à¦¤
à¦ķà¦¨ à¦ª
à¦ķà¦¨ à¦Ĺ
à¦¾! )
Ġà¦Ĩà¦¦ à¦®à¦ľ
à¦¯à¦¸ à¦¦
à¦¯à¦¸ à¦ŀ
Ġà¦¬à§ľ à¦ľ
Ġà¦Ĩà¦Ļ à¦°
Ġà¦Ĺà¦¤ à¦ķà¦²
Ġà¦īà¦² à¦«
Ġà¦īà¦² à¦Łà¦ª
à¦¼à§ģ âĢĵ
à¦¨à¦Ĺ à¦łà¦¨
Ġà¦¬à¦²à¦¬ à¦ĩ
Ġà¦īà¦ªà¦° à¦ĵ
Ġà¦¬à§Ł à¦¸à¦ķ
à¦°à¦ľà¦¨ à¦®
à¦¨à¦² à¦ĸ
Ġà¦Ńà§Ł à¦ĩ
à¦Ĺà¦ľ à¦ĩ
Ġà¦ĭ à§Ł
à¦¼à§Ģ âĢĻ
à¦¸à¦« à¦°à¦®
à¦¸à¦« à¦Łà¦ĵà§Ł
à¦¸à¦ķ à¦ĩ
à¦°à¦Ĺ à¦ķ
à¦°à¦Ĺ à¦£à¦ķ
à¦°à¦Ĺ à¦łà¦¨
à§ĭ? âĢ¦
Ġà¦ĺà¦¨ à¦¶
Ġà¦ĺà¦¨ à¦¤à¦°
à¦¬à¦¶ à¦¤à¦ĩ
à¦·à¦® à¦®
Ġà¦īà§İà¦¸ à¦¬à¦ª
Ġà¦¦à¦² à¦ĵ
à¦ľà¦¸ à¦ªà¦¤
à¦¾âĢĻ )
!âĢĿ à¥¤
à¦®à¦¸ à¦Ń
à¦ĩà¦¤ à¦¸
à¦ªà¦· à¦ľ
Ġà¦ıà¦¨ à¦ľà¦¯
à¦¾âĢĵ !
Ġà¦Ĩà¦ª à¦£
Ġà¦ķà¦· à¦Ľ
à¦ĩà¦Ł à¦¹
Ġà¦ħà¦Łà¦² à¦Ń
Ġà¦¬à¦ķ à¦§
Ġà¦īà§İà¦¸à¦¬ à¦®à¦£
à¦¦à¦® à¦§
à¦¦à¦® à¦ł
à¦¦à¦® à¦¦à¦®
à§ĩà¥¤âĢĿ âĢĶ
à¦Ĺà¦¬ à§İ
à¦Łà¦¬ à¦ĩà¦¯
Ġà¦¤à¦¤ à¦¸
à¦Ĩà¦² à¦ª
à¦Ĩà¦² à¦¹
à¦Ĩà¦² à¦Ĺà¦°
à¦²à¦¸ à¦Ł
âĢĻ, -
à¦®à¦°à¦£ à¦¶
à¦®à¦°à¦£ à¦¹
à¦®à¦°à¦£ à¦¸à¦Ń
à¦®à¦¹ à¦®
à¦®à¦¹ à§İ
à¦Ĺà¦® à¦ĵ
Ġà¦Ĺà¦£ à¦ķ
Ġà¦Ĺà¦£ à¦¶
Ġà¦Ĺà¦£ à¦¹
Ġà¦Ĺà¦£ à¦ļ
Ġà¦Ĺà¦£ à¦Ń
Ġà¦Ĺà¦£ à¦¸à¦®
Ġà¦¨à¦°à¦® à¦Ń
à¦łà¦ķ à¦®
à¦łà¦ķ à¦ª
à¦łà¦ķ à¦ĩ
à¦łà¦ķ à¦¶
à¦łà¦ķ à¦ĵ
à¦łà¦ķ à¦łà¦ķ
Ġà¦¦à¦¶ à¦ĸ
Ġà¦¸à¦¦ à¦Ń
à¦ķà¦¥ à¦¯
à¦ķà¦¥ à¦ŀ
à¦²à¦Ĺ à¦¹
à¦²à¦Ĺ à¦Ĺà¦¨
?âĢĿ ,
Ġà¦ķà¦²à¦ķ à¦¤
à¦¼à¦Ĥ à¥¤
à¦¿! !
à¦¶à¦² à¦Ł
Ġà¦¨à¦ľà¦° à¦¬à¦¨
Ġà¦ķà¦ª à¦ļ
à¦·à§Ł à¦ĩ
à¦·à§Ł à¦ļ
à¦·à§Ł à¦ĵ
à¦ķà¦°à¦£ à¦Ł
Ġt ow
Ġt ri
à¦¥à¦ķ à¦·
à¦®à¦ľ à§Ł
à¦®à¦ľ à¦¡
à¦®à¦ľ à¦Ĺà¦¤
à¦¦à¦Ĺ à¦£
à¦®à¦¶ à¦°à¦£
à¦®à¦¶ à¦ķà¦°
à¤ ¢
à¤ §
à¤ «
à¤ ¼
à¤ ĸ
à¤ Ľ
à¤ Ń
Ġà¦ķà§Ł à¦ķà¦Ł
à¦ķà§ľ à¦¬
à¦¹à¦¯ à¦¬à¦¨
Ġà¦ľà§Ł à¦¶
Ġà¦ľà§Ł à¦ªà¦¤
Ġà¦¸à¦°à¦² à¦ļ
Ġà¦¸à¦°à¦² à¦®à¦¨
à¦¬à¦Ń à¦¬à¦¨
à¦ıà¦¸à¦¬ à¦ķ
à¦ªà§ľ à¦¤
à¦¨à¦¶ à¦¤
à¦¨à¦¶ à¦Ł
Ġà¦ļà¦¨ à¦®à¦¨
à¦Ĺà¦£ à¦ľ
à¦Ĩà¦ķ à¦¬à¦°
Ġà¦°à¦¸ à¦ľ
à¦¡à¦¬ à¦ľ
à¦¡à¦¬ à¦ľà¦¨à¦¨
Ġà¦¸à¦ľ à¦²à¦¤
à¦ļà§Ł à¦Ł
à¦¹à¦® à¦®à¦¤
in es
in ce
in ary
à¦¯à§İ à¦ĵ
à¦¯à§İ à¦¸à¦¬
Ġà¦¨à¦Ĺà¦° à¦°à¦ķ
à¦ĩà¦¡ à¦¶
à¦ĩà¦¡ à¦¸à¦¹
à¦·à¦¦ à¦¸
à§ĩâĢ¦ âĢĿâĢĶ
Ġà¦¸à§İ à¦ļà¦ķ
Ġà¦®à¦¦ à¦¦
Ġà¦®à¦¦ à¦ĵ
Ġà¦Ĭ à¦ł
Ġà¦¬à¦ľ à¦¦
Ġà¦¬à¦ľ à¦ª
à¦®à¦ļ à¦ŀ
Ġà¦ľà§ľ à¦¸à§ľ
à¦¼; âĢĶ
à¦®à¦ª à¦ŀ
Ġà¦ķà¦²à¦® à¦ĩ
Ġà¦Ĩà¦ĩà¦¨ à¦®
Ġà¦Ĩà¦ĩà¦¨ à¦Ł
Ġà¦¶à¦ªà¦¥ à¦Ł
Ġà¦¤à¦¨ à¦ŀ
à¦¬à¦§ à¦®
à¦Łà¦Ľ à¦¡
à¦Ĺà¦°à¦£ à¦®
à¦ĩà¦Ń à¦¨
à¦¿âĢĻ !âĢĿ
à¦ľà§Ł à¦ª
à¦ľà§Ł à¦§
à¦ļà¦Ł à¦ªà¦Ł
à¦²à¦Ń à¦Ļ
à¦ĸà¦ķ à¦ĩ
à¦¬à¦£ à¦§
à¦¤à¦Ń à¦Ļ
re st
Ġà¦ªà¦²à¦ķ à¦¹
Ġà¦Ĩà¦ļà¦°à¦£ à¦Ĺ
Ġà¦Ĩà¦ļà¦°à¦£ à¦ĵ
à¦¬à¦Ł à¦Ł
à¦£à¦¬ à¦Ļ
à¦¨à§Łà¦¨ à¦ĩ
Ġà¦ıà¦°à¦ķà¦® à¦ĵ
on y
on et
à¦¬à¦ľà¦¨ à¦¨
à¦¾à¦ĥ âĢ¦
à¦¦à¦¶ à¦¦
à¦¦à¦¶ à¦ľà¦¨
à¦¡à¦¬à¦¦ à¦¹à¦¨
à¦¶à¦¤ à¦¶
à¦¶à¦¤ à¦§à¦¨
à¦Ĩà¦Ĺ à¦®à¦¨
à¦¬à¦°à¦¤ à¦¤
à§Łà¦® à¦®
à¦®à¦® à¦ŀ
à§ĩâĢĻ !
à§Ń à§Ń
à¦¤à¦Ĺ à¦Ļ
Ġà¦°à¦¥ à¦Ł
Ġà¦¨à¦° à¦ªà¦¤
al cutta
à¦ħà¦¸ à¦¬à¦°
Ġthe e
Ġthe n
Ġà¦Ŀà§ľ à¦¤
Ġà¦Ŀà§ľ à¦¬
Ġà¦Ŀà§ľ à¦ĩ
Ġà¦Ŀà§ľ à¦Ŀà¦ŀ
à¦Ĩà¦¶ à§Ł
à¦Ī à¦¨
er y
er ies
Ġà¦ľà¦Ĺ à¦Ł
Ġà¦ľà¦Ĺ à§İà¦¸
à§® à§¦
à§® à§¨
Ġà¦Ķ à¦¦à¦°
à¦¾âĢ¦ .
à¦¾âĢ¦ à¥¤âĢĿ
à¦¾âĢ¦ âĢĿâĢĶ
à¦¾âĢĿ !
Ġà¦ķà¦« à¦¨
Ġà§© à§¯
Ġa uth
Ġa way
à¦¯à¦Ł à¦ķà¦°
or n
Ġw he
Ġw id
Ġà¦®à¦Ĺ à¦Ł
Ġs c
Ġs us
Ġs ist
Ġs weet
Ġs ense
it c
it ation
it ory
it ies
it ual
Ġà¦ĩà¦¸ à¦ĸ
ar b
ar nation
Ġà¦ķà¦ļ à¦¸
Ġà¦ķà¦ļ à¦ĵ
Ġà¦¬à¦ªà¦¨ à¦ķ
Ġà¦Ĩà¦ĸ à¦ĸ
à¦ĩà¦ª à¦Ĺ
à¦¾: -
Ġà¦ĸà¦°à¦ļ à¦Ł
Ġà¦ĸà¦°à¦ļ à¦ĩ
à¦¿âĢ¦ .
à¦¿âĢ¦ ..
à¦¿âĢ¦ âĢĿà¥¤
à¦¿âĢ¦ âĢĿâĢĶ
Ġà¦¸à¦¤à¦° à¦ŀ
ou d
ou bt
Ġb l
Ġb oy
Ġb ird
Ġb izarre
Ġb orn
à¦ĭ à§Ł
à¦ĭ à¦Ĺà¦¬
à¦¾?âĢĻ âĢĶ
à¦ħà¦² à¦Ļ
Ġà¦ķà¦®à¦² à¦ķà¦²
Ġà¦ıà¦¡ à¦Ń
and a
Ġm ess
Ġm ind
Ġm arri
Ġà¦¬à¦¦ à¦Ń
Ġà¦¬à¦¦ à¦ĸà§İ
Ġà¦ħà¦¬à¦¨ à¦¬
Ġà¦ªà¦¥à¦ļ à¦²à¦¤
Ġc ent
Ġc un
Ġc ome
Ġc attle
Ġo ver
Ġà¦ĭà¦£ à¦ĩ
Ġà¦ĭà¦£ à¦¶
à§ĭâĢĻ âĢĵ
Ġà¦Ńà¦°à¦¤ à¦¸
Ġà¦ľà¦Ĺà§İ à¦Ĺ
ĠI D
ĠI I
ĠI X
Ġà¦®à¦Ĺà¦ľ à¦ķ
Ġf ut
Ġf low
Ġf ather
Ġn at
Ġn ames
Ġà¦Ĩà¦Ł à¦ļ
Ġà¦Ĩà¦Ł à¦ĺ
il sa
à¦²à¦° à¦ŀ
à¦°à¦¬à¦£ à¦¯
à§ģà¦Ĥ -
à¦ĺà¦Łà¦¨ à¦ªà¦Ł
à§ĢâĢĻ ;
à§ĢâĢĻ âĢĵ
à¦ħà¦ª à¦¹
Ġà¦ķà§ľ à¦ļ
Ġà§§à§¯à§Ń à§ª
à¦¾?âĢĿ âĢĶ
à¦£à¦Ĺ à¦ŀ
ĠO f
ĠO r
ĠO ut
Ġà¦®à¦°à¦£ à¦«
Ġà¦Ĩà¦ĩ à¦ļ
Ġà¦Ĺà¦Ĺà¦¨ à¦®
Ġà§ª à§¬
Ġd re
Ġd es
Ġd el
Ġd et
Ġd em
Ġd ist
Ġd est
Ġd aw
Ġd ivide
Ġd oubt
à¦¯à¦°à¦ķà¦® à¦ĵ
ĠS ha
ĠS ir
ĠS ag
ĠS ri
ĠS pe
ĠS TEM
à¦¬à¦Ľà¦° à¦ĸ
à¦¼à§ĩâĢĶ âĢĻ
Ġà¦®à¦¹à¦° à¦°à¦®
à¦¿âĢĿ !
ic hel
à¦¿. ,
Ġà¦¨à¦ĸ à¦Ĺ
Ġà¦¦à¦®à¦¨ à¦¬
Ġà¦¦à¦®à¦¨ à¦®
à¦®à¦²à¦¤ à¦®
à¦£à¦° à¦ļà¦¯
Ġà¦°à¦« à¦¤
Ġp l
Ġà¦ĩà¦® à¦ªà¦¸
ĠA h
ĠA ll
ĠA nn
à¦¥à¦ª à¦ŀ
le arning
ro d
ro t
Ġà§« à§¨
Ġà§« à§ª
Ġà§« à§®
Ġà§« à§¦à§¦à§¦
as h
as es
à¦®à¦¸à¦® à§°
ĠP k
ĠP ar
ĠP hilosophy
Ġà§§à§¦ à§®
à¦¬à¦ªà¦¨ à¦¬
Ġà¦ķà¦¦à¦® à¦Ľ
Ġà¦ķà¦¦à¦® à¦Ĺ
à¦Ńà¦¸ à¦ŀ
Ġà§§à§¯à§« à§«
Ġà§§à§¯à§« à§ª
Ġà§§à§¯à§« à§¬
ut e
ut ion
ut um
Ġin d
Ġin t
Ġin ter
Ġin to
Ġà§§à§® à§¦
Ġà§§à§® à§¦à§¦
Ġà§§à§® à§¯à§¯
Ġà§§à§® à§¦à§§
Ġà§§à§® à§®à§¬
Ġà§§à§® à§¬à§¯
Ġà§§à§® à§¬à§Ń
ĠC l
ĠC o
ĠC ha
ĠC har
ĠC ass
ĠC hat
ĠC alcutta
Ġà¦°à¦£ à¦¤à¦°
Ġà¦ľà¦¨à¦ªà¦¦ à¦ķ
Ġth ou
Ġth ink
ĠB a
ĠB rid
ĠB rahm
à¦¨à§Ł à¦ļà¦¨
Ġà¤ °
Ġà¤ ķ
Ġà¤ Ľ
Ġà§¬ à§¦
Ġà§¬ à§¨
Ġà§¬ à§§
Ġà§¬ à§ª
Ġà§¬ à§®
Ġl and
Ġl iterature
Ġe qu
Ġe xt
Ġe ven
Ġe arth
Ġà¦¹à¦¨à¦¨ à¦ª
ĠâĢ¦ ..
Ġà§Ń à§¨
Ġà§Ń à§«
ĠR es
ĠR ain
Ġà§§à§¨ à§¦
el s
à§§à§¯à§ §à§
Ġà¦ĵà¦ľà¦¨ à¦¹
à¦¸à§İ à¦ªà¦¥
à¦ĸà¦¬à¦° à¦¦
Ġà§§à§© à§Ńà§§
Ġà§§à§© à§ªà§§
Ġà§§à§© à§ªà§¬
à§ĩ) :
à§ĩ) ;
ĠD E
ĠD us
ĠT r
ĠT ype
Ġà¦ıà¦® à¦Ĩà¦°à¦Ĩà¦ĩ
à§§à§¦ à§¦
Ġà¦ĸà§ľ à¦ĸà§ľ
à¦Ĺà¦ł à¦¨à¦ķ
ur d
ur ch
à¦¤à¦ĸ à¦°à¦ļ
Ġà¦¨à¦ķà¦² à¦ķ
ct ion
Ġà§§à§¯à§ª à§¯
Ġà§§à§¯à§ª à§®
Ġh ig
Ġh ome
Ġh ym
Ġà§® à§¨
ĠM odern
Ġg l
Ġg en
Ġg irl
Ġà¦ĵà¦¹ à¦¹
Ġis olation
id s
Ġà¦¦à¦°à¦¦ à¦¸
Ġto o
Ġto get
ĠL a
à¤¾ à¤Ĥ
ra v
ra in
à¦¯à¦§ à¦°à¦¨
ation al
à¦¿) -
Ġà§§à§« à§¦à§¦
ce pt
us a
us ed
us ing
ĠH ar
ĠH ai
ĠH ilsa
Ġha ppen
Ġà¦¥à¦² à¦¥à¦²
ĠN az
Ġà¦¤à¦ªà¦¨ à¦¸
à¦Ĩà¦ĩà¦¨ à¦¸
ment s
áĥ Ŀáĥ
Ġà¦¬à¦ļà¦¨ à¦®à¦¬
à§ĩ!âĢĻ âĢĻ
à¦Ĭ à¦¨à¦¬
à¦Ĭ à¦¨à¦¸à¦¤
Ġy ear
à¦īà¦ªà¦° à¦¨
Ġà¦īà¦ªà¦ķà¦°à¦£ à¦Ĺ
à¦ĩà¦ĵ à¦Ń
Ġà¦Ľà§Ł à¦¤à¦²
Ġwh ose
ag ram
ĠE ng
Ġmy st
éŁ¿éŁ¿éŁ¿éŁ¿éŁ¿éŁ¿éŁ¿éŁ¿éŁ¿éŁ¿éŁ¿éŁ¿éŁ¿éŁ¿éŁ¿éŁ¿ éŁ¿éŁ¿éŁ¿éŁ¿éŁ¿éŁ¿éŁ¿éŁ¿
ĠG os
Ġk ingd
Ġon ce
à¦¼âĢĻ ;
à¦Ĩà¦ļà¦°à¦£ à¦ĩ
à¦°à¦²à§Ł à¦Ļ
Ġà§§à§¯à§¬ à§¨
Ġà§§à§¯à§¬ à§§
Ġne ed
Ġne are
Ġne igh
em por
em pt
Ġhe ro
Ġhe ad
Ġhe ap
Ġhe ard
à¦®à¦ķà¦°à¦£ à¦ĵ
Ġà¦«à¦¸ à¦²à¦ķ
Ġà§§à§¯ à§¦à§¦
ÂŃ à§ĩ
ÂŃ à§į
Ø§ Ùĩ
Ġà¦§à¦ķ à¦§à¦ķ
à§§à§© à§¬
ĠThe y
Ġà¦ľà¦¹ à¦°à¦¤
ĠK rishna
Ġà¦ªà¦Łà¦² à¦Ĺ
Ġà¦®à¦¦à¦¨ à¦®
ive ly
Ġà¦°à¦ľà¦¤ à¦¶
ĠRe inc
ĠRe hana
Ġà¦¹à¦ľà¦® à¦¶à¦ķ
Ġà§¯à§ ¨
Ġà§¯à§ §à§
Ġà¦Ĩà¦īà¦Ł à¦¬à¦ķ
Ġas k
Ġà¦¬à§İà¦¸ à¦¦
Ġà¦¸à¦°à¦¬ à§İ
Ġst ep
ï»¿ âĢĻ
Ġà¦Łà¦¹à¦² à¦¦à¦²
ap u
Ġà§§à§¯à§¨ à§¨
Ġà§§à§¯à§© à§ª
Ġà§§à§¯à§© à§¯
ant s
ind ran
ĠØ ª
ĠØ ¹
Ġà¦Ĩà¦ªà¦¦ à¦Ĺ
Ġà§§à§¯à§§à§ §
Ġà§§à§¯à§§à§ «
ip ur
ĠV edic
Ġà¦Ĭà¦¨ à¦ļà¦²
Ġà¦Ĭà¦¨ à¦Ĩà¦¶
ÙĦ Ø§
ĠU nd
ĠU rvasi
Ġv ine
Ġro om
à¦¨à¦°à¦ķ à¦£
Ġà¦¬à¦°à¦ķ à¦¨
Ġà¦ħà¦ĺà¦Łà¦¨ à¦ĺà¦Łà¦¨à¦ªà¦Ł
ĠâĢĶâĢĶâĢĶ âĢĶâĢĵ
Ġà§§à§¯à§¦ à§¯
lis h
est ry
ĠÐ ·
Ġse en
Ġse con
Ġun der
Ġà¦¨à¦¬à¦¦ à¦®
end ed
Ġad opt
Ġà¦¢à¦ķ à¦¢à¦ķ
Ġam b
!! !
à¦°à¦Ĺà¦² à¦Ńà¦¤
ang a
Ġme re
Ġme asure
Ġj ust
Ġà¦Ĩà¦ī à¦Łà¦²
Ġà¦®à¦ĩ à¦§
à§ĭà¦ĥ !
Ġà§§à§§à§ ª
Ġà§§à§§à§ «
Ġà§§à§§à§ ®
Ð¾ ÑĢ
Ġà¦°à¦¦ à¦¬à¦¦à¦²
à¤¹ à¤°
ast e
à¸ ±
Ġà¦Ĩà¦ĵ à¦¨à¦²
av en
ff er
ons ibility
ord ata
Ġ196 5
Ġ196 à§ª
Ġknow n
ah ity
ah usa
Ġë °
Ġë Ī
Ġì ł
Ġà¦®à¦°à¦ķ à¦¤
Ġà§©à§© à§¬
ition s
à§§à§¯à§ª à§©
Ġcont empor
ie f
Ã© t
à¦Ķ à¦¦
à¦Ķ à¦·à¦§
à¦Ķ à¦ªà¦§
Ġcol d
à§§à§¯à§© à§ª
TE D
ÙĪ Ø´
ĠÑ ģ
ĠÑ Ħ
Ġim port
oug ht
Ġ× Ķ
à¦¼à¦¾âĢ¦ à¥¤âĢĻ
Ġsp ring
Ġsp irit
Ġcl ust
ĠTh y
Ġhim self
Ġà¦ķà¦ĩà¦² à¦ľ
alk ing
ĠDe vi
Ø§Ø ²
rit ical
Ú© ÙĦ
Ġat oms
Ġed ited
oss ip
ĠĠĠĠĠĠĠĠĠĠĠĠĠĠĠĠ ĠĠĠĠĠĠĠĠĠĠĠĠĠĠĠĠ
Ġcollect ion
Ġà§¨à§¦à§¦ à§§
Ġà§¨à§¦à§¦ à§©
iss ion
Ġcan not
ĠAs s
Ġref lect
Ġen em
Ġwalk ing
Ġfe w
ĠCh ordata
Th is
for ce
ï¿½ ï¿½
Ġup on
à¦ıà¦Ĩ à¦ĩà§Ł
Ġcount ry
Ġbec omes
âĢķâĢķâĢķâĢķâĢķâĢķâĢķâĢķ âĢķâĢķâĢķâĢķâĢķâĢķâĢķâĢķ
ĠâĨ ĲâĨ
Ġsh all
ĠIs land
Ġà¤Ĩ à¤¨
à§§à§¯à§¨ à§ª
ĠâĢĶâĢĶâĢĶâĢĶâĢĶâĢĶâĢĶ âĢĶâĢĶ
ĠâĢĶâĢĶâĢĶâĢĶâĢĶâĢĶâĢĶ âĢĶâĢĶâĢĶâĢĶ
UR E
vol ution
Ġà¦ľà¦ł à¦°à¦ľ
Ġag ain
ĠPh onet
Ġhand s
áĥĺ áĥ
lace bo
Ġcons ci
pr int
Ġà¦°à¦¸à¦ķà¦· à¦¹
Ġà¦ĩà¦¨à¦Ńà¦²à¦Ń à¦®
atri ot
Ġsk elet
Ġsu ffer
Ġsup er
Ġbot h
Ġmix ed
omb apu
omm un
Ġple ase
ĠAt ombapu
ĠRah ul
ĠLike wise
Â·Â·Â·Â· âĢĻ
ĠHe at
ĠHow rah
Ġcontri but
Ar jun
ble m
wam i
×Ļ ×
ĠPublis hing
ĠRaj ul
Ġrem ind
ĠInst agram
Ġbreast s
ĠOffice Boss
ĠGandhar va
Ġcontinu ous
rus h
rup t
×ŀ ×
Ġà¦¦à¦°à¦¶ à¦¨
à¦£à¦¬à¦¯ à¦ľ
Ġà¦ľà¦ĵ à¦¹à¦°à¦²
Ġà¦ľà¦¬à¦°à¦¦ à¦ĸà¦²
Ġà¦Ńà¦Łà¦Ń à¦Ł
à¦īà¦ı à¦¬à¦²
Ġtow ard
Ġauth or
Ġwid ow
Ġcun ning
Ġfut ure
Ġdaw n
ĠSha h
ĠSag ara
utum n
ĠChar acter
ĠCass io
ĠBrid ge
ĠRain water
ĠDus yanta
Ġhig her
Ġhym n
Ġtoget her
ĠHai ha
ĠNaz rul
ĠEng lish
Ġneare r
ĠReinc arnation
indran ath
Ġsecon d
ĠâĨĲâĨ Ĵ
ĠPhonet ic
Ġskelet on
! -
! ?âĢĿ
! ..
" âĢĶ
' ,
( !)
) ]
) à¥¤âĢĿ
, /
, ;
, âĢĶâĢľ
, âĢĶâĢĺ
, âĢĻâĢĶ
. /
4 à§¨
5 1
: :
: âĢĶ
; /
? ?
? !âĢĿ
? ..
? ),
? âĢĶâĢĻ
? âĢĶ-
A L
A P
A nd
A NI
A yesha
B ang
C ar
C all
C ow
C ool
C ases
C TED
D G
D ig
D ance
E co
E CU
F ade
G o
H O
I L
I f
I t
M ong
M uch
M ystic
N A
N ahusa
O ER
O DE
O MO
P h
P hil
P lacebo
Q R
R ec
S H
S R
S S
S o
S he
S elf
S angu
S TEM
S DG
T ok
T aught
T IA
T ION
U S
U r
V R
V is
V ER
W ord
W ho
W here
X J
a id
a use
b re
b it
b es
b ed
b el
b ur
b ow
b ra
b ish
b low
b ness
c c
c n
c u
c ha
c us
c end
c isions
d o
d le
d am
d one
d ney
e o
e y
e xt
e ep
f in
f it
f il
f ic
f ter
f ord
f actory
g u
g an
g iv
g matic
h re
h ut
h ill
h ich
h ons
h oriz
i at
i ot
i qu
j an
j ab
j ect
j na
k a
k et
k ind
k now
k anya
k adem
l ic
l ine
l ated
l iver
l bor
l ief
m e
m i
m o
m y
m in
m or
m ar
m as
m int
m let
m ber
n u
n an
n er
n ic
n ast
n olog
n ung
o c
o f
o it
o om
o ot
o ch
o red
o ons
o hi
p an
p all
p et
p id
p os
p art
p ress
p ohela
p ersonal
p onsibility
r ine
r ont
r ugg
r iment
s on
s ion
s ist
s ues
t or
t ed
t ing
t ur
t ra
t oms
t ouch
u v
u ro
u el
u ction
v al
v am
v est
v ious
v ara
v itation
w w
w an
w in
w ar
w as
w hol
x en
x ist
x ford
y ed
y as
y ce
¡ °
¡ Õ
¦ ¬
¦ à¦®
¦ ÙĨ
¨ Ø±
¨ ×¢×
© æ
© áĥĲáĥ
ª n
Ã ¤
Ã Ĺ
Ã Ł
Ã Ń
Ã ªn
Ä Ł
Å ¡
Ì Ĭ
Î º
Î »
Ï ĥ
Ï Ħ
Ð ´
Ñ İ
Ñ ĸ
Ò ĵ
Õ ¥
Õ «
× ¨
Ø ©
Ø ¬
Ø °
Ø µ
Ø ¹
Ø Ń
Ù ı
Ù Ĵ
Ú ĳ
Û Ĵ
à ®
ã Ĥ
å ħ
å ı
å ķ
æ ¸
æ ĭ
ç §
ê ·
ê ī
ë ¦¬
ì Ĩ
í Ļ
ï Ģ
Ġ /
Ġ 5
Ġ 9
Ġ }
Ġ à§ĩ
Ġ à§İà¦¸
Ġ à§İà¦ª
Ġ ing
Ġ lect
Ġ 34
Ġ ign
Ġ ê°
Ġ QR
Ģ Ïģ
Ĥ Ċ
ĥ Ïħ
ĭ ľ
Į ì
Ĵ ¤
Ļ Ĥ
ļ áĥĺ
Ľ º
Ŀ Ľº
Ł âĢĿ
Ł ĻĤ
à¦¾ (
à¦¾ ]
à¦¾ à§ģ
à¦¾ à¦¼
à¦¾ à¦¾à¦ģ
à¦¾ à§ĩà¦ģ
à¦¾ ..
à¦¾ âĢķ
à¦¾ ÂŃ
à§ĩ à¦¼
à§ĩ à¦¾âĢĶ
à§ĩ ï¿½
à¦° à§ľ
à¦° à¦°à¦®
à¦° à¦Ĩà¦®
à¦° à¦Łà¦ķ
à¦° à¦ļà¦ķ
à¦° à¦«à¦²
à¦° à¦īà¦¨
à¦° à¦Ĩà¦°
à¦° à¦ĺà¦¨
à¦° à¦īà¦¦
à¦° à¦īà¦ľ
à¦° à¦īà¦¡
à¦° à¦ħà¦®
à¦° à¦ħà¦Ń
à¦° à¤¤
à¦° à¦Ŀà¦²à¦®à¦²
à§į âĢĿ
à§į ?âĢĻ
à¦¿ *
à¦¿ ]
à¦¿ â
à¦¿ à¦¿
à¦¿ à¦¾à¦ģ
à¦¿ à¦¾à¥¤
à¦¿ ..
à¦¿ âĢį
à¦¨ à¦Ļ
à¦¨ à¦ŀ
à¦¨ à§İ
à¦¨ à¦ī
à¦¨ à¦¨à¦¤
à¦¨ à¦¸à¦¬
à¦¨ à¦²à¦¤
à¦¨ à¦¹à¦°
à¦¨ à¦ıà¦ĩ
à¦¨ à¦®à¦°
à¦¨ à¦¹à¦¨
à¦¨ à¦«à¦²
à¦¨ à¦ľà¦¯
à¦¨ à¦®à¦§
à¦¨ à¦Ľà¦¬
à¦¨ à¦ªà¦²
à¦¨ à¦ħà¦°
à¦¨ à¦ĸà¦£
à¦¨ à¦Ī
à¦¨ à¦Ĩà¦¨
à¦¨ à¦«à¦°
à¦¨ à¦¡à¦°
à¦¨ à¦ĺà¦£
à¦¨ à¦Ŀà¦²à¦¸
à¦¨ à¦¨à¦¤à¦²
à¦¨ à¦¸à¦°à¦ŀ
à¦¤ à¦Ŀ
à¦¤ à¦¬à¦ª
à¦¤ à¦ķà¦Ł
à¦¤ à¦²à¦¨
à¦¤ à¦¹à¦¸
à¦¤ à¦Ľà¦¨
à¦¤ à¦Ńà¦¬
à¦¤ à¦¶à¦ķ
à¦¤ à¦¸à¦²
à¦¤ à¦ľà¦°
à¦¤ à¦ľà¦¯
à¦¤ à¦Łà¦°
à¦¤ à¦¹à¦°à¦£
à¦¤ à¦¸à¦®à¦¯
à¦¤ à¦Ľà¦¬
à¦¤ à¦¯à¦ľ
à¦¤ à§İà¦ª
à¦¤ à¦Ŀà¦¡
à¦¤ à¦ľà¦¨à¦¦
à¦¤ à¦ķà¦¬à¦ļ
à¦² à¦·
à¦² à¦¨à¦¤
à¦² à¦ħ
à¦² à¦¤à¦¨
à¦² à¦²à¦¬
à¦² à¦Ńà¦¬
à¦² à¦¶à¦ķ
à¦² à¦Łà¦¬
à¦² à¦¦à¦Ĺ
à¦² à¦ªà¦²
à¦² à¦¶à¦°
à¦² à¦¡à¦°
à¦² à¦°à¦¹à¦¸
à¦ķ à§İ
à¦ķ à¦¨à¦¬
à¦ķ à¦ªà¦¤
à¦ķ à¦Ĺà¦¨
à¦ķ à¦¯à¦¨
à¦ķ à¦¹à¦¤
à¦ķ à¦ĩà¦¯
à¦ķ à¦Ĩà¦²
à¦ķ à¦¹à¦®
à¦ķ à¦®à¦ª
à¦ķ à¦ħà¦²
à¦ķ à¦°à¦®à§Ł
à¦ķ à¦ªà¦°à¦®
à§ģ à§ĭ
à§ģ à§įâĢĮ
à§ģ âĢ¦âĢĿ
à§ģ ...
à§ģ à§ģà¦ģà¦ģ
à§ģ ÌĬ
à¦¬ à¦¸à¦¬
à¦¬ à¦¯à¦¤
à¦¬ à¦¯à¦¨
à¦¬ à¦®à¦°
à¦¬ à¦Łà¦ķ
à¦¬ à¦ħà¦¨
à¦¬ à¦ĺà¦°
à¦¬ à¦Łà¦°
à¦¬ à¦®à¦Ĺ
à¦¬ à¦īà¦²
à¦¬ à¦īà¦°
à¦¬ à¦ľà§Ł
à¦¬ à§İà¦ª
à¦¬ à¦ľà¦Ĺà§İà¦ķ
à¦¯ à¦«
à¦¯ à¦¦à¦¨
à¦¯ à¦°à¦¹
à¦¯ à¦ļà¦¨
à¦¯ à¦ħà¦¨
à¦¯ à¦ªà¦¸
à¦¯ à¦ľà¦¸
à¦¯ à¦¹à¦°à¦£
à¦¯ à¦²à¦Ĺ
à¦¯ à¦ľà¦®
à¦¯ à¦ĺà¦Ł
à¦¯ à¦°à¦¹à¦¸
à¦® à¦°à¦®
à¦® à¦ķà¦¤
à¦® à¦²à¦¨
à¦® à¦Ĺà¦²
à¦® à¦°à¦²
à¦® à¦¬à¦ķ
à¦® à¦ľà¦¯
à¦® à¦Ĺà¦¬
à¦® à¦®à¦§
à¦® à¦Ńà¦¯
à¦® à¦ľà¦¨à¦ķ
à¦® à¦Ńà¦Ļ
à¦® à¦Ńà¦ķ
à¦® à¦§à¦¨à¦ķ
à¦® à¦ĺà¦£
à¦® à¦°à¦ľà¦²
à¦® à¦¦à¦¨à¦¬
à¦¼ (
à¦¼ /
à¦¼ à§įâĢĮ
à¦¼ à§ģâĢĻ
à¦¼ ..
à¦¼ à§ĭà¥¤âĢĿ
à¦¼ à§ĭà¥¤âĢĻ
à¦¼ ï»¿
à§ĭ .
à§ĭ à¦¾à¦ģ
à§ĭ ..
à§ĭ à§įà¦ģ
Ġà¦ķ à¦ªà¦¨
Ġà¦ķ à¦²à¦¨
Ġà¦ķ à¦Ĺà¦¨
Ġà¦ķ à¦¹à¦²
Ġà¦ķ à¦¸à¦ķ
Ġà¦ķ à¦ĩà§Ł
Ġà¦ķ à¦ĩà¦¸
Ġà¦ķ à¦ķà¦ĸà¦¨
Ġà¦ķ à¦¹à¦ķ
Ġà¦ķ à¦ĩà¦®
Ġà¦ķ Ø§Ø
Ġà¦ķ à¦Ĩà¦°à¦¤
Ġà¦¬ à¦ķà¦Ł
Ġà¦¬ à¦°à¦¸
Ġà¦¬ à¦¹à¦¸
Ġà¦¬ à¦ĩà¦¨
Ġà¦¬ à§Łà¦¨
Ġà¦¬ à¦¦à¦¸
Ġà¦¬ à¦°à¦¬à¦£
Ġà¦¬ à¦ķà¦²à¦®
Ġà¦¸ à¦Ľ
Ġà¦¸ à¦¥
Ġà¦¸ à¦¶à¦¨
Ġà¦¸ à¦°à¦¬à¦¤
Ġà¦¸ à¦ªà¦Ł
Ġà¦¸ à¦¸à¦¸
Ġà¦¸ à¦²à¦«
Ġà¦¸ à¦ħà¦²
Ġà¦¸ à¦²à¦Ļ
Ġà¦¸ à¦°à¦¹à¦¸
Ġà¦¸ à§±
Ġà¦¸ à¦¦à¦¨à¦Ł
Ġà¦ª à§İ
Ġà¦ª à¦¬à¦°
Ġà¦ª à¦¶à¦¬
Ġà¦ª à¦ľà¦°
Ġà¦ª à¦¨à¦°
Ġà¦ª à¦ªà¦¡
Ġà¦ª à¦Ĺà¦¡
Ġà¦ª à¦ļà¦¬
Ġà¦ª à¦ĩà¦ª
à¦¸ à¦Ŀ
à¦¸ à¦°à¦®
à¦¸ à¦¸à¦¬
à¦¸ à¦²à¦¨
à¦¸ à§İà¦¸
à¦¸ à¦°à¦ĵ
à¦¸ à¦Łà¦²
à¦¸ à¦ıà¦ķ
à¦¸ à¦¸à¦Ļ
à¦¸ à¦Łà¦¬
à¦¸ à¦Łà¦¨
à¦¸ à¦Ńà¦¯
à¦¸ à¦Ĺà¦£
à¦¸ à¦¦à¦¸
à¦¸ à¦°à¦¬à¦°
à¦¸ à¦°à¦¤à¦®
Ġà¦Ĩ à¦ĸà¦¨
Ġà¦Ĩ à¦§à¦ķ
Ġà¦Ĩ à¦ĸà¦¤
Ġà¦Ĩ à¦¹à¦°
Ġà¦Ĩ à¦ļà¦°
Ġà¦Ĩ à¦Ĩà¦°
Ġà¦Ĩ à¦ĸà¦£
Ġà¦Ĩ à¦ĩà¦®
Ġà¦Ĩ à¦ĵà¦²
Ġà¦Ĩ à¦ļà¦¨à¦ķ
à¥ Ĳ
à¥¤ "
à¥¤ *
à¥¤ /
à¦¦ à§İ
à¦¦ à¦ľà¦¨
à¦¦ à¦¬à¦²
à¦¦ à¦¨à¦¤
à¦¦ à¦Ĺà¦¤
à¦¦ à¦Ĺà¦¨
à¦¦ à¦¶à¦¬
à¦¦ à¦®à¦°
à¦¦ à¦¬à¦¸
à¦¦ à¦ļà¦°
à¦¦ à¦ľà¦²
à¦¦ à¦®à¦¬
à¦¦ à¦ªà¦¸
à¦¦ à¦ĩà¦¯
à¦¦ à¦ĩà§Ł
à¦¦ à¦¬à¦®
à¦¦ à¦°à¦¤à¦°
à¦¦ à¦Ńà¦¦
à¦¦ ol
à¦¦ à¦°à¦¨à¦Ĺà¦°
Ġà¦¨ à¦ī
Ġà¦¨ à¦ħ
Ġà¦¨ à¦ķà¦Ł
Ġà¦¨ à¦¬à¦ķ
Ġà¦¨ à¦¬à¦²à¦¤
Ġà¦¨ à¦²à¦ľ
Ġà¦¨ à¦²à¦ª
Ġà¦¨ à¦²à¦ĸ
Ġà¦¨ à¦«à¦°
Ġà¦¨ à¦ľà¦¦
Ġà¦¨ à¦¬à¦²à¦¬
Ġà¦¨ à¦ĺà¦¸
Ġà¦¨ à¦ħà¦¬à¦²
Ġà¦¨ à¦§à¦°à¦ķ
Ġà¦® à¦¬
Ġà¦® à¦ĵ
Ġà¦® à¦ľà¦¨
Ġà¦® à¦ĺ
Ġà¦® à¦Ĺà¦¤
Ġà¦® à¦²à¦¤
Ġà¦® à¦ĩà¦²
Ġà¦® à¦ķà¦¬
Ġà¦® à¦ĩà¦¨
Ġà¦® à¦ĩà¦°
Ġà¦® à¦ªà¦¸
Ġà¦® à¦¦à¦Ĺ
Ġà¦® à¦īà¦¤
Ġà¦® à¦ĵà¦¤
Ġà¦® à¦ĺà¦¬
Ġà¦® à¦°à¦ľà¦Ĺà¦¤
à¦Ł à¦ł
à¦Ł à¦ŀ
à¦Ł à¦²à¦ķ
à¦Ł à¦¨à¦ķ
à¦Ł à¦ªà¦ķ
à¦Ł à¦¨à¦¦
à¦Ł à¦°à¦Ł
à¦Ł à¦¬à¦¯
à¦Ł à¦Ĺà¦¬
à¦Ł à¦®à¦§
à¦Ł à¦ªà¦²
à¦Ł à¦Ŀà¦¨
à§Ģ /
à§Ģ à¦¾
à§Ģ à§į
à§Ģ à§ģ
à§Ģ âĢĻ-
à§Ģ âĢ¦âĢĻ
à§Ģ ï»¿
à¦ª à¦ł
à¦ª à¦°à¦¤
à¦ª à¦ªà¦°
à¦ª à¦§à¦¨
à¦ª à¦ļà¦¨
à¦ª à¦Ĺà¦¨
à¦ª à¦Ĺà¦°
à¦ª à¦¸à¦°
à¦ª à¦ªà¦Ł
à¦ª à¦²à¦¸
à¦ª à¦Ńà¦¯
à¦ª à¦®à¦¦
à¦ª à¦ªà¦²
à¦ª à¦Ńà¦Ļ
à¦ª à¦ľà¦¨à¦¦
à¦ĩ à¦°à¦ķ
à¦ĩ à¦Ĩ
à¦ĩ à¦ĸà¦¤
à¦ĩ à¦°à¦ĩ
à¦ĩ à¦¹à¦²
à¦ĩ à¦Ĺà¦°
à¦ĩ à¦ªà¦¥
à¦ĩ à¦Ŀà¦°
à¦ĩ à¦ľà¦®
à¦ĩ à¦ļà¦¡
à¦ĩ à¦ĵà¦°
à¦ĩ à¦¸à¦®à§Ł
à¦ĩ à¦ĵà¦²
Ġà¦¦ à¦ĸà¦¨
Ġà¦¦ à¦®à¦²
Ġà¦¦ à¦°à¦ĵ
Ġà¦¦ à¦²à¦²
Ġà¦¦ à¦ĩà¦¬
Ġà¦¦ à¦®à¦¦
Ġà¦¦ à¦ĩà¦ļ
Ġà¦¤ à¦ľ
Ġà¦¤ à¦¶
Ġà¦¤ à¦·
Ġà¦¤ à¦Ļ
Ġà¦¤ à¦ķà¦²
Ġà¦¤ à¦°à¦¶
Ġà¦¤ à¦Łà¦ķ
Ġà¦¤ à¦¦à¦®
Ġà¦¤ à¦¦à¦¸
Ġà¦¤ à§İà¦ª
Ġà¦¤ à¦¦à¦£
Ġà¦¤ à¦°à¦¤à¦®
Ġà¦¤ à¦ĵà¦¬
Ġà¦¤ à§İà¦¸à¦¹
Ġà¦¤ à¦°à¦ľà¦®
à¦ľ à¦£
à¦ľ à¦ľà¦¨
à¦ľ à¦«
à¦ľ à¦¬à¦¤
à¦ľ à¦°à¦¸
à¦ľ à¦°à¦¦
à¦ľ à¦Łà¦²
à¦ľ à§°
à¦ľ à¦¦à¦®
à¦ľ à¦ķà¦¥
à¦ľ à¦®à¦ľ
à¦ľ à¦ªà§ľ
à¦ľ à¦ªà¦²
à¦ľ à¦łà¦°
à¦ľ à¦ªà¦°à¦®
à¦ľ à¦²à¦ķà¦£
à¦ľ à¦ªà¦¦à¦¬
à¦Ľ à¦ĸ
à¦Ľ à¦§
à¦Ľ à¦£
à¦Ľ à¦ŀ
à¦Ľ à¦¤à¦°
à¦Ľ à¦ľà¦¨
à¦Ľ à¦ĺ
à¦Ľ à¦¸à¦²
à¦Ľ à¦ľà¦®
à¦Ľ à¦¦à¦ĵ
à¦Ľ à¦Ľà§ľ
à¦Ľ à¦ªà¦¸à¦¹
à¦¶ à¦ŀ
à¦¶ à¦ªà¦¨
à¦¶ à¦¤à¦¨
à¦¶ à¦¬à¦¤
à¦¶ à¦ĵà§Ł
à¦¶ à¦¨à¦¬
à¦¶ à¦ªà¦ķ
à¦¶ à¦ļà¦°
à¦¶ à¦²à¦¯
à¦¶ à¦Ŀà¦°
à¦¶ à¦ľà¦®
à¦¶ à¦¤à¦Ń
à¦¶ à§Łà¦Ĺ
à¦¶ à¦¤à¦°à¦Ļ
à¦¶ à¦°à¦ķà¦°
à¦¶ à¦¬à¦¨à¦®
à¦¶ à¦Ĩà¦ĩà¦¨
à¦¶ à¦®à¦¨à¦ķ
à¦¶ à¦°à¦Ĺà¦®à¦¨
Ġà¦¹ à§ľ
Ġà¦¹ à¦ŀ
Ġà¦¹ à¦ķà¦°
Ġà¦¹ à¦°à¦¸
Ġà¦¹ à¦Łà¦ķ
Ġà¦¹ à¦ľà¦°
Ġà¦¹ à¦¥à¦°
Ġà¦¹ à¦ķà¦ķ
Ġà¦¹ à¦Łà¦¨
Ġà¦¹ à¦Łà¦¸
Ġà¦¹ à¦°à¦¦à¦®
Ġà¦¹ à§ľà¦¹
Ġà¦¹ à§ľà¦¬à§ľ
Ġà¦ı à¦Ĩ
Ġà¦ı à¦·à¦£
Ġà¦ı à¦Ĺà¦¤
Ġà¦ı à¦Ĺà¦²
Ġà¦ı à¦Ĩà¦°
Ġà¦ı à¦®à¦¡
Ġà¦ı à¦ĵà¦¤
Ġà¦ı à¦¹à¦¨à¦¬
à§Ł à§Ł
à§Ł à¦°à¦¨
à§Ł à¦ķà¦¤
à§Ł à¦¨à¦ĵ
à§Ł à¦¸à¦®
à§Ł à¦®à¦ª
Ġà¦ħ à¦²à¦¬
Ġà¦ħ à¦ĩà¦²
Ġà¦ħ à¦Ŀà¦°
Ġà¦ħ à¦ĩà¦Ľ
Ġà¦ħ à¦ĭà¦£
à¦ĸ à§Ł
à¦ĸ à¦ĺ
à¦ĸ à¦ĵà¦¯
à¦ĸ à¦ķà¦Ł
à¦ĸ à¦°à¦¸
à¦ĸ à¦°à¦¹
à¦ĸ à¦ļà¦¨
à¦ĸ à¦¶à¦¯
à¦ĸ à¦ľà¦Ĺ
à¦ĸ à¦²à¦¬à¦¦
à¦· à¦ł
à¦· à¦Ŀ
à¦· à¦°à¦ªà¦°
à¦· à¦°à¦ĵ
à¦· à¦¸à¦°
à¦· à¦ļà¦ķ
à¦· à¦°à¦ļ
à¦· à¦ªà¦£
à¦· à¦¸à¦¹
à¦· à¦¬à¦¹
à¦· à¦¸à¦¸
à¦· à¦¬à¦¶à¦¤
à¦· à¦¸à¦¬à¦§
à¦Ĺ à¦ĸ
à¦Ĺ à¦·
à¦Ĺ à§İ
à¦Ĺ à¦¬à¦²
à¦Ĺ à¦ĵà¦¯
à¦Ĺ à¦¦à¦°
à¦Ĺ à¦¨à¦ĵ
à¦Ĺ à¦²à¦¤
à¦Ĺ à¦°à¦¯
à¦Ĺ à¦¹à¦°
à¦Ĺ à¦ļà¦°
à¦Ĺ à¦¸à¦Ļ
à¦Ĺ à¦®à¦¬
à¦Ĺ à¦ľà¦°
à¦Ĺ à¦§à¦°
à¦Ĺ à¦¦à¦ķ
à¦Ĺ à¦ķà¦®
à¦Ĺ à¦¶à¦¤
à¦Ĺ à¦¸à¦¦
à¦Ĺ à¦¶à¦Ļ
à¦Ĺ à¦°à¦¤à¦²
à¦Ĺ à¦«à¦²à¦ķ
à¦Ĺ à¦¬à¦¸à¦¤
à¦Ĺ à¦ľà¦¨à¦ķà¦Ń
à¦Ĺ à¦¬à¦²à¦¯
à¦¼à§ĩ à§ĩ
à¦¼à§ĩ âĢĻ,
à¦¼à§ĩ âĢ¦âĢĿ
à¦¼à§ĩ âĢ¦âĢĻ
à¦§ à¦§
à¦§ à¦£
à¦§ à§ľ
à¦§ à¦ĵà¦¯
à¦§ à¦°à¦¸
à¦§ à¦®à¦¤
à¦§ à¦ªà¦¦
à¦§ à¦°à¦²
à¦§ à¦ªà¦ķ
à¦§ à¦¬à¦¬
à¦§ à¦«à¦²
à¦§ à¦¦à¦Ĺ
à¦§ à¦ľà¦¨à¦ķ
à¦§ à¦¯à¦ľ
âĢ ²
âĢ ³
âĢ ĥ
âĢ Ĭ
âĢ ĭ
âĢ ļ
Ġà¦¯ à¦¤à¦°
Ġà¦¯ à¦¬à¦¦
Ġà¦¯ à§İà¦ķ
Ġà¦¯ à¦¶à¦ĩ
à¦¹ à¦Ľ
à¦¹ à¦ŀ
à¦¹ à¦ķà¦²
à¦¹ à¦¸à¦¬
à¦¹ à¦²à¦¬
à¦¹ à¦¬à¦¦
à¦¹ à¦ªà¦¥
à¦¹ à¦¤à¦²
à¦¹ à¦¤à¦®
à¦¹ à¦ļà¦ķ
à¦¹ à¦®à¦¬
à¦¹ à¦¦à¦®
à¦¹ à¦ĩà¦¬
à¦¹ à¦łà¦ķ
à¦¹ à¦ĺà¦¨
à¦¹ à¦Ńà¦ķ
à¦ļ à¦ľ
à¦ļ à¦ªà¦°
à¦ļ à¦°à¦¸
à¦ļ à¦Ĺà¦²
à¦ļ à¦®à¦¯
à¦ļ à¦ªà¦¦
à¦ļ à¦ªà¦¤
à¦ļ à¦®à§Ł
à¦ļ à¦¬à¦ĩ
à¦ļ à¦Ĺà¦¡
à¦ļ à¦¶à¦¤
à¦ļ al
à¦£ à¦£
à¦£ à¦¥
à¦£ à¦¨à¦¬
à¦£ à¦°à¦¶
à¦£ à¦¦à¦²
à¦£ à¦¸à¦¤
à¦£ à¦¹à¦°à¦£
à¦£ à¦ļà¦¤
à¦£ à¦¶à¦¯
à¦£ à¦ľà¦Ĺà¦¤
à¦£ à¦¦à¦¶
à¦£ à¦Ńà¦ķ
à¦£ à§Łà¦ķ
à¦£ à¦¶à¦¸
à¦£ à¦®à§Łà¦¤
à¦ģ /
à¦ģ ?
à¦ģ à¦¾
à¦ģ à¦¿
à¦ģ à¥¤
Ġà¦Ĺ à¦ķ
Ġà¦Ĺ à¦ĩ
Ġà¦Ĺ à§Ł
Ġà¦Ĺ à¦¬à¦°
Ġà¦Ĺ à¦ħ
Ġà¦Ĺ à¦°à¦¦
Ġà¦Ĺ à¦¹à¦°
Ġà¦Ĺ à§°
Ġà¦Ĺ à¦ħà¦£
à¦¡ à¦ĸ
à¦¡ à¦Ĺà¦²
à¦¡ à¦¸à¦¨
à¦¡ à¦®à¦°
à¦¡ à¦ªà¦Ł
à¦¡ à¦ªà¦£
à¦¡ à¦ķà¦°à¦£
à¦¡ à¦®à¦¨à¦¸
à¦¡ à¦ĩà¦Ńà¦¨
à¦¥ à¦·
à¦¥ à¦§
à¦¥ à¦¥
à¦¥ à¦°à¦¤
à¦¥ à¦®à¦¨
à¦¥ à¦¬à¦¤
à¦¥ à¦Ĺà¦¤
à¦¥ à¦°à¦¹
à¦¥ à¦¨à¦ĵ
à¦¥ à¦ĵà§Ł
à¦¥ à¦¨à¦ķ
à¦¥ à§°
à¦¥ à¦ľà¦²
à¦¥ à¦²à¦Ł
à¦¥ à¦¬à¦§
à¦¥ à¦°à¦ľà¦²
à¦¥ à¦°à¦ªà¦Ł
Ġà¦¶ à¦ĩà¦²
Ġà¦¶ à§°
Ġà¦¶ à¦Łà¦Ĺ
Ġà¦¶ à¦¬à¦°à¦¦
Ġà¦¶ à¦¬à¦°à¦ª
Ġà¦¶ arat
Ġà¦ľ à¦£
Ġà¦ľ à¦¬à¦¨
Ġà¦ľ à¦Ĺà¦¬
Ġà¦ľ à¦ľà¦®
Ġà¦Ń à¦¤
Ġà¦Ń à¦®
Ġà¦Ń à¦ŀ
Ġà¦Ń à¦°à¦ķ
Ġà¦Ń à¦°à¦¨
Ġà¦Ń à¦ĩà¦²
Ġà¦Ń à¦Ĺà¦¨
Ġà¦Ń à¦¬à¦¸
Ġà¦Ń à¦īà¦ľ
Ġà¦ļ à¦¸
Ġà¦ļ à¦¶
Ġà¦ļ à¦ķà¦Ł
Ġà¦ļ à¦¹à¦°
Ġà¦ļ à¦ķà¦¬
Ġà¦ļ à§°
Ġà¦ļ à¦°à¦Ł
Ġà¦ļ à¦°à¦Ĺ
Ġà¦ļ à¦Łà¦¤
Ġà¦ļ à¦īà¦ķ
Ġà¦ļ à¦ĩà¦²à¦¬
Ġà¦° à¦®à¦ķ
Ġà¦° à¦®à¦²
Ġà¦° à¦¸à¦¤
Ġà¦° à¦¸à¦ķ
Ġà¦° à¦Ĩà¦¨
Ġà¦° à¦£à¦ļ
Ġà¦° à¦£à¦°
Ġà¦° à¦īà¦«
à¦ĵ à¦§
à¦ĵ à¦®à¦¨
à¦ĵ à¦ķà¦²
à¦ĵ à¦²à¦ķ
à¦ĵ à¦°à¦¦
à¦ĵ à§ľà¦¨
à¦ĵ à¦·à¦§
à§ĥ à§ĥ
à§ĥ âĢĮ
à¦Ń à¦Ľ
à¦Ń à¦·
à¦Ń à¦ľà¦¨
à¦Ń à¦²à¦¤
à¦Ń à¦°à¦¦
à¦Ń à¦¸à¦¨
à¦Ń à¦Łà¦¤
à¦Ń à§Łà¦¤
à¦Ń à¦¦à¦¶
à¦Ń à¦Ĺà¦¬à¦¨
à¦Ń à§İà¦¸à¦¨
à§ĩà¥¤ (
à§ĩà¥¤ ]
à§ĩà¥¤ âĢĶ
Ġà¦Ĩà¦® à¦ĩ
Ġà¦Ĩà¦® à¦¡
Ġà¦Ĩà¦® à¦°à¦¤
Ġà¦Ĩà¦® à¦¬à¦¨
Ġà¦Ĩà¦® à¦«
Ġà¦Ĩà¦® à¦ĺ
Ġà¦Ĩà¦® à¦ªà¦¤
Ġà¦Ĩà¦® à¦²à¦ĩ
Ġà¦Ľ à¦ķà¦Ł
Ġà¦Ľ à¦Ĺà¦¨
Ġà¦ıà¦ķ à¦ªà¦°
Ġà¦ıà¦ķ à¦°à¦ķ
Ġà¦ıà¦ķ à¦¢
Ġà¦ıà¦ķ à¦ķà¦£
Ġà¦ıà¦ķ à¦ħà¦ªà¦°
à§Ĥ !
à§Ĥ )
à§Ĥ à¦Ĥ
à§Ĥ âĢĶ
à¦Ĥ !
à¦Ĥ âĢ¦à¥¤
à¦ł à¦ªà¦°
à¦ł à¦Ŀ
à¦ł à¦°à¦¸
à¦ł à¦®à¦¤
à¦ł à¦ļà¦°
à¦ł à¦¨à¦Ĺ
à¦ł à¦¤à¦Ł
à¦ł à¦ĸà§ľ
Ġà¦ī à¦Ľ
Ġà¦ī à¦ĸ
Ġà¦ī à¦ĺ
Ġà¦ī à¦²à¦ķ
Ġà¦ī à¦¨à¦¬
Ġà¦ī à¦ĩà¦°
Ġà¦ī à¦Łà¦ª
Ġà¦ī à¦Ĺà¦¡
Ġà¦ī à¦ĩà¦¸
Ġà¦ī à¦®à¦®
Ġà¦ī à¦ıà¦¸
Ġà¦ī à¦ĵà¦®
à¦Ļ à¦®
à¦Ļ à¦Ĺ
à¦Ļ à¦¨à¦¹
à¦Ļ à¦ħà¦²
à¦¾à¦ģ ;
à¦¾à¦ģ âĢĻà¥¤
à§ĩ, âĢ¦
à¦¼à¦¾ /
à¦¼à¦¾ à§ĩ
à¦¼à¦¾ ),
à¦¼à¦¾ âĢĻâĢĶ
à¦¼à¦¾ âĢ¦à¥¤
Ġà¦¥ à¦¨
Ġà¦¥ à¦ª
Ġà¦¥ à¦Łà¦²
Ġà¦¥ à¦ªà¦¥à¦ª
Ġà¦ĵ à¦²à¦¨
Ġà¦ĵ à¦¨à¦²
Ġà¦ĵ à¦ĺà¦°
Ġà¦ĵ à¦ĸà¦°
Ġà¦ĵ à§Łà¦°
Ġà¦ĵ à¦²à¦¡
à§ľ à¦ª
à§ľ à¦¬à¦¨
à§ľ à¦¤à¦°
à§ľ à¦ľà¦¨
à§ľ à¦¸à¦®
à§ľ à¦²à¦¦
Ġà¦² à¦«
Ġà¦² à¦ĵà§Ł
Ġà¦² à¦ĩà¦²
Ġà¦² à¦¬à¦ķ
Ġà¦² à¦Łà¦¬
Ġà¦² à¦ĩà¦¬
Ġà¦² à¦¬à¦¡
Ġà¦² à§Łà¦¬à¦¦
Ġà¦² à¤¹à¤°
Ġà¦« à¦Ļ
Ġà¦« à¦Łà¦«à¦Ł
à¦°à¦¤ à¦Ĺ
à¦°à¦¤ à¦Ļ
à¦°à¦¤ à¦°à¦ķ
à¦°à¦¤ à¦ķà¦°
à¦°à¦¤ à¦¨à¦¬
à¦°à¦¤ à§°
à¦°à¦¤ à¦¨à¦¦
Ġà¦Ĩà¦° à¦ª
Ġà¦Ĩà¦° à¦ľà¦¨
Ġà¦Ĩà¦° à¦«
Ġà¦ĸ à¦ľ
Ġà¦ĸ à¦°à¦¤
Ġà¦ĸ à¦°à¦¬
Ġà¦ĸ à¦¸à¦¬
Ġà¦ĸ à¦Ĺà¦°
Ġà¦ĸ à¦ªà¦¡
Ġà¦ĸ à¦·à¦ĸ
Ġà¦ĸ à¦ĵà¦«
Ġà¦¬à¦² à¦ĩ
Ġà¦ħà¦¨ à¦ļ
Ġà¦ħà¦¨ à¦¬à¦ļ
Ġà¦ħà¦¨ à¦¶à¦¨à¦ķ
âĢĶ #
âĢĶ /
âĢĶ ?
Ġà¦§ à¦¨à¦¸
Ġà¦ªà¦° à¦®à¦¨
Ġà¦ªà¦° à¦ķà¦²
à¦¬à¦¨ à¦¬à¦¨
à¦¬à¦¨ à¦¶à¦ķ
à¦¬à¦¨ à¦¨à¦¦
à¦¬à¦¨ à¦®à¦°à¦£
à¦¬à¦¨ à¦²à¦Ĺ
à¦¬à¦¨ à¦²à¦¯
à¦¬à¦¨ à¦ķà¦£
à¦¬à¦¨ à¦ĸà¦£
à¦¬à¦¨ à¦ľà¦Ļ
à¦¬à¦¨ à¦ªà¦ŀ
à¦¬à¦¨ à¦ĺà¦£
à¦¬à¦¨ à¦°à¦¹à¦¸
à¦¬à¦¨ à¦¸à¦ŀ
à¦¬à¦¨ à¦ľà¦¨à¦®
à¦¬à¦¨ à¦ľà¦¨à¦®à¦¨
Ġà¦¸à¦® à¦®à¦¨
Ġà¦¸à¦® à¦°à¦¬
Ġà¦¸à¦® à§°
Ġà¦¸à¦® à¦¬à§Łà¦¸
à¦ĸà¦¨ à¦ª
à¦ĸà¦¨ à¦¶
à¦ĸà¦¨ à¦ļ
Ġà¦ĺ à¦ª
Ġà¦ĺ à¦°à¦®à¦¯
ĠâĢ ĭ
ĠâĢ į
ĠâĢ ĤĊ
Ġà¦®à¦¨ à¦¤
Ġà¦®à¦¨ à¦ļ
Ġà¦®à¦¨ à¦¨à¦Ń
Ġà¦®à¦¨ à¦ķà¦¥
Ġà¦®à¦¨ à¦¨à¦ĩ
Ġà¦®à¦¨ à¦Ĺà¦¡
Ġà¦®à¦¨ à¦¨à¦Ĺà¦łà¦¨
à¦°à¦£ à¦°
à¦°à¦£ à¦²
à¦°à¦£ à¦¸
à¦°à¦£ à¦ª
à¦°à¦£ à¦ľ
à¦°à¦£ à¦ļ
à¦°à¦£ à¦ħ
à¦°à¦£ à§Łà¦¬
âĢĻ âĢĻ
à¦®à¦¨ à¦¯
à¦®à¦¨ à¦¶
à¦®à¦¨ à¦§
à¦®à¦¨ à¦ľà¦¨
à¦®à¦¨ à¦¬à¦¦
à¦®à¦¨ à¦ªà¦Ł
à¦¿, âĢĵ
à¦ªà¦° à¦Ł
à¦ªà¦° à¦Ľ
à¦ªà¦° à¦®à¦²à¦¤
à¦ªà¦° à¦¬à¦¶à¦¤
à¦¼à¦¿ ?âĢĻ
à¦¼à¦¿ ?âĢĿ
à¦ŀ à¦®
à¦ŀ à¦Ł
à¦ŀ à¦¶
à¦ŀ à¦ļ
Ġà¦ıà¦ĩ à¦¡
Ġà¦ıà¦ĩ à¦¸à¦¬à¦ĩ
à§İ à¦¤
à§İ à¦Ĺ
à§İ à¦ĵ
à§İ à¦®à¦¨
à§İ à¦¬à¦°
à§İ à¦¬à¦°à¦£
à¦°à¦¬ à¦ĵ
à¦°à¦¬ à¦Ļ
à¦°à¦¬ à¦°à¦¤
à¦°à¦¬ à¦£à¦®
à¦°à¦¬ à¦¶à¦¶
à¦¤à¦° à¦¨
à¦¤à¦° à¦Ľ
à¦¤à¦° à¦®à¦¨
à¦¤à¦° à¦ļà¦²
à¦¤à¦° à¦¯à¦¨
à¦¤à¦° à¦¸à¦®
à¦¤à¦° à¦¶à¦¬
à¦¤à¦° à¦ļà¦¯
à¦¤à¦° à¦®à§Ł
à¦¤à¦° à¦ľà¦²
à¦¤à¦° à¦®à¦ľ
à¦¤à¦° à¦ľà¦Ĺà§İ
à¦Ŀ à¦¸
à¦Ŀ à¦ĩ
à¦Ŀ à¦Ń
à¦Ŀ à¦Ĺà¦Ļ
à¦Ŀ à¦¬à§Łà¦¸
à¦Ŀ à¦®à¦Ŀà¦®
à¦ľà¦¨ à¦ªà¦°
à¦ľà¦¨ à¦ķà¦²
à¦ľà¦¨ à¦¸à¦®
à¦ľà¦¨ à¦Ĺà¦°
à¦ľà¦¨ à¦ªà¦¥
à¦ľà¦¨ à¦®à§Ł
à¦¿à¥¤ ï»¿
à¦ī à¦Ń
à¦ī à¦Ĩ
à¦ī à¦¦à¦°
à¦ī à¦¦à§Ł
à¦ī à¦ĩà¦²
à¦ī à¦ĩà¦ķ
à¦ī à¦¨à¦¸
à¦ī à¦ĩà¦Ł
à¦ī à¦ªà¦¡
à¦ī à¦²à¦¸
à¦ī à¦ľà¦®
à¦ī à¦ĩà¦ľ
à¦ī à¦ªà¦ķà¦¥
à¦ī à¦Ĩà¦¬
à¦ī à¦®à¦ĵ
à¦ī à¦ªà¦²à¦ķ
à¦ī à¦Ńà§Łà¦ķ
à¦¬à¦° à¦¯
à¦¬à¦° à¦·
à¦¬à¦° à¦ķà¦¤
à¦¬à¦° à¦¦à¦°
à¦¬à¦° à¦¶à¦¨
à¦¬à¦° à¦®à¦£
à¦¬à¦° à¦¦à¦²
à¦¬à¦° à¦¸à¦Ļ
Ġà¦Ĩà¦² à¦°à¦¶
Ġà¦Ĩà¦² à¦¬à§İ
à¦°à¦ķ à¦Ĺ
à¦°à¦ķ à¦¤à¦ķ
à¦°à¦ķ à¦¦à¦®
à¦°à¦ķ à¦Łà¦°
à¦°à¦ķ à¦Łà¦Ń
à¦ªà¦¨ à¦¬
à¦ªà¦¨ à¦®
à¦ªà¦¨ à¦§
à¦ªà¦¨ à¦Ĺà¦°
à¦« à¦ĩ
à¦« à¦¹
à¦« à¦Ŀ
à¦« à¦ľà¦²
à¦« à§Łà¦¸
à¦ı à¦£
à¦ı à¦ľà¦¨
à¦ı à¦¨à¦ĩ
à¦ı à¦²à¦Ł
à¦ı à¦®à¦¦
à¦ı à¦¨à¦ª
à¦ı à¦°à¦ªà¦°à¦ĩ
Ġà¦¸à¦¬ à¦Ń
Ġà¦¸à¦¬ à¦ļà¦¯
Ġà¦¸à¦¬ à¦§à¦°à¦¨
à§Į à¦ĥ
à§Į âĢ¦
Ġà¦Ĩà¦¸ à¦°à¦ĩ
Ġà¦Ĩà¦¸ à¦Ĺà¦°
Ġà¦Ĩà¦¸ à¦¨à¦ª
à¦Ĩ à¦£
à¦Ĩ à¦ĵ
à¦Ĩ à¦ľà¦¨
à¦Ĩ à¦°à¦®
à¦Ĩ à¦ķà¦°
à¦Ĩ à¦²à¦¨
à¦Ĩ à¦¹à¦²
à¦Ĩ à¦¦à¦²
à¦Ĩ à¦°à¦ª
à¦Ĩ à¦ľà¦²
à¦Ĩ à¦°à¦Ł
à¦Ĩ à¦ªà¦Ł
à¦Ĩ à¦¨à¦Ĺ
à¦Ĩ à¦¹à¦°à¦£
à¦Ĩ à¦Ĺà¦®
à¦Ĩ à¦Ŀà¦°
à¦Ĩ à¦¶à¦¯
à¦Ĩ à¦¯à¦¹
à¦Ĩ à¦¦à¦¬
à¦Ĩ à¦¬à¦°à¦£
à¦Ĩ à¦«à¦¸
à¦Ĩ à¦ıà¦²
à¦Ĩ à¦ĸà¦¡
à¦Ĩ à§ľà¦®
à¦Ĩ à¦Ľà§ľ
à¦Ĩ à¦¬à¦¹à¦®
Ġà¦®à¦¤ à¦ª
Ġà¦ķà¦¥ à¦ª
à¦ĺ à¦ĩ
à¦ĺ à¦§
à¦ĺ à¦ł
à¦ĺ à¦¬à¦¨
à¦ĺ à¦°à¦£
à¦ĺ à¦²à¦ķ
à¦ĺ à¦°à¦¦
à¦ĺ à¦°à¦ĩ
à¦ĺ à¦®à¦£
à¦ĺ à¦¸à¦Ļ
à¦ĺ à¦ķà¦¨
à¦ĺ à¦°à¦Ľ
à¦ĺ à¦Łà¦¬
à¦ĺ à¦ĺà¦¨
à¦ĺ à¦Łà¦Ľ
à¦ĺ à¦¤à¦ĸ
à¦ĺ à¦²à¦Ĺà¦¡
Ġà¦¡ à¦¯
Ġà¦¡ à¦®
Ġà¦¡ à¦ª
Ġà¦¡ à¦Ĺà¦°
Ġà¦¡ à¦°à¦ª
Ġà¦¡ à¦Łà¦Ĺ
à§Ī !
à§Ī à¦ģ
à§Ī âĢĶ
Ġà¦Ĩà¦Ľ à¦ĩ
Ġà¦Ł à¦¦
Ġà¦Ł à¦Ĺ
Ġà¦Ł à¦²à¦ķ
Ġà¦Ł à¦¨à¦ĵ
Ġà¦Ł à¦®à¦ķ
Ġà¦Ł à¦²à¦²
Ġà¦Ł à¦²à¦®
Ġà¦Ł à¦¬à¦Ĺ
Ġà¦ľà¦¨ à¦¦
Ġà¦ľà¦¨ à¦ªà¦°
Ġà¦ľà¦¨ à¦°à¦¬à¦¹
à¦¬à¦² à¦¬à¦¨
à¦¬à¦² à¦ķà¦°
à¦¬à¦² à¦¯à¦¨
à¦¬à¦² à¦Ŀà¦²à¦ķ
Ġà¦Ŀ à¦°à¦ķ
Ġà¦Ŀ à¦°à¦¯
Ġà¦Ŀ à¦Łà¦¨
Ġà¦Ŀ à¦ªà¦Ŀ
Ġà¦¹à¦² à¦°
Ġà¦¹à¦² à¦¨
Ġà¦¹à¦² à¦®
Ġà¦¹à¦² à¦ª
Ġà¦¹à¦² à¦®à¦¸
ĠâĢĺ ?
Ġà¦ĩ à¦¸à¦°
Ġà¦ĩ à¦¡à¦²
Ġà¦ĩ à¦Łà¦«
Ġà¦ĩ à¦®à¦¦
Ġà¦ĩ à¦ıà¦Ł
Ġà¦ĩ à¦®à¦ªà¦°
à§ģà¦ģ âĢĵ
âĢĵ ?
âĢĿ ;
âĢĿ ?
âĢĿ âĢ¦
Ġà¦¹à§Ł à¦Ľ
Ġà¦¹à§Ł à¦ĵ
Ġà¦īà¦ł à¦¯
à¦ĥ âĢĻ
à¦ĥ à¥¤âĢĻ
à¦ĥ )-
Ġà¦¹à¦¬ à¦ĩ
Ġà¦¸à¦Ļ à¦ĺ
Ġà¦§à¦° à¦ª
Ġà¦§à¦° à¦¨à¦ķ
Ġà¦ħà¦¬ à¦£
Ġà¦ħà¦¬ à¦®à¦¨
Ġà¦ħà¦¬ à¦¸à¦¬
Ġà¦ħà¦¬ à¦¤à¦²
à¦·à¦£ à¦¨
à¦·à¦£ à¦ļ
à¦·à¦£ à¦ķà¦°
à¦·à¦£ à¦¤à¦¤
à¦·à¦£ à¦Ĺà¦£
à¦·à¦£ à¦Ńà¦Ļ
à¦¼à¥¤ )
à¦¼à¥¤ [
à¦¼à¥¤ âĢĶâĢĻ
à¦°à¦® à¦Ń
à¦°à¦® à¦ªà¦°
à¦°à¦® à¦ķà¦²
à¦°à¦® à¦®à¦¯
à¦°à¦® à¦Ĺà¦¨
à¦°à¦® à¦¶à¦ķ
à¦°à¦® à¦°à¦Ł
à¦°à¦® à¦¥à¦¨
à¦¼, âĢĵ
ĠâĢľ âĢ¦
ĠâĢľ âĢĺ
Ġà¦ļà¦² à¦Ł
Ġà¦ļà¦² à¦¨à¦¸à¦ĩ
à§ĭà¦ģ âĢĻ
à§ĭà¦ģ à¥¤âĢĿ
à§ĭà¦ģ âĢĻà¥¤
Ġà¦ªà¦¥ à¦¦
Ġà¦ªà¦¥ à¦ªà¦°
Ġà¦ªà¦¥ à¦ļà¦ķ
Ġà¦ªà¦¥ à¦¸à¦Ļ
Ġà¦ªà¦¥ à¦®à¦§
Ġà¦¬à¦¨ à¦²
Ġà¦¬à¦¨ à¦ļà¦°
à¦ħ à¦ĸ
à¦ħ à¦¤à¦°
à¦ħ à¦ĺ
à¦ħ à¦¨à¦¤
à¦ħ à¦°à¦¨
à¦ħ à¦¹à¦°
à¦ħ à¦¬à¦ķ
à¦ħ à¦ªà¦¸
à¦ħ à¦¸à¦ķ
à¦ħ à¦¬à¦ļ
à¦ħ à¦¬à¦§
à¦ħ à¦°à¦«
à¦ħ à¦ľà§Ł
à¦ħ à¦ķà¦®
à¦ħ à¦ĩà¦¸
à¦ħ à¦ªà¦¶
à¦ħ à¦«à¦¸
à¦ħ à¦ħà¦£
à¦ħ à¦¸à¦«à¦²à¦¤
à¦¤à¦¨ à¦¹
à¦¤à¦¨ à¦ħ
à¦¤à¦¨ à¦¸à¦¹
Ġà¦ħà¦® à§ľ
Ġà¦ħà¦® à¦°à¦¬
Ġà¦ħà¦® à¦°à¦¨
Ġà¦ħà¦® à¦°à¦Ĺà¦£
Ġà¦ıà¦¸ à¦¤
Ġà¦ıà¦¸ à¦ķ
Ġà¦ıà¦¸ à¦Ľ
Ġà¦ıà¦¸ à¦¡
Ġà¦ıà¦¸ à¦ĵà¦ıà¦¸
Ġà¦¢ à¦¨
Ġà¦¢ à¦ª
Ġà¦¢ à¦²à¦¨
Ġà¦¢ à¦²à¦¬
Ġà¦¢ à¦²à¦Ľ
Ġà¦¢ à¦īà§Ł
Ġà¦Ĩà¦ľ à¦¤
Ġà¦Ĩà¦ľ à¦²
à¦ķà¦² à¦ļ
à¦ķà¦² à¦¨à¦Ł
à¦ķà¦² à¦Ńà¦Ļ
Ġà¦Ĩà¦¬ à¦¸
Ġà¦Ĩà¦¬ à¦ľ
Ġà¦Ĩà¦¬ à¦§
Ġà¦Ĩà¦¬ à§°
à¦¬à¦¤ à¦²
à¦¬à¦¤ à¦ķà¦¨
Ġà¦ķà¦°à¦² à¦ĩ
à§ĩà¦ģ -
à§ĩà¦ģ à¥¤
à§ĩà¦ģ âĢĵ
à¦¸à¦¬ à¦Ĺ
à¦¸à¦¬ à¦¥
à¦¸à¦¬ à¦ĵ
à¦¤à¦¬ à¦Ł
à¦¤à¦¬ à¦ļ
à¦¤à¦¬ à¦Ń
à¦¤à¦¬ à§ľ
à¦¤à¦¬ à¦ī
à¦¤à¦¬ à¦ķà¦¬
à¦¤à¦¬ à¦¹à¦¨
à¦¤à¦¬ à¦§à¦°
Ġà¦¸à¦¤ à§İ
Ġà¦Ĩà¦¶ à¦¨
Ġà¦Ĺà¦² à¦Ł
Ġà¦Ĺà¦² à¦«
Ġà¦Ĺà¦² à¦ĺ
Ġà¦Ĩà¦¨ à¦¡
Ġà¦Ĩà¦¨ à¦¥
Ġà¦Ĩà¦¨ à¦ıà¦ķ
à¦ķà¦° à¦¹
à¦ķà¦° à¦ļ
à¦ķà¦° à¦¥
à¦ķà¦° à¦ľà¦¨
Ġà¦īà¦¦ à§Łà¦¨
Ġà¦īà¦¦ à§Łà¦Ĺ
Ġà¦īà¦¦ à§Łà¦ķ
Ġà¦¤à¦¬ à§İ
à¦¦à¦¨ à¦°
à¦¦à¦¨ à¦ªà¦°
à¦¦à¦¨ à¦°à¦¹
à¦¦à¦¨ à¦®à§Ł
à¦¦à¦¨ à¦¨à¦Ĺà¦°
à¦ķà¦Ł à¦¦
à¦ķà¦Ł à¦Ł
à¦ķà¦Ł à¦ľà¦¨à¦ķ
à¦¾- ,
à¦¾- âĢĶ
à¦°à¦¸ à¦ķ
à¦°à¦¸ à¦Ł
à¦°à¦¸ à¦ŀ
à¦°à¦¸ à¦®à¦¯
à¦°à¦¨ à¦¦
à¦°à¦¨ à¦ĩ
à¦²à¦ķ à¦ĩ
à¦²à¦ķ à¦Ľ
à¦²à¦ķ à¦¹
à¦²à¦ķ à¦¸à¦®
à¦²à¦ķ à¦¹à¦²
à¦²à¦ķ à¦ĺà¦¡
à¦°à¦¥ à¦ĵ
à¦¾à¦Ĥ âĢĻ
Ġà¦ħà¦° à¦²
Ġà¦ħà¦° à¦ļ
Ġà¦ħà¦° à¦«
Ġà¦¬à¦° à¦°
Ġà¦¬à¦° à¦Ł
Ġà¦¬à¦° à¦ĩà§Ł
à¦ķà¦¤ à¦ĵ
à§ĩ? !âĢĿ
Ġà¦®à¦¹ à¦²à¦¤
Ġà¦®à¦¹ à§İà¦¸
Ġà¦®à¦¹ à¦ľà¦Ĺà¦¤
à¦¯à¦¬ à¦¶
à¦¯à¦¬ à¦°à¦£
à¦¯à¦¬ à¦ļà¦¨
à¦¯à¦¬ à¦¸à¦°
Ġà¦¶à¦¬ à¦Ł
Ġà¦¶à¦¬ à¦ľ
Ġà¦ķà¦ĸà¦¨ à¦ħ
à§ĭà¥¤ -
à§ĭà¥¤ âĢ¦âĢĻ
Ġà¦¤à¦ĸà¦¨ à¦¤
à¦¦à¦° à¦ĩ
à¦¦à¦° à¦ĸ
à¦¦à¦° à¦¹
à¦¦à¦° à¦ĵ
à¦¦à¦° à¦ĵà¦¯
à¦¦à¦° à¦¦à¦°
à¦¦à¦° à¦¦à¦¸
Ġà¦ľà¦² à¦§à¦¨
Ġà¦ľà¦² à¦ļà¦²
Ġà¦ľà¦² à¦ªà¦¦
Ġà¦ľà¦² à¦¬à¦¦
Ġà¦ľà¦² à¦Łà¦²
Ġà¦ľà¦² à¦¸à¦Ļ
Ġà¦ľà¦² à¦®à¦¹
Ġà¦ľà¦² à¦¸à¦¹
à¦Ĺà¦¤ à¦¤
à¦Ĺà¦¤ à¦ª
à¦Ĺà¦¤ à¦ľà¦¨
Ġà¦ķà¦¬ à¦¯
Ġà¦ķà¦¬ à¦Ľà¦°
Ġà¦ķà¦¬ à¦·à¦ķ
Ġà¦ķà¦¬ à¦·à¦®
à¦°à¦¹ à¦°à¦¬
à¦°à¦¹ à¦®à¦¯
à¦°à¦¹ à¦°à¦ĩ
à¦°à¦¹ à¦¨à¦ķ
à¦°à¦¹ à¦°à¦Ń
à¦°à¦¹ à¦°à¦Ł
à¦°à¦¹ à¦¨à¦¯
à¦°à¦¹ à¦īà¦ªà¦Ĺ
à¦°à¦¹ oriz
Ġà¦¹à¦¤ à¦¸
Ġà¦ħà¦¤ à¦ªà¦°
à¦¿à¦Ĥ :
à¦¿à¦Ĥ ;
à¦¿à¦Ĥ ?âĢĿ
à¦¿à¦Ĥ âĢĻ-
à¦¿à¦Ĥ ),
à¦¿à¦Ĥ âĢĿà¥¤
à¦¿à¦Ĥ âĢĻâĢĶ
à¦°à¦¥à¦® à¦ĩ
Ġà¦°à¦ķ à¦¸
Ġà¦°à¦ķ à¦ª
Ġà¦¯à¦¦ à¦¬
à¦§à¦ķ à¦¸
à¦§à¦ķ à¦£
à¦§à¦ķ à¦¥
à¦§à¦ķ à§°
Ġà¦¸à¦¨ à§İà¦ķ
à¦¨à¦¬ à¦°à¦£
à¦¨à¦¬ à¦¦à¦²
à¦¨à¦¬ à¦¸à¦¹
à¦¨à¦¬ à§Łà¦¸
à¦¨à¦¬ à¦Ĺà¦ł
à¦¨à¦¬ à¦¦à¦°à¦¦
Ġà¦Ĩà¦ªà¦¨ à¦ĩ
Ġà¦Ĩà¦ªà¦¨ à¦ľà¦¨à¦ķ
Ġà¦¸à¦° à¦ª
Ġà¦¸à¦° à¦ĸ
Ġà¦¸à¦° à¦ļ
Ġà¦¸à¦° à¦«à¦°
Ġà¦¸à¦° à¦ªà¦ŀ
à¦§à¦¨ à¦ľ
à¦§à¦¨ à¦§
à¦§à¦¨ à¦ŀ
à¦¯à¦¤ à¦¸
à¦¯à¦¤ à¦ª
à¦¯à¦¤ à¦ĵ
à¦¯à¦¤ à¦¸à¦¬
Ġà¦ĺà¦° à¦ĩ
Ġà¦ĺà¦° à¦ĵ
Ġà¦ĺà¦° à¦ĵà¦¯
Ġà¦ĺà¦° à¦ĺà¦°
à¦²à¦¨ à¦²
à¦²à¦¨ à¦¯
à¦²à¦¨ à¦¦
à¦²à¦¨ à¦°à¦¤
à¦²à¦¨ à¦ķà¦¥
à¦¯à¦ķ à¦¶
à¦¯à¦ķ à¦¬à¦¨
Ġà¦ıà¦² à¦¦
Ġà¦ıà¦² à¦ĩ
à¦®à¦¤ à¦¸
à¦®à¦¤ à¦ª
à¦Ĩà¦® à¦¡
à¦¹à¦¸ à¦¨
à¦¹à¦¸ à¦ľ
à¦¹à¦¸ à¦¹
Ġà¦īà¦ª à¦²
Ġà¦īà¦ª à¦ª
Ġà¦īà¦ª à¦ļà¦°
Ġà¦īà¦ª à¦ļà¦¯
Ġà¦īà¦ª à¦¹à¦¤
Ġà¦īà¦ª à¦²à¦Ń
Ġà¦ıà¦®à¦¨ à¦¤
Ġà¦ıà¦®à¦¨ à¦¸à¦¬
à¦ļà¦¨ à¦°
à¦ļà¦¨ à¦¸
à¦ļà¦¨ à¦ĩ
à¦ļà¦¨ à¦ľ
à¦Ĺà¦² à¦°
à¦Ĺà¦² à¦¯
à¦Ĺà¦² à¦§
à¦Ĺà¦² à¦ĺ
à¦Ĺà¦² à¦ķà¦²
à¦Ĺà¦² à¦ªà¦¥
à¦Ĺà¦² à¦ľà¦¨à¦ķ
à¦Ĺà¦² à¦®à¦¹à¦²
à§ĩâĢĶ (
à¦°à¦¶ à¦²
à¦°à¦¶ à¦¬à¦¤
Ġà¦ķà¦² à¦¬
Ġà¦ķà¦² à¦¯
Ġà¦ķà¦² à¦¬à¦°
Ġà¦ķà¦² à¦®à¦ļ
Ġà¦ķà¦² à¦ıà¦²
à¦°à¦¦ à§Łà¦ķ
à¦²à¦¬ à¦®
à¦²à¦¬ à¦Ł
à¦²à¦¬ à¦ĵ
Ġà¦Ĩà¦¤ à¦¸à¦¬
à¦ļà¦² à¦ĩ
à¦ļà¦² à¦Ľ
à¦ļà¦² à¦¹
à¦ļà¦² à¦¨à¦ĵ
Ġà¦¸à¦¹ à¦¶
Ġà¦¸à¦¹ à¦®à¦¨
Ġà¦¸à¦¹ à¦¨à¦¯
Ġà¦¸à¦¹ à¦ħà¦¸
Ġà¦¸à¦¹ à¦ħà¦¬à¦¸
à¦®à¦ķ à¦®à¦²
Ġà¦ħà¦ª à¦¯
Ġà¦ħà¦ª à¦ľ
Ġà¦ħà¦ª à¦ķà¦²
Ġà¦ħà¦ª à¦Ĺà¦¤
Ġà¦ħà¦ª à¦¯à¦¶
à¦°à¦¯ à¦ª
à¦®à¦² à¦ª
à¦¹à¦° à¦ĵ
à¦¹à¦° à¦ı
à¦¸à¦¨ à¦°
à¦¸à¦¨ à¦ķà¦°
à¦¸à¦¨ à§İà¦ķ
à¦¸à¦¨ à¦¦à¦£
à¦°à¦ĩ à¦¨
à¦°à¦ĩ à¦Ń
à¦ªà¦¦ à¦¹
à¦ªà¦¦ à¦Ń
à¦ªà¦¦ à¦ľà¦¨à¦ķ
à¦°à¦ľ à¦Ł
à¦°à¦ľ à§Ł
à¦°à¦ľ à¦Ĺ
à¦°à¦ľ à¦Ļ
à¦°à¦ľ à¦¬à¦²
à¦¶à¦¨ à¦¯
à¦¶à¦¨ à¦¦
à¦¶à¦¨ à¦¸à¦®
à¦¶à¦¨ à¦Ĺà¦°
Ġà¦ķà¦£ à¦¸
Ġà¦ħà¦§ à§°
à¦ĸà¦² à¦¹
à¦ĸà¦² à¦Ń
Ġà¦ıà¦¤ à¦²
Ġà¦ıà¦¤ à¦ĵ
à¦ªà¦¤ à¦¤
à§Ģ, -
à§Ģ, âĢĻ
Ġà¦ķà¦¤ à¦Ń
à¦°à¦² à¦Ĺ
à¦°à¦² à¦²à¦¨
à¦¨à¦¨ à¦ķ
à¦¨à¦¨ à¦¦
à¦¨à¦¨ à¦Ĺà¦°
à¦¦à§Ł à¦ļ
à¦¦à§Ł à¦Ń
à¦¦à§Ł à¦Ļ
à¦¦à§Ł à¦¤à¦¨
à¦¦à§Ł à¦Ĺà¦¤
à¦¦à§Ł à¦ªà¦Ł
Ġà¦¬à¦¹ à¦ķ
Ġà¦¬à¦¹ à¦¬
Ġà¦¬à¦¹ à¦ļà¦°
Ġà¦Ĺà¦¡ à¦«
à¦ĩà¦² à¦¬à¦¨
Ġà¦°à¦Ļ à¦¨
Ġà¦°à¦Ļ à¦¤
Ġà¦°à¦Ļ à¦²
Ġà¦°à¦Ļ à¦®
à¦ķà¦¬ à¦¯
à¦ķà¦¬ à¦¸
à¦ķà¦¬ à¦§
à¦ķà¦¬ à¦Ľà¦°
à¦Ĺà¦¨ à¦ļ
à§İà¦¸ à§°
à§İà¦¸ à¦ķà¦ķ
Ġà¦ĩà¦¤ à¦²
à¦·à¦¤ à¦ĵ
à¦·à¦¤ à¦Ń
Ġà¦ľà¦® à¦®
Ġà¦ħà¦ļ à¦ķ
Ġà¦ħà¦ļ à¦²à¦¤
Ġà¦ħà¦ļ à¦®à¦ķ
à¦¯à¦¨ à¦¦
à¦ıà¦ĩ à¦¦
à¦ıà¦ĩ à¦ľà¦¨
à¦ıà¦ĩ à¦¸à¦¬à¦ĩ
Ġà¦¹à¦ł à¦¤
à¦ĩà¦¨ à¦¦
à¦ĩà¦¨ à¦¶
à¦ĩà¦¨ à¦¹
à¦ĩà¦¨ à¦Ń
à¦ĩà¦¨ à¦¬à¦¨
Ġà¦¨à§Ł à¦Ł
Ġà¦¨à§Ł à¦ĩ
Ġà¦¨à§Ł à¦¨à¦ļ
Ġà¦¨à§Ł à¦¨à¦ľ
à¦¼à§ĭ à¦ĥà¥¤
à¦¼à§ĭ ?âĢĿ
à¦¸à¦® à¦®
à¦¸à¦® à¦¶
à¦¸à¦® à¦ŀ
à¦¸à¦® à§Łà¦¤
à¦¸à¦® à§Łà¦ķ
Ġà¦īà¦¨ à¦¸à¦¤
Ġà¦ªà¦¦ à¦ĩ
Ġà¦ªà¦¦ à¦Ĺà¦°
Ġà¦ĵà¦ªà¦° à¦ķ
à¦¶à¦¬ à¦§
à¦¶à¦¬ à¦ļà¦¨
Ġà¦ħà¦®à¦² à¦ª
à¦Ńà¦¬ à¦£à¦ĩ
à¦¾âĢĶ ,
à¦®à¦° à¦°
à¦®à¦° à¦§
à¦®à¦° à¦ļ
à¦®à¦° à¦«
à¦®à¦° à¦Ĺà¦°à¦²
à§ģà¦ĥ ,
à§ģà¦ĥ -
à¦¹à¦² à¦ĵà¦¯
à¦¹à¦² à¦®à¦¯
à¦¹à¦² à¦Ńà¦°
à¦®à¦£ à¦®à¦£
à¦®à¦£ à¦¸à¦Ń
à¦Ĺà¦° à¦ĸ
à¦ªà¦¥ à¦ķ
à¦ªà¦¥ à¦ľ
à¦ªà¦¥ à¦¶
Ġà¦®à¦° à¦Ĺ
à¦¤à¦² à¦¯
à¦¤à¦² à¦¹
à¦¤à¦² à¦Ń
à¦¤à¦² à¦ĵà¦¯
à¦Łà¦ķ à¦¨
à¦Łà¦ķ à¦¸
à¦Łà¦ķ à¦ĩ
à¦Łà¦ķ à¦¶
à¦Łà¦ķ à¦£
à¦Łà¦ķ à¦®à¦¯
à¦Łà¦ķ à¦®à¦ŀ
Ġà¦¯à¦¤ à¦ľà¦¨
âĢ¦ âĢĶ
âĢ¦ !âĢĿ
âĢ¦ ?âĢĿ
âĢ¦ ,âĢĿ
Ġà¦ķà¦® à¦ĵ
Ġà¦ķà¦® à¦ł
Ġà¦ķà¦® à¦¬à¦¯
à¦¯à¦® à¦¸
à¦¯à¦® à¦®à¦¯
à¦¤à¦ķ à¦Ĺ
à¦¤à¦ķ à¦¹
à¦¤à¦ķ à¦¸à¦®
à¦¨à¦ķ à¦Ń
Ġà¦¶à¦° à¦Ĺ
Ġà¦¶à¦° à¦Ļ
Ġà¦¶à¦° à¦¬à¦¨
à¦°à¦ĵ à¦¨
à¦°à¦ĵ à¦¤
à¦°à¦ĵ à¦°à¦ĩ
Ġà¦¶à¦¹à¦° à¦ĩ
Ġà¦¶à¦¹à¦° à¦¬à¦¨
âĢĮ ,
âĢĮ à¦ĥ
âĢĮ âĢĮ
à§Ģà¥¤ à¥¤
à¦¸à¦° à¦Ł
à¦¸à¦° à¦ª
à¦¸à¦° à¦Ļ
à¦°à¦Ń à¦®
à¦·à¦ķ à¦¨
à¦·à¦ķ à¦ľ
à¦·à¦ķ à¦Ĺ
à¦·à¦ķ à¦¸à¦®
Ġà¦ħà¦ªà¦° à¦ľà¦¨à¦ķ
à¦¿à¦ģ !
à¦¿à¦ģ ,
à¦¿à¦ģ à¥¤
Ġà¦Ĺà¦¨ à¦²
à¦¿? âĢ¦
à¦¿? !âĢĿ
à¦¿? ..
à¦¿? ï»¿âĢĻ
à¦¾? !âĢĿ
à§įâĢĮ ?
à§įâĢĮ Â·Â·Â·
Ġà¦¬à¦ĩ à¦°
Ġà¦¬à¦ĩ à¦¹
Ġà¦¬à¦ĩ à¦ĺà¦°
Ġà¦¬à¦ĩ à¦Ńà¦°
Ġà¦¬à¦ĩ à¦«à¦°
Ġà¦Ĩà¦°à¦ĵ à¦ĩ
à¦¤à¦® à¦ŀ
à¦¤à¦® à¦¬à¦°
à¦¤à¦® à¦ªà¦¤
à¦¤à¦® à¦¹à¦²
à¦¤à¦® à§Łà¦¤
à¦¤à¦® à¦®à¦§
§à§ ¨
Ġà¦Ĳ à¦¦
à¦¬à¦¸ à¦ĵ
à¦¬à¦¸ à¦Ń
à¦¬à¦¸ à¦®à¦ķ
à¦ªà¦ķ à¦¨
à¦ªà¦ķ à¦ª
à¦ªà¦ķ à¦£
à¦Łà¦² à¦®
à¦Łà¦² à¦ĩ
à¦Łà¦² à¦ľ
Ġà¦ħà¦¶ à¦Ļ
Ġà¦«à¦² à¦²
Ġà¦«à¦² à¦Ľ
Ġà¦«à¦² à¦¹
Ġà¦«à¦² à¦ķà¦Ł
Ġà¦«à¦² à¦®à§Ł
à¦ıà¦ķ à¦ļ
à¦ıà¦ķ à¦ķà¦ķ
à¦ıà¦ķ à¦¸à¦Ł
à¦ıà¦ķ à¦ĩà¦Ń
à¦¦à¦² à¦°
à¦¦à¦² à¦¦
à¦¦à¦² à¦ĩ
à¦¦à¦² à¦Ľ
Ġà¦ħà¦² à¦¯
Ġà¦ħà¦² à¦ľ
Ġà¦ħà¦² à¦Ń
Ġà¦ħà¦² à¦¸à¦Ĺ
à¦ħà¦¨ à¦¸
à¦ħà¦¨ à¦Ĺ
à¦ħà¦¨ à¦¶à¦¨
à¦ħà¦¨ à¦Łà¦¨
à¦°à¦ª à¦¯
à¦°à¦ª à¦¸
à¦°à¦ª à¦ľ
à§° à¦Ľ
à§° à¦ĵ
à§° à¦ªà¦°
à§° à¦ľà¦¨
à§° à¦Ĺà¦¤
à§° à¦¹à¦°
à§° à¦Ńà¦¬
à§° à¦Ĺà¦°
à§° à¦®à¦¬
à§° à¦¹à¦¤
à§° à¦¬à¦ļ
à§° à¦¤à¦¹
à§° à¦®à¦¶
à§° à¦ľà¦Ĺà¦¤
à§° à¦ĸà¦ļ
à§° à§Łà¦ĩ
à§° à¦®à¦£à¦ķ
à¦¶à¦ķ à¦®
à¦¬à¦ķ à¦¸
à¦¬à¦ķ à¦Ĺ
à¦¬à¦ķ à¦¹
à¦¬à¦ķ à¦®à§Ł
à¦®à§Ł à¦®
à¦®à§Ł à¦ĩ
à¦®à§Ł à¦ķà¦°à¦¤
à¦ļà¦ķ à¦¥
à¦ļà¦ķ à¦Ń
à§Łà¦¨ à¦®
à§Łà¦¨ à¦ĩ
à§Łà¦¨ à¦Ĺ
à¦¹à¦¨ à¦®
à¦¹à¦¨ à¦¸
à¦¹à¦¨ à¦¶
à¦¹à¦¨ à¦Ĺà¦°
à¦¹à¦¨ à¦®à§Ł
à¦¼à§ĩ, âĢĿ
à§ĩ! !
à§ĩ! âĢĻâĢĶ
à¦ľà¦² à¦¸
à¦ľà¦² à¦ĸ
à¦ľà¦² à¦Ĺ
à¦ľà¦² à¦²à¦¤
à¦ľà¦² à¦¢
à¦ľà¦² à¦®à¦Ĺ
à¦®à¦¬ à¦ĸ
à¦®à¦¬ à¦¡
à¦®à¦¬ à§İà¦ª
Ġà¦ªà¦¤ à¦ªà¦¤
Ġà¦²à¦ķ à¦Ĺ
Ġà¦¶à¦¤ à¦¯
Ġà¦¶à¦¤ à¦ľà¦¨
à¦·à¦¯ à¦ľ
Ġà¦¸à¦®à§Ł à¦¤
Ġà¦¸à¦®à§Ł à¦ª
Ġà¦ĩà¦¨ à¦ķà¦°
Ġà¦ĩà¦¨ à¦¸à¦²
à¦¨à¦¦ à¦¸
Ġà¦Ĩà¦§ à¦ĺ
à¦¸à¦² à¦ľ
Ġà¦Ĺà§ľ à¦ªà§ľà¦¤
à¦·à¦° à¦«
Ġ( âĢľ
Ġ( ?),
Ġà¦Ī à¦¨
Ġà¦Ī à¦¥
Ġà¦Ī à¦¦à¦Ĺ
à¦ľà¦° à¦Ĺ
Ġà¦¨à¦¬ à¦Ń
Ġà¦¨à¦¬ à¦°à¦¤
Ġà¦¨à¦¬ à¦¸à¦¨
Ġà¦¨à¦¬ à¦¬à¦°à¦£
Ġà¦°à¦¬ à¦¬
Ġà¦°à¦¬ à¦°à¦¬
Ġà¦ħà¦¬à¦¸ à¦°à¦ķ
à¦ªà¦Ł à¦ªà¦Ł
à¦¨à¦° à¦°
à¦¨à¦° à¦ŀ
à¦¨à¦° à¦ļà¦¨
à¦¨à¦° à¦Ĺà¦°
à§ĩâĢĵ âĢĵ
à¦¬à¦¬ à¦ĩ
à¦°à¦ķà¦® à¦Ł
à¦ķà¦¨ à¦¶
à¦ķà¦¨ à¦ĸ
à¦¯à¦¦ à¦£
à¦ĸà¦¬ à¦ĩ
à¦¾! âĢĵ
à¦¾! ..
à¦¨à¦¸ à¦ľ
à¦¨à¦¸ à¦ļ
à¦¨à¦¸ à¦¡
à¦¨à¦¸ à¦Ń
à¦¨à¦¸ à¦Ĺà¦¤
ĠĊ Ċ
à¦¥à¦° à¦ĸà¦ļ
Ġà¦Ĩà¦¹ à¦ķ
Ġà¦Ĩà¦¹ à¦¬à¦¨
Ġà¦Ĩà¦¹ à¦¤à¦¦
Ġà¦Ľà¦¨ à¦Ľà¦¨
Ġà¦Ĩà¦Ļ à¦¡
Ġà¦Ĺà¦¤ à¦¦
à§ģà¥¤ âĢĶ
à¦ªà¦¸ à§°
Ġà¦Ĩà¦¸à¦² à¦Ł
à¦¼à§ģ !
à¦¨à¦Ĺ à§ľ
Ġà¦īà¦ªà¦° à¦ķ
Ġà¦īà¦ªà¦° à¦®
Ġà¦īà¦ªà¦° à¦¸
Ġà¦īà¦ªà¦° à¦Ł
Ġà¦¬à§Ł à¦²
Ġà¦ħà¦¬à¦¶ à¦¤
à¦«à¦² à¦¸
à¦«à¦² à¦ª
à¦°à¦Ľ à¦¡
à¦¨à¦² à¦¡
Ġà¦Ńà§Ł à¦¸
Ġà¦Ńà§Ł à¦¬à¦¹
à¦Ĺà¦ľ à¦ķ
à¦Ĺà¦ľ à¦¬
à¦Ĺà¦ľ à¦ļ
à¦Ĺà¦ľ à¦Ń
à¦Ĺà¦ľ à¦ĵà¦¯
à¦Ĺà¦ľ à¦ĸà¦£
Ġà¦ĭ à¦¯
à¦¥à¦¨ à¦ĩ
Ġà¦ļà¦ķ à¦ķà¦ļ
Ġà¦ļà¦ķ à¦°à¦¬à¦°à¦¤
à¦¼à§Ģ ?
à¦¸à¦ķ à¦®
à¦¸à¦ķ à¦Ĺ
à¦¸à¦ķ à¦Ń
Ġà¦¸à¦¹à¦ľ à¦ĩ
à¦°à¦Ĺ à¦ĵ
Ġà¦ĺà¦¨ à¦ľà¦Ļ
à¦ĺà¦° à¦ĸà¦°à¦ļ
à¦·à¦® à¦§
Ġà¦īà§İà¦¸ à¦ķ
Ġà¦īà§İà¦¸ à¦ĩ
Ġà¦īà§İà¦¸ à¦Ĺ
Ġà¦īà§İà¦¸ à¦¬à¦¨
Ġà¦¦à¦² à¦ª
Ġà¦¦à¦² à¦®à¦²
Ġà¦¦à¦² à¦Ĺà¦¤à¦Ń
à¦¹à¦¤ à¦ĩ
Ġà¦Ĩà¦¸à¦¬ à¦ĩ
à¦īà¦¨ à¦«
à¦°à¦®à¦£ à¦¨
à¦°à¦®à¦£ à¦®
à¦°à¦®à¦£ à¦¸
à¦°à¦®à¦£ à¦ľ
à¦°à¦®à¦£ à¦¸à¦¹
à¦°à¦¹à¦£ à¦®
à¦¾âĢĻ à¥¤âĢĿ
à¦¾âĢĻ );
!âĢĿ âĢĵâĢĵ
à¦¾; âĢĶ
à¦¾; âĢĵ
à¦ĩà¦¤ à¦°à¦¬
Ġà¦ªà¦² à¦®
à¦¾âĢĵ ?
à¦¾âĢĵ à¥¤
à¦¾âĢĵ âĢĿ
Ġà¦¬à¦Ł à¦ª
Ġà¦Ĩà¦ª à¦ľà¦¨
Ġà¦Ĩà¦ª à§İà¦ķ
Ġà¦Ĩà¦ª à¦§à¦°
à¦ĩà¦Ł à¦¬
à¦ĩà¦Ł à¦ª
à¦ĩà¦Ł à¦ľ
à¦ĩà¦Ł à¦«
Ġà¦¬à¦ķ à¦ª
à§Ŀ à¦¬
à§Ŀ à¦¦
à¦§à¦¬ à¦§
à¦§à¦¬ à¦§à¦¬
à§ĭ- à¥¤
Ġà¦īà§İà¦¸à¦¬ à¦Ł
Ġà¦īà§İà¦¸à¦¬ à¦§
Ġà¦īà§İà¦¸à¦¬ à¦ĵ
Ġà¦īà§İà¦¸à¦¬ à¦®à§Ł
Ġà¦īà§İà¦¸à¦¬ à¦§à¦°
à¦¦à¦® à¦¦à¦Ĺ
à¦Ĺà¦¬ à¦§
à¦Łà¦¬ à§ľ
à¦ķà¦¡ à¦ĩà¦¨
à¦ĩà¦¬ à¦īà¦¯
à¦²à¦Ľ à¦¤
à¦²à¦Ľ à¦Ł
à¦Ĩà¦² à¦¯
à¦Ĩà¦² à¦ªà¦¨
à¦°à§Ł à¦ķ
à¦°à§Ł à¦¸
à¦°à§Ł à¦¦
à¦Łà¦¨ à¦®
à¦®à¦Ĺ à¦§
à¦ľà¦¬ à¦ľ
à¦ľà¦¬ à§İ
à¦ľà¦¬ à¦īà¦®
à¦ľà¦¬ à§İà¦¸à¦²
à¦²à¦¸ à¦¦
à¦²à¦¸ à¦ĸ
à¦®à¦§ à¦®
Ġà¦¸à¦Ń à§Ł
à§ĭâĢĶ -
Ġ: à¥¤
à¦®à¦°à¦£ à¦ĩ
à¦®à¦¹ à¦¬
à¦®à¦¹ à¦°à¦®
?âĢĻ âĢĿ
à¦¹à¦°à¦£ à¦ķ
à¦¹à¦°à¦£ à¦¸à¦®
à¦Ĺà¦® à¦¦
à¦Ĺà¦® à¦ĩ
à¦Ĺà¦® à¦¥
ĠâĢĵ âĢĵ
ĠâĢĵ âĢľ
Ġà¦Ĩà¦¦à¦° à¦ĵ
Ġà¦Ĩà¦¦à¦° à¦Ńà¦°
Ġà¦Ĺà¦£ à¦ª
Ġà¦Ĺà¦£ à¦¶à¦ķ
Ġà¦Ĺà¦£ à¦¤à¦°à¦Ļ
Ġà¦Ĺà¦£ à¦ķà¦¬à¦°
Ġà¦Ĺà¦£ à¦¸à¦ļ
Ġà¦¨à¦°à¦® à¦¤à¦®
à¦¼à¦¾à¥¤ âĢ¦
Ġà¦§à¦¨ à¦¶
Ġà¦ħà¦« à¦¬
à¦łà¦ķ à¦ľ
à¦łà¦ķ à¦¬à¦¨
à¦łà¦ķ à¦¬à¦°
Ġà¦ªà¦¶ à¦¤
à¦¼âĢĶ -
Ġà¦¦à¦¶ à¦ķà¦°
Ġà¦¦à¦¶ à¦ªà¦¦
Ġà¦¸à¦¦ à¦¤
à¦¯à¦ª à¦Łà¦ķ
à¦£à¦ķ à¦®
Ġà¦ªà¦°à¦® à¦¶
Ġà¦ªà¦°à¦® à¦²à¦¤
Ġà¦ªà¦°à¦® à¦§à¦°
à¦ķà¦¥ à¦²
à¦ķà¦¥ à¦®
à¦²à¦Ĺ à¦£
à¦²à¦Ĺ à¦Ļ
à¦²à¦® à¦ĸ
à¦²à¦® à¦¶à¦²
à¦¿; âĢĵ
Ġà¦īà¦· à¦¸
Ġà¦²à¦ľ à¦Ł
Ġà¦¨à¦¨ à¦ĩ
Ġà¦Ńà¦¦ à¦ķ
?âĢĿ à¥¤
?âĢĿ âĢĵ
Ġà¦Ĺà¦¹ à¦£
à¦¼à¦Ĥ !
à¦¼à¦Ĥ -
à¦¿! âĢĶ
Ġà¦®à¦£ à¦ĵ
à¦ķà¦¶ à¦ĩ
à¦¤à¦¹ à¦¬
à¦·à§Ł à¦ª
Ġà¦¶à¦¹ à¦¦
Ġà¦¶à¦¹ à¦°à¦®à¦¯
à¦¸à¦¹ à¦ª
à¦¸à¦¹ à¦·
à¦¸à¦¹ à¦ķà¦°
à¦¸à¦¹ à¦§à¦°
à§Ģ? âĢĵ
à¦°à¦° à¦°
à¦ķà¦°à¦£ à¦ķ
à¦ķà¦°à¦£ à¦®
à¦ķà¦°à¦£ à¦Ĺ
à¦ķà¦°à¦£ à¦¹
Ġt e
Ġt w
Ġt re
Ġt ol
Ġt all
Ġt ra
Ġt ul
Ġt ill
Ġt ap
Ġt ek
Ġt able
Ġt ower
Ġt ouch
Ġt urn
à¦¼? )
à¦¼? âĢĶ
à¦®à¦ľ à¦Ĺà§İ
à¦īà¦² à¦ĩ
à¦īà¦² à¦«
Ġà¦®à¦² à¦¦
Ġà¦®à¦² à¦®à¦²
à¦¦à¦Ĺ à¦ŀ
à¦°à¦¬à¦² à¦ª
Ġà¦¬à¦¸à¦¨ à¦§
à¦®à¦¶ à¦¤à¦¬
à¦®à¦¶ à¦¤à¦¬à¦°
à¤ ¡
à¤ ĺ
à¦¬à¦ĩ à¦®
à¦¬à¦ĩ à¦ªà¦¤
Ġà¦ķà§Ł à¦¶
Ġà¦ķà§Ł à¦ľà¦¨
à¦¥à¦² à¦ĩ
à¦¥à¦² à¦®à¦£
à¦ķà§ľ à¦¦
à¦®à¦¦ à¦¸
à¦®à¦¦ à¦¶
Ġà¦ľà§Ł à¦ª
Ġà¦ľà§Ł à¦ļ
Ġà¦ľà§Ł à¦°à¦¥
Ġà¦¸à¦°à¦² à¦ª
Ġà¦ªà¦°à¦¶ à¦°
Ġà¦ªà¦°à¦¶ à¦®
Ġà¦ıà¦ķà¦® à¦ŀ
à¦ķà¦¸ à¦¦
à¦ķà¦¸ à¦ŀ
à¦ķà¦¸ à¦ĩà¦¤
à¦°à¦ĸ à¦£
à¦°à¦ĸ à¦°à¦¤
à¦ªà§ľ à¦ĵ
à¦¨à¦¶ à§Łà¦¤
à¦¬à¦¹ à¦¬
à¦¬à¦¹ à¦°à¦¸à¦¹
Ġà¦°à¦¸ à¦Ł
Ġà¦°à¦¸ à¦Ńà¦Ļ
Ġà¦°à¦¸ à¦¸à¦ŀ
à§© à§¦à§¦
à§© à§¬à§«
à¦¡à¦¬ à¦¡
à¦¡à¦¬ à§İ
à¦ªà¦® à¦²à¦¤
à¦¦à¦ķ à¦ĵ
à¦ĺà¦¨ à¦ĺà¦¨
an an
an ing
an as
an ge
an ie
à¦¬à¦Ľ à¦°à¦ĩ
in a
in ap
in ter
in ishes
à¦¯à§İ à¦®
Ġà¦¹à¦ĩ à¦¸
Ġà¦¹à¦ĩ à¦¹à¦Ł
Ġà¦¨à¦Ĺà¦° à¦Ł
Ġà¦¨à¦Ĺà¦° à¦Ĺ
Ġà¦¨à¦Ĺà¦° à¦ªà¦¥
à¦ĩà¦¡ à¦¸
à¦ĩà¦¡ à¦ª
à¦ĩà¦¡ à¦Ĺ
à¦ĩà¦¡ à¦ĵ
à¦¤à¦¸ à¦ĩ
à§« à§¨à§¦
à¦·à¦¦ à¦¶
à§ĩâĢ¦ ?
à§ĩâĢ¦ ?âĢĿ
Ġà¦¸à§İ à¦Ĺ
Ġà¦¸à§İ à¦ļà¦°à¦£
Ġà¦®à¦¦ à¦¶à¦ķ
à§ª à§ª
Ġà¦Ĭ à¦ķ
Ġà¦Ĭ à¦ľà¦²
Ġà¦Ĭ à¦¨à¦®
Ġà¦Ĭ à¦¨à¦ªà¦ŀ
à¦¨à¦ª à¦Ļ
Ġà¦ľà§ľ à¦¬à¦¸
Ġà¦ħà¦¤à¦² à¦¦
Ġà¦Ĺà¦°à¦® à¦ª
Ġà¦ħà¦®à¦° à¦ļà¦¨
à¦ķà¦ľà¦¨ à¦¦
à¦ķà¦ľà¦¨ à¦ĵ
Ġà¦®à¦¶ à¦¹
Ġà¦®à¦¨à¦¨ à¦®
Ġà¦®à¦¨à¦¨ à¦§
Ġà¦®à¦¨à¦¨ à¦Ĺà¦°
Ġà¦¤à¦¨ à§Ł
Ġà¦¤à¦¨ à¦ĸ
à¦¦à¦¸ à¦Ń
à¦°à¦« à¦Ł
à¦°à¦« à¦°à¦®
à¦Ĺà¦°à¦£ à¦ĩ
à¦ĩà¦Ń à¦Ł
à¦¿âĢĻ âĢĻâĢĶ
Ġà¦ħà¦¹ à¦¹
à¦ľà§Ł à¦¬
à¦ľà§Ł à¦ĩ
à¦ľà§Ł à¦ªà¦¥
à¦²à¦Ń à¦¤
à¦²à¦Ń à¦ª
à¦²à¦Ń à¦®à¦ª
Ġà¦Ĺà¦® à¦Ľ
à¦¬à¦£ à¦ĺà¦¨
à¦¬à¦£ à¦¬à¦§
à§ĩ?âĢĿ ,
à¦¤à¦Ń à¦ķ
à¦¾à¥¤âĢĻ âĢĻ
re al
re ct
re nt
re hen
Ġà¦ªà¦²à¦ķ à¦¬
Ġà¦ªà¦²à¦ķ à¦Ĺ
Ġà¦ªà¦²à¦ķ à¦Ńà¦°
à¦ħà¦¬ à¦Ĺ
à¦ħà¦¬ à§Łà¦¬
à¦²à¦ľ à¦«
à¦£à¦¬ à¦ľà¦ª
Ġà¦· à¦Ł
Ġà¦· à¦Łà¦ª
Ġà¦· à¦¬à¦¸à¦²
à§ĭ! âĢĶ
à¦īà¦Ł à¦¦
à¦¬à¦® à¦Ń
à¦¬à¦® à¦¹à¦²
à¦¬à¦® à¦§à¦°
à¦¬à§Ł à¦ķ
Ġà¦ıà¦°à¦ķà¦® à¦§
on ed
on om
à¦¨à¦Ľ à¦¡
Ġà¦ªà¦Ł à¦Ł
Ġà¦ªà¦Ł à¦ªà¦Ł
à¦ĩà¦¸ à¦Ĺ
à¦ĩà¦¸ à¦°à¦¯
à¦¬à¦ľà¦¨ à¦®
à¦¬à¦ľà¦¨ à¦¸
à¦¬à¦ľà¦¨ à¦ĩ
à¦¾à¦ĥ -
à¦¾à¦ĥ /
à¦¾à¦ĥ ?
à¦¾à¦ĥ !âĢĻ
à¦²à§Ł à¦¬
à¦²à§Ł à¦¶
à¦²à§Ł à¦Ĺ
à¦¦à¦¶ à¦¬à¦°
à¦¥à¦® à¦¥à¦®
Ġà¦«à¦¸à¦² à¦¸à¦ľ
Ġà¦Ĺà¦¦ à¦ĸ
à¦¶à¦¤ à¦¦à¦²
à¦Ĩà¦Ĺ à¦°à¦¤à¦²
Ġà¦ĩà¦² à¦¶
à¦ħà¦¤ à¦ĸ
Ġà¦ħà¦®à¦¨ à¦Ł
à¦¬à¦°à¦£ à¦¸
à§ĩâĢĻ à¥¤âĢĿ
à¦ľà¦Ĺ à¦ŀ
à¦ľà¦Ĺ à¦łà¦¨
à§Ń à§¬
à§Ń à§¯
à§Ń à§¬à§¨
Ġà¦°à¦¥ à¦¸
Ġà¦¬à¦ī à¦¡
Ġà¦¬à¦ī à¦¬à¦²
Ġà¦¬à¦ī à¦ĩà§Ł
Ġà¦¨à¦° à¦ŀ
Ġà¦¨à¦° à¦ļà¦¨
at al
at ha
at ive
at ter
at ory
at ib
at io
at ient
Ġà¦ļà¦°à¦® à¦°
Ġà¦Ŀà¦²à¦ķ à¦¨
al th
al ous
à¦ħà¦¸ à¦Ń
à¦ħà¦¸ à¦°à¦ķ
à¦ħà¦¸ à¦°à¦²
Ġthe m
Ġà¦Ŀà§ľ à¦®à¦¤
à§¬ à§§
à¦¯à¦ķà¦° à¦ĵ
Ġà¦¸à¦« à¦°à¦ķ
Ġà¦¸à¦« à¦²à¦ķ
à¦Ĩà¦¶ à¦Ļ
er o
er ma
er ci
er ious
er pet
Ġà¦ķà¦¬à¦° à¦Ĺ
is a
is ch
is per
à¦¿à¥¤âĢĻ âĢĻ
à¦¤à¦ľ à¦¡
à¦¬à¦ľ à¦¦
à¦¯à§Ł à¦¸
à¦¯à§Ł à¦¹
à¦¯à§Ł à¦¬à¦¹
Ġà¦ľà¦Ĺ à¦ľà¦¨
Ġà¦ľà¦Ĺ à§İà¦ª
à¦¯à¦Ĺ à¦ŀ
en e
en ess
à§® à§§à§ª
Ġà¦Ķ à¦°
Ġà¦Ķ à¦ļ
Ġà¦Ńà¦Ĺ à¦ĵà¦¯
à¦¼! !
à¦¼! )
à¦¾âĢ¦ .âĢĿ
à¦ķà¦ª à¦¯
à¦īà¦ľ à¦ĩ
à¦īà¦ľ à¦«
Ġà¦ħà¦¬à¦¹ à¦Ł
à¦¾âĢĿ ?
Ġà§© à§¬à§¦
Ġa u
Ġa ar
Ġa ge
Ġa head
Ġa fter
or s
or ld
or ium
Ġw ar
Ġw ant
Ġw ord
Ġw ell
Ġw inter
Ġà¦®à¦Ĺ à¦¯
Ġà¦®à¦Ĺ à¦§à¦¦
Ġs he
Ġs il
Ġs et
Ġs im
Ġs ch
Ġs ide
Ġs uc
Ġs ons
Ġs ings
Ġs ix
Ġs hel
Ġs ign
Ġs ound
Ġs uggestion
Ġs andy
Ġs ummer
Ġs ince
Ġs aid
à§Ģ! âĢ¦
it a
it ch
it ra
it ik
it ter
it Ã©
ar m
ar ic
ar le
ar un
ar ch
ar ly
Ġà¦ķà¦ļ à¦¹à¦°
à¦²à¦« à¦®
à¦Łà¦® à¦¹à¦²
à¦ĩà¦¦ à¦ŀ
Ġà¦Ŀà¦¨ à§İà¦ķ
à¦¤à¦°à¦£ à¦¶
à¦¤à¦°à¦£ à¦ĵ
à¦Ńà§Ł à¦Ļ
à¦§à¦® à¦ŀ
à¦ħà¦® à¦Ļ
à¦ħà¦® à¦°à¦¦
à§¨à§¦à§¦ à§¬
à¦ħà¦¦ à¦®à¦¨
à¦¿âĢ¦ âĢ¦
à¦¿âĢ¦ à¥¤âĢĿ
à¦¿âĢ¦ ?âĢĿ
ou l
éŁ¿éŁ¿éŁ¿éŁ¿ åĵį
à¦ªà¦Ĺ à¦ŀ
Ġb o
Ġb el
Ġb ra
Ġb ell
Ġb ack
Ġb attle
Ġb rok
Ġb irth
Ġb rings
Ġb arle
à¦ĭ à¦ķ
à¦ĭ à¦·à¦¯
à¦ĭ à¦£à¦ĵ
Ġà¦ķà¦²à¦°à¦¬ à¦ķ
Ġà¦ķà¦²à¦°à¦¬ à¦¹
Ġà¦ķà¦²à¦°à¦¬ à¦®à§Ł
à¦Łà¦ĸ à§ľ
à§Ģà¦Ĥ ?
Ġà¦ļà§ľ à¦Ł
Ġà¦ļà§ľ à¦ļ
Ġà¦ļà§ľ à¦ķà¦Ĺ
à¦ħà¦² à¦ĸ
à¦ħà¦² à¦¸à¦¤
à¦Ĳ à¦¨
à§ĭâĢĵ âĢĵ
à§ĭâĢĵ âĢľ
Ġà¦ķà¦®à¦² à¦¶
Ġà¦®à¦¡ à¦ķ
es ant
es ome
Ġà¦ıà¦¡ à¦®
à¦Łà¦¦ à¦·
à¦¨à¦ľà¦¨ à¦¨
and ra
ed ing
Ġm g
Ġm en
Ġm or
Ġm il
Ġm ad
Ġm ay
Ġm em
Ġm ain
Ġm ons
Ġm uch
Ġm iss
Ġm ost
Ġm eth
Ġm irth
Ġm used
Ġm erma
Ġà¦¬à¦¦ à¦ħà¦Ń
Ġà¦ħà¦¬à¦¨ à¦®
à¦¬à§ľ à¦¦
Ġà¦ħà¦ļà¦² à¦ª
Ġà¦Ŀà¦ķ à¦ľà¦ķ
Ġc a
Ġc y
Ġc le
Ġc ity
Ġc row
Ġc ry
Ġc ru
Ġc ric
Ġc off
Ġc ommun
Ġc oit
à¦¶à¦¹ à¦°à¦¬
Ġo der
Ġà¦¨à¦¹ à¦¬à¦¤
Ġà¦¨à¦¹ à¦¬à§İ
Ġà¦ĭà¦£ à¦®
Ġà¦ĭà¦£ à¦¸
Ġà¦Ńà¦°à¦¤ à¦Ń
Ġà¦Ńà¦°à¦¤ à¦·à¦Ń
à¦Łà¦Ĺ à¦ŀ
ĠI N
ĠI II
ĠI ran
ĠI NI
Ġà¦ļà¦°à¦£ à¦¸à¦®
à¦¬à¦Ĺ à¦łà¦¨
Ġà¦Ĺà¦łà¦¨ à¦¶
à§Īà¦ĥ !
à¦ĵà¦ĩ à¦¸à¦¬
à¦«à¦²à¦¨ à¦ĩ
à¦«à¦²à¦¨ à¦¶
Ġf ly
Ġf ind
Ġf ore
Ġf og
Ġf inal
Ġf ru
Ġf ull
Ġf air
Ġf atal
Ġn or
Ġn ut
Ġn um
Ġn ight
Ġn ose
Ġn iy
à¦ıà¦¸ à¦¡
à¦ıà¦¸ à¦ıà¦¸à¦¸
il d
il ac
Ġà¦¤à¦¦ à¦¬à¦§
Ġà¦¤à¦¦ à¦Ĺà¦¤à¦Ń
à¦·à¦ª à¦ŀ
à¦īà¦¤ à¦¥
!âĢĻ âĢĿ
Ġà¦®à§İà¦¸ à¦®
Ġà¦®à§İà¦¸ à¦¦
Ġà¦®à§Ł à¦®à¦¨à¦¸
Ġà¦Ĩà¦Ĺà¦®à¦¨ à¦ķ
Ġà¦ķà§ľ à¦ĩ
Ġà§§à§¯à§Ń à§Ń
Ġà¦¬à¦°à¦« à¦ļ
à¦¾?âĢĿ ,
à¦ĩà¦« à¦¤
à¦ĩà¦« à¦¸
à¦ĩà¦« à§Ł
à¦£à¦Ĺ à¦¹
âĢ¦âĢĿ ,
om in
om et
om os
om ination
ĠO F
ĠO ne
ĠO liver
ĠO xford
Ġà¦®à¦°à¦£ à¦ĵ
Ġà¦®à¦°à¦£ à¦ħà¦ħà¦£
Ġà¦¸à¦¸ à¦¹à¦°
Ġà¦Ĩà¦ĩ à¦¨à¦¤
Ġà¦Ĩà¦ĩ à¦¢
Ġà¦Ĩà¦ĩ à¦¹à¦¨
Ġà¦Ĩà¦ĩ à¦¡à¦²
Ġà¦Ĩà¦ĩ à¦īà¦¬
Ġà¦Ĩà¦ĩ à¦¹à¦¨à¦ķ
Ġà¦Ĺà¦Ĺà¦¨ à¦¸
Ġà¦Ĺà¦Ĺà¦¨ à¦Ľ
Ġà¦Ĺà¦Ĺà¦¨ à¦ªà¦¥
Ġà§ª à§ª
Ġà§ª à§¯
Ġd im
Ġd ra
Ġd row
Ġd etect
Ġd are
Ġd iss
Ġd esc
Ġd aught
Ġd ung
Ġd ays
Ġd rip
Ġd omin
à¦¯à¦°à¦ķà¦® à¦ĩ
Ġà¦ķà¦ĩ à¦°à¦¤
ĠS m
ĠS on
ĠS im
ĠS up
ĠS out
ĠS ci
ĠS elf
ĠS te
ĠS ek
ĠS eth
ĠS ankar
ĠS andy
ĠS ummer
ĠS eries
ĠS ahity
à§Ģ; -
à§ĩâĢĿ !
à§ĩâĢĿ âĢ¦.
à¦ļà¦¸ à¦ľ
ha ck
ha sa
ic k
ic ants
à¦ªà¦ľ à¦²à¦¬
Ġà¦īà§İà¦ķ à¦¨
Ġà¦ĩà¦¹ à¦ľà¦Ĺà¦¤
Ġà¦ħà¦²à¦ķ à¦ª
Ġà¦ħà¦²à¦ķ à¦¨à¦¨
Ġà¦ľà¦¨à¦Ĺà¦£ à¦ĩ
Ġà¦ľà¦¨à¦Ĺà¦£ à¦¨à¦¨
Ġà¦¦à¦®à¦¨ à¦¨
Ġà¦¦à¦®à¦¨ à¦ķ
Ġà¦¦à¦®à¦¨ à¦¹
Ġà¦¦à¦®à¦¨ à¦¶à¦ķ
à¦ľà¦ªà¦¥ à¦®à§Ł
Ġp ar
Ġp ol
Ġp ain
Ġp ine
Ġp oss
Ġp resent
Ġp lace
Ġp ains
Ġp ict
Ġp ersonal
Ġp hilosophy
Ġp atriot
Ġp atient
Ġp erpet
à¦¯à¦Ļ à¦ĸà¦²
ĠA l
ĠA pr
ĠA iy
ĠA yesha
ĠA utumn
ĠA kadem
Ġà¦ĺà¦· à¦ĺà¦·
Ġà¦¬à¦ĩà¦Ł à¦ĩ
à¦ķà¦« à¦ķ
le x
le ge
le ep
le bas
le gmatic
ve ll
ve pall
ro l
ro ve
ro ss
ro yed
Ġà§« à§©
Ġà§« à§«
Ġà§« à§Ń
as ant
as wami
Ġà¦ľà¦²à¦ª à¦¤à¦¨
Ġà¦¦à¦¹à¦¨ à¦¹
Ġà¦¶à¦¨ à¦¶à¦¨
ĠP K
ĠP M
ĠP and
ĠP un
ĠP ress
ĠP hen
ĠP eop
à¦°à¦ļà¦² à¦®
Ġà¦ĺà§ľ à¦ĺà§ľ
Ġà§§à§¦ à§¨
Ġà§§à§¦ à§§
Ġà§§à§¦ à§©
Ġà§§à§¦ à§«
Ġà§§à§¦ à§Ń
Ġà§§à§¦ à§¬
Ġà§§à§¦ à§¯
à¦°à¦¸à¦¬ à¦¸
à¦¬à¦ªà¦¨ à¦¦
à¦¬à¦ªà¦¨ à¦ª
à¦¬à¦ªà¦¨ à¦®à¦¯
Ġà¦¨à¦ĵ à¦ľ
Ġà¦¨à¦ĵ à¦²à¦ķ
à¦ĩà¦¶ à¦ľà¦¨
à¦Ļà¦¨ à¦§à¦°
Ġà§§à§¯à§« à§©
Ġà§§à§¯à§« à§Ń
Ġà§§à§¯à§« à§¯
Ġà§§à§¯à§« à§®
ut ch
Ġin st
Ġin ch
Ġin de
Ġin te
Ġin sp
Ġin vol
Ġà§§à§® à§¬
Ġà§§à§® à§¨à§¦
Ġà§§à§® à§§à§«
Ġà§§à§® à§¨à§«
Ġà§§à§® à§¯à§©
Ġà§§à§® à§¦à§¨
Ġà§§à§® à§«à§®
ĠC an
ĠC all
ĠC ity
ĠC op
ĠC our
ĠC ons
ĠC ase
ĠC CT
ĠC SI
ĠC ODE
à¥¥ âĢĿ
Ġà¦°à¦£ à¦¸
Ġà¦°à¦£ à¦®à¦¤
Ġà¦°à¦£ à¦ľà¦¯
Ġà¦°à¦£ à¦¯à¦ľ
à¦¼à¦¿à¦Ĥ ),
am s
am ph
am ala
à¦ľà¦¹ à¦°à¦¤
à¦·à¦Ĺ à¦¹
Ġth ings
Ġth ree
Ġth ought
ĠB an
ĠB el
ĠB urd
ĠB esant
à¦¨à§Ł à¦¦
à¦¨à§Ł à¦¶
à§§à§¨ à§«
Ġà¤ ¨
Ġà¤ ¯
Ġà¤ ĸ
Ġà¤ ļ
Ġà¤ Ń
Ġà§¬ à§©
ent ion
ent ile
à¦¡à¦¨ à¦§à¦°
Ġ[ *
Ġl at
Ġl ess
Ġl ater
Ġl ight
Ġl ink
Ġl aw
Ġl ull
Ġl oud
Ġà¦ķà¦°à¦£ à¦ªà¦¦
à¦Ĺà¦®à¦¨ à¦ķ
ol ve
ol factory
Ġe ther
Ġe ating
Ġe mp
à¦ªà¦¹ à¦ļ
ĠâĢ¦ âĢ¦âĢ¦.
ĠâĢ¦ .âĢĻ
Ġà§Ń à§¦
Ġà§Ń à§¦à§¦
Ġà§Ń à§Ń
ĠR ad
ĠR oy
Ġà¦ľà¦¨à¦ķ à¦¨à¦¨
ot e
ot ation
à¦£à¦¸ à¦ĸ
Ġà§§à§¨ à§«
Ġà§§à§¨ à§¯à§¯
el a
el y
el lect
à§ĭâĢ¦ âĢĻ
à§ĭâĢ¦ à¥¤âĢĿ
à¦ªà¦Ŀ à§ľ
à§§à§¯à§ ¯à§
Ġà¦ĵà¦ľà¦¨ à¦Ł
à¦¯à¦² à¦¹à¦°
à¦¸à§İ à¦®
à¦ĸà¦¬à¦° à¦Ł
un ci
un cle
Ġà§§à§© à§«
Ġà§§à§© à§®à§«
Ġà§§à§© à§ªà§«
Ġà§§à§© à§«à§§
à§ĩ) ?
à§ĩ) âĢĵ
Ġà¦ķà¦¤à¦¬ à¦¡
ĠD i
ĠD ist
ĠD har
ĠD ep
ĠD utta
ĠD ull
ĠD rip
ĠD ivide
ĠD aven
ĠD NA
ĠD anie
ĠT ik
ĠT od
ĠT wo
ĠT alking
ĠT ext
ĠT hack
à¦£à¦Ń à¦Ĺ
à¦ıà¦² à¦¡
à¦ıà¦² à¦Ĺà¦°
à§§à§¦ à§ª
à§§à§¦ à§Ń
et tle
à¦¡à¦¸ à¦ĵà¦¯
à¦¿âĢĻ, âĢĻ
à§°à¦¹ à¦īà¦ªà¦Ĺ
Ġà¦Īà¦Ĺà¦² à¦¦
Ġà¦²à¦¬à¦£ à¦®
Ġà¦²à¦¬à¦£ à¦Ł
Ġà¦²à¦¬à¦£ à¦ĩ
Ġà¦²à¦¬à¦£ à¦ļ
Ġà¦²à¦¬à¦£ à¦ļà¦²
st ation
st ood
à¦°à¦£à§Ł à¦¨à¦ķ
à¦°à¦£à§Ł à¦ķà¦²à¦¹
à§ĩâĢĻ, âĢĻ
ur a
ur bs
Ġà¦¤à¦Ł à¦¬à¦°
à¦¿,âĢĿ âĢĶ
ct rine
im es
im ated
Ġà§¦ à§§à§Ń
ow s
Ġh um
Ġh ath
Ġh olo
Ġà§® à§«
Ġà§® à§¦à§¦
Ġà§® à§¯
Ġà§® à§®
Ġbe ings
Ġbe ats
ĠM r
ĠM id
ĠM ah
ĠM icro
ĠM ystic
ĠM ichel
ĠM erci
ĠM omos
Ġà¦īà¦® à¦Ļ
Ġà¦ķà¦²à¦ķà¦² à¦§
Ġg ot
Ġg et
Ġg one
Ġg old
Ġg ives
à¦Ĺà¦¬à¦¤ à¦ª
Ġis sues
à¦ªà¦¶à¦¨ à¦Ł
id a
id ual
à¦¹à¦£ à¦¹
Ġà¦ľà¦²à¦¦ à¦Ĺà¦®
ch at
ch or
ig o
ig ure
ig ence
à¦īà¦ª à¦Ń
ĠL e
ĠL od
ĠL iter
ĠL ear
ĠL ove
ĠL ingu
ĠL ED
ĠL ilac
Ġà¦ķà¦¨à¦ķ à¦ķ
Ġà¦ķà¦¨à¦ķ à¦ª
ma d
Ġà§§à§Ń à§¯à§¯
Ġà§§à§Ń à§¯à§©
Ġà§¨à§¦ à§¨à§¦
Ġà§¨à§¦ à§¨à§¨
Ġà§¨à§¦ à§«à§¦
Ġfor get
Ġfor giv
à¦°à¦Ŀ à¦Ļ
à¦°à¦Ŀ à¦²à¦ķ
à¦·à¦¹ à¦ľ
à¤¾ ,
ra p
Ġà¦ĩà¦ī à¦Ń
Ġà¦ĩà¦ī à¦ıà¦¸à¦¬
Ġà¦ĩà¦ī à¦ıà¦¨
Ġre st
Ġre se
Ġre sp
Ġre present
Ġre volution
Ġre lief
ul y
à¦¿) âĢĶ
Ġà§§à§« à§§
Ġà§§à§« à§«à§«
à¦ľà¦Ĺà§İ à¦¬
à¦°à¦ĺ à¦¡
à¦°à¦ĺ à¦°à¦Ł
à¦ªà¦¤à¦¨ à¦ķ
ad er
ad har
ce ives
ce mber
ir al
ir ring
us c
ĠH ast
ĠH igh
Ġha st
Ġà¦®à¦¤à¦²à¦¬ à¦ĵ
Ġà§§à§¬ à§ª
Ġà§§à§¬ à§«à§¬
ĠN o
ĠN ex
ĠN ew
ĠN ij
ĠN ational
à¦°à¦¦à¦¯ à¦¨
Ġà§§à§ª à§«
Ġà¦Ĩà¦¹à¦°à¦£ à¦ķ
Ġà¦Ĩà¦¹à¦°à¦£ à¦ĩ
áĥ Ķáĥ
à§ĩ!âĢĻ âĢĿ
à¦Ĭ à¦¨
Ġà¦īà¦¦à§Ł à¦¶à¦Ļ
Ġà¦ķà¦²à¦¹ à¦ª
Ġà¦ķà¦²à¦¹ à¦ªà¦°
à¦¼âĢ¦ âĢĻ
à¦¼âĢ¦ .à¥¤
à¦¨à¦ªà¦¥ à¦ķ
à¦¯à¦Łà¦ķ à¦ķ
à¦¯à¦Łà¦ķ à¦¦
Ġà¦¤à§ľ à¦ª
Ġwh ite
Ġwh ile
Ġwh isper
Ġ19 à§¨
Ġà¦Ĺà¦ł à¦¨à¦ĩ
ĠE id
ĠE ast
ĠE very
à¦¼à§ĩ; âĢĶ
à¦¼?âĢĿ âĢĶ
Ġà¦²à¦¬ à¦£à¦ķ
Ġmy th
ĠW ind
ĠW ings
ĠW HO
ĠW hich
ĠW orld
à§į, à§ĩ
Ġà¦¨à¦ľ à¦°à¦ķ
Ġà¦¨à¦ľ à¦°à¦ĩ
Ġà¦®à¦ķ à¦¤à¦¬
à¤° à¤ķ
à¤° à¤£
ĠG au
ĠG IF
ĠG entile
Ġk ing
Ġk ath
Ġk rit
Ġk ob
Ġk aby
Ġk anya
Ġk ora
Ġk ettle
à§ĩà¦ĥ -
à§ĢâĢĻ, âĢĻ
Ġyou th
Ġyou ng
Ġà¦¦à¦²à¦¬ à¦¦à¦²
à¦Ĩà¦ļà¦°à¦£ à¦ķ
Ġà¦Ĺà¦²à¦¦ à¦ĺà¦¨
Ġà§§à§¯à§¬ à§©
Ġà§§à§¯à§¬ à§¬
Ġà§§à§¯à§¯à§ §
od e
od y
à¦¬à¦ľà¦Ĺà¦¤ à¦ķ
à¦¶à¦§à¦° à¦°
em per
Ġhe ar
Ġhe alth
Ġà¦¸à¦ªà¦¨ à¦ªà¦¥
Ġà¦ĸà¦¨à¦¨ à¦ª
à¦¼à§Ģà¥¤ âĢĿ
Ġà§¨à§« à§¯
Ġà§¨à§« à§¦à§¦à§¦
Ø§ Ùħ
Ø§ ÛĮ
à¦¯à¦¸à¦¨ à¦ľ
à¦®à¦īà¦¦ à¦¦
ub bish
Ġà¦¬à¦Ľ à¦°à¦ľ
Ġà¦ĵà¦°à¦ķà¦® à¦Ł
Ġà¦ĵà¦°à¦ķà¦® à¦Ń
à¦®à§Łà¦ķà¦° à¦Ń
à§§à§© à§Ń
à§§à§© à§§à§¬
th at
th ing
th rop
th rush
à§ĩ. à¥¤âĢĻ
Ġà¦¦à¦¹ à¦¨à¦ķ
à¦ľà¦ĸ à¦®à¦ĵ
à¦ľà¦°à¦£ à¦®
Ġà¦īà¦ĩ à¦ı
Ġà¦īà¦ĩ à¦ķà¦²
Ġà¦īà¦ĩ à¦¢
ab ha
ab indranath
ab omination
ĠK ing
ĠK ind
ĠK now
ĠK han
ĠK ingd
ĠK ines
ĠK amala
Ġà¦ªà¦Łà¦² à¦¦
Ġà¦ªà¦Łà¦² à¦Ń
Ġà¦®à¦¦à¦¨ à¦¹
Ġà¦®à¦¦à¦¨ à¦¶à¦°
Ġà¦§à¦¬à¦² à¦Ĺ
à§§à§® à§¯à§¯
Ġà§©à§¦ à§©à§Ń
ous ers
ous ness
ĠRe gards
ĠRe ader
qu ip
Ġà§¯à§ §
Ġà¦ªà§Ł à¦®à¦¨
Ġà¦Ĩà¦īà¦Ł à¦¡
Ġà¦Łà¦¬ à¦¬à¦¨
à¦¯à¦Łà¦¨ à¦¶
Ġà¦Ĩà¦ĩà¦¸ à¦¸
Ġst y
Ġst ory
Ġst one
Ġst ony
Ġst irring
um ed
her s
Ġà¦¤à¦¬à¦² à¦ļ
Ġà§§à§¯à§¨ à§¦
Ġà¦Ĩà¦ªà¦¸ à¦¹
à¦Ĩà§Ł à¦¤à¦¨
Ġà§§à§¯à§© à§¦
Ġà§§à§¯à§© à§«
à§§à§Ń à§«à§Ń
à§§à§Ń à§®à§«
ĠY am
ĠØ £
ĠØ µ
ĠØ Ń
ĠØ ¨Ø±
Ġan other
Ġor ange
Ġà¦Ĩà¦ªà¦¦ à¦Ł
à§§à§ª à§¦
à§§à§ª à§«
Ġde ÄŁ
Ġde ceives
ĠV ar
ĠV id
ĠV int
ĠV ira
Ġà¦ĸà¦ª à¦ĸà¦ª
Ġà§¨à§¬ à§¨
ĠInd ra
ĠInd igo
iv ated
iv idual
Ġv i
Ġv is
Ġv ill
Ġv isions
Ġro lled
Ġà¦ħà¦ĺà¦Łà¦¨ à¦ĩ
âĢĻâĢĵ âĢĺ
à¦ıà¦ĩà¦ļ à¦ıà¦¸à¦¸
ĠâĢĶâĢĶâĢĶ âĢĶâĢĶ
Ġà§§à§¯à§¦ à§¨
Ġà§§à§¯à§¦ à§§
à§§à§¯ à§¦à§¦
Â·Â·Â· âĢĻ
Â·Â·Â· à¥¤âĢĻ
à¦¡à¦īà¦ĩ à¦¥
Ġtr uly
Ġtr ousers
Ġman kind
ĠÐ ³
ĠÐ ´
ĠÐ ¸
ĠÐ º
ĠÐ ½
Ġà¦ľà¦¬à¦° à¦ľ
à¦ªà¦°à¦¸ à¦Ĺà¦¨
à¤ķ à¦²
à¤ķ à¤°à¤£
Ġà¦Ńà¦Ĺà¦¬à¦¦ à¦Ĺ
Ġwas t
Ġse i
Ġse em
Ġse ek
Ġse ems
ter ji
Ġun s
Ġun ion
Ġun ity
Ġun iver
Ġun de
Ġun done
Ġun know
à¦¯à¦¦à¦² à¦Ĺ
Ġà¦ķà¦®à¦¨ à¦ĵà¦¯
end e
Ġad m
aut o
aut horiz
aut onom
ci al
Ġà¦ªà¦ļà¦¨ à¦Ĺà¦¨
à§§à§« à§©
Ġam using
art y
art ment
à§įâĢį âĢĮ
ine ous
Ġlo v
à¥Ģ à¥¤
ang elo
iter ation
Ġme ans
Ġme aning
ser a
ãģ ¨
Ġj oint
à¦¨à¦ķà¦° à¦¨
Ġà¦Ĩà¦ī à¦¶
à¦Ĩà¦Ń à¦°à¦£
hak rish
ak en
ust ody
à¦¤à¦¸à¦® à¦°
à¦ıà¦°à¦ķà¦® à¦Ł
Ġà¦Łà¦Ļ à¦Łà¦Ļ
Ġà§§à§§à§ ©
Ġà§§à§§à§ Ń
Ġso il
Ġbrow n
ĠBo ok
ĠBo yce
Ð¾ Ñģ
Ð¾ Ðº
ÙĨ Ú¯
Ġr is
Ġr ich
Ġr hy
Ġr itual
Ġr ubbish
Ġal ong
ast ic
à¦ķà¦ľà¦®à¦ķ à¦ª
ĠUn win
ĠUn real
Ùħ Øª
à¸ ¡
à¸ ²
à¸ Ļ
av es
ud h
ud y
Åĵ à¦¨
à¦¬à§İà¦¸ à¦Ń
Ġà¦¡à¦ľà¦¨ à¦ĸ
Ġà¦ħà¦ªà¦¹à¦°à¦£ à¦ķ
à§ªà§© à§¯
à§§à§¯à§Ń à§¦
Ġ196 6
Ġà§¯à§« à§¦
Ġà§¯à§« à§Ń
Ġà¦¬à¦°à¦ķà¦¤ à¦īà¦²
ho st
ho od
Ð» Ðµ
ÑĢ Ð°Ð
àª §
àª ®
àª °
Ġë ĭ
Ġë ĳĺ
Ġë Ĵ¤
Ġì Ī
Ġì ĭľ
Ġà¦®à¦°à¦ķ à¦¤à¦ª
Ġà¦ĵà¦ĩà¦°à¦ķà¦® à¦ĩ
ass o
ass ion
ell est
ell igence
à§§à§¯à§ª à§ª
-- --
ie w
iz ed
ne w
Ġà¦ıà¦ķà¦§ à¦°à¦£
ank s
à§§à§¯à§© à§¯
TE CTED
ach ara
hat i
ĠÑ Ĥ
Ġim ag
Ġim per
Ġim ages
Ġim mor
à¦¸à¦ªà¦¨ à¦¸
Ġà¦Ĩà¦īà¦² à¦¦
Ġà¦Ĩà¦īà¦² à¦ļ
à¦Ĩà¦¸à¦¨ à¦¸
int ox
Ġab ove
Ġwor sh
ĠBe ing
ĠBe ach
ĠBe ats
à§§à§¯à§¬ à§¯
Ġ× ¨×¢×
Ġle aves
Ġáĥ ¡
Ġáĥ £áĥ
Ġáĥ ©áĥĲáĥ
à¦ķà¦ªà¦Ł à¦¤
à§ģ?âĢĻ -
à¦¦à¦ĸà¦² à¦¦
Ġà¦ıà¦¤à¦¬ à§ľ
Ġà¦ľà¦¹à¦° à¦²
à§°à¦®à¦£ à¦¤à¦Ĺ
Ġsp read
Ġsp oons
Ġcl ip
Ġcl own
Ġcl utch
ĠAr ch
Ġex per
Ġex ec
ĠTh is
ĠTh anks
Ġ197 1
Ġ197 3
Ġ197 4
Ġ197 à§¨
Ġ197 à§ª
age ment
ac count
Ð½ Ð¾
ĠJ ew
à¥ĭ à¤Ĥ
à¦ĩà¦ī à¦Ń
Ġà¦Ĺà¦°à¦¹ à¦ľà¦®
à¤£ à¦¤
à¤£ à¤µ
ĠDe cember
Ø§Ø ª
ere nce
Ð¸ ÑĢ
Ġed X
à¦¿ÂŃ ÂŃ
Ġà¦¯à¦®à¦¦ à¦£
Ġà¦ĸà¦¨à¦ķ à¦ķ
ĠRup a
are ful
bor n
ear ch
to col
ven eal
ven son
ved a
à¦²à¦®à¦¤ à¦ĩ
iss a
let s
Ġgrow n
Ġref lex
Ġref erence
åĵį éŁ¿éŁ¿éŁ¿éŁ¿éŁ¿éŁ¿éŁ¿éŁ¿éŁ¿éŁ¿éŁ¿éŁ¿éŁ¿éŁ¿éŁ¿éŁ¿éŁ¿éŁ¿éŁ¿éŁ¿éŁ¿éŁ¿éŁ¿éŁ¿
aw achara
pt ic
yst em
Â¦ à¦¾
ÙĬ ÙĨ
ÙĬ Ùĩ
à¦¿âĢĮ à¦ĥ
Ġà¦Ľà¦ª à¦Ľà¦ª
Ġà¦īà¦ĩà¦ķ à¦ıà¦¨
à¦Ĩà¦ĩà¦¸ à¦¸
hel mint
Ġac hes
Ġac cept
ĠInt rod
ĠInt elligence
ĠCh urch
ĠCh andra
CO P
Th ou
à« ĩ
à° ¤
à° ¶
à° ¾
ĠZ à¦¨à¦¤
ĠZ oom
à¦¦à¦¸à¦® à¦·
à¦ªà¦¹à¦¤ à¦ļ
à¦¡à§Łà¦¨ à¦ª
Ġà¦īà¦Ń à¦ļà¦°
à¦ľà¦¨à¦Ĺà¦£ à¦®à¦¨
Ġà¦ħà¦¬à§Ł à¦¬à¦ķ
ont u
Ġar gu
Ġsm ell
Ġfam ous
Ġdr um
Ġpro f
Ġpro se
Ġà§§à§®à§Ń à§¦
Ġà§§à§®à§Ń à§¨
Ġà§§à§®à§Ń à§©
Ġlong er
olog ical
à§§à§¯à§® à§Ń
ĠDo ver
Ġbec ome
Ġbec ause
ĠMem ory
bo ok
ric an
à´ ¤
Ġra pid
à¦¦à¦« à¦¤à¦°
à¦ĩà¦¥ à¦¨à¦ķ
Ġà¦¸à¦®à¦°à¦¸ à¦ļ
reat ment
Ġsh ould
Ġbre eding
ĠIs lam
Ġdo es
Ġdo ing
Ġdy nast
ĠAc adem
Ġà¤Ĩ à¤¤
à§§à§¯à§¨ à§¯
Ġà§§à§©à§¬ à§§
ular ity
az i
ex press
rid ors
xx xx
ym ph
Ñĥ Ð»
áĢ º
ĠX Z
ĠØ§ÙĦ Ùħ
à¦¼à¦¿âĢ¦ ?
Ġà§· à§·
anc es
ens ion
Ġag o
Ġsing ing
Ġsing ularity
Ġsun bur
Ġsub urbs
Ġcall ed
omen a
ĠSe en
ĠSt ates
ĠSt udy
ĠPh lebas
ĠPart ition
ĠCult ural
Ġà¤ī à¤¤
Ġà¤ī à¤ľ
Ġà¤ľ à¤¹
Ġà¤ľ à¤¬
ĠRam aswami
ĠMan ipur
ĠMar lbor
ĠMar xist
ĠLangu age
Ġher mit
opt ical
Ġorig in
Ġcons ider
Ġrock s
éŁ¿éŁ¿éŁ¿éŁ¿éŁ¿éŁ¿éŁ¿éŁ¿éŁ¿éŁ¿éŁ¿éŁ¿éŁ¿éŁ¿éŁ¿éŁ¿éŁ¿éŁ¿éŁ¿éŁ¿éŁ¿éŁ¿éŁ¿éŁ¿éŁ¿éŁ¿éŁ¿éŁ¿éŁ¿éŁ¿éŁ¿éŁ¿éŁ¿éŁ¿éŁ¿éŁ¿éŁ¿éŁ¿éŁ¿éŁ¿éŁ¿éŁ¿éŁ¿éŁ¿éŁ¿éŁ¿éŁ¿éŁ¿éŁ¿éŁ¿éŁ¿éŁ¿éŁ¿éŁ¿éŁ¿éŁ¿éŁ¿éŁ¿éŁ¿éŁ¿éŁ¿éŁ¿éŁ¿éŁ¿ éŁ¿éŁ¿éŁ¿éŁ¿éŁ¿éŁ¿éŁ¿éŁ¿éŁ¿éŁ¿éŁ¿éŁ¿éŁ¿éŁ¿éŁ¿éŁ¿
à§įà§įà§įà§į à§įà§įà§įà§į
æŃĵæŃĵæŃĵæŃĵæŃĵæŃĵæŃĵæŃĵæŃĵæŃĵæŃĵæŃĵæŃĵæŃĵæŃĵæŃĵæŃĵæŃĵæŃĵæŃĵæŃĵæŃĵæŃĵæŃĵæŃĵæŃĵæŃĵæŃĵæŃĵæŃĵæŃĵæŃĵ æŃĵæŃĵæŃĵæŃĵæŃĵæŃĵæŃĵæŃĵæŃĵæŃĵæŃĵæŃĵæŃĵæŃĵæŃĵæŃĵæŃĵæŃĵæŃĵæŃĵæŃĵæŃĵæŃĵæŃĵæŃĵæŃĵæŃĵæŃĵæŃĵæŃĵæŃĵæŃĵ
sych o
Sp ace
Sp irit
ace book
ty pe
ÙĤ Ø¯
ÙĤ Øµ
ĠÏ ĢÏģ
ĠÏ ĥÏħ
Ġend less
à¦¨à¦®à¦ķ à¦¬à¦°
à¦ķà¦¨à¦ķ à¦¨
Ġà¦¸à¦°à¦¹ à¦ª
à¦¡à¦¬à¦¬ à¦§
à¦ªà¦¨à¦¸ à¦°à¦¶
à¦Ĩà¦¦à¦® à¦¸à¦¨
Ġà¦ĩà¦¨à¦Ńà¦²à¦Ń à¦¡
Ġwind ing
Ġwind ward
Ġsk y
Ġsu itc
Ġbot toms
Ġmix ing
Ġcor ridors
Ġcha in
Ġchar ms
Ġoff end
ingu ished
ĠSun il
Ġpo is
Ġple asant
Ġpass ages
ĠAf ter
ĠAf rican
ĠPro veneal
ĠPur uravas
ĠComp any
ĠRah mat
Ġrec ogn
Ġres ign
Ġreal ms
Ġ19à§ª 3
Ġ19à§ª 6
ĠEd n
Ø§Ø± ÛĮ
Ġany thing
Ġcontri ved
Ġgood ly
IN G
Int r
RI DE
Sec ret
Sec ular
air s
lam p
Ùģ Ø±
Ùĳ Ùİ
à± ĥ
à± ĩ
ìĿ ĺ
Ġð ĿĽº
Ġð ŁĻĤ
Ġent ire
Ġqu ite
Ġqu otation
ĠÙĦ Ú©
à¦Łà¦Ĩ à¦ªà¦Ĺ
Ġà¦ħà¦¹à¦¨ à¦¹à¦¨
Ġà¦Ĺà¦Ĺ à¦¨à¦¬
à¦¡à¦¬à¦¸ à¦ĸ
à¦īà§İ à¦ķà¦²
ert ain
Ġwait ing
Ġsha red
Ġsha ped
éŁ¿éŁ¿éŁ¿éŁ¿éŁ¿éŁ¿ éŁ¿åĵį
Ġcur ious
Ġcur ios
Ġdid n
ĠSa xen
ĠSar ma
ĠSar vepall
Ġpre vious
Ġpur uravas
ĠAng el
ĠPra jna
ĠPap es
ĠPap ers
ĠPsych ical
ĠCent re
ĠBang la
Ġliter ary
str ong
Ġgu ess
Ġrev isions
Ġreap er
Ġreap ing
Ġstre et
Ġstre ng
ific ation
ĠØ´ Ø§Ø
ĠVis vam
Ġval o
ogn ition
à§©à§©à§©à§© à§©à§©
Ġjourney ed
ĠÑĪ ÐµÐ»
ĠáĥĽ áĥĲáĥ
ĠáĥĽ áĥĿáĥ
ĠIntegr ation
ĠHyacinth s
OO T
Relig ious
UM ANI
aud itory
cess ful
comp lis
del ved
mot or
night ed
sil on
wor k
à¬ ¾
ä¸ Ģ
ï¼ ŁâĢĿ
Ġess ay
Ġà¦Ĥ ,
à¦¸à¦°à¦¹ à¦¦
Ġà¦®à§İà¦¸à¦° à¦ŀ
à¦ªà¦ľà¦Ĺà¦¤ à¦Ł
à¦Ĺà¦ħ à¦ĩ
Ġà¦¶à¦ĵ à¦ķà¦¤
Ġà¦ļà¦°à¦ª à¦¡
à¤¼ à§ĩ
rest imated
Ġwhe el
Ġsc ene
Ġsist er
Ġmess age
Ġmarri age
Ġcent re
Ġflow ed
Ġnat ural
ĠOr issa
Ġdre ar
Ġdes ire
Ġdet ail
Ġdem ons
Ġdist inguished
Ġdest royed
ĠSpe cial
ĠAh mad
ĠAll en
Ġind ividual
Ġinter rupt
ĠCl ass
ĠCha dam
ĠChat terji
Ġequ al
Ġeven ing
ĠRes earch
ĠDE TECTED
Ġgl itch
ĠHar vest
Ġhappen ed
Ġmyst erious
ĠGos p
Ġkingd oms
Ġneigh bor
Ġhero ic
Ġà§¯à§§à§ §à§¨
ĠUnd er
Ġunder stood
Ġadopt ion
Ġamb itions
Ġmeasure d
Ġà§§à§§à§« à§¯
ĠëĪ Ī
Ġcontempor ary
Ġimport ant
Ġ×Ķ ×
Ġclust ers
ĠAss am
Ġenem y
ĠâĢĶâĢĶâĢĶâĢĶâĢĶâĢĶâĢĶâĢĶâĢĶâĢĶâĢĶ âĢĵ
Ġagain st
Ġhands ome
Ġconsci ousness
Ġcontribut e
Ġremind ed
ĠHaiha ya
Dig ital
Mong olo
Ph legmatic
Phil ip
Self ie
Sangu ineous
SDG s
Ur ban
VER RIDE
blow ing
cn ches
fil m
hre n
touch ing
uro pe
whol esome
ãĤ ĭ
åħ ī
êī Ĥ
íĻ Ķ
ïĢ £
Ġlect ures
Ġ34 0
Ġign or
Ġà¦ķà¦¹à¦ķ à¦¹
Ġà¦ķØ§Ø ¦ÙĨ
Ġà¦ªà¦ĩà¦ª à¦ĩ
à¦¦à¦ªà¦¸ à¦°à¦£
à¦¦ol at
Ġà¦®à¦¦à¦Ĺ à§°
à¦ĩà¦°à¦ĩ à¦Ľ
Ġà¦¹à§ľà¦¹ à§ľ
à¦ļal ela
Ġà¦Ĺà¦ħ à¦£à¦¤
Ġà¦Ľà¦Ĺà¦¨ à¦²
Ġà¦īà¦®à¦® à¦®
Ġà¦²à¦Łà¦¬ à¦¹à¦°
Ġà¦²à¦¬à¦¡ à¦Ļ
Ġà¦ĸà¦·à¦ĸ à¦·
à¦¿à¥¤ï»¿ )
Ġà¦Ŀà¦ªà¦Ŀ à¦ª
Ġà¦ĩà¦ıà¦Ł à¦¸
Ġà¦īà¦¦à§Łà¦Ĺ à¦Ĺà¦¨
à¦°à¦¹oriz on
à¦®à¦°à¦Ĺà¦°à¦² à¦ĸà¦£
Ġà¦ħà¦²à¦¸à¦Ĺ à¦®à¦¨
Ġtre es
Ġtol ls
Ġtra vell
Ġtap estry
inap ura
rehen s
Ġaar o
Ġsuc cessful
Ġshel ter
Ġsign s
Ġbra cnches
Ġbrok en
Ġbarle y
Ġmons oon
Ġmerma ids
Ġcrow d
Ġcru ellest
Ġcric ket
Ġcoff ee
Ġcoit us
ĠIran ian
ĠINI TIA
Ġfru its
Ġfatal istic
Ġnut riment
Ġnum bness
Ġniy e
Ġdim inishes
Ġdra ught
Ġdrow sy
Ġdetect ed
Ġdiss olve
Ġdaught er
Ġdung hill
ĠSte venson
ĠSek und
ĠSahity a
Ġpict ure
Ġperpet ual
ĠApr il
ĠAiy ar
ĠAkadem i
ĠPun jab
ĠPhen omena
ĠPeop les
Ġinde cisions
Ġinte gr
Ġinvol ved
ĠCons ider
ĠCCT V
ĠCODE SH
ĠBel le
ĠBurd wan
Ġlull aby
Ġether ised
ĠRad hakrish
ellect ual
unci ation
uncle an
ĠDist urb
ĠDhar ma
ĠDaven port
ĠTik Tok
ĠThack er
Ġhum an
ĠMid dle
ĠMicro film
ĠMichel angelo
ĠLod ge
ĠLiter ary
ĠLear ning
ĠLingu istic
ĠLilac s
Ġforgiv eness
Ġrese arch
ĠHast inapura
ĠNex us
Ġwhisper ing
ĠGau hati
emper or
Ġhealth ful
ĠKnow ledge
ĠKingd om
ĠKines is
quip e
ĠdeÄŁ il
ĠVint age
ĠVira ja
Ġuniver se
Ġunde restimated
Ġunknow n
authoriz ed
autonom y
Ġrhy me
Ġimper ial
Ġimmor tal
intox icants
Ġworsh ip
Ġ×¨×¢× ĵ
à¤£à¤µ à¦¤
areful ly
helmint hes
ĠIntrod uction
Ġargu ment
Ġdynast y
ĠAcadem y
Ġsunbur nt
ĠMarlbor ough
Ġsuitc ase
Ġcurios ity
ĠSaxen a
ĠSarvepall i
ĠVisvam ah
UMANI S
Ġinterrupt us
ĠChadam mi
ĠHarvest ing
ĠRadhakrish nan
