{"[PAD]":0,"[UNK]":1,"[CLS]":2,"[SEP]":3,"!":4,"\"":5,"#":6,"$":7,"%":8,"&":9,"'":10,"(":11,")":12,"*":13,"+":14,",":15,"-":16,".":17,"/":18,"0":19,"1":20,"2":21,"3":22,"4":23,"5":24,"6":25,"7":26,"8":27,"9":28,":":29,";":30,"<":31,"=":32,">":33,"?":34,"@":35,"A":36,"B":37,"C":38,"D":39,"E":40,"F":41,"G":42,"H":43,"I":44,"J":45,"K":46,"L":47,"M":48,"N":49,"O":50,"P":51,"Q":52,"R":53,"S":54,"T":55,"U":56,"V":57,"W":58,"X":59,"Y":60,"Z":61,"[":62,"\\":63,"]":64,"^":65,"_":66,"`":67,"a":68,"b":69,"c":70,"d":71,"e":72,"f":73,"g":74,"h":75,"i":76,"j":77,"k":78,"l":79,"m":80,"n":81,"o":82,"p":83,"q":84,"r":85,"s":86,"t":87,"u":88,"v":89,"w":90,"x":91,"y":92,"z":93,"{":94,"|":95,"}":96,"~":97,"¡":98,"¢":99,"£":100,"¤":101,"¥":102,"¦":103,"§":104,"¨":105,"©":106,"ª":107,"«":108,"¬":109,"®":110,"¯":111,"°":112,"±":113,"²":114,"³":115,"´":116,"µ":117,"¶":118,"·":119,"¸":120,"¹":121,"º":122,"»":123,"¼":124,"½":125,"¾":126,"¿":127,"À":128,"Á":129,"Â":130,"Ã":131,"Ä":132,"Å":133,"Æ":134,"Ç":135,"È":136,"É":137,"Ê":138,"Ë":139,"Ì":140,"Í":141,"Î":142,"Ï":143,"Ð":144,"Ñ":145,"Ò":146,"Ó":147,"Ô":148,"Õ":149,"Ö":150,"×":151,"Ø":152,"Ù":153,"Ú":154,"Û":155,"Ü":156,"Ý":157,"Þ":158,"ß":159,"à":160,"á":161,"â":162,"ã":163,"ä":164,"å":165,"æ":166,"ç":167,"è":168,"é":169,"ê":170,"ë":171,"ì":172,"í":173,"î":174,"ï":175,"ð":176,"ñ":177,"ò":178,"ó":179,"ô":180,"õ":181,"ö":182,"÷":183,"ø":184,"ù":185,"ú":186,"û":187,"ü":188,"ý":189,"þ":190,"ÿ":191,"Ā":192,"ā":193,"Ă":194,"ă":195,"Ą":196,"ą":197,"Ć":198,"ć":199,"Ĉ":200,"ĉ":201,"Ċ":202,"ċ":203,"Č":204,"č":205,"Ď":206,"ď":207,"Đ":208,"đ":209,"Ē":210,"ē":211,"Ĕ":212,"ĕ":213,"Ė":214,"ė":215,"Ę":216,"ę":217,"Ě":218,"ě":219,"Ĝ":220,"ĝ":221,"Ğ":222,"ğ":223,"Ġ":224,"ġ":225,"Ģ":226,"ģ":227,"Ĥ":228,"ĥ":229,"Ħ":230,"ħ":231,"Ĩ":232,"ĩ":233,"Ī":234,"ī":235,"Ĭ":236,"ĭ":237,"Į":238,"į":239,"İ":240,"ı":241,"Ĳ":242,"ĳ":243,"Ĵ":244,"ĵ":245,"Ķ":246,"ķ":247,"ĸ":248,"Ĺ":249,"ĺ":250,"Ļ":251,"ļ":252,"Ľ":253,"ľ":254,"Ŀ":255,"ŀ":256,"Ł":257,"ł":258,"Ń":259,"à¦":260,"à§":261,"Ġà¦":262,"à¦¾":263,"à§ĩ":264,"à¦°":265,"à§į":266,"à¦¿":267,"à¦¨":268,"à¦¤":269,"à¦²":270,"à¦ķ":271,"à§ģ":272,"à¦¬":273,"à¦¯":274,"à¦®":275,"à¦¼":276,"à§ĭ":277,"Ġà¦ķ":278,"Ġà¦¬":279,"Ġà¦¸":280,"Ġà¦ª":281,"à¦¸":282,"Ġà¦Ĩ":283,"à¥":284,"à¥¤":285,"à¦¦":286,"Ġà¦¨":287,"Ġà¦®":288,"à¦Ł":289,"à§Ģ":290,"à¦ª":291,"à¦ĩ":292,"Ġà¦¦":293,"Ġà¦¤":294,"à¦ľ":295,"à¦Ľ":296,"à¦¶":297,"Ġà¦¹":298,"Ġà¦ı":299,"à§Ł":300,"Ġà¦ħ":301,"à¦ĸ":302,"à¦·":303,"à¦Ĺ":304,"à¦¼à§ĩ":305,"à¦§":306,"âĢ":307,"Ġà¦¯":308,"à¦¹":309,"à¦ļ":310,"à¦£":311,"Ġà¦ķà¦°":312,"à¦ģ":313,"Ġà¦Ĺ":314,"à¦¡":315,"à¦¥":316,"Ġà¦¶":317,"Ġà¦ľ":318,"Ġà¦Ń":319,"Ġà¦ļ":320,"ĠĠ":321,"Ġà¦°":322,"à¦ĵ":323,"à§ĥ":324,"à¦Ń":325,"à§ĩà¥¤":326,"Ġà¦Ĩà¦®":327,"Ġà¦Ľ":328,"Ġà¦ıà¦ķ":329,"à§Ĥ":330,"à¦Ĥ":331,"à¦ł":332,"Ġà¦ī":333,"à¦Ļ":334,"à¦¾à¦ģ":335,"à§ĩ,":336,"à¦¼à¦¾":337,"Ġà¦¥":338,"Ġà¦ĵ":339,"à§ľ":340,"Ġà¦²":341,"Ġà¦«":342,"à¦°à¦¤":343,"Ġà¦Ĩà¦°":344,"Ġà¦ĸ":345,"Ġà¦¬à¦²":346,"Ġà¦ħà¦¨":347,"âĢĶ":348,"Ġà¦§":349,"à¦¾,":350,"Ġà¦ªà¦°":351,"à¦¾à¥¤":352,"à¦¬à¦¨":353,"Ġà¦¸à¦®":354,"Ġà¦¹à¦¯":355,"à¦ĸà¦¨":356,"Ġà¦ĺ":357,"ĠâĢ":358,"Ġà¦®à¦¨":359,"à¦°à¦£":360,"âĢĻ":361,"à¦®à¦¨":362,"à¦¿,":363,"à¦ªà¦°":364,"à¦¼à¦¿":365,"à¦ŀ":366,"Ġà¦ıà¦ĩ":367,"à§İ":368,"à¦°à¦¬":369,"à¦¤à¦°":370,"à¦Ŀ":371,"à¦ľà¦¨":372,"à¦¿à¥¤":373,"à¦ī":374,"Ġà¦ıà¦ķà¦Ł":375,"à¦¬à¦°":376,"Ġà¦Ĩà¦²":377,"à¦°à¦ķ":378,"à¦ªà¦¨":379,"à¦«":380,"à¦ı":381,"Ġà¦¸à¦¬":382,"à§Į":383,"Ġà¦Ĩà¦¸":384,"à¦Ĩ":385,"Ġà¦®à¦¤":386,"ĠĠĊ":387,"Ġà¦ķà¦¥":388,"à¦ĺ":389,"Ġà¦¡":390,"à§Ī":391,"Ġà¦Ĩà¦Ľ":392,"Ġà¦Ł":393,"Ġà¦ľà¦¨":394,"Ġà¦ıà¦¬":395,"à¦¬à¦ª":396,"à¦¬à¦²":397,"Ġà¦Ŀ":398,"Ġà¦¹à¦²":399,"ĠâĢĺ":400,"Ġà¦ĩ":401,"à§ģà¦ģ":402,"âĢĵ":403,"âĢĿ":404,"Ġà¦¹à§Ł":405,"Ġà¦īà¦ł":406,"à¦ĥ":407,"Ġà¦¬à¦²à¦²":408,"Ġà¦¹à¦¬":409,"Ġà¦¸à¦Ļ":410,"Ġà¦§à¦°":411,"Ġà¦ħà¦¬":412,"à¦·à¦£":413,"à¦¼à¥¤":414,"à¦ĵà¦¯":415,"Ġà¦®à¦§":416,"Ġà¦ķà¦°à¦¤":417,"à¦°à¦®":418,"Ġà¦ªà¦¡":419,"à¦¼,":420,"ĠâĢľ":421,"à¦¨à¦¤":422,"Ġà¦ļà¦²":423,"à§ĭà¦ģ":424,"Ġà¦ªà¦¥":425,"Ġà¦¬à¦¨":426,"Ġà¦¬à¦¸":427,"Ġà¦ĵà¦ł":428,"Ġà¦ł":429,"à¦ħ":430,"à¦¤à¦¨":431,"Ġà¦ħà¦®":432,"Ġà¦ıà¦¸":433,"Ġà¦¢":434,"Ġà¦¨à¦¤":435,"Ġà¦Ĩà¦ľ":436,"Ġà¦ħà¦¸":437,"à¦ķà¦²":438,"Ġà¦Ĩà¦¬":439,"Ġà¦Ĩà¦®à¦°":440,"Ġà¦Ĩà¦Ĺ":441,"à¦¬à¦¤":442,"Ġà¦ķà¦°à¦²":443,"à§ĩà¦ģ":444,"à§ĭ,":445,"Ġà¦Ĩà¦ķ":446,"à¦¸à¦¬":447,"à¦¤à¦¬":448,"Ġà¦¸à¦¤":449,"Ġà¦Ĩà¦¶":450,"Ġà¦Ĺà¦²":451,"Ġà¦Ĩà¦¨":452,"à¦ķà¦°":453,"Ġà¦īà¦¦":454,"Ġà¦¤à¦¬":455,"Ġà¦¨à¦¯":456,"à¦¦à¦¨":457,"à¦ķà¦Ł":458,"à¦¾-":459,"à¦°à¦¸":460,"à¦°à¦¨":461,"à¦²à¦ķ":462,"à¦°à¦¥":463,"à¦¾à¦Ĥ":464,"à¦¦à¦¯":465,"Ġà¦ħà¦°":466,"Ġà¦ıà¦ĸà¦¨":467,"Ġà¦¬à¦°":468,"à¦ķà¦¤":469,"à§ĩ?":470,"Ġà¦®à¦¹":471,"à¦¯à¦¬":472,"Ġà¦¶à¦¬":473,"Ġà¦ķà¦ĸà¦¨":474,"à§ĭà¥¤":475,"Ġà¦¤à¦ĸà¦¨":476,"à¦¦à¦°":477,"Ġà¦ľà¦²":478,"à¦Ĺà¦¤":479,"Ġà¦ķà¦¬":480,"à¦°à¦¹":481,"Ġà¦ħà¦¦":482,"Ġà¦¹à¦¤":483,"Ġà¦ħà¦¤":484,"à¦¿à¦Ĥ":485,"à¦°à¦¥à¦®":486,"Ġà¦°à¦ķ":487,"Ġà¦ħà¦Ń":488,"Ġà¦¯à¦¦":489,"à¦¨à¦ĵ":490,"à¦§à¦ķ":491,"à¦ĵà§Ł":492,"Ġà¦¸à¦¨":493,"à¦¨à¦¬":494,"Ġà¦Ĩà¦ªà¦¨":495,"Ġà¦¸à¦°":496,"Ġà¦¯à¦ĸà¦¨":497,"à¦²à¦¤":498,"à¦§à¦¨":499,"à¦¯à¦¤":500,"à§ĩ-":501,"Ġà¦ĺà¦°":502,"à¦²à¦¨":503,"à¦¯à¦ķ":504,"Ġà¦ıà¦²":505,"Ġà¦ªà§ľ":506,"à¦®à¦¤":507,"à¦Ĩà¦®":508,"à¦¹à¦¸":509,"Ġà¦īà¦ª":510,"Ġà¦ıà¦®à¦¨":511,"Ġà¦¸à¦®à¦¯":512,"à¦ļà¦¨":513,"Ġà¦ķà¦°à¦Ľ":514,"à¦Ĺà¦²":515,"à§ĩâĢĶ":516,"à¦¿à¦ĥ":517,"à¦°à¦¶":518,"Ġà¦¨à¦¦":519,"Ġà¦ķà¦²":520,"à¦°à¦¦":521,"à¦²à¦¬":522,"Ġà¦ķà¦°à¦¬":523,"Ġà¦Ĩà¦¤":524,"à¦ĸà¦¤":525,"à¦ļà¦²":526,"à¦®à¦¯":527,"Ġà¦¸à¦¹":528,"à¦®à¦ķ":529,"Ġà¦ħà¦ª":530,"à¦°à¦¯":531,"à¦®à¦²":532,"à¦¹à¦°":533,"à¦Ľà¦¨":534,"à¦¸à¦¨":535,"à¦°à¦ĩ":536,"à¦ªà¦¦":537,"à¦°à¦ľ":538,"à¦¶à¦¨":539,"Ġà¦¶à¦ķ":540,"Ġà¦ķà¦£":541,"Ġà¦ħà¦§":542,"à¦ĸà¦²":543,"Ġà¦ħà¦ķ":544,"Ġà¦Ńà¦°":545,"Ġà¦ıà¦¤":546,"à¦ªà¦¤":547,"Ġà¦īà¦łà¦²":548,"à§Ģ,":549,"Ġà¦ķà¦¤":550,"à¦°à¦²":551,"à¦¨à¦¨":552,"Ġà¦¬à¦¡":553,"Ġà§":554,"à¦¦à§Ł":555,"Ġà¦¬à¦¹":556,"Ġà¦Ĺà¦¡":557,"à¦ĩà¦²":558,"Ġà¦°à¦Ļ":559,"à¦ķà¦¬":560,"à¦¿-":561,"Ġà¦īà¦¤":562,"à¦Ĺà¦¨":563,"Ġà¦ħà¦ľ":564,"Ġà¦ĺà¦Ł":565,"à§İà¦¸":566,"Ġà¦ĩà¦¤":567,"à¦·à¦¤":568,"Ġà¦ľà¦®":569,"Ġà¦ħà¦¥":570,"Ġà¦ħà¦ļ":571,"à¦¯à¦¨":572,"à¦ıà¦ĩ":573,"Ġà¦¹à¦ł":574,"à¦ĩà¦¨":575,"Ġà¦¨à§Ł":576,"à¦¼à§ĭ":577,"à¦¸à¦®":578,"Ġà¦īà¦¨":579,"Ġà¦¹à¦ļ":580,"Ġà¦¤à¦°":581,"Ġà¦ªà¦¦":582,"à¦¬à¦¦":583,"Ġà¦ĵà¦°":584,"Ġà¦ĵà¦ªà¦°":585,"Ġà¦ħà¦Ĺ":586,"à¦¶à¦¬":587,"Ġà¦ħà¦®à¦²":588,"à¦°à¦ªà¦°":589,"Ġà¦¬à¦²à¦¤":590,"à¦Ńà¦¬":591,"à¦¾âĢĶ":592,"à¦®à¦°":593,"à§ģà¦ĥ":594,"à¦¹à¦²":595,"Ġà¦ıà¦ĸ":596,"à¦®à¦£":597,"à¦Ĺà¦°":598,"à¦ªà¦¥":599,"Ġà¦®à¦°":600,"à¦¤à¦²":601,"Ġà¦īà¦ļ":602,"à¦Łà¦ķ":603,"Ġà¦¯à¦¤":604,"Ġà¦Ľà¦¡":605,"âĢ¦":606,"Ġà¦ķà¦®":607,"à¦¯à¦®":608,"Ġà¦¸à¦®à¦¸":609,"à¦¤à¦ķ":610,"à¦¨à¦ķ":611,"Ġà¦¶à¦°":612,"à¦Ľà¦°":613,"à¦°à¦ĵ":614,"Ġà¦¶à¦¹à¦°":615,"âĢĮ":616,"Ġà¦¬à¦¯":617,"à§Ģà¥¤":618,"Ġà¦Ĺà¦Ń":619,"à¦¸à¦°":620,"à¦¤à¦¤":621,"à¦°à¦Ń":622,"à¦·à¦ķ":623,"Ġà¦ħà¦ªà¦°":624,"Ġà¦Ĺà¦°":625,"Ġà¦ıà¦Ĺ":626,"à¦¿à¦ģ":627,"Ġà¦Ĺà¦¨":628,"à¦¿?":629,"à¦¾?":630,"à§įâĢĮ":631,"Ġà¦¬à¦ĩ":632,"Ġà¦Ĩà¦°à¦ĵ":633,"Ġà¦¸à¦ķ":634,"à¦¤à¦®":635,"à§ģâĢĻ":636,"§à§":637,"ĠâĢĶ":638,"Ġà¦Ĳ":639,"à¦¬à¦¸":640,"à¦ªà¦ķ":641,"à¦Łà¦²":642,"à§ģ,":643,"Ġà¦ħà¦¶":644,"Ġà¦ıà¦Ł":645,"Ġà¦¬à¦Ľà¦°":646,"Ġà¦ĵà¦ĩ":647,"Ġà¦«à¦²":648,"à§İà¦ķ":649,"à¦ıà¦ķ":650,"à¦ļà¦°":651,"Ġà¦Ľà¦¬":652,"à¦¦à¦²":653,"Ġà¦ıà¦°":654,"Ġà¦ħà¦²":655,"Ġà¦ħà¦¨à¦¨":656,"à¦ļà¦¯":657,"Ġà¦Ŀà¦°":658,"à¦ħà¦¨":659,"à¦°à¦ª":660,"Ġà¦¦à¦°à¦ľ":661,"Ġà¦Ńà¦¯":662,"à§ĩ;":663,"à§°":664,"à¦¿âĢĶ":665,"à¦¶à¦ķ":666,"Ġà¦Ĩà¦¨à¦¨":667,"à¦°à¦¬à¦¤":668,"à¦¬à¦ķ":669,"Ġà¦ıà¦ķà¦ľà¦¨":670,"à¦ĩà¦°":671,"à¦®à§Ł":672,"à¦ļà¦ķ":673,"à¦¢":674,"à§Łà¦¨":675,"à¦£à¦¤":676,"à¦¼à§ĩà¥¤":677,"à¦§à¦¤":678,"à¦¯à¦¬à¦¹":679,"à¦¸à¦Ļ":680,"Ġà¦ıà¦ķà¦¦":681,"à¦¹à¦¨":682,"à¦¼à§ĩ,":683,"à§ĩ!":684,"Ġà¦īà¦ľ":685,"à¦¨à¦¬à¦¤":686,"à¦ľà¦²":687,"à¦®à¦¬":688,"Ġà¦ªà¦¤":689,"à¦°à¦ļ":690,"Ġà¦²à¦ķ":691,"Ġà¦¶à¦¤":692,"à¦·à¦¯":693,"Ġà¦¸à¦®à§Ł":694,"à¦Ŀà¦¤":695,"Ġà¦ĩà¦¨":696,"à¦¨à¦¦":697,"Ġà¦Ĩà¦§":698,"âĢľ":699,"à¦¸à¦²":700,"Ġà¦ħà¦¥à¦ļ":701,"Ġà¦Ĺà§ľ":702,"à¦·à¦°":703,"Ġà¦Ńà¦¬":704,"à¦¸à¦¤":705,"Ġ(":706,"Ġà¦¸à¦ķà¦²":707,"Ġà¦Ī":708,"à¦ľà¦°":709,"Ġà¦¨à¦¬":710,"à¥¤âĢĿ":711,"Ġà¦°à¦¬":712,"Ġà¦ĩà¦ļ":713,"Ġà¦īà§İ":714,"à¦°à¦Ł":715,"à§ģ-":716,"à¦¯à¦°":717,"à¦¯à¦¬à¦¸":718,"Ġà¦ħà¦¬à¦¸":719,"à¦ªà¦Ł":720,"Ġà¦ħà¦Ļ":721,"à¦¨à¦°":722,"à§ĩâĢĵ":723,"à¦¬à¦¬":724,"à¦ĩà¦ķ":725,"à¦°à¦ķà¦®":726,"Ġà§§à§":727,"Ġà¦Ĩà¦ľà¦ķ":728,"à¦¨à¦Ł":729,"à§¦":730,"à¦¬à¦¯":731,"à¦²à¦²":732,"à¦ķà¦¨":733,"à§Įà¦ģ":734,"à¦¯à¦¦":735,"Ġà¦ķà¦ĸà¦¨à¦ĵ":736,"Ġà¦ıà¦ķà¦¬":737,"à¦ĸà¦¬":738,"Ġà¦¬à¦²à¦Ľ":739,"Ġà¦īà¦¡":740,"à¦¾!":741,"Ġà¦Ľà§ľ":742,"Ġà¦Ĩà¦¦":743,"à¦¨à¦¸":744,"ĠĊ":745,"Ġà¦¬à¦¦à¦²":746,"Ġà¦Ĩà¦ļ":747,"à¦¯à¦¸":748,"Ġà¦¬à§ľ":749,"à¦¥à¦°":750,"Ġà¦Ĩà¦¹":751,"Ġà¦ªà¦ķ":752,"Ġà¦Ľà¦¨":753,"Ġà¦°à¦¹à¦¸":754,"Ġà¦Ĩà¦¡":755,"à¦§à¦°":756,"à¦Ļà¦²":757,"Ġà¦Ĩà¦Ļ":758,"Ġà¦Ĺà¦¤":759,"à§ģà¥¤":760,"à¦¯à¦¥":761,"à¦ªà¦¸":762,"¯à§":763,"Ġà¦Ĩà¦¸à¦²":764,"Ġà¦īà¦²":765,"à¦¼à§ģ":766,"à¦¨à¦Ĺ":767,"à¦°à¦¹à¦°":768,"Ġà¦ħà¦¥à¦¬":769,"Ġà¦¬à¦²à¦¬":770,"Ġà¦īà¦ªà¦°":771,"Ġà¦¬à§Ł":772,"à¦°à¦ľà¦¨":773,"Ġà¦ħà¦¬à¦¶":774,"à¦«à¦²":775,"à¦°à¦Ľ":776,"à¦¨à¦²":777,"Ġà¦Ńà§Ł":778,"à¦Ĺà¦ľ":779,"Ġà¦ĭ":780,"Ġà¦¤à¦²":781,"à¦¥à¦¨":782,"Ġà¦ļà¦ķ":783,"à¦¼à§Ģ":784,"à¦¸à¦«":785,"à¦¼à¦¾,":786,"Ġà¦ħà¦¦à¦®":787,"à¦¸à¦ķ":788,"Ġà¦¸à¦¹à¦ľ":789,"à¦ĸà¦Ľ":790,"à¦°à¦Ĺ":791,"Ġà¦Ĩà¦¸à¦Ľ":792,"à§ĭ?":793,"Ġà¦ĺà¦¨":794,"à¦¬à¦¶":795,"à¦ĺà¦°":796,"à¦Łà¦¤":797,"Ġà¦ļà¦°":798,"Ġà¦ĺà¦Łà¦¨":799,"à§Ģ-":800,"à¦·à¦®":801,"à¦ľà¦¯":802,"Ġà¦īà§İà¦¸":803,"Ġà¦¦à¦²":804,"Ġà¦ķà¦¯":805,"à¦¹à¦¤":806,"Ġà¦Ĩà¦¸à¦¬":807,"à¥¤âĢĻ":808,"Ġà¦ıà¦ķà¦ĩ":809,"à¦ľà¦¸":810,"à¦īà¦¨":811,"Ġà¦ĵà¦¦":812,"Ġà¦ķà¦ł":813,"Ġà¦¨à¦ķ":814,"à¦°à¦®à¦£":815,"à¦°à¦¹à¦£":816,"Ġà¦¹à¦ĵà¦¯":817,"à¦¯à¦¯":818,"Ġà¦¦à¦°":819,"à¦ıà¦°":820,"Ġà¦°à¦ķà¦®":821,"à¦¾âĢĻ":822,"à¦Ńà¦°":823,"!âĢĿ":824,"à¦¾;":825,"Ġà¦ĸà¦¬à¦°":826,"à¦®à¦¸":827,"Ġà¦¤à¦¥":828,"Ġà¦¹à¦°":829,"à¦ĩà¦¤":830,"à¦ªà¦·":831,"Ġà¦ªà¦²":832,"Ġà¦ıà¦¨":833,"à¦¾âĢĵ":834,"à¦ıà¦¬":835,"à¦ķà¦ķ":836,"Ġà¦¬à¦Ł":837,"à¦ĩà¦¯":838,"Ġà¦Ĩà¦ª":839,"Ġà¦ķà¦·":840,"à¦ĩà¦Ł":841,"Ġà¦ħà¦Łà¦²":842,"à§¨":843,"Ġà¦¬à¦ķ":844,"à§Ŀ":845,"à¦§à¦¬":846,"à¦¯à¦ĩ":847,"Ġà¦Ĩà¦¯":848,"à¦Ĩà¦ľ":849,"à§ĭ-":850,"Ġà¦īà§İà¦¸à¦¬":851,"Ġà¦īà§ľ":852,"Ġà¦¸à¦¤à¦¤":853,"à¦¦à¦®":854,"Ġà¦ľà¦¯":855,"à§ĩà¥¤âĢĿ":856,"Ġà¦Īà¦¶":857,"à§Łà¦¤":858,"Ġà¦¦à¦°à¦ķ":859,"à¦Ĺà¦¬":860,"Ġà¦Ĩà¦Ń":861,"à¦Łà¦°":862,"Ġà¦ıà¦ĸà¦¨à¦ĵ":863,"à¦Łà¦¬":864,"Ġà¦°à¦ĩà¦²":865,"Ġà¦ķà¦¨":866,"Ġà¦¤à¦¤":867,"à¦ķà¦¡":868,"Ġà¦¸à¦ļ":869,"Ġà¦§à¦°à¦¨":870,"à¦ĩà¦¬":871,"à¦ªà¦£":872,"Ġà¦Ĳà¦¤":873,"à¦²à¦Ľ":874,"Ġà¦¸à¦ŀ":875,"Ġà¦ľà¦¡":876,"à¦Ĩà¦²":877,"Ġà¦ľà¦°":878,"à¦ĸà¦°":879,"Ġà¦¯à¦¥":880,"à¦°à¦§":881,"à¦Ĩà¦°":882,"à¦°à§Ł":883,"à¦Łà¦¨":884,"à¦¶à¦ª":885,"à¦®à¦Ĺ":886,"à¦ªà¦¡":887,"à¦ľà¦¬":888,"à¦²à¦¸":889,"à¦ıà¦ķà¦Ł":890,"à¦®à¦§":891,"Ġà¦°à¦¯":892,"Ġà¦¸à¦Ń":893,"Ġà¦¸à¦¬à¦ļ":894,"âĢĻ,":895,"à§ĭâĢĶ":896,"Ġà¦Ĩà¦Łà¦ķ":897,"Ġà¦ıà¦¦":898,"Ġ:":899,"à¦®à¦°à¦£":900,"Ġà¦¯à¦¨":901,"à¦®à¦¹":902,"à¦¸à¦¬à¦ĩ":903,"à¦łà¦¸":904,"?âĢĻ":905,"à¦¹à¦°à¦£":906,"à¦·à¦®à¦¤":907,"Ġà¦¸à¦°à¦ķ":908,"Ġà¦Ĩà¦¸à¦¤":909,"à¦Ĺà¦®":910,"ĠâĢĵ":911,"Ġà¦Ĩà¦ľà¦ĵ":912,"Ġà¦Ĩà¦¦à¦°":913,"Ġà¦Ĺà¦£":914,"Ġà¦¨à¦°à¦®":915,"âĢĺ":916,"à¦¼à¦¾à¥¤":917,"à¦Ŀà¦²":918,"Ġà¦§à¦¨":919,"à¦¨à¦¯":920,"Ġà¦ħà¦«":921,"à¦łà¦ķ":922,"Ġà¦ªà¦¶":923,"à¦¼âĢĶ":924,"Ġà¦°à§Ł":925,"Ġà¦¦à¦¶":926,"à¦¨à¦Ń":927,"Ġà¦¸à¦¦":928,"Ġà¦°à¦ļà¦¨":929,"Ġà¦¤à¦ĸà¦¨à¦ĩ":930,"Ġà¦ªà¦°à¦¬à¦°":931,"à¦ķà¦¦":932,"à¦¯à¦ª":933,"à¦Ĩà¦®à¦°":934,"à¦ľà¦¤":935,"Ġà¦īà¦ªà¦¸":936,"à¦£à¦ķ":937,"Ġà¦¤à¦°à¦Ļ":938,"Ġà¦īà¦łà¦¤":939,"à¦ĥà¥¤":940,"à¦¬à¦ļ":941,"Ġà¦ªà¦°à¦®":942,"à¦ŀà¦¤":943,"à¦¡à¦²":944,"à¦ķà¦¥":945,"à¦²à¦Ĺ":946,"à¦²à¦®":947,"à¦¿;":948,"Ġà¦īà¦·":949,"Ġà¦²à¦ľ":950,"âĢĻà¥¤":951,"Ġà¦¨à¦¨":952,"à¦Łà¦«":953,"Ġà¦Ńà¦¦":954,"Ġà¦ıà¦¸à¦¬":955,"à¦¼-":956,"?âĢĿ":957,"à¦¨à¦ĩ":958,"Ġà¦ķà¦²à¦ķ":959,"à¦²à¦¯":960,"Ġà¦Ĺà¦¹":961,"à¦¿âĢĵ":962,"Ġà¦®à¦ŀ":963,"Ġà¦ıà¦Ń":964,"à¦®à¦Ł":965,"à¦¼à¦Ĥ":966,"à¦īà¦ķ":967,"à¦¿!":968,"Ġà¦®à¦£":969,"Ġà¦ªà¦¦à¦ķ":970,"à¦¶à¦²":971,"Ġà¦ħà¦¸à¦®":972,"à¦ķà¦¶":973,"à¦¤à¦¹":974,"Ġà¦®à¦¤à¦¨":975,"Ġà¦ħà¦ľà¦¸":976,"Ġà¦¨à¦ľà¦°":977,"à¦Ŀà¦°":978,"Ġà¦ķà¦ª":979,"à¦·à§Ł":980,"Ġà¦¶à¦¹":981,"Ġà¦°à¦®à¦£":982,"à¦¸à¦¹":983,"Ġà¦®à¦¸":984,"Ġà¦¦à¦ķ":985,"à§Ģ?":986,"Ġà¦®à¦ľ":987,"Ġà§§à§¯à§":988,"Ġà¦²à¦¡":989,"à¦°à¦°":990,"à§§à§":991,"à¦¸à¦®à¦¯":992,"à¦ķà¦°à¦£":993,"à¦ľà¦ķ":994,"à¦īà¦¯":995,"Ġt":996,"Ġà¦¸à¦¬à¦ĩ":997,"à¦ĩà¦Ľ":998,"à¦Ľà¦¬":999,"à¦¥à¦ķ":1000,"Ġà¦ļà¦¤":1001,"à¦¼?":1002,"à¦®à¦ľ":1003,"à¦īà¦²":1004,"Ġà¦®à¦²":1005,"à¦°à¦¬à¦¨":1006,"à¦ľà¦®":1007,"à¦¯à¦Ń":1008,"Ġà¦Ńà¦Ļ":1009,"à¦¦à¦Ĺ":1010,"à¦²à¦®à¦²":1011,"à¦°à¦¬à¦²":1012,"Ġà§¨":1013,"Ġà¦Ĩà¦°à¦®":1014,"à¦¤à¦¦":1015,"à¦ķà¦Ĺ":1016,"à¦¸à¦ª":1017,"Ġà¦¬à¦¸à¦¨":1018,"à¦®à¦¶":1019,"Ġà¦ļà¦®à¦ķ":1020,"à¦Ńà¦¯":1021,"à¤":1022,"Ġà¦ĵà¦ķ":1023,"à¦¬à¦ĩ":1024,"Ġà¦ıà¦®à¦¨à¦ķ":1025,"à¦Ĩà¦ªà¦¨":1026,"Ġà¦īà¦łà¦¬":1027,"à¦²à¦Ł":1028,"Ġà¦ķà§Ł":1029,"Ġà¦Ĩà§ľ":1030,"Ġà¦ļà¦²à¦¤":1031,"à¦¥à¦²":1032,"Ġà¦¨à¦®":1033,"à¦ķà§ľ":1034,"à¦£à¦¨":1035,"Ġà¦¹à¦¸":1036,"Ġà¦¹à§Łà¦¤":1037,"Ġà¦ľà¦¬":1038,"à¦¹à¦¯":1039,"he":1040,"à¦®à¦¦":1041,"à§§":1042,"Ġà¦ľà§Ł":1043,"à¦¤à¦ª":1044,"à¦°à¦Ĺà¦¤":1045,"à¦ªà¦ļ":1046,"Ġà¦Ĺà¦¬":1047,"à¦łà¦¨":1048,"Ġà¦¸à¦°à¦²":1049,"Ġà¦ªà¦°à¦¶":1050,"à¦ķà¦Ń":1051,"Ġà¦ħà¦°à¦£":1052,"à¦¬à¦Ń":1053,"Ġà¦ħà¦Ł":1054,"Ġà¦ıà¦ķà¦®":1055,"à¦ķà¦¸":1056,"à¦ļà¦¡":1057,"à¦ıà¦¸à¦¬":1058,"âĢĶâĢľ":1059,"à¦°à¦ĸ":1060,"Ġà¦ıà¦ķà¦¸à¦Ļ":1061,"Ġà¦īà¦°":1062,"Ġà¦¸à¦®à¦¨":1063,"à¦ªà§ľ":1064,"à¦¨à¦¶":1065,"Ġà¦ļà¦¨":1066,"à¦Ĺà¦£":1067,"à¦¾à¥¤âĢĿ":1068,"à¦Ĩà¦ķ":1069,"Ġà¦ªà¦£":1070,"à¦ıà¦Ł":1071,"Ġà¦¥à¦®à¦ķ":1072,"à¦¬à¦¹":1073,"Ġà¦°à¦¸":1074,"à¦ĩà§Ł":1075,"Ġà¦Ĺà¦Ļ":1076,"Ġà¦¸à¦ł":1077,"Ġà¦īà¦łà¦Ľ":1078,"Ġà¦ļà¦²à¦Ľ":1079,"Ġà¦¯à¦¤à¦ĩ":1080,"Ġà¦Ĩà¦ĺ":1081,"Ġà¦§à¦°à¦²":1082,"à§©":1083,"à¦¡à¦¬":1084,"à¦ªà¦®":1085,"à¦ªà¦²":1086,"Ġà¦¸à¦ľ":1087,"à¦¤à¦¨à¦¤":1088,"à¦¬à¦²à¦ľ":1089,"Ġà¦ıà¦ķà¦¤":1090,"à¦Łà¦ª":1091,"à¦¦à¦ķ":1092,"Ġà¦¹à¦¨":1093,"Ġà¦Ŀà¦²à¦®à¦²":1094,"à¦ļà¦¤":1095,"Ġà¦®à¦®à¦¤":1096,"Ġà¦ħà¦ŀ":1097,"à¦¹à¦ł":1098,"à¦ĺà¦¨":1099,"an":1100,"à¦¬à¦Ľ":1101,"à¦¾à¦ģ,":1102,"éŁ":1103,"à¦ļà§Ł":1104,"éŁ¿":1105,"à¦¹à¦®":1106,"à¦īà¦¦":1107,"Ġà¦ħà¦¤à¦ıà¦¬":1108,"Ġà¦ªà§ľà¦²":1109,"in":1110,"à¦¯à§İ":1111,"à¦¶à¦®":1112,"à¦°à¦Ļ":1113,"à¦ķà¦Ľ":1114,"Ġà¦¹à¦ĩ":1115,"Ġà¦ħà¦¸à¦¹":1116,"Ġà¦Ĳà¦ķ":1117,"Ġà¦ªà¦ŀ":1118,"Ġà¦¨à¦Ĺà¦°":1119,"à¦ĩà¦¡":1120,"à¦¤à¦¸":1121,"à§«":1122,"éŁ¿éŁ¿":1123,"à§¦à§¦":1124,"à¦·à¦¦":1125,"Ġà¦ħà¦ķà¦¸":1126,"Ġà¦ľà¦Ĺà¦¤":1127,"à¦¤à¦Ł":1128,"à§ĩâĢ¦":1129,"Ġà¦¸à§İ":1130,"Ġà¦®à¦¦":1131,"à§ª":1132,"Ġà¦Ĭ":1133,"à¦°à¦¦à¦°":1134,"à¦¨à¦ª":1135,"Ġà¦¬à¦ľ":1136,"à¦¨à¦ļ":1137,"à¦®à¦ļ":1138,"Ġà¦ľà§ľ":1139,"Ġà¦¦à¦®":1140,"à¦Ľà¦²":1141,"à¦¼;":1142,"Ġà¦ħà¦¤à¦²":1143,"à¦®à¦ª":1144,"Ġà¦Ĺà¦°à¦®":1145,"Ġà¦ħà¦®à¦°":1146,"à¦ķà¦ľà¦¨":1147,"à¦¦à¦Ł":1148,"Ġà¦ķà¦²à¦®":1149,"à¦ļà¦°à¦£":1150,"Ġà¦Ĩà¦ĩà¦¨":1151,"à§ĩà¥¤âĢĻ":1152,"à§¯à§":1153,"à¦¸à¦Ł":1154,"Ġà¦¸à¦ª":1155,"à¦īà¦°":1156,"Ġà¦®à¦¶":1157,"à¦¥à¦¤":1158,"à¦Ŀà¦ĸ":1159,"à¦·à¦Ł":1160,"Ġà¦ľà¦Ł":1161,"Ġà¦®à¦¨à¦¨":1162,"Ġà¦¨à¦·":1163,"Ġà¦¶à¦ªà¦¥":1164,"Ġà¦¬à¦¸à¦²":1165,"Ġà¦¤à¦¨":1166,"à¦¬à¦§":1167,"à¦¦à¦¸":1168,"à¦°à¦«":1169,"Ġà¦ļà¦Ł":1170,"à¦¬à¦²à¦¤":1171,"à¦°à¦¸à¦Ļ":1172,"à¦ħà¦°":1173,"à¦Łà¦Ľ":1174,"Ġà¦ĵà¦·":1175,"à¦¶à¦¯":1176,"à¦Ĺà¦°à¦£":1177,"Ġà¦ĺà¦£":1178,"Ġà¦¹à¦ĵà§Ł":1179,"à¦ķà¦£":1180,"Ġà¦Ĩà¦ĵà¦¯":1181,"à¦ĩà¦Ń":1182,"à¦¿âĢĻ":1183,"Ġà¦ħà¦¹":1184,"à¦īà§Ł":1185,"Ġà¦¸à¦¬à¦ķ":1186,"à¦ľà§Ł":1187,"à¦ıà¦ĸà¦¨":1188,"Ġà¦ĭà¦·":1189,"Ġà¦ļà¦¡":1190,"à¦ļà¦Ł":1191,"à¦²à¦Ń":1192,"Ġà¦Ĺà¦®":1193,"à¦®à¦¨à¦ĩ":1194,"à¦ĸà¦ķ":1195,"Ġà¦²à¦®":1196,"à¦¬à¦£":1197,"à§ĩ?âĢĿ":1198,"à¦¤à¦Ń":1199,"Ġà¦ªà¦Ľà¦¨":1200,"à¦ľà¦Ĺà¦¤":1201,"à¦Ľà¦¤":1202,"à¦¾à¥¤âĢĻ":1203,"à¦¼âĢĵ":1204,"à¦Ĺà¦¡":1205,"à§ĩ?âĢĻ":1206,"à¦¯à¦¹":1207,"Ġà¦ķà¦¤à¦Ł":1208,"re":1209,"à¦ıà¦ĸ":1210,"Ġà¦ªà¦²à¦ķ":1211,"à¦®à¦ªà¦°":1212,"Ġà¦Ĩà¦ļà¦°à¦£":1213,"Ġà¦Ŀà¦¡":1214,"à¦ħà¦¬":1215,"à¦¶à¦°":1216,"à¦²à¦ľ":1217,"Ġà¦Ĩà¦¨à¦¤":1218,"à¦°à¦¬à¦°":1219,"à¦¬à¦Ł":1220,"à¦¤à¦ĩ":1221,"à¦£à¦¬":1222,"à¦¨à§Łà¦¨":1223,"à¦²à¦ª":1224,"à¦ķà¦ĩ":1225,"Ġà¦·":1226,"Ġà¦ħà¦¨à¦²":1227,"à¦ĺà¦²":1228,"à¦ķà¦®":1229,"à¦¬à¦²à¦¨":1230,"à§ĭ!":1231,"à¦¸à¦¤à¦¤":1232,"à¦īà¦Ł":1233,"à¦¬à¦®":1234,"à¦¬à§Ł":1235,"Ġà¦ıà¦°à¦ķà¦®":1236,"on":1237,"Ġà¦ıà¦¤à¦ķ":1238,"Ġà¦īà¦ªà¦¨":1239,"à¦ķà¦ļ":1240,"à¦ļà§ľ":1241,"Ġà¦¬à¦ĩà¦¯":1242,"à¦¨à¦Ľ":1243,"Ġà¦ªà¦Ł":1244,"Ġà¦Ĩà§Ł":1245,"à¦ĩà¦¸":1246,"à¦ľà¦Ł":1247,"à¦Ĺà¦Ľ":1248,"à¦¬à¦ľà¦¨":1249,"à¦ħà¦ļ":1250,"à¦¾à¦ĥ":1251,"à¦²à§Ł":1252,"à¦ľà¦Ľ":1253,"à¦¸à¦Ľ":1254,"à¦¦à¦¶":1255,"à¦¡à¦¬à¦¦":1256,"Ġà¦īà¦ªà¦²à¦¬":1257,"Ġà¦²à¦²":1258,"à¦ķà¦ĸà¦¨":1259,"à¦¥à¦®":1260,"Ġà¦ļà¦²à¦²":1261,"Ġà¦«à¦¸à¦²":1262,"Ġà¦Ĺà¦¦":1263,"à¦¿à¥¤âĢĿ":1264,"Ġà¦¸à¦¹à¦®à¦°":1265,"à¦¦à¦¬":1266,"à¦¶à¦¤":1267,"Ġà¦°à¦ļ":1268,"Ġà¦¬à¦¸à¦¤":1269,"à¦®à¦¡":1270,"à¦Ĩà¦Ĺ":1271,"à¦¬à¦°à¦¤":1272,"Ġà¦¸à¦®à¦°":1273,"à§Łà¦®":1274,"Ġà¦ļà¦ŀ":1275,"Ġà¦Ĩà¦ķà¦°":1276,"Ġà¦²à¦¤":1277,"à¦ľà¦¨à¦ķ":1278,"Ġà¦ĸà¦¸":1279,"Ġà¦ĩà¦²":1280,"à¦ħà¦¤":1281,"à¦¬à¦¡":1282,"Ġà¦ħà¦®à¦¨":1283,"à¦ĩà¦ľ":1284,"Ġà¦ħà¦ªà¦®":1285,"à¦¬à¦°à¦£":1286,"à¦®à¦®":1287,"Ġà¦ķà¦Ł":1288,"à§ĩâĢĻ":1289,"à¦ĸà¦£":1290,"à¦°à¦ķà¦²":1291,"Ġà¦ıà¦¤à¦Ł":1292,"Ġà¦ħà¦¬à¦²":1293,"à¦ľà¦Ĺ":1294,"à§Ń":1295,"Ġà¦ªà¦¦à¦ļ":1296,",âĢĿ":1297,"à¦¤à¦Ĺ":1298,"Ġà¦ĵà¦ª":1299,"à¦¨à¦¬à¦ľ":1300,"à§įà¥¤":1301,"Ġà¦¶à¦Ļ":1302,"Ġà¦ľà¦¨à¦¨":1303,"Ġà¦¬à¦Ļ":1304,"Ġà¦°à¦¥":1305,"à¦¦à¦¹":1306,"à¦¶à¦Ł":1307,"à¦¸à¦¬à¦ķ":1308,"Ġà¦¬à§Łà¦¸":1309,"Ġà¦¬à¦ī":1310,"Ġà¦ľà¦Ļ":1311,"Ġà¦¨à¦°":1312,"Ġà¦ļà¦®":1313,"Ġà¦ĵà¦¯":1314,"Ġà¦ıà¦ķà¦²":1315,"Ġà¦ļà¦²à¦¬":1316,"at":1317,"à¦¯à¦¤à¦®":1318,"à¦§à¦¹à¦¯":1319,"Ġà¦ļà¦°à¦®":1320,"Ġà¦¶à¦¸":1321,"Ġà¦Ĭà¦°":1322,"à§ĩ:":1323,"Ġà¦Ŀà¦²à¦ķ":1324,"al":1325,"à¦¯à¦®à¦¯":1326,"à¦Ńà¦Ļ":1327,"à¦ľà¦ª":1328,"Ġà¦¸à¦¹à¦¸":1329,"à¦¼à¦¾-":1330,"à¦¬à¦²à¦Ľ":1331,"à¦ħà¦¸":1332,"Ġthe":1333,"à§ĩà¦¾":1334,"à¦²à¦ļ":1335,"à¦¸à¦¸":1336,"Ġà¦¸à¦¹à¦¯":1337,"Ġà¦īà§İà¦ª":1338,"Ġà¦Ŀà§ľ":1339,"à¦°à¦®à¦¶":1340,"à§¬":1341,"à¦¹à¦ķ":1342,"Ġà¦Ńà¦ķ":1343,"à¦¯à¦ķà¦°":1344,"Ġà¦¸à¦«":1345,"à¦ĵà¦°":1346,"âĢĶâĢĺ":1347,"à¦Ĩà¦¶":1348,"à¦¶à¦Ĺ":1349,"Ġà¦ªà¦¬":1350,"à§Łà¦Ĺ":1351,"à¦Ńà¦ķ":1352,"à¦Ī":1353,"Ġà¦¬à¦¸à¦¬":1354,"Ġ.":1355,"à¦²à¦ĩ":1356,"Ġà¦ĵà§ľ":1357,"Ġà¦ªà¦¯":1358,"à¦¸à¦Ń":1359,"à¦¼à¦¿,":1360,"er":1361,"Ġà¦¯à¦ľ":1362,"Ġà¦ıà¦ķà¦¸":1363,"Ġà¦¬à¦¨à¦¹":1364,"Ġà¦ķà¦Ļ":1365,"Ġà¦ķà¦¬à¦°":1366,"Ġà¦¨à¦ĩ":1367,"à¦¬à¦¨à¦ķ":1368,"Ġà¦īà¦ªà¦¹":1369,"is":1370,"à§¯":1371,"Ġà¦Ĩà¦®à¦¨":1372,"à§Łà¦ķ":1373,"Ġà¦ªà¦°à¦¸":1374,"à¦ľà¦¨à¦¶":1375,"à¦¤à¦°à¦Ļ":1376,"à¦¿à¥¤âĢĻ":1377,"à¦¬à¦¨à¦¯":1378,"..":1379,"à¦¨à¦®":1380,"à¦¤à¦ĸà¦¨":1381,"à¦£à¦¦":1382,"Ġà¦§à¦°à¦¤":1383,"Ġà¦¬à¦ŀ":1384,"Ġà¦®à¦¨à¦¸":1385,"Ġà¦Ĩà¦¬à¦¦":1386,"Ġà¦¬à¦ĩà§Ł":1387,"à¦¤à¦ľ":1388,"à¦¬à¦ľ":1389,"à¦Ľà¦ª":1390,"à¦¥à¦¬":1391,"à¦ĺà¦¶":1392,"Ġà¦ıà¦¤à¦¦":1393,"à¦¸à¦®à§Ł":1394,"Ġà¦¨à¦¡":1395,"à¦Ľà¦Ł":1396,"Ġà¦ıà¦ĩà¦¸à¦¬":1397,"à¦¯à§Ł":1398,"Ġà¦ľà¦Ĺ":1399,"Ġà¦ıà¦ķà¦¨":1400,"à¦ªà¦ķà¦¥":1401,"à§ĩ!âĢĿ":1402,"à¦¯à¦Ĺ":1403,"à¦¯à¦ĸà¦¨":1404,"à¦¶à§Ł":1405,"en":1406,"Ġà¦¬à¦¹à¦¨":1407,"Ġà¦ĭà¦¤":1408,"à§®":1409,"Ġà¦Ķ":1410,"Ġà¦ĩà¦¦":1411,"Ġà¦¢à¦²":1412,"à¦ªà¦Ľ":1413,"Ġà¦Ńà¦Ĺ":1414,"à¦Ĩà¦¬":1415,"à¦¦à¦¦":1416,"à§ĢâĢĶ":1417,"Ġà¦Ĺà¦¹à¦¨":1418,"âĢĻ-":1419,"à¦¼!":1420,"Ġà¦Ĩà¦¬à¦°":1421,"à¦¾âĢ¦":1422,"Ġà¦Ńà¦°à¦¸":1423,"à¦°à¦·":1424,"à¦ķà¦ª":1425,"à¦¯à¦ľ":1426,"Ġà¦¦à¦ĸà¦²":1427,"Ġà¦ĵà¦ĸ":1428,"à¦īà¦ľ":1429,"Ġà¦ħà¦¬à¦¹":1430,"à¦¾âĢĿ":1431,"Ġà¦ķà¦«":1432,"Ġà§©":1433,"Ġà¦ªà¦Ļ":1434,"Ġà¦®à¦Ļ":1435,"Ġà¦¤à¦ĸà¦¨à¦ĵ":1436,"à¦ĩà¦®":1437,"Ġà¦ĸà¦£":1438,"à¦Ĩà¦¸":1439,"à¦ĺà¦®":1440,"Ġa":1441,"Ġà¦¸à¦®à¦Ĺ":1442,"à¦¯à¦Ł":1443,"à¦Łà¦Ł":1444,"à¦ªà¦¬":1445,"à¦ıà¦®à¦¨":1446,"or":1447,"Ġw":1448,"Ġà¦®à¦¨à¦ķ":1449,"),":1450,"Ġà¦Ĩà¦ĵà§Ł":1451,"à¦Ĺà¦Ń":1452,"à¦ıà¦¸à¦¬à¦ĩ":1453,"Ġà¦Ĩà¦¸à¦¨":1454,"à¦īà¦¡":1455,"Ġà¦®à¦Ĺ":1456,"Ġà¦²à§ľ":1457,"à¦Łà¦«à¦°":1458,"à§ľà¦ķ":1459,"Ġs":1460,"à§Ģ!":1461,"it":1462,"à¦¯à¦¶":1463,"Ġà¦¨à¦ĩà¦²":1464,"Ġà¦ªà§ľà¦Ľ":1465,"Ġà¦¤à¦ªà¦¸":1466,"Ġà¦ĩà¦¸":1467,"ar":1468,"à¦¨à¦¹":1469,"Ġà¦ķà¦ļ":1470,"Ġà¦¨à¦Ĺ":1471,"Ġà¦Ŀà¦²à¦¸":1472,"à¦Ĩà¦ľà¦ķ":1473,"à¦²à¦«":1474,"Ġà¦ĩà¦Ļ":1475,"à¦®à¦Ľ":1476,"à¦Łà¦®":1477,"Ġà¦¶à¦¯":1478,"à¦ĵà¦¨":1479,"Ġà¦ħà¦¬à¦§":1480,"à¦Łà¦¸":1481,"à¦ĩà¦¦":1482,"Ġà¦¨à¦ķà¦¶":1483,"Ġà¦ıà¦°à¦ªà¦°":1484,"Ġà¦Ŀà¦¨":1485,"à¦¤à¦°à¦£":1486,"à¦²à¦¦":1487,"Ġà¦®à¦¯":1488,"à¦Ńà§Ł":1489,"Ġà¦¬à¦ªà¦¨":1490,"Ġà¦¨à§ľ":1491,"Ġà¦ĵà¦Ł":1492,"à¦°à¦ļà¦£":1493,"à§ĭ;":1494,"à¦¦à¦¤":1495,"à¦§à¦®":1496,"Ġà¦ªà¦¥à¦ļà¦²":1497,"Ġà¦¸à¦ĸ":1498,"Ġà¦Ĩà¦ĸ":1499,"à¦¤à¦Ľ":1500,"à¦ħà¦®":1501,"Ġà¦īà¦¦à¦¯":1502,"à¦¶à¦¹à¦°":1503,"à¦ļà¦¬":1504,"à¦ĩà¦ª":1505,"à¦·à¦¸":1506,"Ġà¦°à¦ŀ":1507,"à§¨à§¦à§¦":1508,"à¦¾:":1509,"Ġà¦Ĩà¦«":1510,"Ġà¦«à¦°":1511,"Ġà¦ĸà¦°à¦ļ":1512,"Ġà¦ļà¦®à§İà¦ķ":1513,"à¦®à¦ĩ":1514,"à¦¼à¦¿à¥¤":1515,"à§İà¦ª":1516,"à¦ħà¦¦":1517,"Ġà¦ķà¦ķ":1518,"à¦¿âĢ¦":1519,"Ġà¦¸à¦¤à¦°":1520,"Ġà¦ħà¦¬à¦¦":1521,"ou":1522,"Ġà¦ıà¦®à¦¨à¦ĩ":1523,"à¦¯à¦®à§Ł":1524,"éŁ¿éŁ¿éŁ¿éŁ¿":1525,"Ġà¦¸à¦®à¦¤":1526,"Ġà¦Ŀà¦°à¦¨":1527,"à¦²à¦¬à¦¨":1528,"à¦Ĩà¦¤":1529,"à¦¯à¦ĵ":1530,"à¦°à¦¥à¦®à¦¤":1531,"à¦°à¦¤à¦°":1532,"Ġà¦ĸà¦°":1533,"à¦ħà¦¬à¦¶":1534,"à¦ªà¦Ĺ":1535,"Ġà¦¯à¦®":1536,"Ġb":1537,"Ġà¦ķà¦¡":1538,"Ġà¦¹à§Łà¦¨":1539,"à¦·à§İ":1540,"Ġà¦¶à¦¤à¦ķ":1541,"à¦ĭ":1542,"à§Łà¦°":1543,"à¦ĸà¦¸":1544,"Ġà¦ıà¦ķà¦ķ":1545,"à§İà¦¸à¦¬":1546,"Ġà¦ķà¦²à¦°à¦¬":1547,"Ġà¦ªà¦¨":1548,"Ġà¦Ńà¦Ĺà¦¬":1549,"à¦Łà¦ĸ":1550,"à§Ģà¦Ĥ":1551,"Ġà¦ļà§ľ":1552,"à¦ıà¦Ń":1553,"à¦¾?âĢĻ":1554,"à¦¶à¦¦":1555,"à¦Ŀà¦¬":1556,"Ġà¦Ĩà¦²à¦®":1557,"Ġà¦ĩà¦¯":1558,"à¦ħà¦²":1559,"à¦ħà¦¶":1560,"à¦Ĳ":1561,"à§ģâĢĶ":1562,"Ġà¦°à¦¶":1563,"à¦¯à¦¬à¦¤":1564,"à§ĭâĢĵ":1565,"Ġà¦ķà¦®à¦²":1566,"à¦¸à¦°à¦£":1567,"Ġà¦®à¦¡":1568,"à¦ªà¦¯":1569,"Ġà¦¦à¦Ĺ":1570,"Ġà¦īà¦ªà¦ķ":1571,"Ġà¦¦à¦¯":1572,"Ġà¦¹à¦ĵ":1573,"Ġà¦Ĩà¦¬à¦Ľ":1574,"à¦°à¦¥à¦®à¦¬":1575,"es":1576,"Ġà¦ħà¦¬à¦ķ":1577,"à¦®à§ľ":1578,"à¦¦à¦£":1579,"à¦ªà¦¶":1580,"Ġà¦ıà¦¡":1581,"Ġà¦Ĳà¦¶":1582,"à¦¶à¦ĩ":1583,"Ġà¦Īà¦·à§İ":1584,"Ġà¦¬à¦§":1585,"à¦¸à¦ķà¦²":1586,"Ġà¦ĩà¦Ł":1587,"à¦¸à¦¦":1588,"à¦Łà¦¦":1589,"à¦ļà¦®":1590,"à¦¨à¦ľà¦¨":1591,"à§Łà¦¬":1592,"Ġà¦ıà¦ķà¦ĸ":1593,"and":1594,"ed":1595,"Ġm":1596,"Ġà¦¬à¦¦":1597,"Ġà¦ħà¦¬à¦¨":1598,"à¦¿?âĢĿ":1599,"Ġà¦¨à¦¬à¦ľ":1600,"à¦¬à§ľ":1601,"Ġà¦ħà¦ļà¦²":1602,"Ġà¦Ŀà¦ķ":1603,"Ġà¦ªà§ľà¦¤":1604,"Ġà¦ķà¦¤à¦ķ":1605,"à¦ľà¦ķà¦°":1606,"à¦Ńà¦¨":1607,"Ġà¦Ľà¦²":1608,"à¦ľà¦¨à¦¤":1609,"Ġà¦ĩà¦¸à¦²":1610,"âĢĿà¥¤":1611,"Ġà¦ªà¦¥à¦ļ":1612,"à¦¿?âĢĻ":1613,"à¦¸à¦²à¦®":1614,"Ġà¦ĩà¦¶":1615,"Ġ-":1616,"Ġà¦ıà¦ķà¦°":1617,"à§ľà¦¨":1618,"à¦Ŀà¦ķ":1619,"Ġà¦¯à¦¤à¦Ł":1620,"Ġc":1621,"à¦¦à¦ª":1622,"Ġà¦ľà¦¨à¦¸":1623,"à¦¶à¦¹":1624,"à§İà¦ªà¦°":1625,"Ġo":1626,"Ġà¦Ĺà¦ľ":1627,"Ġà¦ľà¦²à¦¬":1628,"Ġà¦īà¦ªà¦Ń":1629,"à¦ķà¦ł":1630,"Ġà¦¨à¦°à¦ķ":1631,"âĢĿ-":1632,"Ġà¦Ĩà¦¤à¦Ļ":1633,"Ġà¦Ĩà§Łà¦¨":1634,"Ġà¦¨à¦¹":1635,"Ġà¦¯à¦¤à¦¦":1636,"Ġà¦ĭà¦£":1637,"Ġà¦°à¦¤":1638,"à§ĭâĢĻ":1639,"Ġà¦¬à¦¶":1640,"à¦Ńà¦¬à¦¤":1641,"Ġà¦ľà¦²à¦°":1642,"à¦¿à¦Ĥ-":1643,"à¦ķà¦·":1644,"Ġà¦Ńà¦°à¦¤":1645,"Ġà¦ľà¦Ĺà§İ":1646,"à¦¬à¦¤à¦¨":1647,"Ġà¦¸à¦°à¦¸":1648,"à¦ĸà¦Ł":1649,"à¦¤à¦¬à¦¤":1650,"à¦Łà¦Ĺ":1651,"ĠI":1652,"à§Łà¦¸":1653,"à¦Ĺà¦¸":1654,"Ġà¦ĺà¦¡":1655,"Ġà¦ıà¦ĸà¦¨à¦ĩ":1656,"Ġà¦¦à¦£":1657,"Ġà¦ļà¦°à¦£":1658,"Ġà¦ħà¦¨à¦¬à¦¦":1659,"à¦°à¦£à¦¯":1660,"Ġà¦Ĩà¦¸à¦°":1661,"Ġà¦Ĩà¦¹à¦¤":1662,"Ġà¦ħà¦Ĺà¦£":1663,"à¦¬à¦Ĺ":1664,"Ġà¦®à¦Ĺà¦ľ":1665,"Ġà¦Ĺà¦łà¦¨":1666,"Ġà¦Ĩà¦¸à¦®":1667,"à§Īà¦ĥ":1668,"à¦ħà¦Ń":1669,"à¦®à¦ĵ":1670,"à¦£à¦®":1671,"à¦ĵà¦ĩ":1672,"Ġà¦ĵà¦¡":1673,"Ġà¦ªà§ľà¦¬":1674,"à§ĩâĢĶâĢľ":1675,"à¦¾!âĢĿ":1676,"à¦·à¦¬":1677,"à¦Ĺà¦¦":1678,"Ġà¦ıà¦ķà¦¶":1679,"à¦«à¦²à¦¨":1680,"à¦ıà¦ķà¦¦":1681,"à¦¸à¦°à¦ķ":1682,"à¦Ľà¦Ĺ":1683,"à¦ıà¦Ĺ":1684,"à¦ħà¦Ĺ":1685,"Ġà¦īà¦ªà¦¯":1686,"Ġà¦Ĩà¦ļà¦®à¦ķ":1687,"Ġf":1688,"Ġà¦¤à¦ª":1689,"Ġn":1690,"Ġà¦Ĩà¦Ł":1691,"Ġà¦Ĩà¦¨à¦¬":1692,"à¦ĸà¦ļ":1693,"Ġà¦ļà¦¶à¦®":1694,"à¦ıà¦¸":1695,"à¦Ĩà¦ļ":1696,"Ġà¦¬à¦¨à¦¬":1697,"Ġà¦īà¦ªà¦¦":1698,"Ġà¦¬à¦°à¦£":1699,"Ġà¦ķà¦¤à¦¦":1700,"Ġà¦ļà¦ķà¦ļà¦ķ":1701,"il":1702,"Ġà¦¦à¦¤":1703,"Ġà¦īà¦ķ":1704,"Ġà¦¯à¦¯":1705,"à§İà¦¸à¦°":1706,"Ġà¦¤à¦¦":1707,"à¦¶à¦¸":1708,"Ġà¦Ĩà¦®à¦²":1709,"Ġà¦²à¦¹à¦°":1710,"Ġà¦ĩà¦ŀ":1711,"à¦ħà¦ľ":1712,"Ġà¦ķà¦¸":1713,"à¦·à¦ª":1714,"à¦īà¦ĩ":1715,"Ġà¦ħà¦¯":1716,"à¦¾à¦ģà¥¤":1717,"à¦īà¦¤":1718,"à¦²à¦°":1719,"à§ľà¦Ľ":1720,"à¦°à¦¬à¦£":1721,"à¦¨à¦ĵà¦¦":1722,"à¦°à¦¤à¦®":1723,"à¦¼à¥¤âĢĿ":1724,"à§ģà¦Ĥ":1725,"à¦Łà¦ĵà¦¯":1726,"à¦·à¦¨":1727,"à¦¿:":1728,"Ġà¦ıà¦ĩà¦Ł":1729,"à¦ĺà¦Łà¦¨":1730,"Ġà¦ľà¦¨à¦®":1731,"à¦°à¦¸à¦°":1732,"!âĢĻ":1733,"à§ĢâĢĻ":1734,"à¦Ĩà¦§":1735,"Ġà¦®à§İà¦¸":1736,"Ġà¦ħà¦¬à¦°":1737,"à¦īà¦¸":1738,"Ġà¦Ŀà¦Ĺà¦¡":1739,"Ġà¦Ĩà¦¬à¦¹":1740,"Ġà¦Ĩà¦ªà¦¤":1741,"Ġà¦®à§Ł":1742,"Ġà¦°à¦®":1743,"Ġà¦Ĩà¦Ĺà¦®à¦¨":1744,"Ġà¦Ŀà¦ķà¦Ŀà¦ķ":1745,"à¦ªà§Ł":1746,"Ġà¦®à¦¨à¦Ł":1747,"Ġà¦ıà¦ĩà¦Ń":1748,"à¦īà¦¬":1749,"Ġà¦Ĩà¦ľà¦ĩ":1750,"à¦ªà¦ķà¦¥à¦¨":1751,"Ġof":1752,"à§ģ?":1753,"à¦ĵà¦¡":1754,"Ġà¦¸à¦«à¦²":1755,"à¦¼à§ĩ-":1756,"à¦°à¦¤à¦¬à¦°":1757,"à¦®à¦¨à¦¸":1758,"à¦Ĩà¦¨":1759,"à¦¯à¦¬à¦¦":1760,"âĢį":1761,"Ġà¦ħà¦¬à¦¤":1762,"à¦ħà¦ª":1763,"Ġà¦ľà¦²à¦§":1764,"Ġà¦ķà§ľ":1765,"à§ĢâĢĵ":1766,"Ġà¦¤à¦ķ":1767,"Ġà§§à§¯à§Ń":1768,"ing":1769,"Ġ*":1770,"à¦ªà¦ķà¦²":1771,"Ġà¦§à¦°à¦¬":1772,"Ġà¦Łà¦°":1773,"à¦ħà¦ķ":1774,"Ġà¦Ĩà¦¶à¦Ļ":1775,"Ġà¦Ĩà¦¨à¦²":1776,"Ġà¦¬à¦°à¦«":1777,"à§ĭà¥¤âĢĿ":1778,"Ġà§§":1779,"à¦ľà¦Ļ":1780,"à¦ĺà¦ķ":1781,"à¦¾?âĢĿ":1782,"à¦Łà¦«à¦Ł":1783,"à¦®à¦Ń":1784,"à¦ĩà¦«":1785,"à¦Ĺà¦ķ":1786,"à¦ıà¦¤":1787,"à¦¯à¦ŀ":1788,"à¦£à¦Ĺ":1789,"Ġà¦«à¦Ł":1790,"âĢ¦âĢĿ":1791,"om":1792,"ĠO":1793,"Ġand":1794,"Ġà¦®à¦°à¦£":1795,"à¦£à¦¬à¦¨":1796,"Ġà¦ħà¦¬à¦²à¦®":1797,"Ġà¦¸à¦¸":1798,"Ġà¦Ĩà¦ĩ":1799,"Ġà¦¦à¦¶à¦ķ":1800,"à¦ĵà¦²":1801,"Ġà¦Ľà¦Łà¦«à¦Ł":1802,"Ġà¦ªà¦°à¦¦":1803,"Ġà¦¸à¦®à¦¬":1804,"à§·":1805,"Ġà¦¤à¦¤à¦ķ":1806,"Ġà¦ħà¦·":1807,"Ġà¦¥à¦°":1808,"à§ľà¦¤":1809,"Ġà¦Ĩà¦²à¦¤":1810,"Ġà¦¦à¦¸":1811,"Ġà¦Ĺà¦Ĺà¦¨":1812,"à¦Ļà¦¤":1813,"Ġà¦Ĩà¦°à¦¬":1814,"à¦¤à¦°à¦ķ":1815,"Ġà¦ķà¦²à¦Ļ":1816,"Ġà¦ıà¦ķà¦¦à¦®":1817,"à¦ķà¦¸à¦ĩ":1818,"à¦ľà¦ĩ":1819,"Ġà¦Ĩà¦°à¦ľ":1820,"Ġà§ª":1821,"Ġà¦ĺà¦Łà¦²":1822,"Ġd":1823,"à¦¾à¦ĥà¥¤":1824,"à¦¯à¦°à¦ķà¦®":1825,"à§ĭà¦Ĥ":1826,"Ġà¦ķà¦¦":1827,"Ġà¦ķà¦ĩ":1828,"à¦Ĺà¦łà¦¨":1829,"Ġà¦¡à¦Ĺ":1830,"Ġà¦ľà¦¨à¦¤":1831,"Ġà¦ħà¦§à¦°":1832,"à¦¿!âĢĿ":1833,"à¦Ĺà§ľ":1834,"Ġà¦ĵà§Ł":1835,"ĠS":1836,"à¦¨à¦ľ":1837,"à¦¤à¦ļ":1838,"à¦¬à¦ļà¦¨":1839,"à¦¬à¦Ľà¦°":1840,"à§Ģ;":1841,"à¦Ĺà¦Ĺ":1842,"à¦¼à§ĩâĢĶ":1843,"à¦Ńà¦¦":1844,"à§ĩ,âĢĿ":1845,"Ġà¦ıà¦ĩà¦°à¦ķà¦®":1846,"Ġà¦®à¦¹à¦°":1847,"Ġà¦¯à¦¤à¦ķ":1848,"à§ĭ?âĢĿ":1849,"Ġà¦¬à¦Łà¦Ĺ":1850,"à¦ķà¦¶à¦¨":1851,"Ġà¦īà¦§":1852,"à¦«à¦Ł":1853,"à§ĩâĢĿ":1854,"à¦¿âĢĿ":1855,"à¦²à¦ĸ":1856,"à¦ıà¦ķà¦ľà¦¨":1857,"Ġà¦ĭà¦¦":1858,"à¦¹à¦°à¦£à¦¸":1859,"à¦ĩà¦ľà¦¨":1860,"Ġà¦¦à§Ł":1861,"à¦ļà¦¸":1862,"à¦«à¦°":1863,"ha":1864,"ic":1865,"à¦ªà¦ľ":1866,"Ġà¦īà¦Ńà¦¯":1867,"Ġà¦¥à¦®":1868,"à¦°à¦£à¦¨":1869,"Ġà¦ĩà¦īà¦¨":1870,"à¦¿.":1871,"Ġà¦¹à¦Ł":1872,"Ġà¦īà§İà¦ķ":1873,"à¦¬à¦°à¦²":1874,"Ġà¦ĩà¦¹":1875,"ion":1876,"à¦²à¦ĵ":1877,"Ġà¦ıà¦¤à¦ĩ":1878,"à¦¸à¦ĩ":1879,"Ġà¦¨à¦ĸ":1880,"Ġà¦ħà¦²à¦ķ":1881,"à¦·à¦ĩ":1882,"Ġà¦ĵà¦Ĺ":1883,"Ġà¦ħà¦¨à¦¬à¦°à¦¤":1884,"Ġà¦ľà¦¨à¦Ĺà¦£":1885,"à¦¤à¦§":1886,"à¦ĩà¦ļ":1887,"Ġà¦¦à¦®à¦¨":1888,"à¦ľà¦¦":1889,"à¦ľà¦§":1890,"à¦ľà¦ªà¦¥":1891,"à¦£à¦ļ":1892,"Ġà¦Łà¦²":1893,"à¦¿à¦Ĥ,":1894,"à¦®à¦²à¦¤":1895,"Ġà¦ªà¦¹":1896,"à¦£à¦°":1897,"Ġà¦°à¦«":1898,"Ġà¦ħà¦¬à¦ļ":1899,"Ġà¦Ĩà¦ķà¦¸":1900,"à¦ķà¦¬à¦°":1901,"à¦ĩà¦ĸ":1902,"à¦Ĺà¦ŀ":1903,"Ġà¦ıà¦ķà¦ª":1904,"Ġà¦īà¦Ĺ":1905,"âĢĻâĢĶ":1906,")à¥¤":1907,"Ġp":1908,"à¦¯à¦Ļ":1909,"Ġà¦®à¦¥":1910,"Ġà¦²à¦¯":1911,"Ġà¦§à¦®à¦ķ":1912,"Ġà¦ĩà¦®":1913,"Ġà¦ħà¦¬à¦¸à¦°":1914,"ĠA":1915,"à¦°à¦ĸà¦°":1916,"à¦Ĺà¦ª":1917,"Ġà¦Ńà¦¬à¦¨":1918,"à¦Ŀà¦¡":1919,"à¦Ĩà¦¹":1920,"Ġà¦ľà¦²à¦ľ":1921,"Ġà¦ªà¦°à¦¤":1922,"Ġà¦Ĩà¦ł":1923,"Ġà¦°à¦¤à¦¨":1924,"à¦°à¦¸à¦¨":1925,"Ġà¦ªà¦¦à¦§":1926,"Ġà¦Ľà¦²à¦¨":1927,"à¦łà¦°":1928,"à¦Ĩà¦¨à¦¨":1929,"Ġà¦Īà¦°":1930,"à¦ķà¦ĵ":1931,"à§ģ!":1932,"à¦¬à¦ĵ":1933,"à¦¼à§į":1934,"à¦¦à¦ĩ":1935,"Ġà¦Ľà¦¦":1936,"Ġà¦ĺà¦·":1937,"Ġà¦¬à¦ĩà¦Ł":1938,"Ġà¦īà¦²à¦Ł":1939,"à¦ķà¦«":1940,"Ġà¦¹à¦ķ":1941,"à¦¥à¦ª":1942,"Ġà¦ĸà¦¨":1943,"Ġà¦ıà¦ĸà¦¨à¦ķ":1944,"à¦®à¦£à¦¦":1945,"à¦¾à§ĩ":1946,"Ġà¦ļà¦£":1947,"Ġà¦Ľà¦¤":1948,"Ġà¦Īà¦¦":1949,"le":1950,"ve":1951,"à§Łà¦£":1952,"Ġà¦ªà¦¥à¦ª":1953,"Ġà¦Ńà¦°à¦ª":1954,"ĠâĢĶâĢĺ":1955,"Ġà¦¦à¦¶à¦Ł":1956,"Ġà¦ķà¦²à¦¤":1957,"Ġà¦¬à§İà¦¸à¦°":1958,"Ġà¦¯à¦¶":1959,"à§ľà¦¬":1960,"Ġà¦īà¦ªà¦®":1961,"Ġà¦ĩà¦¤à¦¸":1962,"ro":1963,"à¦ªà¦ĩ":1964,"à¦®à¦¨à¦Ł":1965,"à§İà¦ĩ":1966,"Ġà§«":1967,"Ġà¦¤à¦¤à¦ĩ":1968,"Ġà¦ªà¦Łà¦Ń":1969,"Ġà¦¥à¦®à¦¥à¦®":1970,"as":1971,"à¦®à¦¸à¦®":1972,"à¦ħà¦®à¦²":1973,"Ġà¦°à¦¹":1974,"Ġà¦ıà¦ķà¦Ĺ":1975,"à¦īà¦ªà¦¸":1976,"à¦īà§İà¦¸à¦¬":1977,"Ġà¦ľà¦²à¦ª":1978,"à¦¬à§İ":1979,"Ġà¦¦à¦¡":1980,"Ġà¦¦à¦¹à¦¨":1981,"à¦Ĺà¦Ł":1982,"Ġà¦ıà¦ķà¦¥":1983,"à¦Ĥ,":1984,"à¦łà¦¤":1985,"à¦Ĩà¦ª":1986,"à¦ĺà¦¦":1987,"Ġà¦ļà¦²à¦®":1988,"Ġà¦®à¦®":1989,"à¦ªà¦ª":1990,"Ġà¦¶à¦¨":1991,"à¦ħà¦ªà¦°":1992,"Ġà¦Ĩà¦¬à¦°à¦£":1993,"à§ĭ?âĢĻ":1994,"à¦ħà¦¤à¦ıà¦¬":1995,"ĠP":1996,"à¦°à¦ļà¦²":1997,"à¦¤à¦¶":1998,"à¦ķà¦ľ":1999,"Ġà¦¤à¦°à¦²":2000,"Ġà¦ħà¦£":2001,"Ġà¦ĺà§ľ":2002,"Ġà¦Ĩà¦Ľà¦¡":2003,"Ġà§§à§¦":2004,"à¦¸à¦ĵ":2005,"à¦łà¦¶":2006,"Ġà§§à§¯à§Ńà§§":2007,"Ġà¦ıà¦°à¦ĩ":2008,"Ġà¦¡à¦ķ":2009,"Ġà¥¤":2010,"à¦°à¦¸à¦¬":2011,"à¦¬à¦ªà¦¨":2012,"Ġà¦ķà¦¦à¦®":2013,"Ġà¦ªà¦ļ":2014,"à¦ĸà¦®":2015,"Ġà¦Ńà¦¸":2016,"à¦Ńà¦°à¦¤":2017,"Ġà¦ıà¦ķà¦¸à¦®à¦¯":2018,"à¦¼à¦¾âĢĶ":2019,"à¦°à¦¥à¦°":2020,"Ġà¦¸à¦¯à¦¤":2021,"Ġà¦¨à¦ĵ":2022,"à¦ĩà¦¶":2023,"à§Łà¦¬à¦¦":2024,"Ġà¦²à¦¹à¦®":2025,"à¦°à¦£à¦¤":2026,"Ġà¦¹à¦¤à¦Ń":2027,"à§§à§§":2028,"à¦®à¦Ŀ":2029,"à¦¹à¦¦":2030,"Ġà¦ħà¦®à¦°à¦¤":2031,"à¦§à¦¨à¦ķ":2032,"à¦ĵà¦¤":2033,"à¦Ńà¦¸":2034,"à¦Ļà¦¨":2035,"Ġà¦¥à¦°à¦¥à¦°":2036,"à¦°à¦¬à¦¦":2037,"Ġà§§à§¯à§«":2038,"à¦Īà¦¶":2039,"à¦¸à¦Ĺ":2040,"à¦§à¦²":2041,"à¦¥à¦ķà¦¤":2042,"Ġà¦ľà¦²à¦ķ":2043,"à¦¸à¦®à¦¸":2044,"ut":2045,"æŃ":2046,"Ġà¦¯à¦ĸà¦¨à¦ĩ":2047,"Ġà¦¬à¦¹à¦®":2048,"æŃĵ":2049,"Ġin":2050,"à¦Ĺà¦ĩ":2051,"Ġà¦°à¦Ł":2052,"à¦«à¦¨":2053,"à¦ħà¦§":2054,"Ġà§§à§®":2055,"æŃĵæŃĵ":2056,"ĠC":2057,"à¥¥":2058,"Ġà¦®à¦ľà¦¬":2059,"à¦ľà¦Ń":2060,"à¦¹à¦¬":2061,"Ġà¦°à¦£":2062,"Ġà¦®à¦¹à§İ":2063,"âĢįà§į":2064,"à¦¤à¦ĵ":2065,"à¦Ľà¦ķ":2066,"à¦¡à¦ķ":2067,"à¦¼à¦¿à¦Ĥ":2068,"à¦īà¦ļ":2069,"à¦Ĩà¦Ļ":2070,"am":2071,"à¦ľà¦¹":2072,"à¦·à¦Ĺ":2073,"à¦łà¦ķà¦ķ":2074,"à¦¼à¦¿-":2075,"Ġà¦ľà¦¨à¦ªà¦¦":2076,"Ġà¦¸à¦°à¦²à¦¤":2077,"Ġth":2078,"ĠB":2079,"à¦¨à§Ł":2080,"à¦®à¦ŀ":2081,"Ġà¦«à¦£":2082,"Ġà¦¬à¦²à¦°":2083,"Ġà¦ıà¦®à¦¨à¦Ń":2084,"Ġà¦īà§İà¦¸à¦°":2085,"Ġà¦¸à¦¦à¦¸":2086,"à§§à§¨":2087,"Ġà¤":2088,"à¦¨à¦Ĺà¦°":2089,"Ġà¦ªà¦¤à¦¨":2090,"à¦¸à¦¯":2091,"à¦ľà¦ĵ":2092,"Ġà¦ıà¦ª":2093,"Ġà¦Ľà¦ķ":2094,"Ġà¦§à¦°à¦£":2095,"Ġà¦ħà¦ªà¦¬":2096,"Ġà§¬":2097,"ent":2098,"Ġà¦¦à¦ª":2099,"à¦¶à¦Ĺà¦¤":2100,"Ġà¦ıà¦Ľ":2101,"à¦§à¦Ł":2102,"à¦¡à¦¨":2103,"à¦īà¦®":2104,"à¦«à¦¸":2105,"à¦Ĩà¦ĩ":2106,"éŁ¿éŁ¿éŁ¿éŁ¿éŁ¿éŁ¿éŁ¿éŁ¿":2107,"Ġ[":2108,"à¦¤à¦²à¦¤":2109,"Ġà¦¦à¦ĩ":2110,"Ġà¦¤à§İà¦ķ":2111,"à¦£à¦ª":2112,"Ġà¦°à¦ľà¦¨":2113,"Ġà¦Ľà¦²à¦Ľ":2114,"Ġà¦²à¦Ļ":2115,"Ġà¦Ĩà¦°à¦£":2116,"à¦Ŀà¦¨":2117,"à¦ķà¦²à¦®":2118,"à§ĭà¥¤âĢĻ":2119,"Ġà¦®à¦¸à¦ľ":2120,"à¦®à¦¹à¦¤":2121,"à¦ĵà¦¦":2122,"à§ľà¦²":2123,"Ġà¦¸à¦¬à¦¸à¦®à¦¯":2124,"Ġl":2125,"à¦°à¦ŀ":2126,"à¦¬à¦¹à¦¨":2127,"à¦¸à¦¡":2128,"à¦·à¦ĵ":2129,"Ġà¦ĵà¦¸à¦¬":2130,"Ġà¦ĸà¦¡":2131,"à¦°à¦¬à¦£à¦¤":2132,"à¦¤à¦°à¦Ł":2133,"à¦¨à¦®à§Ł":2134,"à¦¹à§İ":2135,"Ġà¦ķà¦°à¦£":2136,"à¦°à¦®à¦°":2137,"Ġà¦¶à¦°à§İ":2138,"à¦Ĺà¦®à¦¨":2139,"Ġà¦Ĺà¦¤à¦ķ":2140,"Ġà¦Ľà¦Ł":2141,"Ġà¦ªà¦°à¦ĵ":2142,"à¦īà¦ł":2143,"Ġà¦ĩà¦ľ":2144,"Ġà¦ħà¦²à¦¸":2145,"Ġà¦Ńà§Łà¦Ļ":2146,"Ġà¦Ĺà¦£à¦¤à¦¨":2147,"ol":2148,"Â·":2149,"Ġe":2150,"à¦ªà¦¹":2151,"à§Łà¦¦":2152,"à¦¾,âĢĿ":2153,"Ġà¦¸à¦¹à¦ķà¦°":2154,"à¦ıà¦ķà¦ĩ":2155,"Ġà¦Ľà¦²à¦Ľà¦²":2156,"à¦ķà¦ĸ":2157,"Ġà¦¹à¦¨à¦¨":2158,"à¦Ĺà¦¯":2159,"à¦§à¦¦":2160,"à¦¡à¦¬à¦°":2161,"ĠâĢ¦":2162,"Ġà¦ĺà¦°à¦Ł":2163,"Ġà§Ń":2164,"Ġà¦ĺà¦Łà¦¬":2165,"à¦¾âĢĻà¥¤":2166,"all":2167,"ĠR":2168,"à¦¯à¦ľà¦¨":2169,"Ġà¦ıà¦ĵ":2170,"à¦ļà¦Ľ":2171,"Ġà¦Ĺà¦¯":2172,"Ġà¦Ľà¦¯":2173,"à¦°à¦¬à¦§":2174,"Ġà¦ľà¦¨à¦ķ":2175,"Ġà¦¬à¦¨à¦Ń":2176,"à¦ķà¦Łà¦ķ":2177,"à¦Ĳà¦¤":2178,"ot":2179,"à§ģ;":2180,"à¦®à¦ļà¦¨":2181,"Ġà¦¨à¦Ł":2182,"à¦Łà¦Ń":2183,"Ġà¦¦à¦°à¦¬":2184,"Ġà¦¹à¦°à¦£":2185,"à¦£à¦¸":2186,"Ġà¦ıà¦ķà¦ľ":2187,"Ġà§§à§¨":2188,"Ġà¦¸à¦«à¦²à¦¤":2189,"...":2190,"à¦ĭà¦·":2191,"el":2192,"à§ĭâĢ¦":2193,"à¦¦à¦Ľ":2194,"à¦ªà¦Ŀ":2195,"à¦Ľà¦¡":2196,"à¦ĸà¦ĸ":2197,"à¦¡à¦Ĺ":2198,"Ġà¦®à¦¤à¦ĩ":2199,"Ġà¦®à¦¹à¦²":2200,"à§§à§¯à§":2201,"à¦¬à¦¸à¦¨":2202,"Ġà¦Ĩà¦ŀ":2203,"à§Łà¦¤à¦®":2204,"Ġà¦ĵà¦ľà¦¨":2205,"Ġà¦¸à¦¬à¦ĸ":2206,"ĠĠĊĠĠ":2207,"à¦°à¦®à§Ł":2208,"Ġà¦¬à¦°à¦ŀ":2209,"à¦·à¦°à¦Ĺ":2210,"à¦¸à¦ķà¦·":2211,"à¦¯à¦²":2212,"à¦¸à¦ļ":2213,"à¦¸à§İ":2214,"à¦ĸà¦¬à¦°":2215,"à¦ļà¦¶":2216,"à¦¥à¦¹":2217,"à¦Ĩà¦¯":2218,"Ġà¦Ĩà¦¶à¦ª":2219,"à¦¾âĢĻ,":2220,"un":2221,"à¦¨à¦®à¦¯":2222,"à¦¡à¦°":2223,"à¦ħà¦¨à¦¨":2224,"à¦°à¦¶à¦¸":2225,"Ġà¦Ŀà¦°à¦Ľ":2226,"Ġà¦Ŀà¦°à¦Ŀà¦°":2227,"à§Ŀà¦¤":2228,"Ġà¦¤à¦¤à¦Ł":2229,"à¦¤à¦ĸà¦¨à¦ĩ":2230,"à¦¤à¦¥":2231,"à¦¦à¦ĵ":2232,"Ġà¦¨à¦²":2233,"Ġà¦¨à¦®à¦¸":2234,"Ġà¦Ĩà¦²à¦Ĺ":2235,"à¦ıà¦¦":2236,"à¦·à¦£à¦ķ":2237,"à¦ħà¦¥":2238,"Ġà¦ķà¦²à¦¸":2239,"Ġà§§à§©":2240,"çľ":2241,"à§ĩ)":2242,"Ġà¦ķà¦¤à¦¬":2243,"à¦¦à¦®à¦¯":2244,"à¦ĸà¦Ĺ":2245,"Ġà¦²à¦ĺ":2246,"Ġà¦ªà¦°à¦¨":2247,"à¦°à¦ķà¦°":2248,"Ġà¦Ŀà¦Ļ":2249,"Ġà¦ķà¦¤à¦Ĺ":2250,"ĠD":2251,"ĠT":2252,"à¦¶à¦¶":2253,"Ġà¦ıà¦®":2254,"Ġà¦²à¦Ĺ":2255,"à¦Ĩà¦¦":2256,"à¦¼à¥¤âĢĻ":2257,"Ġà¦®à¦¹à¦¤":2258,"Ġà¦ķà¦¤à¦ķà¦Ĺ":2259,"Ġà¦ĺà¦Łà¦¤":2260,"à¦£à¦Ń":2261,"à¦ĵà§ľ":2262,"à¦°à¦¤à¦¤":2263,"à¦ıà¦²":2264,"Ġà¦ľà¦¨à¦ª":2265,"Ġà¦ħà¦¬à§Łà¦¬":2266,"Ġà¦¬à¦ĩà¦¤":2267,"à§§à§¦":2268,"et":2269,"à¦¿âĢĻà¥¤":2270,"Ġà¦Ĩà¦¦à¦²":2271,"Ġà¦¤à¦¸":2272,"à¦¶à¦Ļ":2273,"à¦ļà§Łà¦¤":2274,"à¦¡à¦¸":2275,"à¦¡à¦ª":2276,"Ġà¦ĸà§ľ":2277,"Ġà¦ħà¦²à¦Ļ":2278,"Ġà¦ľà§Łà¦Ĺ":2279,"à¦·à¦Ń":2280,"Ġà¦°à¦ľ":2281,"Ġà¦ıà¦ķà¦¦à¦²":2282,"à¦°à¦¤à¦²":2283,"Ġà¦¸à¦¬à¦Ł":2284,"Ġà¦¹à¦²à¦¦":2285,"Ġà¦Ĩà¦Ĺà¦²":2286,"Ġà¦ķà¦ĸà¦¨à¦ĩ":2287,"à¦¯à¦°à¦¸":2288,"Ġà¦¦à¦«":2289,"à¦ľà¦¡":2290,"Ġà¦¶à¦ĸ":2291,"Ġà¦°à¦¨":2292,"Ġà¦°à¦ĵà¦¨":2293,"Ġà¦²à§Ł":2294,"à¦¬à¦¨à¦¬":2295,"Ġà¦ľà¦¨à¦Ĺ":2296,"à¦°à¦®à¦¹":2297,"Ġà§§à§¯à§«à§¨":2298,"Ġ?":2299,"à¦¿âĢĻ,":2300,"à¦¯à¦¬à¦°":2301,"à¦®à¦¹à¦°":2302,"Ġà¦²à¦£":2303,"Ġà¦Ĩà¦¨à¦Ľ":2304,"à§°à¦¹":2305,"Ġà¦Īà¦Ĺà¦²":2306,"à¦¯à¦ļ":2307,"à¦¯à¦®à¦¨":2308,"à¦¼:":2309,"à¦Łà¦ĩ":2310,"à¦Łà¦ĵà§Ł":2311,"à¦ĩà¦¸à¦¬":2312,"à¦Ńà¦Ł":2313,"Ġà¦²à¦¬à¦£":2314,"à¦¬à¦¦à¦²":2315,"Ġà¦ĩà¦¨à¦¸":2316,"à¦¨à¦ĸ":2317,"à§ĭ!âĢĿ":2318,"Ġà¦Ĩà¦·":2319,"à¦Ĺà¦¹":2320,"à¦Ĺà¦Ļ":2321,"Ġà¦ħà¦¨à¦Ļ":2322,"à¦ĺà¦Ł":2323,"Ġà¦ľà¦¨à¦ľ":2324,"Ġà¦łà¦ķ":2325,"à¦ľà¦¸à¦Ń":2326,"st":2327,"à¦¨à¦·":2328,"à¦ķà¦¯":2329,"Ġà¦¸à¦¡":2330,"à¦Ĺà¦ł":2331,"âĢĶâĢĶ":2332,"à¦¬à¦¨à¦Ł":2333,"à¦°à¦£à§Ł":2334,"à¦ıà¦ķà¦¬":2335,"à§įâĢĮà¥¤":2336,"à§°à¦¸":2337,"Ġà¦ĸà¦¬à¦°à¦Ł":2338,"à§ĩâĢĻ,":2339,"Ġà¦ªà¦¦à¦¯":2340,"à¦¬à¦°à¦ķ":2341,"à¦Ĺà¦¤à¦Ń":2342,"ur":2343,"à¦¤à¦ĸ":2344,"à¦®à¦«":2345,"Ġà¦ªà§Łà¦¸":2346,"Ġà¦¨à¦ķà¦²":2347,"Ġà¦¤à¦Ł":2348,"à¦¶à¦ĵ":2349,"Ġà¦¹à¦¦":2350,"à¦¹à¦Ł":2351,"Ġà¦ıà¦ķà¦°à¦ķà¦®":2352,"à¦¿,âĢĿ":2353,"à¦¬à¦²à¦®":2354,"à¦°à¦ªà¦°à¦ĵ":2355,"Ġà¦ıà§ľ":2356,"à¦·à¦ķà¦°":2357,"à¦£à¦ĵ":2358,"Ġà¦ıà¦ĩà¦ĸ":2359,"à¦īà§ľ":2360,"à¦Ĩà¦¸à¦²":2361,"Ġà¦Łà¦²à¦®à¦²":2362,"Ġà¦§à¦°à¦Ľ":2363,"Ġà¦¬à¦ĩà¦Ĺ":2364,"Ġà¦¸à¦ķà¦²à¦ķ":2365,"ct":2366,"im":2367,"Ġà¦¸à¦®à¦ķ":2368,"à¦Ŀà¦°à¦¨":2369,"à¦ħà¦ľà¦¸":2370,"à¦°à¦¶à¦ķ":2371,"Ġà§¦":2372,"Ġà¦¬à¦ĩà¦Ľ":2373,"à§°à¦¤":2374,"Ġà¦Ĩà¦¹à¦®":2375,"Ġà§§à§¯à§ª":2376,"à§¯à§«":2377,"ow":2378,"à¦¨à¦¸à¦®":2379,"à¦¬à§°":2380,"Ġà¦Ĩà¦°à¦ķ":2381,"à¦¬à¦¨à¦§":2382,"à¦Ŀà§ľ":2383,"à¦°à¦ķà¦Ł":2384,"à¦¬à¦²à¦¬":2385,"Ġà¦¬à¦¨à¦®":2386,"à¦¦à¦°à¦ľ":2387,"à§¯à§¬":2388,"Ġh":2389,"à¦¤à¦Ńà¦°":2390,"à¦²à¦¡":2391,"à¦¸à¦ľ":2392,"à¦ªà¦°à¦®":2393,"à¦¦à¦¨à¦¶":2394,"à¦°à¦²à¦¯":2395,"Ġà§®":2396,"à¦¶à¦Ŀ":2397,"à¦§à¦¶":2398,"à¦£à¦ĩ":2399,"Ġà¦īà¦ĩà¦²":2400,"Ġà¦§à¦¡":2401,"à¦¬à¦²à¦ĩ":2402,"à¦¤à¦¬à¦ķ":2403,"Ġà¦ķà¦¤à¦ĸ":2404,"Ġbe":2405,"ĠM":2406,"à¦°à¦ªà¦¤":2407,"à¦ªà¦²à¦ķ":2408,"Ġà¦¦à§ľ":2409,"à¦·à¦Ļ":2410,"à¦·à¦ªà¦°":2411,"à¦§à¦Ń":2412,"à¦£à¦¯":2413,"à¦¡à¦Ł":2414,"Ġà¦īà¦®":2415,"Ġà¦®à¦¨à¦¨à¦¶":2416,"à¦¦à¦¨à¦ķ":2417,"à¦¿à¦ĥà¥¤":2418,"Ġà¦ķà¦²à¦ķà¦²":2419,"Ġg":2420,"à¦¨à¦¶à¦¨":2421,"à¦¨à¦Ńà¦°":2422,"Ġà¦¨à¦¸":2423,"à¦Ĺà¦¬à¦¤":2424,"à¦ļà¦ľà¦¨":2425,"à¦ļà¦²à¦¤":2426,"à¦¥à¦¸":2427,"ĠĠĠĠ":2428,"Ġà¦ĸà¦²":2429,"à¦īà¦Ĺ":2430,"Ġà¦ĩà¦īà¦°":2431,"Ġà¦ķà¦°à¦¤à¦²":2432,"âĢ¦à¥¤":2433,"à¦·à¦ķà¦¦":2434,"Ġà¦¤à¦¤à¦¦":2435,"Ġà¦Ķà¦°à¦¸":2436,"Ġà¦¶à¦°à§İà¦ļà¦¨":2437,"à¦®à¦ĸ":2438,"Ġà¦¬à¦£":2439,"Ġà¦®à¦°à¦¤":2440,"Ġà¦¹à¦¤à¦¬":2441,"Ġà¦Ĺà¦ļ":2442,"Ġà¦Ńà¦Ł":2443,"Ġà¦ĵà¦¹":2444,"Ġà¦ªà¦°à¦²":2445,"à¦·à¦£à¦¸":2446,"à¦¨à¦¤à¦®":2447,"à¦²à¦ķà¦£":2448,"à¦¦à¦°à¦¬à¦¨":2449,"Ġà¦īà¦ªà¦¤":2450,"Ġà¦ıà¦®à¦¨à¦Ł":2451,"Ġà¦īà¦ªà¦°à¦¨":2452,"Ġà¦ıà¦ķà¦ĩà¦Ń":2453,"Ġà¦Ĺà¦£à¦®":2454,"Ġis":2455,"à¦¤à¦¬à¦°":2456,"à¦²à¦Ļ":2457,"à¦²à¦Ĺà¦°":2458,"à¦¬à¦ŀ":2459,"Ġà¦ķà¦ªà¦Ł":2460,"à¦ªà¦¶à¦¨":2461,"Ġà¦¤à¦¦à¦¨":2462,"Ġà¦ıà¦«":2463,"à¦Ĺà¦ļ":2464,"Ġà¦īà¦Ńà§Ł":2465,"Ġà¦¸à¦®à¦·":2466,"à¦ľà¦¨à¦¨":2467,"à¦ľà¦¨à¦ĩ":2468,"à¦ıà¦ķà¦¤":2469,"Ġà¦ħà¦¬à¦¸à¦¨":2470,"à¦²à¦¨à¦®":2471,"à¦ıà¦ĩà¦¸à¦¬":2472,"à¦ªà¦Łà¦ª":2473,"id":2474,"à¦¨à¦¬à¦°":2475,"à¦²à¦¹":2476,"à§ĭ:":2477,"Ġà¦¬à¦®":2478,"à¦ªà¦ŀ":2479,"Ġà¦ħà¦ĸà¦£":2480,"à¦ĸà¦®à¦¯":2481,"à¦ĵà¦ł":2482,"Ġà¦«à¦¡":2483,"Ġà¦ĺà¦°à¦¬":2484,"à¦ĺà¦£":2485,"âĢĿâĢĶ":2486,"à¦ħà¦¦à¦®":2487,"Ġà¦¸à¦¹à¦ļà¦°":2488,"Ġà¦¸à¦¹à¦¨à¦¶":2489,"Ġà¦ĺà¦Łà¦Ľ":2490,"à§İà¦¸à¦ķ":2491,"Ġà¦¸à¦²":2492,"Ġà¦¨à¦Ń":2493,"Ġà¦¤à¦«":2494,"à§Łà¦¶à¦ĩ":2495,"à¦¡à¦Ń":2496,"Ġà¦«à¦²à¦¤":2497,"Ġà¦ªà¦°à¦ĩ":2498,"Ġà¦ľà¦²à¦¸":2499,"Ġà¦ħà¦¹à¦Ļ":2500,"Ġà¦¸à¦«à¦°":2501,"Ġà¦¹à¦¤à¦Ńà¦®":2502,"à¦¤à¦¯":2503,"Ġà¦¸à¦¯":2504,"à¦¸à¦ĸ":2505,"Ġà¦¨à¦¥":2506,"Ġà¦®à¦Ī":2507,"à¦ĩà¦ĩ":2508,"Ġà¦¦à¦°à¦¦":2509,"à¦¶à¦ªà¦¥":2510,"à¦ĸà¦¯":2511,"à¦Ĺà¦ĵ":2512,"à¦¹à¦£":2513,"à¦£à¦Ĺà¦¤":2514,"Ġà¦ıà¦ķà¦¯":2515,"Ġà¦ľà¦²à¦¦":2516,"Ġà¦¸à¦¹à¦¦":2517,"Ġà¦¯à¦¤à¦ĸ":2518,"à¦®à¦¬à¦Ļ":2519,"Ġà¦Ĭà¦·":2520,"à§¯à§Ń":2521,"Ġà¦īà§İà¦ķà¦£":2522,"ch":2523,"à§ģâĢĵ":2524,"à¦®à¦®à¦¤":2525,"Ġà¦¬à¦īà¦¦":2526,"à¦¼à§ĩ?":2527,"à¦§à¦¸":2528,"Ġà¦¶à¦®":2529,"à¦¬à¦¨à¦®":2530,"Ġà¦Ĩà¦¶à¦«":2531,"à¦¾âĢĶâĢľ":2532,"Ġà¦·à¦¡":2533,"Ġà¦Łà¦²à¦Łà¦²":2534,"19":2535,"ig":2536,"¯à§¦":2537,"à§ĩâĢĻà¥¤":2538,"à§Łà¦¶":2539,"à¦§à¦ĩ":2540,"Ġà¦ľà¦ª":2541,"à¦īà¦ª":2542,"Ġà¦¤à¦ĸà¦¨à¦ķ":2543,"à¦²à¦¨à¦ķ":2544,"Ġà¦¤à¦°à¦«":2545,"Ġà¦¨à¦¬à¦¬à¦°":2546,"Ġto":2547,"à¦ħà¦¥à¦ļ":2548,"ĠL":2549,"à¦¯à¦ķà¦²":2550,"à¦¼à§ģ,":2551,"Ġà¦ķà¦¨à¦ķ":2552,"à¦¦à¦ªà¦¤":2553,"à¦ĩà¦°à¦ķà¦®":2554,"Ġà¦ªà¦°à¦ķ":2555,"Ġà¦Ŀà¦Łà¦ķ":2556,"à¦ħà¦¹":2557,"à¦ķà¦°à¦¶":2558,"Ġà¦¸à¦¹à¦ª":2559,"Â·Â·":2560,"à¦¨à¦®à¦¨":2561,"Ġà¦ķà¦¬à¦²":2562,"Ġà¦ķà¦¨à¦¸":2563,"Ġà¦¯à¦ķ":2564,"Ġà¦°à¦ĺ":2565,"à¦īà¦¶à¦¨":2566,"à¦«à¦¡":2567,"Ġà¦ªà¦¥à¦Ł":2568,"à¦ķà¦²à¦ķ":2569,"Ġà¦ıà¦ķà¦ľà¦¨à¦ķ":2570,"Ġà§¨à§§":2571,"ma":2572,"à§ĩà¦¾à¦ģ":2573,"à¦®à¦ķà¦°":2574,"Ġà¦¸à§ľà¦ķ":2575,"Ġà¦¦à¦®à¦ķ":2576,"Ġà¦¤à¦®":2577,"à¦·à¦ľ":2578,"à¦£à¦ªà¦£":2579,"Ġà¦ľà¦Ĺà¦¨":2580,"âĢĶâĢĻ":2581,"à¦¨à¦¬à¦¦":2582,"Ġà¦īà¦ªà¦²à¦ķ":2583,"Ġà¦ħà¦ªà¦²à¦ķ":2584,"à§°à¦¬":2585,"Ġà§§à§Ń":2586,"Ġà§¨à§¦":2587,"Ġà¦Ŀà¦¨à¦Ŀà¦¨":2588,"Ġà¦ħà¦¬à¦¨à¦¤":2589,"Ġfor":2590,"à¦°à¦Ŀ":2591,"Ġà¦¸à¦¦à¦°":2592,"à¦¦à¦¬à¦¦":2593,"à¦Łà¦ĵ":2594,"à¦§à¦ķà¦¤":2595,"Ġà¦«à¦¤":2596,"à¦ħà¦°à¦£":2597,"à¦¨à¦ĵà¦Ń":2598,"à¦²à¦¶":2599,"Ġà¦ķà¦¹":2600,"à¥į":2601,"à§Ģ?âĢĻ":2602,"à¦·à¦¹":2603,"à¦£à¦¹":2604,"à¦¡à¦®":2605,"Ġà¦¶à¦°à¦£":2606,"Ġà¦°à¦ĵ":2607,"Ġà¦Ĩà¦²à¦¸":2608,"Ġà¦Ĩà¦Ĺà¦¨":2609,"à¦°à¦¹à¦¸":2610,"Ġà¦īà¦ªà¦¬":2611,"Ġà¦īà¦ªà¦ļ":2612,"à¦°à¦ľà¦¬":2613,"à¤¾":2614,"ra":2615,"Ġà¦®à¦Ľ":2616,"à¦§à¦ĵ":2617,"à¦£à¦Ł":2618,"à¦Ļà¦¬":2619,"Ġà¦ĵà¦¸":2620,"Ġà¦ªà¦°à¦¬":2621,"à¦ıà¦ķà¦¸":2622,"Ġà¦īà§İà¦ªà¦¤":2623,"nd":2624,"à¦¬à¦¬à¦°":2625,"à¦¯à¦§":2626,"à¦ľà¦¶":2627,"Ġà¦ħà¦Ŀ":2628,"à¦¼à§ĩâĢĵ":2629,"Ġà¦¶à¦²":2630,"à§Ĥ-":2631,"Ġà¦ĸà¦ļ":2632,"Ġà¦¸à¦®à¦¤à¦²":2633,"Ġà¦ıà¦ĩà¦¬":2634,"Ġà¦ĩà¦ī":2635,"Ġà¦Ĩà¦¹à¦¬":2636,"Ġà¦¹à¦°à¦«":2637,"Ġà¦¦à¦®à¦¬à¦¨":2638,"ation":2639,"Ġre":2640,"à¦¾)":2641,"à¦¯à¦®à¦¨à¦¸":2642,"à¦Ľà¦¦":2643,"à¦¶à¦ľ":2644,"à¦·à¦§":2645,"Ġà¦ıà¦ķà¦ļ":2646,"Ġà¦ĵà¦²":2647,"à¦°à¦¬à¦®à¦¯":2648,"à¦¬à¦²à¦²":2649,"Ġà¦ħà¦¬à¦Ĺ":2650,"à¦¿à¦Ĥà¥¤":2651,"à§¯à§¯":2652,"ul":2653,"à¦¿)":2654,"à¦¤à¦°à¦¤":2655,"à¦¤à¦ļà¦°":2656,"à¦¼à¦ĥ":2657,"Ġà¦¸à¦ĩà¦¤":2658,"Ġà¦®à¦¶à¦²":2659,"à¦ªà¦ķà¦°":2660,"à¦§à¦¹":2661,"à¦¥à¦Ĺ":2662,"Ġà¦Ńà¦£":2663,"Ġà¦ĵà¦Ń":2664,"Ġà¦«à¦ķ":2665,"Ġà¦ıà¦ĩà¦®":2666,"à¦ħà¦«":2667,"à¦ķà¦²à¦¨":2668,"Ġà¦¸à¦¹à¦ķ":2669,"Ġà§¯":2670,"à¦°à¦ªà¦°à¦ĩ":2671,"Ġà¦«à¦²à¦¶":2672,"Ġà§§à§«":2673,"à¦ľà¦Ĺà§İ":2674,"Ġà¦Ĩà¦«à¦¸":2675,"à¦°à¦ĺ":2676,"à¦¼?âĢĻ":2677,"Ġà¦¸à¦Ĺ":2678,"Ġà¦¸à¦ľà¦²":2679,"à¦ªà¦¤à¦¨":2680,"à¦¶à¦Ľ":2681,"à¦¶à¦¬à¦¨":2682,"Ġà¦ħà¦¡":2683,"à¦ĺà§ľ":2684,"à§Ī-":2685,"Ġà¦ħà¦¬à¦ľ":2686,"Ġà¦¨à¦¤à¦ľ":2687,"à§ĭ,âĢĿ":2688,"Ġà¦ħà¦§à¦®":2689,"Ġà¦¬à¦Łà¦¬":2690,"Ġà¦¦à¦¶à¦¦":2691,"ad":2692,"ce":2693,"ir":2694,"us":2695,"Ġ;":2696,"ĠH":2697,"Ġha":2698,"à¦ķà¦®à¦¤":2699,"Ġà¦¸à¦Ł":2700,"à¦¶à¦Ń":2701,"à¦¶à¦«":2702,"à¦¶à¦ķà¦°":2703,"Ġà¦Ńà¦°à¦¦":2704,"à¦ĵà¦Ł":2705,"ĠĠĊĠ":2706,"à§¯à§¦":2707,"Ġà¦°à¦ĵà¦¶":2708,"à¦²à¦®à¦¨":2709,"à¦¼à§Ĥ":2710,"Ġà¦Ĩà¦Łà¦Ł":2711,"à¦Łà¦¬à¦²":2712,"à¦ªà¦ĵ":2713,"Ġà¦ľà¦¸":2714,"Ġà¦ľà¦®à¦¤":2715,"Ġà¦°à¦¹à¦®":2716,"à¦Ĥà¥¤":2717,"à¦Ļà¦°":2718,"Ġà¦¥à¦²":2719,"Ġà¦ĸà¦°à¦Ĺ":2720,"Ġà¦®à¦¤à¦²à¦¬":2721,"Ġà¦ĩà§Ł":2722,"à¦ĥ,":2723,"Ġà¦¢à¦Ļ":2724,"à¦ªà¦¦à¦ķ":2725,"Ġà¦īà¦¤à¦Ļ":2726,"Ġà§§à§¬":2727,"à¦°à¦¹à¦£à¦¯":2728,"à¦·à§Łà¦ķ":2729,"à§¯à§ª":2730,"Ġà¦Ķà¦¦":2731,"Ġà¦Ķà¦ªà¦¨":2732,"à¦¥à¦ªà¦°à¦¤":2733,"ĠN":2734,"à¦°à¦¦à¦¯":2735,"à¦¤à¦¡":2736,"à¦²à¦Ŀ":2737,"à¦¬à¦Ļ":2738,"à¦¬à¦¶à¦ķ":2739,"à¦¼à§Ģ,":2740,"Ġà¦¸à¦ĸà¦¨":2741,"Ġà¦¸à¦ĵà§Ł":2742,"Ġà¦¤à¦°à¦¬":2743,"Ġà¦¤à¦ªà¦¨":2744,"à¦¹à¦ĩ":2745,"à¦¹à¦Ļ":2746,"à¦¹à¦¨à¦¬":2747,"à¦Ĩà¦ĩà¦¨":2748,"Ġà¦Ŀà¦Ł":2749,"âĢĿâĢĵ":2750,"Ġà§§à§ª":2751,"Ġà¦¬à§ľà¦ĩ":2752,"Ġà¦Ĩà¦¹à¦°à¦£":2753,"Ġà¦ľà§Łà¦§":2754,"à§¨à§¦à§¦à§¦":2755,"à¦¶à¦¶à¦¤à¦ķ":2756,"ay":2757,"ment":2758,"áĥ":2759,"à¦¯à¦ªà¦Ł":2760,"Ġà¦¬à¦ļà¦¨":2761,"à¦¸à¦ªà¦¤":2762,"à¦¦à¦®à¦¨":2763,"à¦ĸà¦¡":2764,"à¦ĸà¦ķà¦¦":2765,"à¦·à¦²":2766,"à¦·à¦¶":2767,"à¦Ĺà¦¬à¦¨":2768,"à¦£à¦§":2769,"Ġà¦¶à¦ļ":2770,"Ġà¦ĸà¦¦":2771,"à¦°à¦£à¦Ń":2772,"à¦Ŀà¦ªà¦¥":2773,"à¦ľà¦¨à¦¦":2774,"à¦Ĩà¦¡":2775,"Ġà¦ħà¦ªà¦°à¦ķ":2776,"à§ĩ!âĢĻ":2777,"Ġà¦Ĺà§ľà¦¤":2778,"Ġà¦īà§İà¦ķà¦°":2779,"à¦¾!âĢĻ":2780,"à¦Ĩà¦ľà¦ĵ":2781,"Ġà§§à§¯à§®":2782,"à¦¬à¦®à¦ŀ":2783,"Ġà¦°à¦¤à¦¨à¦¬":2784,"æŃĵæŃĵæŃĵæŃĵ":2785,"Ġà¦®à¦Īà¦¨":2786,"Ġ!":2787,"à¦Ĭ":2788,"à¦¬à¦°à¦¬":2789,"à¦®à¦§à¦¨":2790,"Ġà¦ķà¦Ń":2791,"Ġà¦¬à¦īà¦¯":2792,"à¦¸à¦ŀ":2793,"à¦¦à¦Ń":2794,"à¦ĩà¦Ĺ":2795,"Ġà¦¹à¦ĩà¦²":2796,"à¦¹à¦ļà¦°":2797,"Ġà¦Ĺà¦£à¦¤":2798,"à¦Ĥ-":2799,"à¦®à¦¨à¦¨":2800,"à¦ĺà¦¡":2801,"Ġà¦ĩà¦ķ":2802,"Ġà¦Ĩà¦¨à¦®à¦¨":2803,"Ġà¦īà¦¦à§Ł":2804,"Ġà¦ħà¦ķà¦ªà¦Ł":2805,"Ġà¦ħà¦ļà¦ŀ":2806,"à¦Ĺà¦ľà¦Ł":2807,"Ġà¦ķà¦¨à¦«":2808,"Ġà§¨à§¨":2809,"à§¨à§¦à§¦à§¨":2810,"ver":2811,"Ġy":2812,"à¦¯à¦ļà¦°":2813,"à¦¦à¦®à¦¸":2814,"à¦ªà¦Ļ":2815,"Ġà¦¤à¦°à¦ķ":2816,"à§Łà¦ĩ":2817,"à¦ĸà¦ķà¦°":2818,"à¦·à¦ľà¦¨":2819,"Ġà¦¯à¦®à¦ľ":2820,"Ġà¦¶à¦¶":2821,"Ġà¦¶à¦°à¦¤":2822,"Ġà¦Ńà¦ľ":2823,"à¦Ńà§İà¦¸":2824,"à¦īà¦ªà¦°":2825,"Ġà¦¸à¦¬à¦Ĺ":2826,"Ġà¦ļà¦²à¦¨":2827,"Ġà¦ļà¦²à¦ļ":2828,"à¦¬à¦¤à¦ĩ":2829,"Ġà¦ķà¦²à¦¹":2830,"à¦¾à¦ĥ,":2831,"à¦®à¦¸à¦®à¦°":2832,"ly":2833,"os":2834,"Ġ,":2835,"à¦¤à§ľ":2836,"à¦ķà¦¸à¦Ļ":2837,"à¦¯à¦ªà¦°":2838,"à¦¼âĢ¦":2839,"à¦¸à¦°à¦²":2840,"Ġà¦Ĩà¦ľà¦¨":2841,"Ġà¦Ĩà¦ĩà¦¡":2842,"Ġà¦®à¦¸à¦²":2843,"à¦¾à¦ģ-":2844,"à¦¬à¦¨à¦¦":2845,"à¦°à¦¬à¦ķ":2846,"Ġà¦Ĩà¦Ľà§ľ":2847,"à¦¨à¦ĵà¦°à¦ķà¦®":2848,"Ġà¦īà¦ªà¦ķà¦°à¦£":2849,"Ġà¦¬à¦īà¦®":2850,"mail":2851,"à¦¨à¦ªà¦¥":2852,"à¦¤à¦Ļ":2853,"à¦ķà¦¹":2854,"à¦¯à¦Łà¦ķ":2855,"Ġà¦®à¦°à¦¬":2856,"à¦Łà¦Ĺà¦²":2857,"à¦ĩà¦ĵ":2858,"Ġà¦¤à§ľ":2859,"à¦Ľà¦¤à¦²":2860,"Ġà¦¹à¦ĩà¦¬":2861,"Ġà¦ļà¦ķà¦²":2862,"Ġà¦Ľà§Ł":2863,"Ġà¦ıà¦ĩà¦ľà¦¨":2864,"à¦Ŀà¦ŀ":2865,"à¦Ĩà¦¦à¦°":2866,"à¦ĺà¦¸":2867,"Ġà¦Ŀà¦ŀ":2868,"Ġà¦ħà¦¸à¦¤":2869,"Ġà¦ķà¦¬à¦ļ":2870,"Ġà¦ħà¦ķà¦¥":2871,"Ġà¦ĭà¦Ĺà¦¬":2872,"Ġà¦īà§ľà¦¨":2873,"Ġà¦ªà¦Łà¦ļ":2874,"Ġà¦¹à¦ķà¦ļà¦ķ":2875,"à¦¨à¦¡":2876,"à¦¤à¦Ĺà¦¤":2877,"à¦ķà¦§":2878,"Ġà¦¬à¦¹à¦°":2879,"Ġà¦¬à¦¦à¦®":2880,"à¦¸à¦ĺ":2881,"Ġà¦¨à¦°à¦¨":2882,"à¦¶à¦§":2883,"Ġà¦¹à¦ĩà¦¤":2884,"Ġà¦ıà¦¶":2885,"Ġà¦ħà¦ĺ":2886,"à¦ĸà¦¬à¦¤":2887,"à¦¹à¦®à¦¯":2888,"à¦ļà¦ª":2889,"à¦Ńà¦ľ":2890,"à¦łà¦¦":2891,"Ġà¦īà¦¥":2892,"Ġà¦«à¦ľà¦²":2893,"Ġà¦§à¦¬":2894,"à¦¬à¦°à¦ĩ":2895,"Ġà¦ħà¦¸à§İ":2896,"Ġà¦ħà¦¶à¦°":2897,"à¦¨à¦¦à¦£":2898,"Ġà¦Ĩà¦ªà¦¡":2899,"à¦¤à¦°à¦¬":2900,"à§Łà¦²":2901,"âĢķ":2902,"à¦¹à¦Ń":2903,"à¦¹à§Łà¦¤":2904,"à¦¥à¦ªà¦°":2905,"Ġà¦īà¦¬":2906,"à¦Ļà¦ļ":2907,"Ġà¦ħà¦¨à¦°":2908,"Ġà¦ħà¦¨à¦¸":2909,"Ġà¦ªà¦°à¦ĸ":2910,"âĢĿ,":2911,"Ġà¦Ĩà¦¬à¦¶":2912,"à¦¸à¦¬à¦¶":2913,"à¦¨à¦¬à¦¸à¦®":2914,"Ġà¦ıà¦®à¦¨à¦ĵ":2915,"à§ĩâĢĶâĢĺ":2916,"Ġà¦°à¦Ļà¦§à¦¨":2917,"Ġà¦ľà¦®à¦ľà¦®":2918,"à¦ıà¦ķà¦¸à¦Ļ":2919,"à¦Ĺà¦¬à¦Ĺ":2920,"Ġwh":2921,",-":2922,"ik":2923,"Ġ19":2924,"Ġà¦®à¦ĸ":2925,"Ġà¦¤à¦¡":2926,"Ġà¦¤à¦Ľà¦¨":2927,"à¦§à¦Ľ":2928,"Ġà¦Ĺà¦ł":2929,"à¦ĵà¦ķ":2930,"à¦łà¦¬":2931,"Ġà¦īà¦Ł":2932,"à§ľà¦®":2933,"Ġà¦«à¦¨":2934,"Ġà¦ĸà¦Ł":2935,"Ġà¦īà§ľà¦¤":2936,"Ġà¦¶à¦¹à¦°à¦¤à¦²":2937,"Ġà§¨à§ª":2938,"à§¨à§¦à§¦à§ª":2939,"Ġà¦¤à¦Ľà¦¨à¦Ľ":2940,",âĢĻ":2941,"ag":2942,"ĠE":2943,"à¦²à¦¥":2944,"à¦¯à¦¸à¦®":2945,"à¦¦à¦®à§Ł":2946,"à¦Ľà§ľ":2947,"à§Łà¦ļ":2948,"à¦¼à§ĩ;":2949,"à¦§à¦¯":2950,"à¦¹à¦ª":2951,"à¦¥à¦ĩ":2952,"Ġà¦ĵà¦¤":2953,"Ġà¦§à¦¸":2954,"Ġà¦¸à¦®à¦Ŀ":2955,"à¦°à¦ķà¦¦":2956,"Ġà¦¸à¦¬à¦¸à¦®à§Ł":2957,"Ġà¦Łà¦ķà¦Łà¦ķ":2958,"Ġà¦ľà¦¨à¦¹":2959,"à¦¨à¦ĵà¦Ł":2960,"âĢ¦.":2961,"âĢ¦âĢĻ":2962,"Ġà¦ħà¦ªà¦°à¦¦":2963,"Ġà¦¨à¦¬à¦¯":2964,"à§ĭâĢĶâĢľ":2965,"à¦¾âĢ¦âĢĿ":2966,"Ġà¦¨à§ľà¦¬à§ľ":2967,"Ġnot":2968,"Ġà¦®à¦ĸà¦®à¦²":2969,"à¦²à¦ĺ":2970,"à¦®à¦ĺ":2971,"à¦¼?âĢĿ":2972,"Ġà¦¨à¦®à¦¨":2973,"Ġà¦¶à§Łà¦¤":2974,"Ġà¦ľà¦ŀ":2975,"Ġà¦ľà¦ĸà¦®":2976,"Ġà¦²à¦¬":2977,"à¦°à¦¤à¦¨":2978,"à¦°à¦£à¦¬":2979,"à¦īà¦·":2980,"Ġà¦Łà¦ķ":2981,"Ġà¦¬à¦¨à¦¸":2982,"à¦¤à¦¨à¦Ń":2983,"Ġà¦ªà¦¤à¦Ļ":2984,"Ġà§§à§§":2985,"Ġà¦Ĩà¦¦à¦®":2986,"Ġà¦īà§ľà¦Ľ":2987,"à§¨à§¦à§¦à§©":2988,"à¦Ĳà¦ķ":2989,"Ġmy":2990,"Ġà¦§à¦¬à¦§à¦¬":2991,"ĠW":2992,"à§į,":2993,"à¦¤à¦ķà¦°":2994,"Ġà¦Ĩà¦°à¦¤":2995,"Ġà¦Ĩà§Łà¦¤":2996,"à¦¦à¦§":2997,"Ġà¦¨à¦ľ":2998,"Ġà¦®à¦ķ":2999,"Ġà¦®à¦°à¦®":3000,"à¦ªà¦Ń":3001,"à¦ľà¦¤à¦¨":3002,"à¦¶à¦ļ":3003,"Ġà¦ħà¦ķà¦²":3004,"Ġà¦ħà¦¯à¦¤":3005,"à¦§à¦ª":3006,"à¦§à¦°à¦¨":3007,"à¦£à¦¶":3008,"Ġà¦Ĩà¦®à¦Ĺ":3009,"à¦łà¦ª":3010,"Ġà¦§à§ľ":3011,"à¦°à¦£à¦ķ":3012,"à¦ľà¦¨à¦¬":3013,"Ġà¦Ĩà¦¸à¦ķ":3014,"Ġà¦ĩà¦°":3015,"Ġà¦īà¦ªà§ľ":3016,"à¦®à¦£à¦°":3017,"à¤°":3018,"à§¦à§¦à§¦":3019,"à¦ķà¦ĸà¦¨à¦ĵ":3020,"à¦ĭà¦£":3021,"éŁ¿éŁ¿éŁ¿éŁ¿éŁ¿éŁ¿éŁ¿éŁ¿éŁ¿éŁ¿éŁ¿éŁ¿éŁ¿éŁ¿éŁ¿éŁ¿":3022,"ºçľ":3023,"ĠG":3024,"Ġk":3025,"Ġon":3026,"à§ĩà¦ĥ":3027,"à¦¤à¦ľà¦¬":3028,"à¦¬à¦¦à¦¨":3029,"à¦¼âĢĻ":3030,"Ġà¦¬à¦īà¦ķ":3031,"Ġà¦¸à¦ļà¦²":3032,"à¦¸à¦®à¦¤":3033,"à¦Łà¦¹":3034,"à§ĢâĢĻ,":3035,"à¦ľà¦ķà¦¨":3036,"Ġà¦ħà¦ĸ":3037,"à¦§à¦Ĺ":3038,"Ġà¦īà¦¥à¦²":3039,"Ġà¦²à¦¨":3040,"à¦¬à¦°à¦¹":3041,"Ġà¦¸à¦¬à¦ľ":3042,"Ġà¦ħà¦¬à¦¯":3043,"Ġà¦ħà¦Ńà¦¯":3044,"Ġà¦ħà¦ªà¦¦":3045,"Ġà¦ıà¦¤à¦Ĺ":3046,"Ġà¦¨à§Łà¦¨":3047,"Ġà¦ķà¦®à¦¬":3048,"à§įâĢĮ-":3049,"à§°à¦®":3050,"à¦¿âĢĶâĢľ":3051,"à¦¬à¦¶à¦¤":3052,"à¦°à¦®à¦£à¦ķ":3053,"à§¯à§§":3054,"Ġà¦®à§Łà¦²":3055,"Ġyou":3056,"·çľ":3057,"Ġà¥¥":3058,"à¦°à¦ļà¦¨":3059,"à§ģ:":3060,"à§ģà§į":3061,"à¦¯à¦ªà¦¥":3062,"à¦®à¦¹à¦²":3063,"à¦¼à§ĭà¥¤":3064,"Ġà¦¸à¦°à¦¬à¦°":3065,"à¦ĩà¦¨à¦¬":3066,"Ġà¦¦à¦²à¦¬":3067,"à¦ĸà¦®à¦£":3068,"à¦·à¦°à¦£":3069,"à¦¥à¦¯":3070,"à¦Ńà¦°à¦¶":3071,"Ġà¦²à¦ŀ":3072,"Ġà¦ħà¦¨à¦¡":3073,"à¦°à¦£à¦Ł":3074,"à¦Ĩà¦ļà¦°à¦£":3075,"Ġà¦Łà¦Ĺà¦¬à¦Ĺ":3076,"à¦·à¦£à¦ĩ":3077,"à¦°à¦®à¦¤":3078,"Ġà¦Ĺà¦²à¦¦":3079,"Ġà¦¸à¦°à¦ŀ":3080,"à¦°à¦²à§Ł":3081,"à¦¦à§Łà¦ķ":3082,"Ġà¦ķà¦®à¦ª":3083,"Ġà¦¸à¦®à§Łà¦ĩ":3084,"Ġà§§à§¯à§¬":3085,"Ġà§§à§¯à§¯à§":3086,"Ġà¦°à¦¸à¦Ĺ":3087,"Ġà¦·à§ľ":3088,"Ġà¦ĸà¦¸à¦ĸà¦¸":3089,"Ġne":3090,"ill":3091,"ºçľºçľ":3092,"od":3093,"ure":3094,"à¦¬à¦ľà¦Ĺà¦¤":3095,"à¦¼à§ĭ,":3096,"Ġà¦®à¦«à¦¸":3097,"à§ĢâĢĿ":3098,"à¦¶à¦§à¦°":3099,"Ġà¦ħà¦¹à¦°":3100,"à¦¼à§ĩ!":3101,"Ġà¦¯à¦¤à¦¬":3102,"à¦¥à¦Ł":3103,"Ġà¦ļà¦ª":3104,"Ġà¦ļà¦ĵà¦¡":3105,"Ġà¦ıà¦ķà¦°à¦¤":3106,"à¦¼à¦¾à¦Ĥ":3107,"à¦¼à¦¾âĢĵ":3108,"Ġà¦²à¦Ł":3109,"à¦¬à¦¨à¦ĩ":3110,"à¦ªà¦°à¦¬à¦°":3111,"à¦°à¦¬à¦ļ":3112,"à¦Ĩà¦°à¦ĵ":3113,"Ġà¦ķà¦¥à¦ķ":3114,"à¦ĺà¦¬":3115,"Ġà¦Łà¦ªà¦ķ":3116,"à¦¬à¦ªà¦¤":3117,"à¦°à¦®à¦¯":3118,"à¦°à¦®à¦¬à¦°":3119,"à¦ħà¦Ļ":3120,"Ġà¦¶à¦¤à¦§à¦¨":3121,"Ġà¦Ĺà¦£à¦ªà¦°":3122,"Ġà¦¦à¦¶à¦ľà¦¨":3123,"à¦ļà§Łà¦ĩ":3124,"Ġare":3125,"ity":3126,"·çľ·çľ":3127,"em":3128,"Ġhe":3129,"à§Ĺ":3130,"à¦¨à¦¤à¦°":3131,"à¦²à¦ªà¦¤":3132,"à¦®à¦ªà¦¤":3133,"à¥¤âĢ¦":3134,"à¦¶à¦°à¦¤":3135,"Ġà¦ļà¦Łà¦ķ":3136,"à¦ĵà¦ª":3137,"à¦ĵà¦Ĺ":3138,"Ġà¦«à¦°à¦¸":3139,"Ġà¦«à¦Łà¦ķ":3140,"Ġà¦ªà¦°à¦ªà¦°":3141,"Ġà¦Ĩà¦²à¦ªà¦¨":3142,"à¦ħà¦¤à¦²":3143,"Ġà¦īà¦¦à¦Ĺ":3144,"à¦¯à¦¬à¦§":3145,"Ġà¦īà¦ªà¦ľ":3146,"à¦®à¦ķà¦°à¦£":3147,"à¦ĩà¦²à¦Ł":3148,"à¦®à¦£à¦ķ":3149,"à¦¬à¦ķà¦¦":3150,"Ġà¦¦à¦¶à¦®":3151,"à¤¤":3152,"à§ĩâĢ¦âĢĿ":3153,"Ġà¦¦à¦Ĺà¦¦à¦Ĺ":3154,"ame":3155,"à¦¨à¦ªà¦¤":3156,"à¦¬à¦Ĺà¦¤":3157,"Ġà¦¸à¦ªà¦¨":3158,"Ġà¦¨à¦¶":3159,"à¦¶à¦Ńà¦ķ":3160,"Ġà¦¯à¦¬à¦¨":3161,"Ġà¦ĵà¦¨":3162,"Ġà¦«à¦¸":3163,"Ġà¦Ĩà¦°à¦¶":3164,"Ġà¦ĸà¦¨à¦¨":3165,"à¦°à¦£à¦Ĺ":3166,"à¦¤à¦°à¦¸":3167,"à¦²à¦ķà¦§":3168,"Ġà¦®à¦°à¦Ľ":3169,"Ġà¦¬à¦ĩà¦ªà¦¤":3170,"Ġà¦«à¦²à¦¸":3171,"à¦®à§Łà¦¤":3172,"Ġà§§à§¯":3173,"à¦¨à¦¸à¦ªà¦Ł":3174,"à¦Ĺà¦ľà¦ªà¦¤":3175,"...âĢĿ":3176,"op":3177,"à§į-":3178,"à¦¬à¦®à¦¯":3179,"à¦¼à§Ģà¥¤":3180,"Ġà¦¬à¦¤":3181,"Ġà¦¸à¦ĩ":3182,"Ġà¦¦à¦¨":3183,"à¦ľà§ľ":3184,"Ġà¦¯à¦¬":3185,"Ġà¦ľà¦®à¦ķ":3186,"à¦Ńà¦¬à¦¨":3187,"Ġà¦ıà¦ķà¦Ŀ":3188,"Ġà¦¥à¦°à¦¹à¦°":3189,"à¦ªà¦°à¦ķ":3190,"Ġà¦¸à¦¬à¦²":3191,"à§Įà¥¤":3192,"à¦ĺà¦¤à¦®":3193,"Ġà¦Łà¦®":3194,"à¦ĥâĢĵ":3195,"à¦¤à¦¨à¦¦":3196,"Ġà¦ħà¦¸à¦Ń":3197,"à¦¾à¦Ĥ,":3198,"à¦¨à¦¬à¦¸":3199,"à¦§à¦¨à¦¹":3200,"à§įâĢĮ,":3201,"Ġà¦Ĺà§ľà¦¬":3202,"Ġà¦īà¦²à¦Ļ":3203,"Ġà¦Ĺà¦£à¦¨":3204,"Ġà¦¶à¦¹à¦°à¦ķ":3205,"à¦¸à¦¹à¦ľ":3206,"Ġà§¨à§«":3207,"à¦¬à§Łà¦¸":3208,"Ġà¦ªà¦Ļà¦ķ":3209,"Ġwe":3210,"Ġà¦ľà¦²à¦ķà¦£":3211,"ÂŃ":3212,"Ø§":3213,"à§ĩà¦Ĥ":3214,"à¦¯à¦¸à¦¨":3215,"à¦®à¦®à¦°":3216,"à¦®à¦īà¦¦":3217,"Ġà¦¬à¦¦à¦¨":3218,"à¦¦à¦ľ":3219,"Ġà¦ħà¦°à¦¨":3220,"à¦§à¦¨à¦¬":3221,"à¦¹à§Ł":3222,"à¦ļà¦ĩ":3223,"Ġà¦¶à¦«":3224,"Ġà¦ıà¦ķà¦Ń":3225,"Ġà¦«à¦°à¦®":3226,"Ġà¦«à¦²à¦ķ":3227,"Ġà¦§à¦ķ":3228,"à¦ªà¦°à¦¦":3229,"à¦°à¦¦à¦ķ":3230,"à¦¯à¦®à¦Ĺ":3231,"Ġà¦īà§İà¦ªà¦¨":3232,"Ġà¦°à¦ķà¦®à¦ĩ":3233,"à¦ĭà¦¤":3234,"à¦Ĩà¦§à¦Ł":3235,"Ġà¦®à§Łà¦¦":3236,"âĢķâĢķ":3237,"**":3238,"nt":3239,"ub":3240,"à¦¨à¦¬à¦¨":3241,"à§ģà¥¤âĢĿ":3242,"à¦¬à¦¸à¦®":3243,"à¦®à¦°à¦ķ":3244,"Ġà¦¬à¦Ľ":3245,"à¦ªà¦¬à¦¯":3246,"Ġà¦ıà¦¯":3247,"Ġà¦ıà¦ľà¦¨":3248,"à¦§à¦ķà¦°":3249,"à¦¹à¦°à¦¨":3250,"à§ĥ-":3251,"Ġà¦ıà¦ķà¦¸à¦®à§Ł":3252,"à§ĩ,-":3253,"Ġà¦ĵà¦°à¦ķà¦®":3254,"à§ľà¦¸":3255,"Ġà¦¬à¦²à¦ļ":3256,"Ġà¦Łà¦ª":3257,"Ġà¦Łà¦²à¦¤":3258,"à¦ħà¦Łà¦²":3259,"à¦¸à¦¬à¦ĸ":3260,"à¦¤à¦¬à¦¡":3261,"Ġà¦ķà¦¤à¦ĩ":3262,"Ġà¦ªà¦¦à¦¬":3263,"à¦¤à¦®à§Ł":3264,"ĠâĢĶâĢĿ":3265,"à¦®à§Łà¦ķà¦°":3266,"Ġà¦¶à¦¤à¦¬à¦°":3267,"Ġà¦¨à¦¬à¦ľà¦¨":3268,"à§§à§©":3269,"à¦®à¦Ľà¦®":3270,"ĠThe":3271,"th":3272,"à§ĩ.":3273,"à¦¤à¦Ŀà¦°":3274,"à¦²à¦®à¦£":3275,"à¦¬à¦ķà¦Ł":3276,"à¦¯à¦¤à¦°":3277,"Ġà¦¬à¦ļ":3278,"à¦¸à¦°à¦¤":3279,"à¦¦à¦°à¦®":3280,"à¦ĩà¦¹":3281,"Ġà¦¦à¦¹":3282,"à¦ľà¦ĸ":3283,"à¦ľà¦°à¦£":3284,"Ġà¦ıà¦ľ":3285,"Ġà¦ħà§Łà¦¨":3286,"Ġà¦ħà¦¯à¦¥":3287,"à¦·à¦¤à¦¬":3288,"à¦¹à¦Ĺ":3289,"à¦ļà¦¤à¦°":3290,"à¦¡à¦¶":3291,"Ġà¦ľà¦¹":3292,"à¦Ńà¦°à¦¯":3293,"Ġà¦Ĩà¦®à¦¦":3294,"Ġà¦īà¦ĩ":3295,"à¦¼à¦¾?":3296,"Ġà¦¥à¦ĩ":3297,"Ġà¦ªà¦°à¦ª":3298,"à¦°à¦£à¦ĵ":3299,"Ġà¦ıà¦ĩà¦¤":3300,"à¦īà¦ªà¦¨":3301,"à¦¬à¦°à¦Ł":3302,"Ġà¦Ĩà¦²à¦ĸ":3303,"à¦ıà¦ķà¦²":3304,"à¦Ĩà¦Ľ":3305,"à§Īà¦ĥà¥¤":3306,"à¦ıà¦ĩà¦Ń":3307,"à§Ģà¥¤âĢĻ":3308,"Ġà¦Ĳà¦¨":3309,"à¦¿!âĢĻ":3310,"à¦ķà¦Ľà¦Ł":3311,"ab":3312,"ri":3313,"ĠK":3314,"à¦¯à¦¬à¦¨":3315,"à¦¯à¦Ŀ":3316,"Ġà¦ķà¦¶":3317,"Ġà¦ķà¦¦à¦°":3318,"Ġà¦ªà¦¬à¦¨":3319,"Ġà¦ªà¦Łà¦²":3320,"Ġà¦Ĩà¦ĵà§ľ":3321,"Ġà¦®à¦¦à¦¨":3322,"à¦Łà¦°à¦ķ":3323,"à§Ģ?âĢĿ":3324,"Ġà¦¹à¦ĩà¦¯":3325,"Ġà¦ıà¦Ĩà¦ĩ":3326,"à¦¥à¦¶":3327,"Ġà¦ľà¦Łà¦²":3328,"Ġà¦«à¦²à¦¨":3329,"Ġà¦¬à¦²à¦¯":3330,"Ġà¦§à¦¬à¦²":3331,"à¦ıà¦¨":3332,"Ġà¦ķà¦¥à¦ŀ":3333,"Ġà¦ħà¦¬à¦®":3334,"Ġà¦ªà¦¥à¦ĺ":3335,"Ġà¦¬à¦¸à¦Ľ":3336,"à¦ħà¦Ł":3337,"Ġà¦Ĩà¦ľà¦¬":3338,"Ġà¦ħà¦¸à¦¨":3339,"Ġà¦ħà¦ªà¦¸":3340,"Ġà¦¬à¦ĩà¦ĸ":3341,"Ġà¦¨à¦¬à¦¬à¦§":3342,"Ġà¦īà§İà¦«":3343,"à§§à§®":3344,"Ġà§¨à§¯":3345,"Ġà¦Ĩà¦ĩà¦¨à¦¸":3346,"Ġà¦®à¦¶à¦Ĺ":3347,"ith":3348,"ess":3349,"à¦¦à¦°à¦®à¦¹à¦²":3350,"ive":3351,"à¦¤à¦ľà¦¨":3352,"à§ģâĢ¦":3353,"à¦¬à¦ĸ":3354,"à¦®à§İ":3355,"à¦®à¦ļà¦°":3356,"à¦¼!âĢĿ":3357,"à§ĭâĢĻ,":3358,"Ġà¦ķà¦ľà¦¨":3359,"à¦Łà¦ķà¦°":3360,"Ġà¦ħà¦¤à¦°":3361,"âĢ¢":3362,"Ġà¦°à¦ª":3363,"Ġà¦°à¦ľà¦¤":3364,"Ġà¦°à¦£à¦ķ":3365,"à§Ĥà¦ģ":3366,"Ġà¦īà¦¸":3367,"Ġà¦ĵà¦®":3368,"Ġà¦ĵà¦²à¦Ł":3369,"Ġà¦ĸà¦Łà¦ķ":3370,"Ġà¦ªà¦°à¦°":3371,"Ġà¦ĺà¦°à¦®à§Ł":3372,"Ġà¦®à¦¨à¦ĸ":3373,"à¦ªà¦°à¦¶":3374,"à¦Ĩà¦Ł":3375,"Ġà¦ªà¦¥à¦ĩ":3376,"à¦°à¦¸à¦®":3377,"à¦ªà¦¦à¦¬":3378,"à¦ĩà¦¨à¦Ĺ":3379,"à¦¼à§ĭ-":3380,"à¦¤à¦ķà¦£":3381,"à§°à¦ľ":3382,"Ġà¦ķà¦ĸà¦¨à¦ĵà¦ĩ":3383,"Ġà¦īà§İà¦¸à¦¬à¦®":3384,"à¦Ĺà¦®à¦ŀ":3385,"Ġà§§à§¯à§¯à§¦":3386,"Ġà§©à§¦":3387,"Ġà¦®à¦Ĺà¦§":3388,"ous":3389,"à¦Ĺà¦ªà§İ":3390,"Ġemail":3391,"ĠRe":3392,"qu":3393,"ya":3394,"à¦°à¦ªà¦¥":3395,"à¦¨à¦¸à¦¨":3396,"à¦²à¦ľà¦¯":3397,"à¦¯à¦¨à¦¤":3398,"à¦¯à¦®à¦£":3399,"à¦®à¦Ļ":3400,"Ġà¦ķà¦ļà¦ķ":3401,"Ġà¦ķà¦¨à¦Ł":3402,"Ġà¦¸à§Ł":3403,"Ġà¦¹à¦ľà¦®":3404,"à¦ĸà¦ª":3405,"à¦·à¦ªà¦¥":3406,"à¦Ĺà¦²à¦ķ":3407,"Ġà¦¶à¦ª":3408,"Ġà¦ľà¦¤":3409,"Ġà¦Ńà¦²":3410,"à¦Ńà¦§":3411,"Ġà¦Ľà¦®à¦Ľà¦®":3412,"Ġà¦īà¦¹":3413,"à¦¾à¦ģ?":3414,"Ġà¦«à¦¸à¦ķ":3415,"à¦°à¦¤à¦ķ":3416,"Ġà¦ĸà§ľà¦ķ":3417,"à¦¬à¦¨à¦¸à¦Ļ":3418,"âĢĻ;":3419,"à¦°à¦¬à¦Ĺ":3420,"à¦«à¦ķ":3421,"à¦¬à¦ªà¦ķ":3422,"à¦ħà¦ŀ":3423,"à¦¤à¦¨à¦¶":3424,"Ġà¦ħà¦¸à¦®à¦¯":3425,"Ġà¦Ĩà¦¨à¦Ĺ":3426,"à¦°à¦¥à¦®à¦Ł":3427,"à¦¨à¦ĵà¦ķ":3428,"Ġà§¯à§":3429,"à¦ıà¦ĩà¦Ł":3430,"Ġà¦ķà¦®à¦Ľ":3431,"Ġà¦ĵà¦ĩà¦¸à¦¬":3432,"à¦¬à¦¬à¦Ļ":3433,"à§ģà¥¤âĢĻ":3434,"Ġà¦ıà¦¨à¦ľ":3435,"à¦Ŀà¦²à¦®à¦²":3436,"ist":3437,"our":3438,"omment":3439,"row":3440,"ĠĠĊĠĠĠ":3441,"Ġà¦¤à¦°à¦«à¦¦":3442,"à§ĩà§Ĺ":3443,"à¦°à¦®à¦¨":3444,"à¦°à¦ĺà¦°":3445,"Ġà¦ķà¦®à¦¤":3446,"Ġà¦ªà§Ł":3447,"Ġà¦Ĩà¦ĩà¦²":3448,"Ġà¦Ĩà¦īà¦Ł":3449,"à¦Ľà¦¯":3450,"à¦ĸà¦ĩ":3451,"à¦ĸà¦ĵ":3452,"à¦Ĺà¦§":3453,"à¦¹à¦¹":3454,"à¦£à¦®à¦¯":3455,"à¦¥à¦Ń":3456,"Ġà¦ľà§Łà¦¨":3457,"Ġà¦ľà¦ĺà¦¨":3458,"Ġà¦°à¦®à¦¨":3459,"à¦ĵà¦¹":3460,"à¦Ńà¦Ĺ":3461,"à¦Ļà¦Ľ":3462,"Ġà¦§à¦®à¦¨":3463,"à¦®à¦¨à¦ķ":3464,"à¦ľà¦¨à¦®":3465,"à¦ıà¦Ľ":3466,"à¦ıà¦°à¦ªà¦°":3467,"Ġà¦Łà¦¬":3468,"Ġà¦ħà¦¬à¦¤à¦°à¦£":3469,"à¦°à¦®à¦¬":3470,"Ġà¦ħà¦®à¦Ļ":3471,"Ġà¦Ĩà¦ķà¦¬à¦°":3472,"à¦°à¦¸à¦Ń":3473,"à¦¨à¦ĵà¦®à¦¤":3474,"Ġà¦ħà¦ªà¦ķ":3475,"Ġà¦ħà¦ªà¦Ľà¦¨":3476,"à¦ĩà¦¨à¦Ł":3477,"Ġà¦ĭà¦ľ":3478,"Ġà§¨à§Ń":3479,"Ġà¦ķà§Łà¦²":3480,"Ġas":3481,"up":3482,"à¦¨à¦ľà¦Ł":3483,"à¦¬à¦ķà¦°":3484,"à¦¯à¦Ĺà¦¤":3485,"à¦¯à¦Łà¦¨":3486,"à¦¼à¦ĥà¥¤":3487,"Ġà¦¬à§İà¦¸":3488,"Ġà¦¬à¦īà¦Ł":3489,"Ġà¦¸à¦°à¦¬":3490,"Ġà¦¸à¦²à¦ľ":3491,"à¦¸à¦ł":3492,"Ġà¦Ĩà¦ĩà¦¸":3493,"Ġà¦®à¦ł":3494,"à¦ªà¦®à§Ł":3495,"Ġà¦ħà¦ķà¦°":3496,"à¦Ĺà¦Ńà¦Ļ":3497,"à¦¹à¦ķà¦°":3498,"à¦ļà¦ŀ":3499,"Ġà¦ıà¦ķà¦¤à¦²":3500,"à¦łà¦Ł":3501,"à¦¤à¦°à¦ª":3502,"à¦Ŀà¦²à¦¸":3503,"à¦ķà¦²à¦Ļ":3504,"Ġà¦īà¦¦à¦°":3505,"Ġà¦ľà¦²à¦ĸ":3506,"à¦²à¦¬à¦§":3507,"Ġà¦ħà¦ªà¦ļà¦¯":3508,"à§İà¦¸à¦²":3509,"Ġà¦ļà¦Łà¦ªà¦Ł":3510,"red":3511,"à§ĭ!âĢĻ":3512,"Ġà¦¸à¦«à¦Łà¦ĵà¦¯":3513,"à¦ıà¦®à¦¨à¦ķ":3514,"Ġst":3515,"Ġà¦ľà¦¨à¦¸à¦ļ":3516,"Ġthat":3517,"ds":3518,"um":3519,"»¿":3520,"ï»¿":3521,"à¦¨à¦°à¦®":3522,"à¦¨à¦ľà¦°":3523,"à¦¤à¦ªà¦ķ":3524,"à¦²à¦ķà¦Ł":3525,"à¦¯à¦¸à¦Ļ":3526,"à¦®à¦·":3527,"à¦®à¦¥":3528,"à¦®à¦®à¦¯":3529,"à§ĭâĢĻà¥¤":3530,"Ġà¦¬à¦Ĺà¦²":3531,"à¦¸à¦¹à¦¸":3532,"Ġà¦®à¦°à¦²":3533,"à¦ªà¦¬à¦¤":3534,"Ġà¦¹à¦ĩà¦¨":3535,"Ġà¦ıà¦¹":3536,"à¦Ĺà¦°à¦®":3537,"à¦¹à¦®à¦¨":3538,"à¦¥à¦¬à¦¹":3539,"Ġà¦Ńà¦¬à¦¤":3540,"Ġà¦ļà¦ªà¦²":3541,"Ġà¦ıà¦ķà¦«":3542,"Ġà¦²à¦°":3543,"Ġà¦¬à¦²à§Ł":3544,"Ġà¦Łà¦¹à¦²":3545,"Ġà¦Ŀà¦°à¦£":3546,"Ġà¦ĩà¦¬":3547,"Ġà¦ªà¦¥à¦°":3548,"à¦ħà¦¸à¦¹":3549,"à¦ħà¦¥à¦¬":3550,"à¦¬à¦¤à¦®":3551,"Ġà¦ľà¦²à¦Ľà¦¬":3552,"à¦Ĺà¦¤à¦®":3553,"à¦¨à¦¬à¦®à¦¨":3554,"à¦²à¦¤à¦²":3555,"Ġà¦ĺà¦°à¦Ĺ":3556,"à¦Ĺà¦²à¦Ł":3557,"à¦¸à¦¨à¦ķ":3558,"à¦·à¦¤à¦Ĺ":3559,"Ġà¦ĵà¦ĩà¦Ł":3560,"Ġà¦ĵà¦ĩà¦ĸ":3561,"Ġà¦ĩà¦¨à¦«":3562,"à¦¨à¦Łà¦¨":3563,"à¦°à¦ľà¦¨à¦¨":3564,"à¦łà¦ķà¦ĸ":3565,"à¤¿":3566,"her":3567,"Ġwith":3568,"à¦¿âĢ¦âĢĿ":3569,"Ġà¦¸à¦°à¦¸à¦¤":3570,"ap":3571,"à¦¤à¦¦à¦¨":3572,"à¦¤à¦ļà¦ķ":3573,"à¦ķà§Ł":3574,"à¦¯à¦°à¦¶":3575,"à¦¯à¦ľà¦¨à¦ķ":3576,"à¦®à¦°à¦¤":3577,"à¦®à¦®à§Ł":3578,"à§ĭâĢ¦âĢĿ":3579,"Ġà¦¸à¦¶à¦¸":3580,"Ġà¦ªà¦łà¦¨":3581,"Ġà¦Ĩà¦¤à¦°":3582,"Ġà¦Ĩà¦ĵà¦¤":3583,"à¦ªà¦ĸ":3584,"Ġà¦¤à¦¬à¦²":3585,"Ġà¦¤à§İà¦ªà¦°":3586,"à§Łà¦Ń":3587,"à¦ĸà¦¶":3588,"à¦ļà¦®à¦ķ":3589,"à¦£à¦«":3590,"Ġà¦Ĺà¦®à¦¨":3591,"Ġà¦Ĺà¦ľà¦²":3592,"à¦¡à¦¬à¦Ń":3593,"Ġà¦ľà¦łà¦°":3594,"Ġà¦ıà¦ķà¦ĺ":3595,"à¦¼à¦¾âĢĻ":3596,"à§ľà¦Ĺ":3597,"Ġà¦²à¦ķà¦²à¦ķ":3598,"à¦¬à¦¨à¦¸":3599,"à¦°à¦£à¦®à¦¯":3600,"à¦«à¦¤":3601,"Ġà¦Łà¦¨à¦Łà¦¨":3602,"Ġà¦ľà¦¨à¦¸à¦®":3603,"à¦°à¦®à¦ľ":3604,"Ġà¦Ĩà¦ªà¦¨à¦ľà¦¨":3605,"à¦¯à¦¤à¦ĩ":3606,"Ġà¦īà¦ªà¦¡":3607,"Ġà¦ªà¦¦à¦¤à¦²":3608,"Ġà¦Ńà¦¬à¦ĺ":3609,"à¦Ŀà¦°à¦Ŀà¦°":3610,"Ġà§§à§¯à§¨":3611,"à¦ıà¦ĸà¦¨à¦ĩ":3612,"res":3613,"Ġà¦Ńà¦°à¦¤à¦¬":3614,"Ġà¦·à§ľà¦¯à¦¨":3615,"ge":3616,"ht":3617,"ld":3618,"à¦¯à¦¯à¦¨":3619,"à¦®à¦¸à¦¨":3620,"Ġà¦¬à¦ķà¦¬":3621,"Ġà¦Ĩà¦ªà¦¸":3622,"à¥¤[":3623,"Ġà¦¨à¦ª":3624,"à§ĢâĢĻà¥¤":3625,"Ġà¦¤à¦°à¦£":3626,"Ġà¦¤à§İ":3627,"à¦ĸà¦¦":3628,"à¦§à¦ªà¦°":3629,"à¦¡à¦ĩ":3630,"Ġà¦ļà¦¬":3631,"Ġà¦«à§ľ":3632,"Ġà¦ĸà¦¤":3633,"Ġà¦ħà¦¨à§ľ":3634,"Ġà¦¸à¦®à¦¬à¦¯":3635,"ĠâĢĻ":3636,"à¦°à¦£à§Łà¦¨":3637,"à¦°à¦¬à¦¸":3638,"à¦°à¦¬à¦®à§Ł":3639,"à¦īà¦¹":3640,"à¦ıà¦®":3641,"à¦Ĩà§Ł":3642,"Ġà¦Ŀà¦°à¦¤":3643,"à¦¨à¦¤à¦²":3644,"à¦ħà¦¬à¦¸":3645,"Ġà¦ħà¦¸à¦Ļ":3646,"Ġà¦Ĩà¦Ĺà¦¸":3647,"à¦§à¦¨à¦ĩ":3648,"Ġà¦¸à¦¹à¦ľà¦²":3649,"à¦ıà¦ĩà¦¬":3650,"Ġà¦¶à¦¹à¦°à¦Ł":3651,"à§Ģà¥¤âĢĿ":3652,"Ġà¦Ńà§Łà¦ķ":3653,"à¦¸à¦¹à¦¦":3654,"Ġà§§à§¯à§©":3655,"à§§à§Ń":3656,"Ġtim":3657,"ant":3658,"ind":3659,"à¦ķà¦ľà¦¨à¦ķ":3660,"Ġà¦·à¦·":3661,"ong":3662,"Ġà¦Ķà¦·à¦§":3663,"Ġà¦Ĩà¦«à¦ľ":3664,"out":3665,"Ġthis":3666,"ĠĠĠĠĠĠĠĠ":3667,"Ġà¦ķà¦¨à¦ķà¦¨":3668,"Ġà¦¸à¦ĸà¦¨à¦ĵ":3669,"Ġà¦¸à¦¹à¦ľà¦²à¦Ń":3670,"ect":3671,"if":3672,"la":3673,"Ġ\"":3674,"ĠY":3675,"ĠØ":3676,"Ġan":3677,"Ġor":3678,"à¦¯à¦ĸ":3679,"Ġà¦ķà¦ļà¦²":3680,"Ġà¦¸à¦°à¦£":3681,"Ġà¦¸à¦Ĺà¦°":3682,"Ġà¦¸à¦ļà¦ķ":3683,"Ġà¦Ĩà¦ªà¦¦":3684,"à¥¤à¥¤":3685,"à¦¦à¦°à¦¬":3686,"à¦Łà¦ļ":3687,"Ġà¦¤à¦®à¦¸":3688,"à¦¶à¦¤à¦²":3689,"à¦ĸà¦Ń":3690,"à¦·à¦ķà¦¤":3691,"à¦ļà¦ķà¦°":3692,"Ġà¦°à¦¸à¦¨":3693,"à¦ĵà¦ľ":3694,"à¦Ńà¦®":3695,"Ġà¦ıà¦ķà¦®à¦¤":3696,"à¦¼à¦¿âĢĶ":3697,"à¦¬à¦°à¦¦":3698,"à¦«à§ľ":3699,"à¦·à¦£à¦®":3700,"à¦·à¦£à¦Ĺ":3701,"à¦°à¦®à¦ķ":3702,"Ġà¦Ĩà¦ķà¦£":3703,"à¦¦à¦¯à¦¨":3704,"Ġà¦ľà¦²à¦°à¦Ļ":3705,"à¦¿à¦ĤâĢĻ":3706,"à¦¯à¦¤à¦ķ":3707,"à¦®à¦¤à¦²":3708,"à¦®à¦ķà¦¥":3709,"à¦®à¦²à¦Ĺ":3710,"à¦¶à¦¨à¦ķ":3711,"Ġà¦ħà¦§à¦¸":3712,"Ġà¦ħà¦ľà¦ª":3713,"à§ģà¦ĥà¥¤":3714,"à¦¾âĢĻâĢĶ":3715,"Ġà§§à§¯à§§à§":3716,"à§§à§ª":3717,"Ġà§¨à§®":3718,"Ġà¦Ĩà§ľà¦®":3719,"à¦°à¦«à¦¤":3720,"à§İà¦ªà¦°à¦¤":3721,"Ġcon":3722,"Ġde":3723,"Ġtime":3724,"ave":3725,"ip":3726,"ĠV":3727,"à¦°à¦§à¦°":3728,"Ġà¦¸à¦¶à¦°":3729,"à¥¤)":3730,"à¥¤âĢĺ":3731,"Ġà¦¨à¦Ĺà¦£":3732,"Ġà¦®à¦Ł":3733,"à¦Łà¦¶":3734,"à¦ĩà¦ªà¦°":3735,"à¦¶à¦®à¦£":3736,"Ġà¦ıà¦¨à¦ķ":3737,"à¦£à¦®à§Ł":3738,"Ġà¦¶à¦°à¦¬à¦¤":3739,"Ġà¦Ńà¦°à¦£":3740,"à¦Ńà¦¤":3741,"Ġà¦ĸà¦ª":3742,"Ġà¦§à¦ª":3743,"à¦¤à¦°à¦®":3744,"à¦«à¦²à¦ķ":3745,"à¦ĺà¦Ľ":3746,"Ġà¦ľà¦¨à¦¶":3747,"à¦°à¦¹à¦¸à¦¨":3748,"Ġà¦ħà¦¤à¦Ł":3749,"à¦¨à¦¬à¦ķ":3750,"à¦Ĺà¦²à¦¬":3751,"Ġà¦¬à¦ĩà¦¬":3752,"Ġà¦¬à¦ĩà¦®":3753,"Ġà¦«à¦²à¦ª":3754,"à¦¶à¦ķà¦¦":3755,"Ġà¦¶à¦¤à¦ªà¦¥":3756,"Ġà¦¤à¦²à¦¦":3757,"Ġà¦¦à¦²à¦Ł":3758,"Ġà¦ĸà¦¬à¦°à¦¦":3759,"à§¨à§¦":3760,"Ġà¦ªà¦°à¦®à¦¸à¦¤":3761,"Ġà§¨à§¬":3762,"à¦ķà¦¸à¦ľ":3763,"Ġà¦Ĭà¦¨":3764,"à§¯à§®":3765,"à¦¯à¦ĸà¦¨à¦ĩ":3766,"Ġà¦Ķà¦ľ":3767,"ĠInd":3768,"Ġ***":3769,"Ġà¦Ĩà¦ĩà¦¸à¦ķ":3770,"Ġà¦ľà¦¨à¦Ĺà¦£à¦ķ":3771,"Ġhave":3772,".âĢĿ":3773,"iv":3774,"se":3775,"ÙĦ":3776,"ĠU":3777,"Ġv":3778,"Ġà§ľ":3779,"Ġro":3780,"à¦¨à¦°à¦ķ":3781,"à¦ķà¦ļà¦ķ":3782,"à§ģà§ģ":3783,"à§ĭâĢĿ":3784,"Ġà¦¬à¦°à¦ķ":3785,"Ġà¦¸à§İà¦ķ":3786,"Ġà¦¸à¦ļà¦°":3787,"à¦¸à¦ĸà¦¨":3788,"à¥ĩ":3789,"Ġà¦®à¦ľà¦²":3790,"à¦ĩà¦ħà¦ķ":3791,"Ġà¦ħà¦ĺà¦Łà¦¨":3792,"à¦·à¦°à¦¤":3793,"à¦ļà¦Ĺ":3794,"Ġà¦Ĺà¦ª":3795,"Ġà¦¶à¦Ł":3796,"à¦ĵà¦®":3797,"Ġà¦īà¦¸à¦ķ":3798,"Ġà¦²à¦¸":3799,"Ġà¦§à¦ķà¦²":3800,"à¦¬à¦¨à¦ªà¦¥":3801,"âĢĻâĢĵ":3802,"à¦¬à¦²à§Ł":3803,"Ġà¦Ŀà¦²":3804,"Ġà¦Ŀà¦°à¦¬":3805,"Ġà¦ĩà¦¤à¦°":3806,"à¦·à¦£à¦ľà¦¨":3807,"à¦°à¦¸à¦¹":3808,"à¦²à¦ķà¦¨":3809,"Ġà¦¬à¦°à¦¦":3810,"à¦Ĺà¦¤à¦ķ":3811,"à¦¨à¦¬à¦¸à¦Ń":3812,"Ġà¦Ĩà¦¤à¦¤":3813,"Ġà¦ħà¦ªà¦ļà§Ł":3814,"à¦°à¦ľà¦²":3815,"à§İà¦¸à¦®":3816,"Ġà¦ħà¦¥à¦°":3817,"à¦ıà¦ĩà¦ļ":3818,"à¦ªà¦¥à¦Ĺ":3819,"à¦¤à¦ķà¦°à¦£":3820,"ĠâĢĶâĢĶâĢĶ":3821,"à¦ľà¦²à¦°":3822,"à¦ľà¦²à¦¦":3823,"Ġà§§à§¯à§¦":3824,"à¦Łà¦¤à¦ĩ":3825,"Ġà¦ıà¦¸à¦¬à¦ĩ":3826,"à¦·à§Łà¦Ĺ":3827,"à§§à§¯":3828,"Ġà¦¹à¦ĩà¦ļà¦ĩ":3829,"Ġà¦¸à§İà¦¤":3830,"Ġà¦ĸà¦¸à¦¡":3831,"Ġby":3832,"Â·Â·Â·":3833,"æŃĵæŃĵæŃĵæŃĵæŃĵæŃĵæŃĵæŃĵ":3834,"Ġà¦¦à¦²à¦¬à¦¦":3835,")-":3836,"lis":3837,"à§ĩ),":3838,"à¦°à¦ĵà¦¯":3839,"à¦¬à¦ī":3840,"à¦¬à¦īà¦¦":3841,"à¦®à¦¶à¦ķ":3842,"à¦®à¦«à¦²":3843,"Ġà¦¬à¦ĩà¦²":3844,"Ġà¦¸à¦¦à¦¯":3845,"Ġà¦¸à¦ĩà¦¬":3846,"Ġà¦®à¦Łà¦ķ":3847,"à¦ľà¦ľ":3848,"à¦ľà¦ĸà¦¬à¦°":3849,"à¦¶à¦¤à¦ķ":3850,"à¦Ĺà¦°à¦¦":3851,"à¦£à¦Ńà¦°":3852,"à¦¡à¦ļ":3853,"à¦¡à¦īà¦ĩ":3854,"Ġà¦ļà¦°à¦ķ":3855,"Ġà¦°à¦ļà¦¯":3856,"Ġà¦¬à¦²à¦ª":3857,"à¦¬à¦¨à¦ľ":3858,"à¦¬à¦¨à¦ĵ":3859,"à¦°à¦¬à¦ŀ":3860,"à¦¤à¦°à¦Ĺ":3861,"à¦ıà¦¸à¦¸":3862,"à¦ĺà¦¦à¦²":3863,"Ġà¦ĩà¦īà¦Ł":3864,"Ġà¦ªà¦¥à¦¹":3865,"Ġà¦¬à¦¸à¦¤à¦¬":3866,"Ġà¦Ĩà¦¬à¦¹à¦®":3867,"à¦¤à¦¬à¦¬":3868,"à¦°à¦¸à¦¤":3869,"à¦²à¦ķà¦ļ":3870,"Ġà¦ªà§ľà¦¶":3871,"à§ĩâĢĶâĢĻ":3872,"Ġà¦¸à¦¹à¦¬":3873,"à¦ªà¦¦à¦¸":3874,"Ġà¦īà¦¤à¦²":3875,"à¦¤à¦ķà§ľ":3876,"à¦ªà¦ķà¦Ń":3877,"à§°à¦ķ":3878,"à¦°à¦Ĺà¦£":3879,"à¦ķà¦ķà¦¥":3880,"à§¨à§¨":3881,"à¦®à¦Łà¦®":3882,"Ġtr":3883,"à¦ıà¦ĸà¦¨à¦ĵ":3884,"Ġà¦¨à¦Ĺà¦¦":3885,"à¦·à¦¸à¦¦":3886,"est":3887,"Ġman":3888,"Ġà¦Ķà¦°à¦¸à¦ľ":3889,"ore":3890,"xt":3891,"ĠÐ":3892,"Ġit":3893,"à¦¾),":3894,"à¦°à¦Ĩà¦¨":3895,"à¦¤à¦ªà¦¸":3896,"à¦²à¦ļà¦°":3897,"à¦ķà¦Ŀ":3898,"à¦ķà¦Ĩà¦ª":3899,"à§ģ)":3900,"à¦¼âĢĿ":3901,"Ġà¦ķà¦¬à¦¨":3902,"Ġà¦ķà¦ĩà¦°":3903,"Ġà¦¸à¦¸à¦®":3904,"Ġà¦Ĩà¦ĩà¦Ł":3905,"à¦¦à¦ĸ":3906,"à¦¦à¦ļ":3907,"Ġà¦¨à¦¬à¦°":3908,"Ġà¦®à¦°à¦¦":3909,"Ġà¦®à§Łà¦¨":3910,"à¦Łà¦§à¦°":3911,"Ġà¦¤à§İà¦ªà¦°à¦¤":3912,"à¦ľà¦ļ":3913,"à¦ľà¦§à¦°":3914,"à¦Ľà¦¸":3915,"à¦¶à¦®à¦¨":3916,"à¦ĸà§ľ":3917,"à¦ļà¦£":3918,"à¦¥à¦°à¦Ł":3919,"Ġà¦ľà¦¬à¦°":3920,"à§ĩà¥¤âĢ¦":3921,"Ġà¦ıà¦ķà¦ķà¦¥":3922,"à¦łà¦Ń":3923,"à¦łà¦Ĺà¦¡":3924,"à¦¼à¦¾;":3925,"Ġà¦²à¦Ń":3926,"à¦¬à¦¨à¦¦à¦°":3927,"Ġà¦¸à¦®à¦Ń":3928,"Ġà¦ĺà¦°à¦ķ":3929,"à¦ªà¦°à¦¸":3930,"à¦ľà¦¨à¦ĵ":3931,"à¦¬à¦°à¦Ĺ":3932,"à¦Ĩà¦īà¦Ł":3933,"à¦ĺà¦Ĺ":3934,"Ġà¦Łà¦¨":3935,"à¦·à¦£à¦¶":3936,"Ġà¦ªà¦¥à¦Ĺ":3937,"à¦ħà¦°à¦¬":3938,"à¦¸à¦¬à¦ľ":3939,"à¦ķà¦Łà¦¬à¦°":3940,"à¦°à¦¥à¦ķ":3941,"à¦ķà¦¤à¦ķ":3942,"à¦°à¦¥à¦®à¦¦":3943,"à¦¯à¦¤à¦¦":3944,"à¦°à¦¶à¦¬":3945,"Ġà¦ħà¦ľà¦°":3946,"Ġà¦¶à¦¤à¦¦":3947,"Ġà¦¸à¦®à§Łà¦ķ":3948,"Ġà¦ĩà¦¨à¦ľ":3949,"à¦Łà¦¬à¦ĩ":3950,"Ġà§¨à§©":3951,"à¤²":3952,"à¤ķ":3953,"Ġà¦Ńà¦Ĺà¦¬à¦¦":3954,"Ġwas":3955,"Ġwill":3956,"Ġse":3957,"à§ĩâĢĿâĢĶ":3958,"à¦Ĭà¦°":3959,"Ġà¦§à§ľà¦«à§ľ":3960,"Ġà¦¬à¦ķà¦¬à¦ķ":3961,"!)":3962,",âĢĶ":3963,"10":3964,"rom":3965,"ter":3966,"Ġun":3967,"à¦°à¦§à¦¨":3968,"à¦¤à¦®à¦¨":3969,"à¦¤à¦ķà¦¤":3970,"à¦ķà¦ĺà¦°":3971,"à¦ķà¦¶à¦ª":3972,"à¦¬à¦ļà¦ķ":3973,"à¦¬à¦ĩà¦¯":3974,"à¦¯à¦¦à¦²":3975,"à¦¼à§ģ-":3976,"Ġà¦ķà¦®à¦¨":3977,"Ġà¦Ĩà¦ĩà¦Ľ":3978,"à¦¦à¦°à¦ķ":3979,"à¦¦à¦¹à¦¨":3980,"Ġà¦¨à¦¬à¦¦":3981,"Ġà¦®à§ľ":3982,"Ġà¦®à§ľà¦ķ":3983,"Ġà¦¦à¦ĸ":3984,"à¦§à¦®à§Ł":3985,"à¦¹à¦ľà¦¨à¦ķ":3986,"Ġà¦Ĺà¦«":3987,"Ġà¦ļà¦·":3988,"à¦ĵà¦¸à¦¬":3989,"Ġà¦ıà¦ķà¦²à¦¬":3990,"à¦łà¦Ĺ":3991,"à¦łà¦¹":3992,"Ġà¦īà¦Ĺà¦°":3993,"Ġà¦ĸà¦ŀ":3994,"Ġà¦ħà¦¨à¦¤":3995,"âĢĶ-":3996,"à¦¬à¦¨à¦¬à¦¤":3997,"à¦°à¦£à¦ĩ":3998,"à¦ŀà¦¸":3999,"à§İà¦ķà¦°":4000,"à¦¤à¦°à¦ŀ":4001,"à¦¤à¦°à¦«":4002,"à¦Ŀà¦Ľ":4003,"à¦°à¦ķà¦£":4004,"Ġà¦ķà¦¥à¦¨":4005,"Ġà¦¡à¦°":4006,"Ġà¦ľà¦¨à¦¸à¦Ń":4007,"Ġà¦ĵà¦łà¦¬":4008,"à¦ķà¦°à¦¦":4009,"Ġà¦īà¦¦à¦ĺ":4010,"à¦²à¦ķà¦¦":4011,"à¦¯à¦¬à¦ĩ":4012,"à¦¨à¦¬à¦ķà¦²":4013,"Ġà¦Ĩà¦ªà¦¨à¦ķ":4014,"à¦Ĺà¦²à¦¬à¦¨":4015,"Ġà¦Ĩà¦¤à¦¶à¦¬":4016,"Ġà¦ıà¦¤à¦ĸ":4017,"à¦ªà¦¤à¦Ļ":4018,"à¦°à¦²à¦¸":4019,"Ġà¦ħà¦Ĺà¦£à¦¨":4020,"à¦¬à¦ķà¦ķ":4021,"Ġà¦¶à¦¤à¦ķà¦°":4022,"Ġà¦Ĩà¦§à¦ª":4023,"à¦¥à¦°à¦Ĺ":4024,"Ġà¦¬à¦Łà¦¤à¦²":4025,"à¦¼âĢĶâĢľ":4026,"Ġà¦¦à¦¶à¦°à¦¥":4027,"à¦°à¦¬à¦²à¦Ń":4028,"à¤¨":4029,"à§«à§¦":4030,"à§ĩâĢ¦à¥¤":4031,"end":4032,"Ġad":4033,"ory":4034,"Ġà¦¨à¦ľà¦°à¦¦":4035,"à¦ĵà¦ľà¦«":4036,"ain":4037,"aut":4038,"ci":4039,"og":4040,"à¦¨à¦ĺ":4041,"à¦¤à¦§à¦¨":4042,"à¦¤à¦®à¦¤":4043,"à¦¤à¦ªà¦¦":4044,"à§ģ!âĢĿ":4045,"à¦®à¦ļà¦ķ":4046,"à¦¼)":4047,"Ġà¦¸à¦¶à¦¬":4048,"Ġà¦ªà¦ļà¦¨":4049,"Ġà¦¨à¦ĸà¦°":4050,"à¦ĩà¦ŀ":4051,"à¦¶à¦ĵà¦¯":4052,"à§Łà¦Ł":4053,"à¦·à¦°à¦¹":4054,"à¦§à¦Ĺà¦®":4055,"à¦£à¦¬à¦°":4056,"à¦£à¦ªà¦ķ":4057,"à¦¡à¦ľ":4058,"Ġà¦ľà¦®à¦²":4059,"Ġà¦Ńà§ľà¦ķ":4060,"à¦Ńà¦²":4061,"Ġà¦ĵà¦¬":4062,"Ġà¦ĵà¦§":4063,"Ġà¦²à¦ĩà¦¯":4064,"Ġà¦«à¦¸à¦«":4065,"Ġà¦ĸà§Ł":4066,"Ġà¦¬à¦²à¦Ł":4067,"Ġà¦ħà¦¨à¦Ń":4068,"à¦¬à¦¨à¦ª":4069,"à¦ŀà¦ª":4070,"à§İà¦¸à¦¨":4071,"à¦¬à¦²à¦°":4072,"Ġà¦ĩà¦¡":4073,"Ġà¦ªà¦¥à¦¨":4074,"Ġà¦ªà¦¥à¦Ń":4075,"à¦¤à¦¨à¦ķ":4076,"Ġà¦¢à¦ķ":4077,"à¦²à¦ķà¦ķ":4078,"à¦²à¦ķà¦Ń":4079,"Ġà¦ħà¦Ńà§Ł":4080,"Ġà¦ĺà¦°à¦¦":4081,"Ġà¦Ĩà¦¤à¦°à¦¬":4082,"Ġà¦ħà¦ªà¦Ł":4083,"à¦·à¦¤à¦²":4084,"Ġà¦¹à¦łà¦ķ":4085,"Ġà¦ªà¦¦à¦¶à¦¬":4086,"à¦¤à¦²à¦Ł":4087,"Ġà¦Ĳà¦°":4088,"Ġà¦«à¦²à¦®":4089,"Ġà¦¸à¦¹à¦ľà¦Ń":4090,"à¦¨à¦Ńà¦Ļ":4091,"à§§à§«":4092,"Ġà¦Ĩà§ľà¦ļ":4093,"hed":4094,"ath":4095,"Ġà¦ķà¦¬à¦°à¦¸":4096,"Ġam":4097,"art":4098,"Ġno":4099,"lect":4100,"ide":4101,"à¦¡à¦īà¦ĩà¦ļ":4102,"!!":4103,"ck":4104,"à¦°à¦¡":4105,"à¦°à¦Ĺà¦²":4106,"à§įâĢį":4107,"à¦¿âĢĿà¥¤":4108,"à¦¨à¦ľà¦¨à¦ķ":4109,"à¦²à¦§":4110,"à¦²à¦¸à¦¨":4111,"à¦²à¦Ńà¦°":4112,"à¦ķà¦°à¦¬":4113,"à¦¬à¦¦à¦°":4114,"Ġà¦¸à¦¶":4115,"Ġà¦¸à¦ĵà¦¦":4116,"à¦¸à¦ĵà¦¯":4117,"à¥¤âĢĵ":4118,"Ġà¦¦à¦¦":4119,"Ġà¦¦à¦ĩà§Ł":4120,"à¦ľà¦²à¦¬":4121,"à§Łà¦ĵ":4122,"à¦·à¦¬à¦°":4123,"à¦Ĺà¦°à¦ķ":4124,"à¦¹à¦ĵ":4125,"à¦ļà¦Ń":4126,"à¦ļà¦²à¦¨":4127,"à¦ļà¦²à¦¬":4128,"Ġà¦ķà¦°à¦¨":4129,"Ġà¦ķà¦°à¦ļ":4130,"Ġà¦Ĺà¦ŀ":4131,"à¦¡à¦¦":4132,"à¦¡à¦«":4133,"à¦¥à¦¦":4134,"Ġà¦¶à¦ķà¦Ł":4135,"à¦Ńà¦Ĺà¦¬":4136,"Ġà¦ıà¦ķà¦§à¦°à¦¨":4137,"à¦łà¦ľ":4138,"à¦¾à¦ģà¥¤âĢĻ":4139,"Ġà¦ĸà¦¤à¦®":4140,"Ġà¦¬à¦²à¦¦":4141,"Ġà¦§à§°":4142,"à¦¬à¦¨à¦°":4143,"à¦¤à¦°à¦ĵ":4144,"Ġà¦Ĩà¦²à¦«":4145,"à¦ĺà¦Łà¦ķ":4146,"Ġà¦¹à¦²à¦ĺà¦°":4147,"ĠâĢĺâĢĺ":4148,"à¦·à¦£à¦ĵ":4149,"Ġà¦ªà¦¥à¦ĵ":4150,"Ġà¦Ĩà¦ľà¦®":4151,"à¦°à¦¹à¦°à¦£":4152,"à¦²à¦¨à¦¸":4153,"à¦¦à§Łà¦¸":4154,"à¦ıà¦ĩà¦°à¦ķà¦®":4155,"Ġà¦ªà¦¦à¦¸":4156,"âĢĮà§į":4157,"Ġà¦¬à¦ĩà¦ķ":4158,"à§°à¦Ń":4159,"Ġà¦¶à¦¤à¦¶":4160,"Ġà¦Ĩà¦§à¦ĸ":4161,"Ġà¦¦à¦²à¦Ĺà¦¤":4162,"Ġà¦Ĺà¦£à¦ľ":4163,"Ġà¦§à¦¨à¦¸à¦®":4164,"Ġà¦ħà¦¸à¦®à¦ŀ":4165,"ine":4166,"Ġà¦ħà¦¹à¦°à¦¹":4167,"à¦Īà¦¦":4168,"à¦¾âĢĿâĢĶ":4169,"Ġlo":4170,"Ġà¦ķà¦ªà¦Łà¦¤":4171,"ike":4172,"ress":4173,"?âĢĶ":4174,"har":4175,"ian":4176,"ry":4177,"Ġ=":4178,"Ġà¦£":4179,"à¦¨à¦§":4180,"à¦¨à¦®à¦¤":4181,"à¦¨à¦ļà¦°":4182,"à¦¤à¦«":4183,"à¦¤à¦®à¦¯":4184,"à¦ķà¦Ńà¦°":4185,"à¦¯à¦Ĺà¦¨":4186,"à¦®à¦Ĺà¦°":4187,"Ġà¦¬à¦°à¦¬":4188,"Ġà¦¸à¦ĵà¦¯":4189,"Ġà¦¸à¦ªà¦ķ":4190,"Ġà¦ªà¦ª":4191,"à¥Ģ":4192,"à¦Łà¦ľ":4193,"à¦ªà¦ľà¦¨":4194,"Ġà¦¦à¦Ļ":4195,"Ġà¦¤à¦ĸ":4196,"Ġà¦¹à¦īà¦ķ":4197,"Ġà¦ħà¦¤à¦¨":4198,"Ġà¦¯à¦¶à¦¸":4199,"à¦¹à¦®à§Ł":4200,"à¦ļà¦¤à¦²":4201,"Ġà¦°à¦Ĺ":4202,"Ġà¦Ĩà¦®à¦¬":4203,"à¦łà¦®":4204,"Ġà¦īà¦ĩà¦¨":4205,"à¦¼à¦¾!":4206,"à¦¬à¦¨à¦ļà¦ķ":4207,"Ġà¦®à¦¨à¦ĵ":4208,"âĢĻ!":4209,"à¦¿,-":4210,"Ġà¦ıà¦ĩà¦¸à¦®à¦¯":4211,"à¦°à¦¬à¦Ń":4212,"à¦īà¦Ńà¦¯":4213,"à¦«à¦ª":4214,"à¦ıà¦ĵ":4215,"Ġà¦¸à¦¬à¦¥":4216,"Ġà¦Ĩà¦¸à¦¸":4217,"Ġà¦Ĩà¦¸à¦ļ":4218,"Ġà¦®à¦¤à¦¬":4219,"Ġà¦¬à¦¨à¦ľ":4220,"Ġà¦ĵà¦łà¦²":4221,"à¦¤à¦¨à¦¬":4222,"Ġà¦Ĩà¦Ĺà¦¤":4223,"à¦²à¦ķà¦¬":4224,"à¦°à¦¹à¦¶":4225,"à¦¿à¦ĤâĢĶ":4226,"Ġà¦ªà§ľà¦¨":4227,"Ġà¦īà¦ªà¦Ĺ":4228,"à¦°à¦¦à§Ł":4229,"Ġà¦ħà¦ľà¦Ĺà¦°":4230,"Ġà¦¨à§Łà¦¤":4231,"Ġà¦ķà¦®à¦ĩ":4232,"à¦¤à¦¤à¦®":4233,"à¦°à¦Ńà¦Ļ":4234,"à¦°à¦¹à¦°à¦Ĺ":4235,"Ġà¦ıà¦ķà¦ĩà¦¸à¦Ļ":4236,"!âĢĿâĢĶ":4237,"Ġà¦Ĩà¦ªà¦²":4238,"Ġà¦ļà¦®à¦ķà¦ª":4239,"à¦¬à¦¹à¦®":4240,"à§©à§©":4241,"ang":4242,"à¦ľà¦Ĺà¦¤à¦ķ":4243,"Ġà¦°à¦¥à¦¬":4244,"ated":4245,"à¦¾âĢĿà¥¤":4246,"Ġà¦®à¦Ĺà¦§à¦°":4247,"ite":4248,"iter":4249,"à§¨à§¦à§¦à§«":4250,"Ġme":4251,"Ġname":4252,"ome":4253,"ich":4254,"Ġà¦ľà¦²à¦ķà¦¨":4255,"Ġà¦ľà¦¨à¦ªà¦¦à¦¬":4256,"Ġà¦¦à¦«à¦¤à¦°":4257,"à¦¡à¦Ńà¦£":4258,"Ġà¦Ŀà¦Łà¦ªà¦Ł":4259,"ºçľºçľºçľºçľ":4260,"·çľ·çľ·çľ·çľ":4261,"ublis":4262,"bs":4263,"dv":4264,"ep":4265,"now":4266,"ser":4267,"ãģ":4268,"Ġ_":4269,"Ġj":4270,"à§įâĢĻ":4271,"à¦¨à¦¬à¦ª":4272,"à¦¨à¦ĵà¦¯":4273,"à¦¨à¦ķà¦°":4274,"à¦¤à¦¬à¦¨":4275,"à¦¤à¦¤à¦²":4276,"à¦²à¦ľà§Ł":4277,"à¦ķà¦¤à¦°":4278,"à¦ķà¦®à¦¯":4279,"à¦ķà¦®à¦²":4280,"à¦¯à¦®à¦¤":4281,"à¦®à¦¶à¦²":4282,"Ġà¦ķà¦¸à¦®":4283,"Ġà¦ķà§°":4284,"Ġà¦¬à¦ļà¦¸":4285,"Ġà¦ªà¦ľ":4286,"Ġà¦Ĩà¦ī":4287,"à¦¦à¦¬à¦¤":4288,"Ġà¦®à¦ĩ":4289,"à¦Łà¦Ĩà¦ª":4290,"à¦ªà¦®à¦¯":4291,"Ġà¦¤à¦°à¦¤":4292,"Ġà¦¤à¦¤à¦¬":4293,"à¦ľà¦¶à¦ķ":4294,"à¦Ľà¦ĩ":4295,"Ġà¦ıà¦ŀ":4296,"à§Łà¦ªà¦°":4297,"Ġà¦ħà¦¹à¦®":4298,"à¦Ĺà¦¶":4299,"à¦¼à§ĩâĢĻ":4300,"à¦§à¦ľà¦¯":4301,"à¦£à¦¶à¦ķ":4302,"Ġà¦Ĺà¦¤à¦°":4303,"Ġà¦ļà¦ĵà§ľ":4304,"ĠĠĠĠĊ":4305,"à§ĩà¥¤à¥¤":4306,"à§ĩ,âĢĶ":4307,"à§ľà¦Ļ":4308,"Ġà¦²à¦Łà¦ķ":4309,"Ġà¦ĸà¦¯":4310,"Ġà¦ĸà¦Łà¦ĸ":4311,"Ġà¦§à¦¨à¦ķ":4312,"Ġà¦®à¦¨à¦®":4313,"à§İà¦ªà¦¤":4314,"à¦°à¦¬à¦ªà¦ķ":4315,"à¦īà¦£":4316,"à¦¬à¦°à¦ļ":4317,"Ġà¦Ĩà¦²à¦ª":4318,"à¦ıà¦®à¦¨à¦ĩ":4319,"à¦ıà¦Ĩà¦ĩ":4320,"Ġà¦¸à¦¬à¦¦":4321,"à¦Ĩà¦Ń":4322,"Ġà¦ķà¦¥à¦ķà¦¤":4323,"à¦ĺà¦¬à¦¦":4324,"Ġà¦¡à¦²":4325,"Ġà¦ĩà¦¥":4326,"à§ģà¦ģà¥¤":4327,"à¦°à¦®à¦²":4328,"à¦ħà¦£":4329,"Ġà¦Ĺà¦²à¦¤":4330,"à¦°à¦¹à¦ķ":4331,"à¦¨à¦ĵà¦ĸ":4332,"à¦°à¦¶à¦®":4333,"Ġà¦ħà¦ªà¦Ń":4334,"à¦¶à¦¨à¦Ł":4335,"Ġà¦ķà¦¤à¦ľà¦¨":4336,"à§İà¦¸à¦ķà¦¦":4337,"Ġà¦ľà¦®à¦Ľ":4338,"à¦¤à¦ķà¦¡":4339,"à¦¬à¦¸à¦¤":4340,"à¦ħà¦¨à¦²":4341,"à§¦à§¯":4342,"Ġà¦Ĩà¦¦à¦¤":4343,"Ġà¦¬à§ľà¦¦":4344,"Ġà¦ĭà¦Ĺ":4345,"à§¨à§«":4346,"Ġà¦īà§ľà¦¬":4347,"Ġà¦¹à¦¨à¦¹à¦¨":4348,"à§«à§Ń":4349,"Ġà¦ĸà¦¸à§ľ":4350,"Ġà¦ľà¦Ĺà¦¦":4351,"ark":4352,"Ġà¦ıà¦°à¦ªà¦°à¦ĵ":4353,"Ġà¦¨à§ľà¦Ľ":4354,"hak":4355,"ĠAnd":4356,"uth":4357,"Ġà§§à§¯à§ªà§Ń":4358,"Ġà¦ĸà¦Łà¦ĸà¦Ł":4359,"ak":4360,"ies":4361,"ired":4362,"ug":4363,"ust":4364,"Ð°":4365,"ĠF":4366,"à¦¾.":4367,"à¦¾âĢĮ":4368,"à¦¤à¦¸à¦®":4369,"à¦²à¦ªà¦¥":4370,"à¦²à¦ľà¦²":4371,"à¦ķà¦¦à¦®":4372,"à¦¬à¦ªà¦°":4373,"à¦®à¦ł":4374,"à¦®à¦¬à¦²":4375,"à¦®à¦Ĺà¦¤":4376,"à§ĭà¦ĥ":4377,"à¦¸à§ľ":4378,"Ġà¦¨à¦¬à¦ª":4379,"à¦ĩà¦®à¦¨":4380,"à¦¶à¦°à¦ķ":4381,"Ġà¦¹à¦°à¦ª":4382,"Ġà¦ıà¦¤à¦¬à¦¡":4383,"Ġà¦ħà¦Ĺà¦¤":4384,"à¦ĸà¦§":4385,"à¦ĸà¦°à¦ļ":4386,"à¦·à¦¡":4387,"à¦·à¦§à¦°":4388,"à¦¹à¦¬à¦¨":4389,"à¦£à¦ľ":4390,"Ġà¦Ĺà¦°à¦ľ":4391,"Ġà¦Ĺà¦®à¦Ĺ":4392,"à¦¡à¦ĵà¦¯":4393,"à¦¥à¦ĵ":4394,"Ġà¦Ńà¦¨":4395,"Ġà¦Ńà¦ľà¦¨":4396,"à¦ĵà¦ĸ":4397,"à§ĥà¦Ĥ":4398,"à¦Ńà¦°à¦¸":4399,"à¦ľà¦¨à¦ªà¦¦à¦¬":4400,"à¦īà¦¥":4401,"à¦īà§İà¦ª":4402,"à¦ıà¦°à¦ķà¦®":4403,"à¦ıà¦¤à¦¦":4404,"à¦Ĩà¦¬à¦Ľ":4405,"à¦ĺà¦ľ":4406,"à¦ĺà¦°à¦Ł":4407,"Ġà¦Łà¦Ļ":4408,"Ġà¦Łà¦®à¦Łà¦®":4409,"âĢĿ!":4410,"à¦¼,âĢĿ":4411,"Ġà¦¬à¦¨à¦²à¦¤":4412,"Ġà¦Ĺà¦²à¦Ľ":4413,"Ġà¦Ĺà¦²à¦Ĺà¦²":4414,"à¦°à¦¸à¦Ĺ":4415,"à¦¦à¦°à¦¦":4416,"Ġà¦ľà¦²à¦Ľ":4417,"Ġà¦ķà¦¬à¦ľ":4418,"Ġà¦ħà¦Ńà¦¦":4419,"à¦§à¦¨à¦¶":4420,"Ġà¦ıà¦®à¦¨à¦¤à¦°":4421,"à¦ļà¦¨à¦ľà¦Ļ":4422,"à¦ĩà¦¨à¦¸":4423,"à¦ĩà¦¨à¦«":4424,"à¦¬à¦¦à¦°à¦¬":4425,"Ġà¦Ĺà¦Ńà¦°":4426,"à¦ıà¦ķà¦¥":4427,"à¦¬à¦ķà¦¥":4428,"à¦°à¦ļà¦²à¦¨":4429,"Ġà¦Ĺà§ľà¦¨":4430,"Ġà¦Īà¦ª":4431,"Ġà§§à§§à§":4432,"à§¦à§§":4433,"Ġà¦Ĩà¦ļà¦®":4434,"à¦¸à¦ķà¦¦":4435,"à§¨à§§":4436,"à¦®à¦Ĺà¦ŀ":4437,"à¦ľà¦¬à¦§":4438,"Ġà¦§à¦¨à¦ŀ":4439,"à¦łà¦ķà¦¦":4440,"?âĢĿâĢĶ":4441,"Ġà¦¶à¦¹à¦°à¦¬":4442,"à¦¦à¦Ĺà¦¦":4443,"à¦ķà§ľà¦¸":4444,"à¦ĩà§Łà¦°":4445,"à¦°à¦®à¦¶à¦ĩ":4446,"Ġà¦¸à¦«à¦Łà¦ĵà§Ł":4447,"à¦¾âĢĿâĢĵ":4448,"Ġso":4449,"ount":4450,"Ġbrow":4451,"ĠBo":4452,"à§§à§¯à§«":4453,"à¦Ĺà¦łà¦¨à¦Ĺ":4454,"Ġwho":4455,"Ġnext":4456,"dvik":4457,"!âĢĶ":4458,"ia":4459,"iel":4460,"iya":4461,"ok":4462,"Ðµ":4463,"Ð¾":4464,"ÙĨ":4465,"Ġr":4466,"Ġal":4467,"à§ĩ/":4468,"à¦¨à¦«":4469,"à¦¨à¦ªà¦ķ":4470,"à¦¨à¦®à¦¨à¦¸":4471,"à¦¤à¦®à¦£":4472,"à¦²à¦¤à¦°":4473,"à¦ķà¦°à¦¤":4474,"à¦ķà¦°à¦ķ":4475,"à¦ķà¦¸à¦¬":4476,"à¦¬à¦®à§Ł":4477,"à¦®à¦¬à¦¨":4478,"à¦®à¦²à¦ķ":4479,"à¦®à¦¦à¦°":4480,"Ġà¦¬à¦ĸ":4481,"Ġà¦Ĩà¦ĵà¦¡":4482,"à¦¦à¦ĺà¦¨":4483,"à¦Łà¦¯":4484,"à§Ģ:":4485,"à¦ĩà¦¸à¦²":4486,"à¦ľà¦®à¦¹":4487,"à¦Ľà¦²à¦¤":4488,"à¦¶à¦ĸ":4489,"Ġà¦ħà¦Ľ":4490,"Ġà¦ħà¦ľà¦¨":4491,"Ġà¦ħà¦°à¦ķ":4492,"Ġà¦ħà§°":4493,"à¦§à¦ļ":4494,"à¦¹à¦ľ":4495,"à¦¹à¦¶":4496,"à¦¹à¦Ńà¦°":4497,"à¦£à¦¸à¦®":4498,"Ġà¦Ĺà§Łà¦¨":4499,"Ġà¦Ĺà¦¦à¦Ĺà¦¦":4500,"à¦¡à¦ĵ":4501,"à¦¥à¦ªà¦¤":4502,"Ġà¦ľà¦ľ":4503,"Ġà¦°à¦¦":4504,"à§ĩà¥¤âĢĺ":4505,"Ġà¦Ĩà¦®à¦ľ":4506,"Ġà¦ıà¦ķà¦¤à¦°à¦«":4507,"Ġà¦īà¦Łà¦ķ":4508,"Ġà¦ĵà¦¤à¦ª":4509,"Ġà¦ĸà¦ĩ":4510,"à¦¾,âĢĻ":4511,"à¦¬à¦¨à¦Ńà¦°":4512,"à¦°à¦£à¦¹":4513,"à¦ŀà¦¬à¦²":4514,"à¦¤à¦°à¦¦":4515,"à¦ľà¦¨à¦ª":4516,"à¦īà¦Ńà§Ł":4517,"à¦¬à¦°à¦§":4518,"Ġà¦Ĩà¦²à¦Ł":4519,"à¦°à¦ķà¦¥":4520,"à¦ıà¦°à¦ĩ":4521,"à¦ıà¦¤à¦ķ":4522,"à§Īà¥¤":4523,"Ġà¦Łà¦¯":4524,"Ġà¦Łà¦Ĺà¦°":4525,"Ġà¦ĩà¦£":4526,"Ġà¦ĩà¦¹à¦²":4527,"Ġà¦ĩà¦¨à¦ķ":4528,"à¦ĥâĢĶ":4529,"à¦ħà¦¯":4530,"à¦¸à¦¬à¦®":4531,"à¦¤à¦¬à¦®":4532,"Ġà¦Ĺà¦²à¦¨":4533,"Ġà¦Ĩà¦¨à¦¸":4534,"Ġà¦ľà¦²à¦¯":4535,"Ġà¦ľà¦²à¦Ń":4536,"à¦§à¦¨à¦Ĺ":4537,"à¦²à¦¨à¦ĩ":4538,"Ġà¦ħà¦ªà¦ķà¦°":4539,"Ġà¦ķà¦¤à¦ķà¦Ł":4540,"Ġà¦ªà¦¦à¦®à¦ķ":4541,"âĢ¦..":4542,"à¦¯à¦®à§Łà¦¤":4543,"Ġà¦Ĺà¦¨à¦Ĺà¦¨":4544,"à§ģâĢĻ-":4545,"Ġà¦ħà¦²à¦¸à¦¤":4546,"à¦°à¦ªà¦Ł":4547,"à¦°à¦ªà¦Ļ":4548,"à§°à¦ľà¦°":4549,"à¦¿âĢĶâĢĻ":4550,"à¦¢à¦²":4551,"à§Łà¦¨à¦¯":4552,"à¦¼à§ĩà¥¤âĢĿ":4553,"Ġà¦ıà¦ķà¦¬à¦ļà¦¨":4554,"à¦°à¦®à¦£à¦ª":4555,"à§¨à§ª":4556,"Ġà¦īà§İà¦¸à¦¬à¦Ĺ":4557,"à¤¯":4558,"à¤¹":4559,"à¦¬à¦ĩà§Ł":4560,"à¦®à¦¦à¦ķ":4561,"Ġà¦°à¦¸à¦¦":4562,"Ġà¦Ĭà¦¨à¦¬":4563,"à¦ļà¦°à¦£à¦ķ":4564,"à§¯à§©":4565,"Ġà¦ıà¦°à¦ķà¦®à¦ĩ":4566,"Ġà¦ķà¦Łà¦®à¦Ł":4567,"à§ĩâĢĻâĢĶ":4568,"à§¬à§¦":4569,"ers":4570,"Ġà¦Ĩà¦ĸà¦¡":4571,"à§Ģà¦Ĥà¥¤":4572,"ĠSave":4573,"ast":4574,"à¦ķà¦ľà¦®à¦ķ":4575,"elf":4576,"éŁ¿éŁ¿éŁ¿éŁ¿éŁ¿éŁ¿éŁ¿éŁ¿éŁ¿éŁ¿éŁ¿éŁ¿éŁ¿éŁ¿éŁ¿éŁ¿éŁ¿éŁ¿éŁ¿éŁ¿éŁ¿éŁ¿éŁ¿éŁ¿éŁ¿éŁ¿éŁ¿éŁ¿éŁ¿éŁ¿éŁ¿éŁ¿":4577,"âĢķâĢķâĢķâĢķ":4578,"à§ľà¦¸à¦ĵà§Ł":4579,"ĠUn":4580,"11":4581,"12":4582,"16":4583,"20":4584,"dress":4585,"iver":4586,"pe":4587,"we":4588,"Ùħ":4589,"Ùİ":4590,"à¸":4591,"Ġï»¿":4592,"à§ĩâĢĿà¥¤":4593,"à¦°à§İ":4594,"à¦¨à¦ĩà¦²":4595,"à¦ķà¦¤à¦¬":4596,"à¦ķà§°":4597,"Ġà¦¬à¦¦à¦°":4598,"à¦¸à¦®à¦¨":4599,"Ġà¦Ĩà¦ĵ":4600,"à¦¦à¦ĺ":4601,"Ġà¦¨à¦²à¦ķ":4602,"à¦Łà¦¤à¦°":4603,"à§ĢâĢ¦":4604,"à¦ªà¦¬à¦¨":4605,"à¦ªà¦¤à¦°":4606,"Ġà¦¤à¦¸à¦²":4607,"Ġà¦¹à¦®":4608,"Ġà¦¹à¦°à¦¤":4609,"à§Łà¦¤à¦¨":4610,"à§Łà¦£à¦¤":4611,"à¦ĸà¦ľ":4612,"à¦·à¦ļ":4613,"à¦Ĺà¦°à¦¤":4614,"à¦§à¦ļà¦¨":4615,"à¦§à§ľà¦ķ":4616,"à¦¹à¦ļ":4617,"à¦¹à¦¬à¦§":4618,"à¦ļà¦ĸ":4619,"à¦ļà¦¬à¦°":4620,"à¦£à¦ł":4621,"Ġà¦ķà¦°à¦ľ":4622,"à¦Ńà§Łà¦ķ":4623,"Ġà¦Ĩà¦®à¦²à¦ķ":4624,"à§Ĥ,":4625,"à¦łà¦¤à¦®":4626,"Ġà¦īà¦¶":4627,"à¦¾à¦ģâĢĻ":4628,"Ġà¦¥à¦¤à¦®à¦¤":4629,"à¦¾à¥¤âĢ¦":4630,"Ġà¦¸à¦®à¦¦":4631,"à¦®à¦¨à¦¦":4632,"à¦®à¦¨à¦Ń":4633,"à¦ŀà¦ķ":4634,"à¦Ŀà¦¬à¦¯":4635,"à¦ľà¦¨à¦§":4636,"à¦īà§İà¦¸":4637,"à¦īà¦Łà¦¨":4638,"à¦¬à¦°à¦ļà¦¨":4639,"Ġà¦Ĩà¦²à¦¨":4640,"à¦«à¦¸à¦²":4641,"Ġà¦Ŀà¦Ĺà§ľ":4642,"Ġà¦¬à¦¨à¦°":4643,"à¦ħà¦®à¦¨":4644,"à¦ħà¦¸à¦®":4645,"Ġà¦Ĩà¦ľà¦°":4646,"Ġà¦¬à¦°à¦¯":4647,"à¦¯à¦¬à¦¶à¦¤":4648,"Ġà¦ľà¦²à¦ļà¦°":4649,"à¦¨à¦¬à¦ľà¦¨":4650,"Ġà¦ĺà¦°à¦Ľ":4651,"Ġà¦ķà¦²à¦®à¦Ł":4652,"à¦ªà¦¦à¦Ĺ":4653,"à¦°à¦ľà¦°":4654,"à¦ĩà¦²à¦¸":4655,"à¦¾âĢĶâĢĺ":4656,"à¦¤à¦®à¦¶":4657,"à§°à¦¨":4658,"Ġà¦¶à¦¤à¦Ĺ":4659,"Ġà¦¨à¦¬à¦®":4660,"Ġà¦īà§İà¦ķà¦Ł":4661,"à§¦à§©":4662,"Ġà¦Ĩà¦¦à¦ª":4663,"à¦°à¦®à¦£à¦¬":4664,"Ġà¦ĸà¦¬à¦°à¦ĵ":4665,"à¦°à¦«à¦°":4666,"à¦¿âĢĻâĢĶ":4667,"Ġà¦ķà¦¬à¦°à¦ĸ":4668,"Ġà¦Ńà¦Ĺà¦¬à¦¤":4669,"Ġmark":4670,"Ġà¦Ŀà¦ķà¦®à¦ķ":4671,"Ġcomment":4672,"ĠIn":4673,"Ġfiel":4674,"Ġpublis":4675,"Ġà¦°à¦¹à¦®à¦¤":4676,"ĠComment":4677,"Ġà¦łà¦ķà¦łà¦ķ":4678,"ĠName":4679,"ĠEmail":4680,"Ġwebs":4681,"ĠRequ":4682,"ĠYour":4683,"Ġaddress":4684,"Ġbrowser":4685,"Ġmarked":4686,"Ġfields":4687,"Ġpublished":4688,"Ġwebsite":4689,"ĠRequired":4690,"13":4691,"14":4692,"15":4693,"17":4694,"18":4695,"22":4696,"24":4697,"25":4698,"The":4699,"av":4700,"ff":4701,"led":4702,"uc":4703,"ud":4704,"Åĵ":4705,"Ø±":4706,"à¦¾)à¥¤":4707,"à¦°à¦ħ":4708,"à¦°à¦ªà¦ķ":4709,"à§įà§į":4710,"à¦¨à¦ĺà¦°":4711,"à¦¨à¦®à¦¸":4712,"à¦¤à¦¤à¦°":4713,"à¦¤à¦ªà¦¥":4714,"à¦²à¦¬à¦°":4715,"à¦²à¦ķà¦°":4716,"à¦²à¦ļà¦ķ":4717,"à¦¬à§İà¦¸":4718,"à¦¬à¦ľà¦Ĺà§İ":4719,"à¦®à¦ªà¦¥":4720,"à¦®à¦§à¦°":4721,"Ġà¦ķà¦ŀ":4722,"Ġà¦¬à¦Ĺ":4723,"Ġà¦¬à¦°à¦®":4724,"Ġà¦¬à¦ķà¦°":4725,"Ġà¦¬à¦®à¦¬":4726,"Ġà¦¬à¦īà§Ł":4727,"Ġà¦¸à¦°à¦¤":4728,"à¦¸à¦¶":4729,"Ġà¦Ĩà¦Łà¦ª":4730,"à¥ģ":4731,"Ġà¦®à¦²à¦®":4732,"à¦Łà¦ľà¦¨":4733,"à¦ľà¦°à¦¤":4734,"à¦ľà¦¬à¦¨":4735,"à¦¶à¦²à¦¤":4736,"Ġà¦ħà¦ĩ":4737,"Ġà¦ħà¦¢":4738,"à¦ĸà¦°à¦¤":4739,"à¦Ĺà¦Ĺà¦¨":4740,"à¦Ĺà¦®à§Ł":4741,"à¦§à¦¨à¦ĵ":4742,"à¦ļà¦Ļ":4743,"à¦£à§Ł":4744,"à¦¡à¦²à¦ķ":4745,"Ġà¦°à¦¡":4746,"à¦Ńà¦²à¦Ń":4747,"Ġà¦Ĩà¦®à¦°à¦£":4748,"Ġà¦ıà¦ķà¦¤à¦®":4749,"à¦Ļà¦ķ":4750,"Ġà¦ĵà¦ľ":4751,"à§ľà¦Ŀ":4752,"Ġà¦ĸà¦¨à¦ª":4753,"Ġà¦ħà¦¨à¦¬":4754,"Ġà¦ĺà¦¨à¦¤":4755,"à§İà¦°":4756,"à¦°à¦¬à§İ":4757,"à¦¤à¦°à¦²":4758,"à¦¤à¦°à¦ĩ":4759,"à¦īà¦¦à¦¯":4760,"à¦īà¦¨à¦²":4761,"à¦īà¦ĩà§Łà¦°":4762,"à¦«à¦²à¦¤":4763,"Ġà¦¸à¦¬à¦¶":4764,"Ġà¦¡à¦¨":4765,"Ġà¦¡à¦ľà¦¨":4766,"Ġà¦Ŀà¦ª":4767,"à¦ĥ!":4768,"à¦·à¦£à¦Ń":4769,"Ġà¦ªà¦¥à¦¶":4770,"Ġà¦¬à¦¨à¦ļ":4771,"à¦ħà¦¬à¦²":4772,"à¦ħà¦®à¦°":4773,"à¦ħà¦§à¦°":4774,"Ġà¦ħà¦¸à¦ļ":4775,"Ġà¦ħà¦¸à¦¹à¦¨":4776,"à¦¯à¦¬à§Łà¦¸":4777,"à¦¦à¦°à¦Ł":4778,"Ġà¦ľà¦²à¦Ł":4779,"Ġà¦ľà¦²à¦Ńà¦°":4780,"à¦°à¦¹à¦¨":4781,"à¦²à¦¨à¦ļ":4782,"à¦®à¦¤à¦¤":4783,"à¦®à¦¤à¦®":4784,"Ġà¦īà¦ªà¦ªà¦¤":4785,"à¦Ĺà¦²à¦ª":4786,"Ġà¦ħà¦ªà¦¹à¦°à¦£":4787,"à¦ªà¦¦à¦ª":4788,"à¦¦à§Łà¦Ł":4789,"à¦·à¦¤à¦ķ":4790,"Ġà¦ħà¦Ĺà¦Ń":4791,"à¦Ńà¦¬à§İ":4792,"à¦¨à¦ķà¦£":4793,"à¦·à¦ķà¦ķ":4794,"à§įâĢĮâĢĶ":4795,"Ġà¦Ĳà¦ķà¦¤":4796,"à¦ıà¦ķà¦®":4797,"à¦ļà¦ķà¦ķ":4798,"à¦¹à¦¨à¦¦":4799,"Ġà¦ĩà¦¨à¦Ł":4800,"Ġà¦ļà¦ķà¦®à¦ķ":4801,"à§¨à§©":4802,"à¦Ĩà¦ľà¦ĩ":4803,"hen":4804,"Ġà¦ľà§Łà¦¯":4805,"à§ĩâĢ¦âĢĻ":4806,"à§ªà§©":4807,"Ġà¦ļà¦Łà¦ķà¦²":4808,"ons":4809,"ater":4810,"ishak":4811,"à¦ıà¦®à¦¨à¦Ł":4812,"ord":4813,"Ġà¦¨à¦Ĺà¦°à¦¬":4814,"à§§à§¯à§Ń":4815,"Ġà§§à§¯à§ªà§ª":4816,"Ġà¦ĸà¦²à¦ĸà¦²":4817,"ight":4818,"à¦ĩà¦°à¦ķà¦®à¦ĩ":4819,"à¦§à¦¹à§Ł":4820,"Ġ196":4821,"Ġà¦¸à¦¬à¦¸à¦®à§Łà¦ĩ":4822,"Ġknow":4823,"Ġà¦¬à¦Ľà¦°à¦ĩ":4824,"Ġà§¯à§«":4825,"à§ĩà§Ĺà¦ģ":4826,"Ġà¦¬à¦°à¦ķà¦¤":4827,"Ġtruth":4828,"auty":4829,"Ġà¦Ĺà¦®à¦Ĺà¦®":4830,"ishakh":4831,".-":4832,"21":4833,"23":4834,"30":4835,"ah":4836,"ho":4837,"ning":4838,"ohe":4839,"way":4840,"Ð»":4841,"ÑĢ":4842,"àª":4843,"æĹ":4844,"Ġë":4845,"Ġì":4846,"à§ĩà§ĩ":4847,"à§ĩ...âĢĿ":4848,"à¦°à¦ªà¦¨":4849,"à§į!":4850,"à¦¨à¦°à¦¤":4851,"à¦¨à¦®à¦Ĺ":4852,"à¦¤à¦²à¦¬":4853,"à¦¤à¦ªà¦¤":4854,"à¦²à¦ķà¦²":4855,"à¦²à¦Ĺà¦²":4856,"à¦¬à¦°à¦¬à¦°":4857,"à¦¯à¦ªà¦¦":4858,"à¦¯à§Łà¦¨":4859,"à¦¯à¦§à¦°":4860,"à¦¯à¦Ńà¦°":4861,"à¦®à§İà¦¸":4862,"à¦®à¦ĺà¦Ł":4863,"à¦¼âĢĻ,":4864,"Ġà¦¬à¦Ń":4865,"Ġà¦¬à¦īà¦²":4866,"Ġà¦¬à¦īà¦°":4867,"Ġà¦¸à¦¬à¦°":4868,"à¦¸à¦®à¦ķ":4869,"Ġà¦Ĩà¦¹à¦²":4870,"Ġà¦Ĩà¦ĩà¦°":4871,"Ġà¦Ĩà¦ĩà¦ķ":4872,"Ġà¦®à¦°à¦ķ":4873,"à¦Łà¦°à¦Ĺ":4874,"à¦ªà¦§":4875,"à¦ªà¦ļà¦°":4876,"à¦ĩà¦īà¦°":4877,"Ġà¦¤à¦°à¦¤à¦°":4878,"à¦ľà¦ķà¦¤":4879,"à¦·à¦°à¦¬":4880,"à¦§à¦¬à¦¤":4881,"âĢī":4882,"à¦¹à¦ĸ":4883,"à¦¹à¦¨à¦ķ":4884,"à¦ļà¦¦à¦¶":4885,"à¦£à¦¤à¦°":4886,"à¦£à¦ķà¦°":4887,"Ġà¦Ĺà¦°à¦²":4888,"à¦¡à¦¹":4889,"à¦¥à¦°à¦ķ":4890,"Ġà¦¶à¦¤à¦°":4891,"Ġà¦°à¦¸à¦¬":4892,"Ġà¦°à¦ĩà¦¬":4893,"Ġà¦°à¦Łà¦¨":4894,"à§ĩ,âĢĻ":4895,"à¦¼à¦¾à¥¤âĢĿ":4896,"Ġà¦ĸà¦Ĺ":4897,"Ġà¦§à¦®":4898,"Ġà¦ªà¦°à¦Ĺ":4899,"à¦¬à¦¨à¦Ĺ":4900,"Ġà¦ĺà¦·à¦Ł":4901,"à¦ªà¦°à¦¬":4902,"à¦¼à¦¿?":4903,"à¦ŀà¦°":4904,"Ġà¦ıà¦ĩà¦ļ":4905,"à§İà¦²":4906,"à§İà¦¬":4907,"à¦Ŀà¦Ł":4908,"à¦īà¦ªà¦ļ":4909,"à¦¬à¦°à¦«":4910,"Ġà¦Ĩà¦²à¦¬":4911,"à¦°à¦ķà¦¨":4912,"Ġà¦¸à¦¬à¦ķà¦Ł":4913,"à¦Ĩà¦¬à¦°":4914,"à¦Ĩà¦¸à¦Ľ":4915,"Ġà¦®à¦¤à¦Ń":4916,"à¦°à¦®à¦¸":4917,"Ġà¦ªà¦¥à¦ķ":4918,"Ġà¦ħà¦¸à¦¦":4919,"Ġà¦ħà¦¸à¦¤à¦¤":4920,"à¦¸à¦¬à¦ļ":4921,"à¦¦à¦¨à¦ĩ":4922,"à¦ķà¦¤à¦®":4923,"à¦ķà¦¤à¦Ł":4924,"à¦¯à¦¬à¦¯":4925,"à¦¨à¦¬à¦®":4926,"à¦²à¦¬à¦¦":4927,"à¦²à¦¬à¦¶à¦¤":4928,"à¦ļà¦²à¦Ł":4929,"à¦®à¦ķà¦Ń":4930,"Ġà¦Ńà¦°à¦²":4931,"Ġà¦ħà¦ľà¦¯":4932,"Ġà¦ħà¦ľà¦®":4933,"à¦¸à¦®à¦Ĺ":4934,"à¦ªà¦¥à¦¹":4935,"Ġà¦ķà¦®à¦ªà¦ķ":4936,"Ġà¦¶à¦¹à¦°à¦Ĺ":4937,"Ġà¦ĵà¦ĩà¦°à¦ķà¦®":4938,"à¦ıà¦ķà¦ķ":4939,"à¦¿âĢĶâĢĺ":4940,"Ġà¦Ĩà¦§à¦ĺà¦£":4941,"Ġà¦ĭà¦ķ":4942,"à¦¹à¦¤à¦Ń":4943,"à¦¾âĢĻ-":4944,"à§¨à§¯":4945,"Ġà¦¤à¦¤à¦ĸ":4946,"Ġà¦ªà¦¶à¦®":4947,"à¦·à§Łà¦Ł":4948,"à¦¸à¦¹à¦¯":4949,"à¦¸à¦¹à¦®à¦°":4950,"à¤Ĥ":4951,"Ġà¦¸à§İà¦ļ":4952,"Ġà¦¸à§İà¦Ń":4953,"à¦¬à¦Łà¦Ĺ":4954,"à¦¬à§Łà¦¬":4955,"à¦ĩà¦ľà¦¡":4956,"Ġà¦ĵà§ľà¦¨":4957,"Ġà§©à§©":4958,"ition":4959,"ould":4960,"Ġbut":4961,"ings":4962,"omp":4963,"à§ĩâĢĿâĢĵ":4964,"Ġà¦¨à¦ĸà¦¦à¦°":4965,"ĠpH":4966,"ĠAdvik":4967,"ass":4968,"Ġà§§à§¦à§¦":4969,"à¦ľà¦Ńà¦¬à¦¨":4970,"Ġà¦°à¦£à¦ľ":4971,"ell":4972,"à§§à§¯à§ª":4973,"âĢĶâĢĶâĢĶâĢĶ":4974,"ult":4975,"Ġhad":4976,"à¦¤à¦°à¦¬à¦Ļ":4977,"Ġà¦ļà¦ªà¦²à¦¤":4978,"ife":4979,"Ġcont":4980,"Ġà¦ľà¦¬à¦°à¦¦à¦¸":4981,"ãģ®":4982,"ĠBoishakh":4983,"ohela":4984,"--":4985,"26":4986,"27":4987,"28":4988,"29":4989,"con":4990,"de":4991,"hil":4992,"ie":4993,"iz":4994,"ne":4995,"¥ãģ®":4996,"Ã©":4997,"à¦Ķ":4998,"à¦¾à¦¾":4999,"à¦°à¦Ĺà¦°":5000,"à¦°à¦ļà¦°":5001,"à§įâĢĻ,":5002,"à¦¿à¦¾":5003,"à¦¨à¦¥":5004,"à¦¨à¦§à¦°":5005,"à¦¤à§İ":5006,"à¦²à¦ĺà¦°":5007,"à¦ķà¦®à§Ł":5008,"à§ģâĢĿ":5009,"à¦®à¦®à¦¨":5010,"à¦¼âĢĻà¥¤":5011,"à§ĭà§ĩ":5012,"Ġà¦ķà¦ĩà¦Ľ":5013,"Ġà¦¬à¦¬":5014,"Ġà¦¬à¦ª":5015,"Ġà¦¸à¦ªà¦°":5016,"Ġà¦ªà¦¸":5017,"Ġà¦ªà¦¸à¦°":5018,"à¦¸à¦¨à¦¬":5019,"Ġà¦Ĩà¦¹à¦¸":5020,"Ġà¦Ĩà¦ĩà¦¬":5021,"à¦¦à¦¬à¦°":5022,"Ġà¦¨à¦ļ":5023,"Ġà¦¨à¦¬à¦¨":5024,"Ġà¦¨à¦¬à¦¸":5025,"Ġà¦®à¦°à¦¶":5026,"Ġà¦®à¦²à¦¯":5027,"à¦Łà¦¡":5028,"à¦ªà¦¬à¦°":5029,"à¦ªà¦ķà¦¤":5030,"à¦ĩà¦ĵà¦¯":5031,"Ġà¦¦à¦¬":5032,"Ġà¦¤à¦°à¦®":5033,"Ġà¦¤à¦¸à¦¬":5034,"Ġà¦¤à¦ķà¦®":5035,"Ġà¦¤à¦¹à¦¬":5036,"à¦ľà¦²à¦ķ":5037,"à¦ľà¦®à§Ł":5038,"Ġà¦¹à¦ª":5039,"Ġà¦¹à¦¡":5040,"Ġà¦ħà¦«à¦²":5041,"Ġà¦ħà¦®à¦¨à¦ĩ":5042,"à¦Ĺà¦®à¦¯":5043,"à¦Ĺà¦Ńà¦°":5044,"à¦§à¦ľ":5045,"à¦¹à¦¨à¦¤":5046,"Ġà¦Ĺà¦°à¦¬":5047,"à¦¡à¦¡":5048,"à¦¡à¦ĵà§Ł":5049,"à¦¡à¦¬à¦ªà¦ķ":5050,"Ġà¦¶à¦ľ":5051,"Ġà¦¶à¦°à¦¦":5052,"ĠĠĠĊ":5053,"Ġà¦ıà¦ķà¦§":5054,"Ġà¦ıà¦ķà¦ļà¦ķ":5055,"Ġà¦ĵà¦Ŀ":5056,"à§ľà¦Ł":5057,"à§ľà¦¨à¦ķ":5058,"Ġà¦«à¦²à¦¬":5059,"à¦¬à¦¨à¦²à¦¤":5060,"Ġà¦®à¦¨à¦¨à¦ķ":5061,"Ġà¦ıà¦ĩà¦®à¦¤":5062,"à¦°à¦¬à¦¬":5063,"à¦¤à¦°à¦ķà¦®":5064,"à¦īà¦ªà¦ķ":5065,"à¦Ĩà¦°à¦¬":5066,"Ġà¦¡à¦¬à¦²":5067,"Ġà¦ľà¦¨à¦¯":5068,"Ġà¦ľà¦¨à¦ªà¦¥":5069,"à¦¬à¦²à¦¦":5070,"Ġà¦ĩà¦Ń":5071,"Ġà¦ĩà¦ķà¦¬":5072,"à¦·à¦£à¦¤":5073,"à¦°à¦®à¦§":5074,"à¦¨à¦¤à¦¨":5075,"Ġà¦¬à¦¨à¦¦":5076,"à¦ħà¦ķà¦¸":5077,"Ġà¦Ĩà¦ľà¦Ĺ":5078,"Ġà¦ħà¦¸à¦®à§Ł":5079,"à¦ķà¦²à¦¹":5080,"à¦ķà¦°à¦Ł":5081,"Ġà¦ľà¦²à¦ĵ":5082,"Ġà¦ľà¦²à¦Ľà¦Ł":5083,"Ġà¦¹à¦¤à¦¶":5084,"Ġà¦ħà¦¤à¦²à¦¸":5085,"à¦¨à¦¬à¦¹":5086,"à¦®à¦¤à¦Ń":5087,"à¦¹à¦¸à¦ĩ":5088,"à¦Ĺà¦²à¦®à¦¯":5089,"à¦°à¦¦à¦¤":5090,"à¦ļà¦²à¦®":5091,"Ġà¦ħà¦ªà¦¤":5092,"à¦¦à§Łà¦¤":5093,"Ġà¦°à¦Ļà¦¬":5094,"Ġà¦ħà¦ľà§Ł":5095,"à¦·à¦¤à¦ļ":5096,"à¦ªà¦¥à¦ļ":5097,"Ġà¦ĵà¦ĩà¦Ń":5098,"à¦ıà¦ķà¦ľ":5099,"à¦ļà¦ķà¦£":5100,"Ġà¦ıà¦ķà¦¦à¦®à¦ĩ":5101,"Ġà¦ķà¦ĸà¦¨à¦ĵà¦¬":5102,"à¦¨à¦¸à¦ĩ":5103,"à¦Ĺà¦ľà¦Ĺ":5104,"à¦¸à¦«à¦²à¦¤":5105,"à¦¾âĢĻâĢĵ":5106,"à§§à§¬":5107,"here":5108,"Ġà¦¸à¦°à¦²à¦Ń":5109,"ana":5110,"ank":5111,"à¦¾à¦ģ,âĢĿ":5112,"ination":5113,"à¦ľà§Łà¦ķ":5114,"à§ĩ?âĢĿâĢĶ":5115,"à¦¦à¦¶à¦Ł":5116,"à¦²à¦ļà¦²à¦¨":5117,"à¦Īà¦ľ":5118,"à§®à§®":5119,"à§Ģ!âĢĻ":5120,"à¦¯à¦¶à¦¸":5121,"Ġcol":5122,"Ġà¦Ĺà¦ľà¦Ĺà¦ľ":5123,"Ġlike":5124,"à§§à§¯à§©":5125,"à§§à§¯à§«à§¨":5126,"æĹ¥ãģ®":5127,");":5128,")âĢĵ":5129,"-âĢĺ":5130,"31":5131,"32":5132,"TE":5133,"af":5134,"ach":5135,"hat":5136,"hol":5137,"ial":5138,"self":5139,"ÙĪ":5140,"Ġ+":5141,"ĠÑ":5142,"Ġim":5143,"à§±":5144,"à¦°à¦ªà¦¦":5145,"à¦¿),":5146,"à¦¤à¦¸à¦¨":5147,"à¦²à¦ĵà¦¯":5148,"à¦²à¦§à¦¨":5149,"à¦²à¦ªà¦¦":5150,"à¦ķà¦¢":5151,"à¦¬à¦®à¦¨":5152,"à¦¬à¦ķà¦²":5153,"à¦¯à¦ªà¦ķ":5154,"à¦¯à§İà¦ķ":5155,"à¦¼à§ģà¥¤":5156,"Ġà¦ķà¦ĵà§Ł":5157,"Ġà¦ķà¦®à¦£":5158,"Ġà¦¸à¦ľà¦¨":5159,"à¦¸à¦¬à¦¨":5160,"à¦¸à¦ľà¦¨":5161,"à¦¸à¦ªà¦¨":5162,"à¦¸à¦¯à¦ľ":5163,"Ġà¦Ĩà¦īà¦²":5164,"Ġà¦Ĩà¦īà§ľ":5165,"Ġà¦¨à¦°à¦ª":5166,"à§Ģ)":5167,"à¦ĩà¦Ļ":5168,"Ġà¦¦à¦ªà¦¦à¦ª":5169,"Ġà¦¤à¦ªà¦¤":5170,"à¦ľà¦®à¦£":5171,"à¦Ľà¦ĵ":5172,"à¦¶à¦ļà¦¨":5173,"Ġà¦¹à¦°à¦¹":5174,"Ġà¦¹à¦°à¦²":5175,"Ġà¦¹à¦ľà¦°à¦¤":5176,"Ġà¦ıà§Ł":5177,"Ġà¦ħà¦¶à¦¨":5178,"à¦ĸà¦Ńà¦°":5179,"à¦Ĺà¦ªà¦°":5180,"à¦Ĺà¦®à¦ķ":5181,"à¦¼à§ĩâĢ¦":5182,"Ġà¦¯à¦¤à¦¨":5183,"à¦ļà¦ĵà¦¡":5184,"Ġà¦Ĺà¦¤à¦¬":5185,"à¦¡à¦¤":5186,"à¦¡à¦¬à¦ķ":5187,"Ġà¦Ńà¦°à¦¬":5188,"Ġà¦°à¦ľà¦¸":5189,"à¦ĵà¦Ľ":5190,"Ġà¦ıà¦ķà¦ĸà¦£":5191,"Ġà¦«à§Ł":5192,"à¦°à¦¤à¦¬":5193,"Ġà¦ĸà¦°à¦¸":5194,"Ġà¦ªà¦°à¦Ĺà¦¨":5195,"à¦¬à¦¨à¦¤":5196,"à¦¬à¦¨à¦ļ":5197,"à¦®à¦¨à¦Ĺà¦°":5198,"à¦¼à¦¿!":5199,"Ġà¦ıà¦ĩà¦Ĺ":5200,"à§İà¦¨":5201,"à¦°à¦¬à¦¸à¦Ń":5202,"à¦¤à¦°à¦ľ":5203,"à¦¤à¦°à¦Ń":5204,"à¦ıà¦¡":5205,"à¦ıà¦«":5206,"à¦Ĩà¦ł":5207,"à¦Ĩà¦¸à¦¨":5208,"à¦Ĩà¦°à¦ľ":5209,"Ġà¦ľà¦¨à¦®à¦¨":5210,"Ġà¦Ŀà¦°à¦²":5211,"Ġà¦ĩà¦·":5212,"Ġà¦ĩà¦®à¦ª":5213,"Ġà¦ĩà¦¶à¦¤":5214,"Ġà¦ħà¦¬à¦Ĺà¦¤":5215,"à¦·à¦£à¦Ł":5216,"à¦·à¦£à¦¹":5217,"à¦ķà¦Łà¦°":5218,"Ġà¦®à¦¹à¦¡":5219,"à¦¯à¦¬à¦ļ":5220,"Ġà¦ľà¦²à¦¨":5221,"Ġà¦ħà¦¦à¦ķ":5222,"à¦²à¦¤à¦®":5223,"à¦¯à¦ķà¦£":5224,"à¦ļà¦¨à¦ķ":5225,"à¦°à¦¦à¦²":5226,"à¦°à¦¦à¦®":5227,"Ġà¦°à¦Ļà¦ļà¦Ļ":5228,"Ġà¦ħà¦Ĺà¦¸":5229,"à¦Ńà¦¬à¦ķ":5230,"à¦®à¦£à¦¬":5231,"à¦¨à¦ķà¦¶":5232,"Ġà¦¶à¦°à§İà¦ķ":5233,"à¦¤à¦¤à¦¸":5234,"à¦·à¦ķà¦¶":5235,"Ġà¦¬à¦Ľà¦°à¦ĸ":5236,"à§°à¦¯":5237,"à§°à¦¶":5238,"à§Łà¦¨à¦ªà¦°":5239,"Ġà¦¸à¦®à§Łà¦Ł":5240,"à§¦à§¨":5241,"Ġà¦¤à¦²à¦ª":5242,"Ġà¦ĺà¦¨à¦ĺà¦¨":5243,"Ġà¦¦à¦²à¦Ľ":5244,"à¦ľà¦¸à¦ľ":5245,"Ġà¦¬à¦ķà¦¶":5246,"Ġà¦Ĺà¦£à¦¸":5247,"Ġà¦ªà¦¶à¦²":5248,"à¤®":5249,"à¦Ĺà¦£à¦¤à¦¨":5250,"à§©à§¦":5251,"int":5252,"à§«à§¬":5253,"Ġà¦¦à¦®à¦¦à¦®":5254,"Ġà¦ļà¦Łà¦ľà¦²à¦¦":5255,"à¦¶à¦°à§İ":5256,"Ġà¦Ĩà§Łà¦¤à¦¨":5257,"à¦¾à¦ĥ!":5258,"à¦¾à¦ĥâĢĵ":5259,"ish":5260,"à¦¾âĢ¦à¥¤":5261,"Ġab":5262,"Ġwor":5263,"ary":5264,"oug":5265,"à¦Ĳà¦¶":5266,"à¦¨à¦ľà¦¨à¦ĩ":5267,"Ġà¦ıà¦ĩà¦°à¦ķà¦®à¦ĩ":5268,"à¦¬à¦°à¦²à¦¹à¦°":5269,"rop":5270,"ĠPohela":5271,"ĠBe":5272,"à§§à§¯à§¬":5273,"Ġgo":5274,"Ġà¦īà¦Ńà§Łà¦ĩ":5275,"Ġwhich":5276,"Ġonly":5277,"Ġà§§à§¯à§¯à§«":5278,"Ġà¦¥à¦ĩà¦¥à¦ĩ":5279,"Ġà¦ķà¦ļà¦ķà¦ļ":5280,"à¦¸à¦ĸà¦¨à¦ĵ":5281,",âĢĵ":5282,"34":5283,";âĢĶ":5284,"ib":5285,"ng":5286,"te":5287,"Ġ×":5288,"Ġà§Ł":5289,"Ġle":5290,"Ġáĥ":5291,"à§įâĢĶ":5292,"à¦¨à¦ł":5293,"à¦¨à¦ªà¦°":5294,"à¦¨à¦ĸà¦ļ":5295,"à¦²à¦£":5296,"à¦²à¦ŀ":5297,"à¦ķà¦¬à¦¨":5298,"à¦ķà¦ªà¦°":5299,"à¦ķà¦¬à¦²":5300,"à¦ķà¦ªà¦Ł":5301,"à§ģ?âĢĻ":5302,"à¦¬à¦ĺ":5303,"à¦¬à¦ļà¦°":5304,"à¦¬à¦§à¦°":5305,"à¦¬à¦¹à¦¤":5306,"à¦¯à¦¬à¦²":5307,"à¦®à¦ĵà¦¯":5308,"à¦®à¦Ĺà¦¨":5309,"Ġà¦ķà¦ĵ":5310,"Ġà¦ķà¦®à¦°":5311,"Ġà¦¬à¦®à¦¨":5312,"Ġà¦¬à¦ķà¦¤":5313,"Ġà¦¬à¦ªà¦£":5314,"Ġà¦¸à¦ķà¦°":5315,"Ġà¦¸à¦¦à¦²":5316,"à¦¸à¦ľà¦²":5317,"Ġà¦Ĩà¦ĩà¦ľ":5318,"à¥¤]":5319,"à¦¦à¦ĸà¦²":5320,"Ġà¦®à¦°à¦¸":5321,"à§Ģà¦ĥ":5322,"à¦ªà¦²à¦¬":5323,"à¦ªà¦ªà¦¤":5324,"à¦ªà¦Łà¦ķ":5325,"à¦ĩà¦¡à¦²":5326,"Ġà¦¦à¦²à¦¨":5327,"à¦¶à¦°à¦£":5328,"Ġà¦¹à¦ĩà§Ł":5329,"Ġà¦ıà¦¤à¦¬":5330,"à¦ĸà¦ķà¦ķ":5331,"à¦§à¦¡":5332,"à¦§à¦¬à¦ª":5333,"à¦§à¦®à¦¯":5334,"Ġà¦¯à§İ":5335,"Ġà¦¯à¦ľà¦¨":5336,"à¦ļà¦¦":5337,"à¦ļà¦¤à¦®":5338,"à¦ļà¦ªà¦¦à¦¸":5339,"à¦£à¦¤à¦®":5340,"Ġà¦ķà¦°à¦®":5341,"Ġà¦¶à¦¤à¦¬":5342,"Ġà¦¶à¦¬à¦¨à¦®":5343,"Ġà¦ľà¦¹à¦°":5344,"Ġà¦ļà¦ĸ":5345,"Ġà¦ļà§Łà¦¨":5346,"à¦ĵà¦¬":5347,"Ġà¦Ľà¦²à¦ļ":5348,"Ġà¦ıà¦ķà¦¶à¦¤":5349,"à¦ĤâĢĶ":5350,"à¦łà¦ĵ":5351,"à¦łà¦Ĺà§ľ":5352,"à¦¾à¦ģ?âĢĻ":5353,"à¦¼à¦¾âĢ¦":5354,"à§ľà¦Ń":5355,"à¦¾à¥¤)":5356,"à¦¬à¦¨à¦Ń":5357,"Ġà¦®à¦¨à¦ĩ":5358,"à¦°à¦£à¦®":5359,"à¦°à¦£à¦ªà¦¤":5360,"à§İà¦¶":5361,"à¦¤à¦°à¦¹":5362,"à¦¿à¥¤âĢ¦":5363,"à¦īà¦¶":5364,"à¦īà¦Łà¦°":5365,"à¦īà¦ľà¦ª":5366,"à¦Ĩà¦¸à¦¬":5367,"à¦Ĩà§Łà¦¨":5368,"Ġà¦ķà¦¥à¦ķà¦ł":5369,"à¦ĺà¦ª":5370,"Ġà¦¡à¦Ł":5371,"Ġà¦ľà¦¨à¦ķà¦²":5372,"à¦¬à¦ªà¦¦":5373,"Ġà¦¹à¦²à¦«":5374,"Ġà¦ĩà¦Ľ":5375,"âĢĵâĢĿ":5376,"à¦ĥ-":5377,"à¦°à¦®à¦¦":5378,"à¦°à¦®à¦ª":5379,"à¦°à¦®à¦ĩ":5380,"à¦¨à¦¤à¦¤":5381,"Ġà¦¬à¦¨à¦ªà¦°":5382,"Ġà¦¬à¦¨à¦«":5383,"à¦¤à¦¨à¦ĩ":5384,"à¦¤à¦¨à¦ĵ":5385,"Ġà¦¨à¦¤à¦®":5386,"Ġà¦Ĩà¦Ĺà¦°à¦¬":5387,"à¦¸à¦¬à¦¶à¦¤":5388,"Ġà¦Ĩà¦¨à¦ķ":5389,"à¦ķà¦°à¦Ń":5390,"à¦°à¦¨à¦Ĺà¦°":5391,"Ġà¦ľà¦²à¦ªà¦¥":5392,"Ġà¦ľà¦²à¦®à¦Ĺ":5393,"Ġà¦ľà¦²à¦¤à¦°à¦Ļ":5394,"à¦°à¦¹à¦¤":5395,"Ġà¦¹à¦¤à¦ļ":5396,"Ġà¦¹à¦¤à¦ļà¦ķ":5397,"à¦°à¦¥à¦®à¦ľà¦¨":5398,"Ġà¦¸à¦¨à¦¦":5399,"à¦¨à¦¬à¦ļ":5400,"à¦¨à¦¬à¦§à¦°":5401,"à¦§à¦¨à¦®":5402,"à¦²à¦¨à¦Ĺ":5403,"Ġà¦īà¦ªà¦¶":5404,"à¦°à¦¦à¦Ĺ":5405,"Ġà¦¸à¦¹à¦§à¦°":5406,"Ġà¦ħà¦ªà¦ª":5407,"à¦ªà¦¦à¦ļ":5408,"Ġà¦ħà¦ķà¦®":5409,"à¦¦à§Łà¦¬":5410,"à§İà¦¸à¦Ļ":5411,"à¦ĩà¦¨à¦°":5412,"à¦¸à¦®à¦¬":5413,"à¦ªà¦¥à¦ļà¦²":5414,"à§ģâĢĻà¥¤":5415,"à¦ıà¦ķà¦¶":5416,"à¦ıà¦ķà¦ĸ":5417,"à¦ıà¦ķà¦¦à¦®":5418,"à§°à¦ķà¦²":5419,"à§°à¦®à¦£":5420,"à¦¬à¦ķà¦£":5421,"Ġà¦ıà¦ķà¦ľà¦¨à¦ĩ":5422,"Ġà¦ıà¦ķà¦ľà¦¨à¦ĵ":5423,"à¦ļà¦ķà¦¦":5424,"à¦ļà¦ķà¦ļà¦ķ":5425,"à¦¢à¦ª":5426,"Ġà¦īà¦ľà¦²":5427,"à¦ľà¦²à¦§":5428,"Ġà¦¸à¦®à§Łà¦®à¦¤":5429,"Ġà¦Ĩà¦§à¦Ł":5430,"Ġà¦Ĩà¦¦à¦°à¦£":5431,"à¦¸à¦«à¦¡":5432,"Ġà¦¦à¦²à¦Ĺ":5433,"Ġà¦¦à¦²à¦¬à¦²":5434,"à¦°à¦®à¦£à¦ĩ":5435,"Ġà¦¦à¦°à¦ĸ":5436,"à¦®à¦¸à¦ľ":5437,"à¦Ĩà¦²à¦®":5438,"âĢĻ,âĢĻ":5439,"à§ĭâĢĶâĢĺ":5440,"à¦ķà¦¥à¦ķ":5441,"à¤¦":5442,"à¦¥à¦²à¦ľ":5443,"hes":5444,"Ġà¦¸à¦°à¦²à¦°":5445,"Ġà¦ªà¦°à¦¶à¦®à¦£":5446,"à§©à§§":5447,"Ġà¦¹à¦ĩà¦¹à¦ĩ":5448,"à¦¤à¦¸à¦Ń":5449,"Ġà¦Ĩà¦ĩà¦¨à¦¶":5450,"à¦ľà§Łà¦Ĺ":5451,"ature":5452,"à¦¤à¦ĸà¦¨à¦ĵ":5453,"Ġà¦¦à¦ĸà¦²à¦¦":5454,"Ġà§©à§§":5455,"Ġsp":5456,"à¦Łà¦¸à¦ħ":5457,"Ġà¦Ĩà¦ĸà§ľ":5458,"à¦¿?âĢĿâĢĶ":5459,"Ġcl":5460,"à¦¿âĢĿâĢĶ":5461,"ical":5462,"ĠAr":5463,"ase":5464,"Ġà¤ª":5465,"Ġlife":5466,"Ġex":5467,"ĠTh":5468,"Ġà§¦à§§":5469,"Ġhim":5470,"à¦£à¦Ĺà¦¤à¦®":5471,"Ġ197":5472,"age":5473,"Ġà§§à§¯à§¯à§¨":5474,"æŃĵæŃĵæŃĵæŃĵæŃĵæŃĵæŃĵæŃĵæŃĵæŃĵæŃĵæŃĵæŃĵæŃĵæŃĵæŃĵ":5475,"Ġmany":5476,"à§§à§¯à§Ńà§§":5477,";-":5478,"?)":5479,"ac":5480,"act":5481,"but":5482,"ek":5483,"gal":5484,"oy":5485,"per":5486,"sity":5487,"ual":5488,"Ð½":5489,"ÛĮ":5490,"ĠJ":5491,"à§ĩà¦ĥà¥¤":5492,"à§ĩ)à¥¤":5493,"à§ĩ...":5494,"à¦°à¦ĭà¦£":5495,"à§į?":5496,"à§įà¦ģ":5497,"à¦¿/":5498,"à¦¨à¦Ĺà¦¤":5499,"à¦¨à¦ªà¦Ł":5500,"à¦¤à¦ªà¦°":5501,"à¦¤à¦ĺ":5502,"à¦¤à¦Ĺà¦£":5503,"à¦²à¦ĵà§Ł":5504,"à¦²à¦ļà¦¨":5505,"à¦²à¦®à¦§":5506,"à¦ķà¦ªà¦ķ":5507,"à¦¬à¦¬à¦¤":5508,"à¦¯à¦°à¦ķ":5509,"à¦¯à¦ļà¦ķ":5510,"à¦¯à¦¹à¦¤":5511,"à¦®à¦ľà¦¨":5512,"à¦®à¦¤à¦¨":5513,"à¦®à¦ĵà§Ł":5514,"à¦®à¦ĺà¦°":5515,"Ġà¦ķà¦ĩà¦²":5516,"Ġà¦¸à¦²à¦¤":5517,"Ġà¦¸à¦ªà¦¤":5518,"à¦¸à¦ĺà¦°":5519,"Ġà¦Ĩà¦Łà¦ĸ":5520,"à¥ĭ":5521,"à¦¦à¦ķà¦¤":5522,"à¦¦à¦®à¦¤":5523,"Ġà¦¨à¦°à¦ĸ":5524,"Ġà¦®à¦ļ":5525,"Ġà¦®à¦°à¦¨":5526,"Ġà¦®à¦°à¦¹":5527,"à¦Łà¦ªà¦°":5528,"à¦Łà¦ķà¦Ł":5529,"à¦Łà¦°à¦¸":5530,"à¦Łà¦ªà¦¤à¦Ļ":5531,"à§Ģ!âĢĿ":5532,"à¦ªà¦Łà¦²":5533,"à¦ĩà¦ī":5534,"à¦ĩà¦¸à¦Ļ":5535,"Ġà¦¦à¦²à¦ķ":5536,"Ġà¦¤à¦¯":5537,"Ġà¦¤à¦²à¦¬":5538,"Ġà¦¤à¦Łà¦¸":5539,"à¦ľà¦ªà¦°":5540,"à¦ľà¦ªà¦¤":5541,"à¦Ľà¦²à¦¨":5542,"à¦¶à¦®à§Ł":5543,"Ġà¦¹à¦Łà¦¤":5544,"à¦ĸà¦®à¦¨":5545,"à¦ĸà¦²à¦¨":5546,"à¦·à¦°à¦ķ":5547,"à¦·à¦²à¦¤":5548,"à¦Ĺà¦¸à¦¨":5549,"à¦Ĺà¦¹à¦¨":5550,"à¦§à¦°à¦£":5551,"à¦§à¦¸à¦®":5552,"à¦§à¦¬à¦¦":5553,"à¦§à¦§à¦°":5554,"à¦¹à¦ªà¦°":5555,"à¦ļà¦ķà¦²":5556,"Ġà¦Ĺà¦°à¦¹":5557,"Ġà¦Ĺà¦ľà¦°":5558,"Ġà¦¶à¦°à¦®":5559,"Ġà¦ļà¦¯":5560,"à¦ĵà¦·":5561,"à¦ĵà¦Ń":5562,"Ġà¦Ľà¦®":5563,"Ġà¦Ľà¦²à¦ķ":5564,"Ġà¦ıà¦ķà¦ĺà¦£":5565,"à¦łà¦ļ":5566,"Ġà¦īà¦¤à¦°":5567,"Ġà¦¥à¦ķà¦¥à¦ķ":5568,"Ġà¦«à§Łà¦¸":5569,"Ġà¦ĸà¦²à¦¨":5570,"Ġà¦¬à¦²à¦¶":5571,"Ġà¦ħà¦¨à¦®":5572,"Ġà¦ħà¦¨à¦®à¦¨":5573,"Ġà¦ħà¦¨à¦¶à¦¨":5574,"âĢĶâĢĿ":5575,"Ġà¦§à¦²":5576,"à¦¬à¦¨à¦ĸ":5577,"à¦¬à¦¨à¦¹":5578,"à¦¬à¦¨à¦¡":5579,"Ġà¦ĺà¦·à¦¤":5580,"Ġà¦®à¦¨à¦ª":5581,"âĢĻ?":5582,"à§İà¦ªà¦¦":5583,"à¦Ŀà¦®":5584,"à¦Ŀà¦²à¦ķ":5585,"à¦ľà¦¨à¦ķà¦Ń":5586,"à¦¿à¥¤à¥¤":5587,"à¦īà¦¬à¦¨":5588,"à¦¬à¦°à¦¸":5589,"à¦¬à¦°à¦ĵ":5590,"Ġà¦Ĩà¦²à¦ªà¦¥":5591,"à¦°à¦ķà¦°à¦£":5592,"à¦ªà¦¨à¦¤":5593,"à¦ıà¦ľ":5594,"à¦ıà¦·":5595,"ĠĠĊĊ":5596,"à¦ĺà¦ļ":5597,"Ġà¦ľà¦¨à¦®à¦¤":5598,"Ġà¦ľà¦¨à¦¶à¦ķ":5599,"Ġà¦ıà¦¬à§ľ":5600,"à¦¨à¦¤à¦¤à¦°":5601,"Ġà¦ĵà¦łà¦¤":5602,"à¦ħà¦·":5603,"Ġà¦ħà¦®à¦¤":5604,"Ġà¦ħà¦¸à¦¹à¦¯":5605,"à¦¤à¦¬à¦°à¦£":5606,"à¦¦à¦¨à¦Ĺ":5607,"à¦²à¦ķà¦®à¦²":5608,"à¦¯à¦¬à¦ĩà§Ł":5609,"Ġà¦¶à¦¬à¦¬":5610,"Ġà¦ľà¦²à¦¹":5611,"à¦¿à¦ĤâĢĿ":5612,"à¦§à¦¨à¦Ł":5613,"Ġà¦ıà¦²à¦®":5614,"Ġà¦īà¦ªà¦¬à¦¨":5615,"Ġà¦īà¦ªà¦¸à¦°":5616,"Ġà¦īà¦ªà¦ķà¦¥":5617,"à¦Ĺà¦²à¦Ĺà¦ŀ":5618,"Ġà¦ķà¦²à¦°":5619,"à¦ĩà¦²à¦«à¦²à¦ķ":5620,"Ġà¦ľà¦®à¦¬":5621,"à¦¸à¦®à¦°":5622,"Ġà¦ªà¦¦à¦ª":5623,"Ġà¦ĵà¦ªà¦°à¦ĩ":5624,"Ġà¦ĵà¦ªà¦°à¦ĵ":5625,"à¦ªà¦¥à¦Ń":5626,"à¦·à¦ķà¦¥":5627,"à¦¤à¦®à¦®":5628,"Ġà¦«à¦²à¦ĵ":5629,"à¦ıà¦ķà¦¸à¦®à¦¯":5630,"à¦°à¦ªà¦ŀ":5631,"Ġà¦¶à¦¤à¦ª":5632,"Ġà¦¶à¦¤à¦¦à¦²":5633,"Ġà¦ĩà¦¨à¦Ń":5634,"à§¦à§ª":5635,"Ġà¦¬à¦Łà¦®":5636,"à§¨à§®":5637,"Ġà¦Ĺà¦£à¦¹à¦¤":5638,"à¦ķà¦¦à¦£":5639,"à¦£à¦ķà¦£":5640,"Ġà¦®à¦ľà¦¦":5641,"à¦ľà¦®à¦¹à¦²":5642,"à¤£":5643,"à¤Ł":5644,"à§©à§ª":5645,"ink":5646,"à§ĩâĢ¦)":5647,"à§ĩâĢ¦.":5648,"Ġà¦ľà§ľà¦¤":5649,"à¦ıà¦ĸà¦¨à¦ķ":5650,"à¦¬à§Łà¦®":5651,"alk":5652,"Ġà¦ľà¦Ĺà§İà¦ķ":5653,"à§®à§«":5654,"Ġà§©à§Ń":5655,"Ġwater":5656,"Ġà¦¨à§ľà¦¬":5657,"Ġà¦Ĩà¦«à¦Ĺ":5658,"Ġà¦ľà¦Ĺà§İà¦Ł":5659,"à¦°à¦¬à¦£à¦¶à¦ķ":5660,"Ġà¦°à¦®à¦°à¦®":5661,"Ġà¦®à¦°à¦£à¦¶":5662,"Ġà§«à§¦":5663,"ĠBen":5664,"Ġà¤¸":5665,"ĠDe":5666,"etect":5667,"Ġà¦ĸà§ľà¦Ĺ":5668,"Ġà§§à§¯à§ªà§©":5669,"Ġà¦Ľà§Łà¦Ł":5670,"Ġà¦ªà¦°à¦ªà¦°à¦ĩ":5671,"Ø§Ø":5672,"Ġdeath":5673,"ĠIndian":5674,"Ġà§§à§¯à§¦à§«":5675,"ĠUniver":5676,"Ġà¦Ĩà¦ĵà¦°à¦¤":5677,"Ġà¦Ĩà¦ĩà¦ķà¦¨":5678,"ĠUniversity":5679,"33":5680,"35":5681,"ec":5682,"ere":5683,"ll":5684,"na":5685,"pen":5686,"por":5687,"rit":5688,"ta":5689,"uch":5690,"Ð¸":5691,"Ú©":5692,"Ġ#":5693,"Ġat":5694,"Ġed":5695,"Ġout":5696,"Ġà¦Ļ":5697,"à¦¾/":5698,"à¦°à¦ĵà§Ł":5699,"à¦¿ÂŃ":5700,"à¦¨à¦Ŀ":5701,"à¦¨à¦ļà¦ķ":5702,"à¦¨à¦ľà¦²":5703,"à¦¤à¦¹à¦¤":5704,"à¦²à¦¨à¦¬":5705,"à¦²à¦¦à¦¹":5706,"à¦ķà¦ĵà§Ł":5707,"à¦ķà¦¸à¦®":5708,"à¦ķà¦°à¦ķà¦®":5709,"à§ģâĢĺ":5710,"à¦¬à¦ľà¦¯":5711,"à¦¬à¦Łà¦¬":5712,"à¦¬à¦Ĺà¦¤à¦Ń":5713,"à¦¯à¦°à¦¤":5714,"à¦¯à¦ªà¦¨":5715,"à¦¯à§°":5716,"à¦®à¦ķà¦²":5717,"à¦®à¦¹à¦¸":5718,"à¦¼à§Ī":5719,"à¦¼âĢĿà¥¤":5720,"à§ĭâĢĿà¥¤":5721,"Ġà¦¬à§°":5722,"Ġà¦¬hol":5723,"à¦¸à¦¤à¦°":5724,"à¦¸à¦°à¦¸":5725,"à¦¸à¦¹à¦¨":5726,"à¦¸à¦«à¦²":5727,"Ġà¦Ĩà¦£à¦¬":5728,"à¦¦à¦Ļ":5729,"à¦¦à¦ķà¦°":5730,"à¦ªà¦«":5731,"à¦ªà¦¸à¦®":5732,"à¦ªà¦®à¦£":5733,"à¦ªà¦¯à¦ľ":5734,"à¦ĩà¦Ŀ":5735,"Ġà¦¦à¦ĩà¦¯":5736,"à¦ľà§İ":5737,"à¦ľà¦¯à¦¨":5738,"à¦ľà¦¸à¦®":5739,"à¦ľà§Łà¦¨":5740,"à¦ľà¦¦à¦£":5741,"à¦¶à¦ľà¦¨":5742,"à§Łà¦¹":5743,"à§Łà¦ľà¦¨":5744,"Ġà¦ħà§Ł":5745,"à¦ĸà¦¹":5746,"à¦·à§ľ":5747,"à¦·à¦«":5748,"à¦·à¦ļà¦¨":5749,"à¦¼à§ĩ:":5750,"à¦§à¦¤à¦®":5751,"à¦§à¦¶à¦¤":5752,"âĢ¨":5753,"Ġà¦¯à¦¸":5754,"Ġà¦¯à¦ľà¦®":5755,"Ġà¦¯à¦®à¦¦":5756,"à¦¹à¦§":5757,"à¦¹à¦°à¦ķ":5758,"à¦¹à¦¬à¦²":5759,"à¦¹à¦Ĺà¦¨":5760,"à¦ļà¦®à¦¤":5761,"à¦£à¦ĸ":5762,"à¦£à¦§à¦°":5763,"à¦ģâĢĻ,":5764,"Ġà¦Ĺà¦¸":5765,"Ġà¦¶à§Łà¦¨":5766,"Ġà¦°à¦°":5767,"Ġà¦°à¦ĩ":5768,"Ġà¦°à¦£à¦¨":5769,"à¦Ńà¦ª":5770,"à¦Ńà¦ĵ":5771,"à¦Ńà¦°à¦£":5772,"à§Ĥà¥¤":5773,"à¦łà¦ķà¦°":5774,"à¦¼à¦¾à¥¤âĢĻ":5775,"Ġà¦ĵà§İ":5776,"Ġà¦ĵà¦°à¦ĩ":5777,"Ġà¦ĵà¦ľà¦¸":5778,"à§ľà¦¹":5779,"Ġà¦²à¦ĩ":5780,"Ġà¦²à¦Ľ":5781,"Ġà¦ĸà¦¨à¦ķ":5782,"Ġà¦¬à¦²à¦¬à¦¤":5783,"Ġà¦ħà¦¨à¦Łà¦¨":5784,"Ġà¦ªà¦°à¦Ľ":5785,"à¦¾à¥¤à¥¤":5786,"à¦¬à¦¨à¦¶":5787,"Ġà¦ĺà¦°à¦£":5788,"ĠâĢĿ":5789,"Ġà¦®à¦¨à¦°":5790,"Ġà¦®à¦¨à¦®à¦°":5791,"à¦ŀà¦¦":5792,"Ġà¦ıà¦ĩà¦¡à¦¸":5793,"à¦ľà¦¨à¦¬à¦°":5794,"à¦īà¦¤à¦°":5795,"à¦īà¦²à¦ķ":5796,"à¦īà¦¨à¦ķ":5797,"à¦īà¦ĩà¦¯":5798,"à¦¬à¦°à¦°":5799,"à¦¬à¦°à¦ª":5800,"à¦°à¦ķà¦¯":5801,"à§Į-":5802,"à¦Ĩà¦°à¦£":5803,"à¦ĺà¦·":5804,"à¦ĺà¦¤à¦°":5805,"Ġà¦ľà¦¨à¦¸à¦¨":5806,"Ġà¦ĩà¦®à¦¨":5807,"Ġà¦ĩà¦®à¦°":5808,"à§ģà¦ģ,":5809,"à¦·à¦£à¦ľ":5810,"Ġà¦ªà¦¥à¦¯":5811,"Ġà¦¬à¦¸à¦°":5812,"à¦ħà¦²à¦ķ":5813,"à¦ħà¦¸à¦¤":5814,"Ġà¦ıà¦¸à¦®à¦¯":5815,"à¦ķà¦²à¦¤":5816,"à¦ķà¦²à¦¸":5817,"à¦¤à¦¬à§Łà¦¸":5818,"Ġà¦Ĺà¦²à¦Ĺ":5819,"à¦ķà¦°à¦ĵ":5820,"Ġà¦īà¦¦à¦Ń":5821,"à¦¦à¦¨à¦Ł":5822,"à¦ķà¦Łà¦®à¦¯":5823,"à¦ķà¦¤à¦¦":5824,"Ġà¦ľà¦²à¦ĩ":5825,"à¦°à¦¹à¦Ĺ":5826,"à¦¨à¦¬à¦¬à¦¨":5827,"Ġà¦¸à¦°à¦·":5828,"Ġà¦īà¦ªà¦®à¦¹":5829,"à¦Ĺà¦²à¦¦":5830,"à¦¿à¦ĥ,":5831,"à¦°à¦¦à¦£":5832,"à¦®à¦¯à¦ľ":5833,"Ġà¦¸à¦¹à¦¨":5834,"Ġà¦¸à¦¹à¦®à¦°à¦£":5835,"à¦°à¦¯à¦¨":5836,"à¦Ľà¦¨à¦¦":5837,"à¦°à¦ľà¦Ĺà¦¤":5838,"à§Ģ,âĢĿ":5839,"Ġà¦ĩà¦¤à¦°à¦¬":5840,"Ġà¦ªà¦¦à¦Ł":5841,"à¦¾âĢĶâĢĻ":5842,"Ġà¦®à¦°à¦ļ":5843,"à¦°à¦Ńà¦°":5844,"à§įâĢĮâĢĻ":5845,"ĠâĢĶ-":5846,"à§İà¦ķà¦ļ":5847,"à§İà¦ķà¦£":5848,"à§°à¦ļà¦£":5849,"à¦¼à§ĩà¥¤âĢĻ":5850,"Ġà¦ªà¦¤à¦ŀ":5851,"Ġà¦¶à¦¤à¦ļ":5852,"Ġà¦¶à¦¤à¦¶à¦¤":5853,"à¦¯à¦°à¦ļà¦¨":5854,"à¦¨à¦°à¦Ļ":5855,"à§¦à§®":5856,"Ġà¦¬à§ľà¦²":5857,"à¦¯à¦¥à¦Ń":5858,"à¦Ĺà¦ľà¦ĸ":5859,"Ġà¦ıà¦ķà¦ĩà¦¸":5860,"Ġà¦ıà¦ķà¦ĩà¦°à¦ķà¦®":5861,"Ġà¦¹à¦°à¦·":5862,"à¦¦à¦®à¦¬à¦¨":5863,"Ġà¦ķà¦¨à¦Ń":5864,"à¦®à¦¹à¦ķ":5865,"Ġà¦Ĺà¦¹à¦¨à¦¤":5866,"à¤µ":5867,"à¦®à¦¦à¦¤":5868,"Ġà¦ľà§Łà¦²":5869,"à¦¬à¦Ńà¦Ļ":5870,"à¦ªà§ľà¦¶":5871,"Ġà¦°à¦¸à¦¸":5872,"à¦¦à¦ķà¦£":5873,"Ġà¦®à¦¦à¦¤":5874,"à§ªà§Ń":5875,"à¦¨à¦ªà¦ŀ":5876,"Ġà¦¦à¦®à¦ķà¦²":5877,"Ġà¦Ĩà¦ĩà¦¨à¦ķ":5878,"Ġà¦Ĩà¦ĩà¦¨à¦ľ":5879,"à¦¨à§Łà¦¨à¦¶":5880,"à¦¬à¦®à¦Ļ":5881,"one":5882,"à§ĩâĢĻ-":5883,"à¦ľà¦Ĺà§İà¦ķ":5884,"à§Ńà§§":5885,",âĢĿâĢĶ":5886,"Ġà¦°à¦¥à¦¯":5887,"ata":5888,"atic":5889,"Ġthere":5890,"Ġthese":5891,"Ġà§©à§§à§©":5892,"Ġà§©à§«à§¦":5893,"Ġà¦Ĩà¦«à¦Ł":5894,"Ġà¦ĸà¦°à¦ĸà¦°":5895,"edic":5896,"à§ĭâĢĻâĢĶ":5897,"Ġà¦¬à¦¶à¦¬à¦°":5898,"Ġà¦ļà¦°à¦£à¦§":5899,"Ġnow":5900,"à¦Ĩà¦ļà¦®à¦ķ":5901,"ile":5902,"Ġà§ªà§¦à§¦":5903,"Ġdrop":5904,"Ġà¦¡à¦Ĺà¦®à¦Ĺ":5905,"Ġà¦ıà¦ķà¦ªà¦²à¦ķ":5906,"à§ľà¦²à¦£":5907,"alluc":5908,"ĠRup":5909,"Ġhis":5910,"Ġà¦®à¦Īà¦¨à¦ķ":5911,"ose":5912,"oss":5913,"Ġà§§à§¯à§¯à§ª":5914,"ures":5915,"Ġà¦ıà¦ķà¦Ŀà¦²à¦ķ":5916,"Ø§ÙĦ":5917,"ĠĠĠĠĠĠĠĠĠĠĠĠĠĠĠĠ":5918,"Ġà¦Ńà¦°à¦£à¦ª":5919,"à¦ķà¦Ŀà¦²à¦ķ":5920,"Ġà¦«à¦¸à¦«à¦°":5921,"Ġà¦¸à¦¬à¦°à¦ķà¦®":5922,"Ġcollect":5923,"ĠBengal":5924,"allucination":5925,"are":5926,"bor":5927,"ear":5928,"ful":5929,"hin":5930,"ious":5931,"low":5932,"to":5933,"ven":5934,"ved":5935,"âĨ":5936,"åĵ":5937,"Ġ)":5938,"à§ĩà¥¥":5939,"à¦°à¦°à¦¥":5940,"à¦°à¦Ĺà¦¨":5941,"à¦°à¦¡à¦¬":5942,"à§įâĢĻà¥¤":5943,"à¦¨à¦¶à¦ķ":5944,"à¦¨à¦°à¦ķà¦®":5945,"à¦¤à¦ķà¦²":5946,"à¦¤à¦¦à¦°":5947,"à¦¤à¦ĸà¦¤":5948,"à¦¤à¦ļà¦²":5949,"à¦¤à¦¤à¦ķ":5950,"à¦²à¦¦à¦°":5951,"à¦²à¦®à¦¤":5952,"à¦²à¦¸à¦®":5953,"à¦²à¦®à§Ł":5954,"à¦²à¦°à¦Ļ":5955,"à¦ķà¦ķà¦°":5956,"à¦ķà¦¸à¦¨":5957,"à§ģ'":5958,"à¦¬à¦ķà¦¤":5959,"à¦¬à¦ķà¦¬":5960,"à¦¬à¦®à¦¶":5961,"à¦¯à¦®à¦ķ":5962,"à¦¯à¦ľà¦Ĺà¦¤":5963,"à¦®à¦¬à¦°":5964,"à¦®à¦ªà¦¨":5965,"à¦®à¦°à¦¸":5966,"à¦®à¦²à¦¬":5967,"Ġà¦ªà§°":5968,"Ġà¦ªà§Łà¦²":5969,"à¥Ĥ":5970,"à¥¤-":5971,"à¦¦à¦ķà¦ķ":5972,"Ġà¦¨à¦¹à¦°":5973,"Ġà¦®à¦Ĺà¦¡":5974,"à¦Łà¦®à¦¨":5975,"à¦Łà¦°à¦¬":5976,"à¦Łà¦ĺ":5977,"à¦Łà¦¸à¦®":5978,"à¦ªà¦Ľà¦¨":5979,"à¦ĩà¦·":5980,"à¦ĩà¦ķà¦Ł":5981,"Ġà¦¦à¦¶à¦¬":5982,"Ġà¦¤à¦Łà¦°":5983,"à¦ľà¦ªà¦¦":5984,"à¦ľà¦¤à¦¤":5985,"à¦Ľà¦®":5986,"à¦Ľà¦Ľ":5987,"à¦¶à¦ķà¦Ł":5988,"à¦¶à¦ķà¦¤":5989,"à¦¶à¦¨à¦ĵ":5990,"à¦¶à¦®à¦¤":5991,"Ġà¦ıà¦®à¦¤":5992,"Ġà¦ħà¦°à¦¬":5993,"Ġà¦ħà¦¤à¦¬à¦¡":5994,"à¦ĸà¦¬à¦¨":5995,"à¦ĸà¦ªà¦¤":5996,"à¦·à¦Ľ":5997,"à¦·à¦ĸ":5998,"à¦·à¦®à¦¯":5999,"à¦Ĺà§Ł":6000,"à¦Ĺà¦¤à¦°":6001,"à¦Ĺà¦Ĺà¦¤":6002,"à¦Ĺà¦ªà¦¤":6003,"à¦Ĺà¦ªà¦¥":6004,"à¦Ĺà¦«à¦²":6005,"à¦Ĺà¦¶à¦¯":6006,"à¦§à§°":6007,"à¦§à¦¸à¦ļ":6008,"Ġà¦¯à§İà¦¸":6009,"à¦ļà¦ļ":6010,"à¦ļà¦ķà¦¤":6011,"à¦£à¦ªà¦°":6012,"à¦£à¦ĺ":6013,"Ġà¦ķà¦°à¦¦":6014,"à¦¡à¦§":6015,"à¦¥à¦¡":6016,"Ġà¦ļà¦ļ":6017,"à¦Ńà¦ŀ":6018,"à¦Ńà¦²à¦¬":6019,"à§ĩà¥¤âĢĵ":6020,"Ġà¦Ĩà¦®à¦¤":6021,"à¦ĤâĢĵ":6022,"à¦¾à¦ģâĢĶ":6023,"à¦¼à¦¾âĢĿ":6024,"à¦¼à¦¾à¦ĥ":6025,"Ġà¦ĵà¦¨à¦¨":6026,"Ġà¦²à¦¹":6027,"Ġà¦²à¦¬à¦Ļ":6028,"Ġà¦«à¦¯":6029,"Ġà¦ħà¦¨à¦Ĺ":6030,"à¦¾,-":6031,"Ġà¦¸à¦®à¦ķà¦ķ":6032,"Ġà¦®à¦¨à¦Ń":6033,"Ġà¦ıà¦ĩà¦°":6034,"à§İà¦ľ":6035,"à¦īà¦ŀ":6036,"à¦°à¦ķà¦ķ":6037,"à¦ıà¦ª":6038,"à¦Ĩà§ľ":6039,"à¦Ĩà¦°à¦ķ":6040,"à¦Ĩà¦ªà¦¦":6041,"à¦Ĩà¦Łà¦ķ":6042,"à¦ĺà¦«":6043,"Ġà¦¡à¦²à¦«":6044,"Ġà¦Łà¦ªà¦Łà¦ª":6045,"Ġà¦¹à¦²à¦Ł":6046,"Ġà¦ļà¦²à¦ķ":6047,"Ġà¦¬à¦¨à¦ķ":6048,"Ġà¦¬à¦¨à¦ľà¦Ļ":6049,"à¦ħà¦¬à¦¤":6050,"à¦ħà¦ªà¦®":6051,"Ġà¦ħà¦¸à¦®à¦¤":6052,"à¦ķà¦²à¦ľ":6053,"Ġà¦Ĩà¦ķà¦¨":6054,"à¦¦à¦¨à¦¹":6055,"à¦²à¦ķà¦ª":6056,"Ġà¦¶à¦¬à¦¦":6057,"à¦¦à¦°à¦ª":6058,"Ġà¦ľà¦²à¦®":6059,"Ġà¦ľà¦²à¦ļ":6060,"à¦°à¦¹à¦Ł":6061,"à¦¿à¦Ĥ!":6062,"à¦§à¦ķà¦°à¦£":6063,"à¦¨à¦¬à¦¯":6064,"Ġà¦¸à¦°à¦Ľ":6065,"à¦¯à¦ķà¦¥":6066,"à¦Ĺà¦²à¦ĩ":6067,"à¦Ĺà¦²à¦Ľ":6068,"à§ĩâĢĶâĢĿ":6069,"Ġà¦ķà¦²à¦ª":6070,"à¦°à¦¯à¦ľ":6071,"à¦¸à¦¨à¦Ń":6072,"à¦°à¦ľà¦ķ":6073,"à¦¶à¦¨à¦ĩ":6074,"Ġà¦Ńà¦°à¦Ľ":6075,"à¦°à¦²à¦¹à¦°":6076,"à¦ķà¦¬à¦ļ":6077,"Ġà¦īà¦¤à¦¥":6078,"à¦ıà¦ĩà¦ĩ":6079,"Ġà¦ªà¦¦à¦¦à¦²":6080,"Ġà¦ĵà¦°à¦«":6081,"Ġà¦ħà¦Ĺà¦®":6082,"à¦°à¦ªà¦°à¦¨":6083,"à¦Ńà¦¬à¦ĩ":6084,"à¦¹à¦²à¦®à§Ł":6085,"à¦®à¦£à¦¤":6086,"âĢ¦)":6087,"Ġà¦Ĺà¦°à¦Ĺà¦°":6088,"Ġà¦¬à¦ĩà¦ªà§ľ":6089,"à¦ªà¦ķà¦¦":6090,"Ġà¦¬à¦Ľà¦°à¦Ĺ":6091,"à§°à¦²":6092,"à§°à¦¦":6093,"à§°à¦¥à¦®":6094,"à¦¹à¦¨à¦²":6095,"Ġà¦¨à¦¬à¦¤à¦°":6096,"à¦°à¦ķà¦®à¦ĩ":6097,"à§¦à§«":6098,"à¦¯à¦¦à¦¸":6099,"Ġà¦Ĩà¦¦à¦¬":6100,"à¦¯à¦¸à¦Ń":6101,"Ġà¦Ĩà¦¡à¦®":6102,"Ġà¦Ĺà¦¤à¦ľà¦¨":6103,"à¦¸à¦«à¦°":6104,"à¦¸à¦«à¦Łà¦ĵà¦¯":6105,"à¦°à¦Ĺà¦®":6106,"à¥¤âĢĻâĢĿ":6107,"à¦°à¦¹à¦£à¦ķ":6108,"!âĢĿ,":6109,"à§¨à§Ń":6110,"à§¨à§¬":6111,"Ġà¦īà§İà¦¸à¦¬à¦ĩ":6112,"à¦®à¦¹à¦¨à¦¨":6113,"à¦¹à¦°à¦£à¦ĵ":6114,"Ġà¦Ĺà¦¹à¦¬à¦°":6115,"à¦·à§Łà¦¬à¦¸":6116,"à¦¸à¦¹à¦¬":6117,"à¦ķà¦°à¦£à¦°":6118,"à¦¥à¦ķà¦Ń":6119,"Ġà§¨à§¦à§¦":6120,"à¦¬à¦¹à¦£":6121,"Ġà¦°à¦¸à¦¬à¦¤":6122,"à§©à§®":6123,"ans":6124,"Ġà¦¸à§İà¦ªà¦¥":6125,"Ġà¦¸à§İà¦ļà¦°":6126,"à§ªà§¨":6127,"à§ªà§§":6128,"Ġà¦ļà¦Łà¦ļà¦Ł":6129,"Ġà¦ĵà¦·à¦§":6130,"à¦ħà¦¬à¦¸à¦°":6131,"ond":6132,"Ġà¦Ĩà§Łà¦¶":6133,"à¦¬à¦ľà¦¨à¦¦":6134,"ate":6135,"ism":6136,"iss":6137,"à§®à§¬":6138,"à¦¾âĢĿ,":6139,"ara":6140,"ard":6141,"Ġà¦¨à§ľà¦²":6142,"à¦¿âĢ¦à¥¤":6143,"à¦Ŀà¦ķà¦Ŀà¦ķ":6144,"Ġcan":6145,"Ġold":6146,"Ġà¦¨à¦°à¦ķà¦¬":6147,"Ġà¦¸à¦°à¦¸à¦°":6148,"Ġfrom":6149,"Ġà¦¸à¦«à¦²à¦Ń":6150,"Ġà§§à§¯à§Ńà§©":6151,"Ġà§ªà§«":6152,"Ġà¦ķà¦¦à¦®à¦¤à¦²":6153,"à§ĭ?âĢĿâĢĶ":6154,"ĠAs":6155,"let":6156,"à¦®à¦Ŀà¦®":6157,"Ġthy":6158,"à¦¨à¦®à§Łà¦¤":6159,"ĠRiya":6160,"Ġà§§à§¨à§¦à§¦":6161,"Ġà§¦à§¨":6162,"Ġà§¦à§ª":6163,"Ġbeen":6164,"Ġbeauty":6165,"Ġgrow":6166,"Ġà¦Ńà¦Łà¦ļ":6167,"Ġà¦ķà¦¨à¦ķà¦¦":6168,"Ġà¦ķà¦¨à¦ķà¦ļ":6169,"Ġref":6170,"ird":6171,"à¦·à¦²à¦§":6172,"à§ģà§įà¦ģ":6173,"Ġnever":6174,"Ġà¦ļà¦Łà¦ķà¦¦":6175,"Ġà¦¬à¦Ľà¦°à¦ķ":6176,"Ġà¦§à¦ªà¦§à¦ª":6177,"Ġ****":6178,"Ġlove":6179,"ºçľºçľºçľºçľºçľºçľºçľºçľ":6180,"·çľ·çľ·çľ·çľ·çľ·çľ·çľ·çľ":6181,"Ġà¦Ĩà¦īà¦¸à¦¹":6182,"ledge":6183,"ough":6184,"Ġà¦¸à¦¦à¦²à¦¬à¦²":6185,"åĵį":6186,"36":6187,"37":6188,"?âĢ¦":6189,"aw":6190,"dig":6191,"eop":6192,"ix":6193,"ja":6194,"oci":6195,"pt":6196,"sha":6197,"ther":6198,"uhin":6199,"yst":6200,"Â¦":6201,"ÙĬ":6202,"Ġ&":6203,"Ġen":6204,"Ġall":6205,"à¦°à¦°à¦ķ":6206,"à§įâĢĵ":6207,"à¦¿à§ĩ":6208,"à¦¿âĢĮ":6209,"à¦¿...":6210,"à¦¨à¦¬à¦²":6211,"à¦¨à¦ķà¦²":6212,"à¦¨à¦ªà¦¦":6213,"à¦¤à§Ł":6214,"à¦¤à§°":6215,"à¦²à¦¬à¦¤":6216,"à¦²à¦¹à¦°":6217,"à¦²à¦ªà¦ķ":6218,"à¦²à¦§à¦°":6219,"à¦ķà¦ªà¦¥":6220,"à§ģ?âĢĿ":6221,"à¦¬à¦¬à¦²":6222,"à¦¯à¦£":6223,"à¦¯à¦¤à¦¨":6224,"à¦¯à¦ªà¦¤":6225,"à¦¯à¦®à¦°":6226,"à¦¯à¦Ĺà¦°":6227,"à¦®à¦¸à¦²":6228,"à§ĭ),":6229,"Ġà¦ķà¦¤à¦°à¦ķà¦®":6230,"à¦¸à¦ķà¦°":6231,"à¦¸à¦¨à¦ĵ":6232,"à¦¸à¦¸à¦¹":6233,"à¦¸à§ľà¦ķ":6234,"Ġà¦Ĩà¦£":6235,"Ġà¦Ĩà¦ĩà¦¯":6236,"Ġà¦Ĩà¦ĸà¦°":6237,"à¥¤(":6238,"à¥¤âĢĶâĢĺ":6239,"à¦¦à¦¡":6240,"à¦¦à¦¬à¦ª":6241,"à¦¦à¦¨à¦¤à¦¤":6242,"Ġà¦¨à¦°à¦¸":6243,"Ġà¦¨à¦¨à¦¦":6244,"Ġà¦®à¦ļà¦ķ":6245,"à¦Łà¦°à¦¶":6246,"à¦Łà¦¤à¦®":6247,"à¦ªà¦¦à¦°":6248,"à¦ªà¦¬à¦¦":6249,"à¦ªà§°":6250,"à¦ĩà¦¥à¦¨":6251,"à¦ĩà¦īà¦¨":6252,"à¦ĩà¦īà¦ľ":6253,"Ġà¦¦à§°":6254,"Ġà¦¤à¦£":6255,"à¦ľà¦®à¦¨":6256,"à¦ľà¦°à¦¨":6257,"à¦ľà¦¤à¦²":6258,"à¦Ľà¦ķà¦ĩ":6259,"à¦¶à¦°à¦®":6260,"à¦¶à¦²à¦Ĺ":6261,"Ġà¦¹à¦°à¦¨":6262,"Ġà¦¹à¦Łà¦²":6263,"Ġà¦¹à¦ĵà¦¨":6264,"Ġà¦ıà¦·":6265,"Ġà¦ıà¦§":6266,"Ġà¦ıà¦¥":6267,"Ġà¦ıà¦°à¦ĵ":6268,"Ġà¦ıà¦Ńà¦°":6269,"Ġà¦ħà¦ªà¦¨":6270,"Ġà¦ħà¦¹à¦²":6271,"à¦ĸà¦°à¦¬":6272,"à¦ĸà¦²à¦¤":6273,"à¦ĸà¦Ńà¦Ļ":6274,"à¦·à¦°à¦ľ":6275,"à¦·à¦¸à¦ķ":6276,"à¦·à¦¬à¦°à¦£":6277,"à¦¼à§ĩ)":6278,"à¦§à¦°à¦¤":6279,"à¦§à¦¬à¦¨":6280,"à¦§à¦®à¦ķ":6281,"à¦¹à¦«":6282,"à¦ļà¦°à¦¬":6283,"à¦ļà¦°à¦®":6284,"à¦¥à¦ļ":6285,"à¦¥à¦¸à¦®":6286,"Ġà¦¶à¦°à¦¶":6287,"Ġà¦Ńà§ľ":6288,"ĠĠĠ":6289,"Ġà¦°à¦ĵà¦¯":6290,"Ġà¦°à¦Ĺà§ľ":6291,"à¦Ńà¦ĩ":6292,"à¦Ńà¦ªà¦¤":6293,"à§ĩà¥¤)":6294,"Ġà¦Ĩà¦®à¦ľà¦¨à¦¤":6295,"Ġà¦Ľà¦ª":6296,"Ġà¦ıà¦ķà¦¹":6297,"à¦ĤâĢ¦":6298,"à¦łà¦ĸ":6299,"à¦łà¦«":6300,"Ġà¦īà¦ĩà¦ķ":6301,"à¦Ļà¦Ł":6302,"à¦¾à¦ģ!":6303,"à¦¾à¦ģâĢ¦":6304,"à§ĩ,âĢĵ":6305,"Ġà¦¥à¦ķ":6306,"Ġà¦²à¦²à¦¨":6307,"Ġà¦«à¦ľà¦°":6308,"Ġà¦«à¦°à¦«à¦°":6309,"à¦°à¦¤à¦¯":6310,"à¦°à¦¤à¦Ń":6311,"Ġà¦ĸà¦¸à¦²":6312,"Ġà¦ħà¦¨à¦§":6313,"Ġà¦ħà¦¨à¦²à¦¸":6314,"à¦¾à¥¤âĢĺ":6315,"Ġà¦¸à¦®à¦ªà¦°":6316,"ĠâĢŀ":6317,"Ġà¦®à¦¨à¦ľ":6318,"à¦®à¦¨à¦°":6319,"à¦¿,âĢĶ":6320,"à¦¼à¦¿âĢĵ":6321,"Ġà¦ıà¦ĩà¦ĩ":6322,"à§İà¦Ł":6323,"à§İà¦ªà¦²":6324,"à¦°à¦¬à¦ļà¦¨":6325,"à¦¤à¦°à¦¥":6326,"à¦ľà¦¨à¦°":6327,"à¦ľà¦¨à¦Ł":6328,"à¦ľà¦¨à¦Ĺ":6329,"à¦ľà¦¨à¦¹":6330,"à¦īà¦ĸ":6331,"à¦īà¦ªà¦Ĺ":6332,"à¦īà§İà¦¸à¦°":6333,"à¦¬à¦°à¦®à¦¯":6334,"Ġà¦Ĩà¦²à¦ķ":6335,"à¦«à¦¦":6336,"à¦ıà¦¤à¦Ł":6337,"à¦ıà¦¨à¦ľ":6338,"Ġà¦¸à¦¬à¦¸":6339,"à¦Ĩà¦ĸ":6340,"à¦Ĩà¦·":6341,"à¦Ĩà¦ĩà¦¸":6342,"Ġà¦Łà¦ĩà¦Ł":6343,"Ġà¦Łà¦²à¦Ľ":6344,"Ġà¦ľà¦¨à¦¬à¦¹":6345,"à¦¬à¦²à¦¯":6346,"à¦¬à¦²à¦¹":6347,"Ġà¦ĩà¦Ĺ":6348,"Ġà¦ĩà¦¬à¦¨":6349,"Ġà¦ĩà¦Ĺà¦²":6350,"Ġà¦ĩà¦¨à¦¬à¦ķ":6351,"âĢĵà¥¤":6352,"âĢĵâĢĵ":6353,"à¦ĥ?":6354,"Ġà¦ħà¦¬à¦¦à¦®":6355,"Ġà¦ªà¦¥à¦ľ":6356,"Ġà¦łà¦¨":6357,"à¦ħà¦ªà¦Ł":6358,"à¦ħà¦²à¦¸":6359,"à¦ħà¦¬à¦¹":6360,"Ġà¦ħà¦®à¦²à¦¤":6361,"Ġà¦ıà¦¸à¦ª":6362,"Ġà¦ħà¦¸à¦¬à¦°":6363,"à¦ķà¦²à¦°à¦¬":6364,"Ġà¦Ĩà¦¬à¦¡":6365,"à¦¬à¦¤à¦ķ":6366,"à¦¸à¦¬à¦Ł":6367,"à¦¤à¦¬à¦¸":6368,"Ġà¦Ĩà¦¨à¦ļ":6369,"à¦ķà¦°à¦Ľ":6370,"Ġà¦īà¦¦à¦Ĺà¦¤":6371,"à¦¦à¦¨à¦®":6372,"à¦¦à¦¨à¦§":6373,"à¦¦à¦¨à¦ĵ":6374,"à¦¦à¦¨à¦®à¦¯":6375,"à¦¾à¦Ĥà¥¤":6376,"Ġà¦ľà¦²à¦ªà¦°":6377,"Ġà¦ľà¦²à¦¢":6378,"Ġà¦¸à¦¨à¦ķ":6379,"à¦¨à¦¬à§İ":6380,"à¦¨à¦¬à¦¸à¦¤":6381,"à¦§à¦¨à¦ª":6382,"Ġà¦ĺà¦°à¦ĸ":6383,"à¦Ĩà¦®à¦²":6384,"à¦Ĺà¦²à¦ĵ":6385,"à¦Ĺà¦²à¦®à§Ł":6386,"Ġà¦ķà¦²à¦Ł":6387,"à¦²à¦¬à¦£":6388,"Ġà¦ħà¦ªà¦²":6389,"Ġà¦ħà¦ªà¦¹":6390,"à¦¶à¦¨à¦²":6391,"à¦°à¦²à¦®":6392,"à¦°à¦²à¦¸à¦Ń":6393,"à¦¦à§Łà¦ľ":6394,"Ġà¦°à¦Ļà¦ļà¦Ł":6395,"Ġà¦ħà¦¥à¦ĩ":6396,"à¦ĩà¦¨à¦ķ":6397,"Ġà¦ªà¦¦à¦¦":6398,"Ġà¦ªà¦¦à¦®à¦°":6399,"à¦¶à¦¬à¦ķ":6400,"à¦¹à¦²à¦¦":6401,"à¦ªà¦¥à¦¯":6402,"à¦¤à¦²à¦Ĺ":6403,"âĢ¦âĢ¦":6404,"à¦¤à¦ķà¦¥":6405,"à¦¤à¦ķà¦°à¦¬":6406,"Ġà¦¶à¦¹à¦°à¦ľ":6407,"à¦¸à¦°à¦ŀ":6408,"à§įâĢĮâĢį":6409,"à§ģâĢĻ,":6410,"ĠâĢĶâĢľ":6411,"Ġà¦Ĳà¦¤à¦°":6412,"à¦Łà¦²à¦Ĺ":6413,"Ġà¦ĵà¦ĩà¦¦":6414,"à§İà¦ķà¦®":6415,"Ġà¦ħà¦²à¦°":6416,"Ġà¦ħà¦²à¦ķà¦Ł":6417,"à¦°à¦ªà¦²":6418,"à§°à¦¥":6419,"Ġà¦Ĺà§ľà¦Ľ":6420,"Ġ(âĢĺ":6421,"Ġà¦¸à¦ķà¦²à¦ĩ":6422,"Ġà¦Īà¦Ļ":6423,"Ġà¦¨à¦¬à¦ļ":6424,"Ġà¦ıà¦ķà¦¬à¦Ľà¦°":6425,"Ġà¦Ĩà¦ļà¦®à¦¨":6426,"à¦¼à¦¾,âĢĿ":6427,"à¦°à¦Ĺà¦®à¦¨":6428,"Ġà¦ĺà¦¨à¦ĺà¦Ł":6429,"à¦¬à¦¶à¦°":6430,"Ġà¦īà§İà¦¸à¦®":6431,"Ġà¦°à¦ķà¦®à¦Ń":6432,"Ġà¦ĸà¦¬à¦°à¦ĩ":6433,"Ġà¦¬à¦ķà¦Ľ":6434,"Ġà¦ķà¦¨à¦¡":6435,"à¦®à¦°à¦£à¦¶à¦ķ":6436,"Ġà¦Ĺà¦£à¦ªà¦¤":6437,"Ġà¦ªà¦°à¦®à¦ª":6438,"Ġà¦ķà¦²à¦ķà¦£":6439,"à¦°à¦°à¦ļà¦¨":6440,"à¦ķà¦°à¦£à¦¯":6441,"à¦ķà¦°à¦£à¦ª":6442,"à¦°à¦¬à¦²à¦¤à¦°":6443,"à¤¸":6444,"à¤ļ":6445,"à¤ľ":6446,"hel":6447,"à§©à§«":6448,"ance":6449,"à¦ļà§Łà¦ķ":6450,"inal":6451,"à¦ļà¦°à¦£à¦¶":6452,"Ġà¦®à¦¶à¦ķà¦°":6453,"à¦¦à¦¸à¦ĩ":6454,"à¦ĩà¦Ńà¦¸":6455,"Ġà¦īà¦ªà¦¨à¦¯":6456,"à¦¬à¦°à¦£à¦ķ":6457,"Ġà¦ļà¦°à¦®à¦Ń":6458,"alf":6459,"alcon":6460,"Ġthey":6461,"Ġà¦Ŀà§ľà¦ķ":6462,"à§¬à§«":6463,"ern":6464,"ence":6465,"Ġà¦Ķà§İà¦¸":6466,"Ġà¦Ńà¦Ĺà¦¬à¦¨":6467,"Ġà¦Ńà¦°à¦¸à¦¨":6468,"Ġà§©à§«":6469,"Ġà§©à§ª":6470,"Ġac":6471,"Ġwalk":6472,"à¦īà¦¡à¦¸":6473,"Ġà¦²à§ľà¦¤":6474,"Ġà¦²à§ľà¦Ľ":6475,"Ġà¦¨à§ľà¦¤":6476,"à¦Ĩà¦¤à¦Ļ":6477,"à¦ĭà¦¦":6478,"à§Ģà¦Ĥ,":6479,"à¦¶à¦¦à¦Ń":6480,"esc":6481,"ĠInt":6482,"Ġfe":6483,"Ġà¦Ĩà¦Łà¦ļà¦²":6484,"à¦ħà¦ªà¦Ľà¦¨":6485,"Ġà§§à§¯à§Ńà§«":6486,"Ġà¦Ĩà¦ĩà¦ĵà¦Ł":6487,"Ġà§ªà§¦":6488,"ĠSoci":6489,"à¦ĩà¦ľà¦¨à¦ĩ":6490,"ice":6491,"ions":6492,"vel":6493,"Ġà¦ķà¦²à¦¤à¦²":6494,"ĠCh":6495,"old":6496,"ĠDetect":6497,"à§°à¦¹à¦£":6498,"Ġà§¦à§«":6499,"own":6500,"Ġhallucination":6501,"Ġhalf":6502,"ĠMay":6503,"Ġà¦ķà¦°à¦¤à¦²à¦Ĺà¦¤":6504,"ign":6505,"Ġà§§à§Ńà§ªà§©":6506,"Ġà¦ĸà¦ļà¦ĸà¦ļ":6507,"usion":6508,"Ġà§§à§¯à§®à§¯":6509,"very":6510,"Ġone":6511,"Ġà¦ĸà¦¨à¦¨à¦ķ":6512,"Ġà¦Łà¦¹à¦²à¦¦":6513,"ĠYou":6514,"ĠâĢĶâĢĶâĢĶ-":6515,"Ġà¦ĺà¦°à¦ķà¦¨":6516,"Ġà¦¬à¦°à¦¬à§°":6517,"angu":6518,"iterature":6519,"ways":6520,"Ġabout":6521,"âĢ¨Ċ":6522,"ĠRupsha":6523,"à¦ķà¦°à¦£à¦°à¦ļà¦¯":6524,"!âĢ¦":6525,"CO":6526,"Fi":6527,"Ode":6528,"Th":6529,"cle":6530,"ft":6531,"for":6532,"from":6533,"hi":6534,"hy":6535,"jun":6536,"les":6537,"ness":6538,"rish":6539,"sp":6540,"sy":6541,"tle":6542,"ue":6543,"wo":6544,"yes":6545,"¿½":6546,"Ð¿":6547,"Ñģ":6548,"Ø´":6549,"à«":6550,"à°":6551,"ï¿½":6552,"ĠZ":6553,"Ġup":6554,"ĠÙĨ":6555,"à¦¾à¥¥":6556,"à¦°à¦¯à¦¤":6557,"à¦¨à¦¦à¦¯":6558,"à¦¨à¦ļà¦¨":6559,"à¦¨à¦¸à¦¤":6560,"à¦¤à¦ªà¦¨":6561,"à¦¤à¦®à¦ķ":6562,"à¦¤à¦¶à¦¤":6563,"à¦¤à§İà¦¸à¦®":6564,"à¦²à¦ªà¦¨":6565,"à¦²à¦®à¦°":6566,"à¦²à¦®à¦¹":6567,"à¦²à¦ªà¦®":6568,"à¦²à¦¶à¦¯":6569,"à¦ķà¦¥à¦¨":6570,"à§ģà¥¥":6571,"à§ģâĢ¦à¥¤":6572,"à¦¬à¦¹à¦¸":6573,"à¦¬à¦¹à¦°":6574,"à¦¯à¦¡":6575,"à¦¯à¦¹à¦®":6576,"à¦®à¦¬à¦¤":6577,"à¦®à¦¸à¦¤":6578,"à¦®à¦ĺà¦¨":6579,"à¦¼),":6580,"Ġà¦ķà¦ĸ":6581,"Ġà¦¬à¦ķà¦²":6582,"Ġà¦¬à¦¶à¦®":6583,"Ġà¦¸à¦ĩà¦Ľ":6584,"Ġà¦ªà¦²à¦²":6585,"à¦¸à¦®à¦²":6586,"à¦¸à¦Ńà¦°":6587,"Ġà¦Ĩà¦ļà¦²":6588,"à¥¤âĢĶ":6589,"à¥¤âĢľ":6590,"à¥¤âĢĶâĢĻ":6591,"à¦¦à¦¸à¦®":6592,"à¦¦à§°":6593,"à¦¦à¦ĺà¦°":6594,"à¦¦à¦¸à¦¹":6595,"Ġà¦¨à¦¦à¦¨":6596,"Ġà¦¨à¦§à¦°":6597,"Ġà¦¨à¦¬à¦¤à¦®":6598,"Ġà¦®à¦«":6599,"Ġà¦®à¦Ļà¦²":6600,"à¦Łà¦®à¦¸":6601,"à§Ģ),":6602,"à¦ªà¦ĺ":6603,"à¦ªà¦Ĺà¦¤":6604,"à¦ªà¦¸à¦¤":6605,"à¦ªà¦¹à¦¤":6606,"à¦ªà§Łà¦¸":6607,"à¦ĩà¦ı":6608,"à¦ĩà¦²à¦¬":6609,"à¦ĩà¦®à¦²":6610,"à¦ĩà¦¤à¦²":6611,"à¦ĩà¦¶à¦Ł":6612,"Ġà¦¦à¦§":6613,"Ġà¦¦à¦¶à¦¨":6614,"à¦ľà¦¬à¦°":6615,"à¦ľà¦ķà¦²":6616,"à¦ľà¦¤à¦¬":6617,"à¦ľà¦ĺà¦°":6618,"à¦Ľà¦Ń":6619,"à¦¶à¦¡":6620,"à¦¶à¦¬à¦°":6621,"à¦¶à¦®à¦¯":6622,"à¦¶à¦®à¦°":6623,"à¦¶à¦ªà¦°à¦®":6624,"Ġà¦¹à¦ĩà¦Ľ":6625,"Ġà¦¹à¦¸à¦ª":6626,"Ġà¦ıà¦®à¦ª":6627,"à§Łà¦ľà¦¨à¦¦":6628,"Ġà¦ħà¦°à¦¤":6629,"à¦ĸà¦¢":6630,"à¦·à¦°à¦®":6631,"à¦·à¦¦à¦°":6632,"à¦·à¦¨à¦ĵ":6633,"à¦Ĺà¦¸à¦®":6634,"à¦Ĺà¦®à¦¸":6635,"à¦Ĺà¦¸à¦¹":6636,"à¦Ĺà¦ľà¦¨à¦ķ":6637,"à¦Ĺà¦¯à¦ľ":6638,"à¦Ĺà¦¦à¦¤":6639,"à¦¼à§ĩ?âĢĻ":6640,"à¦¼à§ĩâĢ¦à¥¤":6641,"à¦§à¦°à¦ķ":6642,"à¦§à¦Ńà¦°":6643,"à¦¹à¦²à¦ķ":6644,"à¦£à¦²":6645,"à¦£à¦¬à¦¤":6646,"à¦£à¦ªà¦¦":6647,"Ġà¦ķà¦°à¦¸":6648,"Ġà¦ķà¦°à¦Ĺ":6649,"à¦¡à§Łà¦¨":6650,"Ġà¦¶à¦¶à¦¬":6651,"Ġà¦Ńà¦¡":6652,"Ġà¦°à¦£à¦®":6653,"Ġà¦Ĩà¦®à¦ļ":6654,"Ġà¦ıà¦ķà¦®à¦¨":6655,"Ġà¦ıà¦ķà¦¬à¦¸":6656,"Ġà¦ıà¦ķà¦ĺà¦°":6657,"à¦Ĥ)":6658,"à¦łà¦§":6659,"à¦łà¦Ńà¦°":6660,"Ġà¦īà¦Ń":6661,"à¦Ļà§ľ":6662,"à¦¾à¦ģâĢĵ":6663,"Ġà¦²à¦ĸ":6664,"à¦°à¦¤à¦Ł":6665,"Ġà¦Ĩà¦°à¦¬à¦°":6666,"Ġà¦ĸà¦ķ":6667,"Ġà¦¬à¦²à¦ķ":6668,"Ġà¦§à¦ĩà¦°":6669,"Ġà¦ªà¦°à¦ļ":6670,"Ġà¦ªà¦°à¦ªà¦ķ":6671,"à¦¬à¦¨à¦Ĺà¦°":6672,"à¦¬à¦¨à¦ķà¦¥":6673,"Ġà¦¸à¦®à¦®":6674,"Ġà¦¸à¦®à¦ª":6675,"Ġà¦®à¦¨à¦¯":6676,"Ġà¦ıà¦ĩà¦ľ":6677,"à§İà¦ªà¦¨":6678,"à¦°à¦¬à¦¹":6679,"à¦°à¦¬à¦²à¦¤":6680,"à¦°à¦¬à¦£à¦ķ":6681,"à¦°à¦¬à¦¹à¦®":6682,"à¦ľà¦¨à¦ľ":6683,"à¦ľà¦¨à¦Ĺà¦£":6684,"à¦īà¦ĵ":6685,"à¦īà¦ªà¦¤":6686,"à¦īà¦ªà¦¯":6687,"à¦ıà¦¯":6688,"à¦ıà¦Ĩ":6689,"à¦ıà¦¤à¦ĩ":6690,"à§Į,":6691,"à¦Ĩà¦¬à¦¦":6692,"Ġà¦®à¦¤à¦Ł":6693,"Ġà¦ķà¦¥à¦®":6694,"à¦ĺà¦Ń":6695,"à¦ĺà¦°à¦Ĺ":6696,"à¦ĺà¦¸à¦®à¦¯":6697,"Ġà¦¡à¦¬":6698,"Ġà¦Ĩà¦Ľà¦²":6699,"à¦¬à¦²à¦ķ":6700,"Ġà¦Ŀà¦®à¦Ŀà¦®":6701,"Ġà¦¹à¦²à¦ķ":6702,"Ġà¦ĩà¦īà¦¸":6703,"à¦ĥâĢ¦":6704,"Ġà¦ħà¦¬à§Ł":6705,"à¦°à¦®à¦Ł":6706,"à¦°à¦®à¦¥":6707,"à§ĭà¦ģ,":6708,"Ġà¦¬à¦¨à¦¶":6709,"à¦ħà¦¬à¦°":6710,"à¦ħà¦«à¦²":6711,"à¦¤à¦¨à¦Ł":6712,"à¦¤à¦¨à¦ļ":6713,"Ġà¦ıà¦¸à¦ıà¦¸à¦¸":6714,"Ġà¦ħà¦¸à¦¤à¦°":6715,"à¦¬à¦¤à¦¤":6716,"à¦¬à¦¤à¦¸":6717,"à¦¬à¦¤à¦¶":6718,"à¦¤à¦¬à¦¯":6719,"à¦¤à¦¬à¦¸à¦®":6720,"Ġà¦Ĺà¦²à¦¸":6721,"Ġà¦Ĩà¦¨à¦¯":6722,"à¦¦à¦¨à¦¬":6723,"à¦¦à¦¨à¦ªà¦¤":6724,"à¦ķà¦Łà¦²":6725,"à¦ķà¦Łà¦®":6726,"à¦ķà¦Łà¦¸":6727,"à¦ķà¦Łà¦Ĺ":6728,"Ġà¦¬à¦°à¦²":6729,"Ġà¦¬à¦°à¦ª":6730,"Ġà¦¬à¦°à¦ĸ":6731,"à§ĩ?âĢĶ":6732,"Ġà¦®à¦¹à¦ķ":6733,"à¦¿à¦ĤâĢĵ":6734,"Ġà¦Ĩà¦ªà¦¨à¦®à¦¨":6735,"à¦²à¦¨à¦ª":6736,"à¦¯à¦ķà¦¨":6737,"à¦Ĩà¦®à¦Ĺ":6738,"Ġà¦īà¦ªà¦¶à¦®":6739,"à¦Ĺà¦²à¦¸":6740,"à¦Ĺà¦²à¦Ĺ":6741,"à¦°à¦¶à¦®à¦¨":6742,"Ġà¦Ĩà¦¤à¦ª":6743,"Ġà¦Ĩà¦¤à¦¶":6744,"à¦ļà¦²à¦Ĺ":6745,"à¦ļà¦²à¦ļ":6746,"à¦ļà¦²à¦Ń":6747,"Ġà¦¸à¦¹à¦®":6748,"à¦¸à¦¨à¦¦":6749,"à¦ªà¦¦à¦ĵ":6750,"à¦°à¦ľà¦¦":6751,"à¦°à¦ľà¦Ń":6752,"à¦¶à¦¨à¦Ĺ":6753,"Ġà¦°à¦Ļà¦¹":6754,"Ġà¦°à¦Ļà¦ĵ":6755,"à¦ķà¦¬à¦¦à¦²":6756,"à§İà¦¸à¦¤":6757,"à§İà¦¸à¦¹":6758,"à¦·à¦¤à¦®":6759,"Ġà¦ľà¦®à¦¦à¦Ĺ":6760,"à¦ıà¦ĩà¦¤":6761,"à¦Ńà¦¬à¦ĵ":6762,"à¦Ńà¦¬à¦ªà¦°":6763,"à¦Ĺà¦°à¦ª":6764,"Ġà¦¯à¦¤à¦Ĺ":6765,"Ġà¦¯à¦¤Åĵ":6766,"âĢ¦à¥¤âĢĻ":6767,"âĢ¦âĢ¦.":6768,"à¦·à¦ķà¦Ĺà¦£":6769,"Ġà¦ħà¦ªà¦°à¦ľà¦¨":6770,"à§įâĢĮ!":6771,"Ġà¦¬à¦ĩà¦ĵ":6772,"à¦¤à¦®à¦ľ":6773,"Ġà¦Ĳà¦²":6774,"Ġà¦Ĳà¦ĸ":6775,"à¦Łà¦²à¦®à¦²":6776,"Ġà¦«à¦²à¦Ł":6777,"à§°à¦ĩ":6778,"à§°à¦§":6779,"à§°à¦£":6780,"à¦®à¦¬à¦§":6781,"Ġà¦¸à¦®à§Łà¦ĵ":6782,"Ġà¦ĩà¦¨à¦¹":6783,"Ġà¦Ĩà¦§à¦¬":6784,"Ġà¦Īà¦®":6785,"Ġà¦Īà¦·à¦¦":6786,"Ġà¦¨à¦¬à¦¬":6787,"Ġà¦īà§İà¦ĸ":6788,"à¦¨à¦¸à¦ª":6789,"Ġà¦Ĩà¦¹à¦®à¦¦":6790,"à¦¼à§Ģ-":6791,"à¦¸à¦«à§ľ":6792,"Ġà¦¦à¦²à¦ªà¦¤":6793,"Ġà¦°à¦ķà¦®à¦«":6794,"à¦®à¦¸à¦ļ":6795,"Ġà¦Ĩà¦ªà¦Ĺ":6796,"Ġà¦ķà¦·à¦²":6797,"à¦ĩà¦Łà¦Ĺ":6798,"à§Ŀà¦Ń":6799,"à¦¦à¦®à¦ľ":6800,"à¦Ĩà¦²à¦Ĺ":6801,"à¦ľà¦¬à¦īà¦¦":6802,"à¦¹à¦°à¦£à¦Ĺ":6803,"Ġà¦§à¦¨à¦ªà¦¤":6804,"à¦¼âĢĶâĢĻ":6805,"Ġà¦¸à¦¦à¦Ĺ":6806,"à¦¸à¦¹à¦ļà¦°":6807,"à¦ķà¦°à¦£à¦¬":6808,"à¦īà¦²à¦¦":6809,"à¦¯à¦Ńà¦Ļ":6810,"à¦¤à¦¦à¦¶":6811,"à¦ķà¦Ĺà¦£":6812,"à¤¬":6813,"à¤Ĺ":6814,"à¦¤à¦ªà¦ŀ":6815,"à§©à§¨":6816,"Ġà¦Ĳà¦ķà¦®à¦¤":6817,"Ġà¦ľà¦Ĺà¦¤à¦Ł":6818,"ree":6819,"ret":6820,"Ġà¦Ĩà¦ļà¦°à¦£à¦ķ":6821,"à¦¬à§Łà¦ĩ":6822,"ont":6823,"à¦Ĩà¦Ĺà¦¸":6824,"Ġà¦ķà¦Łà¦ķà¦Ł":6825,"Ġà¦¬à¦īà¦Ŀ":6826,"Ġtheir":6827,"à§¬à§¯":6828,"ised":6829,"à¦¾âĢ¦âĢĻ":6830,"Ġà§©à§¦à§¦":6831,"Ġar":6832,"Ġsm":6833,"ound":6834,"Ġbes":6835,"Ġbet":6836,"Ġbalcon":6837,"Ġà¦ļà§ľà¦¤":6838,"à§ģâĢĶâĢĻ":6839,"à¦¸à¦ķà¦²à¦ĩ":6840,"Ġcount":6841,"Ġcould":6842,"Ġà¦ľà¦Ĺà§İà¦¬":6843,"Ġà¦ļà¦°à¦£à¦ļ":6844,"Ġfam":6845,"à¦ħà¦ªà¦²à¦ķ":6846,"Ġà¦ķà§ľà¦ķà§ľ":6847,"à§·à§·":6848,"Ġdr":6849,"Ġà¦ķà¦¦à§°":6850,"à¦¤à¦ļà¦°à¦¦":6851,"Ġà¦ľà¦¨à¦Ĺà¦£à¦®à¦¨":6852,"Ġpro":6853,"Ġà¦ħà¦¬à¦¸à¦°à¦ª":6854,"Ġà¦°à¦¤à¦¨à¦¦":6855,"Ġà§§à§¦à§¦à§¦":6856,"Ġà¦ķà¦¦à¦®à¦«":6857,"Ġà§§à§®à§Ń":6858,"Ġà¦°à¦£à¦Ń":6859,"ĠBut":6860,"à¦¨à§Łà¦¨à¦ķ":6861,"Ġà¤¬":6862,"Ġlong":6863,"olog":6864,"Ġà¦¨à¦Łà¦¬à¦°":6865,"à§§à§¯à§®":6866,"Ġà§§à§©à§«à§¦":6867,"ĠDo":6868,"ĠDiya":6869,"ety":6870,"urav":6871,"Ġà§§à§¯à§ªà§«":6872,"Ġbec":6873,"ĠMem":6874,"à¦īà¦ªà¦²à¦¬":6875,"ĠLond":6876,"ade":6877,"Ġà¦¤à¦ªà¦¨à¦ķ":6878,"Ġà§§à§¯à§®à§¬":6879,"Ġà¦¶à¦¶à¦§à¦°":6880,"Ġà¦Ĺà¦łà¦¨à¦ķ":6881,"ages":6882,"ĠWi":6883,"Ġà¦Ĺà¦²à¦¦à¦ĺà¦°":6884,"Ġà§§à§¯à§¬à§¦":6885,"Ġà¦īà¦ĩà¦²à¦ķ":6886,"able":6887,"Ġà¦®à¦¦à¦¨à¦¬":6888,"à¦®à§İà¦²":6889,"Ġà¦ĵà¦²à¦Łà¦ª":6890,"Ġà§§à§¯à§¨à§¯":6891,"Ġà§§à§¯à§§à§ª":6892,"Ġroad":6893,"ugg":6894,"ught":6895,"Ġalways":6896,"âĢķâĢķâĢķâĢķâĢķâĢķâĢķâĢķ":6897,"Ġknowledge":6898,"à§§à§¯à§ªà§Ń":6899,"Ġwork":6900,"à¦¸à¦¹à¦¨à¦¶":6901,"Ġcollective":6902,"ĠBengali":6903,"Ġà¦¶à¦°à¦¶à¦¯":6904,"ĠSociety":6905,"ĠDetective":6906,"ĠMaya":6907,"Ġbeside":6908,"Ġbalcony":6909,"ĠLondon":6910,".à¥¤":6911,".âĢĻ":6912,"38":6913,"40":6914,"43":6915,"45":6916,"AI":6917,"ER":6918,"aj":6919,"bo":6920,"der":6921,"gr":6922,"io":6923,"ire":6924,"less":6925,"ms":6926,"ob":6927,"ove":6928,"ost":6929,"ph":6930,"ru":6931,"ring":6932,"ric":6933,"uk":6934,"Ðº":6935,"ÑĤ":6936,"Ø¯":6937,"ÙĲ":6938,"à¨":6939,"à´":6940,"Ġ'":6941,"Ġra":6942,"ĠâĨ":6943,"Ġvery":6944,"Ĳáĥ":6945,"à§ĩà§Ģ":6946,"à§ĩ..":6947,"à¦°à¦Ŀà¦°":6948,"à§įâĢĻ-":6949,"à¦¨à¦ªà¦¨":6950,"à¦¨à¦¦à¦°":6951,"à¦¨à¦®à¦£":6952,"à¦¨à¦ĺà¦¨":6953,"à¦¤à¦£":6954,"à¦¤à¦¸à¦°":6955,"à¦¤à¦¸à¦ķ":6956,"à¦¤à¦ĺà§ľ":6957,"à¦¤à¦ĺà¦¡":6958,"à¦²à¦¸à¦¬":6959,"à¦²à¦°à¦ķà¦®":6960,"à¦²à¦ĸà¦£":6961,"à§ģà§ĩ":6962,"à§ģ!âĢĻ":6963,"à¦¬à¦¥":6964,"à¦¬à¦¤à¦°":6965,"à¦¬à¦ĩà¦Ł":6966,"à¦¬à¦®à¦¹":6967,"à¦¬à¦Ĺà¦£":6968,"à¦¬à§İà¦¸à¦°":6969,"à¦¯à¦°à¦¬":6970,"à¦¯à¦ķà¦¤":6971,"à¦¯à¦¶à¦ķ":6972,"à¦®à¦ªà¦¦":6973,"à¦®à¦ªà¦ķ":6974,"à¦®à¦¸à¦Ļ":6975,"à¦®à¦ľà¦²":6976,"à¦®à¦·à¦ª":6977,"à¦¼âĢ¦âĢĿ":6978,"à§ĭâĢĿ,":6979,"Ġà¦¸à§ľ":6980,"Ġà¦¸à¦¦à¦¨":6981,"Ġà¦¸à§İà¦¸":6982,"Ġà¦¸à¦Łà¦ķ":6983,"Ġà¦¸à§°":6984,"Ġà¦¸à¦ĵà¦Ĺ":6985,"Ġà¦ªà¦·":6986,"Ġà¦ªà¦Łà¦ķ":6987,"à¦¸à¦¬à¦°":6988,"à¦¸à¦ĵà§Ł":6989,"Ġà¦Ĩà¦ĩà¦ª":6990,"à¥ĥ":6991,"à¦¦à§ľ":6992,"à¦¦à¦«":6993,"à¦¦à¦ļà¦¯":6994,"à¦¦à¦¶à¦ķ":6995,"à¦¦à¦ķà¦¦":6996,"à¦¦à¦¶à¦®":6997,"à¦¦æĹ¥ãģ®":6998,"Ġà¦®à§°":6999,"Ġà¦®à¦°à¦®à¦°":7000,"Ġà¦®à¦¸à¦¨à¦¦":7001,"à¦Łà¦§":7002,"à¦Łà¦Ńà¦°":7003,"à¦Łà¦¸à¦¹":7004,"à¦Łà¦®à¦Łà¦®":7005,"à§Ģà§ĩ":7006,"à§ĢâĢĿà¥¤":7007,"à¦ªà¦®à¦²":7008,"à¦ªà¦¬à§Łà¦¸":7009,"à¦ĩà¦¥":7010,"à¦ĩà¦®à¦¸":7011,"Ġà¦¦à¦²à¦¤":7012,"Ġà¦¤à¦¨à¦¯":7013,"Ġà¦¤à¦ķà¦¤à¦ķ":7014,"à¦ľà¦ŀ":7015,"à¦ľà¦¸à¦¤":7016,"à¦ľà¦ĸà¦®":7017,"à¦¶à¦ªà¦¤":7018,"à¦¶à¦ķà¦¬":7019,"Ġà¦¹à¦īà¦¨":7020,"Ġà¦¹à¦Łà¦¬":7021,"Ġà¦ıà¦ľà¦²":7022,"Ġà¦ıà¦°à¦®à¦§":7023,"à§Łà¦ª":7024,"Ġà¦ħà¦¯à¦¯":7025,"à¦·à¦¤à¦°":7026,"à¦·à¦ªà¦¤":7027,"à¦·à¦Ĺà¦£":7028,"à¦·à¦ĩà§Ł":7029,"à¦Ĺà¦£à¦¨":7030,"à¦Ĺà¦ĺà¦¨":7031,"à¦¼à§ĩâĢĿ":7032,"à¦§à¦®à¦¨":7033,"à¦§à¦¬à¦²":7034,"Ġà¦¯à¦·":7035,"Ġà¦¯à¦®à¦²":7036,"à¦¹à¦ĵà¦¯":7037,"à¦¹à¦®à¦§":7038,"à¦ļà¦ĵ":7039,"à¦ļà§°":7040,"à¦ļà¦¶à¦®":7041,"à¦ļà¦¬à¦Ł":7042,"à¦£à¦®à¦¨":7043,"à¦£à¦ļà¦°":7044,"à¦ģ-":7045,"à¦ģà¦ģ":7046,"Ġà¦Ĺà¦ľà¦¬":7047,"à¦¡à¦¬à¦ª":7048,"à¦¡à¦²à¦¸":7049,"à¦¥à¦²à¦¨":7050,"Ġà¦¶à¦¤à¦°à¦Ļ":7051,"Ġà¦°à¦ĩà¦¤":7052,"Ġà¦°à¦£à¦¬":7053,"Ġà¦°à¦£à¦¦":7054,"à¦ĵà¦¸":7055,"à¦Ńà¦¸à¦¸":7056,"Ġà¦Ľà¦ĩà¦¯":7057,"Ġà¦ıà¦ķà¦¬à¦°":7058,"à¦łà¦ĩ":7059,"à¦łà¦ł":7060,"à¦łà¦ļà¦ķ":7061,"à¦łà¦²à¦Ĺ":7062,"Ġà¦īà¦¯":7063,"Ġà¦īà¦ŀ":7064,"Ġà¦īà¦®à¦°":7065,"Ġà¦īà¦Ńà§Łà¦ķ":7066,"à¦Ļà¦¡":7067,"à¦¼à¦¾âĢĻ,":7068,"Ġà¦ĵà¦Ļ":7069,"Ġà¦ĵà¦®à¦°":7070,"à§ľà¦¶":7071,"Ġà¦²à¦ĵ":7072,"Ġà¦«à¦°à¦¹":7073,"à¦°à¦¤à¦ĵ":7074,"Ġà¦ĸà¦°à¦¦":7075,"Ġà¦¬à¦²à¦¨":7076,"Ġà¦ħà¦¨à¦¶":7077,"âĢĶà¥¤":7078,"âĢĶâĢĵ":7079,"Ġà¦§à¦¨à¦¬":7080,"Ġà¦ªà¦°à¦ľà¦¨":7081,"à¦¬à¦¨à¦°à¦ķ":7082,"Ġà¦¸à¦®à¦°à¦¸":7083,"Ġà¦¸à¦®à¦ħà¦§":7084,"Ġà¦¹à¦¯à¦°à¦¤":7085,"Ġà¦ĺà¦¸":7086,"Ġà¦ĺà¦°à¦®":7087,"Ġà¦®à¦¨à¦Ĺ":7088,"Ġà¦®à¦¨à¦¹":7089,"âĢĻ)":7090,"à¦¿,âĢĻ":7091,"à¦¼à¦¿âĢĻ":7092,"Ġà¦ıà¦ĩà¦¸":7093,"à¦°à¦¬à¦ª":7094,"à¦°à¦¬à¦°à¦£":7095,"à¦°à¦¬à¦¦à¦¨":7096,"à¦°à¦¬à¦¤à¦®":7097,"à¦¤à¦°à¦¯":7098,"à¦¤à¦°à¦¶":7099,"à¦¤à¦°à¦ľà¦Ĺà¦¤":7100,"à¦īà¦ªà¦¦":7101,"à¦¬à¦°à¦ŀ":7102,"Ġà¦Ĩà¦²à¦¯":7103,"Ġà¦Ĩà¦²à§Ł":7104,"à¦«à¦®":7105,"à¦«à¦«":7106,"à¦«à¦°à¦®":7107,"Ġà¦¸à¦¬à¦®":7108,"à¦Ĩà¦ĺ":7109,"à¦Ĩà¦²à¦¤":7110,"à¦ĺà¦ĵ":7111,"à¦¬à¦²à¦¤à¦®":7112,"Ġà¦ĩà¦¶à¦ķ":7113,"Ġà¦ĩà¦¹à¦ķ":7114,"Ġà¦ĩà¦īà¦ľ":7115,"Ġà¦ĩà¦īà¦¡":7116,"Ġà¦ĩà¦Łà¦¸":7117,"à¦¼à¥¤âĢ¦":7118,"à¦°à¦®à¦¬à¦¶à¦¤":7119,"Ġà¦¬à¦¨à¦¨":7120,"Ġà¦¬à¦¨à¦ª":7121,"Ġà¦¬à¦¨à¦ªà¦¥":7122,"Ġà¦ĵà¦łà¦Ľ":7123,"à¦ħà¦¨à¦¬":7124,"à¦ħà¦ļà¦²":7125,"à¦ħà§°":7126,"à¦ħà¦Ĺà¦£":7127,"à¦ħà¦¹à¦®":7128,"à¦ħà¦§à¦®":7129,"à¦ķà¦²à¦Ĺ":7130,"à¦ķà¦²à¦¬à¦¦":7131,"à¦¬à¦¤à¦¬":7132,"à¦¬à¦¤à¦ļ":7133,"à¦¸à¦¬à¦¹":7134,"à¦ķà¦°à¦²":7135,"à¦ķà¦Łà¦ĩ":7136,"à¦°à¦¸à§İ":7137,"à¦²à¦ķà¦Ĺ":7138,"à¦°à¦¥à¦ª":7139,"à¦¾à¦Ĥ-":7140,"à¦¾à¦ĤâĢĶ":7141,"Ġà¦¬à¦°à¦·":7142,"Ġà¦®à¦¹à¦®":7143,"à¦¯à¦¬à§İ":7144,"Ġà¦¶à¦¬à¦¯":7145,"à§ĭà¥¤âĢĵ":7146,"Ġà¦ľà¦²à¦¦à¦¸":7147,"à¦°à¦¹à¦¹":7148,"Ġà¦ħà¦¦à¦®à¦¨":7149,"Ġà¦ħà¦¤à¦ĩ":7150,"Ġà¦ħà¦¤à¦ĸ":7151,"à¦¿à¦Ĥ)":7152,"à¦°à¦¥à¦®à¦ľ":7153,"Ġà¦ħà¦Ńà¦ķ":7154,"Ġà¦ħà¦Ńà¦¬":7155,"à¦§à¦ķà¦¦":7156,"à¦¨à¦¬à¦¬":7157,"à¦¨à¦¬à¦¶":7158,"à¦¨à¦¬à¦§":7159,"Ġà¦¸à¦°à¦¦":7160,"Ġà¦¸à¦°à¦Ĺà¦°à¦®":7161,"à§ĩ-âĢĺ":7162,"Ġà¦ĺà¦°à¦ľ":7163,"à¦²à¦¨à¦¶":7164,"à¦¯à¦ķà¦Ń":7165,"à¦¹à¦¸à¦ķ":7166,"Ġà¦īà¦ªà¦¢":7167,"à¦¿à¦ĥ!":7168,"à¦¿à¦ĥâĢĶ":7169,"Ġà¦ķà¦²à¦ľ":7170,"Ġà¦¸à¦¹à¦®à¦¤":7171,"à¦®à¦ķà¦¹":7172,"Ġà¦ħà¦ªà¦ĺ":7173,"Ġà¦ħà¦ªà¦¦à¦¸":7174,"à¦¹à¦°à¦²":7175,"à¦¹à¦°à¦ª":7176,"à¦¸à¦¨à¦ļ":7177,"à¦ªà¦¦à¦Ł":7178,"à¦ªà¦¦à¦ĩ":7179,"à¦ªà¦¦à¦¶":7180,"à¦¶à¦¨à¦¸":7181,"à¦¶à¦¨à¦ª":7182,"à¦¦à§Łà¦ª":7183,"à¦¦à§Łà¦Ĺ":7184,"Ġà¦¬à¦¹à¦¨à¦ķ":7185,"à¦ĩà¦²à¦ª":7186,"à¦Ĺà¦¨à¦¸":7187,"à¦ıà¦ĩà¦ĸ":7188,"à¦¼à§ĭâĢĻ":7189,"Ġà¦ªà¦¦à¦ªà¦²":7190,"à¦®à¦£à¦Ń":7191,"à¦Łà¦ķà¦®à§Ł":7192,"Ġà¦ķà¦®à¦ľ":7193,"à¦¯à¦®à¦ĩ":7194,"à¦¯à¦®à¦¹":7195,"à¦¯à¦®à¦ŀ":7196,"à¦¨à¦ķà¦¯":7197,"Ġà¦ıà¦Ĺà¦ľ":7198,"à¦¤à¦®à¦¸":7199,"à§ģ,âĢĿ":7200,"Ġà¦«à¦²à¦Ń":7201,"à¦ıà¦ķà¦«":7202,"Ġà¦ħà¦²à¦®":7203,"à¦ħà¦¨à¦Ļ":7204,"à¦¬à¦ķà¦¨":7205,"à¦§à¦¤à§İà¦¸à¦®":7206,"Ġà¦¸à¦®à§Łà¦¹":7207,"Ġà¦ĩà¦¨à¦¸à¦ª":7208,"Ġà¦Ĩà¦§à¦®à¦°":7209,"Ġ(?)":7210,"Ġà¦īà§İà¦ªà¦²":7211,"à¦¬à¦¬à§İ":7212,"à¦ķà¦¨à¦¸":7213,"à¦¯à¦¦à¦¶":7214,"à¦¨à¦¸à¦¹":7215,"à¦¨à¦¸à¦¹à¦ķ":7216,"Ġà¦¬à§ľà¦°":7217,"à¦ªà¦¸à¦ª":7218,"à¦¨à¦Ĺà¦£":7219,"à¦¸à¦ķà¦¶":7220,"à¥¤âĢĻâĢĻ":7221,"à¦°à¦®à¦£à¦Ń":7222,"à¦°à¦®à¦£à¦¸à¦Ļ":7223,"Ġà¦¬à¦ķà¦ļ":7224,"Ġà¦īà§ľà¦²":7225,"Ġà¦īà§ľà¦¨à¦ļ":7226,"Ġà¦Ĩà¦Ńà¦°à¦£":7227,"à¦ªà¦£à¦¨":7228,"à¦Ĩà¦²à¦¸":7229,"à§ĭâĢĶâĢĻ":7230,"Ġà¦Ĺà¦£à¦Ĩà¦¨":7231,"à¦²à¦Ĺà¦ŀ":7232,"à¦¿âĢĵâĢĵ":7233,"à¦®à¦¶à¦¹à¦°":7234,"à¤ª":7235,"Ġà¦Ĩà§ľà¦·":7236,"Ġà¦ľà§Łà¦®":7237,"Ġà¦¸à¦°à¦²à¦®à¦¤":7238,"à¦ķà¦¸à¦Ł":7239,"à¦¬à¦¹à¦Ń":7240,"à§©à§Ń":7241,"à¦ļà§Łà¦¹":7242,"Ġà¦¨à¦Ĺà¦°à¦ª":7243,"à§ĩâĢ¦à¥¤âĢĿ":7244,"à§ªà§«":7245,"à¦¨à¦ªà¦¤à¦¨":7246,"à¦®à¦ļà¦°à¦£":7247,"Ġà¦Ĩà¦ĩà¦¨à¦Ĺà¦¤":7248,"à¦¿âĢĻ-":7249,"à¦¿âĢĻ;":7250,"à¦¿âĢĻâĢĵ":7251,"reat":7252,"à¦ħà¦¬à¦¸à¦¨":7253,"à¦¬à¦ľà¦¨à¦¬":7254,"à¦¾à¦ĥâĢĶ":7255,"à¦¬à¦°à¦¤à¦ª":7256,"ale":7257,"à§¬à§¨":7258,"à§¬à§Ń":7259,"à¦¶à¦Ĺà¦Ļ":7260,"à¦Īà¦®":7261,"ise":7262,"à¦¤à¦ĸà¦¨à¦ķ":7263,"Ġà¦ıà¦ķà¦¨à¦ľà¦°":7264,"Ġà¦¢à¦²à¦¢à¦²":7265,"Ġà§©à§¨":7266,"Ġà§©à§¬":7267,"Ġà¦²à§ľà¦¬":7268,"Ġsh":7269,"Ġsam":7270,"Ġsome":7271,"arg":7272,"arning":7273,"Ġà¦¨à¦Ĺà¦°à¦ķ":7274,"à§İà¦ªà§°":7275,"Ġbre":7276,"Ġà¦ıà¦¡à¦¸":7277,"Ġà¦Ńà¦°à¦¤à¦ķ":7278,"ĠIs":7279,"Ġà¦ļà¦°à¦£à¦¤à¦²":7280,"à¦¾!âĢĿâĢĶ":7281,"Ġà¦ıà¦ķà¦¶à¦Ń":7282,"à¦ĩà¦«à¦¯":7283,"âĢ¦âĢĿâĢĶ":7284,"oms":7285,"Ġà¦Ĺà¦Ĺà¦¨à¦ļ":7286,"Ġdo":7287,"Ġdy":7288,"ham":7289,"à¦²à¦ĵà¦Ń":7290,"à¦ľà¦¦à¦°à¦¬":7291,"ĠAc":7292,"Ġà¦ĺà¦·à¦Ľ":7293,"Ġà¥¤à¥¤":7294,"Ġà¦¨à¦ĵà¦¶":7295,"Ġà¦ľà¦²à¦ķà¦·":7296,"utta":7297,"à¦¼à¦¿à¦Ĥ-":7298,"Ġà¤Ĩ":7299,"Ġ[âĢĺ":7300,"Ġà§§à§¨à§¯à§§":7301,"à§§à§¯à§¨":7302,"und":7303,"Ġà§§à§©à§¬":7304,"ĠDedic":7305,"eth":7306,"à¦®à¦«à¦²à¦ķ":7307,"Ġà§¦à§©":7308,"Ġà§¦à§¯":7309,"Ġà§§à§¯à§ªà§¦":7310,"Ġà§§à§¯à§ªà§¨":7311,"ident":7312,"igh":7313,"ĠLect":7314,"à¦ħà¦¹à¦Ļ":7315,"rah":7316,"ular":7317,"use":7318,"áĥĲáĥ":7319,"Ġà§§à§¯à§®à§§":7320,"Ġà§§à§¯à§®à§«":7321,"à¦¶à¦§à¦°à¦¦":7322,"Ġwhat":7323,"Ġà¦¸à¦®à¦Ŀà¦¦":7324,"Ġà§§à§¯à§¬à§ª":7325,"Ġà§§à§¯à§¬à§¯":7326,"Ġà¦·à§ľà¦ĭà¦¤":7327,"Ġheart":7328,"Ġwere":7329,"istory":7330,"Ġà§§à§¯à§¨à§§":7331,"à¦ıà¦®à¦ıà¦¸":7332,"Ġà§§à§¯à§©à§®":7333,"ĠâĢĶâĢĶâĢĶâĢĶâĢĶâĢĶâĢĶ":7334,"Ġits":7335,"Ġitself":7336,"à¦°à¦Ĺà¦²à¦Ń":7337,"erson":7338,"ween":7339,"weet":7340,"ighting":7341,"ankar":7342,"Ġà¦¨à¦°à¦ªà¦¶":7343,"Ġà§ªà§¦à§¦à§ª":7344,"eople":7345,"Ġà¦Łà¦ĩà¦Łà¦®":7346,"Ġà¦¨à¦¦à¦¨à¦¦":7347,"Ġbetween":7348,"Ġà¦īà§ľà¦¨à¦ļà¦£":7349,"ĠDedicated":7350,"ĠLectures":7351,")!":7352,"39":7353,"42":7354,"44":7355,"In":7356,"UR":7357,"],":7358,"az":7359,"ack":7360,"aught":7361,"cy":7362,"count":7363,"ex":7364,"eor":7365,"fore":7366,"ga":7367,"get":7368,"pH":7369,"rid":7370,"so":7371,"va":7372,"vol":7373,"xx":7374,"ym":7375,"Ð²":7376,"Ñĥ":7377,"Øª":7378,"Ùĩ":7379,"áĢ":7380,"Ġ1":7381,"ĠX":7382,"Ġ]":7383,"Ġus":7384,"Ġill":7385,"ĠØ§ÙĦ":7386,"à¦¾...âĢĿ":7387,"à¦¾Â·Â·Â·":7388,"à§ĩà§į":7389,"à§ĩà¦¾-":7390,"à§ĩâĢĮ":7391,"à¦°à¦²à¦ķ":7392,"à¦°à¦²à¦¤":7393,"à¦¿à§į":7394,"à¦¿)à¥¤":7395,"à¦¿...âĢĿ":7396,"à¦¨à¦°à¦¦":7397,"à¦¤à¦¬à¦²":7398,"à¦¤à¦®à¦°":7399,"à¦¤à¦«à¦²":7400,"à¦²à¦ªà¦°":7401,"à¦²à¦Łà¦¨":7402,"à¦ķà¦Ļ":7403,"à¦ķà¦®à¦¨":7404,"à¦ķà¦ĵà¦¯":7405,"à¦ķà¦Ĺà¦¤":7406,"à¦ķà¦ļà¦°":7407,"à¦ķà¦ľà¦²":7408,"à¦ķà¦¨à¦Ł":7409,"à¦¬à¦¬à¦¨":7410,"à¦¬à¦®à¦¤":7411,"à¦¬à¦®à¦£":7412,"à¦¬à¦¸à¦°":7413,"à¦¬à¦Ńà¦°":7414,"à¦¬à¦®à¦¸":7415,"à¦¬à¦ĩà¦¤":7416,"à¦¯à¦·":7417,"à¦¯à¦¶à¦¬":7418,"à¦¯à¦Ńà¦¬":7419,"à¦¯à¦ľà¦²":7420,"à¦¯à¦ľà¦¯":7421,"à¦®à¦ħà¦¨":7422,"à¦®à¦¢":7423,"à¦®à¦īà¦¨":7424,"à¦®à¦Ĺà¦¤à¦Ń":7425,"à¦¼âĢĻ-":7426,"à§ĭà¦ĥ,":7427,"Ġà¦ķà¦Ľ":7428,"Ġà¦¬à¦¨à¦¤":7429,"Ġà¦¬à¦ľà¦°":7430,"Ġà¦¸à¦¶à¦Ļ":7431,"Ġà¦¸à§Łà¦²":7432,"Ġà¦¸à¦ªà¦¸à¦ª":7433,"Ġà¦ªà¦¹à¦°":7434,"Ġà¦ªà¦ªà¦ķà¦°":7435,"à¦¸à¦¯à¦¤":7436,"à¦¸à¦¦à¦¦":7437,"Ġà¦Ĩà¦īà¦¨":7438,"Ġà¦Ĩà¦Łà¦¬":7439,"à¦¦à¦¬à¦¨":7440,"à¦¦à¦Ĺà¦²":7441,"à¦¦à¦Ńà¦°":7442,"Ġà¦¨à¦°à¦¬":7443,"Ġà¦¨à¦°à¦¦":7444,"Ġà¦¨à¦°à¦¹à¦°":7445,"Ġà¦®à¦Ĺà¦¨":7446,"Ġà¦®à¦ĵà¦ķ":7447,"à¦Łà§Ł":7448,"à¦Łà¦¸à¦¨":7449,"à¦Łà¦¬à¦¸":7450,"à¦Łà¦®à§Ł":7451,"à¦Łà¦ļà¦ķ":7452,"à§ĢâĢĿâĢĶ":7453,"à¦ªà¦®à¦¨":7454,"à¦ªà¦¢":7455,"à¦ªà¦£à¦¤":7456,"à¦ªà¦Ńà¦°":7457,"à¦ªà¦ľà¦Ļ":7458,"à¦ĩà¦°à¦¨":7459,"à¦ĩà¦²à¦ķ":7460,"à¦ĩà¦ĵà§Ł":7461,"à¦ĩà¦ªà¦Ł":7462,"Ġà¦¦à¦¦à¦°":7463,"Ġà¦¦à¦°à¦Ĺ":7464,"Ġà¦¤à¦ŀ":7465,"Ġà¦¤à¦¦à¦¬":7466,"Ġà¦¤à¦ªà¦¶":7467,"Ġà¦¤à§İà¦¸à¦®":7468,"à¦ľà¦²à¦¤":7469,"à¦ľà¦ĺà¦¨":7470,"à¦ľà¦īà¦¦":7471,"à¦¶à¦¸à¦®":7472,"à¦¶à¦®à¦¶":7473,"Ġà¦¹à¦°à¦¬":7474,"Ġà¦¹à¦¦à¦¯":7475,"Ġà¦ıà¦£":7476,"Ġà¦ıà¦®à¦¬":7477,"Ġà¦ıà¦¨à¦Ĺ":7478,"à§Łà¦®à¦ķ":7479,"Ġà¦ħà¦ĸà¦¨":7480,"Ġà¦ħà¦ĩà¦¬":7481,"à¦ĸà¦®à§Ł":7482,"à¦·à¦·":7483,"à¦·à¦¤à¦¨":7484,"à¦·à¦®à§Ł":7485,"à¦·à¦ªà¦²":7486,"à¦Ĺà¦°à¦¬":7487,"à¦Ĺà¦«":7488,"à¦Ĺà¦®à¦¤":7489,"à¦Ĺà¦¬à¦¦":7490,"à¦Ĺà¦®à¦£":7491,"à¦¼à§ĩà¦¾":7492,"à¦§à¦ªà¦¶":7493,"Ġà¦¯à¦ĸ":7494,"Ġà¦¯à¦®à¦°":7495,"à¦¹à¦¡":7496,"à¦¹à¦ĵà§Ł":7497,"à¦¹à¦ľà¦¨à¦ķà¦Ń":7498,"à¦ļà¦¢":7499,"à¦ļà¦ĺà¦°":7500,"à¦£à¦Ľ":7501,"à¦£à¦ªà¦¨":7502,"à¦£à¦¢":7503,"à¦£à¦ľà¦¯":7504,"à¦£à¦¸à¦¹":7505,"à¦£à¦ªà¦¦à¦ķ":7506,"Ġà¦ķà¦°à¦ª":7507,"Ġà¦ķà¦°à¦®à¦°":7508,"Ġà¦Ĺà¦¥":7509,"Ġà¦Ĺà§İ":7510,"Ġà¦Ĺà¦ľà¦¸":7511,"à¦¡à¦¸à¦®":7512,"à¦¥à¦°à¦¬":7513,"à¦¥à¦ľà¦¨":7514,"à¦¥à¦®à§Ł":7515,"Ġà¦¶à¦¶à¦ķ":7516,"Ġà¦¶à¦¤à¦°à¦ŀ":7517,"Ġà¦ľà¦ł":7518,"Ġà¦Ńà¦£à¦ĩ":7519,"Ġà¦ļà¦ķà¦°":7520,"Ġà¦ļà¦°à¦¨":7521,"Ġà¦ļà¦®à¦¤":7522,"Ġà¦ļà¦ĩà¦²":7523,"Ġà¦°à¦ĵà§Ł":7524,"Ġà¦°à¦Ĺà¦°":7525,"Ġà¦°à¦ľà¦¬":7526,"Ġà¦°à¦ľà¦ķ":7527,"Ġà¦°à¦Ĺà¦¡":7528,"Ġà¦°à¦²à¦°":7529,"à¦ĵà¦²à¦ľ":7530,"à¦Ńà¦¡":7531,"à¦Ńà¦²à¦Ĺ":7532,"à¦Ńà¦ľà¦¨à¦ķ":7533,"à¦Ńà¦£à¦ĩ":7534,"Ġà¦ıà¦ķà¦ķà¦Ń":7535,"Ġà¦ıà¦ķà¦¶à¦Ł":7536,"Ġà¦īà¦¶à¦ķ":7537,"à¦¼à¦¾?âĢĿ":7538,"Ġà¦ĵà¦¥":7539,"Ġà¦ĵà¦®à¦¨":7540,"Ġà¦ĵà¦¸à¦®":7541,"à§ľà¦¬à§ľ":7542,"à¦°à¦¤à¦¸":7543,"Ġà¦Ĩà¦°à¦¨":7544,"Ġà¦Ĩà¦°à¦¨à¦²":7545,"Ġà¦ĸà¦¬":7546,"Ġà¦ĸà¦Ļ":7547,"Ġà¦ĸà¦ĩà§Ł":7548,"Ġà¦ĸà§İà¦¨":7549,"Ġà¦ªà¦°à¦ľ":7550,"Ġà¦ªà¦°à¦®à¦¹":7551,"à¦¬à¦¨à¦²":7552,"Ġà¦¸à¦®à¦°à¦ķ":7553,"Ġà¦¸à¦®à¦ªà¦¦":7554,"Ġà¦¸à¦®à¦®à¦°":7555,"ĠâĢĮ":7556,"Ġà¦®à¦¨à¦®à¦¤":7557,"âĢĻ!âĢĿ":7558,"à¦®à¦¨à¦¤à¦°":7559,"à¦¼à¦¿âĢ¦":7560,"à¦¼à¦¿à¥¤âĢĻ":7561,"à¦ŀà¦¬":7562,"à¦ŀà¦ķà¦°":7563,"à§İà¦®":7564,"à§İà¦ļ":7565,"à¦°à¦¬à¦¶":7566,"à¦¤à¦°à¦°":7567,"à¦Ŀà¦Ļ":7568,"à¦Ŀà¦¨à¦¦":7569,"à¦Ŀà¦Ĺà¦¡":7570,"à¦ľà¦¨à¦¯":7571,"à¦ľà¦¨à¦¸":7572,"à¦īà¦°à¦¨":7573,"à¦īà¦ĩà¦¨":7574,"à¦īà¦ªà¦¶":7575,"à¦īà¦ªà¦¹":7576,"à¦īà§İà¦°":7577,"à¦īà§İà¦ķà¦£":7578,"à¦¬à¦°à¦¸à¦Ń":7579,"à¦ıà¦¹":7580,"Ġà¦Ĩà¦¸à¦Ļ":7581,"Ġà¦Ĩà¦¸à¦¨à¦Ł":7582,"à¦Ĩà¦®à¦¨":7583,"à¦Ĩà¦ĩà¦²":7584,"à¦Ĩà¦¹à¦¤":7585,"à¦ĺà¦¯":7586,"à¦ĺà¦ªà¦¥":7587,"Ġà¦¡à¦Ļ":7588,"Ġà¦¡à¦®à¦°":7589,"à§Ī,":7590,"Ġà¦Ĩà¦Ľà¦¨":7591,"Ġà¦Łà§Ł":7592,"Ġà¦Łà¦¸à¦Ł":7593,"Ġà¦ľà¦¨à¦°":7594,"Ġà¦ľà¦¨à¦¬":7595,"Ġà¦ľà¦¨à¦ĩ":7596,"Ġà¦ľà¦¨à¦ļ":7597,"Ġà¦ıà¦¬à¦®":7598,"à¦¬à¦ªà¦Ł":7599,"à¦¬à¦²à¦Ĺ":7600,"à¦¬à¦²à¦ļ":7601,"Ġà¦¹à¦²à¦ĵ":7602,"Ġà¦ĩà¦«":7603,"Ġà¦ĩà¦¸à¦®":7604,"à§ģà¦ģ-":7605,"à§ģà¦ģâĢĻ":7606,"Ġà¦¹à§Łà¦°":7607,"à¦·à¦£à¦¬":7608,"à¦·à¦£à¦ª":7609,"à¦·à¦£à¦ªà¦¦":7610,"à¦°à¦®à¦ĵ":7611,"à§ĭà¦ģâĢ¦)":7612,"Ġà¦¬à¦¨à¦Ĺ":7613,"Ġà¦łà¦ķà¦¬":7614,"à¦ħà¦ªà¦¤":7615,"à¦ħà¦ĸà¦£":7616,"à¦ħà¦¨à¦¬à¦¦":7617,"à¦¤à¦¨à¦®":7618,"à¦¤à¦¨à¦Ĺ":7619,"Ġà¦ħà¦®à¦²à¦ķ":7620,"Ġà¦ħà¦¸à¦®à¦°":7621,"à¦ķà¦²à¦¬":7622,"à¦ķà¦²à¦ĩ":7623,"Ġà¦Ĩà¦Ĺà¦®":7624,"à¦¤à¦¬à¦ĩ":7625,"Ġà¦Ĩà¦¶à¦¯":7626,"Ġà¦Ĩà¦¶à¦°à¦«":7627,"Ġà¦Ĺà¦²à¦¬":7628,"Ġà¦Ĩà¦¨à¦²à¦ķ":7629,"à¦ķà¦°à¦°":7630,"Ġà¦īà¦¦à¦¬":7631,"à¦ķà¦Łà¦ĵ":7632,"à¦ķà¦Łà¦¤à¦®":7633,"à¦ķà¦Łà¦®à§Ł":7634,"à¦°à¦¸à¦°à¦®":7635,"Ġà¦ıà¦ĸà¦¨à¦¤":7636,"à§ĩ?)":7637,"à§ĩ?âĢ¦":7638,"Ġà¦®à¦¹à¦¸":7639,"à¦¯à¦¬à§°":7640,"à¦¯à¦¬à¦ĩà¦¯":7641,"à¦¦à¦°à¦²":7642,"à¦¦à¦°à¦Ń":7643,"Ġà¦ľà¦²à¦ķà¦²":7644,"Ġà¦ľà¦²à¦ļà¦ķ":7645,"à¦Ĺà¦¤à¦ĩ":7646,"à¦°à¦¹à¦¬":7647,"à¦°à¦¹à¦°à¦¤":7648,"Ġà¦ħà¦¦à¦²à¦¬":7649,"Ġà¦ħà¦¤à¦Ĺ":7650,"Ġà¦°à¦ķà¦¬":7651,"à¦¨à¦ĵà¦¨":7652,"à¦¨à¦ĵà¦ª":7653,"Ġà¦¸à¦¨à¦¦à¦ªà¦¤":7654,"à¦¨à¦¬à¦ľà¦Ĺà¦¤":7655,"Ġà¦Ĩà¦ªà¦¨à¦ľà¦¨à¦¦":7656,"à¦§à¦¨à¦°":7657,"à¦§à¦¨à¦Ńà¦Ļ":7658,"à¦¯à¦¤à¦¤":7659,"à¦²à¦¨à¦¹":7660,"Ġà¦ıà¦²à¦Ń":7661,"Ġà¦ıà¦²à¦ĩà¦¡":7662,"à¦Ĺà¦²à¦®":7663,"à¦°à¦¶à¦¤":7664,"à¦²à¦¬à¦¶":7665,"à¦²à¦¬à¦°à¦£":7666,"à¦²à¦¬à¦¦à¦¨":7667,"Ġà¦¸à¦¹à¦¬à¦¤":7668,"Ġà¦ħà¦ªà¦°à¦£":7669,"à¦¸à¦¨à¦ªà¦¤":7670,"à¦°à¦ľà¦¤":7671,"à¦°à¦ľà¦®":7672,"à¦¶à¦¨à¦®":7673,"Ġà¦ħà¦ķà¦£":7674,"Ġà¦Ńà¦°à¦Ĺ":7675,"à¦°à¦²à¦Ļ":7676,"Ġà§·":7677,"Ġà§¯à§¦":7678,"à¦¦à§Łà¦ĸ":7679,"à¦¦à§Łà¦ĵ":7680,"à¦ĩà¦²à¦ĸ":7681,"Ġà¦°à¦Ļà¦Ĺ":7682,"à¦Ĺà¦¨à¦°à¦ķ":7683,"à§İà¦¸à¦ķà¦°":7684,"à¦·à¦¤à¦¸":7685,"à¦·à¦¤à¦Ł":7686,"à¦ĩà¦¨à¦®":7687,"à¦¼à§ĭ?":7688,"à¦¼à§ĭâĢĶ":7689,"Ġà¦¤à¦°à¦²à¦¤":7690,"à¦¬à¦¦à¦¤":7691,"à¦¬à¦¦à¦®à¦¨":7692,"à¦¹à¦²à¦¹":7693,"à¦®à¦£à¦ĩ":7694,"à¦®à¦£à¦ĵ":7695,"à¦Ĺà¦°à¦ĵ":7696,"à¦ªà¦¥à¦Ł":7697,"Ġà¦¯à¦¤à¦¸à¦¬":7698,"à¦¯à¦®à¦ª":7699,"à¦¤à¦ķà¦¦":7700,"à¦¨à¦ķà¦ķ":7701,"à¦¸à¦°à¦²à¦¤":7702,"à¦¤à¦¤à¦¤":7703,"Ġà¦¬à¦ĩà¦¸":7704,"Ġà¦Ĳà¦Ł":7705,"Ġà¦Ĳà¦¹":7706,"à¦¬à¦¸à¦Ļ":7707,"Ġà¦«à¦²à¦¬à¦¤":7708,"à¦ıà¦ķà¦¨":7709,"à¦ıà¦ķà¦¯":7710,"à¦ıà¦ķà¦ª":7711,"à¦ıà¦ķà¦Ĺ":7712,"à¦ıà¦ķà¦ªà¦°":7713,"à¦ıà¦ķà¦¦à¦²":7714,"à¦ıà¦ķà¦°à¦ķà¦®":7715,"à¦ıà¦ķà¦ľà¦¨à¦ķ":7716,"à¦°à¦ªà¦¤à¦¨":7717,"à§ĩ;âĢĶ":7718,"à¦¶à¦ķà¦ķ":7719,"à¦¬à¦ķà¦ª":7720,"à¦ļà¦ķà¦¡":7721,"Ġà¦ıà¦ķà¦¦à¦£":7722,"à§ĩ!)":7723,"Ġà¦²à¦ķà¦¡":7724,"Ġà¦¶à¦¤à¦Ń":7725,"Ġà¦ĩà¦¨à¦¡":7726,"Ġà¦Ĩà¦§à¦²":7727,"Ġà¦Ĩà¦§à¦ªà§ľ":7728,"Ġà¦Ĩà¦§à¦ĺà¦¨":7729,"Ġà¦Ńà¦¬à¦Ń":7730,"à¦¬à¦¬à¦¶":7731,"à§¦à§¬":7732,"à¦ķà¦¨à¦«":7733,"à¦¾!âĢĶ":7734,"à¦¨à¦¸à¦ķ":7735,"Ġà¦¬à§ľà¦¶":7736,"Ġà¦¬à§ľà¦¸à§ľ":7737,"à¦ªà¦¸à¦¹":7738,"à¦°à¦ľà¦¨à¦ķ":7739,"à¦«à¦²à¦ĩ":7740,"Ġà¦ļà¦ķà¦ĸà§ľ":7741,"à¦¼à§ĢâĢĶ":7742,"Ġà¦¸à¦¹à¦ľà¦¬":7743,"à¦°à¦Ĺà¦ŀ":7744,"à¦¬à¦¶à¦¸":7745,"à¦°à¦®à¦£à¦Ł":7746,"Ġà¦¦à¦°à¦¦à¦°":7747,"Ġà¦ªà¦²à¦¸":7748,"à¦ĩà¦Łà¦¸":7749,"à¦ĩà¦Łà¦Ł":7750,"à§Ŀà¦ļ":7751,"à¦¦à¦®à¦Ĺ":7752,"à¦ªà¦£à¦ĵ":7753,"?âĢĻ-":7754,"?âĢĻâĢĶ":7755,"Ġà¦Ĺà¦£à¦²":7756,"Ġà¦¦à¦¶à¦Ĺ":7757,"Ġà¦¦à¦¶à¦¤à¦²":7758,"Ġà¦ķà¦²à¦ķà¦¬":7759,"à¦¶à¦²à¦Ĺà¦¤":7760,"à¦ķà¦¶à¦¤":7761,"à¦·à§Łà¦°":7762,"à¦°à¦°à¦ŀ":7763,"Ġtwo":7764,"Ġà¦®à¦²à§Ł":7765,"à¤·":7766,"à¦¥à¦²à¦ªà¦¦":7767,"à¦£à¦¨à¦Ĺà¦°":7768,"Ġà¦ľà¦¬à¦ľà¦¬":7769,"Ġà¦ľà§Łà¦¬":7770,"Ġà¦ľà§Łà¦ľà§Łà¦ķ":7771,"Ġà¦ħà¦Łà¦²à¦¤":7772,"à§©à§¯":7773,"anc":7774,"Ġà¦¹à¦ĩà¦ĵ":7775,"à§«à§§":7776,"à§ĩâĢ¦âĢ¦":7777,"Ġà¦¸à§İà¦ķà¦°":7778,"à§ªà§¦":7779,"Ġà¦Ĺà¦°à¦®à¦ķ":7780,"Ġà¦¶à¦ªà¦¥à¦¬":7781,"Ġà¦Ĩà¦ļà¦°à¦£à¦ĩ":7782,"Ġà¦·à¦£":7783,"à¦¬à¦ľà¦¨à¦¹":7784,"à§ĩâĢĻâĢĵ":7785,"Ġà¦¬à¦īà¦¬":7786,"ating":7787,"Ġà¦Ŀà§ľà¦Ŀ":7788,"à¦Īà¦¯":7789,"Ġ..":7790,"isions":7791,"à¦¯à¦Ĺà¦łà¦¨":7792,"ens":7793,"ends":7794,"Ġà¦Ķà¦·":7795,"à¦¼!âĢĻ":7796,"à¦¾âĢĿ-":7797,"Ġag":7798,"Ġwould":7799,"Ġwhere":7800,"Ġsing":7801,"Ġsun":7802,"Ġsub":7803,"Ġsuch":7804,"ital":7805,"ars":7806,"Ġà¦ıà¦°à¦ªà¦°à¦ĩ":7807,"à§¨à§¦à§¦à§§":7808,"à¦¸à¦ķà¦²à¦ķ":7809,"Ġmount":7810,"Ġà¦ħà¦¬à¦¨à¦®à¦¨":7811,"Ġch":7812,"Ġcall":7813,"à¦¦à¦ªà¦¤à¦¨":7814,"Ġà¦Ńà¦°à¦¤à¦®":7815,"Ġà¦Ĺà¦łà¦¨à¦®":7816,"Ġfl":7817,"à¦īà¦¬à¦ĵà§Ł":7818,"Ġà¦¬à¦°à¦«à¦ª":7819,"à¦ĩà¦«à¦°à¦®":7820,"omen":7821,"Ġà¦®à¦°à¦£à¦ķ":7822,"ĠSe":7823,"ĠSt":7824,"à¦¤à¦ļà¦°à¦¬":7825,"à¦£à¦ļà¦ŀ":7826,"Ġpr":7827,"Ġpeople":7828,"Ġà¦ĸà¦¨à¦ĸà¦¨":7829,"à¦ħà¦ªà¦°à¦¦":7830,"ĠPh":7831,"ĠPart":7832,"Ġà¦¨à¦ĵà¦Ĺ":7833,"Ġà§§à§¯à§«à§¦":7834,"Ġà§§à§¯à§«à§§":7835,"Ġà§§à§®à§«à§Ń":7836,"Ġà§§à§®à§¬à§¦":7837,"ĠCult":7838,"Ġthr":7839,"Ġthird":7840,"Ġà¤®":7841,"Ġà¤ī":7842,"Ġà¤Ĺ":7843,"Ġà¤ľ":7844,"à¦Ĩà¦ĩà¦ĵà¦Ł":7845,"à¦īà¦łà¦¬":7846,"Ġeach":7847,"ĠâĢ¦âĢĿ":7848,"ĠRam":7849,"ung":7850,"unt":7851,"Ġà§¦à§®":7852,"ower":7853,"Ġhand":7854,"ĠMan":7855,"ĠMar":7856,"ĠLal":7857,"ĠLet":7858,"ĠLangu":7859,"à¦°à¦Ŀà¦²à¦¸":7860,"ull":7861,"ĠHere":7862,"Ġhas":7863,"ĠNighting":7864,"ays":7865,"áĥĺ":7866,"à¦Ĭà¦·":7867,"à¦Ńà§İà¦¸à¦¤":7868,"osa":7869,"osop":7870,"Ġà¦Ĩà¦ľà¦¨à¦¬":7871,"agore":7872,"ĠWe":7873,"ĠWhere":7874,"Ġà¦·à§ľà¦ľ":7875,"ods":7876,"Ġher":7877,"opt":7878,"Ġwear":7879,"abu":7880,"aby":7881,"à¦ıà¦¨à¦ı":7882,"umar":7883,"Ġwithout":7884,"Ġà¦ªà¦łà¦¨à¦ª":7885,"resent":7886,"Ġà§§à§¯à§©à§©":7887,"lace":7888,"Ġorig":7889,"Ġcons":7890,"Ġà¦Ĭà¦¨à¦¸à¦¤":7891,"ĠIndo":7892,"ĠIndia":7893,"Ġroot":7894,"Ġrock":7895,"ĠâĢĶâĢĶâĢĶâĢĵ":7896,"Ġà§§à§¯à§¦à§Ń":7897,"estion":7898,"ains":7899,"Ġà¦«à¦¸à¦«à¦¸":7900,"Ġamong":7901,"Ð°Ð":7902,"Ġsoft":7903,"éŁ¿éŁ¿éŁ¿éŁ¿éŁ¿éŁ¿éŁ¿éŁ¿éŁ¿éŁ¿éŁ¿éŁ¿éŁ¿éŁ¿éŁ¿éŁ¿éŁ¿éŁ¿éŁ¿éŁ¿éŁ¿éŁ¿éŁ¿éŁ¿éŁ¿éŁ¿éŁ¿éŁ¿éŁ¿éŁ¿éŁ¿éŁ¿éŁ¿éŁ¿éŁ¿éŁ¿éŁ¿éŁ¿éŁ¿éŁ¿éŁ¿éŁ¿éŁ¿éŁ¿éŁ¿éŁ¿éŁ¿éŁ¿éŁ¿éŁ¿éŁ¿éŁ¿éŁ¿éŁ¿éŁ¿éŁ¿éŁ¿éŁ¿éŁ¿éŁ¿éŁ¿éŁ¿éŁ¿éŁ¿":7904,"à§įà§įà§įà§į":7905,"Ġà§©à§©à§«":7906,"hilosop":7907,"ney":7908,"afi":7909,"ĠBeauty":7910,"æŃĵæŃĵæŃĵæŃĵæŃĵæŃĵæŃĵæŃĵæŃĵæŃĵæŃĵæŃĵæŃĵæŃĵæŃĵæŃĵæŃĵæŃĵæŃĵæŃĵæŃĵæŃĵæŃĵæŃĵæŃĵæŃĵæŃĵæŃĵæŃĵæŃĵæŃĵæŃĵ":7911,"Ġà¦®à¦ļà¦®à¦ļ":7912,"port":7913,"Ġwalks":7914,"sych":7915,"Ġfamil":7916,"ĠMemor":7917,"uggestion":7918,"à¦ħà¦¨à¦¬à¦°à¦¤":7919,"Ġsamosa":7920,"eorge":7921,"Ġà¦°à¦Ĺà¦°à¦Ĺ":7922,"Ġà¦Łà¦¸à¦Łà¦¸":7923,"Ġà¦ħà¦¦à¦²à¦¬à¦¦à¦²":7924,"ĠNightingale":7925,",\"":7926,",à¥¤":7927,"-âĢľ":7928,"/âĢĻ":7929,"41":7930,":-":7931,";âĢĵ":7932,"?-":7933,"?âĢĵ":7934,"AR":7935,"CT":7936,"DE":7937,"EN":7938,"II":7939,"IO":7940,"Io":7941,"MS":7942,"My":7943,"Sp":7944,"ai":7945,"ait":7946,"ace":7947,"ber":7948,"col":7949,"ew":7950,"han":7951,"hing":7952,"ls":7953,"land":7954,"not":7955,"ock":7956,"pr":7957,"ped":7958,"ran":7959,"ram":7960,"sa":7961,"sh":7962,"ts":7963,"ty":7964,"uce":7965,"vi":7966,"ves":7967,"vas":7968,"wise":7969,"Â¤":7970,"Â°":7971,"Ïģ":7972,"Ñĭ":7973,"Ø¨":7974,"Ø³":7975,"ÙĤ":7976,"ê°":7977,"Ġx":7978,"ĠÏ":7979,"ĠÕ":7980,"Ġà§İà¦ķ":7981,"Ġà§İà¦ªà¦°":7982,"Ġour":7983,"Ġend":7984,"Ġident":7985,"Ġà¦ŀ":7986,"à¦¾à§į":7987,"à¦¾...":7988,"à¦¾à§įà¦ģ":7989,"à§įà¥¤âĢĻ":7990,"à¦¨à¦°à¦¸":7991,"à¦¨à¦²à¦ķ":7992,"à¦¨à¦®à¦ķ":7993,"à¦¨à¦ĩà¦¨":7994,"à¦¨à¦¸à¦Ļ":7995,"à¦¨à¦ĸà¦°":7996,"à¦¨à¦®à¦ľ":7997,"à¦¨à¦īà¦¦":7998,"à¦¨à¦ķà¦¤à¦ķ":7999,"à¦¤à¦ł":8000,"à¦¤à¦¤à¦¨":8001,"à¦¤à¦ļà¦¨":8002,"à¦¤à§İà¦ķ":8003,"à¦¤à¦§à¦°":8004,"à¦¤à¦¸à¦¹":8005,"à¦²à¦Ĺà¦¤":8006,"à¦²à¦¦à¦²":8007,"à¦²à¦«à¦²":8008,"à¦²à¦°à¦¤à¦¨":8009,"à¦ķà¦ªà¦¨":8010,"à¦ķà¦°à¦®":8011,"à¦ķà¦¦à¦°":8012,"à¦ķà¦ķà¦¬":8013,"à¦ķà¦®à¦°":8014,"à¦ķà¦®à¦£":8015,"à¦ķà¦¨à¦ķ":8016,"à¦ķà¦¶à¦ķ":8017,"à¦ķà¦¸à¦ª":8018,"à¦ķà¦¸à¦¬à¦ľ":8019,"à§ģâĢĮ":8020,"à§ģ),":8021,"à¦¬à¦§à¦¨":8022,"à¦¬à¦¬à¦¸":8023,"à¦¬à¦ľà¦°":8024,"à¦¯à¦¦à¦°":8025,"à¦¯à¦§à¦¨":8026,"à¦¯à¦¹à¦¸":8027,"à¦¯à¦¦à§Ł":8028,"à¦¯à¦«à¦²":8029,"à¦¯à¦Ĺà¦£":8030,"à¦¯à§Łà¦ķ":8031,"à¦®à¦°à¦¨":8032,"à¦®à¦°à¦¹":8033,"à¦®à§°":8034,"à¦®à¦®à¦Ĺ":8035,"à¦®à¦łà¦¤":8036,"à¦¼à¦¾à¦ģ":8037,"à¦¼âĢĿ-":8038,"à¦¼âĢĿâĢĵ":8039,"à§ĭ)":8040,"à§ĭâĢĿâĢĶ":8041,"Ġà¦ķà¦ķà¦Ł":8042,"Ġà¦ķà¦·à¦¤":8043,"Ġà¦¬à¦°à¦¬à¦°":8044,"Ġà¦¬à¦¦à¦¹":8045,"Ġà¦¬abu":8046,"Ġà¦¸à¦§":8047,"Ġà¦¸à¦°à¦¹":8048,"Ġà¦¸à¦ªà¦¥":8049,"Ġà¦¸à¦¶à¦ķ":8050,"Ġà¦¸à¦ĩà¦¯":8051,"Ġà¦¸à¦§à¦¬":8052,"Ġà¦¸à¦¦à¦®":8053,"Ġà¦¸à¦ĺà¦¨":8054,"Ġà¦¸à¦Īà¦¦":8055,"Ġà¦¸à¦¦à§Łà¦¤":8056,"Ġà¦¸à§İà¦¸à¦Ļ":8057,"Ġà¦ªà¦ĩ":8058,"Ġà¦ªà¦Ĺ":8059,"Ġà¦ªà¦ļà¦¤":8060,"à¦¸à¦§":8061,"à¦¸à¦¦à¦¨":8062,"à¦¸à¦ļà¦²":8063,"à¦¸à¦¨à¦¤à¦¨":8064,"Ġà¦Ĩà¦Łà¦²":8065,"Ġà¦Ĩà§°":8066,"Ġà¦Ĩà¦ļà¦ķ":8067,"Ġà¦Ĩà¦ĩà§Ł":8068,"à¦¦à¦°à¦¸":8069,"à¦¦à¦ªà¦¦":8070,"à¦¦à¦ªà¦¥":8071,"à¦¦à¦¬à¦ķ":8072,"à¦¦à¦ľà¦Ĺà§İ":8073,"Ġà¦¨à¦¬à¦²":8074,"Ġà¦¨à¦Łà¦°":8075,"Ġà¦¨à¦²à¦Ĺ":8076,"Ġà¦¨à¦ĵà¦°":8077,"Ġà¦¨à¦°à¦¹à¦¤":8078,"Ġà¦¨esc":8079,"Ġà¦®à¦°à¦ľ":8080,"Ġà¦®à¦¶à¦ķ":8081,"à¦Łà¦Ŀ":8082,"à¦Łà¦ķà¦²":8083,"à¦Łà¦®à¦°":8084,"à¦Łà¦¬à¦ķ":8085,"à¦Łà¦Ĺà¦£":8086,"à¦Łà¦®à¦¡":8087,"à§ĢâĢ¦âĢĿ":8088,"à¦ªà§İ":8089,"à¦ªà¦¦à¦¯":8090,"à¦ªà¦¶à¦ķ":8091,"à¦ªankar":8092,"à¦ĩà¦£":8093,"à¦ĩà¦ķà¦²":8094,"à¦ĩà¦²à¦¨":8095,"à¦ĩà¦®à¦°":8096,"à¦ĩà¦«à¦²":8097,"à¦ĩà¦ľà¦¯":8098,"à¦ĩà¦¸à¦®à¦¯":8099,"à¦ĩà¦¡à¦¬":8100,"Ġà¦¦à¦ľ":8101,"Ġà¦¦à¦¹à¦²":8102,"Ġà¦¤à¦¹":8103,"Ġà¦¤à¦ļ":8104,"Ġà¦¤à¦Łà¦Ń":8105,"Ġà¦¤à§İà¦¸à¦¤":8106,"à¦ľà¦¬à¦²":8107,"à¦ľà¦®à¦°":8108,"à¦ľà¦Ĺà¦£":8109,"à¦ľà¦Ńà¦ķ":8110,"à¦Ľà¦ķà¦Ł":8111,"à¦Ľà¦²à¦Ľ":8112,"à¦¶à¦¸à¦¹":8113,"Ġà¦¹à¦°à¦ķ":8114,"Ġà¦¹à§ľà¦ķ":8115,"Ġà¦¹à¦«à¦®":8116,"Ġà¦ıà¦ªà¦°":8117,"à§Łà¦ľ":8118,"à§Łà¦¬à¦°":8119,"à§Łà¦®à¦Ĺ":8120,"Ġà¦ħà¦°à¦®":8121,"Ġà¦ħà¦Ĺà¦¨":8122,"à¦ĸà¦Ŀ":8123,"à¦Ĺà¦¤à¦¬":8124,"à¦Ĺà¦°à¦¸":8125,"à¦Ĺà¦¢":8126,"à¦Ĺà¦ķà¦¨":8127,"à¦§à¦¬à¦°":8128,"à¦§à¦°à¦¥":8129,"à¦§à¦¶à¦ķ":8130,"à¦§à¦¸à¦¤":8131,"Ġà¦¯à¦ļ":8132,"Ġà¦¯à§İà¦ªà¦°":8133,"à¦¹à¦°à¦¸":8134,"à¦¹à¦®à¦¶":8135,"à¦ļà¦¤à¦¨":8136,"à¦ļà¦°à¦¨":8137,"à¦ļà¦Ĺà¦¤":8138,"à¦ļà¦°à¦¦":8139,"à¦ļà¦ªà¦²":8140,"à¦£à¦ķà¦²":8141,"à¦£à¦²à¦¤":8142,"à¦£à¦ļà¦¨":8143,"à¦£à¦ªà¦¤":8144,"à¦£à¦¬à¦¦":8145,"à¦ģâĢĻ":8146,"Ġà¦Ĺà¦Ľ":8147,"Ġà¦Ĺà¦®à¦ķ":8148,"Ġà¦Ĺà¦Łà¦Ĺ":8149,"Ġà¦Ĺà§Łà¦²":8150,"à¦¡à¦£":8151,"à¦¡à¦¬à¦¬":8152,"à¦¡à¦Ńà¦¨":8153,"à¦¥à¦ľ":8154,"à¦¥à¦Ľ":8155,"à¦¥à¦ķà¦°":8156,"à¦¥à¦¦à¦°":8157,"à¦¥à¦¸à¦¨":8158,"à¦¥à¦°à¦ĵ":8159,"à¦¥à¦°à¦¹à¦°":8160,"à¦¥à¦Łà¦¬":8161,"à¦¥à¦²à¦Ĺ":8162,"Ġà¦¶à§Ł":8163,"Ġà¦¶à¦·":8164,"Ġà¦¶à¦¬à¦°":8165,"Ġà¦¶à¦¤à¦®":8166,"Ġà¦ľà¦¦":8167,"Ġà¦ľà¦®à¦¨":8168,"Ġà¦Ńà¦ľà¦®":8169,"Ġà¦Ńà§İà¦°":8170,"Ġà¦ļà¦°à¦Ľ":8171,"Ġà¦ļà§ľà¦ķ":8172,"Ġà¦°à¦²":8173,"Ġà¦°à¦¸à¦ķà¦·":8174,"à¦ĵà¦°à¦ķà¦®":8175,"à¦Ńà¦¹":8176,"à¦Ńà¦ļ":8177,"à¦Ńà¦ķà¦°":8178,"à§ĩà¥¤[":8179,"Ġà¦Ĩà¦®à¦¤à¦²":8180,"Ġà¦ıà¦ķà¦¤à¦°":8181,"Ġà¦ıà¦ķà¦ļà¦²":8182,"Ġà¦ıà¦ķà¦ıà¦ķà¦Ł":8183,"à¦Ĥ;":8184,"à¦ĤâĢĻ":8185,"à¦łà¦¤à¦°":8186,"à¦łà¦¨à¦ķ":8187,"à¦łà¦¨à¦Ł":8188,"à¦łà¦ĸà¦£":8189,"Ġà¦īà¦ĩà§Ł":8190,"Ġà¦īà¦Ľà¦²":8191,"Ġà¦īà¦¸à¦ĸ":8192,"à¦Ļà¦°à¦¹":8193,"à¦¾à¦ģà¥¤âĢĿ":8194,"à¦¼à¦¾?âĢĻ":8195,"à¦¼à¦¾à¦ĥà¥¤":8196,"à¦¼à¦¾âĢĻà¥¤":8197,"Ġà¦ĵà¦ľà¦°":8198,"à§ľà¦¦":8199,"à§ľà¦ľ":8200,"à§ľà¦«":8201,"à§ľà¦ĺà¦°":8202,"Ġà¦²à¦ķà¦Ł":8203,"Ġà¦²à¦ĩà§Ł":8204,"Ġà¦«à¦ľ":8205,"à¦°à¦¤à¦ª":8206,"à¦°à¦¤à¦ªà¦ķ":8207,"Ġà¦Ĩà¦°à¦ªà¦¨":8208,"Ġà¦¬à¦²à¦¦à¦°":8209,"Ġà¦§à¦¨à¦¦":8210,"Ġà¦§à¦¨à¦²":8211,"Ġà¦ªà¦°à¦£":8212,"Ġà¦ªà¦°à¦®à¦¬":8213,"à¦¾à¥¤âĢĶ":8214,"à¦¾à¥¤âĢĵ":8215,"à¦¾à¥¤..":8216,"à¦¬à¦¨à¦¨":8217,"à¦¬à¦¨à¦®à¦¯":8218,"Ġà¦¸à¦®à¦²":8219,"Ġà¦ĺà¦·à¦¬":8220,"Ġà¦®à¦¨à¦¶":8221,"Ġà¦®à¦¨à¦Ĺà§ľ":8222,"à¦°à¦£à¦¦":8223,"à¦°à¦£à¦¶":8224,"à¦°à¦£à¦ľà¦¨":8225,"à¦°à¦£à¦¬à¦¬":8226,"âĢĻ:":8227,"âĢĻâĢĶâĢĺ":8228,"âĢĻ/âĢĻ":8229,"à¦®à¦¨à¦®":8230,"à¦ªà¦°à¦²":8231,"à¦ªà¦°à¦¯":8232,"à¦ªà¦°à¦¬à¦¶":8233,"à¦¼à¦¿à¦Ĥ,":8234,"à§İà¦¦":8235,"à§İà¦«":8236,"à§İà¦ªà¦Ł":8237,"à§İà¦Ĩà¦¤":8238,"à¦°à¦¬à¦ĩ":8239,"à¦¤à¦°à¦ķà¦£":8240,"à¦ľà¦¨à¦®à¦¤":8241,"à¦ľà¦¨à¦ªà¦¦":8242,"à¦¿à¥¤\"":8243,"à¦¿à¥¤[":8244,"à¦¿à¥¤âĢĺ":8245,"à¦īà¦Ŀ":8246,"à¦īà¦°à¦ķ":8247,"à¦īà¦¤à¦²":8248,"à¦īà¦¨à¦Ł":8249,"à¦īà¦²à¦Ĺ":8250,"à¦īà¦łà¦¤":8251,"à¦¬à¦°à¦Ļ":8252,"à¦¬à¦°à¦®à§Ł":8253,"Ġà¦Ĩà¦²à¦®à¦¦":8254,"à¦ªà¦¨à¦¸":8255,"à¦ªà¦¨à¦ĵ":8256,"à¦ªà¦¨à¦¸à¦°":8257,"à¦«à¦°à¦ķ":8258,"à¦«à¦Ŀà¦®":8259,"à¦ıà¦«à¦¸":8260,"à§ĮâĢĵ":8261,"Ġà¦Ĩà¦¸à¦¹":8262,"à¦Ĩà¦°à¦¤":8263,"à¦Ĩà¦°à¦¶":8264,"à¦Ĩà¦¦à¦®":8265,"à¦Ĩà¦ªà¦¡":8266,"à¦Ĩà¦ķà¦¸":8267,"à¦Ĩà¦¬à¦¹":8268,"à¦Ĩà¦ªà¦²":8269,"à¦Ĩà¦ĩà¦¡":8270,"à¦Ĩà¦ĩà¦ª":8271,"Ġà¦®à¦¤à¦¨à¦ĩ":8272,"à¦ĺà¦¤":8273,"à¦ĺà¦¦à¦°":8274,"à¦ĺà¦²à¦¤":8275,"à¦ĺà¦®à§Ł":8276,"à¦ĺà¦Ńà¦°":8277,"à¦ĺà¦ĸà¦£":8278,"à¦ĺà¦®à§Łà¦¤":8279,"Ġà¦¡à¦«":8280,"Ġà¦¡à¦Łà¦ª":8281,"à§ĪâĢĵ":8282,"Ġà¦Łà§Łà¦²":8283,"Ġà¦ľà¦¨à¦°à¦¬":8284,"à¦¬à¦ªà¦£":8285,"à¦¬à¦²à¦Ł":8286,"à¦¬à¦²à¦ª":8287,"à¦¬à¦²à¦¤à¦°":8288,"Ġà¦Ŀà¦®":8289,"Ġà¦ĩà¦īà¦ķ":8290,"Ġà¦ĩà¦ĵà¦°":8291,"à§ģà¦ģà¦ģ":8292,"âĢĵ!":8293,"âĢĵâĢľ":8294,"âĢĿ.":8295,"à¦ĥ)":8296,"à¦·à¦£à¦¤à¦°":8297,"à¦¼à¥¤à¥¤":8298,"à¦°à¦®à¦®":8299,"à¦°à¦®à¦ŀ":8300,"à¦°à¦®à¦ªà¦¦":8301,"à¦°à¦®à¦§à¦°":8302,"à§ĭà¦ģâĢĻ,":8303,"Ġà¦¬à¦¨à¦¬à¦¨":8304,"à¦ħà¦¡":8305,"à¦ħà¦ªà¦¬":8306,"à¦¤à¦¨à¦¯":8307,"Ġà¦ħà¦®à¦°à¦ª":8308,"Ġà¦ıà¦¸à¦ıà¦®à¦ıà¦¸":8309,"à¦ķà¦²à¦¨à¦Ĺ":8310,"Ġà¦Ĩà¦Ĺà¦°à¦¤à¦²":8311,"à¦¬à¦¤à¦ª":8312,"à¦¬à¦¤à¦ĵ":8313,"à§ĩà¦ģ,":8314,"à§ĩà¦ģà¥¤âĢĻ":8315,"à§ĩà¦ģâĢĻ,":8316,"Ġà¦Ĩà¦ķà¦Ľ":8317,"à¦¸à¦¬à¦¦":8318,"à¦¤à¦¬à¦®à¦¨":8319,"Ġà¦Ĩà¦¶à¦ķ":8320,"à¦ķà¦°à¦ĩ":8321,"à¦ķà¦°à¦Ĺ":8322,"à¦¦à¦¨à¦ķà¦ķ":8323,"à¦°à¦¨à¦®":8324,"à¦²à¦ķà¦¥":8325,"Ġà¦¬à¦°à¦ªà¦ķ":8326,"à§ĩ?-":8327,"à§ĩ??":8328,"à§ĩ?âĢĵ":8329,"Ġà¦®à¦¹à¦¦":8330,"Ġà¦®à¦¹à¦°à¦®":8331,"à§ĭà¥¤âĢĺ":8332,"Ġà¦ľà¦²à¦¶":8333,"Ġà¦ľà¦²à¦ľà¦²":8334,"Ġà¦ľà¦²à¦§à¦°":8335,"Ġà¦ķà¦¬à¦·":8336,"à¦°à¦¹à¦®":8337,"Ġà¦¹à¦¤à¦¦à¦°":8338,"Ġà¦ħà¦¤à¦ķ":8339,"à¦¿à¦Ĥ!âĢĿ":8340,"à¦¿à¦Ĥ!âĢĻ":8341,"à¦¨à¦ĵà¦ĩ":8342,"à¦¨à¦¬à¦Ĺ":8343,"à¦¨à¦¬à¦¤à¦°":8344,"à¦¨à¦¬à¦¸à¦¨":8345,"Ġà¦¸à¦°à¦¯":8346,"Ġà¦¸à¦°à¦Ĺà¦®":8347,"à¦§à¦¨à¦¸":8348,"à¦§à¦¨à¦¦":8349,"Ġà¦ĺà¦°à¦ª":8350,"à¦²à¦¨à¦Ń":8351,"à¦²à¦¨à¦®à¦¯":8352,"à¦¯à¦ķà¦¬":8353,"à¦¯à¦ķà¦°à¦£":8354,"Ġà¦ıà¦²à¦Ĺ":8355,"à¦®à¦¤à¦ĩ":8356,"à¦¹à¦¸à¦®":8357,"Ġà¦īà¦ªà¦ķà¦£":8358,"à¦ļà¦¨à¦Ńà¦Ļ":8359,"à¦Ĺà¦²à¦ķà¦°":8360,"Ġà¦ķà¦²à¦ĺà¦°":8361,"à¦®à¦¯à¦¨":8362,"Ġà¦¸à¦¹à¦°":8363,"à¦®à¦ķà¦¥à¦¨":8364,"Ġà¦ħà¦ªà¦¶à¦¨":8365,"à¦¸à¦¨à¦ªà¦°":8366,"à¦ªà¦¦à¦®":8367,"à¦ªà¦¦à¦§":8368,"Ġà¦ħà¦ķà¦¬":8369,"à¦¦à§Łà¦¦":8370,"à¦ķà¦¬à¦ľ":8371,"à¦¿-âĢĺ":8372,"Ġà¦īà¦¤à¦·":8373,"à§İà¦¸à¦ĩ":8374,"Ġà¦¨à§Łà¦ķ":8375,"à¦¼à§ĭà¦ĥ":8376,"à¦¸à¦®à¦·":8377,"Ġà¦ªà¦¦à¦¤":8378,"Ġà¦ªà¦¦à¦²":8379,"Ġà¦ªà¦¦à¦®":8380,"Ġà¦ªà¦¦à¦¹":8381,"Ġà¦ªà¦¦à¦ªà¦¥":8382,"à¦¾âĢĶ-":8383,"à¦¹à¦²à¦ĵ":8384,"à¦®à¦£à¦¸":8385,"à¦®à¦£à¦Ł":8386,"à¦®à¦£à¦ķà¦¨":8387,"à¦Łà¦ķà¦¯":8388,"âĢ¦à¥¤âĢĿ":8389,"à¦¤à¦ķà¦®":8390,"à¦¤à¦ķà¦ª":8391,"à¦¸à¦°à§İ":8392,"à¦¸à¦°à¦ĺà¦°":8393,"à¦¤à¦¤à¦¦":8394,"à¦°à¦Ńà¦®à¦¯":8395,"à¦·à¦ķà¦ĵ":8396,"à¦¾?âĢ¦":8397,"Ġà¦¬à¦ĩà¦ªà¦¡":8398,"à§ģâĢĻâĢĵ":8399,"Ġà¦Ĳà¦ļ":8400,"à¦ªà¦ķà¦Ĺ":8401,"Ġà¦ħà¦¶à¦¤":8402,"Ġà¦«à¦²à¦Ĺ":8403,"Ġà¦ıà¦°à¦ļ":8404,"à§°à¦ª":8405,"à§°à§Ł":8406,"à§°à¦¯à¦ľ":8407,"à¦¿âĢĶ-":8408,"à¦ĩà¦°à¦Ļ":8409,"à¦®à§Łà¦²":8410,"à¦¢à¦ķ":8411,"à§ĩ!âĢ¦":8412,"à¦ľà¦²à¦®":8413,"à¦ľà¦²à¦°à¦Ļ":8414,"Ġà¦¶à¦¤à¦§":8415,"Ġà¦ĩà¦¨à¦¶":8416,"Ġà¦ĩà¦¨à¦Ńà¦²à¦Ń":8417,"à¦¸à¦²à¦ĸ":8418,"Ġ(!)":8419,"Ġà¦Īà¦Ĺà¦²à¦ķ":8420,"Ġà¦¨à¦¬à¦§":8421,"Ġà¦¨à¦¬à¦ķà¦²":8422,"Ġà¦¨à¦¬à¦īà¦¦":8423,"Ġà¦¨à¦¬à¦¤à¦°à¦Ļ":8424,"Ġà¦īà§İà¦°":8425,"à¦¯à¦°à¦Ļ":8426,"à¦¯à¦°à¦ľà¦¨":8427,"à§ĩâĢĵ!":8428,"à¦°à¦ķà¦®à¦Ń":8429,"à§¦à§Ń":8430,"à¦ķà¦¨à¦®":8431,"à¦¾!âĢ¦":8432,"à¦¨à¦¸à¦¦":8433,"à¦¯à¦¸à¦ĸ":8434,"Ġà¦¬à§ľà¦¬":8435,"Ġà¦Ĩà¦Ļà¦Ł":8436,"Ġà¦Ĺà¦¤à¦¯":8437,"à¦ªà¦¸à¦ĩ":8438,"à¦¼à§ģâĢĶ":8439,"Ġà¦īà¦ªà¦°à¦ĩ":8440,"Ġà¦¤à¦²à¦¸":8441,"Ġà¦ļà¦ķà¦®":8442,"à¦¼à§Ģ!":8443,"à¦¸à¦ķà¦¦à¦²":8444,"Ġà¦¸à¦¹à¦ľà¦¸à¦°à¦²":8445,"à¦°à¦Ĺà¦Ŀ":8446,"Ġà¦ĺà¦¨à¦ĺ":8447,"à¦¬à¦¶à¦Ļ":8448,"Ġà¦īà§İà¦¸à¦Ł":8449,"Ġà¦¦à¦²à¦ĩ":8450,"à¦°à¦®à¦£à¦ªà¦¥":8451,"à¦¾âĢĻ;":8452,"à¦¾âĢĻ?":8453,"à¦¾âĢĻ!âĢĿ":8454,"Ġà¦ĸà¦¬à¦°à¦Ĺ":8455,"Ġà¦¹à¦°à¦°":8456,"à§Ŀà¦¸":8457,"à§Ŀà¦ª":8458,"à§Ŀà¦¤à¦°":8459,"à§Ŀà¦¤à¦®":8460,"à¦Ĩà¦ľà¦Ĺ":8461,"Ġà¦īà§İà¦¸à¦¬à¦ķ":8462,"Ġà¦¦à¦°à¦ķà¦·":8463,"à¦Łà¦°à¦Ĺà¦¤":8464,"Ġà¦ķà¦¨à¦ľ":8465,"Ġà¦§à¦°à¦¨à¦§":8466,"à¦ªà¦£à¦ķ":8467,"à¦²à¦Ľà¦¬":8468,"à¦Ĩà¦°à¦Ĩà¦ĩ":8469,"à¦°à§Łà¦¹":8470,"à¦Łà¦¨à¦Ĺà¦°":8471,"à¦ľà¦¬à¦ĩ":8472,"Ġ:-":8473,"à¦®à¦¹à¦¦":8474,"à¦¹à¦°à¦£à¦Ł":8475,"à¦Ĺà¦®à¦ľ":8476,"Ġà¦Ĺà¦£à¦ħà¦Ń":8477,"Ġà¦¨à¦°à¦®à¦¤":8478,"Ġà¦§à¦¨à¦§":8479,"Ġà¦§à¦¨à¦°à¦¤":8480,"à¦¼âĢĶâĢĺ":8481,"à¦¨à¦Ńà¦¨":8482,"à¦¯à¦ªà¦²":8483,"à¦£à¦ķà¦¥":8484,"à¦²à¦Ĺà¦¡":8485,"à¦¿;âĢĶ":8486,"à¦¼à¦Ĥ,":8487,"à¦¿!)":8488,"à¦¶à¦²à¦ĩ":8489,"à¦¶à¦²à¦ĵ":8490,"à¦·à§Łà¦Ń":8491,"Ġà¦¶à¦¹à¦°à¦®à§Ł":8492,"à¦°à¦°à¦Ļ":8493,"à§§à§§à§":8494,"à¦¤à¦¦à¦¸":8495,"à¦ķà¦Ĺà¦ŀ":8496,"à¤¶":8497,"à¤ł":8498,"à¦¬à¦ĩà¦Ĺ":8499,"à¦¥à¦²à¦ªà¦¥":8500,"à¦¤à¦ªà¦²":8501,"à¦ķà¦¸à¦Ń":8502,"à¦Ĺà¦£à¦®":8503,"Ġà¦°à¦¸à¦§":8504,"anya":8505,"inc":8506,"ins":8507,"à¦¤à¦¸à¦ŀ":8508,"à§«à§¨":8509,"à§«à§«":8510,"à§«à§®":8511,"à§ĩâĢ¦..":8512,"à§ªà§¬":8513,"à§ªà§¯":8514,"Ġà¦Ĭà¦·à¦°":8515,"à¦ķà¦ľà¦¨à¦ĩ":8516,"à§¯à§¨":8517,"Ġà¦®à¦¨à¦¨à¦¶à¦ķ":8518,"Ġà¦¶à¦ªà¦¥à¦Ĺ":8519,"Ġà¦¶à¦ªà¦¥à¦¬à¦¦":8520,"à¦¿âĢĻ!":8521,"Ġà¦Ĩà¦ļà¦°à¦£à¦¬":8522,"Ġà¦Ĩà¦ļà¦°à¦£à¦Ł":8523,"Ġà¦Ĩà¦ļà¦°à¦£à¦Ĺà¦¤":8524,"à¦ħà¦¬à¦ľ":8525,"Ġà¦ħà¦¨à¦²à¦¶":8526,"à¦ĺà¦²à¦¦":8527,"Ġà¦Ĩà§Łà¦ķà¦°":8528,"à¦ķà¦ĸà¦¨à¦ĩ":8529,"à¦¦à¦¬à¦Ĺà¦ŀ":8530,"à¦¶à¦¤à¦¬à¦°":8531,"à¦®à¦®à¦Ń":8532,"à§ĩâĢĻ;":8533,"à§Ńà§¨":8534,"à§Ńà§®":8535,"Ġà¦¬à¦īà¦ĵ":8536,"atri":8537,"ather":8538,"attle":8539,"Ġà¦ļà¦°à¦®à¦ªà¦¤":8540,"Ġà¦Ŀà§ľà¦ľà¦²":8541,"à¦¯à¦ķà¦°à¦Ń":8542,"Ġà¦¸à¦«à¦Ł":8543,"à¦Īà¦·à§İ":8544,"à¦¸à¦Ńà¦¬à¦¨":8545,"à¦¨à¦®à¦ŀ":8546,"à§ĩ!âĢĿâĢĶ":8547,"à¦¼!âĢ¦":8548,"à¦¾âĢ¦âĢ¦":8549,"Ġà§©à§®":8550,"Ġwind":8551,"Ġwhen":8552,"Ġsk":8553,"Ġsu":8554,"Ġsay":8555,"Ġsup":8556,"Ġsong":8557,"Ġspe":8558,"ited":8559,"arat":8560,"Ġà¦Ĩà¦«à¦°":8561,"à¦¿âĢ¦âĢĻ":8562,"à¦ªà¦Ĺà¦ª":8563,"Ġbot":8564,"à¦ĭà¦ľ":8565,"Ġà¦Ńà¦Ĺà¦¬à§İ":8566,"Ġà¦Ńà¦Ĺà¦¬à¦Ĺà¦ŀ":8567,"Ġà¦ļà§ľà¦Ľ":8568,"Ġà¦ıà¦¡à¦ĵà¦¯":8569,"Ġmore":8570,"Ġmix":8571,"Ġcor":8572,"Ġcha":8573,"Ġchar":8574,"Ġcomp":8575,"Ġother":8576,"Ġà¦Ĺà¦ľà¦¦à¦¨":8577,"Ġà¦Ńà¦°à¦¤à¦ª":8578,"ĠIf":8579,"Ġà¦ļà¦°à¦£à¦¸":8580,"Ġfar":8581,"Ġà¦Ĩà¦Łà¦¶":8582,"Ġà¦Ĩà¦Łà¦ľà¦¨":8583,"Ġà¦Ĩà¦Łà¦¤à¦²":8584,"ility":8585,"Ġà¦ķà¦¸à¦°à¦¤":8586,"Ġoff":8587,"à¦Ĩà¦¨à¦®à¦¨":8588,"Ġà§§à§¯à§Ńà§¦":8589,"Ġà§§à§¯à§Ńà§¨":8590,"Ġà§§à§¯à§Ńà§¬":8591,"ingd":8592,"ingu":8593,"à¦ıà¦¤à¦¸à¦¬":8594,"omb":8595,"omm":8596,"ĠOff":8597,"Ġà¦Ĩà¦ĩà¦¸à¦²":8598,"Ġà§ªà§©":8599,"Ġà§ªà§®":8600,"à¦¿!âĢĿâĢĶ":8601,"ĠSen":8602,"ĠSun":8603,"à§ĩ,âĢĿâĢĶ":8604,"à§ĩâĢĿ,":8605,"à¦¿âĢĿ,":8606,"ict":8607,"à¦¿.-":8608,"Ġpo":8609,"Ġpit":8610,"Ġple":8611,"Ġpass":8612,"ĠAI":8613,"ĠAf":8614,"ĠAt":8615,"Ġà¦°à¦¤à¦¨à¦²":8616,"Ġà§«à§¦à§¦":8617,"à¦īà§İà¦¸à¦¬à¦®":8618,"ĠPl":8619,"ĠPr":8620,"ĠPro":8621,"ĠPur":8622,"Ġindig":8623,"ĠComp":8624,"Ġà¦°à¦£à¦¹":8625,"à¦¼à¦¿à¦Ĥà¥¤":8626,"ames":8627,"Ġthan":8628,"Ġà¤¦":8629,"Ġà¦¶à¦°à§İà¦¬":8630,"olar":8631,"olum":8632,"à¦¾,âĢĿâĢĶ":8633,"à¦ıà¦ķà¦ĩà¦¸à¦Ļ":8634,"ĠâĢ¦.":8635,"ĠâĢ¦à¥¤":8636,"ally":8637,"ĠRah":8638,"à¦¯à¦ľà¦¨à¦ķà¦Ń":8639,"other":8640,"Ġà§§à§¨à§®à§®":8641,"elo":8642,"à§ĭâĢ¦à¥¤":8643,"ĠĠĊĠĠĠĠĠĠ":8644,"ĠTagore":8645,"à¦¶à¦¶à¦§à¦°":8646,"Ġà¦ĸà§ľà¦®":8647,"à§ĭ!âĢĿâĢĶ":8648,"ural":8649,"Ġà§¦à§Ń":8650,"Ġà§¦à§¬":8651,"Ġà§§à§¯à§ªà§§":8652,"Ġà§®à§¦":8653,"Ġbefore":8654,"Ġà¦¸à¦¯à¦¤à¦¨":8655,"Ġà¦®à¦Īà¦¨à¦ĵ":8656,"à¦¹à¦£à¦ªà¦°":8657,"ĠLike":8658,"ĠLiterature":8659,"Â·Â·Â·Â·":8660,"Ġà§§à§Ńà§«à§Ń":8661,"Ġà§§à§Ńà§«à§¬":8662,"Ġà¦¸à¦¦à¦°à¦ĺ":8663,"Ġà¦ĩà¦īà¦¥":8664,"Ġà¦¹à¦°à¦«à¦Ĺ":8665,"ations":8666,"Ġrec":8667,"Ġres":8668,"Ġreal":8669,"irit":8670,"irst":8671,"ĠHe":8672,"ĠHow":8673,"ĠHind":8674,"ĠHistory":8675,"Ġà¦®à¦¤à¦²à¦¬à¦¬":8676,"Ġà¦®à¦¤à¦²à¦¬à¦Ł":8677,"à¦·à¦²à¦ªà¦°":8678,"Ġà§§à§¯à§®à§¨":8679,"Ġà§§à§¯à§®à§Ń":8680,"Ġà§§à§¯à§®à§®":8681,"Ġyet":8682,"à¦ªà¦Ļà¦ķ":8683,"Ġ19à§ª":8684,"ĠEd":8685,"Ġà¦ħà¦ķà¦²à¦Ļ":8686,"ĠGo":8687,"ĠGand":8688,"ĠGod":8689,"ĠGeorge":8690,"à¦¸à¦®à¦¤à¦²":8691,"Ġyour":8692,"Ġà§§à§¯à§¬à§®":8693,"Ġà§§à§¯à§¯à§©":8694,"odern":8695,"Ġà¦¯à¦¬à¦¨à¦°":8696,"opment":8697,"Ø§Ø±":8698,"ube":8699,"ĠThere":8700,"Ġà¦¦à¦¹à¦°à¦®":8701,"à¦ľà¦°à¦£à¦®à§Ł":8702,"rip":8703,"à¦ªà¦°à¦¶à¦®à¦£":8704,"ouse":8705,"istic":8706,"Ġstip":8707,"Ġà¦ľà¦¨à¦¸à¦®à¦°":8708,"Ġà§§à§¯à§¨à§¬":8709,"anta":8710,"ĠØ±":8711,"Ġany":8712,"Ġdead":8713,"ipon":8714,"ĠVolum":8715,"Ġà¦®à¦Łà¦°à¦¶":8716,"ives":8717,"ivide":8718,"à§ģà§ģà§ģ":8719,"à¦¦à¦ļà§Łà¦¨":8720,"Ġà¦Ĩà¦ĩà¦Ľà¦¸":8721,"Ġlook":8722,"ryan":8723,"Ġà¦°à¦Ĺà¦ļà¦Ł":8724,"Ġà¦Ĩà¦īà¦Łà¦ª":8725,"Ð°Ñģ":8726,"à¦ĩà¦¨à¦«à¦°à¦®":8727,"ÐµÑĢ":8728,"Ġrun":8729,"Ġalso":8730,"à¦īà¦Ńà§Łà¦ĩ":8731,"Ġcontin":8732,"Ġcontri":8733,"---":8734,"hild":8735,"TEM":8736,"afÃ©":8737,"à§§à§¯à§¬à§«":8738,"Ġgood":8739,"ĠArjun":8740,"Ġedition":8741,"Ġà¦²à¦Ľà¦®à¦¨":8742,"velopment":8743,"rishna":8744,"à¦Ĥ)]":8745,"Ġsmall":8746,"Ġdying":8747,"ersonal":8748,"cycle":8749,"Ġillusion":8750,"Ġthrough":8751,"hilosophy":8752,"Ġfamily":8753,"ĠMemorial":8754,"IoT":8755,"Ġà¦¬à¦¦à¦¹à¦ľà¦®":8756,"Ġà¦¨escafÃ©":8757,"à¦Ľà¦²à¦Ľà¦²":8758,"Ġà¦Ĺà¦Łà¦Ĺà¦Ł":8759,"Ġindigo":8760,"Ġstipends":8761,"ĠVolume":8762,"-,":8763,".)":8764,"00":8765,"46":8766,"47":8767,"Ar":8768,"Advik":8769,"Aryan":8770,"Boss":8771,"ED":8772,"From":8773,"GO":8774,"IA":8775,"IN":8776,"Int":8777,"LMS":8778,"NI":8779,"OC":8780,"Pro":8781,"RI":8782,"Red":8783,"Ripon":8784,"Sec":8785,"Solar":8786,"Tube":8787,"]à¥¤":8788,"au":8789,"ail":8790,"air":8791,"aurav":8792,"be":8793,"bt":8794,"ban":8795,"ble":8796,"co":8797,"che":8798,"cin":8799,"com":8800,"eal":8801,"egr":8802,"hana":8803,"iy":8804,"ira":8805,"iatic":8806,"ker":8807,"lo":8808,"lan":8809,"lam":8810,"mp":8811,"mat":8812,"mer":8813,"med":8814,"mur":8815,"nn":8816,"nce":8817,"ox":8818,"off":8819,"present":8820,"rvas":8821,"side":8822,"suggestion":8823,"ten":8824,"ues":8825,"uja":8826,"wam":8827,"word":8828,"¢×":8829,"£áĥ":8830,"Ã¡":8831,"Îµ":8832,"ÑĪ":8833,"ÑĮ":8834,"×Ļ":8835,"×ľ":8836,"×¢×":8837,"Ù¾":8838,"Ùģ":8839,"Ùĳ":8840,"à±":8841,"ìĿ":8842,"Ġ4":8843,"Ġ8":8844,"Ġð":8845,"Ġ!âĢĻ":8846,"Ġent":8847,"Ġqu":8848,"ĠÙĦ":8849,"ĠÂ·Â·Â·":8850,"ĠÙħ":8851,"à¦¾'":8852,"à¦¾à§ĭ":8853,"à¦¾à§ĩ,":8854,"à§ĩ(":8855,"à§ĩà§ĭ":8856,"à§ĩà¦¾,":8857,"à§ĩà¦¾à¥¤":8858,"à¦°à¦°à¦¤":8859,"à¦°à¦¨à¦¤":8860,"à¦°à¦°à¦¶":8861,"à¦°à¦ĺà¦£":8862,"à§įâĢĻâĢĶ":8863,"à¦¿à§Ģ":8864,"à¦¿âĢĿ-":8865,"à¦¿à¥¥":8866,"à¦¨à¦Ĺà¦²":8867,"à¦¨à¦¸à¦°":8868,"à¦¨à¦°à¦ª":8869,"à¦¨à¦°à¦Ł":8870,"à¦¨à¦ľà§Ł":8871,"à¦¨à§ľà¦¬à§ľ":8872,"à¦¤à¦ŀ":8873,"à¦¤à¦²à¦ķ":8874,"à¦¤à¦ľà¦²":8875,"à¦¤à¦ªà¦Ł":8876,"à¦¤à¦¯à¦¶":8877,"à¦¤à§İà¦ªà¦°":8878,"à¦¤à¦°à¦¤à¦®":8879,"à¦²à¦¬à¦ª":8880,"à¦²à¦¬à¦²":8881,"à¦²à¦°à¦¸":8882,"à¦²à¦¨à¦ĵ":8883,"à¦²à¦¦à¦ķ":8884,"à¦²à¦īà¦¦":8885,"à¦²à¦¥à¦¤":8886,"à¦²à¦Ĩà¦¨":8887,"à¦ķà¦¸à¦¹":8888,"à¦ķà¦ĺà¦¨":8889,"à¦ķà¦°à¦¤à¦²":8890,"à¦ķà¦Ĩà¦īà¦Ł":8891,"à§ģ.":8892,"à§ģà¦¾":8893,"à¦¬à¦ĵà¦¯":8894,"à¦¬à§İà¦ķ":8895,"à¦¬à¦ĩà¦¬":8896,"à¦¬à¦īà§Ł":8897,"à¦¬à¦īà¦®":8898,"à¦¬à§İà¦¸à¦²":8899,"à¦¯à¦Ľ":8900,"à¦¯à¦ĺ":8901,"à¦¯à¦²à¦ķ":8902,"à¦¯à¦²à¦¤":8903,"à¦¯à¦ĺà¦¨":8904,"à¦¯à¦ĸà¦£":8905,"à¦¯à¦ĸà¦ļ":8906,"à¦®à¦®à¦£":8907,"à¦®à¦Ŀà¦°":8908,"à¦®à¦ľà¦ķ":8909,"à¦®à¦°à¦¹à¦¸":8910,"à¦¼)à¥¤":8911,"à¦¼à¥¥":8912,"à¦¼...":8913,"à§ĭà¦¾":8914,"à§ĭà§į":8915,"à§ĭà¥¥":8916,"à§ĭ...":8917,"à§ĭ...âĢĿ":8918,"Ġà¦ķà¦¤à¦°":8919,"Ġà¦ķà¦ĵà¦¯":8920,"Ġà¦ķà¦¦à¦²":8921,"Ġà¦ķà¦ĩà¦¤":8922,"Ġà¦ķà¦ĩà¦¯":8923,"Ġà¦ķà¦ĩà¦¬":8924,"Ġà¦ķà¦Łà¦¨":8925,"Ġà¦ķà¦ķà¦ª":8926,"Ġà¦ķà¦¸à¦°à§İ":8927,"Ġà¦¬à¦¤à¦°":8928,"Ġà¦¬à¦ĵà¦¯":8929,"Ġà¦¬à¦°à¦¨":8930,"Ġà¦¬à¦ľà¦²":8931,"Ġà¦¬à¦ķà¦¨":8932,"Ġà¦¬à¦¦à¦¤":8933,"Ġà¦¬à¦°à¦¬à¦§":8934,"Ġà¦¬à¦¨à¦¤à¦²":8935,"Ġà¦ªà¦®":8936,"Ġà¦ªà¦ł":8937,"Ġà¦ªà¦ĩà¦¡":8938,"Ġà¦ªà¦ĩà¦¸":8939,"à¦¸à¦¬à¦²":8940,"à¦¸à¦¤à¦¨":8941,"à¦¸à¦ķà¦¤":8942,"à¦¸à¦¦à¦°":8943,"à¦¸à¦Ĺà¦¤":8944,"à¦¸à¦¯à¦¨":8945,"à¦¸à¦¸à¦®":8946,"à¦¸à¦ļà¦°":8947,"à¦¸à§°":8948,"à¦¸à¦ļà¦ķ":8949,"à¦¸à¦ĸà¦£":8950,"à¦¸à¦ħà¦²":8951,"à¦¸à¦°à¦¸à¦¤":8952,"Ġà¦Ĩà¦¥":8953,"Ġà¦Ĩà¦ªà¦ķ":8954,"Ġà¦Ĩà¦Łà¦¤":8955,"Ġà¦Ĩà¦īà¦°":8956,"Ġà¦Ĩà¦ħà¦°":8957,"Ġà¦Ĩà¦īà¦¡":8958,"Ġà¦Ĩà¦Łà¦¦":8959,"à¦¦à¦ķà¦²":8960,"à¦¦à¦¦à¦°":8961,"à¦¦à¦¤à¦²":8962,"à¦¦à¦ªà¦Ł":8963,"à¦¦à¦Ńà¦Ļ":8964,"à¦¦à¦²à¦¬à¦¦":8965,"Ġà¦¨à¦¬à¦¤":8966,"Ġà¦¨à¦¨à¦¸":8967,"Ġà¦®à¦ķà¦°":8968,"Ġà¦®à¦¦à¦ķ":8969,"Ġà¦®à¦Ľà¦²":8970,"à¦Łà¦Ļ":8971,"à¦Łà¦¬à¦¨":8972,"à¦Łà¦Ĩ":8973,"à¦Łà¦°à¦¦":8974,"à¦Łà¦ªà¦¦":8975,"à¦Łà¦¬à¦¦":8976,"à¦Łà¦°à¦ĵ":8977,"à¦Łà¦®à¦¹":8978,"à¦Łà¦ķà¦Łà¦ķ":8979,"à§ĢâĢĿâĢĵ":8980,"à¦ªà¦ªà¦¨":8981,"à¦ªà¦ķà¦Ł":8982,"à¦ªà¦¹à¦°":8983,"à¦ªà¦¸à¦¨":8984,"à¦ªà¦¶à¦¬":8985,"à¦ªà¦ļà¦ķ":8986,"à¦ªà¦Ŀà¦°":8987,"à¦ĩà¦§":8988,"à¦ĩà¦¬à¦¨":8989,"à¦ĩà¦¨à¦ĵ":8990,"à¦ĩà¦®à¦¤":8991,"à¦ĩà¦¸à¦¨":8992,"à¦ĩà¦¸à¦ķ":8993,"à¦ĩà¦ªà¦²":8994,"à¦ĩà¦¸à¦Ł":8995,"à¦ĩà¦īà¦Ł":8996,"à¦ĩà¦¦à¦¹":8997,"à¦ĩà¦Ĺà¦ŀ":8998,"Ġà¦¦à¦ĩà¦Ń":8999,"Ġà¦¤à¦°à¦¸":9000,"Ġà¦¤à¦ĸà¦¤":9001,"Ġà¦¤à¦ĸà¦²":9002,"Ġà¦¤à¦¸à¦°":9003,"à¦ľà¦Ŀ":9004,"à¦ľà¦ĺ":9005,"à¦ľà¦¦à¦°":9006,"à¦ľà¦¬à¦¦":9007,"à¦ľà¦¬à¦ªà¦£":9008,"à¦Ľà¦ļ":9009,"à¦Ľà¦¤à¦®":9010,"à¦¶à¦²à¦ķ":9011,"à¦¶à¦¤à¦®":9012,"à¦¶à¦ªà¦Ł":9013,"à¦¶à¦°à¦Ļ":9014,"à¦¶à§Łà¦ķ":9015,"Ġà¦¹à¦Ĺà¦²":9016,"Ġà¦¹à¦¸à¦¨":9017,"Ġà¦ıà¦Ļ":9018,"Ġà¦ıà¦¹à¦¨":9019,"Ġà¦ıà¦ľà¦°":9020,"Ġà¦ıà¦¨à¦Ł":9021,"Ġà¦ıà¦ĺà¦°":9022,"à§Łà¦®à¦¨":9023,"à§Łà¦¨à¦ķ":9024,"à§Łà¦ķà¦¦":9025,"Ġà¦ħà¦ķà¦Ł":9026,"Ġà¦ħà¦°à¦¸":9027,"Ġà¦ħà¦¦à¦°":9028,"Ġà¦ħà¦¶à¦¬":9029,"Ġà¦ħà¦¹à¦¨":9030,"Ġà¦ħà¦Ľà¦²":9031,"à¦ĸà¦°à¦Ĺ":9032,"à¦·à¦ķà¦¬":9033,"à¦·à¦¸à¦®":9034,"à¦·à¦ľà¦®":9035,"à¦Ĺà¦°à¦¨":9036,"à¦Ĺà¦¸à¦°":9037,"à¦Ĺà§°":9038,"à¦Ĺà¦¶à¦ķ":9039,"à¦Ĺà¦łà¦ķ":9040,"à¦Ĺà¦£à¦ķ":9041,"à¦¼à§ĩ!âĢĿ":9042,"à¦¼à§ĩ?âĢĿ":9043,"à¦¼à§ĩâĢĶâĢľ":9044,"à¦§à¦ľà¦¨":9045,"à¦§à¦Ĺà¦¤":9046,"à¦§à¦°à¦¦":9047,"à¦§à¦ªà¦¥":9048,"à¦§à¦¸à¦¹":9049,"Ġà¦¯à¦®à¦¸":9050,"Ġà¦¯à¦®à¦®":9051,"à¦¹à¦ķà¦¤":9052,"à¦¹à¦ªà¦¤":9053,"à¦¹à¦¨à¦¨":9054,"à¦¹à¦¤à¦¤":9055,"à¦¹à¦Ńà¦Ļ":9056,"à¦ļà¦¹":9057,"à¦ļà¦°à¦¤":9058,"à¦ļà¦¬à¦¨":9059,"à¦ļà¦°à¦ķ":9060,"à¦ļà¦«":9061,"à¦ļà¦ķà¦Ł":9062,"à¦ļà¦¶à¦¬":9063,"à¦ļà§Łà¦¨":9064,"à¦£à¦°à¦ķ":9065,"à¦£à¦®à¦¤":9066,"Ġà¦ķà¦°à¦¹":9067,"à¦ģ,":9068,"à¦ģâĢĻà¥¤":9069,"Ġà¦Ĺà¦Ĺ":9070,"Ġà¦Ĺà¦ľà¦®":9071,"Ġà¦Ĺà¦ªà¦Ĺà¦ª":9072,"à¦¡à¦¯":9073,"à¦¡à¦ľà¦¨":9074,"à¦¡à¦¬à¦¸":9075,"à¦¡à¦¨à¦®":9076,"à¦¡à¦¸à¦ĵ":9077,"à¦¥à¦ĸ":9078,"à¦¥à¦®à¦ķ":9079,"à¦¥à¦°à¦ĩ":9080,"à¦¥à¦¬à¦¦":9081,"à¦¥à¦¦à¦£":9082,"Ġà¦¶à¦£":9083,"Ġà¦¶à¦®à¦¨":9084,"Ġà¦¶à¦®à¦¸":9085,"Ġà¦¶à¦łà¦¤":9086,"Ġà¦ľà¦ķ":9087,"Ġà¦ľà¦ĸ":9088,"Ġà¦ľà¦°à¦Ĺ":9089,"Ġà¦ľà¦īà¦¨":9090,"Ġà¦ľà¦ªà¦®":9091,"Ġà¦Ńà¦²à¦ķ":9092,"Ġà¦Ńà¦ľà¦¸":9093,"Ġà¦Ńà¦ľà¦¤":9094,"Ġà¦Ńà¦¨à¦Ńà¦¨":9095,"Ġà¦ļà¦°à¦¤":9096,"Ġà¦°à¦¸à¦®":9097,"Ġà¦°à¦®à¦ľ":9098,"Ġà¦°à¦ļà§Ł":9099,"Ġà¦°à¦Ńà¦¸":9100,"à¦ĵà¦«":9101,"à¦ĵà¦Ĺà¦°":9102,"à§ĥà§į":9103,"à¦Ńà¦£":9104,"à¦Ńà¦¨à¦¤":9105,"à¦Ńà¦²à¦ķ":9106,"à§ĩà¥¤\"":9107,"à§ĩà¥¤âĢľ":9108,"Ġà¦Ĩà¦®à¦ª":9109,"Ġà¦Ĩà¦®à¦¹":9110,"Ġà¦Ľà¦ĩ":9111,"Ġà¦ıà¦ķà¦Ľ":9112,"Ġà¦ıà¦ķà¦¡":9113,"Ġà¦ıà¦ķà¦ł":9114,"Ġà¦ıà¦ķà¦¶à¦¬":9115,"Ġà¦ıà¦ķà¦ıà¦ķ":9116,"à§Ĥà§į":9117,"à§ĤâĢĵ":9118,"à§Ĥà¦ĥ":9119,"à¦Ĥ/":9120,"à¦łà¦¯":9121,"à¦łà¦¤à¦²":9122,"à¦łà¦®à§Ł":9123,"Ġà¦īà¦«":9124,"Ġà¦īà¦ĩà¦ª":9125,"Ġà¦īà¦ĩà¦¶":9126,"à¦Ļà¦®à§Ł":9127,"à¦¼à¦¾)":9128,"à¦¼à¦¾:":9129,"à¦¼à¦¾!âĢĿ":9130,"à¦¼à¦¾âĢ¦âĢĿ":9131,"Ġà¦ĵà¦ªà¦¨":9132,"Ġà¦ĵà¦®à¦²":9133,"à§ľà¦°":9134,"à§ľà¦ļ":9135,"Ġà¦²à¦¬à¦¨":9136,"Ġà¦«à¦·":9137,"à¦°à¦¤à¦ĩ":9138,"à¦°à¦¤à¦ļ":9139,"Ġà¦ĸà¦Ĺà¦®":9140,"Ġà¦ĸà§Łà¦°":9141,"Ġà¦ħà¦¨à¦ªà¦¨":9142,"Ġà¦ħà¦¨à¦¬à¦§":9143,"âĢĶ\"":9144,"à¦¾,âĢĶ":9145,"Ġà¦ªà¦°à¦¹":9146,"Ġà¦ªà¦°à¦Ń":9147,"Ġà¦ªà¦°à¦®à¦¤":9148,"Ġà¦ªà¦°à¦®à¦°":9149,"à¦¬à¦¨à¦«":9150,"à¦¬à¦¨à¦ļà¦°":9151,"Ġà¦¸à¦®à¦ľ":9152,"Ġà¦¸à¦®à¦°à¦¨":9153,"Ġà¦ĺà¦¨à¦¬à¦¸à¦¤":9154,"ĠâĢ¢":9155,"Ġà¦®à¦¨à¦¬":9156,"Ġà¦®à¦¨à¦ķà¦£":9157,"à¦°à¦£à¦¸à¦®":9158,"âĢĻ.":9159,"âĢĻâĢ¦":9160,"à¦ªà¦°à¦¨":9161,"à¦ªà¦°à¦ªà¦°":9162,"à¦ªà¦°à¦¹à¦°":9163,"à¦ªà¦°à¦®à¦£":9164,"à¦¼à¦¿âĢĿ":9165,"à¦¼à¦¿!âĢĿ":9166,"à¦¼à¦¿âĢĻà¥¤":9167,"à¦ŀà¦¨":9168,"à¦ŀà¦Ĺ":9169,"à¦ŀà¦ľà¦¨":9170,"à§İà¦Ĺà¦¤":9171,"à§İà¦¶à¦ķ":9172,"à§İà¦Ľà¦²":9173,"à§İà¦«à¦¨":9174,"à¦¤à¦°à¦ĸ":9175,"à¦¤à¦°à¦ĸà¦£":9176,"à¦Ŀà¦ª":9177,"à¦Ŀà¦°à¦£":9178,"à¦Ŀà¦°à¦Ľ":9179,"à¦ľà¦¨à¦Ń":9180,"à¦ľà¦¨à¦®à¦¨":9181,"à¦¿à¥¤(":9182,"à¦¿à¥¤)":9183,"à¦īà§İ":9184,"à¦īà¦«":9185,"à¦īà¦¬à¦²":9186,"à¦īà¦Ĺà¦²":9187,"à¦īà§İà¦ķ":9188,"à¦īà¦¦à¦Ĺ":9189,"à¦īà¦ľà¦Ł":9190,"à¦īà¦ªà¦¬":9191,"à¦īà§ľà¦¨":9192,"à¦īà¦¬à¦Ĺ":9193,"à¦īà§İà¦ªà¦²":9194,"à¦¬à¦°à¦¨":9195,"à¦¬à¦°à¦®":9196,"à¦¬à¦°à¦ľ":9197,"Ġà¦Ĩà¦²à¦¹":9198,"Ġà¦Ĩà¦²à¦Ļ":9199,"Ġà¦Ĩà¦²à¦®à¦Ĺ":9200,"à¦°à¦ķà¦¬":9201,"à¦°à¦ķà¦ĩ":9202,"à¦°à¦ķà¦ĸà¦£":9203,"à¦ªà¦¨à¦ķ":9204,"à¦ªà¦¨à¦Ł":9205,"à¦ªà¦¨à¦ĩ":9206,"à¦ªà¦¨à¦Ń":9207,"à¦«à¦Ĺ":9208,"à¦«à¦£":9209,"à¦«à¦ĵ":9210,"à¦«à¦°à¦¸":9211,"à¦ıà¦¶":9212,"à¦ıà¦ķà¦°":9213,"à¦ıà¦¨à¦ķ":9214,"à¦ıà¦°à¦ĵ":9215,"à¦ıà¦¨à¦¸":9216,"Ġà¦¸à¦¬à¦¤":9217,"Ġà¦¸à¦¬à¦ķà¦¥":9218,"à¦Ĩà¦²à¦¬":9219,"à¦Ĩà¦¸à¦®":9220,"à¦Ĩà¦¨à¦ķ":9221,"à¦Ĩà¦¸à¦¤":9222,"à¦Ĩà¦ĩà¦¯":9223,"à¦Ĩà¦¬à¦¡":9224,"à¦Ĩà¦ĩà¦ľ":9225,"ĠĠĊĠĊ":9226,"à¦ĺà¦¹":9227,"à¦ĺà§İ":9228,"à¦ĺà¦Ĺà¦°":9229,"Ġà¦Łà¦ªà¦¨":9230,"Ġà¦Łuhin":9231,"Ġà¦ľà¦¨à¦¬à¦¸à¦¤":9232,"à¦¬à¦²à¦¸":9233,"Ġà¦ĩà¦Ĺà¦¨":9234,"Ġà¦ĩà§Łà¦°":9235,"Ġà¦ĩà¦ķà¦¨à¦®":9236,"à§ģà¦ģâĢĻ,":9237,"Ġà¦īà¦łà¦¨":9238,"à¦·à¦£à¦¯":9239,"à¦·à¦£à¦¯à¦¨":9240,"Ġà¦ªà¦¡à¦ķ":9241,"Ġà¦ļà¦²à¦°":9242,"Ġà¦ļà¦²à§İà¦¶à¦ķ":9243,"à§ĭà¦ģ-":9244,"Ġà¦ªà¦¥à¦¬":9245,"Ġà¦ªà¦¥à¦¸":9246,"Ġà¦¬à¦¨à¦Ł":9247,"Ġà¦¬à¦¨à¦Ĺà¦®à¦¨":9248,"Ġà¦łà¦®à¦ķ":9249,"à¦ħà¦ĵ":9250,"à¦ħà¦¬à¦¨":9251,"à¦ħà¦Ŀ":9252,"à¦ħà¦ľà¦°":9253,"à¦ħà¦ķà¦¥":9254,"à¦ħà¦¸à¦®à¦¯":9255,"à¦ħà¦Ńà¦¯":9256,"Ġà¦ħà¦®à¦¯":9257,"Ġà¦ħà¦®à¦¸":9258,"Ġà¦ħà¦®à¦°à¦ķ":9259,"Ġà¦ħà¦®à¦ĺ":9260,"Ġà¦ħà¦®à¦°à¦¦":9261,"Ġà¦ħà¦®à¦²à¦¬":9262,"Ġà¦ıà¦¸à¦®":9263,"Ġà¦Ĩà¦ľà¦®à¦ķ":9264,"Ġà¦ħà¦¸à¦«à¦²":9265,"à¦ķà¦²à¦°":9266,"à¦ķà¦²à¦¬à¦¨":9267,"à¦ķà¦²à¦ķà¦²":9268,"Ġà¦Ĩà¦¬à¦ķ":9269,"à¦¬à¦¤à¦Ĺ":9270,"à¦¬à¦¤à¦°à¦£":9271,"à§ĭ,-":9272,"à§ĭ,âĢĶ":9273,"à¦¸à¦¬à¦¸à¦®à¦¯":9274,"à¦¤à¦¬à¦Ĺ":9275,"Ġà¦Ĩà¦¨à¦ľ":9276,"Ġà¦Ĩà¦¨à¦¹":9277,"Ġà¦Ĩà¦¨à§Łà¦¨":9278,"à¦ķà¦°à¦¨":9279,"Ġà¦īà¦¦à¦ķ":9280,"à¦¦à¦¨à¦¨":9281,"à¦¦à¦¨à¦¸":9282,"à¦¦à¦¨à¦ª":9283,"à¦¦à¦¨à¦°à¦¤":9284,"à¦¦à¦¨à¦ļà¦ķ":9285,"à¦ķà¦Łà¦ª":9286,"à¦ķà¦Łà¦¬à¦¤":9287,"à¦°à¦¨à¦ķ":9288,"à¦°à¦¨à¦¬":9289,"à¦°à¦¥à¦¸":9290,"à¦¾à¦Ĥ!âĢĻ":9291,"Ġà¦¬à¦°à¦ĩ":9292,"Ġà¦¬à¦°à¦ĵ":9293,"à¦ķà¦¤à¦¤":9294,"Ġà¦®à¦¹à¦¨":9295,"Ġà¦®à¦¹à¦¬":9296,"Ġà¦®à¦¹à§ľ":9297,"Ġà¦®à¦¹à¦«":9298,"Ġà¦¶à¦¬à¦Ĺ":9299,"Ġà¦ľà¦²à¦¬à¦¨":9300,"Ġà¦ľà¦²à¦ľà¦¨":9301,"Ġà¦ľà¦²à¦ĺ":9302,"Ġà¦ľà¦²à¦Ŀà¦°":9303,"à¦Ĺà¦¤à¦¦":9304,"à¦°à¦¹à¦ĵ":9305,"à¦°à¦¹à¦Ļ":9306,"Ġà¦ħà¦¦à¦²":9307,"Ġà¦ħà¦¤à¦¸":9308,"Ġà¦ħà¦¤à¦¦":9309,"Ġà¦ħà¦¤à¦¶à¦¤":9310,"à¦°à¦¥à¦®à¦Ń":9311,"à¦¨à¦ĵà¦°":9312,"à¦¨à¦ĵà§Ł":9313,"à¦¯à¦¤à¦¦à¦£":9314,"Ġà¦ĺà¦°à¦¬à¦¨":9315,"à¦²à¦¨à¦Ł":9316,"à¦²à¦¨à¦ķà¦°":9317,"Ġà¦ıà¦²à¦Ĺà¦°":9318,"à¦®à¦¤à¦ĵ":9319,"à¦®à¦¤à¦²à¦¬":9320,"à¦Ĩà¦®à¦¬":9321,"à¦Ĩà¦®à¦°à¦£":9322,"à¦¹à¦¸à¦Ł":9323,"à¦¹à¦¸à¦ĵ":9324,"à¦ļà¦¨à¦¶":9325,"à¦Ĺà¦²à¦¶":9326,"à¦Ĺà¦²à¦ļ":9327,"à¦Ĺà¦²à¦¬à¦Ł":9328,"à§ĩâĢĶ-":9329,"à¦¿à¦ĥâĢĵ":9330,"à¦°à¦¦à¦¸":9331,"à¦²à¦¬à¦ķ":9332,"à¦²à¦¬à¦¸à¦¨":9333,"à¦²à¦¬à¦¹à¦¨à¦ķ":9334,"Ġà¦ķà¦°à¦¬à¦ĩ":9335,"à¦ļà¦²à¦²":9336,"Ġà¦¸à¦¹à¦Ĺ":9337,"Ġà¦¸à¦¹à¦ľà¦¨":9338,"Ġà¦ħà¦ªà¦¶":9339,"Ġà¦ħà¦ªà¦ļ":9340,"Ġà¦ħà¦ªà¦¥":9341,"à¦®à¦²à¦¤à¦°":9342,"à¦Ľà¦¨à¦Ł":9343,"à¦¸à¦¨à¦¸":9344,"à¦¸à¦¨à¦Ł":9345,"à¦¸à¦¨à¦ĩ":9346,"à¦¸à¦¨à¦¶":9347,"à¦¸à¦¨à¦¹":9348,"à¦°à¦ľà¦¯":9349,"à¦¶à¦¨à¦¹":9350,"Ġà¦ħà¦§à¦®à¦ķ":9351,"Ġà¦ıà¦¤à¦¸à¦¬":9352,"à¦ªà¦¤à¦®":9353,"Ġà§°":9354,"à¦¦à§Łà¦ĩ":9355,"à¦¦à§Łà¦¹":9356,"à¦¦à§Łà¦Ĺà¦£":9357,"Ġà¦¬à¦¹à¦ĩ":9358,"à¦ĩà¦²à¦Ĺ":9359,"à¦ĩà¦²à¦ĵ":9360,"à¦ĩà¦²à¦Łà¦¦":9361,"Ġà¦°à¦Ļà¦ª":9362,"Ġà¦°à¦Ļà¦ĩ":9363,"à¦ķà¦¬à¦ķ":9364,"à¦ķà¦¬à¦ĩ":9365,"Ġà¦ħà¦ľà¦²":9366,"Ġà¦ĺà¦Łà¦ķ":9367,"à¦·à¦¤à¦ĩ":9368,"Ġà¦ľà¦®à¦ľ":9369,"à¦ıà¦ĩà¦®":9370,"à¦ıà¦ĩà¦Ĺ":9371,"à¦ıà¦ĩà¦ļà¦¡":9372,"à¦ĩà¦¨à¦²":9373,"à¦ĩà¦¨à¦¡":9374,"à¦ĩà¦¨à¦¸à¦ª":9375,"Ġà¦¨à§Łà¦¨à¦Ńà¦°":9376,"à¦¼à§ĭ!":9377,"Ġà¦īà¦¨à¦Ĩà¦¶":9378,"Ġà¦ªà¦¦à¦Ľ":9379,"à¦¬à¦¦à¦®":9380,"à¦¬à¦¦à¦¶":9381,"Ġà¦ĵà¦ªà¦°à¦ĵà¦¯":9382,"à¦¶à¦¬à¦¬":9383,"à¦¶à¦¬à¦ĩ":9384,"Ġà¦ħà¦®à¦²à¦¸":9385,"Ġà¦ħà¦®à¦²à¦§":9386,"à¦¾âĢĶâĢĿ":9387,"à¦®à¦°à¦¬à¦¨":9388,"à¦¹à¦²à¦®":9389,"à¦¹à¦²à¦Ł":9390,"à¦¹à¦²à¦ª":9391,"à¦¹à¦²à¦Ĺ":9392,"à¦®à¦£à¦Ĺ":9393,"à¦®à¦£à¦¸à¦®":9394,"à¦¤à¦²à¦¦":9395,"à¦¤à¦²à¦ª":9396,"à¦Łà¦ķà¦®":9397,"à¦Łà¦ķà¦ļ":9398,"à¦Łà¦ķà¦¥":9399,"âĢ¦âĢĻà¥¤":9400,"Ġà¦ķà¦®à¦¸":9401,"à¦¯à¦®à¦¶":9402,"à¦¯à¦®à¦ĵ":9403,"à¦¤à¦ķà¦ķ":9404,"à¦¤à¦ķà¦ļ":9405,"à¦¤à¦ķà¦ĵ":9406,"à¦¨à¦ķà¦¥":9407,"à¦°à¦ĵà¦ĩ":9408,"Ġà¦¶à¦¹à¦°à¦ĵ":9409,"à¦¸à¦°à¦Ĺ":9410,"à¦°à¦Ńà¦ķ":9411,"Ġà¦ħà¦ªà¦°à¦Ł":9412,"à¦¾?âĢĶ":9413,"à¦¾?âĢĵ":9414,"à§įâĢĮâĢĮ":9415,"Ġà¦¬à¦ĩà¦ª":9416,"à¦¤à¦®à¦¦":9417,"à§ģâĢĻâĢĶ":9418,"à¦¬à¦¸à¦²":9419,"Ġà¦ħà¦¶à¦¥":9420,"Ġà¦«à¦²à¦ĩ":9421,"à§İà¦ķà¦®à¦²":9422,"à¦ıà¦ķà¦Ń":9423,"à¦ıà¦ķà¦ķà¦¥":9424,"Ġà¦Ľà¦¬à¦Ľà¦°":9425,"Ġà¦ħà¦²à¦¸à¦Ń":9426,"à¦ħà¦¨à¦¡":9427,"à§ĩ;âĢĵ":9428,"à§°à¦ļ":9429,"à§°à¦¬à¦¨":9430,"à§°à¦ľà¦ĩ":9431,"à¦¶à¦ķà¦ĩ":9432,"à¦¶à¦ķà¦ĵ":9433,"à¦®à§Łà¦ķ":9434,"à¦ļà¦ķà¦®":9435,"à¦ļà¦ķà¦ĵ":9436,"à¦¢à¦Ļ":9437,"à§ĩ!âĢĶ":9438,"Ġà¦īà¦ľà¦¬":9439,"à¦ľà¦²à¦ª":9440,"à¦ľà¦²à¦ľ":9441,"à¦ľà¦²à¦Ľ":9442,"à¦ľà¦²à¦Ńà¦°":9443,"Ġà¦¶à¦¤à¦§à¦®":9444,"Ġà¦¸à¦®à§Łà¦¸":9445,"Ġà¦¸à¦®à§Łà¦Ĺ":9446,"Ġà¦ĩà¦¨à¦ª":9447,"Ġà¦Ĩà¦§à¦«":9448,"Ġà¦Ĺà§ľà¦Ĺà§ľ":9449,"Ġà¦Ńà¦¬à¦¬à¦²":9450,"Ġà¦Īà¦ľ":9451,"Ġà¦īà§İà¦ķà¦²":9452,"à¦ªà¦Łà¦Ń":9453,"à§ĩâĢĵâĢĻ":9454,"à¦¨à¦¸à¦ŀ":9455,"à¦¨à¦¸à¦ªà¦Łà¦ķ":9456,"à¦¯à¦¸à¦¹":9457,"à¦¥à¦°à¦ĸ":9458,"à¦¥à¦°à¦ĸà¦£":9459,"à¦ªà¦¸à¦ľ":9460,"à¦¨à¦Ĺà¦®":9461,"à¦¨à¦Ĺà¦¦":9462,"à¦¨à¦Ĺà¦Ĺ":9463,"à¦°à¦ľà¦¨à¦ĩ":9464,"Ġà¦Ńà§Łà¦Ń":9465,"Ġà¦ĭà¦®à¦¨":9466,"Ġà¦¸à¦¹à¦ľà¦¸":9467,"Ġà¦¸à¦¹à¦ľà¦¤à¦°":9468,"à¦°à¦Ĺà¦Ł":9469,"à¦·à¦®à¦Ń":9470,"à¥¤âĢĻâĢĶ":9471,"à¦°à¦®à¦£à¦¯":9472,"à¦°à¦¹à¦£à¦ĩ":9473,"à¦°à¦¹à¦£à¦ĵ":9474,"Ġà¦°à¦ķà¦®à¦Ł":9475,"à¦¾âĢĻ!":9476,"à¦¾;-":9477,"Ġà¦ıà¦¨à¦¡":9478,"Ġà¦ıà¦¨à¦Ń":9479,"à¦ıà¦¬à¦®":9480,"à¦ıà¦¬à¦®à¦¸":9481,"à¦ķà¦ķà¦£":9482,"Ġà¦Ĩà¦ªà¦¶":9483,"à¦ĩà¦Łà¦¨":9484,"à¦§à¦¬à¦ĵ":9485,"à¦Ĩà¦ľà¦¬":9486,"Ġà¦īà§İà¦¸à¦¬à¦ļ":9487,"à§Łà¦¤à¦ĩ":9488,"à¦Ĺà¦¬à§İà¦¸":9489,"à¦Łà¦°à¦°":9490,"Ġà¦ķà¦¨à¦Ńà¦¯":9491,"à¦Ĩà¦²à¦Ł":9492,"à¦®à¦Ĺà¦£":9493,"à¦ľà¦¬à¦ªà¦¨":9494,"Ġà¦¸à¦Ńà¦¯":9495,"à¦¹à¦°à¦£à¦ĩ":9496,"Ġà¦Ĺà¦£à¦¬":9497,"Ġà¦§à¦¨à¦Ń":9498,"à¦¨à¦¯à¦ľ":9499,"à¦łà¦ķà¦¸à¦®":9500,"Ġà¦¦à¦¶à¦Ń":9501,"à¦¨à¦Ńà¦¸":9502,"Ġà¦¸à¦¦à¦Ĺà¦¤":9503,"à¦¡à¦²à¦Ł":9504,"à¦¡à¦²à¦ª":9505,"à¦²à¦Ĺà¦ª":9506,"à¦Łà¦«à¦°à¦®":9507,"Ġà¦ıà¦¸à¦¬à¦ĵ":9508,"Ġà¦¨à¦ľà¦°à¦Ł":9509,"à¦¸à¦¹à¦ķ":9510,"à§Ģ?âĢĶ":9511,"à¦ľà¦ķà¦®":9512,"Ġtold":9513,"Ġtree":9514,"à¦īà¦²à¦Ł":9515,"Ġà§¨à§¦à§¦à§¦":9516,"Ġà¦¬à¦¸à¦¨à¦ĸ":9517,"à¦®à¦¶à¦¤":9518,"à¤¥":9519,"à¤ģ":9520,"Ġà¦ķà§Łà¦Ł":9521,"Ġà¦Ĩà§ľà¦¤":9522,"à¦¥à¦²à¦Ń":9523,"head":9524,"à¦®à¦¦à¦ª":9525,"Ġà¦ľà§Łà¦ķ":9526,"Ġà¦ľà§Łà¦¦":9527,"Ġà¦ľà§Łà¦¢":9528,"à¦¬à¦Ńà¦ķ":9529,"à¦°à¦ĸà¦ļ":9530,"à§©à§¬":9531,"à¦ĺà¦¨à¦ĸ":9532,"any":9533,"éŁ¿åĵį":9534,"iness":9535,"Ġà¦ľà¦Ĺà¦¤à¦ķ":9536,"à§ĩâĢ¦à¥¤âĢĻ":9537,"Ġà¦¸à§İà¦¬":9538,"Ġà¦¸à§İà¦®":9539,"Ġà¦¸à§İà¦ª":9540,"Ġà¦®à¦¦à¦¬":9541,"Ġà¦®à¦¦à¦®à¦¤":9542,"à§ªà§®":9543,"Ġà¦Ĭà¦§":9544,"Ġà¦Ĭà¦¨à¦¤":9545,"à¦®à¦ļà¦Ł":9546,"Ġà¦ķà¦²à¦®à¦ĵ":9547,"à¦ļà¦°à¦£à¦ĵ":9548,"Ġà¦Ĩà¦ĩà¦¨à¦ª":9549,"Ġà¦Ĩà¦ĩà¦¨à¦Ĺ":9550,"Ġà¦¶à¦ªà¦¥à¦ª":9551,"Ġà¦¶à¦ªà¦¥à¦ªà¦¤":9552,"à¦°à¦«à§İ":9553,"à§ĩ?âĢĻâĢĶ":9554,"à¦¯à¦¹à¦ĩ":9555,"read":9556,"à¦¶à¦°à¦ŀ":9557,"à¦¬à¦Łà¦¦":9558,"à¦¨à§Łà¦¨à¦®":9559,"Ġà¦ıà¦°à¦ķà¦®à¦Ł":9560,"Ġà¦ıà¦°à¦ķà¦®à¦Ń":9561,"onth":9562,"à¦ļà§ľà¦ĵ":9563,"à¦¬à¦ľà¦¨à¦°":9564,"à¦¬à¦ľà¦¨à¦ķ":9565,"à¦¬à¦ľà¦¨à¦ª":9566,"à¦¬à¦ľà¦¨à¦¹à¦¤":9567,"à¦¬à¦ľà¦¨à¦¸à¦®à¦ķ":9568,"à¦¦à¦¶à¦ªà¦¦":9569,"Ġà¦ĩà¦²à¦°":9570,"à§Ńà§¦":9571,"à§Ńà§«":9572,"Ġà¦°à¦¥à¦ļ":9573,"Ġà¦°à¦¥à¦ļà¦ķ":9574,"Ġà¦¨à¦°à¦ĵà¦¯":9575,"ats":9576,"ates":9577,"à§ĩ:-":9578,"ala":9579,"alm":9580,"à¦ħà¦¸à§İ":9581,"à§¬à§®":9582,"à¦¹à¦ķà¦ª":9583,"à¦Īà¦°":9584,"ert":9585,"Ġà¦ķà¦¬à¦°à¦ķ":9586,"ished":9587,"ishes":9588,"à¦¿à¥¤âĢĻâĢĿ":9589,"à¦£à¦¦à¦£":9590,"à¦¯à§Łà¦ĩ":9591,"à¦¯à¦Ĺà¦ļ":9592,"ense":9593,"à§®à§Ń":9594,"à§®à§¯":9595,"Ġà¦Ķà¦¡":9596,"à¦ĩà¦®à¦ªà¦¸":9597,"Ġap":9598,"Ġact":9599,"à¦ıà¦®à¦¨à¦ĵ":9600,"ora":9601,"oriz":9602,"Ġwine":9603,"Ġwomen":9604,"Ġwait":9605,"Ġsha":9606,"Ġslow":9607,"its":9608,"arre":9609,"arth":9610,"arri":9611,"ards":9612,"à¦¶à¦¹à¦°à¦Ł":9613,"Ġà¦Ĩà¦«à¦¤":9614,"Ġà¦ĸà¦°à¦ļà¦ĵ":9615,"Ġà¦ĸà¦°à¦ļà¦ªà¦¤":9616,"ouch":9617,"à¦¯à¦®à§Łà¦Ń":9618,"éŁ¿éŁ¿éŁ¿éŁ¿éŁ¿éŁ¿":9619,"Ġà¦ļà§ľà¦ļà§ľ":9620,"à¦¸à¦°à¦£à¦ķ":9621,"Ġà¦ĩà¦Łà¦Ĺ":9622,"à¦ļà¦®à§İà¦ķ":9623,"andy":9624,"Ġmot":9625,"Ġmur":9626,"Ġmust":9627,"Ġmade":9628,"Ġmonth":9629,"Ġcre":9630,"Ġcur":9631,"Ġcult":9632,"Ġchild":9633,"Ġà¦ľà¦¨à¦¸à¦®à¦ķ":9634,"à¦¶à¦¹à¦°à¦¤à¦²":9635,"Ġopen":9636,"Ġà¦¨à¦°à¦ķà¦ķ":9637,"Ġà¦ĭà¦£à¦Ĺ":9638,"à¦Ĺà¦¸à¦ĩ":9639,"à¦¬à¦Ĺà¦ŀ":9640,"à§Īà¦ĥâĢĶ":9641,"à§Īà¦ĥâĢĵ":9642,"à¦·à¦¬à§İ":9643,"à¦ħà¦Ĺà¦£à¦¨":9644,"Ġfret":9645,"Ġfound":9646,"Ġfirst":9647,"à§ĢâĢĻâĢĶ":9648,"Ġà¦®à§İà¦¸à¦ľ":9649,"à¦īà¦¬à¦ĵà¦¯":9650,"Ġà¦¬à¦°à¦«à¦¶":9651,"Ġà¦«à¦Łà¦ķà¦Ł":9652,"omes":9653,"ĠOn":9654,"Ġà¦®à¦°à¦£à¦ª":9655,"Ġà¦Ĩà¦ĩà¦¶":9656,"Ġà¦Ĩà¦ĩà¦¸à¦¬":9657,"Ġà¦Ĩà¦ĩà¦ĵà¦¨":9658,"Ġà§ªà§Ń":9659,"Ġdid":9660,"Ġdry":9661,"Ġdown":9662,"à¦¯à¦°à¦ķà¦®à¦Ń":9663,"Ġà¦ķà¦ĩà¦ĵ":9664,"ĠSa":9665,"ĠSh":9666,"ĠSy":9667,"ĠSar":9668,"ĠSuk":9669,"ĠSweet":9670,"à§ĭ?âĢĿ,":9671,"à¦¿âĢĿâĢĵ":9672,"icro":9673,"Ġà¦ĩà¦¹à¦ľ":9674,"Ġpre":9675,"Ġpur":9676,"Ġpalm":9677,"ĠAng":9678,"Ġà¦Ńà¦¬à¦¨à¦¦":9679,"Ġà¦Ńà¦¬à¦¨à¦Ł":9680,"Ġà¦°à¦¤à¦¨à¦ª":9681,"Ġà¦ĺà¦·à¦²":9682,"rok":9683,"rook":9684,"Ġà§«à§¬":9685,"asure":9686,"ĠPH":9687,"ĠPra":9688,"ĠPap":9689,"ĠPublis":9690,"ĠParg":9691,"ĠPsych":9692,"ĠPaurav":9693,"ĠPuja":9694,"à¦Ńà¦°à¦¤à¦¬":9695,"ĠCent":9696,"ĠCol":9697,"ĠCrook":9698,"Ġà¦°à¦£à¦§":9699,"Ġthine":9700,"Ġthose":9701,"ĠBang":9702,"Ġà¤¤":9703,"Ġà¤µ":9704,"Ġà¤¹":9705,"Ġà¤ħ":9706,"Ġà¤Ŀ":9707,"Ġà§¬à§¬":9708,"Ġà§¬à§¯":9709,"à¦¶à¦Ĺà¦¤à¦Ń":9710,"Ġà¦²à¦Ļà¦ĺà¦¨":9711,"Ġliter":9712,"olo":9713,"olation":9714,"Ġep":9715,"Ġease":9716,"Ġeyes":9717,"Ġeves":9718,"ĠRaj":9719,"ĠRock":9720,"Ġà¦¹à¦°à¦£à¦ķ":9721,"à¦£à¦¸à¦ŀ":9722,"elig":9723,"ĠĠĊĠĠĠĠĠ":9724,"à¦¸à§İà¦¤":9725,"à¦¸à§İà¦ļà¦°":9726,"ĠDJ":9727,"ĠDr":9728,"ĠDur":9729,"ĠTham":9730,"à¦£à¦Ńà¦Ł":9731,"str":9732,"Ġà¦ªà¦¦à¦¯à¦¨":9733,"urb":9734,"urn":9735,"ury":9736,"iment":9737,"Ġhund":9738,"ĠMa":9739,"Ġgu":9740,"Ġgave":9741,"Ġgreat":9742,"Ġgods":9743,"ider":9744,"Ġà¦¸à¦²à¦®à¦¨":9745,"à¦¶à¦ªà¦¥à¦¬à¦¦":9746,"à¦ħà¦¹à¦ŀ":9747,"Ġà¦¸à§ľà¦ķà¦ªà¦¥":9748,"Ġà§§à§Ńà§Ńà§®":9749,"Ġà¦¸à¦®à¦¤à¦²à¦Ń":9750,"Ġrem":9751,"Ġrev":9752,"Ġread":9753,"Ġreap":9754,"adem":9755,"irl":9756,"irth":9757,"ĠHya":9758,"ĠHouse":9759,"Ġhaunt":9760,"à¦¶à¦Ńà¦¬à¦¨":9761,"ĠNGO":9762,"Ġà§§à§ªà§¦à§¦":9763,"à¦¦à¦®à¦¨à¦ķ":9764,"Ġà§§à§¯à§®à§¦":9765,"Ġà§§à§¯à§®à§©":9766,"Ġà§§à§¯à§®à§ª":9767,"à¦¶à¦§à¦°à¦ķ":9768,"Ġ195":9769,"à¦²à¦¥à¦Ĺà¦¤":9770,"Ġmyself":9771,"ĠWhen":9772,"ĠWho":9773,"ĠWhat":9774,"Ġà¦Ĺà¦²à¦¦à¦ĺ":9775,"Ġà§§à§¯à§¬à§«":9776,"Ġà§§à§¯à§¬à§Ń":9777,"Ġnew":9778,"Ġà¦¯à¦¤à¦¬à¦¡":9779,"ems":9780,"Ġhere":9781,"à¤¤à¤°":9782,"Ġà¦«à¦¸à¦²à¦¬":9783,"Ġà¦īà¦ĩà¦¥":9784,"Ġà¦īà¦ĩà¦ł":9785,"à§§à§®à§¬":9786,"ĠReuse":9787,"ĠRecycle":9788,"Ġà§¯à§ª":9789,"Ġà§¯à§®":9790,"ourney":9791,"Ġstre":9792,"ummer":9793,"Ġà¦¬à¦Ĺà¦²à¦¦":9794,"Ġà¦ĩà¦¨à¦«à¦°à¦®":9795,"Ġà§§à§¯à§¨à§Ń":9796,"Ġà§§à§¯à§©à§¨":9797,"à§§à§Ńà§¯à§©":9798,"ific":9799,"ĠØ´":9800,"Ġà§§à§¯à§§à§¬":9801,"Ġà§§à§¯à§§à§®":9802,"Ġà§§à§¯à§§à§¯":9803,"Ġconf":9804,"Ġdeep":9805,"ĠVis":9806,"Ġà¦®à¦Łà¦®à¦Ł":9807,"ived":9808,"Ġval":9809,"Ġà¦ĩà¦¤à¦°à¦ľà¦¨":9810,"Ġtrans":9811,"oreword":9812,"ĠÐ²":9813,"ĠÐ¿":9814,"à¦Ĩà¦īà¦Łà¦¡":9815,"Ġsee":9816,"ogn":9817,"Ġà¦ªà¦ļà¦¨à¦¶":9818,"Ġlost":9819,"à§©à§©à§©à§©":9820,"Ġjoy":9821,"Ġjourney":9822,"ake":9823,"ĠForeword":9824,"Ġà§§à§§à§¦":9825,"ÐµÐ":9826,"ÐµÐ»":9827,"Ð¾Ð»":9828,"ĠInst":9829,"Ġ1967":9830,"Ġà¦¸à¦¬à¦°à¦Ļ":9831,"Ġà¦ıà¦ĩà¦ļà¦ıà¦¸à¦¸":9832,"à¦Ŀà¦Łà¦ªà¦Ł":9833,"izarre":9834,"ĠĠĠĊĠĠ":9835,"à¦īà¦ªà¦ķà¦°à¦£":9836,"à§§à§¯à§©à§®":9837,"ĠÑĪ":9838,"Ġà¦«à§Łà¦¸à¦²":9839,"à§§à§¯à§¬à§¨":9840,"ibility":9841,"Ġleave":9842,"Ġlearning":9843,"ĠáĥĽ":9844,"Ġexp":9845,"acter":9846,"actory":9847,"ĠDevelopment":9848,"Ġà¦ħà§Łà¦¨à¦ķ":9849,"à¦ĩà¦·à¦·":9850,"Ġà¦ĵà¦¨à¦¨à¦ķ":9851,"ĠAsiatic":9852,"ºçľºçľºçľºçľºçľºçľºçľºçľºçľºçľºçľºçľºçľºçľºçľºçľ":9853,"·çľ·çľ·çľ·çľ·çľ·çľ·çľ·çľ·çľ·çľ·çľ·çľ·çľ·çľ·çľ·çľ":9854,"digital":9855,"ystic":9856,"à¦¤à§Łà¦Ńà¦¸":9857,"Ġà¦łà¦¨à¦łà¦¨":9858,"ĠIntegr":9859,"Ġfever":9860,"ĠYouTube":9861,"yesha":9862,"à«į":9863,"à¦ıà¦Ĩà¦ĩà¦¯":9864,"Ġà¦ħà¦¬à§Łà¦¬à¦¹":9865,"Ġart":9866,"Ġdrink":9867,"à§§à§¯à§®à§«":9868,"uravas":9869,"Ġrain":9870,"ĠâĨĴ":9871,"Ġbreast":9872,"rahm":9873,"Ġmountains":9874,"Ġflies":9875,"ĠSelect":9876,"ĠCulture":9877,"ĠLalon":9878,"ĠLanguages":9879,"Ġweariness":9880,"Ġoriginal":9881,"Ġroots":9882,"Ġsoftly":9883,"ION":9884,"Ġidentity":9885,"Ġspeak":9886,"ĠOffice":9887,"Ġpitri":9888,"ĠGandhar":9889,"Ġcontinu":9890,"Reduce":9891,"cinth":9892,"murous":9893,"rvasi":9894,"Ġà¦ªà¦ĩà¦¸à¦ĩ":9895,"à¦¡à¦¸à¦ĵà¦ħà§°":9896,"Ġmurmurous":9897,"ĠSukumar":9898,"ĠPargiter":9899,"ĠPaurava":9900,"ĠCrookes":9901,"Ġeaseful":9902,"ĠDurga":9903,"ĠThames":9904,"Ġhundred":9905,"ĠHyacinth":9906,"!âĢĵ":9907,").":9908,")âĢĶ":9909,")âĢĻ":9910,"-âĢĻ":9911,".,":9912,"48":9913,"49":9914,"50":9915,"CU":9916,"Comp":9917,"IF":9918,"MO":9919,"OO":9920,"OR":9921,"PM":9922,"Relig":9923,"SI":9924,"Se":9925,"UM":9926,"What":9927,"You":9928,"aud":9929,"bi":9930,"br":9931,"bas":9932,"cl":9933,"cess":9934,"comp":9935,"cult":9936,"ches":9937,"cutta":9938,"den":9939,"ding":9940,"del":9941,"ee":9942,"ech":9943,"elet":9944,"gards":9945,"ij":9946,"ier":9947,"ied":9948,"ient":9949,"ios":9950,"ium":9951,"ji":9952,"lu":9953,"lled":9954,"mal":9955,"mit":9956,"mot":9957,"matic":9958,"nation":9959,"night":9960,"oon":9961,"ole":9962,"ool":9963,"over":9964,"ood":9965,"oint":9966,"ple":9967,"ply":9968,"ppen":9969,"rs":9970,"rul":9971,"rus":9972,"rist":9973,"rup":9974,"rings":9975,"ss":9976,"sil":9977,"the":9978,"tal":9979,"vent":9980,"wor":9981,"water":9982,"ward":9983,"yo":9984,"ype":9985,"yanta":9986,"¦ģ":9987,"Ã¶":9988,"Ä±":9989,"Î±":9990,"Ïħ":9991,"Ð·":9992,"×ŀ":9993,"Ø¶":9994,"Ø·":9995,"Ú¯":9996,"ÚĨ":9997,"à©":9998,"à¬":9999,"àµ":10000,"áŀ":10001,"â¦ģ":10002,"ä¸":10003,"ï¼":10004,"ĊĊ":10005,"Ġ2":10006,"Ġ3":10007,"Ġ7":10008,"Ġz":10009,"Ġ|":10010,"ĠÎ":10011,"Ġer":10012,"Ġut":10013,"Ġess":10014,"Ġif":10015,"Ġ10":10016,"ĠÚ©":10017,"ĠÙ¾":10018,"ĠÚĨ":10019,"ĲâĨ":10020,"ĳĺ":10021,"Ķáĥ":10022,"Ŀáĥ":10023,"łáĥ":10024,"Ġà¦ģ":10025,"Ġà¦Ĥ":10026,"à¦¾_":10027,"à¦¾à¦¿":10028,"à¦¾à§ĩ?":10029,"à¦¾âĢį":10030,"à§ĩà¦¿":10031,"à§ĩà§ģ":10032,"à§ĩÂŃ":10033,"à§ĩÂ·Â·Â·":10034,"à§ĩà§įà¦ģ":10035,"à¦°à¦°à¦¸":10036,"à¦°à¦°à¦¹":10037,"à¦°à¦²à¦¬":10038,"à¦°à¦Ŀà¦¡":10039,"à¦°à¦ĭà¦¤":10040,"à¦°à¦īà¦ĩà¦¨":10041,"à¦°afi":10042,"à§įâĢĻ;":10043,"à¦¿Â¤":10044,"à¦¨å":10045,"à¦¨à¦°à¦¥":10046,"à¦¨à¦¹à¦¸":10047,"à¦¨à¦®à¦²":10048,"à¦¨à¦¶à¦¬":10049,"à¦¨à¦¦à¦²":10050,"à¦¨à¦ĩà¦¤":10051,"à¦¨à¦Ŀà¦°":10052,"à¦¨à¦īà¦¤":10053,"à¦¤à¦ĵà¦¯":10054,"à¦¤à¦Ĺà¦¨":10055,"à¦¤à¦¸à¦¤":10056,"à¦¤à¦·à¦Ł":10057,"à¦¤à¦ľà¦¨à¦¨":10058,"à¦¤à§İà¦ªà¦°à¦¤":10059,"à¦²à§İ":10060,"à¦²à¦ľà¦¨":10061,"à¦²à¦°à¦ķ":10062,"à¦²à¦¤à¦¬":10063,"à¦²à¦®à¦¯":10064,"à¦²à¦Ĺà¦¨":10065,"à¦²à¦ªà¦Ł":10066,"à¦²à¦Ŀà¦°":10067,"à¦²à¦ļà¦¡":10068,"à¦²à¦ªà§ľ":10069,"à¦²à¦¦à¦¸":10070,"à¦²à¦ĺà¦¡":10071,"à¦²à§İà¦ľ":10072,"à¦ķà¦·à¦£":10073,"à¦ķà¦¤à¦¨":10074,"à¦ķà¦ķà¦²":10075,"à¦ķà¦¦à¦¨":10076,"à¦ķà¦·à¦¤":10077,"à¦ķà¦¦à¦²":10078,"à¦ķà¦§à¦°":10079,"à¦ķà¦¸à¦®à¦¯":10080,"à¦ķà¦ľà¦®":10081,"à¦ķà§Łà¦²":10082,"à§ģ]":10083,"à§ģâĢĿà¥¤":10084,"à§ģâĢ¦.":10085,"à§ģÂ·Â·Â·":10086,"à¦¬à¦·":10087,"à¦¬à¦«":10088,"à¦¬à¦Ĺà¦²":10089,"à¦¬à¦¦à§Ł":10090,"à¦¬à¦Ĺà¦¨":10091,"à¦¬à¦¶à¦¬":10092,"à¦¬à¦£à¦ķ":10093,"à¦¬à¦īà¦ķ":10094,"à¦¬à¦®à¦ª":10095,"à¦¬à¦īà¦Ł":10096,"à¦¬à§İà¦¸à¦®":10097,"à¦¯à¦¸à¦¬":10098,"à¦¯à¦¤à¦¬":10099,"à¦¯à¦°à¦¥":10100,"à¦¯à¦¦à¦¯":10101,"à¦¯à¦¨à¦¨":10102,"à¦¯à¦¶à¦°":10103,"à¦®à¦¤à¦°":10104,"à¦®à¦¦à¦¨":10105,"à¦®à¦¸à¦°":10106,"à¦®à¦Ĺà¦ľ":10107,"à¦®à¦Ńà¦°":10108,"à¦®à§Ŀ":10109,"à¦®à¦¦à¦Ĺ":10110,"à¦¼âĢĻâĢĶ":10111,"à¦¼âĢ¦à¥¤":10112,"à¦¼âĢĿâĢĶ":10113,"à¦¼âĢĿ,":10114,"à§ĭâĢĮ":10115,"à§ĭâĢĻ-":10116,"à§ĭâĢĿâĢĵ":10117,"Ġà¦ķà¦ľ":10118,"Ġà¦ķà¦ªà¦°":10119,"Ġà¦ķà¦¬à¦¤":10120,"Ġà¦ķà¦¸à¦¬":10121,"Ġà¦ķà¦¹à¦°":10122,"Ġà¦¬à¦ĵà§Ł":10123,"Ġà¦¬à¦¢":10124,"Ġà¦¬à¦ĸà¦°":10125,"Ġà¦¬à¦¶à¦¤":10126,"Ġà¦¬à¦ĸà¦¶":10127,"Ġà¦¸à¦·":10128,"Ġà¦¸à¦£":10129,"Ġà¦¸à¦¦à§Ł":10130,"Ġà¦¸à¦Ĺà¦¨":10131,"Ġà¦ªà¦¦à¦°":10132,"Ġà¦ªà¦²à¦¤":10133,"à¦¸à¦¥":10134,"à¦¸à¦ªà¦°":10135,"à¦¸à¦°à¦¬":10136,"à¦¸à¦¦à¦¯":10137,"à¦¸à¦°à¦¹":10138,"à¦¸à¦ªà¦¥":10139,"à¦¸à¦ªà¦ķ":10140,"à¦¸à§İà¦ķ":10141,"à¦¸à¦¢":10142,"à¦¸à¦ľà¦®":10143,"à¦¸à¦īà¦¦":10144,"à¦¸à¦Ńà¦Ļ":10145,"Ġà¦Ĩà¦¬à¦²":10146,"Ġà¦Ĩà¦ķà¦²":10147,"Ġà¦Ĩà¦ļà¦¨":10148,"Ġà¦Ĩà¦ĩà¦¤":10149,"Ġà¦Ĩà¦Łà¦Ĺ":10150,"à¥¤..":10151,"à¦¦à¦¥":10152,"à¦¦à¦°à¦¤":10153,"à¦¦à¦ªà¦°":10154,"à¦¦à¦²à¦ķ":10155,"à¦¦à¦²à¦¬":10156,"à¦¦à¦Ľà¦¨":10157,"à¦¦à¦¤à¦¤":10158,"à¦¦à¦¬à¦§":10159,"à¦¦à¦ľà¦Ĺà¦¤":10160,"à¦¦à¦Ńà¦ķ":10161,"à¦¦à¦°à¦¤à¦®":10162,"Ġà¦¨à¦°à¦¶":10163,"Ġà¦¨à¦ĩà¦ķ":10164,"Ġà¦¨à¦Łà¦¬":10165,"Ġà¦¨à¦°à¦¬à¦²":10166,"Ġà¦¨à¦Ī":10167,"Ġà¦¨à¦¬à¦ªà¦¤":10168,"Ġà¦¨à¦ŀà¦°":10169,"Ġà¦®à¦Ń":10170,"Ġà¦®à¦Ĺà¦°":10171,"Ġà¦®à¦¥à¦¨":10172,"Ġà¦®à¦Łà¦°":10173,"Ġà¦®à¦Łà¦¨":10174,"Ġà¦®à§İà¦¸à¦°":10175,"Ġà¦®à¦ĵà¦²":10176,"à¦Łà¦¬à¦°":10177,"à¦Łà¦ķà¦¤":10178,"à¦Łà¦²à¦¤":10179,"à¦Łà¦®à¦¯":10180,"à¦Łà¦®à¦£":10181,"à¦Łà¦Łà¦²":10182,"à¦Łà¦¸à¦ķ":10183,"à¦Łà¦£à¦ª":10184,"à¦Łà¦Ĺà¦¬à¦Ĺ":10185,"à§Ģ]":10186,"à§Ģà§Ģ":10187,"à§Ģà¦ģ":10188,"à§Ģà¦ĥà¥¤":10189,"à§ĢâĢĶâĢľ":10190,"à§Ģ)à¥¤":10191,"à¦ªà¦®à¦¤":10192,"à¦ªà§İà¦¸":10193,"à¦ªà¦ľà¦²":10194,"à¦ªà¦¸à¦²":10195,"à¦ªà¦§à¦°":10196,"à¦ªà¦ľà¦Ĺà¦¤":10197,"à¦ªà§İà¦¸à¦Ļ":10198,"à¦ĩà§ľ":10199,"à¦ĩà¦¨à¦¤":10200,"à¦ĩà¦¶à¦¨":10201,"à¦ĩà¦Ĺà¦¨":10202,"à¦ĩà¦¸à¦®":10203,"à¦ĩà¦®à¦ª":10204,"à¦ĩà¦ļà¦Ł":10205,"à¦ĩà¦ľà¦Ł":10206,"à¦ĩà¦ĵà¦¨":10207,"à¦ĩà¦¶à¦¦":10208,"Ġà¦¦à¦°à¦¶":10209,"Ġà¦¦à¦®à¦¯":10210,"Ġà¦¦à¦¹à¦¤":10211,"Ġà¦¤à¦Ĺ":10212,"Ġà¦¤à¦¥à¦¨":10213,"Ġà¦¤uhin":10214,"à¦ľà¦°à¦ķ":10215,"à¦ľà¦®à¦¤":10216,"à¦ľà¦®à¦¯":10217,"à¦ľà¦ļà¦ķ":10218,"à¦ľà§Łà¦¤":10219,"à¦ľà¦ķà¦¦":10220,"à¦ľà¦®à¦¨à¦¸":10221,"à¦ľà¦¬à¦¦à¦²":10222,"à¦Ľà¦¹":10223,"à¦Ľà¦«":10224,"à¦Ľà¦ĵà¦¯":10225,"à¦Ľà¦§à¦°":10226,"à¦Ľà¦®à¦Ľà¦®":10227,"à¦¶à¦£":10228,"à¦¶à§İ":10229,"à¦¶à¦ĺ":10230,"à¦¶à¦¤à¦¬":10231,"à¦¶à¦¦à¦°":10232,"à¦¶à¦Ĺà¦²":10233,"à¦¶à¦Ńà¦°":10234,"à¦¶à§Łà¦¤":10235,"à¦¶à¦Ńà¦Ļ":10236,"Ġà¦¹à¦Ĺ":10237,"Ġà¦¹à¦¦à§Ł":10238,"Ġà¦¹à¦°à¦Ĺ":10239,"Ġà¦¹à¦ķà¦¦":10240,"Ġà¦ıà¦¤à¦°":10241,"Ġà¦ıà¦¤à¦¨":10242,"Ġà¦ıà¦¨à¦¸":10243,"Ġà¦ıà¦¨à¦²":10244,"à§Łà¦ĸ":10245,"à§Łà¦§":10246,"à§Łà¦ķà¦°":10247,"à§Łà¦¨à¦¬":10248,"à§Łà¦¸à¦Ļ":10249,"Ġà¦ħà¦ĵ":10250,"à¦ĸà§İ":10251,"à¦ĸà¦¤à¦°":10252,"à¦ĸà¦®à¦¤":10253,"à¦ĸà¦¸à¦Ļ":10254,"à¦ĸà¦ľà¦¨à¦ķ":10255,"à¦·à¦ĺ":10256,"à¦·à¦°à¦¶":10257,"à¦·à¦°à¦ĩ":10258,"à¦·à¦¬à¦¦":10259,"à¦·à¦®à¦£":10260,"à¦·à¦Ńà¦°":10261,"à¦·à¦²à¦Ĺ":10262,"à¦·à¦¦à¦Ĺ":10263,"à¦·à¦¸à¦Ł":10264,"à¦·à¦ľà¦Ĺà¦¤":10265,"à¦·à¦°à¦®à§Ł":10266,"à¦Ĺà¦ľà¦¨":10267,"à¦Ĺà¦ħ":10268,"à¦Ĺà¦¤à¦¨":10269,"à¦Ĺà¦ķà¦°":10270,"à¦Ĺà¦²à¦¨":10271,"à¦Ĺà¦°à¦²":10272,"à¦Ĺà¦¦à¦²":10273,"à¦Ĺà¦Ĺà¦£":10274,"à¦Ĺà¦°à¦¬à§İ":10275,"à¦¼à§ĩ),":10276,"à¦§à¦ĸ":10277,"à¦§à¦¤à¦°":10278,"à¦§à¦«":10279,"à¦§à¦¨à¦¤":10280,"à¦§à¦ķà¦²":10281,"à¦§à¦¹à¦¸":10282,"à¦§à¦Ĺà¦²":10283,"à¦§à¦ªà¦¤":10284,"à¦§à¦ļà¦°":10285,"à¦§à¦¬à¦ķ":10286,"à¦§à¦Ĺà¦£":10287,"à¦§à¦¶à¦°":10288,"âĢĲ":10289,"Ġà¦¯à¦¡":10290,"Ġà¦¯à¦®à¦ķ":10291,"Ġà¦¯à¦¤à¦°à¦ķà¦®":10292,"à¦¹à¦°à¦¤":10293,"à¦¹à¦¬à¦°":10294,"à¦¹à¦§à¦¨":10295,"à¦¹à¦®à¦¸":10296,"à¦¹à¦ķà¦¦":10297,"à¦¹à¦¬à¦¶à¦¤":10298,"à¦¹à¦²à¦¬à¦¶à¦¤":10299,"à¦¹à¦²à¦¬à¦¶":10300,"à¦ļà¦·":10301,"à¦ļà¦ħ":10302,"à¦ļà¦²à¦ķ":10303,"à¦ļà¦¨à¦ĵ":10304,"à¦ļà¦ªà¦Ł":10305,"à¦ļà¦°à¦ķà¦®":10306,"à¦ļà¦¸à¦¹":10307,"à¦ļà¦ľà¦¨à¦ķ":10308,"à¦ļà¦¬à¦°à¦£":10309,"à¦ļà¦ĵà§ľ":10310,"à¦£à¦¡":10311,"à¦£à¦°à¦¸":10312,"à¦£à¦ªà¦¥":10313,"à¦£à¦¬à¦ķ":10314,"à¦£à¦¸à¦Ļ":10315,"à¦£à¦¬à¦¯":10316,"à¦£à¦®à¦§":10317,"à¦£à¦¬à¦§":10318,"à¦£à¦¯à¦ľ":10319,"à¦£à¦Ńà§Ł":10320,"à¦£Åĵ":10321,"Ġà¦ķà¦°à¦°":10322,"à¦ģ!":10323,"à¦ģâĢĵ":10324,"à¦ģà¥¤âĢĻ":10325,"Ġà¦Ĺà¦Ł":10326,"Ġà¦Ĺà¦ľà¦¨":10327,"Ġà¦Ĺà¦¢":10328,"Ġà¦Ĺà¦ľà¦Ĺ":10329,"Ġà¦Ĺà¦Ĺà¦²à¦¸":10330,"à¦¡à¦¹à¦°":10331,"à¦¡à¦®à§Ł":10332,"à¦¡à¦¬à¦ĩ":10333,"à¦¡à¦ķà¦Ń":10334,"à¦¡à¦ľà¦Ł":10335,"à¦¥à¦°à¦ª":10336,"à¦¥à¦°à¦ļ":10337,"à¦¥à¦¸à¦ķ":10338,"à¦¥à¦°à¦¥à¦°":10339,"Ġà¦¶à¦ĵ":10340,"Ġà¦¶à¦ł":10341,"Ġà¦¶à¦°à¦¬":10342,"Ġà¦¶à¦ķà¦²":10343,"Ġà¦¶à¦°à¦¨":10344,"Ġà¦¶à¦°à¦¬à¦°":10345,"Ġà¦ľà¦ĵ":10346,"Ġà¦ľà¦°à¦¥":10347,"Ġà¦ľà¦°à¦¦":10348,"Ġà¦ľà§°":10349,"Ġà¦ľà¦Ĺà¦ľ":10350,"Ġà¦ľà§Łà¦¤":10351,"Ġà¦ľà¦¬à¦°à¦¦":10352,"Ġà¦ľà¦°à¦ľà¦°":10353,"Ġà¦Ńà¦·":10354,"Ġà¦Ńà¦°à¦®":10355,"Ġà¦Ńà¦ķà¦¤":10356,"Ġà¦Ńà¦Ĺà¦°":10357,"Ġà¦Ńà¦°à¦¤à¦°":10358,"Ġà¦Ńà¦Łà¦Ń":10359,"Ġà¦ļà¦ĩ":10360,"Ġà¦ļà¦°à¦¸":10361,"Ġà¦ļà¦°à¦¦":10362,"Ġà¦ļà¦°à¦ª":10363,"ĠĠâĢ¨Ċ":10364,"Ġà¦°à¦ĸ":10365,"Ġà¦°à¦¬à¦¨":10366,"Ġà¦°à¦¦à¦¨":10367,"Ġà¦°à¦Łà¦²":10368,"Ġà¦°à¦¸à¦®à¦¯":10369,"Ġà¦°à¦ĩà¦Ľ":10370,"Ġà¦°à¦¸à¦ª":10371,"Ġà¦°afi":10372,"à¦ĵà¦ªà¦°":10373,"à¦ĵà¦ľà¦¨":10374,"à¦ĵà¦¨à¦ķ":10375,"à¦ĵà¦ĺà¦°":10376,"à¦ĵà¦ĩà¦Ł":10377,"à¦ĵà¦ıà¦¸":10378,"à§ĥ.":10379,"à§ĥâĢĻ":10380,"à¦Ńà¦Ń":10381,"à¦Ńà¦¬à¦¦":10382,"à¦Ńà¦°à¦£à¦Ń":10383,"Ġà¦Ĩà¦®à¦¸":10384,"Ġà¦Ĩà¦®à¦ĵ":10385,"Ġà¦Ĩà¦®à¦Ŀ":10386,"Ġà¦Ĩà¦®à¦¸à¦¤":10387,"Ġà¦Ľà¦°à¦°":10388,"Ġà¦ıà¦ķà¦ķà¦Ł":10389,"Ġà¦ıà¦ķà¦®à¦£":10390,"Ġà¦ıà¦ķà¦°à¦Ļ":10391,"à¦Ĥ?":10392,"à¦łà¦ĺ":10393,"à¦łà¦ķà¦¬":10394,"à¦łà¦¶à¦¬":10395,"à¦łà¦ªà¦Ł":10396,"à¦łà¦ĸà¦¡":10397,"Ġà¦īà¦·à¦°":10398,"Ġà¦īà¦ĩà¦«":10399,"à¦Ļà¦¨à¦ĩ":10400,"à¦¾à¦ģâĢĿà¥¤":10401,"Ġà¦¥à¦¤":10402,"Ġà¦¥à¦¬":10403,"Ġà¦ĵà¦«":10404,"Ġà¦ĵà¦Ĺà¦°":10405,"à§ľà¦ĩ":10406,"à§ľà¦ĸ":10407,"à§ľà¦ĵ":10408,"à§ľà¦ªà¦¤":10409,"Ġà¦²à¦ª":10410,"Ġà¦²à¦ĸà¦¨":10411,"Ġà¦²à¦Ĩ":10412,"Ġà¦²à¦ĩà¦Ľ":10413,"Ġà¦²à¦Ĺà¦¬à¦Ĺ":10414,"Ġà¦²à¦Ńà¦¤":10415,"Ġà¦²à¦ķà¦¬à¦ķ":10416,"Ġà¦«à¦Łà¦°":10417,"à¦°à¦¤à¦°à¦¤":10418,"à¦°à¦¤à¦ļà¦¨":10419,"à¦°à¦¤à¦Ńà¦Ļ":10420,"Ġà¦Ĩà¦°à¦¬à¦¦":10421,"Ġà¦ĸà¦°à¦¶":10422,"Ġà¦ĸà¦¸à¦®":10423,"Ġà¦ĸà¦¸à¦¤":10424,"Ġà¦ĸà§ľà¦¬":10425,"Ġà¦¬à¦²à¦ľ":10426,"Ġà¦¬à¦²à¦ªà§Ł":10427,"Ġà¦ħà¦¨à¦¬à¦°à¦²":10428,"âĢĶ?âĢĻ":10429,"à¦¾,\"":10430,"Ġà¦ªà¦°à¦Ĺà¦£":10431,"à¦¾à¥¤[":10432,"à¦¬à¦¨à¦°à¦¸":10433,"à¦¬à¦¨à¦Ĺà¦¤":10434,"à¦¬à¦¨à¦®à§Ł":10435,"à¦¬à¦¨à¦¸à¦¹":10436,"à¦¬à¦¨à¦ĺà¦¨":10437,"à¦¬à¦¨à¦°à¦Ļ":10438,"Ġà¦¸à¦®à¦§":10439,"Ġà¦¸à¦®à¦¦à¦°":10440,"Ġà¦¸à¦®à§Łà¦¨":10441,"à¦ĸà¦¨à¦¨":10442,"à¦ĸà¦¨à¦ķ":10443,"Ġà¦ĺà¦²":10444,"Ġà¦ĺà¦°à¦¨":10445,"Ġà¦ĺà¦°à¦¹":10446,"Ġà¦ĺà¦¨à¦ķ":10447,"Ġà¦ĺà¦¨à¦¦":10448,"Ġà¦®à¦¨à¦¶à¦¨":10449,"Ġà¦®à¦¨à¦ªà¦Ł":10450,"Ġà¦®à¦¨à¦Ńà¦°":10451,"Ġà¦®à¦¨à¦¨à¦¯":10452,"Ġà¦®à¦¨à¦¨à¦ļ":10453,"à¦°à¦£à¦·":10454,"à¦°à¦£à¦ķà¦ķ":10455,"âĢĻ]":10456,"âĢĻà¥¤âĢĿ":10457,"âĢĻ?âĢĿ":10458,"à¦®à¦¨à¦ª":10459,"à¦®à¦¨à¦¬à¦¤":10460,"à¦®à¦¨à¦¨à¦¶":10461,"à¦ªà¦°à¦°":10462,"à¦ªà¦°à¦¥":10463,"à¦¼à¦¿;":10464,"à¦¼à¦¿à¥¤âĢĿ":10465,"à¦ŀà¦ĩ":10466,"à¦ŀà¦Ń":10467,"à§İà¦¹":10468,"à§İà§ľ":10469,"à§İà¦«à¦°":10470,"à¦°à¦¬à¦¸à¦¨":10471,"à¦¤à¦°à¦§":10472,"à¦¤à¦°à¦ļ":10473,"à¦¤à¦°à¦ľà¦¨":10474,"à¦¤à¦°à¦ªà¦¤":10475,"à¦Ŀà¦Ŀ":10476,"à¦ľà¦¨à¦Ĺà¦¨":10477,"à¦¿à¥¤-":10478,"à¦¿à¥¤âĢĵ":10479,"à¦īà¦§":10480,"à¦īà¦ı":10481,"à¦īà¦²à¦¤":10482,"à¦īà¦®à¦ª":10483,"à¦īà¦ªà¦ľ":10484,"à¦īà§İà¦ķà¦°":10485,"à¦¬à¦°à¦Ń":10486,"à¦¬à¦°à¦¯à¦¨":10487,"à¦°à¦ķà¦ļ":10488,"à¦°à¦ķà¦ªà¦°":10489,"à¦ªà¦¨à¦Ĺ":10490,"à¦ªà¦¨à¦ļ":10491,"à¦ªà¦¨à¦¤à¦®":10492,"à¦ªà¦¨à¦ķà¦¥":10493,"à¦ªà¦¨à¦¸à¦°à¦ķ":10494,"à¦«à¦¶":10495,"à¦ıà¦¥":10496,"à¦ıà¦¨à¦Ł":10497,"à¦ıà¦¸à¦ª":10498,"à¦ıà¦¤à¦Ĺ":10499,"à¦ıà¦°à¦ªà¦°à¦ĵ":10500,"Ġà¦¸à¦¬à¦²à¦¤":10501,"à§Į?":10502,"à¦Ĩà¦ŀ":10503,"à¦Ĩà¦«":10504,"à¦Ĩà¦ĵà¦¯":10505,"à¦Ĩà¦°à¦¸":10506,"à¦Ĩà¦Ĺà¦¤":10507,"à¦Ĩà¦Ĺà¦¨":10508,"à¦Ĩà¦ĩà¦°":10509,"à¦Ĩà¦ªà¦¸":10510,"à¦Ĩà¦ĩà¦¤":10511,"à¦Ĩà¦ĩà¦Ł":10512,"Ġà¦®à¦¤à¦ķ":10513,"Ġà¦®à¦¤à¦ĵ":10514,"Ġà¦ķà¦¥à¦¯":10515,"à¦ĺà¦Ŀ":10516,"à¦ĺà¦Ĺà¦²":10517,"à¦ĺà¦¢":10518,"à¦ĺà¦Ŀà¦°":10519,"à¦ĺà¦Ŀà¦¡":10520,"Ġà¦¡à¦¸":10521,"Ġà¦¡à¦¹à¦°":10522,"Ġà¦¡à¦¬à¦ķ":10523,"à§Īà¦Ĥ":10524,"Ġà¦Ĩà¦Ľà¦°":10525,"Ġà¦Łà¦¸":10526,"Ġà¦Łà¦¨à¦ķ":10527,"Ġà¦Łà¦ªà¦²":10528,"Ġà¦ľà¦¨à¦¬à¦²":10529,"Ġà¦ıà¦¬à¦¡":10530,"à¦¬à¦²à¦¶":10531,"à¦¬à¦²à¦Ń":10532,"Ġà¦Ŀà¦Ŀ":10533,"Ġà¦Ŀà¦ķà¦®":10534,"Ġà¦¹à¦²à¦ĩ":10535,"ĠâĢĺâĢĶ":10536,"ĠâĢĺâĢĵ":10537,"Ġà¦ĩà¦®à¦¤":10538,"Ġà¦ĩà¦¹à¦¸":10539,"Ġà¦ĩà¦®à¦²":10540,"Ġà¦ĩà¦Łà¦ķ":10541,"Ġà¦ĩà¦ľà¦°":10542,"Ġà¦ĩà¦Łà¦¬":10543,"Ġà¦ĩà¦¸à¦¹":10544,"Ġà¦ĩà¦Łà¦ª":10545,"Ġà¦ĩà¦¸à¦¸":10546,"Ġà¦ĩà¦īà¦ª":10547,"Ġà¦ĩà¦«à¦¤":10548,"à§ģà¦ģ!":10549,"à§ģà¦ģâĢĶ":10550,"à§ģà¦ģà¦ĥ":10551,"à§ģà¦ģâĢ¦":10552,"âĢĵâĢĻ":10553,"âĢĵâĢĺ":10554,"âĢĿâĢĶâĢľ":10555,"Ġà¦īà¦łà¦ļ":10556,"Ġà¦¬à¦²à¦²à¦®":10557,"Ġà¦ħà¦¬à¦¬":10558,"Ġà¦ħà¦¬à¦Ľ":10559,"à¦·à¦£à¦¸à¦¹":10560,"à¦°à¦®à¦Ĺ":10561,"à¦°à¦®à¦°à¦ķ":10562,"à¦°à¦®à¦ķà¦°":10563,"à§ĭà¦ģâĢĶ":10564,"Ġà¦ªà¦¥à¦®":10565,"Ġà¦ªà¦¥à¦®à§Ł":10566,"Ġà¦¬à¦¨à¦ľà¦¨":10567,"Ġà¦¬à¦¨à¦ĺ":10568,"Ġà¦¬à¦¨à¦®à¦²":10569,"Ġà¦¬à¦¨à¦ľà¦²":10570,"Ġà¦¬à¦¨à¦ķà¦ª":10571,"Ġà¦¬à¦¸à¦¨à¦Ĺ":10572,"Ġà¦łà¦Ĺ":10573,"à¦ħà¦ķà¦²":10574,"à¦ħà§Łà¦¨":10575,"à¦ħà¦¥à¦°":10576,"à¦ħà¦ľà¦®":10577,"à¦ħà¦ľà¦ª":10578,"à¦¤à¦¨à¦°":10579,"à¦¤à¦¨à¦¸":10580,"à¦¤à¦¨à¦ª":10581,"à¦¤à¦¨à¦ĸ":10582,"à¦¤à¦¨à¦ŀ":10583,"Ġà¦ıà¦¸à¦ıà¦¸":10584,"Ġà¦¢à¦²à¦ķ":10585,"Ġà¦¨à¦¤à¦¶":10586,"Ġà¦¨à¦¤à¦®à¦¸":10587,"Ġà¦Ĩà¦ľà¦Ł":10588,"Ġà¦Ĩà¦ľà¦Ĺà¦¬":10589,"Ġà¦ħà¦¸à¦¸":10590,"Ġà¦ħà¦¸à¦«à¦²à¦¤":10591,"à¦ķà¦²à¦Ł":10592,"à¦ķà¦²à¦Ń":10593,"à¦ķà¦²à¦¤à¦²":10594,"Ġà¦Ĩà¦Ĺà¦·":10595,"Ġà¦Ĩà¦Ĺà¦ļ":10596,"Ġà¦Ĩà¦Ĺà¦®à¦£":10597,"Ġà¦Ĩà¦Ĺà¦°à¦ĵà¦¯":10598,"à§ĩà¦ģâĢĻà¥¤":10599,"à§ĭ,âĢĻ":10600,"Ġà¦Ĩà¦ķà¦¡":10601,"à¦¸à¦¬à¦¸":10602,"à¦¸à¦¬à¦§":10603,"à¦¸à¦¬à¦ķà¦Ł":10604,"à¦¸à¦¬à¦¸à¦®à§Ł":10605,"à¦¤à¦¬à¦ľ":10606,"à¦¤à¦¬à¦¶":10607,"à¦¤à¦¬à¦¹":10608,"à¦¤à¦¬à§İ":10609,"à¦¤à¦¬à¦¸à¦¨":10610,"à¦¤à¦¬à¦¦à¦²":10611,"à¦¤à¦¬à¦ķà¦Ĺ":10612,"Ġà¦Ĩà¦¶à¦°":10613,"Ġà¦Ĩà¦¶à¦®":10614,"Ġà¦Ĩà¦¶à¦ķà¦¥":10615,"Ġà¦Ĺà¦²à¦²":10616,"Ġà¦Ĩà¦¨à¦°":10617,"Ġà¦Ĩà¦¨à¦®":10618,"Ġà¦Ĩà¦¨à¦ª":10619,"à¦ķà¦°à¦ª":10620,"à¦ķà¦°à¦ĸ":10621,"Ġà¦īà¦¦à¦°à¦¸":10622,"Ġà¦īà¦¦à¦°à¦ª":10623,"Ġà¦¤à¦¬à¦ķ":10624,"à¦¦à¦¨à¦¸à¦®":10625,"à¦¦à¦¨à¦¸à¦¹":10626,"à¦¾-âĢĺ":10627,"à¦°à¦¸à¦¦":10628,"à¦°à¦¸à¦ª":10629,"à¦°à¦¸à¦ľ":10630,"à¦°à¦¨à¦Ł":10631,"à¦²à¦ķà¦¤":10632,"à¦²à¦ķà¦®":10633,"à¦²à¦ķà¦°à¦¤":10634,"à¦¾à¦Ĥ!":10635,"à¦¾à¦ĤâĢĵ":10636,"à¦¾à¦ĤâĢ¦":10637,"à¦¾à¦ĤâĢĮ":10638,"à¦¾à¦ĤâĢĻ-":10639,"Ġà¦ħà¦°à¦ľ":10640,"Ġà¦ħà¦°à¦ľà¦¨":10641,"Ġà¦¬à¦°à¦ľ":10642,"Ġà¦¬à¦°à¦Ĺ":10643,"à¦ķà¦¤à¦²":10644,"à¦ķà¦¤à¦ĩ":10645,"à¦ķà¦¤à¦Ń":10646,"à¦ķà¦¤à¦ķà¦Ĺ":10647,"à§ĩ?\"":10648,"à¦¯à¦¬à¦ķ":10649,"à¦¯à¦¬à¦ĩà¦¤":10650,"Ġà¦¶à¦¬à¦Ĺà¦¨":10651,"à§ĭà¥¤à¥¤":10652,"à§ĭà¥¤âĢ¦":10653,"à¦¦à¦°à¦°":10654,"Ġà¦ľà¦²à¦¤":10655,"Ġà¦ľà¦²à¦Ĺ":10656,"Ġà¦ľà¦²à¦¬à¦°":10657,"Ġà¦ľà¦²à¦¹à¦¸":10658,"Ġà¦ľà¦²à¦®à¦¯":10659,"Ġà¦ľà¦²à¦¸à¦®":10660,"Ġà¦ľà¦²à¦®à¦£":10661,"Ġà¦ľà¦²à¦Ľà¦¡":10662,"à¦Ĺà¦¤à¦¸":10663,"à¦Ĺà¦¤à¦ĵ":10664,"à¦°à¦¹à¦¯":10665,"à¦°à¦¹à¦ĩ":10666,"à¦°à¦¹à¦°à¦ķ":10667,"à¦°à¦¹à¦¯à¦¨":10668,"à¦°à¦¹à¦Ńà¦°":10669,"Ġà¦¹à¦¤à¦ĩ":10670,"Ġà¦ħà¦¤à¦²à¦¤":10671,"à¦¿à¦Ĥ?":10672,"Ġà¦ħà¦Ńà¦Ļ":10673,"Ġà¦¸à¦¨à¦¨":10674,"à¦¨à¦¬à¦ĩ":10675,"à¦¨à¦¬à¦¬à¦°":10676,"à¦¨à¦¬à¦ľà¦®":10677,"à¦¨à¦¬à¦Ĺà¦£":10678,"Ġà¦¸à¦°à¦²à¦¬":10679,"à¦²à¦¤à¦ĩ":10680,"à¦§à¦¨à¦²":10681,"à¦§à¦¨à¦Ń":10682,"à¦¯à¦¤à¦²":10683,"à¦²à¦¨à¦ĸ":10684,"à¦²à¦¨à¦Ĺà¦°":10685,"à¦²à¦¨à¦ķà¦¶":10686,"à¦¯à¦ķà¦ķ":10687,"à¦¯à¦ķà¦ĵ":10688,"à¦¯à¦ķà¦ªà¦°":10689,"Ġà¦ıà¦²à¦¬":10690,"à¦®à¦¤à¦ķ":10691,"à¦Ĩà¦®à¦²à¦ķ":10692,"Ġà¦īà¦ªà¦Ľ":10693,"Ġà¦īà¦ªà¦§":10694,"Ġà¦īà¦ªà¦®à¦¨":10695,"Ġà¦īà¦ªà¦Ĺà¦¤":10696,"Ġà¦īà¦ªà¦²à¦¦":10697,"à¦ļà¦¨à¦¦":10698,"à¦Ĺà¦²à¦Ń":10699,"à¦Ĺà¦²à¦ľà¦®":10700,"à¦Ĺà¦²à¦ĺà¦Ł":10701,"à§ĩâĢĶâĢĶ":10702,"Ġà¦ķà¦²à¦®à¦ķ":10703,"à¦°à¦¦à¦¦":10704,"à¦°à¦¦à¦¶":10705,"à¦²à¦¬à¦¸":10706,"à¦ļà¦²à¦¸":10707,"à¦ļà¦²à¦ĸ":10708,"Ġà¦¸à¦¹à¦¤":10709,"Ġà¦ħà¦ªà¦¶à¦¬":10710,"Ġà¦ħà¦ªà¦¶à¦ķ":10711,"à¦®à¦²à¦¯":10712,"à¦®à¦²à¦Ń":10713,"à¦¸à¦¨à¦Ĺ":10714,"à¦°à¦ĩà¦²":10715,"à¦ªà¦¦à¦²":10716,"à¦ªà¦¦à¦¦":10717,"à¦ªà¦¦à¦£":10718,"à¦ªà¦¦à¦¸à¦Ļ":10719,"à¦°à¦ľà¦¸":10720,"à¦°à¦ľà¦ľ":10721,"à¦°à¦ľà¦¡":10722,"à¦°à¦ľà§Łà¦¨":10723,"à¦¶à¦¨à¦¶":10724,"à¦ĸà¦²à¦®":10725,"Ġà¦ķà¦¤à¦²":10726,"Ġà¦ķà¦¤à¦¶à¦¤":10727,"à¦°à¦²à¦ª":10728,"à¦¨à¦¨à¦¸":10729,"à¦¦à§Łà¦®":10730,"à¦¦à§Łà¦®à§Ł":10731,"Ġà¦¬à¦¹à¦¤":10732,"à¦ĩà¦²à¦ĩ":10733,"Ġà¦°à¦Ļà¦°":10734,"Ġà¦°à¦Ļà¦Ł":10735,"à¦ķà¦¬à¦¸à¦¤":10736,"à¦Ĺà¦¨à¦ķ":10737,"à¦Ĺà¦¨à¦¦":10738,"à¦Ĺà¦¨à¦Ĺ":10739,"à¦Ĺà¦¨à¦¹":10740,"Ġà¦ħà¦ľà¦ªà¦¥":10741,"Ġà¦ĺà¦Łà¦®":10742,"à§İà¦¸à¦ķà¦ĩ":10743,"à¦·à¦¤à¦®à§Ł":10744,"Ġà¦ħà¦ļà¦°":10745,"à¦ıà¦ĩà¦°":10746,"à¦ĩà¦¨à¦ľ":10747,"à¦ĩà¦¨à¦·":10748,"à¦ĩà¦¨à¦ļ":10749,"à¦ĩà¦¨à¦¸à¦®":10750,"à¦¼à§ĭâĢĵ":10751,"à¦¼à§ĭâĢĻ,":10752,"à¦¸à¦®à¦Ŀ":10753,"Ġà¦īà¦¨à¦ļà¦²":10754,"Ġà¦ªà¦¦à¦Ń":10755,"Ġà¦ªà¦¦à¦ĺ":10756,"à¦¬à¦¦à¦®à¦¨à¦ķ":10757,"Ġà¦ĵà¦°à¦ĵ":10758,"Ġà¦ħà¦®à¦²à¦Ń":10759,"à¦¹à¦²à¦ĩ":10760,"à¦®à¦£à¦ª":10761,"à¦®à¦£à¦¶":10762,"à¦ªà¦¥à¦°":10763,"à¦ªà¦¥à¦²":10764,"à¦ªà¦¥à¦ª":10765,"à¦ªà¦¥à¦ĩ":10766,"à¦ªà¦¥à¦ĺ":10767,"à¦¤à¦²à¦ľ":10768,"à¦¤à¦²à¦ĸ":10769,"âĢ¦\"":10770,"âĢ¦?âĢĻ":10771,"Ġà¦ķà¦®à¦«":10772,"Ġà¦ķà¦®à¦²à¦ķ":10773,"à¦¯à¦®à¦¬":10774,"à¦¯à¦®à¦¦":10775,"à¦¯à¦®à¦°à¦¹":10776,"à¦¤à¦ķà¦¨":10777,"à¦¤à¦ķà¦ĩ":10778,"à¦¨à¦ķà¦·":10779,"à¦¨à¦ķà¦°à¦£":10780,"à¦°à¦ĵà¦°":10781,"Ġà¦¶à¦¹à¦°à¦ª":10782,"à¦¤à¦¤à¦ĩ":10783,"à¦°à¦Ńà¦¬à¦¨":10784,"à¦·à¦ķà¦®à¦£":10785,"Ġà¦ħà¦ªà¦°à¦ªà¦ķ":10786,"Ġà¦Ĺà¦°à¦ľà¦¨":10787,"à¦¿à¦ģ-":10788,"à¦¿?-":10789,"à¦¿?âĢĵ":10790,"à§įâĢĮ!âĢĻ":10791,"Ġà¦¬à¦ĩà¦ĩ":10792,"à¦¤à¦®à¦ª":10793,"à¦¤à¦®à¦§":10794,"à¦¤à¦®à¦Ń":10795,"ĠâĢĶâĢĻ":10796,"Ġà¦Ĳà¦¸à¦¬":10797,"Ġà¦Ĳà¦°à¦ķà¦®":10798,"Ġà¦Ĳà¦®à§Ŀ":10799,"à¦¬à¦¸à¦¦":10800,"à¦¬à¦¸à¦¹":10801,"à¦ªà¦ķà¦ķ":10802,"à¦ªà¦ķà¦®":10803,"à¦ªà¦ķà¦ĩ":10804,"à¦ªà¦ķà¦ĵ":10805,"à¦Łà¦²à¦Ł":10806,"à¦Łà¦²à¦Łà¦²":10807,"à§ģ,-":10808,"Ġà¦¬à¦Ľà¦°à¦ĵ":10809,"Ġà¦«à¦²à¦¦":10810,"à¦ıà¦ķà¦¹":10811,"à¦ıà¦ķà¦Ŀ":10812,"à¦ıà¦ķà¦¸à¦®à§Ł":10813,"Ġà¦ħà¦²à¦ª":10814,"Ġà¦Ŀà¦°à¦ª":10815,"à¦ħà¦¨à¦Ń":10816,"à§ĩ;-":10817,"à§°à¦¬à¦²":10818,"à§°à¦¬à§°":10819,"à¦¿âĢĶâĢĿ":10820,"à¦¶à¦ķà¦£":10821,"à¦¶à¦ķà¦¥":10822,"à¦¬à¦ķà¦§":10823,"à¦¬à¦ķà¦ĵ":10824,"à¦®à§Łà¦¨":10825,"à§Łà¦¨à¦¶":10826,"à¦¼à§ĩà¥¤âĢ¦":10827,"à¦§à¦¤à¦Ń":10828,"à¦¹à¦¨à¦Ĺ":10829,"à¦ľà¦²à¦ĵ":10830,"à¦®à¦¬à¦ĩà¦Ĺ":10831,"Ġà¦¶à¦¤à¦¸":10832,"Ġà¦¶à¦¤à¦Ł":10833,"Ġà¦¶à¦¤à¦¸à¦¹à¦¸":10834,"Ġà¦ĩà¦¨à¦²":10835,"Ġà¦ĩà¦¨à¦«à¦°":10836,"Ġà¦Ĩà¦§à¦¸":10837,"Ġà¦Ĩà¦§à¦¹":10838,"Ġà¦Ĩà¦§à¦Ń":10839,"Ġà¦Ĩà¦§à¦®à¦¯":10840,"à¦·à¦°à¦°":10841,"à¦ľà¦°à¦Ł":10842,"Ġà¦°à¦¬à¦¸à¦¨":10843,"à¦°à¦Łà¦¨":10844,"à¦¨à¦°à¦Ĺ":10845,"à§ĩâĢĵà¥¤":10846,"à§ĩâĢĵâĢĿ":10847,"à¦¬à¦¬à¦¹":10848,"à¦¬à¦¬à¦¶à¦¤":10849,"à¦ķà¦¨à¦ª":10850,"à¦ķà¦¨à¦Ĺ":10851,"à¦¾!)":10852,"Ġà¦Ĩà¦¦à¦®à¦ľ":10853,"à¦¯à¦¸à¦¦":10854,"à¦¯à¦¸à¦ŀ":10855,"Ġà¦¬à§ľà¦ľ":10856,"Ġà¦Ĩà¦Ļà¦°":10857,"Ġà¦Ĺà¦¤à¦ķà¦²":10858,"Ġà¦īà¦²à¦«":10859,"Ġà¦īà¦²à¦Łà¦ª":10860,"à¦¼à§ģâĢĵ":10861,"à¦¨à¦Ĺà¦łà¦¨":10862,"Ġà¦¬à¦²à¦¬à¦ĩ":10863,"Ġà¦īà¦ªà¦°à¦ĵ":10864,"Ġà¦¬à§Łà¦¸à¦ķ":10865,"à¦°à¦ľà¦¨à¦®":10866,"à¦¨à¦²à¦ĸ":10867,"Ġà¦Ńà§Łà¦ĩ":10868,"à¦Ĺà¦ľà¦ĩ":10869,"Ġà¦ĭà§Ł":10870,"à¦¼à§ĢâĢĻ":10871,"à¦¸à¦«à¦°à¦®":10872,"à¦¸à¦«à¦Łà¦ĵà§Ł":10873,"à¦¸à¦ķà¦ĩ":10874,"à¦°à¦Ĺà¦ķ":10875,"à¦°à¦Ĺà¦£à¦ķ":10876,"à¦°à¦Ĺà¦łà¦¨":10877,"à§ĭ?âĢ¦":10878,"Ġà¦ĺà¦¨à¦¶":10879,"Ġà¦ĺà¦¨à¦¤à¦°":10880,"à¦¬à¦¶à¦¤à¦ĩ":10881,"à¦·à¦®à¦®":10882,"Ġà¦īà§İà¦¸à¦¬à¦ª":10883,"Ġà¦¦à¦²à¦ĵ":10884,"à¦ľà¦¸à¦ªà¦¤":10885,"à¦¾âĢĻ)":10886,"!âĢĿà¥¤":10887,"à¦®à¦¸à¦Ń":10888,"à¦ĩà¦¤à¦¸":10889,"à¦ªà¦·à¦ľ":10890,"Ġà¦ıà¦¨à¦ľà¦¯":10891,"à¦¾âĢĵ!":10892,"Ġà¦Ĩà¦ªà¦£":10893,"Ġà¦ķà¦·à¦Ľ":10894,"à¦ĩà¦Łà¦¹":10895,"Ġà¦ħà¦Łà¦²à¦Ń":10896,"Ġà¦¬à¦ķà¦§":10897,"Ġà¦īà§İà¦¸à¦¬à¦®à¦£":10898,"à¦¦à¦®à¦§":10899,"à¦¦à¦®à¦ł":10900,"à¦¦à¦®à¦¦à¦®":10901,"à§ĩà¥¤âĢĿâĢĶ":10902,"à¦Ĺà¦¬à§İ":10903,"à¦Łà¦¬à¦ĩà¦¯":10904,"Ġà¦¤à¦¤à¦¸":10905,"à¦Ĩà¦²à¦ª":10906,"à¦Ĩà¦²à¦¹":10907,"à¦Ĩà¦²à¦Ĺà¦°":10908,"à¦²à¦¸à¦Ł":10909,"âĢĻ,-":10910,"à¦®à¦°à¦£à¦¶":10911,"à¦®à¦°à¦£à¦¹":10912,"à¦®à¦°à¦£à¦¸à¦Ń":10913,"à¦®à¦¹à¦®":10914,"à¦®à¦¹à§İ":10915,"à¦Ĺà¦®à¦ĵ":10916,"Ġà¦Ĺà¦£à¦ķ":10917,"Ġà¦Ĺà¦£à¦¶":10918,"Ġà¦Ĺà¦£à¦¹":10919,"Ġà¦Ĺà¦£à¦ļ":10920,"Ġà¦Ĺà¦£à¦Ń":10921,"Ġà¦Ĺà¦£à¦¸à¦®":10922,"Ġà¦¨à¦°à¦®à¦Ń":10923,"à¦łà¦ķà¦®":10924,"à¦łà¦ķà¦ª":10925,"à¦łà¦ķà¦ĩ":10926,"à¦łà¦ķà¦¶":10927,"à¦łà¦ķà¦ĵ":10928,"à¦łà¦ķà¦łà¦ķ":10929,"Ġà¦¦à¦¶à¦ĸ":10930,"Ġà¦¸à¦¦à¦Ń":10931,"à¦ķà¦¥à¦¯":10932,"à¦ķà¦¥à¦ŀ":10933,"à¦²à¦Ĺà¦¹":10934,"à¦²à¦Ĺà¦Ĺà¦¨":10935,"?âĢĿ,":10936,"Ġà¦ķà¦²à¦ķà¦¤":10937,"à¦¼à¦Ĥà¥¤":10938,"à¦¿!!":10939,"à¦¶à¦²à¦Ł":10940,"Ġà¦¨à¦ľà¦°à¦¬à¦¨":10941,"Ġà¦ķà¦ªà¦ļ":10942,"à¦·à§Łà¦ĩ":10943,"à¦·à§Łà¦ļ":10944,"à¦·à§Łà¦ĵ":10945,"à¦ķà¦°à¦£à¦Ł":10946,"Ġtow":10947,"Ġtri":10948,"à¦¥à¦ķà¦·":10949,"à¦®à¦ľà§Ł":10950,"à¦®à¦ľà¦¡":10951,"à¦®à¦ľà¦Ĺà¦¤":10952,"à¦¦à¦Ĺà¦£":10953,"à¦®à¦¶à¦°à¦£":10954,"à¦®à¦¶à¦ķà¦°":10955,"à¤¢":10956,"à¤§":10957,"à¤«":10958,"à¤¼":10959,"à¤ĸ":10960,"à¤Ľ":10961,"à¤Ń":10962,"Ġà¦ķà§Łà¦ķà¦Ł":10963,"à¦ķà§ľà¦¬":10964,"à¦¹à¦¯à¦¬à¦¨":10965,"Ġà¦ľà§Łà¦¶":10966,"Ġà¦ľà§Łà¦ªà¦¤":10967,"Ġà¦¸à¦°à¦²à¦ļ":10968,"Ġà¦¸à¦°à¦²à¦®à¦¨":10969,"à¦¬à¦Ńà¦¬à¦¨":10970,"à¦ıà¦¸à¦¬à¦ķ":10971,"à¦ªà§ľà¦¤":10972,"à¦¨à¦¶à¦¤":10973,"à¦¨à¦¶à¦Ł":10974,"Ġà¦ļà¦¨à¦®à¦¨":10975,"à¦Ĺà¦£à¦ľ":10976,"à¦Ĩà¦ķà¦¬à¦°":10977,"Ġà¦°à¦¸à¦ľ":10978,"à¦¡à¦¬à¦ľ":10979,"à¦¡à¦¬à¦ľà¦¨à¦¨":10980,"Ġà¦¸à¦ľà¦²à¦¤":10981,"à¦ļà§Łà¦Ł":10982,"à¦¹à¦®à¦®à¦¤":10983,"ines":10984,"ince":10985,"inary":10986,"à¦¯à§İà¦ĵ":10987,"à¦¯à§İà¦¸à¦¬":10988,"Ġà¦¨à¦Ĺà¦°à¦°à¦ķ":10989,"à¦ĩà¦¡à¦¶":10990,"à¦ĩà¦¡à¦¸à¦¹":10991,"à¦·à¦¦à¦¸":10992,"à§ĩâĢ¦âĢĿâĢĶ":10993,"Ġà¦¸à§İà¦ļà¦ķ":10994,"Ġà¦®à¦¦à¦¦":10995,"Ġà¦®à¦¦à¦ĵ":10996,"Ġà¦Ĭà¦ł":10997,"Ġà¦¬à¦ľà¦¦":10998,"Ġà¦¬à¦ľà¦ª":10999,"à¦®à¦ļà¦ŀ":11000,"Ġà¦ľà§ľà¦¸à§ľ":11001,"à¦¼;âĢĶ":11002,"à¦®à¦ªà¦ŀ":11003,"Ġà¦ķà¦²à¦®à¦ĩ":11004,"Ġà¦Ĩà¦ĩà¦¨à¦®":11005,"Ġà¦Ĩà¦ĩà¦¨à¦Ł":11006,"Ġà¦¶à¦ªà¦¥à¦Ł":11007,"Ġà¦¤à¦¨à¦ŀ":11008,"à¦¬à¦§à¦®":11009,"à¦Łà¦Ľà¦¡":11010,"à¦Ĺà¦°à¦£à¦®":11011,"à¦ĩà¦Ńà¦¨":11012,"à¦¿âĢĻ!âĢĿ":11013,"à¦ľà§Łà¦ª":11014,"à¦ľà§Łà¦§":11015,"à¦ļà¦Łà¦ªà¦Ł":11016,"à¦²à¦Ńà¦Ļ":11017,"à¦ĸà¦ķà¦ĩ":11018,"à¦¬à¦£à¦§":11019,"à¦¤à¦Ńà¦Ļ":11020,"rest":11021,"Ġà¦ªà¦²à¦ķà¦¹":11022,"Ġà¦Ĩà¦ļà¦°à¦£à¦Ĺ":11023,"Ġà¦Ĩà¦ļà¦°à¦£à¦ĵ":11024,"à¦¬à¦Łà¦Ł":11025,"à¦£à¦¬à¦Ļ":11026,"à¦¨à§Łà¦¨à¦ĩ":11027,"Ġà¦ıà¦°à¦ķà¦®à¦ĵ":11028,"ony":11029,"onet":11030,"à¦¬à¦ľà¦¨à¦¨":11031,"à¦¾à¦ĥâĢ¦":11032,"à¦¦à¦¶à¦¦":11033,"à¦¦à¦¶à¦ľà¦¨":11034,"à¦¡à¦¬à¦¦à¦¹à¦¨":11035,"à¦¶à¦¤à¦¶":11036,"à¦¶à¦¤à¦§à¦¨":11037,"à¦Ĩà¦Ĺà¦®à¦¨":11038,"à¦¬à¦°à¦¤à¦¤":11039,"à§Łà¦®à¦®":11040,"à¦®à¦®à¦ŀ":11041,"à§ĩâĢĻ!":11042,"à§Ńà§Ń":11043,"à¦¤à¦Ĺà¦Ļ":11044,"Ġà¦°à¦¥à¦Ł":11045,"Ġà¦¨à¦°à¦ªà¦¤":11046,"alcutta":11047,"à¦ħà¦¸à¦¬à¦°":11048,"Ġthee":11049,"Ġthen":11050,"Ġà¦Ŀà§ľà¦¤":11051,"Ġà¦Ŀà§ľà¦¬":11052,"Ġà¦Ŀà§ľà¦ĩ":11053,"Ġà¦Ŀà§ľà¦Ŀà¦ŀ":11054,"à¦Ĩà¦¶à§Ł":11055,"à¦Īà¦¨":11056,"ery":11057,"eries":11058,"Ġà¦ľà¦Ĺà¦Ł":11059,"Ġà¦ľà¦Ĺà§İà¦¸":11060,"à§®à§¦":11061,"à§®à§¨":11062,"Ġà¦Ķà¦¦à¦°":11063,"à¦¾âĢ¦.":11064,"à¦¾âĢ¦à¥¤âĢĿ":11065,"à¦¾âĢ¦âĢĿâĢĶ":11066,"à¦¾âĢĿ!":11067,"Ġà¦ķà¦«à¦¨":11068,"Ġà§©à§¯":11069,"Ġauth":11070,"Ġaway":11071,"à¦¯à¦Łà¦ķà¦°":11072,"orn":11073,"Ġwhe":11074,"Ġwid":11075,"Ġà¦®à¦Ĺà¦Ł":11076,"Ġsc":11077,"Ġsus":11078,"Ġsist":11079,"Ġsweet":11080,"Ġsense":11081,"itc":11082,"itation":11083,"itory":11084,"ities":11085,"itual":11086,"Ġà¦ĩà¦¸à¦ĸ":11087,"arb":11088,"arnation":11089,"Ġà¦ķà¦ļà¦¸":11090,"Ġà¦ķà¦ļà¦ĵ":11091,"Ġà¦¬à¦ªà¦¨à¦ķ":11092,"Ġà¦Ĩà¦ĸà¦ĸ":11093,"à¦ĩà¦ªà¦Ĺ":11094,"à¦¾:-":11095,"Ġà¦ĸà¦°à¦ļà¦Ł":11096,"Ġà¦ĸà¦°à¦ļà¦ĩ":11097,"à¦¿âĢ¦.":11098,"à¦¿âĢ¦..":11099,"à¦¿âĢ¦âĢĿà¥¤":11100,"à¦¿âĢ¦âĢĿâĢĶ":11101,"Ġà¦¸à¦¤à¦°à¦ŀ":11102,"oud":11103,"oubt":11104,"Ġbl":11105,"Ġboy":11106,"Ġbird":11107,"Ġbizarre":11108,"Ġborn":11109,"à¦ĭà§Ł":11110,"à¦ĭà¦Ĺà¦¬":11111,"à¦¾?âĢĻâĢĶ":11112,"à¦ħà¦²à¦Ļ":11113,"Ġà¦ķà¦®à¦²à¦ķà¦²":11114,"Ġà¦ıà¦¡à¦Ń":11115,"anda":11116,"Ġmess":11117,"Ġmind":11118,"Ġmarri":11119,"Ġà¦¬à¦¦à¦Ń":11120,"Ġà¦¬à¦¦à¦ĸà§İ":11121,"Ġà¦ħà¦¬à¦¨à¦¬":11122,"Ġà¦ªà¦¥à¦ļà¦²à¦¤":11123,"Ġcent":11124,"Ġcun":11125,"Ġcome":11126,"Ġcattle":11127,"Ġover":11128,"Ġà¦ĭà¦£à¦ĩ":11129,"Ġà¦ĭà¦£à¦¶":11130,"à§ĭâĢĻâĢĵ":11131,"Ġà¦Ńà¦°à¦¤à¦¸":11132,"Ġà¦ľà¦Ĺà§İà¦Ĺ":11133,"ĠID":11134,"ĠII":11135,"ĠIX":11136,"Ġà¦®à¦Ĺà¦ľà¦ķ":11137,"Ġfut":11138,"Ġflow":11139,"Ġfather":11140,"Ġnat":11141,"Ġnames":11142,"Ġà¦Ĩà¦Łà¦ļ":11143,"Ġà¦Ĩà¦Łà¦ĺ":11144,"ilsa":11145,"à¦²à¦°à¦ŀ":11146,"à¦°à¦¬à¦£à¦¯":11147,"à§ģà¦Ĥ-":11148,"à¦ĺà¦Łà¦¨à¦ªà¦Ł":11149,"à§ĢâĢĻ;":11150,"à§ĢâĢĻâĢĵ":11151,"à¦ħà¦ªà¦¹":11152,"Ġà¦ķà§ľà¦ļ":11153,"Ġà§§à§¯à§Ńà§ª":11154,"à¦¾?âĢĿâĢĶ":11155,"à¦£à¦Ĺà¦ŀ":11156,"ĠOf":11157,"ĠOr":11158,"ĠOut":11159,"Ġà¦®à¦°à¦£à¦«":11160,"Ġà¦Ĩà¦ĩà¦ļ":11161,"Ġà¦Ĺà¦Ĺà¦¨à¦®":11162,"Ġà§ªà§¬":11163,"Ġdre":11164,"Ġdes":11165,"Ġdel":11166,"Ġdet":11167,"Ġdem":11168,"Ġdist":11169,"Ġdest":11170,"Ġdaw":11171,"Ġdivide":11172,"Ġdoubt":11173,"à¦¯à¦°à¦ķà¦®à¦ĵ":11174,"ĠSha":11175,"ĠSir":11176,"ĠSag":11177,"ĠSri":11178,"ĠSpe":11179,"ĠSTEM":11180,"à¦¬à¦Ľà¦°à¦ĸ":11181,"à¦¼à§ĩâĢĶâĢĻ":11182,"Ġà¦®à¦¹à¦°à¦°à¦®":11183,"à¦¿âĢĿ!":11184,"ichel":11185,"à¦¿.,":11186,"Ġà¦¨à¦ĸà¦Ĺ":11187,"Ġà¦¦à¦®à¦¨à¦¬":11188,"Ġà¦¦à¦®à¦¨à¦®":11189,"à¦®à¦²à¦¤à¦®":11190,"à¦£à¦°à¦ļà¦¯":11191,"Ġà¦°à¦«à¦¤":11192,"Ġpl":11193,"Ġà¦ĩà¦®à¦ªà¦¸":11194,"ĠAh":11195,"ĠAll":11196,"ĠAnn":11197,"à¦¥à¦ªà¦ŀ":11198,"learning":11199,"rod":11200,"rot":11201,"Ġà§«à§¨":11202,"Ġà§«à§ª":11203,"Ġà§«à§®":11204,"Ġà§«à§¦à§¦à§¦":11205,"ash":11206,"ases":11207,"à¦®à¦¸à¦®à§°":11208,"ĠPk":11209,"ĠPar":11210,"ĠPhilosophy":11211,"Ġà§§à§¦à§®":11212,"à¦¬à¦ªà¦¨à¦¬":11213,"Ġà¦ķà¦¦à¦®à¦Ľ":11214,"Ġà¦ķà¦¦à¦®à¦Ĺ":11215,"à¦Ńà¦¸à¦ŀ":11216,"Ġà§§à§¯à§«à§«":11217,"Ġà§§à§¯à§«à§ª":11218,"Ġà§§à§¯à§«à§¬":11219,"ute":11220,"ution":11221,"utum":11222,"Ġind":11223,"Ġint":11224,"Ġinter":11225,"Ġinto":11226,"Ġà§§à§®à§¦":11227,"Ġà§§à§®à§¦à§¦":11228,"Ġà§§à§®à§¯à§¯":11229,"Ġà§§à§®à§¦à§§":11230,"Ġà§§à§®à§®à§¬":11231,"Ġà§§à§®à§¬à§¯":11232,"Ġà§§à§®à§¬à§Ń":11233,"ĠCl":11234,"ĠCo":11235,"ĠCha":11236,"ĠChar":11237,"ĠCass":11238,"ĠChat":11239,"ĠCalcutta":11240,"Ġà¦°à¦£à¦¤à¦°":11241,"Ġà¦ľà¦¨à¦ªà¦¦à¦ķ":11242,"Ġthou":11243,"Ġthink":11244,"ĠBa":11245,"ĠBrid":11246,"ĠBrahm":11247,"à¦¨à§Łà¦ļà¦¨":11248,"Ġà¤°":11249,"Ġà¤ķ":11250,"Ġà¤Ľ":11251,"Ġà§¬à§¦":11252,"Ġà§¬à§¨":11253,"Ġà§¬à§§":11254,"Ġà§¬à§ª":11255,"Ġà§¬à§®":11256,"Ġland":11257,"Ġliterature":11258,"Ġequ":11259,"Ġext":11260,"Ġeven":11261,"Ġearth":11262,"Ġà¦¹à¦¨à¦¨à¦ª":11263,"ĠâĢ¦..":11264,"Ġà§Ńà§¨":11265,"Ġà§Ńà§«":11266,"ĠRes":11267,"ĠRain":11268,"Ġà§§à§¨à§¦":11269,"els":11270,"à§§à§¯à§§à§":11271,"Ġà¦ĵà¦ľà¦¨à¦¹":11272,"à¦¸à§İà¦ªà¦¥":11273,"à¦ĸà¦¬à¦°à¦¦":11274,"Ġà§§à§©à§Ńà§§":11275,"Ġà§§à§©à§ªà§§":11276,"Ġà§§à§©à§ªà§¬":11277,"à§ĩ):":11278,"à§ĩ);":11279,"ĠDE":11280,"ĠDus":11281,"ĠTr":11282,"ĠType":11283,"Ġà¦ıà¦®à¦Ĩà¦°à¦Ĩà¦ĩ":11284,"à§§à§¦à§¦":11285,"Ġà¦ĸà§ľà¦ĸà§ľ":11286,"à¦Ĺà¦łà¦¨à¦ķ":11287,"urd":11288,"urch":11289,"à¦¤à¦ĸà¦°à¦ļ":11290,"Ġà¦¨à¦ķà¦²à¦ķ":11291,"ction":11292,"Ġà§§à§¯à§ªà§¯":11293,"Ġà§§à§¯à§ªà§®":11294,"Ġhig":11295,"Ġhome":11296,"Ġhym":11297,"Ġà§®à§¨":11298,"ĠModern":11299,"Ġgl":11300,"Ġgen":11301,"Ġgirl":11302,"Ġà¦ĵà¦¹à¦¹":11303,"Ġisolation":11304,"ids":11305,"Ġà¦¦à¦°à¦¦à¦¸":11306,"Ġtoo":11307,"Ġtoget":11308,"ĠLa":11309,"à¤¾à¤Ĥ":11310,"rav":11311,"rain":11312,"à¦¯à¦§à¦°à¦¨":11313,"ational":11314,"à¦¿)-":11315,"Ġà§§à§«à§¦à§¦":11316,"cept":11317,"usa":11318,"used":11319,"using":11320,"ĠHar":11321,"ĠHai":11322,"ĠHilsa":11323,"Ġhappen":11324,"Ġà¦¥à¦²à¦¥à¦²":11325,"ĠNaz":11326,"Ġà¦¤à¦ªà¦¨à¦¸":11327,"à¦Ĩà¦ĩà¦¨à¦¸":11328,"ments":11329,"áĥĿáĥ":11330,"Ġà¦¬à¦ļà¦¨à¦®à¦¬":11331,"à§ĩ!âĢĻâĢĻ":11332,"à¦Ĭà¦¨à¦¬":11333,"à¦Ĭà¦¨à¦¸à¦¤":11334,"Ġyear":11335,"à¦īà¦ªà¦°à¦¨":11336,"Ġà¦īà¦ªà¦ķà¦°à¦£à¦Ĺ":11337,"à¦ĩà¦ĵà¦Ń":11338,"Ġà¦Ľà§Łà¦¤à¦²":11339,"Ġwhose":11340,"agram":11341,"ĠEng":11342,"Ġmyst":11343,"éŁ¿éŁ¿éŁ¿éŁ¿éŁ¿éŁ¿éŁ¿éŁ¿éŁ¿éŁ¿éŁ¿éŁ¿éŁ¿éŁ¿éŁ¿éŁ¿éŁ¿éŁ¿éŁ¿éŁ¿éŁ¿éŁ¿éŁ¿éŁ¿":11344,"ĠGos":11345,"Ġkingd":11346,"Ġonce":11347,"à¦¼âĢĻ;":11348,"à¦Ĩà¦ļà¦°à¦£à¦ĩ":11349,"à¦°à¦²à§Łà¦Ļ":11350,"Ġà§§à§¯à§¬à§¨":11351,"Ġà§§à§¯à§¬à§§":11352,"Ġneed":11353,"Ġneare":11354,"Ġneigh":11355,"empor":11356,"empt":11357,"Ġhero":11358,"Ġhead":11359,"Ġheap":11360,"Ġheard":11361,"à¦®à¦ķà¦°à¦£à¦ĵ":11362,"Ġà¦«à¦¸à¦²à¦ķ":11363,"Ġà§§à§¯à§¦à§¦":11364,"ÂŃà§ĩ":11365,"ÂŃà§į":11366,"Ø§Ùĩ":11367,"Ġà¦§à¦ķà¦§à¦ķ":11368,"à§§à§©à§¬":11369,"ĠThey":11370,"Ġà¦ľà¦¹à¦°à¦¤":11371,"ĠKrishna":11372,"Ġà¦ªà¦Łà¦²à¦Ĺ":11373,"Ġà¦®à¦¦à¦¨à¦®":11374,"ively":11375,"Ġà¦°à¦ľà¦¤à¦¶":11376,"ĠReinc":11377,"ĠRehana":11378,"Ġà¦¹à¦ľà¦®à¦¶à¦ķ":11379,"Ġà§¯à§¨":11380,"Ġà§¯à§§à§":11381,"Ġà¦Ĩà¦īà¦Łà¦¬à¦ķ":11382,"Ġask":11383,"Ġà¦¬à§İà¦¸à¦¦":11384,"Ġà¦¸à¦°à¦¬à§İ":11385,"Ġstep":11386,"ï»¿âĢĻ":11387,"Ġà¦Łà¦¹à¦²à¦¦à¦²":11388,"apu":11389,"Ġà§§à§¯à§¨à§¨":11390,"Ġà§§à§¯à§©à§ª":11391,"Ġà§§à§¯à§©à§¯":11392,"ants":11393,"indran":11394,"ĠØª":11395,"ĠØ¹":11396,"Ġà¦Ĩà¦ªà¦¦à¦Ĺ":11397,"Ġà§§à§¯à§§à§§":11398,"Ġà§§à§¯à§§à§«":11399,"ipur":11400,"ĠVedic":11401,"Ġà¦Ĭà¦¨à¦ļà¦²":11402,"Ġà¦Ĭà¦¨à¦Ĩà¦¶":11403,"ÙĦØ§":11404,"ĠUnd":11405,"ĠUrvasi":11406,"Ġvine":11407,"Ġroom":11408,"à¦¨à¦°à¦ķà¦£":11409,"Ġà¦¬à¦°à¦ķà¦¨":11410,"Ġà¦ħà¦ĺà¦Łà¦¨à¦ĺà¦Łà¦¨à¦ªà¦Ł":11411,"ĠâĢĶâĢĶâĢĶâĢĶâĢĵ":11412,"Ġà§§à§¯à§¦à§¯":11413,"lish":11414,"estry":11415,"ĠÐ·":11416,"Ġseen":11417,"Ġsecon":11418,"Ġunder":11419,"Ġà¦¨à¦¬à¦¦à¦®":11420,"ended":11421,"Ġadopt":11422,"Ġà¦¢à¦ķà¦¢à¦ķ":11423,"Ġamb":11424,"!!!":11425,"à¦°à¦Ĺà¦²à¦Ńà¦¤":11426,"anga":11427,"Ġmere":11428,"Ġmeasure":11429,"Ġjust":11430,"Ġà¦Ĩà¦īà¦Łà¦²":11431,"Ġà¦®à¦ĩà¦§":11432,"à§ĭà¦ĥ!":11433,"Ġà§§à§§à§ª":11434,"Ġà§§à§§à§«":11435,"Ġà§§à§§à§®":11436,"Ð¾ÑĢ":11437,"Ġà¦°à¦¦à¦¬à¦¦à¦²":11438,"à¤¹à¤°":11439,"aste":11440,"à¸±":11441,"Ġà¦Ĩà¦ĵà¦¨à¦²":11442,"aven":11443,"ffer":11444,"onsibility":11445,"ordata":11446,"Ġ1965":11447,"Ġ196à§ª":11448,"Ġknown":11449,"ahity":11450,"ahusa":11451,"Ġë°":11452,"ĠëĪ":11453,"Ġìł":11454,"Ġà¦®à¦°à¦ķà¦¤":11455,"Ġà§©à§©à§¬":11456,"itions":11457,"à§§à§¯à§ªà§©":11458,"Ġcontempor":11459,"ief":11460,"Ã©t":11461,"à¦Ķà¦¦":11462,"à¦Ķà¦·à¦§":11463,"à¦Ķà¦ªà¦§":11464,"Ġcold":11465,"à§§à§¯à§©à§ª":11466,"TED":11467,"ÙĪØ´":11468,"ĠÑģ":11469,"ĠÑĦ":11470,"Ġimport":11471,"ought":11472,"Ġ×Ķ":11473,"à¦¼à¦¾âĢ¦à¥¤âĢĻ":11474,"Ġspring":11475,"Ġspirit":11476,"Ġclust":11477,"ĠThy":11478,"Ġhimself":11479,"Ġà¦ķà¦ĩà¦²à¦ľ":11480,"alking":11481,"ĠDevi":11482,"Ø§Ø²":11483,"ritical":11484,"Ú©ÙĦ":11485,"Ġatoms":11486,"Ġedited":11487,"ossip":11488,"ĠĠĠĠĠĠĠĠĠĠĠĠĠĠĠĠĠĠĠĠĠĠĠĠĠĠĠĠĠĠĠĠ":11489,"Ġcollection":11490,"Ġà§¨à§¦à§¦à§§":11491,"Ġà§¨à§¦à§¦à§©":11492,"ission":11493,"Ġcannot":11494,"ĠAss":11495,"Ġreflect":11496,"Ġenem":11497,"Ġwalking":11498,"Ġfew":11499,"ĠChordata":11500,"This":11501,"force":11502,"ï¿½ï¿½":11503,"Ġupon":11504,"à¦ıà¦Ĩà¦ĩà§Ł":11505,"Ġcountry":11506,"Ġbecomes":11507,"âĢķâĢķâĢķâĢķâĢķâĢķâĢķâĢķâĢķâĢķâĢķâĢķâĢķâĢķâĢķâĢķ":11508,"ĠâĨĲâĨ":11509,"Ġshall":11510,"ĠIsland":11511,"Ġà¤Ĩà¤¨":11512,"à§§à§¯à§¨à§ª":11513,"ĠâĢĶâĢĶâĢĶâĢĶâĢĶâĢĶâĢĶâĢĶâĢĶ":11514,"ĠâĢĶâĢĶâĢĶâĢĶâĢĶâĢĶâĢĶâĢĶâĢĶâĢĶâĢĶ":11515,"URE":11516,"volution":11517,"Ġà¦ľà¦łà¦°à¦ľ":11518,"Ġagain":11519,"ĠPhonet":11520,"Ġhands":11521,"áĥĺáĥ":11522,"lacebo":11523,"Ġconsci":11524,"print":11525,"Ġà¦°à¦¸à¦ķà¦·à¦¹":11526,"Ġà¦ĩà¦¨à¦Ńà¦²à¦Ńà¦®":11527,"atriot":11528,"Ġskelet":11529,"Ġsuffer":11530,"Ġsuper":11531,"Ġboth":11532,"Ġmixed":11533,"ombapu":11534,"ommun":11535,"Ġplease":11536,"ĠAtombapu":11537,"ĠRahul":11538,"ĠLikewise":11539,"Â·Â·Â·Â·âĢĻ":11540,"ĠHeat":11541,"ĠHowrah":11542,"Ġcontribut":11543,"Arjun":11544,"blem":11545,"wami":11546,"×Ļ×":11547,"ĠPublishing":11548,"ĠRajul":11549,"Ġremind":11550,"ĠInstagram":11551,"Ġbreasts":11552,"ĠOfficeBoss":11553,"ĠGandharva":11554,"Ġcontinuous":11555,"rush":11556,"rupt":11557,"×ŀ×":11558,"Ġà¦¦à¦°à¦¶à¦¨":11559,"à¦£à¦¬à¦¯à¦ľ":11560,"Ġà¦ľà¦ĵà¦¹à¦°à¦²":11561,"Ġà¦ľà¦¬à¦°à¦¦à¦ĸà¦²":11562,"Ġà¦Ńà¦Łà¦Ńà¦Ł":11563,"à¦īà¦ıà¦¬à¦²":11564,"Ġtoward":11565,"Ġauthor":11566,"Ġwidow":11567,"Ġcunning":11568,"Ġfuture":11569,"Ġdawn":11570,"ĠShah":11571,"ĠSagara":11572,"utumn":11573,"ĠCharacter":11574,"ĠCassio":11575,"ĠBridge":11576,"ĠRainwater":11577,"ĠDusyanta":11578,"Ġhigher":11579,"Ġhymn":11580,"Ġtogether":11581,"ĠHaiha":11582,"ĠNazrul":11583,"ĠEnglish":11584,"Ġnearer":11585,"ĠReincarnation":11586,"indranath":11587,"Ġsecond":11588,"ĠâĨĲâĨĴ":11589,"ĠPhonetic":11590,"Ġskeleton":11591,"!-":11592,"!?âĢĿ":11593,"!..":11594,"\"âĢĶ":11595,"',":11596,"(!)":11597,")]":11598,")à¥¤âĢĿ":11599,",/":11600,",;":11601,",âĢĶâĢľ":11602,",âĢĶâĢĺ":11603,",âĢĻâĢĶ":11604,"./":11605,"4à§¨":11606,"51":11607,"::":11608,":âĢĶ":11609,";/":11610,"??":11611,"?!âĢĿ":11612,"?..":11613,"?),":11614,"?âĢĶâĢĻ":11615,"?âĢĶ-":11616,"AL":11617,"AP":11618,"And":11619,"ANI":11620,"Ayesha":11621,"Bang":11622,"Car":11623,"Call":11624,"Cow":11625,"Cool":11626,"Cases":11627,"CTED":11628,"DG":11629,"Dig":11630,"Dance":11631,"Eco":11632,"ECU":11633,"Fade":11634,"Go":11635,"HO":11636,"IL":11637,"If":11638,"It":11639,"Mong":11640,"Much":11641,"Mystic":11642,"NA":11643,"Nahusa":11644,"OER":11645,"ODE":11646,"OMO":11647,"Ph":11648,"Phil":11649,"Placebo":11650,"QR":11651,"Rec":11652,"SH":11653,"SR":11654,"SS":11655,"So":11656,"She":11657,"Self":11658,"Sangu":11659,"STEM":11660,"SDG":11661,"Tok":11662,"Taught":11663,"TIA":11664,"TION":11665,"US":11666,"Ur":11667,"VR":11668,"Vis":11669,"VER":11670,"Word":11671,"Who":11672,"Where":11673,"XJ":11674,"aid":11675,"ause":11676,"bre":11677,"bit":11678,"bes":11679,"bed":11680,"bel":11681,"bur":11682,"bow":11683,"bra":11684,"bish":11685,"blow":11686,"bness":11687,"cc":11688,"cn":11689,"cu":11690,"cha":11691,"cus":11692,"cend":11693,"cisions":11694,"do":11695,"dle":11696,"dam":11697,"done":11698,"dney":11699,"eo":11700,"ey":11701,"ext":11702,"eep":11703,"fin":11704,"fit":11705,"fil":11706,"fic":11707,"fter":11708,"ford":11709,"factory":11710,"gu":11711,"gan":11712,"giv":11713,"gmatic":11714,"hre":11715,"hut":11716,"hill":11717,"hich":11718,"hons":11719,"horiz":11720,"iat":11721,"iot":11722,"iqu":11723,"jan":11724,"jab":11725,"ject":11726,"jna":11727,"ka":11728,"ket":11729,"kind":11730,"know":11731,"kanya":11732,"kadem":11733,"lic":11734,"line":11735,"lated":11736,"liver":11737,"lbor":11738,"lief":11739,"me":11740,"mi":11741,"mo":11742,"my":11743,"min":11744,"mor":11745,"mar":11746,"mas":11747,"mint":11748,"mlet":11749,"mber":11750,"nu":11751,"nan":11752,"ner":11753,"nic":11754,"nast":11755,"nolog":11756,"nung":11757,"oc":11758,"of":11759,"oit":11760,"oom":11761,"oot":11762,"och":11763,"ored":11764,"oons":11765,"ohi":11766,"pan":11767,"pall":11768,"pet":11769,"pid":11770,"pos":11771,"part":11772,"press":11773,"pohela":11774,"personal":11775,"ponsibility":11776,"rine":11777,"ront":11778,"rugg":11779,"riment":11780,"son":11781,"sion":11782,"sist":11783,"sues":11784,"tor":11785,"ted":11786,"ting":11787,"tur":11788,"tra":11789,"toms":11790,"touch":11791,"uv":11792,"uro":11793,"uel":11794,"uction":11795,"val":11796,"vam":11797,"vest":11798,"vious":11799,"vara":11800,"vitation":11801,"ww":11802,"wan":11803,"win":11804,"war":11805,"was":11806,"whol":11807,"xen":11808,"xist":11809,"xford":11810,"yed":11811,"yas":11812,"yce":11813,"¡°":11814,"¡Õ":11815,"¦¬":11816,"¦à¦®":11817,"¦ÙĨ":11818,"¨Ø±":11819,"¨×¢×":11820,"©æ":11821,"©áĥĲáĥ":11822,"ªn":11823,"Ã¤":11824,"ÃĹ":11825,"ÃŁ":11826,"ÃŃ":11827,"Ãªn":11828,"ÄŁ":11829,"Å¡":11830,"ÌĬ":11831,"Îº":11832,"Î»":11833,"Ïĥ":11834,"ÏĦ":11835,"Ð´":11836,"Ñİ":11837,"Ñĸ":11838,"Òĵ":11839,"Õ¥":11840,"Õ«":11841,"×¨":11842,"Ø©":11843,"Ø¬":11844,"Ø°":11845,"Øµ":11846,"Ø¹":11847,"ØŃ":11848,"Ùı":11849,"ÙĴ":11850,"Úĳ":11851,"ÛĴ":11852,"à®":11853,"ãĤ":11854,"åħ":11855,"åı":11856,"åķ":11857,"æ¸":11858,"æĭ":11859,"ç§":11860,"ê·":11861,"êī":11862,"ë¦¬":11863,"ìĨ":11864,"íĻ":11865,"ïĢ":11866,"Ġ/":11867,"Ġ5":11868,"Ġ9":11869,"Ġ}":11870,"Ġà§ĩ":11871,"Ġà§İà¦¸":11872,"Ġà§İà¦ª":11873,"Ġing":11874,"Ġlect":11875,"Ġ34":11876,"Ġign":11877,"Ġê°":11878,"ĠQR":11879,"ĢÏģ":11880,"ĤĊ":11881,"ĥÏħ":11882,"ĭľ":11883,"Įì":11884,"Ĵ¤":11885,"ĻĤ":11886,"ļáĥĺ":11887,"Ľº":11888,"ĿĽº":11889,"ŁâĢĿ":11890,"ŁĻĤ":11891,"à¦¾(":11892,"à¦¾]":11893,"à¦¾à§ģ":11894,"à¦¾à¦¼":11895,"à¦¾à¦¾à¦ģ":11896,"à¦¾à§ĩà¦ģ":11897,"à¦¾..":11898,"à¦¾âĢķ":11899,"à¦¾ÂŃ":11900,"à§ĩà¦¼":11901,"à§ĩà¦¾âĢĶ":11902,"à§ĩï¿½":11903,"à¦°à§ľ":11904,"à¦°à¦°à¦®":11905,"à¦°à¦Ĩà¦®":11906,"à¦°à¦Łà¦ķ":11907,"à¦°à¦ļà¦ķ":11908,"à¦°à¦«à¦²":11909,"à¦°à¦īà¦¨":11910,"à¦°à¦Ĩà¦°":11911,"à¦°à¦ĺà¦¨":11912,"à¦°à¦īà¦¦":11913,"à¦°à¦īà¦ľ":11914,"à¦°à¦īà¦¡":11915,"à¦°à¦ħà¦®":11916,"à¦°à¦ħà¦Ń":11917,"à¦°à¤¤":11918,"à¦°à¦Ŀà¦²à¦®à¦²":11919,"à§įâĢĿ":11920,"à§į?âĢĻ":11921,"à¦¿*":11922,"à¦¿]":11923,"à¦¿â":11924,"à¦¿à¦¿":11925,"à¦¿à¦¾à¦ģ":11926,"à¦¿à¦¾à¥¤":11927,"à¦¿..":11928,"à¦¿âĢį":11929,"à¦¨à¦Ļ":11930,"à¦¨à¦ŀ":11931,"à¦¨à§İ":11932,"à¦¨à¦ī":11933,"à¦¨à¦¨à¦¤":11934,"à¦¨à¦¸à¦¬":11935,"à¦¨à¦²à¦¤":11936,"à¦¨à¦¹à¦°":11937,"à¦¨à¦ıà¦ĩ":11938,"à¦¨à¦®à¦°":11939,"à¦¨à¦¹à¦¨":11940,"à¦¨à¦«à¦²":11941,"à¦¨à¦ľà¦¯":11942,"à¦¨à¦®à¦§":11943,"à¦¨à¦Ľà¦¬":11944,"à¦¨à¦ªà¦²":11945,"à¦¨à¦ħà¦°":11946,"à¦¨à¦ĸà¦£":11947,"à¦¨à¦Ī":11948,"à¦¨à¦Ĩà¦¨":11949,"à¦¨à¦«à¦°":11950,"à¦¨à¦¡à¦°":11951,"à¦¨à¦ĺà¦£":11952,"à¦¨à¦Ŀà¦²à¦¸":11953,"à¦¨à¦¨à¦¤à¦²":11954,"à¦¨à¦¸à¦°à¦ŀ":11955,"à¦¤à¦Ŀ":11956,"à¦¤à¦¬à¦ª":11957,"à¦¤à¦ķà¦Ł":11958,"à¦¤à¦²à¦¨":11959,"à¦¤à¦¹à¦¸":11960,"à¦¤à¦Ľà¦¨":11961,"à¦¤à¦Ńà¦¬":11962,"à¦¤à¦¶à¦ķ":11963,"à¦¤à¦¸à¦²":11964,"à¦¤à¦ľà¦°":11965,"à¦¤à¦ľà¦¯":11966,"à¦¤à¦Łà¦°":11967,"à¦¤à¦¹à¦°à¦£":11968,"à¦¤à¦¸à¦®à¦¯":11969,"à¦¤à¦Ľà¦¬":11970,"à¦¤à¦¯à¦ľ":11971,"à¦¤à§İà¦ª":11972,"à¦¤à¦Ŀà¦¡":11973,"à¦¤à¦ľà¦¨à¦¦":11974,"à¦¤à¦ķà¦¬à¦ļ":11975,"à¦²à¦·":11976,"à¦²à¦¨à¦¤":11977,"à¦²à¦ħ":11978,"à¦²à¦¤à¦¨":11979,"à¦²à¦²à¦¬":11980,"à¦²à¦Ńà¦¬":11981,"à¦²à¦¶à¦ķ":11982,"à¦²à¦Łà¦¬":11983,"à¦²à¦¦à¦Ĺ":11984,"à¦²à¦ªà¦²":11985,"à¦²à¦¶à¦°":11986,"à¦²à¦¡à¦°":11987,"à¦²à¦°à¦¹à¦¸":11988,"à¦ķà§İ":11989,"à¦ķà¦¨à¦¬":11990,"à¦ķà¦ªà¦¤":11991,"à¦ķà¦Ĺà¦¨":11992,"à¦ķà¦¯à¦¨":11993,"à¦ķà¦¹à¦¤":11994,"à¦ķà¦ĩà¦¯":11995,"à¦ķà¦Ĩà¦²":11996,"à¦ķà¦¹à¦®":11997,"à¦ķà¦®à¦ª":11998,"à¦ķà¦ħà¦²":11999,"à¦ķà¦°à¦®à§Ł":12000,"à¦ķà¦ªà¦°à¦®":12001,"à§ģà§ĭ":12002,"à§ģà§įâĢĮ":12003,"à§ģâĢ¦âĢĿ":12004,"à§ģ...":12005,"à§ģà§ģà¦ģà¦ģ":12006,"à§ģÌĬ":12007,"à¦¬à¦¸à¦¬":12008,"à¦¬à¦¯à¦¤":12009,"à¦¬à¦¯à¦¨":12010,"à¦¬à¦®à¦°":12011,"à¦¬à¦Łà¦ķ":12012,"à¦¬à¦ħà¦¨":12013,"à¦¬à¦ĺà¦°":12014,"à¦¬à¦Łà¦°":12015,"à¦¬à¦®à¦Ĺ":12016,"à¦¬à¦īà¦²":12017,"à¦¬à¦īà¦°":12018,"à¦¬à¦ľà§Ł":12019,"à¦¬à§İà¦ª":12020,"à¦¬à¦ľà¦Ĺà§İà¦ķ":12021,"à¦¯à¦«":12022,"à¦¯à¦¦à¦¨":12023,"à¦¯à¦°à¦¹":12024,"à¦¯à¦ļà¦¨":12025,"à¦¯à¦ħà¦¨":12026,"à¦¯à¦ªà¦¸":12027,"à¦¯à¦ľà¦¸":12028,"à¦¯à¦¹à¦°à¦£":12029,"à¦¯à¦²à¦Ĺ":12030,"à¦¯à¦ľà¦®":12031,"à¦¯à¦ĺà¦Ł":12032,"à¦¯à¦°à¦¹à¦¸":12033,"à¦®à¦°à¦®":12034,"à¦®à¦ķà¦¤":12035,"à¦®à¦²à¦¨":12036,"à¦®à¦Ĺà¦²":12037,"à¦®à¦°à¦²":12038,"à¦®à¦¬à¦ķ":12039,"à¦®à¦ľà¦¯":12040,"à¦®à¦Ĺà¦¬":12041,"à¦®à¦®à¦§":12042,"à¦®à¦Ńà¦¯":12043,"à¦®à¦ľà¦¨à¦ķ":12044,"à¦®à¦Ńà¦Ļ":12045,"à¦®à¦Ńà¦ķ":12046,"à¦®à¦§à¦¨à¦ķ":12047,"à¦®à¦ĺà¦£":12048,"à¦®à¦°à¦ľà¦²":12049,"à¦®à¦¦à¦¨à¦¬":12050,"à¦¼(":12051,"à¦¼/":12052,"à¦¼à§įâĢĮ":12053,"à¦¼à§ģâĢĻ":12054,"à¦¼..":12055,"à¦¼à§ĭà¥¤âĢĿ":12056,"à¦¼à§ĭà¥¤âĢĻ":12057,"à¦¼ï»¿":12058,"à§ĭ.":12059,"à§ĭà¦¾à¦ģ":12060,"à§ĭ..":12061,"à§ĭà§įà¦ģ":12062,"Ġà¦ķà¦ªà¦¨":12063,"Ġà¦ķà¦²à¦¨":12064,"Ġà¦ķà¦Ĺà¦¨":12065,"Ġà¦ķà¦¹à¦²":12066,"Ġà¦ķà¦¸à¦ķ":12067,"Ġà¦ķà¦ĩà§Ł":12068,"Ġà¦ķà¦ĩà¦¸":12069,"Ġà¦ķà¦ķà¦ĸà¦¨":12070,"Ġà¦ķà¦¹à¦ķ":12071,"Ġà¦ķà¦ĩà¦®":12072,"Ġà¦ķØ§Ø":12073,"Ġà¦ķà¦Ĩà¦°à¦¤":12074,"Ġà¦¬à¦ķà¦Ł":12075,"Ġà¦¬à¦°à¦¸":12076,"Ġà¦¬à¦¹à¦¸":12077,"Ġà¦¬à¦ĩà¦¨":12078,"Ġà¦¬à§Łà¦¨":12079,"Ġà¦¬à¦¦à¦¸":12080,"Ġà¦¬à¦°à¦¬à¦£":12081,"Ġà¦¬à¦ķà¦²à¦®":12082,"Ġà¦¸à¦Ľ":12083,"Ġà¦¸à¦¥":12084,"Ġà¦¸à¦¶à¦¨":12085,"Ġà¦¸à¦°à¦¬à¦¤":12086,"Ġà¦¸à¦ªà¦Ł":12087,"Ġà¦¸à¦¸à¦¸":12088,"Ġà¦¸à¦²à¦«":12089,"Ġà¦¸à¦ħà¦²":12090,"Ġà¦¸à¦²à¦Ļ":12091,"Ġà¦¸à¦°à¦¹à¦¸":12092,"Ġà¦¸à§±":12093,"Ġà¦¸à¦¦à¦¨à¦Ł":12094,"Ġà¦ªà§İ":12095,"Ġà¦ªà¦¬à¦°":12096,"Ġà¦ªà¦¶à¦¬":12097,"Ġà¦ªà¦ľà¦°":12098,"Ġà¦ªà¦¨à¦°":12099,"Ġà¦ªà¦ªà¦¡":12100,"Ġà¦ªà¦Ĺà¦¡":12101,"Ġà¦ªà¦ļà¦¬":12102,"Ġà¦ªà¦ĩà¦ª":12103,"à¦¸à¦Ŀ":12104,"à¦¸à¦°à¦®":12105,"à¦¸à¦¸à¦¬":12106,"à¦¸à¦²à¦¨":12107,"à¦¸à§İà¦¸":12108,"à¦¸à¦°à¦ĵ":12109,"à¦¸à¦Łà¦²":12110,"à¦¸à¦ıà¦ķ":12111,"à¦¸à¦¸à¦Ļ":12112,"à¦¸à¦Łà¦¬":12113,"à¦¸à¦Łà¦¨":12114,"à¦¸à¦Ńà¦¯":12115,"à¦¸à¦Ĺà¦£":12116,"à¦¸à¦¦à¦¸":12117,"à¦¸à¦°à¦¬à¦°":12118,"à¦¸à¦°à¦¤à¦®":12119,"Ġà¦Ĩà¦ĸà¦¨":12120,"Ġà¦Ĩà¦§à¦ķ":12121,"Ġà¦Ĩà¦ĸà¦¤":12122,"Ġà¦Ĩà¦¹à¦°":12123,"Ġà¦Ĩà¦ļà¦°":12124,"Ġà¦Ĩà¦Ĩà¦°":12125,"Ġà¦Ĩà¦ĸà¦£":12126,"Ġà¦Ĩà¦ĩà¦®":12127,"Ġà¦Ĩà¦ĵà¦²":12128,"Ġà¦Ĩà¦ļà¦¨à¦ķ":12129,"à¥Ĳ":12130,"à¥¤\"":12131,"à¥¤*":12132,"à¥¤/":12133,"à¦¦à§İ":12134,"à¦¦à¦ľà¦¨":12135,"à¦¦à¦¬à¦²":12136,"à¦¦à¦¨à¦¤":12137,"à¦¦à¦Ĺà¦¤":12138,"à¦¦à¦Ĺà¦¨":12139,"à¦¦à¦¶à¦¬":12140,"à¦¦à¦®à¦°":12141,"à¦¦à¦¬à¦¸":12142,"à¦¦à¦ļà¦°":12143,"à¦¦à¦ľà¦²":12144,"à¦¦à¦®à¦¬":12145,"à¦¦à¦ªà¦¸":12146,"à¦¦à¦ĩà¦¯":12147,"à¦¦à¦ĩà§Ł":12148,"à¦¦à¦¬à¦®":12149,"à¦¦à¦°à¦¤à¦°":12150,"à¦¦à¦Ńà¦¦":12151,"à¦¦ol":12152,"à¦¦à¦°à¦¨à¦Ĺà¦°":12153,"Ġà¦¨à¦ī":12154,"Ġà¦¨à¦ħ":12155,"Ġà¦¨à¦ķà¦Ł":12156,"Ġà¦¨à¦¬à¦ķ":12157,"Ġà¦¨à¦¬à¦²à¦¤":12158,"Ġà¦¨à¦²à¦ľ":12159,"Ġà¦¨à¦²à¦ª":12160,"Ġà¦¨à¦²à¦ĸ":12161,"Ġà¦¨à¦«à¦°":12162,"Ġà¦¨à¦ľà¦¦":12163,"Ġà¦¨à¦¬à¦²à¦¬":12164,"Ġà¦¨à¦ĺà¦¸":12165,"Ġà¦¨à¦ħà¦¬à¦²":12166,"Ġà¦¨à¦§à¦°à¦ķ":12167,"Ġà¦®à¦¬":12168,"Ġà¦®à¦ĵ":12169,"Ġà¦®à¦ľà¦¨":12170,"Ġà¦®à¦ĺ":12171,"Ġà¦®à¦Ĺà¦¤":12172,"Ġà¦®à¦²à¦¤":12173,"Ġà¦®à¦ĩà¦²":12174,"Ġà¦®à¦ķà¦¬":12175,"Ġà¦®à¦ĩà¦¨":12176,"Ġà¦®à¦ĩà¦°":12177,"Ġà¦®à¦ªà¦¸":12178,"Ġà¦®à¦¦à¦Ĺ":12179,"Ġà¦®à¦īà¦¤":12180,"Ġà¦®à¦ĵà¦¤":12181,"Ġà¦®à¦ĺà¦¬":12182,"Ġà¦®à¦°à¦ľà¦Ĺà¦¤":12183,"à¦Łà¦ł":12184,"à¦Łà¦ŀ":12185,"à¦Łà¦²à¦ķ":12186,"à¦Łà¦¨à¦ķ":12187,"à¦Łà¦ªà¦ķ":12188,"à¦Łà¦¨à¦¦":12189,"à¦Łà¦°à¦Ł":12190,"à¦Łà¦¬à¦¯":12191,"à¦Łà¦Ĺà¦¬":12192,"à¦Łà¦®à¦§":12193,"à¦Łà¦ªà¦²":12194,"à¦Łà¦Ŀà¦¨":12195,"à§Ģ/":12196,"à§Ģà¦¾":12197,"à§Ģà§į":12198,"à§Ģà§ģ":12199,"à§ĢâĢĻ-":12200,"à§ĢâĢ¦âĢĻ":12201,"à§Ģï»¿":12202,"à¦ªà¦ł":12203,"à¦ªà¦°à¦¤":12204,"à¦ªà¦ªà¦°":12205,"à¦ªà¦§à¦¨":12206,"à¦ªà¦ļà¦¨":12207,"à¦ªà¦Ĺà¦¨":12208,"à¦ªà¦Ĺà¦°":12209,"à¦ªà¦¸à¦°":12210,"à¦ªà¦ªà¦Ł":12211,"à¦ªà¦²à¦¸":12212,"à¦ªà¦Ńà¦¯":12213,"à¦ªà¦®à¦¦":12214,"à¦ªà¦ªà¦²":12215,"à¦ªà¦Ńà¦Ļ":12216,"à¦ªà¦ľà¦¨à¦¦":12217,"à¦ĩà¦°à¦ķ":12218,"à¦ĩà¦Ĩ":12219,"à¦ĩà¦ĸà¦¤":12220,"à¦ĩà¦°à¦ĩ":12221,"à¦ĩà¦¹à¦²":12222,"à¦ĩà¦Ĺà¦°":12223,"à¦ĩà¦ªà¦¥":12224,"à¦ĩà¦Ŀà¦°":12225,"à¦ĩà¦ľà¦®":12226,"à¦ĩà¦ļà¦¡":12227,"à¦ĩà¦ĵà¦°":12228,"à¦ĩà¦¸à¦®à§Ł":12229,"à¦ĩà¦ĵà¦²":12230,"Ġà¦¦à¦ĸà¦¨":12231,"Ġà¦¦à¦®à¦²":12232,"Ġà¦¦à¦°à¦ĵ":12233,"Ġà¦¦à¦²à¦²":12234,"Ġà¦¦à¦ĩà¦¬":12235,"Ġà¦¦à¦®à¦¦":12236,"Ġà¦¦à¦ĩà¦ļ":12237,"Ġà¦¤à¦ľ":12238,"Ġà¦¤à¦¶":12239,"Ġà¦¤à¦·":12240,"Ġà¦¤à¦Ļ":12241,"Ġà¦¤à¦ķà¦²":12242,"Ġà¦¤à¦°à¦¶":12243,"Ġà¦¤à¦Łà¦ķ":12244,"Ġà¦¤à¦¦à¦®":12245,"Ġà¦¤à¦¦à¦¸":12246,"Ġà¦¤à§İà¦ª":12247,"Ġà¦¤à¦¦à¦£":12248,"Ġà¦¤à¦°à¦¤à¦®":12249,"Ġà¦¤à¦ĵà¦¬":12250,"Ġà¦¤à§İà¦¸à¦¹":12251,"Ġà¦¤à¦°à¦ľà¦®":12252,"à¦ľà¦£":12253,"à¦ľà¦ľà¦¨":12254,"à¦ľà¦«":12255,"à¦ľà¦¬à¦¤":12256,"à¦ľà¦°à¦¸":12257,"à¦ľà¦°à¦¦":12258,"à¦ľà¦Łà¦²":12259,"à¦ľà§°":12260,"à¦ľà¦¦à¦®":12261,"à¦ľà¦ķà¦¥":12262,"à¦ľà¦®à¦ľ":12263,"à¦ľà¦ªà§ľ":12264,"à¦ľà¦ªà¦²":12265,"à¦ľà¦łà¦°":12266,"à¦ľà¦ªà¦°à¦®":12267,"à¦ľà¦²à¦ķà¦£":12268,"à¦ľà¦ªà¦¦à¦¬":12269,"à¦Ľà¦ĸ":12270,"à¦Ľà¦§":12271,"à¦Ľà¦£":12272,"à¦Ľà¦ŀ":12273,"à¦Ľà¦¤à¦°":12274,"à¦Ľà¦ľà¦¨":12275,"à¦Ľà¦ĺ":12276,"à¦Ľà¦¸à¦²":12277,"à¦Ľà¦ľà¦®":12278,"à¦Ľà¦¦à¦ĵ":12279,"à¦Ľà¦Ľà§ľ":12280,"à¦Ľà¦ªà¦¸à¦¹":12281,"à¦¶à¦ŀ":12282,"à¦¶à¦ªà¦¨":12283,"à¦¶à¦¤à¦¨":12284,"à¦¶à¦¬à¦¤":12285,"à¦¶à¦ĵà§Ł":12286,"à¦¶à¦¨à¦¬":12287,"à¦¶à¦ªà¦ķ":12288,"à¦¶à¦ļà¦°":12289,"à¦¶à¦²à¦¯":12290,"à¦¶à¦Ŀà¦°":12291,"à¦¶à¦ľà¦®":12292,"à¦¶à¦¤à¦Ń":12293,"à¦¶à§Łà¦Ĺ":12294,"à¦¶à¦¤à¦°à¦Ļ":12295,"à¦¶à¦°à¦ķà¦°":12296,"à¦¶à¦¬à¦¨à¦®":12297,"à¦¶à¦Ĩà¦ĩà¦¨":12298,"à¦¶à¦®à¦¨à¦ķ":12299,"à¦¶à¦°à¦Ĺà¦®à¦¨":12300,"Ġà¦¹à§ľ":12301,"Ġà¦¹à¦ŀ":12302,"Ġà¦¹à¦ķà¦°":12303,"Ġà¦¹à¦°à¦¸":12304,"Ġà¦¹à¦Łà¦ķ":12305,"Ġà¦¹à¦ľà¦°":12306,"Ġà¦¹à¦¥à¦°":12307,"Ġà¦¹à¦ķà¦ķ":12308,"Ġà¦¹à¦Łà¦¨":12309,"Ġà¦¹à¦Łà¦¸":12310,"Ġà¦¹à¦°à¦¦à¦®":12311,"Ġà¦¹à§ľà¦¹":12312,"Ġà¦¹à§ľà¦¬à§ľ":12313,"Ġà¦ıà¦Ĩ":12314,"Ġà¦ıà¦·à¦£":12315,"Ġà¦ıà¦Ĺà¦¤":12316,"Ġà¦ıà¦Ĺà¦²":12317,"Ġà¦ıà¦Ĩà¦°":12318,"Ġà¦ıà¦®à¦¡":12319,"Ġà¦ıà¦ĵà¦¤":12320,"Ġà¦ıà¦¹à¦¨à¦¬":12321,"à§Łà§Ł":12322,"à§Łà¦°à¦¨":12323,"à§Łà¦ķà¦¤":12324,"à§Łà¦¨à¦ĵ":12325,"à§Łà¦¸à¦®":12326,"à§Łà¦®à¦ª":12327,"Ġà¦ħà¦²à¦¬":12328,"Ġà¦ħà¦ĩà¦²":12329,"Ġà¦ħà¦Ŀà¦°":12330,"Ġà¦ħà¦ĩà¦Ľ":12331,"Ġà¦ħà¦ĭà¦£":12332,"à¦ĸà§Ł":12333,"à¦ĸà¦ĺ":12334,"à¦ĸà¦ĵà¦¯":12335,"à¦ĸà¦ķà¦Ł":12336,"à¦ĸà¦°à¦¸":12337,"à¦ĸà¦°à¦¹":12338,"à¦ĸà¦ļà¦¨":12339,"à¦ĸà¦¶à¦¯":12340,"à¦ĸà¦ľà¦Ĺ":12341,"à¦ĸà¦²à¦¬à¦¦":12342,"à¦·à¦ł":12343,"à¦·à¦Ŀ":12344,"à¦·à¦°à¦ªà¦°":12345,"à¦·à¦°à¦ĵ":12346,"à¦·à¦¸à¦°":12347,"à¦·à¦ļà¦ķ":12348,"à¦·à¦°à¦ļ":12349,"à¦·à¦ªà¦£":12350,"à¦·à¦¸à¦¹":12351,"à¦·à¦¬à¦¹":12352,"à¦·à¦¸à¦¸":12353,"à¦·à¦¬à¦¶à¦¤":12354,"à¦·à¦¸à¦¬à¦§":12355,"à¦Ĺà¦ĸ":12356,"à¦Ĺà¦·":12357,"à¦Ĺà§İ":12358,"à¦Ĺà¦¬à¦²":12359,"à¦Ĺà¦ĵà¦¯":12360,"à¦Ĺà¦¦à¦°":12361,"à¦Ĺà¦¨à¦ĵ":12362,"à¦Ĺà¦²à¦¤":12363,"à¦Ĺà¦°à¦¯":12364,"à¦Ĺà¦¹à¦°":12365,"à¦Ĺà¦ļà¦°":12366,"à¦Ĺà¦¸à¦Ļ":12367,"à¦Ĺà¦®à¦¬":12368,"à¦Ĺà¦ľà¦°":12369,"à¦Ĺà¦§à¦°":12370,"à¦Ĺà¦¦à¦ķ":12371,"à¦Ĺà¦ķà¦®":12372,"à¦Ĺà¦¶à¦¤":12373,"à¦Ĺà¦¸à¦¦":12374,"à¦Ĺà¦¶à¦Ļ":12375,"à¦Ĺà¦°à¦¤à¦²":12376,"à¦Ĺà¦«à¦²à¦ķ":12377,"à¦Ĺà¦¬à¦¸à¦¤":12378,"à¦Ĺà¦ľà¦¨à¦ķà¦Ń":12379,"à¦Ĺà¦¬à¦²à¦¯":12380,"à¦¼à§ĩà§ĩ":12381,"à¦¼à§ĩâĢĻ,":12382,"à¦¼à§ĩâĢ¦âĢĿ":12383,"à¦¼à§ĩâĢ¦âĢĻ":12384,"à¦§à¦§":12385,"à¦§à¦£":12386,"à¦§à§ľ":12387,"à¦§à¦ĵà¦¯":12388,"à¦§à¦°à¦¸":12389,"à¦§à¦®à¦¤":12390,"à¦§à¦ªà¦¦":12391,"à¦§à¦°à¦²":12392,"à¦§à¦ªà¦ķ":12393,"à¦§à¦¬à¦¬":12394,"à¦§à¦«à¦²":12395,"à¦§à¦¦à¦Ĺ":12396,"à¦§à¦ľà¦¨à¦ķ":12397,"à¦§à¦¯à¦ľ":12398,
[...]
