{
  "version": "1.0",
  "truncation": {
    "direction": "Right",
    "max_length": 512,
    "strategy": "LongestFirst",
    "stride": 0
  },
  "padding": {
    "strategy": "BatchLongest",
    "direction": "Right",
    "pad_to_multiple_of": null,
    "pad_id": 0,
    "pad_type_id": 0,
    "pad_token": "[PAD]"
  },
  "added_tokens": [
    {
      "id": 0,
      "content": "[PAD]",
      "single_word": false,
      "lstrip": false,
      "rstrip": false,
      "normalized": false,
      "special": true
    },
    {
      "id": 100,
      "content": "[UNK]",
      "single_word": false,
      "lstrip": false,
      "rstrip": false,
      "normalized": false,
      "special": true
    },
    {
      "id": 101,
      "content": "[CLS]",
      "single_word": false,
      "lstrip": false,
      "rstrip": false,
      "normalized": false,
      "special": true
    },
    {
      "id": 102,
      "content": "[SEP]",
      "single_word": false,
      "lstrip": false,
      "rstrip": false,
      "normalized": false,
      "special": true
    },
    {
      "id": 103,
      "content": "[MASK]",
      "single_word": false,
      "lstrip": false,
      "rstrip": false,
      "normalized": false,
      "special": true
    }
  ],
  "normalizer": {
    "type": "BertNormalizer",
    "clean_text": true,
    "handle_chinese_chars": true,
    "strip_accents": null,
    "lowercase": true
  },
  "pre_tokenizer": {
    "type": "BertPreTokenizer"
  },
  "post_processor": {
    "type": "TemplateProcessing",
    "single": [
      {
        "SpecialToken": {
          "id": "[CLS]",
          "type_id": 0
        }
      },
      {
        "Sequence": {
          "id": "A",
          "type_id": 0
        }
      },
      {
        "SpecialToken": {
          "id": "[SEP]",
          "type_id": 0
        }
      }
    ],
    "pair": [
      {
        "SpecialToken": {
          "id": "[CLS]",
          "type_id": 0
        }
      },
      {
        "Sequence": {
          "id": "A",
          "type_id": 0
        }
      },
      {
        "SpecialToken": {
          "id": "[SEP]",
          "type_id": 0
        }
      },
      {
        "Sequence": {
          "id": "B",
          "type_id": 1
        }
      },
      {
        "SpecialToken": {
          "id": "[SEP]",
          "type_id": 1
        }
      }
    ],
    "special_tokens": {
      "[CLS]": {
        "id": "[CLS]",
        "ids": [
          101
        ],
        "tokens": [
          "[CLS]"
        ]
      },
      "[SEP]": {
        "id": "[SEP]",
        "ids": [
          102
        ],
        "tokens": [
          "[SEP]"
        ]
      }
    }
  },
  "decoder": {
    "type": "WordPiece",
    "prefix": "##",
    "cleanup": true
  },
  "model": {
    "type": "WordPiece",
    "unk_token": "[UNK]",
    "continuing_subword_prefix": "##",
    "max_input_chars_per_word": 100,
    "vocab": {
      "[PAD]": 0,
      "[unused0]": 1,
      "[unused1]": 2,
      "[unused2]": 3,
      "[unused3]": 4,
      "[unused4]": 5,
      "[unused5]": 6,
      "[unused6]": 7,
      "[unused7]": 8,
      "[unused8]": 9,
      "[unused9]": 10,
      "[unused10]": 11,
      "[unused11]": 12,
      "[unused12]": 13,
      "[unused13]": 14,
      "[unused14]": 15,
      "[unused15]": 16,
      "[unused16]": 17,
      "[unused17]": 18,
      "[unused18]": 19,
      "[unused19]": 20,
      "[unused20]": 21,
      "[unused21]": 22,
      "[unused22]": 23,
      "[unused23]": 24,
      "[unused24]": 25,
      "[unused25]": 26,
      "[unused26]": 27,
      "[unused27]": 28,
      "[unused28]": 29,
      "[unused29]": 30,
      "[unused30]": 31,
      "[unused31]": 32,
      "[unused32]": 33,
      "[unused33]": 34,
      "[unused34]": 35,
      "[unused35]": 36,
      "[unused36]": 37,
      "[unused37]": 38,
      "[unused38]": 39,
      "[unused39]": 40,
      "[unused40]": 41,
      "[unused41]": 42,
      "[unused42]": 43,
      "[unused43]": 44,
      "[unused44]": 45,
      "[unused45]": 46,
      "[unused46]": 47,
      "[unused47]": 48,
      "[unused48]": 49,
      "[unused49]": 50,
      "[unused50]": 51,
      "[unused51]": 52,
      "[unused52]": 53,
      "[unused53]": 54,
      "[unused54]": 55,
      "[unused55]": 56,
      "[unused56]": 57,
      "[unused57]": 58,
      "[unused58]": 59,
      "[unused59]": 60,
      "[unused60]": 61,
      "[unused61]": 62,
      "[unused62]": 63,
      "[unused63]": 64,
      "[unused64]": 65,
      "[unused65]": 66,
      "[unused66]": 67,
      "[unused67]": 68,
      "[unused68]": 69,
      "[unused69]": 70,
      "[unused70]": 71,
      "[unused71]": 72,
      "[unused72]": 73,
      "[unused73]": 74,
      "[unused74]": 75,
      "[unused75]": 76,
      "[unused76]": 77,
      "[unused77]": 78,
      "[unused78]": 79,
      "[unused79]": 80,
      "[unused80]": 81,
      "[unused81]": 82,
      "[unused82]": 83,
      "[unused83]": 84,
      "[unused84]": 85,
      "[unused85]": 86,
      "[unused86]": 87,
      "[unused87]": 88,
      "[unused88]": 89,
      "[unused89]": 90,
      "[unused90]": 91,
      "[unused91]": 92,
      "[unused92]": 93,
      "[unused93]": 94,
      "[unused94]": 95,
      "[unused95]": 96,
      "[unused96]": 97,
      "[unused97]": 98,
      "[unused98]": 99,
      "[UNK]": 100,
      "[CLS]": 101,
      "[SEP]": 102,
      "[MASK]": 103,
      "[unused99]": 104,
      "[unused100]": 105,
      "[unused101]": 106,
      "[unused102]": 107,
      "[unused103]": 108,
      "[unused104]": 109,
      "[unused105]": 110,
      "[unused106]": 111,
      "[unused107]": 112,
      "[unused108]": 113,
      "[unused109]": 114,
      "[unused110]": 115,
      "[unused111]": 116,
      "[unused112]": 117,
      "[unused113]": 118,
      "[unused114]": 119,
      "[unused115]": 120,
      "[unused116]": 121,
      "[unused117]": 122,
      "[unused118]": 123,
      "[unused119]": 124,
      "[unused120]": 125,
      "[unused121]": 126,
      "[unused122]": 127,
      "[unused123]": 128,
      "[unused124]": 129,
      "[unused125]": 130,
      "[unused126]": 131,
      "[unused127]": 132,
      "[unused128]": 133,
      "[unused129]": 134,
      "[unused130]": 135,
      "[unused131]": 136,
      "[unused132]": 137,
      "[unused133]": 138,
      "[unused134]": 139,
      "[unused135]": 140,
      "[unused136]": 141,
      "[unused137]": 142,
      "[unused138]": 143,
      "[unused139]": 144,
      "[unused140]": 145,
      "[unused141]": 146,
      "[unused142]": 147,
      "[unused143]": 148,
      "[unused144]": 149,
      "[unused145]": 150,
      "[unused146]": 151,
      "[unused147]": 152,
      "[unused148]": 153,
      "[unused149]": 154,
      "[unused150]": 155,
      "[unused151]": 156,
      "[unused152]": 157,
      "[unused153]": 158,
      "[unused154]": 159,
      "[unused155]": 160,
      "[unused156]": 161,
      "[unused157]": 162,
      "[unused158]": 163,
      "[unused159]": 164,
      "[unused160]": 165,
      "[unused161]": 166,
      "[unused162]": 167,
      "[unused163]": 168,
      "[unused164]": 169,
      "[unused165]": 170,
      "[unused166]": 171,
      "[unused167]": 172,
      "[unused168]": 173,
      "[unused169]": 174,
      "[unused170]": 175,
      "[unused171]": 176,
      "[unused172]": 177,
      "[unused173]": 178,
      "[unused174]": 179,
      "[unused175]": 180,
      "[unused176]": 181,
      "[unused177]": 182,
      "[unused178]": 183,
      "[unused179]": 184,
      "[unused180]": 185,
      "[unused181]": 186,
      "[unused182]": 187,
      "[unused183]": 188,
      "[unused184]": 189,
      "[unused185]": 190,
      "[unused186]": 191,
      "[unused187]": 192,
      "[unused188]": 193,
      "[unused189]": 194,
      "[unused190]": 195,
      "[unused191]": 196,
      "[unused192]": 197,
      "[unused193]": 198,
      "[unused194]": 199,
      "[unused195]": 200,
      "[unused196]": 201,
      "[unused197]": 202,
      "[unused198]": 203,
      "[unused199]": 204,
      "[unused200]": 205,
      "[unused201]": 206,
      "[unused202]": 207,
      "[unused203]": 208,
      "[unused204]": 209,
      "[unused205]": 210,
      "[unused206]": 211,
      "[unused207]": 212,
      "[unused208]": 213,
      "[unused209]": 214,
      "[unused210]": 215,
      "[unused211]": 216,
      "[unused212]": 217,
      "[unused213]": 218,
      "[unused214]": 219,
      "[unused215]": 220,
      "[unused216]": 221,
      "[unused217]": 222,
      "[unused218]": 223,
      "[unused219]": 224,
      "[unused220]": 225,
      "[unused221]": 226,
      "[unused222]": 227,
      "[unused223]": 228,
      "[unused224]": 229,
      "[unused225]": 230,
      "[unused226]": 231,
      "[unused227]": 232,
      "[unused228]": 233,
      "[unused229]": 234,
      "[unused230]": 235,
      "[unused231]": 236,
      "[unused232]": 237,
      "[unused233]": 238,
      "[unused234]": 239,
      "[unused235]": 240,
      "[unused236]": 241,
      "[unused237]": 242,
      "[unused238]": 243,
      "[unused239]": 244,
      "[unused240]": 245,
      "[unused241]": 246,
      "[unused242]": 247,
      "[unused243]": 248,
      "[unused244]": 249,
      "[unused245]": 250,
      "[unused246]": 251,
      "[unused247]": 252,
      "[unused248]": 253,
      "[unused249]": 254,
      "[unused250]": 255,
      "[unused251]": 256,
      "[unused252]": 257,
      "[unused253]": 258,
      "[unused254]": 259,
      "[unused255]": 260,
      "[unused256]": 261,
      "[unused257]": 262,
      "[unused258]": 263,
      "[unused259]": 264,
      "[unused260]": 265,
      "[unused261]": 266,
      "[unused262]": 267,
      "[unused263]": 268,
      "[unused264]": 269,
      "[unused265]": 270,
      "[unused266]": 271,
      "[unused267]": 272,
      "[unused268]": 273,
      "[unused269]": 274,
      "[unused270]": 275,
      "[unused271]": 276,
      "[unused272]": 277,
      "[unused273]": 278,
      "[unused274]": 279,
      "[unused275]": 280,
      "[unused276]": 281,
      "[unused277]": 282,
      "[unused278]": 283,
      "[unused279]": 284,
      "[unused280]": 285,
      "[unused281]": 286,
      "[unused282]": 287,
      "[unused283]": 288,
      "[unused284]": 289,
      "[unused285]": 290,
      "[unused286]": 291,
      "[unused287]": 292,
      "[unused288]": 293,
      "[unused289]": 294,
      "[unused290]": 295,
      "[unused291]": 296,
      "[unused292]": 297,
      "[unused293]": 298,
      "[unused294]": 299,
      "[unused295]": 300,
      "[unused296]": 301,
      "[unused297]": 302,
      "[unused298]": 303,
      "[unused299]": 304,
      "[unused300]": 305,
      "[unused301]": 306,
      "[unused302]": 307,
      "[unused303]": 308,
      "[unused304]": 309,
      "[unused305]": 310,
      "[unused306]": 311,
      "[unused307]": 312,
      "[unused308]": 313,
      "[unused309]": 314,
      "[unused310]": 315,
      "[unused311]": 316,
      "[unused312]": 317,
      "[unused313]": 318,
      "[unused314]": 319,
      "[unused315]": 320,
      "[unused316]": 321,
      "[unused317]": 322,
      "[unused318]": 323,
      "[unused319]": 324,
      "[unused320]": 325,
      "[unused321]": 326,
      "[unused322]": 327,
      "[unused323]": 328,
      "[unused324]": 329,
      "[unused325]": 330,
      "[unused326]": 331,
      "[unused327]": 332,
      "[unused328]": 333,
      "[unused329]": 334,
      "[unused330]": 335,
      "[unused331]": 336,
      "[unused332]": 337,
      "[unused333]": 338,
      "[unused334]": 339,
      "[unused335]": 340,
      "[unused336]": 341,
      "[unused337]": 342,
      "[unused338]": 343,
      "[unused339]": 344,
      "[unused340]": 345,
      "[unused341]": 346,
      "[unused342]": 347,
      "[unused343]": 348,
      "[unused344]": 349,
      "[unused345]": 350,
      "[unused346]": 351,
      "[unused347]": 352,
      "[unused348]": 353,
      "[unused349]": 354,
      "[unused350]": 355,
      "[unused351]": 356,
      "[unused352]": 357,
      "[unused353]": 358,
      "[unused354]": 359,
      "[unused355]": 360,
      "[unused356]": 361,
      "[unused357]": 362,
      "[unused358]": 363,
      "[unused359]": 364,
      "[unused360]": 365,
      "[unused361]": 366,
      "[unused362]": 367,
      "[unused363]": 368,
      "[unused364]": 369,
      "[unused365]": 370,
      "[unused366]": 371,
      "[unused367]": 372,
      "[unused368]": 373,
      "[unused369]": 374,
      "[unused370]": 375,
      "[unused371]": 376,
      "[unused372]": 377,
      "[unused373]": 378,
      "[unused374]": 379,
      "[unused375]": 380,
      "[unused376]": 381,
      "[unused377]": 382,
      "[unused378]": 383,
      "[unused379]": 384,
      "[unused380]": 385,
      "[unused381]": 386,
      "[unused382]": 387,
      "[unused383]": 388,
      "[unused384]": 389,
      "[unused385]": 390,
      "[unused386]": 391,
      "[unused387]": 392,
      "[unused388]": 393,
      "[unused389]": 394,
      "[unused390]": 395,
      "[unused391]": 396,
      "[unused392]": 397,
      "[unused393]": 398,
      "[unused394]": 399,
      "[unused395]": 400,
      "[unused396]": 401,
      "[unused397]": 402,
      "[unused398]": 403,
      "[unused399]": 404,
      "[unused400]": 405,
      "[unused401]": 406,
      "[unused402]": 407,
      "[unused403]": 408,
      "[unused404]": 409,
      "[unused405]": 410,
      "[unused406]": 411,
      "[unused407]": 412,
      "[unused408]": 413,
      "[unused409]": 414,
      "[unused410]": 415,
      "[unused411]": 416,
      "[unused412]": 417,
      "[unused413]": 418,
      "[unused414]": 419,
      "[unused415]": 420,
      "[unused416]": 421,
      "[unused417]": 422,
      "[unused418]": 423,
      "[unused419]": 424,
      "[unused420]": 425,
      "[unused421]": 426,
      "[unused422]": 427,
      "[unused423]": 428,
      "[unused424]": 429,
      "[unused425]": 430,
      "[unused426]": 431,
      "[unused427]": 432,
      "[unused428]": 433,
      "[unused429]": 434,
      "[unused430]": 435,
      "[unused431]": 436,
      "[unused432]": 437,
      "[unused433]": 438,
      "[unused434]": 439,
      "[unused435]": 440,
      "[unused436]": 441,
      "[unused437]": 442,
      "[unused438]": 443,
      "[unused439]": 444,
      "[unused440]": 445,
      "[unused441]": 446,
      "[unused442]": 447,
      "[unused443]": 448,
      "[unused444]": 449,
      "[unused445]": 450,
      "[unused446]": 451,
      "[unused447]": 452,
      "[unused448]": 453,
      "[unused449]": 454,
      "[unused450]": 455,
      "[unused451]": 456,
      "[unused452]": 457,
      "[unused453]": 458,
      "[unused454]": 459,
      "[unused455]": 460,
      "[unused456]": 461,
      "[unused457]": 462,
      "[unused458]": 463,
      "[unused459]": 464,
      "[unused460]": 465,
      "[unused461]": 466,
      "[unused462]": 467,
      "[unused463]": 468,
      "[unused464]": 469,
      "[unused465]": 470,
      "[unused466]": 471,
      "[unused467]": 472,
      "[unused468]": 473,
      "[unused469]": 474,
      "[unused470]": 475,
      "[unused471]": 476,
      "[unused472]": 477,
      "[unused473]": 478,
      "[unused474]": 479,
      "[unused475]": 480,
      "[unused476]": 481,
      "[unused477]": 482,
      "[unused478]": 483,
      "[unused479]": 484,
      "[unused480]": 485,
      "[unused481]": 486,
      "[unused482]": 487,
      "[unused483]": 488,
      "[unused484]": 489,
      "[unused485]": 490,
      "[unused486]": 491,
      "[unused487]": 492,
      "[unused488]": 493,
      "[unused489]": 494,
      "[unused490]": 495,
      "[unused491]": 496,
      "[unused492]": 497,
      "[unused493]": 498,
      "[unused494]": 499,
      "[unused495]": 500,
      "[unused496]": 501,
      "[unused497]": 502,
      "[unused498]": 503,
      "[unused499]": 504,
      "[unused500]": 505,
      "[unused501]": 506,
      "[unused502]": 507,
      "[unused503]": 508,
      "[unused504]": 509,
      "[unused505]": 510,
      "[unused506]": 511,
      "[unused507]": 512,
      "[unused508]": 513,
      "[unused509]": 514,
      "[unused510]": 515,
      "[unused511]": 516,
      "[unused512]": 517,
      "[unused513]": 518,
      "[unused514]": 519,
      "[unused515]": 520,
      "[unused516]": 521,
      "[unused517]": 522,
      "[unused518]": 523,
      "[unused519]": 524,
      "[unused520]": 525,
      "[unused521]": 526,
      "[unused522]": 527,
      "[unused523]": 528,
      "[unused524]": 529,
      "[unused525]": 530,
      "[unused526]": 531,
      "[unused527]": 532,
      "[unused528]": 533,
      "[unused529]": 534,
      "[unused530]": 535,
      "[unused531]": 536,
      "[unused532]": 537,
      "[unused533]": 538,
      "[unused534]": 539,
      "[unused535]": 540,
      "[unused536]": 541,
      "[unused537]": 542,
      "[unused538]": 543,
      "[unused539]": 544,
      "[unused540]": 545,
      "[unused541]": 546,
      "[unused542]": 547,
      "[unused543]": 548,
      "[unused544]": 549,
      "[unused545]": 550,
      "[unused546]": 551,
      "[unused547]": 552,
      "[unused548]": 553,
      "[unused549]": 554,
      "[unused550]": 555,
      "[unused551]": 556,
      "[unused552]": 557,
      "[unused553]": 558,
      "[unused554]": 559,
      "[unused555]": 560,
      "[unused556]": 561,
      "[unused557]": 562,
      "[unused558]": 563,
      "[unused559]": 564,
      "[unused560]": 565,
      "[unused561]": 566,
      "[unused562]": 567,
      "[unused563]": 568,
      "[unused564]": 569,
      "[unused565]": 570,
      "[unused566]": 571,
      "[unused567]": 572,
      "[unused568]": 573,
      "[unused569]": 574,
      "[unused570]": 575,
      "[unused571]": 576,
      "[unused572]": 577,
      "[unused573]": 578,
      "[unused574]": 579,
      "[unused575]": 580,
      "[unused576]": 581,
      "[unused577]": 582,
      "[unused578]": 583,
      "[unused579]": 584,
      "[unused580]": 585,
      "[unused581]": 586,
      "[unused582]": 587,
      "[unused583]": 588,
      "[unused584]": 589,
      "[unused585]": 590,
      "[unused586]": 591,
      "[unused587]": 592,
      "[unused588]": 593,
      "[unused589]": 594,
      "[unused590]": 595,
      "[unused591]": 596,
      "[unused592]": 597,
      "[unused593]": 598,
      "[unused594]": 599,
      "[unused595]": 600,
      "[unused596]": 601,
      "[unused597]": 602,
      "[unused598]": 603,
      "[unused599]": 604,
      "[unused600]": 605,
      "[unused601]": 606,
      "[unused602]": 607,
      "[unused603]": 608,
      "[unused604]": 609,
      "[unused605]": 610,
      "[unused606]": 611,
      "[unused607]": 612,
      "[unused608]": 613,
      "[unused609]": 614,
      "[unused610]": 615,
      "[unused611]": 616,
      "[unused612]": 617,
      "[unused613]": 618,
      "[unused614]": 619,
      "[unused615]": 620,
      "[unused616]": 621,
      "[unused617]": 622,
      "[unused618]": 623,
      "[unused619]": 624,
      "[unused620]": 625,
      "[unused621]": 626,
      "[unused622]": 627,
      "[unused623]": 628,
      "[unused624]": 629,
      "[unused625]": 630,
      "[unused626]": 631,
      "[unused627]": 632,
      "[unused628]": 633,
      "[unused629]": 634,
      "[unused630]": 635,
      "[unused631]": 636,
      "[unused632]": 637,
      "[unused633]": 638,
      "[unused634]": 639,
      "[unused635]": 640,
      "[unused636]": 641,
      "[unused637]": 642,
      "[unused638]": 643,
      "[unused639]": 644,
      "[unused640]": 645,
      "[unused641]": 646,
      "[unused642]": 647,
      "[unused643]": 648,
      "[unused644]": 649,
      "[unused645]": 650,
      "[unused646]": 651,
      "[unused647]": 652,
      "[unused648]": 653,
      "[unused649]": 654,
      "[unused650]": 655,
      "[unused651]": 656,
      "[unused652]": 657,
      "[unused653]": 658,
      "[unused654]": 659,
      "[unused655]": 660,
      "[unused656]": 661,
      "[unused657]": 662,
      "[unused658]": 663,
      "[unused659]": 664,
      "[unused660]": 665,
      "[unused661]": 666,
      "[unused662]": 667,
      "[unused663]": 668,
      "[unused664]": 669,
      "[unused665]": 670,
      "[unused666]": 671,
      "[unused667]": 672,
      "[unused668]": 673,
      "[unused669]": 674,
      "[unused670]": 675,
      "[unused671]": 676,
      "[unused672]": 677,
      "[unused673]": 678,
      "[unused674]": 679,
      "[unused675]": 680,
      "[unused676]": 681,
      "[unused677]": 682,
      "[unused678]": 683,
      "[unused679]": 684,
      "[unused680]": 685,
      "[unused681]": 686,
      "[unused682]": 687,
      "[unused683]": 688,
      "[unused684]": 689,
      "[unused685]": 690,
      "[unused686]": 691,
      "[unused687]": 692,
      "[unused688]": 693,
      "[unused689]": 694,
      "[unused690]": 695,
      "[unused691]": 696,
      "[unused692]": 697,
      "[unused693]": 698,
      "[unused694]": 699,
      "[unused695]": 700,
      "[unused696]": 701,
      "[unused697]": 702,
      "[unused698]": 703,
      "[unused699]": 704,
      "[unused700]": 705,
      "[unused701]": 706,
      "[unused702]": 707,
      "[unused703]": 708,
      "[unused704]": 709,
      "[unused705]": 710,
      "[unused706]": 711,
      "[unused707]": 712,
      "[unused708]": 713,
      "[unused709]": 714,
      "[unused710]": 715,
      "[unused711]": 716,
      "[unused712]": 717,
      "[unused713]": 718,
      "[unused714]": 719,
      "[unused715]": 720,
      "[unused716]": 721,
      "[unused717]": 722,
      "[unused718]": 723,
      "[unused719]": 724,
      "[unused720]": 725,
      "[unused721]": 726,
      "[unused722]": 727,
      "[unused723]": 728,
      "[unused724]": 729,
      "[unused725]": 730,
      "[unused726]": 731,
      "[unused727]": 732,
      "[unused728]": 733,
      "[unused729]": 734,
      "[unused730]": 735,
      "[unused731]": 736,
      "[unused732]": 737,
      "[unused733]": 738,
      "[unused734]": 739,
      "[unused735]": 740,
      "[unused736]": 741,
      "[unused737]": 742,
      "[unused738]": 743,
      "[unused739]": 744,
      "[unused740]": 745,
      "[unused741]": 746,
      "[unused742]": 747,
      "[unused743]": 748,
      "[unused744]": 749,
      "[unused745]": 750,
      "[unused746]": 751,
      "[unused747]": 752,
      "[unused748]": 753,
      "[unused749]": 754,
      "[unused750]": 755,
      "[unused751]": 756,
      "[unused752]": 757,
      "[unused753]": 758,
      "[unused754]": 759,
      "[unused755]": 760,
      "[unused756]": 761,
      "[unused757]": 762,
      "[unused758]": 763,
      "[unused759]": 764,
      "[unused760]": 765,
      "[unused761]": 766,
      "[unused762]": 767,
      "[unused763]": 768,
      "[unused764]": 769,
      "[unused765]": 770,
      "[unused766]": 771,
      "[unused767]": 772,
      "[unused768]": 773,
      "[unused769]": 774,
      "[unused770]": 775,
      "[unused771]": 776,
      "[unused772]": 777,
      "[unused773]": 778,
      "[unused774]": 779,
      "[unused775]": 780,
      "[unused776]": 781,
      "[unused777]": 782,
      "[unused778]": 783,
      "[unused779]": 784,
      "[unused780]": 785,
      "[unused781]": 786,
      "[unused782]": 787,
      "[unused783]": 788,
      "[unused784]": 789,
      "[unused785]": 790,
      "[unused786]": 791,
      "[unused787]": 792,
      "[unused788]": 793,
      "[unused789]": 794,
      "[unused790]": 795,
      "[unused791]": 796,
      "[unused792]": 797,
      "[unused793]": 798,
      "[unused794]": 799,
      "[unused795]": 800,
      "[unused796]": 801,
      "[unused797]": 802,
      "[unused798]": 803,
      "[unused799]": 804,
      "[unused800]": 805,
      "[unused801]": 806,
      "[unused802]": 807,
      "[unused803]": 808,
      "[unused804]": 809,
      "[unused805]": 810,
      "[unused806]": 811,
      "[unused807]": 812,
      "[unused808]": 813,
      "[unused809]": 814,
      "[unused810]": 815,
      "[unused811]": 816,
      "[unused812]": 817,
      "[unused813]": 818,
      "[unused814]": 819,
      "[unused815]": 820,
      "[unused816]": 821,
      "[unused817]": 822,
      "[unused818]": 823,
      "[unused819]": 824,
      "[unused820]": 825,
      "[unused821]": 826,
      "[unused822]": 827,
      "[unused823]": 828,
      "[unused824]": 829,
      "[unused825]": 830,
      "[unused826]": 831,
      "[unused827]": 832,
      "[unused828]": 833,
      "[unused829]": 834,
      "[unused830]": 835,
      "[unused831]": 836,
      "[unused832]": 837,
      "[unused833]": 838,
      "[unused834]": 839,
      "[unused835]": 840,
      "[unused836]": 841,
      "[unused837]": 842,
      "[unused838]": 843,
      "[unused839]": 844,
      "[unused840]": 845,
      "[unused841]": 846,
      "[unused842]": 847,
      "[unused843]": 848,
      "[unused844]": 849,
      "[unused845]": 850,
      "[unused846]": 851,
      "[unused847]": 852,
      "[unused848]": 853,
      "[unused849]": 854,
      "[unused850]": 855,
      "[unused851]": 856,
      "[unused852]": 857,
      "[unused853]": 858,
      "[unused854]": 859,
      "[unused855]": 860,
      "[unused856]": 861,
      "[unused857]": 862,
      "[unused858]": 863,
      "[unused859]": 864,
      "[unused860]": 865,
      "[unused861]": 866,
      "[unused862]": 867,
      "[unused863]": 868,
      "[unused864]": 869,
      "[unused865]": 870,
      "[unused866]": 871,
      "[unused867]": 872,
      "[unused868]": 873,
      "[unused869]": 874,
      "[unused870]": 875,
      "[unused871]": 876,
      "[unused872]": 877,
      "[unused873]": 878,
      "[unused874]": 879,
      "[unused875]": 880,
      "[unused876]": 881,
      "[unused877]": 882,
      "[unused878]": 883,
      "[unused879]": 884,
      "[unused880]": 885,
      "[unused881]": 886,
      "[unused882]": 887,
      "[unused883]": 888,
      "[unused884]": 889,
      "[unused885]": 890,
      "[unused886]": 891,
      "[unused887]": 892,
      "[unused888]": 893,
      "[unused889]": 894,
      "[unused890]": 895,
      "[unused891]": 896,
      "[unused892]": 897,
      "[unused893]": 898,
      "[unused894]": 899,
      "[unused895]": 900,
      "[unused896]": 901,
      "[unused897]": 902,
      "[unused898]": 903,
      "[unused899]": 904,
      "[unused900]": 905,
      "[unused901]": 906,
      "[unused902]": 907,
      "[unused903]": 908,
      "[unused904]": 909,
      "[unused905]": 910,
      "[unused906]": 911,
      "[unused907]": 912,
      "[unused908]": 913,
      "[unused909]": 914,
      "[unused910]": 915,
      "[unused911]": 916,
      "[unused912]": 917,
      "[unused913]": 918,
      "[unused914]": 919,
      "[unused915]": 920,
      "[unused916]": 921,
      "[unused917]": 922,
      "[unused918]": 923,
      "[unused919]": 924,
      "[unused920]": 925,
      "[unused921]": 926,
      "[unused922]": 927,
      "[unused923]": 928,
      "[unused924]": 929,
      "[unused925]": 930,
      "[unused926]": 931,
      "[unused927]": 932,
      "[unused928]": 933,
      "[unused929]": 934,
      "[unused930]": 935,
      "[unused931]": 936,
      "[unused932]": 937,
      "[unused933]": 938,
      "[unused934]": 939,
      "[unused935]": 940,
      "[unused936]": 941,
      "[unused937]": 942,
      "[unused938]": 943,
      "[unused939]": 944,
      "[unused940]": 945,
      "[unused941]": 946,
      "[unused942]": 947,
      "[unused943]": 948,
      "[unused944]": 949,
      "[unused945]": 950,
      "[unused946]": 951,
      "[unused947]": 952,
      "[unused948]": 953,
      "[unused949]": 954,
      "[unused950]": 955,
      "[unused951]": 956,
      "[unused952]": 957,
      "[unused953]": 958,
      "[unused954]": 959,
      "[unused955]": 960,
      "[unused956]": 961,
      "[unused957]": 962,
      "[unused958]": 963,
      "[unused959]": 964,
      "[unused960]": 965,
      "[unused961]": 966,
      "[unused962]": 967,
      "[unused963]": 968,
      "[unused964]": 969,
      "[unused965]": 970,
      "[unused966]": 971,
      "[unused967]": 972,
      "[unused968]": 973,
      "[unused969]": 974,
      "[unused970]": 975,
      "[unused971]": 976,
      "[unused972]": 977,
      "[unused973]": 978,
      "[unused974]": 979,
      "[unused975]": 980,
      "[unused976]": 981,
      "[unused977]": 982,
      "[unused978]": 983,
      "[unused979]": 984,
      "[unused980]": 985,
      "[unused981]": 986,
      "[unused982]": 987,
      "[unused983]": 988,
      "[unused984]": 989,
      "[unused985]": 990,
      "[unused986]": 991,
      "[unused987]": 992,
      "[unused988]": 993,
      "[unused989]": 994,
      "[unused990]": 995,
      "[unused991]": 996,
      "[unused992]": 997,
      "[unused993]": 998,
      "!": 999,
      "\"": 1000,
      "#": 1001,
      "$": 1002,
      "৳": 1003,
      "%": 1004,
      "&": 1005,
      "'": 1006,
      "(": 1007,
      ")": 1008,
      "*": 1009,
      "+": 1010,
      ",": 1011,
      "-": 1012,
      ".": 1013,
      "।": 1014,
      "/": 1019,
      "০": 1020,
      "১": 1021,
      "২": 1022,
      "৩": 1023,
      "৪": 1024,
      "৫": 1025,
      "৬": 1026,
      "৭": 1027,
      "৮": 1028,
      "৯": 1029,
      "0": 1030,
      "1": 1031,
      "2": 1032,
      "3": 1033,
      "4": 1034,
      "5": 1035,
      "6": 1036,
      "7": 1037,
      "8": 1038,
      "9": 1039,
      ":": 1040,
      ";": 1041,
      "<": 1042,
      "=": 1043,
      ">": 1044,
      "?": 1045,
      "@": 1046,
      "[": 1047,
      "\\": 1048,
      "]": 1049,
      "^": 1050,
      "_": 1051,
      "`": 1052,
      "ঊ": 1058,
      "ঋ": 1059,
      "ঔ": 1063,
      "ণ": 1078,
      "ড়": 1096,
      "ঢ়": 1097,
      "য়": 1098,
      "ং": 1100,
      "ঁ": 1102,
      "া": 1103,
      "ি": 1104,
      "ী": 1105,
      "ু": 1106,
      "ৃ": 1107,
      "ে": 1108,
      "ৈ": 1109,
      "ো": 1110,
      "ৌ": 1111,
      "্র": 1114,
      "্ন": 1115,
      "্ম": 1116,
      "্ল": 1117,
      "্ব": 1118,
      "a": 1119,
      "b": 1120,
      "c": 1121,
      "d": 1122,
      "e": 1123,
      "f": 1124,
      "g": 1125,
      "h": 1126,
      "i": 1127,
      "j": 1128,
      "k": 1129,
      "l": 1130,
      "m": 1131,
      "n": 1132,
      "o": 1133,
      "p": 1134,
      "q": 1135,
      "r": 1136,
      "s": 1137,
      "t": 1138,
      "u": 1139,
      "v": 1140,
      "w": 1141,
      "x": 1142,
      "y": 1143,
      "z": 1144,
      "{": 1145,
      "|": 1146,
      "}": 1147,
      "~": 1148,
      "¡": 1149,
      "¢": 1150,
      "£": 1151,
      "¤": 1152,
      "¥": 1153,
      "¦": 1154,
      "§": 1155,
      "¨": 1156,
      "©": 1157,
      "ª": 1158,
      "«": 1159,
      "¬": 1160,
      "®": 1161,
      "°": 1162,
      "±": 1163,
      "²": 1164,
      "³": 1165,
      "´": 1166,
      "µ": 1167,
      "¶": 1168,
      "·": 1169,
      "¹": 1170,
      "º": 1171,
      "»": 1172,
      "¼": 1173,
      "½": 1174,
      "¾": 1175,
      "¿": 1176,
      "×": 1177,
      "ß": 1178,
      "æ": 1179,
      "ð": 1180,
      "÷": 1181,
      "ø": 1182,
      "þ": 1183,
      "đ": 1184,
      "ħ": 1185,
      "ı": 1186,
      "ł": 1187,
      "ŋ": 1188,
      "œ": 1189,
      "ƒ": 1190,
      "ɐ": 1191,
      "ɑ": 1192,
      "ɒ": 1193,
      "ɔ": 1194,
      "ɕ": 1195,
      "ə": 1196,
      "ɛ": 1197,
      "ɡ": 1198,
      "ɣ": 1199,
      "ɨ": 1200,
      "ɪ": 1201,
      "ɫ": 1202,
      "ɬ": 1203,
      "ɯ": 1204,
      "ɲ": 1205,
      "ɴ": 1206,
      "ɹ": 1207,
      "ɾ": 1208,
      "ʀ": 1209,
      "ʁ": 1210,
      "ʂ": 1211,
      "ʃ": 1212,
      "ʉ": 1213,
      "ʊ": 1214,
      "ʋ": 1215,
      "ʌ": 1216,
      "ʎ": 1217,
      "ʐ": 1218,
      "ʑ": 1219,
      "ʒ": 1220,
      "ʔ": 1221,
      "ʰ": 1222,
      "ʲ": 1223,
      "ʳ": 1224,
      "ʷ": 1225,
      "ʸ": 1226,
      "ʻ": 1227,
      "ʼ": 1228,
      "ʾ": 1229,
      "ʿ": 1230,
      "ˈ": 1231,
      "ː": 1232,
      "ˡ": 1233,
      "ˢ": 1234,
      "ˣ": 1235,
      "ˤ": 1236,
      "α": 1237,
      "β": 1238,
      "γ": 1239,
      "δ": 1240,
      "ε": 1241,
      "ζ": 1242,
      "η": 1243,
      "θ": 1244,
      "ι": 1245,
      "κ": 1246,
      "λ": 1247,
      "μ": 1248,
      "ν": 1249,
      "ξ": 1250,
      "ο": 1251,
      "π": 1252,
      "ρ": 1253,
      "ς": 1254,
      "σ": 1255,
      "τ": 1256,
      "υ": 1257,
      "φ": 1258,
      "χ": 1259,
      "ψ": 1260,
      "ω": 1261,
      "а": 1262,
      "б": 1263,
      "в": 1264,
      "г": 1265,
      "д": 1266,
      "е": 1267,
      "ж": 1268,
      "з": 1269,
      "и": 1270,
      "к": 1271,
      "л": 1272,
      "м": 1273,
      "н": 1274,
      "о": 1275,
      "п": 1276,
      "р": 1277,
      "с": 1278,
      "т": 1279,
      "у": 1280,
      "ф": 1281,
      "х": 1282,
      "ц": 1283,
      "ч": 1284,
      "ш": 1285,
      "щ": 1286,
      "ъ": 1287,
      "ы": 1288,
      "ь": 1289,
      "э": 1290,
      "ю": 1291,
      "я": 1292,
      "ђ": 1293,
      "є": 1294,
      "і": 1295,
      "ј": 1296,
      "љ": 1297,
      "њ": 1298,
      "ћ": 1299,
      "ӏ": 1300,
      "ա": 1301,
      "բ": 1302,
      "գ": 1303,
      "դ": 1304,
      "ե": 1305,
      "թ": 1306,
      "ի": 1307,
      "լ": 1308,
      "կ": 1309,
      "հ": 1310,
      "մ": 1311,
      "յ": 1312,
      "ն": 1313,
      "ո": 1314,
      "պ": 1315,
      "ս": 1316,
      "վ": 1317,
      "տ": 1318,
      "ր": 1319,
      "ւ": 1320,
      "ք": 1321,
      "־": 1322,
      "א": 1323,
      "ב": 1324,
      "ג": 1325,
      "ד": 1326,
      "ה": 1327,
      "ו": 1328,
      "ז": 1329,
      "ח": 1330,
      "ט": 1331,
      "י": 1332,
      "ך": 1333,
      "כ": 1334,
      "ל": 1335,
      "ם": 1336,
      "מ": 1337,
      "ן": 1338,
      "נ": 1339,
      "ס": 1340,
      "ע": 1341,
      "ף": 1342,
      "פ": 1343,
      "ץ": 1344,
      "צ": 1345,
      "ק": 1346,
      "ר": 1347,
      "ש": 1348,
      "ת": 1349,
      "،": 1350,
      "ء": 1351,
      "ا": 1352,
      "ب": 1353,
      "ة": 1354,
      "ت": 1355,
      "ث": 1356,
      "ج": 1357,
      "ح": 1358,
      "خ": 1359,
      "د": 1360,
      "ذ": 1361,
      "ر": 1362,
      "ز": 1363,
      "س": 1364,
      "ش": 1365,
      "ص": 1366,
      "ض": 1367,
      "ط": 1368,
      "ظ": 1369,
      "ع": 1370,
      "غ": 1371,
      "ـ": 1372,
      "ف": 1373,
      "ق": 1374,
      "ك": 1375,
      "ل": 1376,
      "م": 1377,
      "ن": 1378,
      "ه": 1379,
      "و": 1380,
      "ى": 1381,
      "ي": 1382,
      "ٹ": 1383,
      "پ": 1384,
      "چ": 1385,
      "ک": 1386,
      "گ": 1387,
      "ں": 1388,
      "ھ": 1389,
      "ہ": 1390,
      "ی": 1391,
      "ے": 1392,
      "अ": 1393,
      "आ": 1394,
      "उ": 1395,
      "ए": 1396,
      "क": 1397,
      "ख": 1398,
      "ग": 1399,
      "च": 1400,
      "ज": 1401,
      "ट": 1402,
      "ड": 1403,
      "ण": 1404,
      "त": 1405,
      "थ": 1406,
      "द": 1407,
      "ध": 1408,
      "न": 1409,
      "प": 1410,
      "ब": 1411,
      "भ": 1412,
      "म": 1413,
      "य": 1414,
      "र": 1415,
      "ल": 1416,
      "व": 1417,
      "श": 1418,
      "ष": 1419,
      "स": 1420,
      "ह": 1421,
      "க": 1422,
      "ச": 1423,
      "ட": 1424,
      "த": 1425,
      "ந": 1426,
      "ன": 1427,
      "ப": 1428,
      "ம": 1429,
      "ய": 1430,
      "ர": 1431,
      "ல": 1432,
      "ள": 1433,
      "வ": 1434,
      "ா": 1435,
      "ி": 1436,
      "ு": 1437,
      "ே": 1438,
      "ை": 1439,
      "ನ": 1440,
      "ರ": 1441,
      "ಾ": 1442,
      "ක": 1443,
      "ය": 1444,
      "ර": 1445,
      "ල": 1446,
      "ව": 1447,
      "ා": 1448,
      "ก": 1449,
      "ง": 1450,
      "ต": 1451,
      "ท": 1452,
      "น": 1453,
      "พ": 1454,
      "ม": 1455,
      "ย": 1456,
      "ร": 1457,
      "ล": 1458,
      "ว": 1459,
      "ส": 1460,
      "อ": 1461,
      "า": 1462,
      "เ": 1463,
      "་": 1464,
      "།": 1465,
      "ག": 1466,
      "ང": 1467,
      "ད": 1468,
      "ན": 1469,
      "པ": 1470,
      "བ": 1471,
      "མ": 1472,
      "འ": 1473,
      "ར": 1474,
      "ལ": 1475,
      "ས": 1476,
      "မ": 1477,
      "ა": 1478,
      "ბ": 1479,
      "გ": 1480,
      "დ": 1481,
      "ე": 1482,
      "ვ": 1483,
      "თ": 1484,
      "ი": 1485,
      "კ": 1486,
      "ლ": 1487,
      "მ": 1488,
      "ნ": 1489,
      "ო": 1490,
      "რ": 1491,
      "ს": 1492,
      "ტ": 1493,
      "უ": 1494,
      "ᄀ": 1495,
      "ᄂ": 1496,
      "ᄃ": 1497,
      "ᄅ": 1498,
      "ᄆ": 1499,
      "ᄇ": 1500,
      "ᄉ": 1501,
      "ᄊ": 1502,
      "ᄋ": 1503,
      "ᄌ": 1504,
      "ᄎ": 1505,
      "ᄏ": 1506,
      "ᄐ": 1507,
      "ᄑ": 1508,
      "ᄒ": 1509,
      "ᅡ": 1510,
      "ᅢ": 1511,
      "ᅥ": 1512,
      "ᅦ": 1513,
      "ᅧ": 1514,
      "ᅩ": 1515,
      "ᅪ": 1516,
      "ᅭ": 1517,
      "ᅮ": 1518,
      "ᅯ": 1519,
      "ᅲ": 1520,
      "ᅳ": 1521,
      "ᅴ": 1522,
      "ᅵ": 1523,
      "ᆨ": 1524,
      "ᆫ": 1525,
      "ᆯ": 1526,
      "ᆷ": 1527,
      "ᆸ": 1528,
      "ᆼ": 1529,
      "ᴬ": 1530,
      "ᴮ": 1531,
      "ᴰ": 1532,
      "ᴵ": 1533,
      "ᴺ": 1534,
      "ᵀ": 1535,
      "ᵃ": 1536,
      "ᵇ": 1537,
      "ᵈ": 1538,
      "ᵉ": 1539,
      "ᵍ": 1540,
      "ᵏ": 1541,
      "ᵐ": 1542,
      "ᵒ": 1543,
      "ᵖ": 1544,
      "ᵗ": 1545,
      "ᵘ": 1546,
      "ᵢ": 1547,
      "ᵣ": 1548,
      "ᵤ": 1549,
      "ᵥ": 1550,
      "ᶜ": 1551,
      "ᶠ": 1552,
      "‐": 1553,
      "‑": 1554,
      "‒": 1555,
      "―": 1558,
      "‖": 1559,
      "‘": 1560,
      "’": 1561,
      "‚": 1562,
      "“": 1563,
      "”": 1564,
      "„": 1565,
      "†": 1566,
      "‡": 1567,
      "…": 1569,
      "‰": 1570,
      "′": 1571,
      "″": 1572,
      "›": 1573,
      "‿": 1574,
      "⁄": 1575,
      "⁰": 1576,
      "ⁱ": 1577,
      "⁴": 1578,
      "⁵": 1579,
      "⁶": 1580,
      "⁷": 1581,
      "⁸": 1582,
      "⁹": 1583,
      "⁺": 1584,
      "⁻": 1585,
      "ⁿ": 1586,
      "₀": 1587,
      "₁": 1588,
      "₂": 1589,
      "₃": 1590,
      "₄": 1591,
      "₅": 1592,
      "₆": 1593,
      "₇": 1594,
      "₈": 1595,
      "₉": 1596,
      "₊": 1597,
      "₍": 1598,
      "₎": 1599,
      "ₐ": 1600,
      "ₑ": 1601,
      "ₒ": 1602,
      "ₓ": 1603,
      "ₕ": 1604,
      "ₖ": 1605,
      "ₗ": 1606,
      "ₘ": 1607,
      "ₙ": 1608,
      "ₚ": 1609,
      "ₛ": 1610,
      "ₜ": 1611,
      "₤": 1612,
      "₩": 1613,
      "€": 1614,
      "₱": 1615,
      "₹": 1616,
      "ℓ": 1617,
      "№": 1618,
      "ℝ": 1619,
      "™": 1620,
      "⅓": 1621,
      "⅔": 1622,
      "←": 1623,
      "↑": 1624,
      "→": 1625,
      "↓": 1626,
      "↔": 1627,
      "↦": 1628,
      "⇄": 1629,
      "⇌": 1630,
      "⇒": 1631,
      "∂": 1632,
      "∅": 1633,
      "∆": 1634,
      "∇": 1635,
      "∈": 1636,
      "−": 1637,
      "∗": 1638,
      "∘": 1639,
      "√": 1640,
      "∞": 1641,
      "∧": 1642,
      "∨": 1643,
      "∩": 1644,
      "∪": 1645,
      "≈": 1646,
      "≡": 1647,
      "≤": 1648,
      "≥": 1649,
      "⊂": 1650,
      "⊆": 1651,
      "⊕": 1652,
      "⊗": 1653,
      "⋅": 1654,
      "─": 1655,
      "│": 1656,
      "■": 1657,
      "▪": 1658,
      "●": 1659,
      "★": 1660,
      "☆": 1661,
      "☉": 1662,
      "♠": 1663,
      "♣": 1664,
      "♥": 1665,
      "♦": 1666,
      "♭": 1667,
      "♯": 1668,
      "⟨": 1669,
      "⟩": 1670,
      "ⱼ": 1671,
      "⺩": 1672,
      "⺼": 1673,
      "⽥": 1674,
      "、": 1675,
      "。": 1676,
      "〈": 1677,
      "〉": 1678,
      "《": 1679,
      "》": 1680,
      "「": 1681,
      "」": 1682,
      "『": 1683,
      "•": 1684,
      "�": 1685,
      "』": 1686,
      "〜": 1687,
      "あ": 1688,
      "い": 1689,
      "う": 1690,
      "え": 1691,
      "お": 1692,
      "か": 1693,
      "き": 1694,
      "く": 1695,
      "け": 1696,
      "こ": 1697,
      "さ": 1698,
      "し": 1699,
      "す": 1700,
      "せ": 1701,
      "そ": 1702,
      "た": 1703,
      "ち": 1704,
      "っ": 1705,
      "つ": 1706,
      "て": 1707,
      "と": 1708,
      "な": 1709,
      "に": 1710,
      "ぬ": 1711,
      "ね": 1712,
      "の": 1713,
      "は": 1714,
      "ひ": 1715,
      "ふ": 1716,
      "へ": 1717,
      "ほ": 1718,
      "ま": 1719,
      "み": 1720,
      "む": 1721,
      "め": 1722,
      "も": 1723,
      "や": 1724,
      "ゆ": 1725,
      "よ": 1726,
      "ら": 1727,
      "り": 1728,
      "る": 1729,
      "れ": 1730,
      "ろ": 1731,
      "を": 1732,
      "ん": 1733,
      "ァ": 1734,
      "ア": 1735,
      "ィ": 1736,
      "イ": 1737,
      "ウ": 1738,
      "ェ": 1739,
      "エ": 1740,
      "オ": 1741,
      "カ": 1742,
      "キ": 1743,
      "ク": 1744,
      "ケ": 1745,
      "コ": 1746,
      "サ": 1747,
      "シ": 1748,
      "ス": 1749,
      "セ": 1750,
      "タ": 1751,
      "チ": 1752,
      "ッ": 1753,
      "ツ": 1754,
      "テ": 1755,
      "ト": 1756,
      "ナ": 1757,
      "ニ": 1758,
      "ノ": 1759,
      "ハ": 1760,
      "ヒ": 1761,
      "フ": 1762,
      "ヘ": 1763,
      "ホ": 1764,
      "マ": 1765,
      "ミ": 1766,
      "ム": 1767,
      "メ": 1768,
      "モ": 1769,
      "ャ": 1770,
      "ュ": 1771,
      "ョ": 1772,
      "ラ": 1773,
      "リ": 1774,
      "ル": 1775,
      "レ": 1776,
      "ロ": 1777,
      "ワ": 1778,
      "ン": 1779,
      "・": 1780,
      "ー": 1781,
      "一": 1782,
      "三": 1783,
      "上": 1784,
      "下": 1785,
      "不": 1786,
      "世": 1787,
      "中": 1788,
      "主": 1789,
      "久": 1790,
      "之": 1791,
      "也": 1792,
      "事": 1793,
      "二": 1794,
      "五": 1795,
      "井": 1796,
      "京": 1797,
      "人": 1798,
      "亻": 1799,
      "仁": 1800,
      "介": 1801,
      "代": 1802,
      "仮": 1803,
      "伊": 1804,
      "会": 1805,
      "佐": 1806,
      "侍": 1807,
      "保": 1808,
      "信": 1809,
      "健": 1810,
      "元": 1811,
      "光": 1812,
      "八": 1813,
      "公": 1814,
      "内": 1815,
      "出": 1816,
      "分": 1817,
      "前": 1818,
      "劉": 1819,
      "力": 1820,
      "加": 1821,
      "勝": 1822,
      "北": 1823,
      "区": 1824,
      "十": 1825,
      "千": 1826,
      "南": 1827,
      "博": 1828,
      "原": 1829,
      "口": 1830,
      "古": 1831,
      "史": 1832,
      "司": 1833,
      "合": 1834,
      "吉": 1835,
      "同": 1836,
      "名": 1837,
      "和": 1838,
      "囗": 1839,
      "四": 1840,
      "国": 1841,
      "國": 1842,
      "土": 1843,
      "地": 1844,
      "坂": 1845,
      "城": 1846,
      "堂": 1847,
      "場": 1848,
      "士": 1849,
      "夏": 1850,
      "外": 1851,
      "大": 1852,
      "天": 1853,
      "太": 1854,
      "夫": 1855,
      "奈": 1856,
      "女": 1857,
      "子": 1858,
      "学": 1859,
      "宀": 1860,
      "宇": 1861,
      "安": 1862,
      "宗": 1863,
      "定": 1864,
      "宣": 1865,
      "宮": 1866,
      "家": 1867,
      "宿": 1868,
      "寺": 1869,
      "將": 1870,
      "小": 1871,
      "尚": 1872,
      "山": 1873,
      "岡": 1874,
      "島": 1875,
      "崎": 1876,
      "川": 1877,
      "州": 1878,
      "巿": 1879,
      "帝": 1880,
      "平": 1881,
      "年": 1882,
      "幸": 1883,
      "广": 1884,
      "弘": 1885,
      "張": 1886,
      "彳": 1887,
      "後": 1888,
      "御": 1889,
      "德": 1890,
      "心": 1891,
      "忄": 1892,
      "志": 1893,
      "忠": 1894,
      "愛": 1895,
      "成": 1896,
      "我": 1897,
      "戦": 1898,
      "戸": 1899,
      "手": 1900,
      "扌": 1901,
      "政": 1902,
      "文": 1903,
      "新": 1904,
      "方": 1905,
      "日": 1906,
      "明": 1907,
      "星": 1908,
      "春": 1909,
      "昭": 1910,
      "智": 1911,
      "曲": 1912,
      "書": 1913,
      "月": 1914,
      "有": 1915,
      "朝": 1916,
      "木": 1917,
      "本": 1918,
      "李": 1919,
      "村": 1920,
      "東": 1921,
      "松": 1922,
      "林": 1923,
      "森": 1924,
      "楊": 1925,
      "樹": 1926,
      "橋": 1927,
      "歌": 1928,
      "止": 1929,
      "正": 1930,
      "武": 1931,
      "比": 1932,
      "氏": 1933,
      "民": 1934,
      "水": 1935,
      "氵": 1936,
      "氷": 1937,
      "永": 1938,
      "江": 1939,
      "沢": 1940,
      "河": 1941,
      "治": 1942,
      "法": 1943,
      "海": 1944,
      "清": 1945,
      "漢": 1946,
      "瀬": 1947,
      "火": 1948,
      "版": 1949,
      "犬": 1950,
      "王": 1951,
      "生": 1952,
      "田": 1953,
      "男": 1954,
      "疒": 1955,
      "発": 1956,
      "白": 1957,
      "的": 1958,
      "皇": 1959,
      "目": 1960,
      "相": 1961,
      "省": 1962,
      "真": 1963,
      "石": 1964,
      "示": 1965,
      "社": 1966,
      "神": 1967,
      "福": 1968,
      "禾": 1969,
      "秀": 1970,
      "秋": 1971,
      "空": 1972,
      "立": 1973,
      "章": 1974,
      "竹": 1975,
      "糹": 1976,
      "美": 1977,
      "義": 1978,
      "耳": 1979,
      "良": 1980,
      "艹": 1981,
      "花": 1982,
      "英": 1983,
      "華": 1984,
      "葉": 1985,
      "藤": 1986,
      "行": 1987,
      "街": 1988,
      "西": 1989,
      "見": 1990,
      "訁": 1991,
      "語": 1992,
      "谷": 1993,
      "貝": 1994,
      "貴": 1995,
      "車": 1996,
      "軍": 1997,
      "辶": 1998,
      "道": 1999,
      "郎": 2000,
      "郡": 2001,
      "部": 2002,
      "都": 2003,
      "里": 2004,
      "野": 2005,
      "金": 2006,
      "鈴": 2007,
      "镇": 2008,
      "長": 2009,
      "門": 2010,
      "間": 2011,
      "阝": 2012,
      "阿": 2013,
      "陳": 2014,
      "陽": 2015,
      "雄": 2016,
      "青": 2017,
      "面": 2018,
      "風": 2019,
      "食": 2020,
      "香": 2021,
      "馬": 2022,
      "高": 2023,
      "龍": 2024,
      "龸": 2025,
      "ﬁ": 2026,
      "ﬂ": 2027,
      "！": 2028,
      "（": 2029,
      "）": 2030,
      "，": 2031,
      "－": 2032,
      "．": 2033,
      "／": 2034,
      "：": 2035,
      "？": 2036,
      "～": 2037,
      "ও": 2038,
      "করে": 2039,
      "##ের": 2040,
      "হয়": 2041,
      "এবং": 2042,
      "থেকে": 2043,
      "না": 2044,
      "এই": 2045,
      "##র": 2046,
      "করা": 2047,
      "": 2048,
      "তিনি": 2049,
      "এ": 2050,
      "একটি": 2051,
      "জন্য": 2052,
      "করেন": 2053,
      "হয়েছে": 2054,
      "হবে": 2055,
      "তার": 2056,
      "বলেন": 2057,
      "##ও": 2058,
      "করতে": 2059,
      "যে": 2060,
      "সঙ্গে": 2061,
      "##ই": 2062,
      "এর": 2063,
      "মধ্যে": 2064,
      "নিয়ে": 2065,
      "এক": 2066,
      "তাঁর": 2067,
      "সালে": 2068,
      "বা": 2069,
      "আর": 2070,
      "##কে": 2071,
      "ছিল": 2072,
      "প্রথম": 2073,
      "হয়ে": 2074,
      "সময়": 2075,
      "পর": 2076,
      "যায়": 2077,
      "কোনো": 2078,
      "কিন্তু": 2079,
      "বলে": 2080,
      "হিসেবে": 2081,
      "তা": 2082,
      "পারে": 2083,
      "দিয়ে": 2084,
      "কথা": 2085,
      "আছে": 2086,
      "তবে": 2087,
      "হচ্ছে": 2088,
      "শুরু": 2089,
      "করার": 2090,
      "বছর": 2091,
      "তাদের": 2092,
      "হাজার": 2093,
      "##ে": 2094,
      "বেশি": 2095,
      "ছিলেন": 2096,
      "টাকা": 2097,
      "বাংলাদেশ": 2098,
      "টি": 2099,
      "বিভিন্ন": 2100,
      "কিছু": 2101,
      "করেছেন": 2102,
      "আমরা": 2103,
      "কোটি": 2104,
      "রয়েছে": 2105,
      "হতে": 2106,
      "দুই": 2107,
      "নয়": 2108,
      "গত": 2109,
      "পর্যন্ত": 2110,
      "সালের": 2111,
      "এখন": 2112,
      "দেওয়া": 2113,
      "কাজ": 2114,
      "অনেক": 2115,
      "বিরুদ্ধে": 2116,
      "আরও": 2117,
      "সে": 2118,
      "বাংলাদেশের": 2119,
      "যা": 2120,
      "নতুন": 2121,
      "ওই": 2122,
      "সেই": 2123,
      "করেছে": 2124,
      "লাখ": 2125,
      "তাঁদের": 2126,
      "আমাদের": 2127,
      "নেই": 2128,
      "দেখা": 2129,
      "মতো": 2130,
      "তারা": 2131,
      "সব": 2132,
      "প্রধান": 2133,
      "পাওয়া": 2134,
      "এটি": 2135,
      "থাকে": 2136,
      "আগে": 2137,
      "ওপর": 2138,
      "মনে": 2139,
      "প্রায়": 2140,
      "একজন": 2141,
      "দিন": 2142,
      "বিচার": 2143,
      "তাঁরা": 2144,
      "আজ": 2145,
      "বড়": 2146,
      "কারণে": 2147,
      "হন": 2148,
      "গেছে": 2149,
      "দেশের": 2150,
      "মামলা": 2151,
      "কাছে": 2152,
      "হলে": 2153,
      "মাধ্যমে": 2154,
      "বলা": 2155,
      "নাম": 2156,
      "একটা": 2157,
      "শেষ": 2158,
      "হলো": 2159,
      "ভারতের": 2160,
      "তথ্য": 2161,
      "দলের": 2162,
      "তৈরি": 2163,
      "কারণ": 2164,
      "দিকে": 2165,
      "যদি": 2166,
      "সরকার": 2167,
      "এমন": 2168,
      "আমি": 2169,
      "দেন": 2170,
      "##—": 2171,
      "জাতীয়": 2172,
      "তিন": 2173,
      "তাই": 2174,
      "##সহ": 2175,
      "দিতে": 2176,
      "ক্ষেত্রে": 2177,
      "কি": 2178,
      "সাথে": 2179,
      "সম্পদ": 2180,
      "জন": 2181,
      "ব্যবহার": 2182,
      "ভালো": 2183,
      "ধরনের": 2184,
      "ঢাকা": 2185,
      "##এর": 2186,
      "থাকা": 2187,
      "রহমান": 2188,
      "এসব": 2189,
      "দল": 2190,
      "ছাড়া": 2191,
      "টাকার": 2192,
      "পরে": 2193,
      "যাবে": 2194,
      "হয়েছিল": 2195,
      "প্রতি": 2196,
      "এটা": 2197,
      "ধরে": 2198,
      "বিষয়ে": 2199,
      "##তে": 2200,
      "কী": 2201,
      "অংশ": 2202,
      "দুটি": 2203,
      "হওয়ার": 2204,
      "তাঁকে": 2205,
      "ফলে": 2206,
      "পারেন": 2207,
      "নেতা": 2208,
      "তো": 2209,
      "খুব": 2210,
      "আমার": 2211,
      "সাধারণ": 2212,
      "তখন": 2213,
      "নামে": 2214,
      "জানান": 2215,
      "দেশে": 2216,
      "শেখ": 2217,
      "মানুষ": 2218,
      "হয়নি": 2219,
      "বিশ্ববিদ্যালয়": 2220,
      "হোসেন": 2221,
      "একই": 2222,
      "যেতে": 2223,
      "এতে": 2224,
      "দ্বিতীয়": 2225,
      "উত্তর": 2226,
      "বিভাগের": 2227,
      "বলেছেন": 2228,
      "বছরের": 2229,
      "সবচেয়ে": 2230,
      "বিশেষ": 2231,
      "সেখানে": 2232,
      "নারী": 2233,
      "প্রধানমন্ত্রী": 2234,
      "এখানে": 2235,
      "অন্য": 2236,
      "##দের": 2237,
      "দায়িত্ব": 2238,
      "আবার": 2239,
      "বেশ": 2240,
      "যখন": 2241,
      "সংখ্যা": 2242,
      "সরকারের": 2243,
      "করছে": 2244,
      "হল": 2245,
      "সুযোগ": 2246,
      "সম্পাদক": 2247,
      "হক": 2248,
      "##–": 2249,
      "বিভাগ": 2250,
      "আইন": 2251,
      "হওয়া": 2252,
      "কেউ": 2253,
      "পুলিশ": 2254,
      "সময়ে": 2255,
      "করছেন": 2256,
      "মানুষের": 2257,
      "মো": 2258,
      "শুধু": 2259,
      "কম": 2260,
      "নিতে": 2261,
      "গিয়ে": 2262,
      "করেছিলেন": 2263,
      "পরিচালক": 2264,
      "সদস্য": 2265,
      "অবৈধ": 2266,
      "আন্তর্জাতিক": 2267,
      "নেওয়া": 2268,
      "ভারত": 2269,
      "মার্কিন": 2270,
      "তাকে": 2271,
      "ব্যবস্থা": 2272,
      "মামলার": 2273,
      "বন্ধ": 2274,
      "এরপর": 2275,
      "##য়": 2276,
      "পড়ে": 2277,
      "দক্ষিণ": 2278,
      "রাজনৈতিক": 2279,
      "আওয়ামী": 2280,
      "নির্বাচন": 2281,
      "শতাংশ": 2282,
      "মূল": 2283,
      "নিজের": 2284,
      "কে": 2285,
      "ইসলাম": 2286,
      "অভিযোগ": 2287,
      "প্রকাশ": 2288,
      "চলে": 2289,
      "সাবেক": 2290,
      "দেওয়ার": 2291,
      "যেমন": 2292,
      "নানা": 2293,
      "##টি": 2294,
      "জানা": 2295,
      "তাহলে": 2296,
      "অর্থ": 2297,
      "তুলে": 2298,
      "যাচ্ছে": 2299,
      "দেয়": 2300,
      "বিষয়টি": 2301,
      "অনুযায়ী": 2302,
      "আলোকে": 2303,
      "কেন": 2304,
      "যার": 2305,
      "থাকতে": 2306,
      "সেটা": 2307,
      "চেষ্টা": 2308,
      "কোন": 2309,
      "মিয়ানমারের": 2310,
      "অন্যান্য": 2311,
      "হলেও": 2312,
      "র": 2313,
      "এলাকায়": 2314,
      "দ্য": 2315,
      "বিএনপি": 2316,
      "হাতে": 2317,
      "এবার": 2318,
      "যান": 2319,
      "পালন": 2320,
      "অন্যতম": 2321,
      "অক্টোবর": 2322,
      "নিশ্চিত": 2323,
      "নির্বাহী": 2324,
      "লাভ": 2325,
      "দাবি": 2326,
      "সৃষ্টি": 2327,
      "খান": 2328,
      "সরকারি": 2329,
      "অবস্থিত": 2330,
      "রান": 2331,
      "পরিচিত": 2332,
      "গ্রেপ্তার": 2333,
      "ঘোষণা": 2334,
      "পাশাপাশি": 2335,
      "দ্বারা": 2336,
      "গুরুত্বপূর্ণ": 2337,
      "করলে": 2338,
      "কারও": 2339,
      "অবরুদ্ধ": 2340,
      "কর্মকর্তা": 2341,
      "দাম": 2342,
      "হার": 2343,
      "দিয়েছেন": 2344,
      "প্রয়োজন": 2345,
      "গতকাল": 2346,
      "অর্জন": 2347,
      "স্থানীয়": 2348,
      "##এ": 2349,
      "চার": 2350,
      "উচিত": 2351,
      "শিক্ষা": 2352,
      "মাত্র": 2353,
      "অব": 2354,
      "করি": 2355,
      "জেলা": 2356,
      "আদালত": 2357,
      "সম্পর্কে": 2358,
      "তদন্ত": 2359,
      "পক্ষে": 2360,
      "যুক্তরাষ্ট্রের": 2361,
      "বলতে": 2362,
      "থাকবে": 2363,
      "বিএনপির": 2364,
      "এখনো": 2365,
      "রাখা": 2366,
      "ঘটনা": 2367,
      "বাংলাদেশে": 2368,
      "পাঁচ": 2369,
      "ছোট": 2370,
      "মামলায়": 2371,
      "অবস্থান": 2372,
      "আপনার": 2373,
      "করবে": 2374,
      "হয়েছেন": 2375,
      "সিদ্ধান্ত": 2376,
      "ফিরে": 2377,
      "বিষয়": 2378,
      "উপজেলার": 2379,
      "তম": 2380,
      "ভারতীয়": 2381,
      "নির্বাচনে": 2382,
      "নির্বাচিত": 2383,
      "বন্ধু": 2384,
      "দেশ": 2385,
      "বর্তমানে": 2386,
      "সম্ভব": 2387,
      "##স": 2388,
      "চেয়ে": 2389,
      "পরিমাণ": 2390,
      "চলচ্চিত্র": 2391,
      "##ন": 2392,
      "গড়ে": 2393,
      "শেষে": 2394,
      "##া": 2395,
      "সাল": 2396,
      "জেলার": 2397,
      "সমস্যা": 2398,
      "পরিবর্তন": 2399,
      "প্রেসিডেন্ট": 2400,
      "বিপক্ষে": 2401,
      "হিসাবে": 2402,
      "চৌধুরী": 2403,
      "ছবি": 2404,
      "শুক্রবার": 2405,
      "অভিযান": 2406,
      "আলোচনা": 2407,
      "সভাপতি": 2408,
      "আসে": 2409,
      "আদালতের": 2410,
      "মা": 2411,
      "গ্রহণ": 2412,
      "ক্রিকেট": 2413,
      "ভূমিকা": 2414,
      "পথ": 2415,
      "মাস": 2416,
      "ব্যাংকে": 2417,
      "পেতে": 2418,
      "পানি": 2419,
      "সেপ্টেম্বর": 2420,
      "খালেদা": 2421,
      "যেন": 2422,
      "থেকেই": 2423,
      "লীগের": 2424,
      "রাখতে": 2425,
      "নভেম্বর": 2426,
      "প্রতিষ্ঠান": 2427,
      "উল্লেখ": 2428,
      "##রা": 2429,
      "রেখে": 2430,
      "ব্যাপারে": 2431,
      "অনুষ্ঠানে": 2432,
      "অর্জনের": 2433,
      "বর্তমান": 2434,
      "দুদক": 2435,
      "সড়ক": 2436,
      "দিয়েছে": 2437,
      "জন্ম": 2438,
      "সম্পদের": 2439,
      "বিশ্বের": 2440,
      "এম": 2441,
      "আছেন": 2442,
      "কিংবা": 2443,
      "এসে": 2444,
      "অভিনয়": 2445,
      "মে": 2446,
      "নিজেদের": 2447,
      "সহকারী": 2448,
      "যোগ": 2449,
      "রোহিঙ্গাদের": 2450,
      "নামের": 2451,
      "ছয়": 2452,
      "মাসে": 2453,
      "##ি": 2454,
      "ইউনিয়ন": 2455,
      "স্বাধীনতা": 2456,
      "সর্বোচ্চ": 2457,
      "রকম": 2458,
      "সামনে": 2459,
      "যেখানে": 2460,
      "মোট": 2461,
      "কয়েক": 2462,
      "মধ্য": 2463,
      "অনুষ্ঠিত": 2464,
      "দেখে": 2465,
      "তৃতীয়": 2466,
      "কাদের": 2467,
      "বের": 2468,
      "ঘটে": 2469,
      "ঠিক": 2470,
      "আলী": 2471,
      "মাসের": 2472,
      "পুরস্কার": 2473,
      "ঢাকার": 2474,
      "নেন": 2475,
      "উপস্থিত": 2476,
      "ডিসেম্বর": 2477,
      "আবেদন": 2478,
      "বঙ্গবন্ধু": 2479,
      "উপজেলা": 2480,
      "জানতে": 2481,
      "আয়োজন": 2482,
      "নেওয়ার": 2483,
      "বক্তব্য": 2484,
      "যাওয়ার": 2485,
      "সামাজিক": 2486,
      "চেয়ারম্যান": 2487,
      "যাওয়া": 2488,
      "আগের": 2489,
      "পান": 2490,
      "ভোট": 2491,
      "বাংলা": 2492,
      "আল": 2493,
      "শহরের": 2494,
      "উইকেট": 2495,
      "জানিয়েছেন": 2496,
      "এগিয়ে": 2497,
      "পর্যায়ে": 2498,
      "আইনে": 2499,
      "এসেছে": 2500,
      "দুদকের": 2501,
      "যারা": 2502,
      "করেছিল": 2503,
      "কীভাবে": 2504,
      "ব্যাংক": 2505,
      "করবেন": 2506,
      "আলম": 2507,
      "কলেজ": 2508,
      "ধারণা": 2509,
      "আগামী": 2510,
      "সারা": 2511,
      "পাশে": 2512,
      "অবস্থায়": 2513,
      "প্রশ্ন": 2514,
      "যুক্ত": 2515,
      "ভাগ": 2516,
      "এনামুল": 2517,
      "আদালতে": 2518,
      "অভিযোগে": 2519,
      "যদিও": 2520,
      "নিরাপত্তা": 2521,
      "দিনের": 2522,
      "বাইরে": 2523,
      "জামিন": 2524,
      "চলছে": 2525,
      "যাতে": 2526,
      "থাকেন": 2527,
      "ব্যাংকের": 2528,
      "বোলিং": 2529,
      "মুখে": 2530,
      "আলোচনায়": 2531,
      "পেয়ে": 2532,
      "সেটি": 2533,
      "কয়েকটি": 2534,
      "দলে": 2535,
      "আপনি": 2536,
      "জীবন": 2537,
      "স্থান": 2538,
      "আশা": 2539,
      "সামরিক": 2540,
      "উপর": 2541,
      "পূর্ব": 2542,
      "দেখতে": 2543,
      "পায়": 2544,
      "খাবার": 2545,
      "ব্রিটিশ": 2546,
      "হয়তো": 2547,
      "উন্নয়ন": 2548,
      "##গুলো": 2549,
      "খবর": 2550,
      "##টা": 2551,
      "গান": 2552,
      "সবাই": 2553,
      "ই": 2554,
      "কাজে": 2555,
      "তিনটি": 2556,
      "অথবা": 2557,
      "মার্চ": 2558,
      "ক্ষমতা": 2559,
      "নিহত": 2560,
      "মোহাম্মদ": 2561,
      "অ্যান্ড": 2562,
      "বাজারে": 2563,
      "পুলিশের": 2564,
      "প্রকাশিত": 2565,
      "থাকার": 2566,
      "ঘটনায়": 2567,
      "আনা": 2568,
      "পরিবারের": 2569,
      "ভাই": 2570,
      "চাইলে": 2571,
      "তাতে": 2572,
      "যাঁরা": 2573,
      "রায়": 2574,
      "চালু": 2575,
      "বিশ্ববিদ্যালয়ে": 2576,
      "অধিকার": 2577,
      "কখনো": 2578,
      "দীর্ঘ": 2579,
      "উদ্যোগ": 2580,
      "হলেন": 2581,
      "শুভ": 2582,
      "পাবেন": 2583,
      "হাসিনা": 2584,
      "আলাদা": 2585,
      "জুলাই": 2586,
      "শহর": 2587,
      "হতো": 2588,
      "একটু": 2589,
      "গেল": 2590,
      "কেবল": 2591,
      "এত": 2592,
      "রাজধানীর": 2593,
      "বেড়ে": 2594,
      "নম্বর": 2595,
      "বাবা": 2596,
      "তালিকায়": 2597,
      "সবার": 2598,
      "পুরো": 2599,
      "হত্যা": 2600,
      "সম্পর্ক": 2601,
      "জুন": 2602,
      "সূত্র": 2603,
      "দলীয়": 2604,
      "দ্রুত": 2605,
      "আহমেদ": 2606,
      "কাছ": 2607,
      "ব্যক্তি": 2608,
      "আবদুল": 2609,
      "জমা": 2610,
      "স্থাবর": 2611,
      "্যাব": 2612,
      "চট্টগ্রাম": 2613,
      "শহীদ": 2614,
      "আগস্ট": 2615,
      "রাখার": 2616,
      "সেরা": 2617,
      "অর্থনৈতিক": 2618,
      "জানুয়ারি": 2619,
      "সিটি": 2620,
      "পাকিস্তান": 2621,
      "শিক্ষক": 2622,
      "আলো": 2623,
      "বিরোধী": 2624,
      "পাওয়ার": 2625,
      "পূর্ণ": 2626,
      "কুমিল্লা": 2627,
      "কিলোমিটার": 2628,
      "পাকিস্তানের": 2629,
      "পরবর্তী": 2630,
      "স্ত্রী": 2631,
      "উঠে": 2632,
      "হারিয়ে": 2633,
      "বিক্রি": 2634,
      "এলাকার": 2635,
      "পরিবহন": 2636,
      "কেন্দ্রীয়": 2637,
      "অস্ত্র": 2638,
      "নির্মাণ": 2639,
      "মুক্তি": 2640,
      "গেলে": 2641,
      "ক্রিকেটে": 2642,
      "এপ্রিল": 2643,
      "বৃহস্পতিবার": 2644,
      "মেডিকেল": 2645,
      "পরিস্থিতি": 2646,
      "নারীদের": 2647,
      "যেসব": 2648,
      "আসা": 2649,
      "নিয়ন্ত্রণ": 2650,
      "প্রাথমিক": 2651,
      "নিয়োগ": 2652,
      "জায়গা": 2653,
      "ম্যাচে": 2654,
      "মন্তব্য": 2655,
      "জি": 2656,
      "কত": 2657,
      "চারটি": 2658,
      "দরকার": 2659,
      "মারা": 2660,
      "ধরা": 2661,
      "অবশ্য": 2662,
      "জিয়ার": 2663,
      "ইউনিয়নের": 2664,
      "বাতিল": 2665,
      "যেকোনো": 2666,
      "কয়েকজন": 2667,
      "গাড়ি": 2668,
      "চা": 2669,
      "সময়ের": 2670,
      "কাজের": 2671,
      "ইত্যাদি": 2672,
      "স্বাধীনতার": 2673,
      "নিয়েছে": 2674,
      "পরিণত": 2675,
      "স্থানে": 2676,
      "সদর": 2677,
      "পথে": 2678,
      "পরিবেশ": 2679,
      "আইনের": 2680,
      "হাসান": 2681,
      "বৃদ্ধি": 2682,
      "পরীক্ষা": 2683,
      "জিয়া": 2684,
      "বছরে": 2685,
      "অর্থাৎ": 2686,
      "পেয়েছেন": 2687,
      "জানিয়েছে": 2688,
      "রোহিঙ্গা": 2689,
      "হাত": 2690,
      "আসতে": 2691,
      "বাড়ি": 2692,
      "ফেব্রুয়ারি": 2693,
      "শিশু": 2694,
      "হামলা": 2695,
      "হোক": 2696,
      "নেয়": 2697,
      "চাই": 2698,
      "রাজ্যের": 2699,
      "ফেলে": 2700,
      "বিভাগে": 2701,
      "উচ্চ": 2702,
      "হওয়ায়": 2703,
      "কমিটির": 2704,
      "জরুরি": 2705,
      "থাকলে": 2706,
      "প্রতিটি": 2707,
      "পণ্য": 2708,
      "নির্বাচনের": 2709,
      "প্রদান": 2710,
      "বিশ্ব": 2711,
      "চিকিৎসা": 2712,
      "সংগ্রহ": 2713,
      "জনপ্রিয়": 2714,
      "নাগরিক": 2715,
      "আইসিজে": 2716,
      "ভাষা": 2717,
      "অবস্থা": 2718,
      "জানায়": 2719,
      "ওবায়দুল": 2720,
      "তালিকা": 2721,
      "প্রভাব": 2722,
      "মতে": 2723,
      "অন্যদিকে": 2724,
      "নির্দেশ": 2725,
      "বললেন": 2726,
      "বল": 2727,
      "সাড়ে": 2728,
      "মূলত": 2729,
      "যিনি": 2730,
      "পরিচালনা": 2731,
      "আবারও": 2732,
      "সংস্থা": 2733,
      "বিশ্বাস": 2734,
      "ম্যাচ": 2735,
      "রাতে": 2736,
      "শনিবার": 2737,
      "কেন্দ্র": 2738,
      "হাসপাতালে": 2739,
      "পদে": 2740,
      "করতেন": 2741,
      "এদের": 2742,
      "কিছুটা": 2743,
      "করুন": 2744,
      "চান": 2745,
      "আসলে": 2746,
      "লক্ষ্য": 2747,
      "গবেষণা": 2748,
      "ভর্তি": 2749,
      "অধ্যাপক": 2750,
      "ডলার": 2751,
      "এমনকি": 2752,
      "দিক": 2753,
      "ভূঁইয়া": 2754,
      "জায়গায়": 2755,
      "##ল": 2756,
      "পরিকল্পনা": 2757,
      "লেখা": 2758,
      "দিনে": 2759,
      "ছেড়ে": 2760,
      "সাধারণত": 2761,
      "পৃথক্": 2762,
      "যায়নি": 2763,
      "সহায়তা": 2764,
      "##ী": 2765,
      "ব্যবহৃত": 2766,
      "জয়": 2767,
      "ঘটনার": 2768,
      "দেশটির": 2769,
      "সকালে": 2770,
      "শুরুর": 2771,
      "##ণ": 2772,
      "বাস": 2773,
      "প্রার্থী": 2774,
      "আসার": 2775,
      "সুবিধা": 2776,
      "মাহমুদ": 2777,
      "এলাকা": 2778,
      "চুক্তি": 2779,
      "লীগ": 2780,
      "পারবে": 2781,
      "কার্যকর": 2782,
      "যোগাযোগ": 2783,
      "শীর্ষ": 2784,
      "গঠন": 2785,
      "মিলিয়ে": 2786,
      "আগেই": 2787,
      "সুপ্রিম": 2788,
      "এভাবে": 2789,
      "কমে": 2790,
      "অন্তর্ভুক্ত": 2791,
      "দশমিক": 2792,
      "মৃত্যু": 2793,
      "অঞ্চলের": 2794,
      "নিয়েছেন": 2795,
      "সমর্থন": 2796,
      "মত": 2797,
      "বাজার": 2798,
      "জড়িত": 2799,
      "তারিখে": 2800,
      "প্রতিবেদনে": 2801,
      "আরেকটি": 2802,
      "স্থাপন": 2803,
      "নদী": 2804,
      "সম্ভাবনা": 2805,
      "কার্যক্রম": 2806,
      "বুধবার": 2807,
      "নির্দেশনা": 2808,
      "বিজয়": 2809,
      "রানের": 2810,
      "প্রযুক্তি": 2811,
      "পেঁয়াজ": 2812,
      "বর্গ": 2813,
      "##অন্তর্বর্তীকালীন": 2814,
      "স্বাধীন": 2815,
      "আইনজীবী": 2816,
      "আসেন": 2817,
      "গেছেন": 2818,
      "পার": 2819,
      "অন্তত": 2820,
      "স্বাস্থ্য": 2821,
      "ছবির": 2822,
      "বাকি": 2823,
      "সংবাদ": 2824,
      "ব্যবসা": 2825,
      "প্রশ্নের": 2826,
      "বলছেন": 2827,
      "ইতিহাস": 2828,
      "পরিষ্কার": 2829,
      "রাসেল": 2830,
      "সম্প্রতি": 2831,
      "##ভাবে": 2832,
      "দিচ্ছে": 2833,
      "নারীর": 2834,
      "ট্রাম্প": 2835,
      "অথচ": 2836,
      "শিকার": 2837,
      "মাশরাফি": 2838,
      "স্কুল": 2839,
      "নিজেকে": 2840,
      "খেলা": 2841,
      "বহু": 2842,
      "উদ্ধার": 2843,
      "সংসদ": 2844,
      "মেয়ে": 2845,
      "জেনারেল": 2846,
      "ছেলে": 2847,
      "যুদ্ধ": 2848,
      "আয়": 2849,
      "ব্যর্থ": 2850,
      "ভুল": 2851,
      "পাঠানো": 2852,
      "আরেক": 2853,
      "রাত": 2854,
      "গাম্বিয়ার": 2855,
      "বরং": 2856,
      "ভারতে": 2857,
      "আন্দোলন": 2858,
      "অনুসারে": 2859,
      "পার্টির": 2860,
      "অধীনে": 2861,
      "আসামি": 2862,
      "প্রস্তাব": 2863,
      "উঠেছে": 2864,
      "দুজন": 2865,
      "টা": 2866,
      "ক্ষমতায়": 2867,
      "উন্নত": 2868,
      "জনগণের": 2869,
      "আসছে": 2870,
      "অঞ্চলে": 2871,
      "সেবা": 2872,
      "পুরুষ": 2873,
      "পারবেন": 2874,
      "সৌদি": 2875,
      "ভাষায়": 2876,
      "সরাসরি": 2877,
      "দিলেন": 2878,
      "তৎকালীন": 2879,
      "কর্তৃপক্ষ": 2880,
      "শহরে": 2881,
      "রানে": 2882,
      "থাকলেও": 2883,
      "খুবই": 2884,
      "একমাত্র": 2885,
      "গ্রামের": 2886,
      "গঠিত": 2887,
      "এছাড়াও": 2888,
      "অঞ্চল": 2889,
      "প্রয়োজনীয়": 2890,
      "বিয়ে": 2891,
      "চায়": 2892,
      "শ": 2893,
      "তেমন": 2894,
      "বেগম": 2895,
      "বয়স": 2896,
      "ওঠে": 2897,
      "আ": 2898,
      "ছাত্র": 2899,
      "পরিষদের": 2900,
      "সরকারকে": 2901,
      "অতিরিক্ত": 2902,
      "পক্ষ": 2903,
      "সাত": 2904,
      "পেয়েছে": 2905,
      "আসবে": 2906,
      "প্রথমে": 2907,
      "কঠিন": 2908,
      "সম্রাটের": 2909,
      "বিনিয়োগ": 2910,
      "খেলায়": 2911,
      "পেছনে": 2912,
      "নিয়মিত": 2913,
      "থানায়": 2914,
      "করেই": 2915,
      "দূরে": 2916,
      "জাতিসংঘের": 2917,
      "বেলা": 2918,
      "ওভার": 2919,
      "পরিবার": 2920,
      "আইনজীবীদের": 2921,
      "অনেকে": 2922,
      "শুনানির": 2923,
      "সফল": 2924,
      "কমিশন": 2925,
      "বাড়িতে": 2926,
      "খেলার": 2927,
      "প্রতিষ্ঠিত": 2928,
      "বিচারক": 2929,
      "আসন": 2930,
      "থানার": 2931,
      "আবুল": 2932,
      "রহমানের": 2933,
      "মাদক": 2934,
      "কৃষি": 2935,
      "বই": 2936,
      "একে": 2937,
      "জব্দ": 2938,
      "যুক্তরাষ্ট্র": 2939,
      "বসে": 2940,
      "পদক্ষেপের": 2941,
      "সহযোগিতা": 2942,
      "মৃত্যুর": 2943,
      "আদেশ": 2944,
      "নিজ": 2945,
      "পোশাক": 2946,
      "রাজনীতি": 2947,
      "সাক্ষরতা": 2948,
      "রোববার": 2949,
      "জানিয়ে": 2950,
      "শাসন": 2951,
      "মানে": 2952,
      "বলছে": 2953,
      "লোক": 2954,
      "চালিয়ে": 2955,
      "##গুলোর": 2956,
      "উল্লেখযোগ্য": 2957,
      "অপরাধ": 2958,
      "আক্রান্ত": 2959,
      "জীবনের": 2960,
      "মুসলিম": 2961,
      "থানা": 2962,
      "করায়": 2963,
      "মডেল": 2964,
      "সৈয়দ": 2965,
      "ছড়িয়ে": 2966,
      "প্রভাবশালী": 2967,
      "জানানো": 2968,
      "ব্যাপক": 2969,
      "সহজ": 2970,
      "তেল": 2971,
      "ক্রোক": 2972,
      "কর্মকর্তাদের": 2973,
      "রাজ্য": 2974,
      "প্রতিবেদন": 2975,
      "রাজধানী": 2976,
      "উপলক্ষে": 2977,
      "কমিটি": 2978,
      "অনেকেই": 2979,
      "নিন": 2980,
      "কর্তৃক": 2981,
      "তুলনায়": 2982,
      "আহত": 2983,
      "দাগ": 2984,
      "পরিচালিত": 2985,
      "মাঠে": 2986,
      "অংশগ্রহণ": 2987,
      "আমাকে": 2988,
      "ফল": 2989,
      "পারেনি": 2990,
      "কাপ": 2991,
      "রূপন": 2992,
      "অফ": 2993,
      "বয়সী": 2994,
      "টেস্ট": 2995,
      "##বিষয়ক": 2996,
      "সিলেটের": 2997,
      "শক্তি": 2998,
      "উপপরিচালক": 2999,
      "চীনের": 3000,
      "গতি": 3001,
      "ওভারে": 3002,
      "নন": 3003,
      "জবাবে": 3004,
      "নদীর": 3005,
      "শুনানি": 3006,
      "একাধিক": 3007,
      "খুঁজে": 3008,
      "সোমবার": 3009,
      "আটক": 3010,
      "পদক্ষেপ": 3011,
      "##ক": 3012,
      "গ্রাম": 3013,
      "রাষ্ট্র": 3014,
      "যত": 3015,
      "খরচ": 3016,
      "তরুণ": 3017,
      "কর্মকর্তারা": 3018,
      "বাহিনীর": 3019,
      "পা": 3020,
      "স্বাভাবিক": 3021,
      "নিচে": 3022,
      "গড়": 3023,
      "##টির": 3024,
      "মাঝে": 3025,
      "সূত্রে": 3026,
      "কোচ": 3027,
      "মঙ্গলবার": 3028,
      "নামক": 3029,
      "পড়েছে": 3030,
      "পরিচয়": 3031,
      "আধুনিক": 3032,
      "বেসরকারি": 3033,
      "বিচারপতি": 3034,
      "দূর": 3035,
      "প্রমাণ": 3036,
      "ঢাকায়": 3037,
      "ভিন্ন": 3038,
      "অত্যন্ত": 3039,
      "সাহায্য": 3040,
      "কমিশনের": 3041,
      "পূর্বে": 3042,
      "নির্দিষ্ট": 3043,
      "শত": 3044,
      "প্রসঙ্গে": 3045,
      "উদ্দিন": 3046,
      "ইংরেজি": 3047,
      "মায়ের": 3048,
      "ক্লাবের": 3049,
      "করলেন": 3050,
      "মন্ত্রী": 3051,
      "দু": 3052,
      "প্রতিষ্ঠানের": 3053,
      "ওয়ার্ল্ড": 3054,
      "চীন": 3055,
      "সমস্যার": 3056,
      "প্রেমের": 3057,
      "পড়তে": 3058,
      "রাখে": 3059,
      "আর্থিক": 3060,
      "তারপর": 3061,
      "পৃথক": 3062,
      "পছন্দ": 3063,
      "রাজনীতিতে": 3064,
      "ভেঙে": 3065,
      "গণহত্যা": 3066,
      "সফর": 3067,
      "মাথায়": 3068,
      "শিক্ষার্থী": 3069,
      "আহ্বান": 3070,
      "সংশ্লিষ্ট": 3071,
      "মিটার": 3072,
      "আলোর": 3073,
      "আট": 3074,
      "উভয়": 3075,
      "চরিত্রে": 3076,
      "প্রতিষ্ঠা": 3077,
      "বাদ": 3078,
      "সকল": 3079,
      "ফেসবুক": 3080,
      "বাসায়": 3081,
      "ফোন": 3082,
      "সমাধান": 3083,
      "বিদেশি": 3084,
      "প্রকল্প": 3085,
      "শক্তিশালী": 3086,
      "মেনে": 3087,
      "বয়সে": 3088,
      "পক্ষের": 3089,
      "সিলেট": 3090,
      "স": 3091,
      "পরামর্শ": 3092,
      "–": 3093,
      "পাস": 3094,
      "##বিরোধী": 3095,
      "পশ্চিম": 3096,
      "মন্ত্রণালয়": 3097,
      "পূরণ": 3098,
      "অবশ্যই": 3099,
      "সন্তান": 3100,
      "সকাল": 3101,
      "ছবিতে": 3102,
      "স্বীকার": 3103,
      "সাংবাদিকদের": 3104,
      "দিয়েছিলেন": 3105,
      "চতুর্থ": 3106,
      "সি": 3107,
      "ঘণ্টা": 3108,
      "বাহিনী": 3109,
      "ম": 3110,
      "অধিকাংশ": 3111,
      "শামীমের": 3112,
      "বলেই": 3113,
      "দেবে": 3114,
      "পড়বে": 3115,
      "সাংবাদিক": 3116,
      "জন্মগ্রহণ": 3117,
      "মাছ": 3118,
      "হিসাব": 3119,
      "##গুলি": 3120,
      "ব্যক্তিদের": 3121,
      "স্পষ্ট": 3122,
      "নির্মিত": 3123,
      "শিল্প": 3124,
      "উৎপাদন": 3125,
      "ফোর্বস": 3126,
      "সম্পন্ন": 3127,
      "বার": 3128,
      "যুবলীগের": 3129,
      "পরের": 3130,
      "পারেননি": 3131,
      "বিখ্যাত": 3132,
      "বাংলাদেশি": 3133,
      "রক্ষা": 3134,
      "গ্রামে": 3135,
      "সঠিক": 3136,
      "চাপ": 3137,
      "পরবর্তীতে": 3138,
      "মিস": 3139,
      "রং": 3140,
      "বেড়েছে": 3141,
      "আরব": 3142,
      "সত্ত্বেও": 3143,
      "সেলিম": 3144,
      "রাজা": 3145,
      "ইউরোপীয়": 3146,
      "##িং": 3147,
      "মালিক": 3148,
      "নেতৃত্ব": 3149,
      "শিক্ষার্থীদের": 3150,
      "কর": 3151,
      "শফিকুল": 3152,
      "সংগঠন": 3153,
      "নির্বাচনী": 3154,
      "ব্যক্তিগত": 3155,
      "মুজিবুর": 3156,
      "যুগ্ম": 3157,
      "ঘরে": 3158,
      "হামলার": 3159,
      "চিত্র": 3160,
      "যাত্রা": 3161,
      "চূড়ান্ত": 3162,
      "দুর্নীতি": 3163,
      "বলেছিলেন": 3164,
      "বাঙালি": 3165,
      "এস": 3166,
      "লাল": 3167,
      "প্রচার": 3168,
      "সহ": 3169,
      "অভিজ্ঞতা": 3170,
      "পারি": 3171,
      "লেখক": 3172,
      "করব": 3173,
      "সেতুমন্ত্রী": 3174,
      "মান": 3175,
      "প্রক্রিয়া": 3176,
      "নিয়োগের": 3177,
      "মামলাটি": 3178,
      "প্রতিনিধি": 3179,
      "অনুষ্ঠানের": 3180,
      "বুঝতে": 3181,
      "চলচ্চিত্রে": 3182,
      "ধর্মীয়": 3183,
      "বিমান": 3184,
      "দিলে": 3185,
      "পুরোনো": 3186,
      "##ার": 3187,
      "রাখাইনে": 3188,
      "গুরুত্ব": 3189,
      "সংস্থার": 3190,
      "অনুষ্ঠান": 3191,
      "যুবলীগ": 3192,
      "ভিডিও": 3193,
      "বিচারব্যবস্থা": 3194,
      "প্রস্তুত": 3195,
      "মানসিক": 3196,
      "মিনিট": 3197,
      "দিবস": 3198,
      "##রাষ্ট্রমন্ত্রীর": 3199,
      "রাসেলের": 3200,
      "সচিব": 3201,
      "করছি": 3202,
      "হিন্দু": 3203,
      "গল্প": 3204,
      "হবেন": 3205,
      "প্রচলিত": 3206,
      "##ভিত্তিক": 3207,
      "শিশুদের": 3208,
      "সংকট": 3209,
      "চালানো": 3210,
      "মোবাইল": 3211,
      "হয়েছিলেন": 3212,
      "যুক্তরাজ্যের": 3213,
      "থেমে": 3214,
      "ক্ষতি": 3215,
      "বিদ্যালয়": 3216,
      "বেশির": 3217,
      "সহযোগী": 3218,
      "অনুসন্ধান": 3219,
      "জনসংখ্যা": 3220,
      "বেছে": 3221,
      "দুজনের": 3222,
      "জীবনে": 3223,
      "মানুষকে": 3224,
      "স্থায়ী": 3225,
      "সাদা": 3226,
      "প্রশাসন": 3227,
      "তারকা": 3228,
      "সভায়": 3229,
      "সম্পূর্ণ": 3230,
      "টেবিল": 3231,
      "মৌসুমে": 3232,
      "ধীরে": 3233,
      "কোম্পানি": 3234,
      "বিল": 3235,
      "##ো": 3236,
      "প্রাচীন": 3237,
      "এদিকে": 3238,
      "হত্যার": 3239,
      "দখল": 3240,
      "বন্ধুর": 3241,
      "লক্ষ": 3242,
      "কম্পিউটার": 3243,
      "মন": 3244,
      "পৃথিবীর": 3245,
      "কোথাও": 3246,
      "কোথায়": 3247,
      "খারাপ": 3248,
      "ঐতিহাসিক": 3249,
      "মুক্ত": 3250,
      "লিখেছেন": 3251,
      "আবু": 3252,
      "উদাহরণ": 3253,
      "থাকায়": 3254,
      "যথাক্রমে": 3255,
      "বাংলাদেশকে": 3256,
      "ব্যবসায়ী": 3257,
      "ক্লাব": 3258,
      "মন্ত্রণালয়ের": 3259,
      "ব্যবস্থাপনা": 3260,
      "এনে": 3261,
      "ভিত্তিতে": 3262,
      "জার্মান": 3263,
      "শব্দ": 3264,
      "ফিরিয়ে": 3265,
      "গেলেন": 3266,
      "করেছি": 3267,
      "প্রশিক্ষণ": 3268,
      "আক্রমণ": 3269,
      "উইকেটে": 3270,
      "ট্রাম্পের": 3271,
      "বিপুল": 3272,
      "মহিলা": 3273,
      "##তা": 3274,
      "ঐ": 3275,
      "চাকরি": 3276,
      "বিদ্যুৎ": 3277,
      "ফুটবল": 3278,
      "কোর্টের": 3279,
      "পড়ুন": 3280,
      "সমাজের": 3281,
      "কুমার": 3282,
      "##ত": 3283,
      "প্রতিযোগিতার": 3284,
      "রোগ": 3285,
      "ভবন": 3286,
      "ফলাফল": 3287,
      "গণতন্ত্র": 3288,
      "সেগুলো": 3289,
      "ভূঁইয়ার": 3290,
      "খাদ্য": 3291,
      "অধিনায়ক": 3292,
      "এছাড়া": 3293,
      "সম্মেলনে": 3294,
      "বর্গমূল": 3295,
      "চলমান": 3296,
      "ভর": 3297,
      "মুখ": 3298,
      "অসুস্থ": 3299,
      "##চামচ": 3300,
      "বৈশিষ্ট্যপূর্ণ": 3301,
      "এগুলো": 3302,
      "ইতিমধ্যে": 3303,
      "নাকি": 3304,
      "অফিস": 3305,
      "ইমিগ্রেশন": 3306,
      "এনামুলের": 3307,
      "বিশাল": 3308,
      "বি": 3309,
      "সহসভাপতি": 3310,
      "প্রতিদিন": 3311,
      "লড়াই": 3312,
      "নেমে": 3313,
      "দেয়া": 3314,
      "##্": 3315,
      "চোখে": 3316,
      "চলতি": 3317,
      "কংগ্রেসের": 3318,
      "কর্মসূচি": 3319,
      "বার্তা": 3320,
      "কাজী": 3321,
      "কালো": 3322,
      "##গুলির": 3323,
      "কারাদণ্ড": 3324,
      "বাধ্য": 3325,
      "চোখ": 3326,
      "ব্যক্তির": 3327,
      "কেজি": 3328,
      "করপোরেশনের": 3329,
      "পরিস্থিতির": 3330,
      "লাগে": 3331,
      "ছবিটি": 3332,
      "সক্ষম": 3333,
      "পদ্ধতি": 3334,
      "আধা": 3335,
      "নির্যাতন": 3336,
      "যুদ্ধে": 3337,
      "পার্টি": 3338,
      "ছাড়াও": 3339,
      "নিজস্ব": 3340,
      "বিজ্ঞান": 3341,
      "টানা": 3342,
      "অল্প": 3343,
      "হোসেনের": 3344,
      "রেকর্ড": 3345,
      "নেতৃত্বে": 3346,
      "হাসপাতাল": 3347,
      "আমদানি": 3348,
      "মিলিয়ন": 3349,
      "উপজেলায়": 3350,
      "জ্যেষ্ঠ": 3351,
      "রচনা": 3352,
      "আন্দোলনের": 3353,
      "শুনে": 3354,
      "প্রধানমন্ত্রীর": 3355,
      "ফেরত": 3356,
      "কারণেই": 3357,
      "বিন": 3358,
      "শাহ": 3359,
      "যৌন": 3360,
      "যথেষ্ট": 3361,
      "তদন্তে": 3362,
      "চলতে": 3363,
      "খাতে": 3364,
      "কেমন": 3365,
      "বোঝা": 3366,
      "সমিতির": 3367,
      "অনলাইন": 3368,
      "অপর": 3369,
      "ঘটেছে": 3370,
      "তামাবিল": 3371,
      "খ্রিষ্টাব্দে": 3372,
      "কাল": 3373,
      "আশঙ্কা": 3374,
      "শুরুতে": 3375,
      "অভিনেতা": 3376,
      "আস্থা": 3377,
      "বিভাগকে": 3378,
      "প্রতিযোগিতা": 3379,
      "রয়েছেন": 3380,
      "উন্নতি": 3381,
      "প্রচুর": 3382,
      "কংগ্রেস": 3383,
      "বদলে": 3384,
      "প্রতিনিধিত্ব": 3385,
      "মধ্যেই": 3386,
      "দায়": 3387,
      "বিবেচনা": 3388,
      "রাখেন": 3389,
      "স্ব": 3390,
      "কলকাতা": 3391,
      "চামচ": 3392,
      "চিকিৎসক": 3393,
      "ভ্রাম্যমাণ": 3394,
      "সতর্ক": 3395,
      "ব্যয়": 3396,
      "আসনে": 3397,
      "আনতে": 3398,
      "তোলা": 3399,
      "গোল": 3400,
      "কন্যা": 3401,
      "বিজেপি": 3402,
      "দেখার": 3403,
      "##পররাষ্ট্রমন্ত্রী": 3404,
      "বিয়ের": 3405,
      "সাম্প্রতিক": 3406,
      "বাধা": 3407,
      "ফেলতে": 3408,
      "ডি": 3409,
      "জন্যই": 3410,
      "উন্নয়নের": 3411,
      "সবাইকে": 3412,
      "ধারণ": 3413,
      "চিহ্নিত": 3414,
      "টিভি": 3415,
      "শামীম": 3416,
      "চলা": 3417,
      "ভিত্তি": 3418,
      "লম্বা": 3419,
      "অ": 3420,
      "জমি": 3421,
      "রঙের": 3422,
      "মহানগর": 3423,
      "একবার": 3424,
      "খন্দকার": 3425,
      "ডিগ্রি": 3426,
      "সেখান": 3427,
      "পাবে": 3428,
      "নির্মাণের": 3429,
      "##কর্মীদের": 3430,
      "দশকে": 3431,
      "ছয়টি": 3432,
      "প্রবেশ": 3433,
      "কবি": 3434,
      "টেস্টে": 3435,
      "হত": 3436,
      "প্রতিযোগিতায়": 3437,
      "সর্বশেষ": 3438,
      "যুদ্ধের": 3439,
      "সেসব": 3440,
      "মিয়া": 3441,
      "দেবেন": 3442,
      "কাউন্সিলর": 3443,
      "##এই": 3444,
      "কিছুই": 3445,
      "সত্য": 3446,
      "##ড": 3447,
      "স্বীকৃতি": 3448,
      "বিবেচনায়": 3449,
      "দলকে": 3450,
      "হঠাৎ": 3451,
      "দমন": 3452,
      "স্বামী": 3453,
      "প্রতিনিধিরা": 3454,
      "উদ্দেশ্যে": 3455,
      "লক্ষ্যে": 3456,
      "বলেছে": 3457,
      "অভিনেত্রী": 3458,
      "যাই": 3459,
      "অভিযানে": 3460,
      "কর্মরত": 3461,
      "রাজশাহী": 3462,
      "সংখ্যালঘুদের": 3463,
      "পেঁয়াজের": 3464,
      "পদ": 3465,
      "সিং": 3466,
      "গানের": 3467,
      "থাকবেন": 3468,
      "প্রমুখ": 3469,
      "এসেছেন": 3470,
      "আটকে": 3471,
      "ব্যবহারের": 3472,
      "শুদ্ধি": 3473,
      "শিক্ষার": 3474,
      "নীতি": 3475,
      "প্রথমবারের": 3476,
      "দলটি": 3477,
      "অন্যদের": 3478,
      "ফুট": 3479,
      "বিসিবি": 3480,
      "ভাষার": 3481,
      "কর্মী": 3482,
      "জয়ী": 3483,
      "##উপাত্ত": 3484,
      "ভেতরে": 3485,
      "বাড়ছে": 3486,
      "পরাজিত": 3487,
      "জনের": 3488,
      "অবদান": 3489,
      "পর্বে": 3490,
      "নং": 3491,
      "পারিবারিক": 3492,
      "উপদেষ্টা": 3493,
      "জনগণ": 3494,
      "দশক": 3495,
      "সপ্তাহে": 3496,
      "নিউ": 3497,
      "আব্দুল": 3498,
      "বুদ্ধিজীবী": 3499,
      "খেতে": 3500,
      "বিয়োগ": 3501,
      "অবসান": 3502,
      "যুক্তি": 3503,
      "কমাতে": 3504,
      "জিয়াউর": 3505,
      "পড়েন": 3506,
      "বাবার": 3507,
      "পণ্যের": 3508,
      "পাঁচটি": 3509,
      "টিউলিপ": 3510,
      "মৌলিক": 3511,
      "বিশেষজ্ঞ": 3512,
      "পুনরায়": 3513,
      "চলচ্চিত্রের": 3514,
      "বিশ্বকাপ": 3515,
      "মুহাম্মদ": 3516,
      "তৈরির": 3517,
      "গরম": 3518,
      "সরিয়ে": 3519,
      "ব্যাখ্যা": 3520,
      "রাষ্ট্রপতি": 3521,
      "ধর্ম": 3522,
      "আনোয়ার": 3523,
      "করলেও": 3524,
      "তুলতে": 3525,
      "শীর্ষে": 3526,
      "করণের": 3527,
      "লাশ": 3528,
      "সরবরাহ": 3529,
      "ইতিহাসে": 3530,
      "রূপ": 3531,
      "যুগ": 3532,
      "দেখুন": 3533,
      "বাড়তি": 3534,
      "অতিথি": 3535,
      "জেলায়": 3536,
      "শিশুর": 3537,
      "খেলতে": 3538,
      "খাত": 3539,
      "সমাজ": 3540,
      "ইসলামের": 3541,
      "চলেছে": 3542,
      "অনলাইনে": 3543,
      "মেয়র": 3544,
      "এল": 3545,
      "যেহেতু": 3546,
      "##ম": 3547,
      "খেলোয়াড়": 3548,
      "প্রত্যাবাসন": 3549,
      "ভবিষ্যতে": 3550,
      "শিল্পী": 3551,
      "পরিষদ": 3552,
      "লেবার": 3553,
      "তেমনি": 3554,
      "ব্যাট": 3555,
      "একসঙ্গে": 3556,
      "বিকল্প": 3557,
      "বর্ণনা": 3558,
      "বিশিষ্ট": 3559,
      "ক্যাসিনো": 3560,
      "আগুন": 3561,
      "কঠোর": 3562,
      "খালেদের": 3563,
      "বাণিজ্য": 3564,
      "##ীয়": 3565,
      "নিয়ম": 3566,
      "আয়োজিত": 3567,
      "স্বপ্ন": 3568,
      "নিযুক্ত": 3569,
      "ইমাম": 3570,
      "ওরফে": 3571,
      "অভিযানের": 3572,
      "শিক্ষাক্রম": 3573,
      "শাখা": 3574,
      "আলোচনার": 3575,
      "পানির": 3576,
      "লোকজন": 3577,
      "অস্বীকার": 3578,
      "হাসিনার": 3579,
      "ডেভিড": 3580,
      "বিশ্বে": 3581,
      "গুলি": 3582,
      "সাংসদ": 3583,
      "খুশি": 3584,
      "রাস্তা": 3585,
      "ওয়ার্ড": 3586,
      "শেয়ার": 3587,
      "রপ্তানি": 3588,
      "প্রবাসী": 3589,
      "আরো": 3590,
      "সমালোচনা": 3591,
      "ইন্টারনেট": 3592,
      "ডিজিটাল": 3593,
      "লবণ": 3594,
      "অভিষেক": 3595,
      "টেলিভিশন": 3596,
      "সীমান্ত": 3597,
      "দেড়": 3598,
      "হাসপাতালের": 3599,
      "চাহিদা": 3600,
      "##ঃ": 3601,
      "যাচ্ছেন": 3602,
      "একক": 3603,
      "শিক্ষার্থীরা": 3604,
      "যানজট": 3605,
      "চামড়া": 3606,
      "পড়ার": 3607,
      "পর্ব": 3608,
      "এরা": 3609,
      "মুক্তিযুদ্ধের": 3610,
      "জনসংখ্যার": 3611,
      "অনেকের": 3612,
      "পরীক্ষায়": 3613,
      "কেটে": 3614,
      "স্কুলে": 3615,
      "ঝুঁকি": 3616,
      "ভারপ্রাপ্ত": 3617,
      "গণতান্ত্রিক": 3618,
      "চিন্তা": 3619,
      "উজ্জ্বল": 3620,
      "গাম্বিয়া": 3621,
      "কৃত্রিম": 3622,
      "পররাষ্ট্রসচিব": 3623,
      "বসবাস": 3624,
      "নিরাপদ": 3625,
      "শ্রমিক": 3626,
      "ওয়েস্ট": 3627,
      "আপিল": 3628,
      "নির্ধারিত": 3629,
      "পাচার": 3630,
      "নির্ধারণ": 3631,
      "আমলে": 3632,
      "ভাবে": 3633,
      "নাটক": 3634,
      "হাবিবুর": 3635,
      "আইনি": 3636,
      "দুর্বল": 3637,
      "উৎসব": 3638,
      "বিরাট": 3639,
      "যেটা": 3640,
      "ফেলার": 3641,
      "টু": 3642,
      "যুগে": 3643,
      "বেরিয়ে": 3644,
      "উদ্দেশ্য": 3645,
      "সাইফুল": 3646,
      "কলেজের": 3647,
      "ভেবে": 3648,
      "সাফল্য": 3649,
      "পাকিস্তানি": 3650,
      "অন্তর্গত": 3651,
      "নকশা": 3652,
      "আনার": 3653,
      "করত": 3654,
      "রাখাইনের": 3655,
      "রেখেছে": 3656,
      "আইসিজের": 3657,
      "বেতন": 3658,
      "বাস্তবায়ন": 3659,
      "সদস্যদের": 3660,
      "ইংল্যান্ড": 3661,
      "তদন্তের": 3662,
      "ঘনিষ্ঠ": 3663,
      "গ্রুপ": 3664,
      "মসজিদ": 3665,
      "ট্রাফিক": 3666,
      "গ্যাস": 3667,
      "ঘুরে": 3668,
      "রাজনীতির": 3669,
      "সংরক্ষণ": 3670,
      "সা": 3671,
      "অধিক": 3672,
      "খোলা": 3673,
      "পরীক্ষার": 3674,
      "শারীরিক": 3675,
      "সুন্দর": 3676,
      "এলেঙ্গা": 3677,
      "প্রমাণিত": 3678,
      "নীতিমালা": 3679,
      "আওতায়": 3680,
      "ওষুধ": 3681,
      "বঙ্গবন্ধুর": 3682,
      "মুছে": 3683,
      "পড়া": 3684,
      "##মা": 3685,
      "ইচ্ছা": 3686,
      "ইনিংস": 3687,
      "প্রশাসনিক": 3688,
      "সমগ্র": 3689,
      "এবারের": 3690,
      "দুপুরে": 3691,
      "##সংক্রান্ত": 3692,
      "সন্ধ্যায়": 3693,
      "ব্যবধানে": 3694,
      "হেগে": 3695,
      "বাড়ির": 3696,
      "কার": 3697,
      "বিজয়ী": 3698,
      "রায়ের": 3699,
      "প্রকল্পের": 3700,
      "প্রয়োগ": 3701,
      "পরও": 3702,
      "ছাত্রী": 3703,
      "ভবনের": 3704,
      "অস্ট্রেলিয়া": 3705,
      "যানবাহন": 3706,
      "প্রতিষ্ঠাতা": 3707,
      "রেল": 3708,
      "নষ্ট": 3709,
      "ইন": 3710,
      "পঞ্চম": 3711,
      "শ্রেষ্ঠ": 3712,
      "সূচনা": 3713,
      "জোর": 3714,
      "যথাযথ": 3715,
      "চুক্তির": 3716,
      "অনুমতি": 3717,
      "সমান": 3718,
      "বারবার": 3719,
      "পারলে": 3720,
      "মিলে": 3721,
      "সাড়া": 3722,
      "প্রতিষ্ঠার": 3723,
      "প্রাকৃতিক": 3724,
      "আঘাত": 3725,
      "পিতা": 3726,
      "আবেদনের": 3727,
      "হালকা": 3728,
      "সাংস্কৃতিক": 3729,
      "সংখ্যার": 3730,
      "নেতাদের": 3731,
      "সপ্তাহের": 3732,
      "আচরণ": 3733,
      "ক্যারিয়ার": 3734,
      "আরমান": 3735,
      "ডোনাল্ড": 3736,
      "অর্থনীতি": 3737,
      "কামাল": 3738,
      "কার্যালয়": 3739,
      "মিজানুর": 3740,
      "প্রিয়": 3741,
      "হুমকি": 3742,
      "সেতু": 3743,
      "অপেক্ষা": 3744,
      "প্রকৃত": 3745,
      "পুরোপুরি": 3746,
      "টার": 3747,
      "কাউকে": 3748,
      "একসময়": 3749,
      "আগ্রহ": 3750,
      "প্রভৃতি": 3751,
      "আঞ্চলিক": 3752,
      "গণমাধ্যম": 3753,
      "সংসদের": 3754,
      "মাথা": 3755,
      "চলাচল": 3756,
      "হচ্ছেন": 3757,
      "করেনি": 3758,
      "করেননি": 3759,
      "নির্ভর": 3760,
      "দায়ী": 3761,
      "ঈদের": 3762,
      "ভোটের": 3763,
      "বিশ্লেষণ": 3764,
      "প্রস্তুতি": 3765,
      "গভীর": 3766,
      "##পুর": 3767,
      "সুপার": 3768,
      "বজায়": 3769,
      "মজুমদার": 3770,
      "কলকাতার": 3771,
      "কমিয়ে": 3772,
      "দপ্তর": 3773,
      "বোর্ড": 3774,
      "মূল্য": 3775,
      "কিনতে": 3776,
      "উপায়": 3777,
      "সামান্য": 3778,
      "বোধ": 3779,
      "ফুল": 3780,
      "ওপরে": 3781,
      "যাদের": 3782,
      "অনুমোদন": 3783,
      "নগদ": 3784,
      "মুখোমুখি": 3785,
      "শান্তি": 3786,
      "সেনা": 3787,
      "দেব": 3788,
      "অতি": 3789,
      "সেনাবাহিনীর": 3790,
      "নেতারা": 3791,
      "বাসা": 3792,
      "বাংলার": 3793,
      "কেন্দ্রে": 3794,
      "জাকির": 3795,
      "তুলনা": 3796,
      "করছিলেন": 3797,
      "খাতের": 3798,
      "যুক্তরাষ্ট্রে": 3799,
      "সংযুক্ত": 3800,
      "প্রতিবছর": 3801,
      "স্টেশন": 3802,
      "নিরাপত্তার": 3803,
      "আই": 3804,
      "আদায়": 3805,
      "অস্ট্রেলিয়ার": 3806,
      "টাকায়": 3807,
      "পুত্র": 3808,
      "ধারা": 3809,
      "বৈঠকে": 3810,
      "##তেই": 3811,
      "আবদুর": 3812,
      "সম্রাট": 3813,
      "যেভাবে": 3814,
      "দ্রব্যমূল্যের": 3815,
      "মনোনয়ন": 3816,
      "সংস্কৃতি": 3817,
      "ছাত্রলীগের": 3818,
      "খবরে": 3819,
      "সম্ভবত": 3820,
      "ভোগ": 3821,
      "চলবে": 3822,
      "নিরপেক্ষ": 3823,
      "মুদ্রা": 3824,
      "মোশতাক": 3825,
      "ড": 3826,
      "ফেসবুকে": 3827,
      "সংখ্যালঘু": 3828,
      "কোম্পানির": 3829,
      "দায়িত্বে": 3830,
      "মতিন": 3831,
      "ফেলা": 3832,
      "বৈশ্বিক": 3833,
      "পর্যবেক্ষণ": 3834,
      "টাঙ্গাইল": 3835,
      "দুধ": 3836,
      "ম্যাচের": 3837,
      "নিশ্চয়ই": 3838,
      "বিজেপির": 3839,
      "আকারে": 3840,
      "বৈঠক": 3841,
      "মিয়ানমার": 3842,
      "সুমি": 3843,
      "উৎস": 3844,
      "খেলে": 3845,
      "দশকের": 3846,
      "সদস্যরা": 3847,
      "কিছুদিন": 3848,
      "রাজ্যে": 3849,
      "লেগে": 3850,
      "জোট": 3851,
      "দাঁড়িয়ে": 3852,
      "লা": 3853,
      "ভয়": 3854,
      "কুমিল্লাকে": 3855,
      "পশ্চিমবঙ্গের": 3856,
      "সক্রিয়": 3857,
      "আশ্রয়": 3858,
      "গুলশান": 3859,
      "বিপরীতে": 3860,
      "কোর্ট": 3861,
      "জানি": 3862,
      "মুক্তির": 3863,
      "রাষ্ট্রের": 3864,
      "ইতিবাচক": 3865,
      "মন্দির": 3866,
      "##না": 3867,
      "অংশে": 3868,
      "মনোনীত": 3869,
      "পালিয়ে": 3870,
      "সংস্কার": 3871,
      "ক্রিকেটার": 3872,
      "বিদেশে": 3873,
      "সাফল্যের": 3874,
      "নেবেন": 3875,
      "ওয়ান্ডারার্স": 3876,
      "আফসানা": 3877,
      "ঘর": 3878,
      "ইউরোপের": 3879,
      "আজকের": 3880,
      "আসনের": 3881,
      "ধ্বংস": 3882,
      "মাধ্যমিক": 3883,
      "ভালোই": 3884,
      "ফ্রান্সের": 3885,
      "টায়": 3886,
      "পরপরই": 3887,
      "ঘিরে": 3888,
      "দেখানো": 3889,
      "বলি": 3890,
      "সংবিধান": 3891,
      "##পা": 3892,
      "দুর্নীতির": 3893,
      "রাষ্ট্রীয়": 3894,
      "সবুজ": 3895,
      "খালেদ": 3896,
      "সমীচীন": 3897,
      "সুতরাং": 3898,
      "টন": 3899,
      "বিকেল": 3900,
      "ঘরোয়া": 3901,
      "##ঢাকা": 3902,
      "উত্তরে": 3903,
      "প্রদেশের": 3904,
      "সামনের": 3905,
      "নীল": 3906,
      "কর্তৃপক্ষের": 3907,
      "আনন্দ": 3908,
      "ব্যক্তিত্ব": 3909,
      "ব্যাটিং": 3910,
      "তুমি": 3911,
      "বিনা": 3912,
      "গুগল": 3913,
      "মর্যাদা": 3914,
      "খানের": 3915,
      "যাবেন": 3916,
      "নিষিদ্ধ": 3917,
      "প্রকৌশলী": 3918,
      "নি": 3919,
      "উপাদান": 3920,
      "অনুরোধ": 3921,
      "সিনেমা": 3922,
      "তারেকুজ্জামান": 3923,
      "##িক": 3924,
      "মোদি": 3925,
      "চীনা": 3926,
      "মহাসচিব": 3927,
      "জানালেন": 3928,
      "প্রবণতা": 3929,
      "যেটি": 3930,
      "করিম": 3931,
      "ঘটতে": 3932,
      "নিলে": 3933,
      "অবসর": 3934,
      "দীর্ঘদিন": 3935,
      "কতটা": 3936,
      "সপ্তাহ": 3937,
      "ওজন": 3938,
      "নিজে": 3939,
      "থাকছে": 3940,
      "##ুল": 3941,
      "অর্থমন্ত্রী": 3942,
      "যৌথ": 3943,
      "বৃহত্তম": 3944,
      "##শ্রেণীর": 3945,
      "উঠতে": 3946,
      "স্পিনার": 3947,
      "কেন্দ্রের": 3948,
      "থাকুন": 3949,
      "শাস্তি": 3950,
      "যাঁদের": 3951,
      "শে": 3952,
      "সম্ভাব্য": 3953,
      "ভূমি": 3954,
      "আবাসিক": 3955,
      "সরে": 3956,
      "##জামায়াত": 3957,
      "চট্টগ্রামের": 3958,
      "ভাইস": 3959,
      "পরিবর্তনের": 3960,
      "কলেজে": 3961,
      "যাতায়াত": 3962,
      "রাশিয়ার": 3963,
      "প্রতিবাদ": 3964,
      "সম্মেলন": 3965,
      "তোলার": 3966,
      "ধান": 3967,
      "মানবিক": 3968,
      "মানি": 3969,
      "অব্যাহত": 3970,
      "স্নাতক": 3971,
      "বোঝায়": 3972,
      "ইংল্যান্ডের": 3973,
      "লাগছে": 3974,
      "গণহত্যার": 3975,
      "আইনমন্ত্রী": 3976,
      "পানিতে": 3977,
      "ন্যাশনাল": 3978,
      "ছাত্রীদের": 3979,
      "এটাই": 3980,
      "মানবাধিকার": 3981,
      "ইন্টারন্যাশনাল": 3982,
      "পোস্ট": 3983,
      "ইঙ্গিত": 3984,
      "লেগ": 3985,
      "পরিস্থিতিতে": 3986,
      "গ্রহণের": 3987,
      "রাস্তায়": 3988,
      "সভা": 3989,
      "ভেতর": 3990,
      "অগ্রগতি": 3991,
      "উপাচার্য": 3992,
      "গিয়েছিল": 3993,
      "##িত": 3994,
      "মাসদার": 3995,
      "বিদায়": 3996,
      "সংসদে": 3997,
      "ব্যাপার": 3998,
      "তীব্র": 3999,
      "হাজির": 4000,
      "পৌঁছে": 4001,
      "স্মার্টফোন": 4002,
      "বিভক্ত": 4003,
      "বিপিএল": 4004,
      "জারি": 4005,
      "কার্যালয়ে": 4006,
      "প্রতীক": 4007,
      "এশিয়ার": 4008,
      "ফর": 4009,
      "বোর্ডের": 4010,
      "গাড়ির": 4011,
      "সফরে": 4012,
      "ইসমাইল": 4013,
      "সমস্ত": 4014,
      "ক্ষতিগ্রস্ত": 4015,
      "নগর": 4016,
      "##গুলোতে": 4017,
      "যাত্রী": 4018,
      "তখনই": 4019,
      "ভাড়া": 4020,
      "তুলেছেন": 4021,
      "সৌম্য": 4022,
      "সোভিয়েত": 4023,
      "অনেকটা": 4024,
      "আনুমানিক": 4025,
      "নাগাদ": 4026,
      "চ্যালেঞ্জ": 4027,
      "চালায়": 4028,
      "তারিখ": 4029,
      "স্বল্প": 4030,
      "উদ্বোধনী": 4031,
      "মাংস": 4032,
      "##জ": 4033,
      "যুগের": 4034,
      "সম্মেলনের": 4035,
      "গাছ": 4036,
      "ক্যাচ": 4037,
      "পরিপ্রেক্ষিতে": 4038,
      "বিকেলে": 4039,
      "দেশকে": 4040,
      "বাড়বে": 4041,
      "আহসান": 4042,
      "কৌশল": 4043,
      "কাঁধে": 4044,
      "দর্শক": 4045,
      "বিদ্যমান": 4046,
      "শ্রদ্ধা": 4047,
      "কারফিউ": 4048,
      "রাজি": 4049,
      "জার্মানির": 4050,
      "তথা": 4051,
      "ক্ষুদ্র": 4052,
      "গভর্নর": 4053,
      "খাবারের": 4054,
      "চন্দ্র": 4055,
      "দাস": 4056,
      "পড়াশোনা": 4057,
      "তে": 4058,
      "বন্দর": 4059,
      "নাগরিকত্ব": 4060,
      "সফটওয়্যার": 4061,
      "গুঁড়া": 4062,
      "চিঠি": 4063,
      "উল্টো": 4064,
      "নিজেই": 4065,
      "সেদিন": 4066,
      "আখাউড়া": 4067,
      "দিনটি": 4068,
      "জাতির": 4069,
      "পরিদর্শক": 4070,
      "আউট": 4071,
      "এখনই": 4072,
      "অর্থের": 4073,
      "পেলে": 4074,
      "জ্ঞান": 4075,
      "##আনিসুল": 4076,
      "বোন": 4077,
      "সংস্করণ": 4078,
      "উন্নয়নে": 4079,
      "কারাগারে": 4080,
      "মিথ্যা": 4081,
      "গোলাম": 4082,
      "সহায়ক": 4083,
      "ফিরেছেন": 4084,
      "প্রায়ই": 4085,
      "ইনস্টিটিউট": 4086,
      "সু": 4087,
      "প্রাণ": 4088,
      "মুক্তিযোদ্ধা": 4089,
      "বিরোধিতা": 4090,
      "কোরিয়ার": 4091,
      "রেখেছেন": 4092,
      "সুরক্ষা": 4093,
      "এশিয়া": 4094,
      "ক্ষমতার": 4095,
      "সংগঠনের": 4096,
      "জলবায়ু": 4097,
      "বাণিজ্যিক": 4098,
      "উপ": 4099,
      "অবাক": 4100,
      "সংখ্যাটি": 4101,
      "##িয়া": 4102,
      "নামিয়ে": 4103,
      "কূটনৈতিক": 4104,
      "জেনে": 4105,
      "পয়েন্ট": 4106,
      "##য়ের": 4107,
      "দারুণ": 4108,
      "সড়কের": 4109,
      "কাছাকাছি": 4110,
      "টাইমস": 4111,
      "পরিবর্তে": 4112,
      "প্রতিষ্ঠানটি": 4113,
      "খেয়ে": 4114,
      "ঘুম": 4115,
      "শর্ত": 4116,
      "বলার": 4117,
      "বক্তব্যে": 4118,
      "চরিত্র": 4119,
      "আশাবাদী": 4120,
      "গাছের": 4121,
      "সাহিত্য": 4122,
      "সঙ্গীত": 4123,
      "আক্রমণের": 4124,
      "চাল": 4125,
      "ইউনিভার্সিটি": 4126,
      "সিরিজ": 4127,
      "সন্ত্রাসী": 4128,
      "সন্তানের": 4129,
      "বাড়িয়ে": 4130,
      "বাজেট": 4131,
      "সম্প্রদায়ের": 4132,
      "দিয়েছিল": 4133,
      "ক": 4134,
      "##এটা": 4135,
      "দফা": 4136,
      "অনেকগুলো": 4137,
      "রাখুন": 4138,
      "শোনা": 4139,
      "প্রতিক্রিয়া": 4140,
      "যাক": 4141,
      "বরাদ্দ": 4142,
      "নিধন": 4143,
      "লিখিত": 4144,
      "তত্ত্বাবধায়ক": 4145,
      "সম্মান": 4146,
      "কাটিয়ে": 4147,
      "চুল": 4148,
      "ইকবাল": 4149,
      "গেলেও": 4150,
      "আফ্রিকার": 4151,
      "রচিত": 4152,
      "ছাত্রদের": 4153,
      "জুটি": 4154,
      "ডাউকি": 4155,
      "লিমিটেড": 4156,
      "গবেষণায়": 4157,
      "প্রাণী": 4158,
      "প্রশাসনের": 4159,
      "চিনি": 4160,
      "জাহাঙ্গীর": 4161,
      "ক্রীড়া": 4162,
      "সিরিজের": 4163,
      "ছিলো": 4164,
      "সমাজে": 4165,
      "গোপন": 4166,
      "খাওয়া": 4167,
      "নামকরণ": 4168,
      "দক্ষিণে": 4169,
      "যানজটের": 4170,
      "বিশ্বকাপে": 4171,
      "প্রচারিত": 4172,
      "কবে": 4173,
      "সংগীত": 4174,
      "আমেরিকান": 4175,
      "মাত্রা": 4176,
      "মোকাবিলায়": 4177,
      "পরিবেশন": 4178,
      "সাংগঠনিক": 4179,
      "পারছে": 4180,
      "তোমার": 4181,
      "নিষেধাজ্ঞা": 4182,
      "ফরাসি": 4183,
      "ভ্রমণ": 4184,
      "দুর্ঘটনা": 4185,
      "প্রজাতির": 4186,
      "শহীদুল": 4187,
      "প্রকাশনা": 4188,
      "সন্দেহ": 4189,
      "ট্রেন": 4190,
      "যন্ত্র": 4191,
      "খুলে": 4192,
      "ইনিংসে": 4193,
      "##াল": 4194,
      "অনুসরণ": 4195,
      "অবস্থার": 4196,
      "গোয়েন্দা": 4197,
      "নির্দেশে": 4198,
      "শতকের": 4199,
      "দেখিয়ে": 4200,
      "নিয়ন্ত্রণে": 4201,
      "আদি": 4202,
      "টনি": 4203,
      "##নি": 4204,
      "ইসলামি": 4205,
      "বিমানবন্দর": 4206,
      "থিসারা": 4207,
      "উপহার": 4208,
      "হাসতে": 4209,
      "কুমিল্লার": 4210,
      "ডিম": 4211,
      "আহমদ": 4212,
      "পুরুষদের": 4213,
      "উন্মুক্ত": 4214,
      "সেনাবাহিনী": 4215,
      "কষ্ট": 4216,
      "তরুণদের": 4217,
      "আপনাকে": 4218,
      "অভ্যন্তরীণ": 4219,
      "দৈনিক": 4220,
      "সম্মাননা": 4221,
      "লাইন": 4222,
      "প্লাটুনের": 4223,
      "উদ্দেশে": 4224,
      "দেখি": 4225,
      "বেঁচে": 4226,
      "যেত": 4227,
      "আয়ের": 4228,
      "কারা": 4229,
      "গুণ": 4230,
      "প্রতিরোধ": 4231,
      "উদ্বোধন": 4232,
      "দুর্ভিক্ষ": 4233,
      "কারখানা": 4234,
      "শ্রেণির": 4235,
      "মুখ্যমন্ত্রী": 4236,
      "সাম্প্রদায়িক": 4237,
      "ঘরের": 4238,
      "সদস্যের": 4239,
      "ক্ষমতাসীন": 4240,
      "ডাক": 4241,
      "কিশোর": 4242,
      "মঞ্চে": 4243,
      "ধরেই": 4244,
      "বহিষ্কৃত": 4245,
      "হব": 4246,
      "খতিয়ে": 4247,
      "কর্মচারী": 4248,
      "##কারী": 4249,
      "তৈরী": 4250,
      "সীমাবদ্ধ": 4251,
      "শুভেচ্ছা": 4252,
      "বাড়তে": 4253,
      "জ্ঞাত": 4254,
      "শেখাতে": 4255,
      "অ্যাপ": 4256,
      "প্রতিনিধিদলের": 4257,
      "মিজান": 4258,
      "হলেই": 4259,
      "বাসস্ট্যান্ড": 4260,
      "আগ্রহী": 4261,
      "বৈশিষ্ট্য": 4262,
      "আইনশৃঙ্খলা": 4263,
      "দক্ষতা": 4264,
      "সংযোগ": 4265,
      "হোটেল": 4266,
      "মিনিটের": 4267,
      "##কেই": 4268,
      "ঘণ্টার": 4269,
      "হোতা": 4270,
      "দুইটি": 4271,
      "শরীরের": 4272,
      "উঠবে": 4273,
      "উচ্চতা": 4274,
      "বন্ধুত্ব": 4275,
      "নজরুল": 4276,
      "পাঠ": 4277,
      "মাঠ": 4278,
      "পার্থক্য": 4279,
      "আবাসন": 4280,
      "শরণার্থী": 4281,
      "##ব": 4282,
      "সন্ধান": 4283,
      "##তম": 4284,
      "কৃষক": 4285,
      "শব্দটি": 4286,
      "অভাব": 4287,
      "আমেরিকার": 4288,
      "ন্যায়বিচার": 4289,
      "কিছুক্ষণ": 4290,
      "রাস্তার": 4291,
      "বিস্তৃত": 4292,
      "ভাবতে": 4293,
      "কাজেই": 4294,
      "ব্যাটসম্যান": 4295,
      "ওপেনার": 4296,
      "এলে": 4297,
      "লোকমান": 4298,
      "জঙ্গি": 4299,
      "জাপানের": 4300,
      "সংস্থাটি": 4301,
      "প্রদর্শন": 4302,
      "গুরুতর": 4303,
      "কার্যক্রমের": 4304,
      "##তার": 4305,
      "ভূমিকায়": 4306,
      "কাকে": 4307,
      "অভিনন্দন": 4308,
      "ওআইসি": 4309,
      "দূরের": 4310,
      "কেননা": 4311,
      "গ্রুপের": 4312,
      "সম্পর্কিত": 4313,
      "মাটিতে": 4314,
      "একদল": 4315,
      "উৎসাহিত": 4316,
      "পাচ্ছে": 4317,
      "বৃদ্ধির": 4318,
      "প্রযুক্তির": 4319,
      "লন্ডনের": 4320,
      "বৌদ্ধ": 4321,
      "প্রশ্নে": 4322,
      "নৃশংসতা": 4323,
      "প্রণয়ন": 4324,
      "বিজ্ঞপ্তিতে": 4325,
      "পিছিয়ে": 4326,
      "উপস্থিতি": 4327,
      "জাহাজ": 4328,
      "কোর্স": 4329,
      "চোখের": 4330,
      "করল": 4331,
      "বিতর্ক": 4332,
      "রাশিয়া": 4333,
      "শতাব্দীর": 4334,
      "হারে": 4335,
      "সিস্টেম": 4336,
      "জয়ের": 4337,
      "রেলওয়ে": 4338,
      "পেয়েছিল": 4339,
      "উপস্থাপনের": 4340,
      "ফোরাম": 4341,
      "রক্ত": 4342,
      "দুপুর": 4343,
      "করিয়ে": 4344,
      "ডান": 4345,
      "বোমা": 4346,
      "আদর্শ": 4347,
      "লন্ডারিং": 4348,
      "ওসি": 4349,
      "দলটির": 4350,
      "কলকাতায়": 4351,
      "তিনিই": 4352,
      "করণ": 4353,
      "রুশ": 4354,
      "নৃশংসতার": 4355,
      "মুক্তিযুদ্ধ": 4356,
      "পাল্টা": 4357,
      "অভিজ্ঞ": 4358,
      "##গত": 4359,
      "মাশরাফির": 4360,
      "জড়িয়ে": 4361,
      "জুড়ে": 4362,
      "জটিল": 4363,
      "সাতটি": 4364,
      "প্রার্থীদের": 4365,
      "অভিনয়ের": 4366,
      "গ্রেপ্তারের": 4367,
      "জল": 4368,
      "সবকিছু": 4369,
      "হ্যাঁ": 4370,
      "চ্যানেল": 4371,
      "বন": 4372,
      "সম্পর্কের": 4373,
      "উপকরণ": 4374,
      "পার্লামেন্টে": 4375,
      "বিচারকদের": 4376,
      "সেতুর": 4377,
      "প্রজন্মের": 4378,
      "উপভোগ": 4379,
      "বিদ্যালয়ের": 4380,
      "বার্ষিক": 4381,
      "মনের": 4382,
      "ভোটে": 4383,
      "কালাম": 4384,
      "গবেষক": 4385,
      "পশ্চিমবঙ্গ": 4386,
      "নাগরিকদের": 4387,
      "পশ্চিমে": 4388,
      "জনকে": 4389,
      "পর্যায়ের": 4390,
      "রাজীব": 4391,
      "কমিশনার": 4392,
      "##বা": 4393,
      "সিদ্ধান্তের": 4394,
      "বাসিন্দা": 4395,
      "মাসখানেক": 4396,
      "কিনে": 4397,
      "মমিনুল": 4398,
      "জোরালো": 4399,
      "প্রদেশ": 4400,
      "ইবনে": 4401,
      "##পূর্ব": 4402,
      "আটজন": 4403,
      "পদ্ধতিতে": 4404,
      "প্রাপ্ত": 4405,
      "জানেন": 4406,
      "অভিযুক্ত": 4407,
      "লাগিয়ে": 4408,
      "পত্রিকার": 4409,
      "আনুগত্য": 4410,
      "দিল": 4411,
      "পছন্দের": 4412,
      "যোগ্যতা": 4413,
      "ওভারের": 4414,
      "ভাবনা": 4415,
      "ভবিষ্যৎ": 4416,
      "বিশ্বকাপের": 4417,
      "রান্না": 4418,
      "মি": 4419,
      "আকার": 4420,
      "অসাধারণ": 4421,
      "নির্মাতা": 4422,
      "সাঈদ": 4423,
      "প্রতিবেদককে": 4424,
      "ইসলামী": 4425,
      "তিনজন": 4426,
      "আফ্রিকা": 4427,
      "ত্যাগ": 4428,
      "ইংরেজ": 4429,
      "জন্যে": 4430,
      "##মূলক": 4431,
      "##বি": 4432,
      "এরই": 4433,
      "খুলনা": 4434,
      "পরবর্তীকালে": 4435,
      "অতিক্রম": 4436,
      "ধর্ষণের": 4437,
      "একাডেমি": 4438,
      "বলেও": 4439,
      "সেন্টার": 4440,
      "মেলা": 4441,
      "আন্দোলনে": 4442,
      "তামিম": 4443,
      "মহান": 4444,
      "ইরানের": 4445,
      "মুহূর্তে": 4446,
      "পাচ্ছেন": 4447,
      "প্রতিরক্ষা": 4448,
      "স্ববিরোধী": 4449,
      "বৈজ্ঞানিক": 4450,
      "সিদ্দিক": 4451,
      "পরিসংখ্যান": 4452,
      "নজর": 4453,
      "দিচ্ছেন": 4454,
      "পারমাণবিক": 4455,
      "বিক্ষোভ": 4456,
      "ফেসবুকের": 4457,
      "##যুক্ত": 4458,
      "কবিতা": 4459,
      "বৃষ্টি": 4460,
      "পবিত্র": 4461,
      "বলুন": 4462,
      "একদিন": 4463,
      "সেটির": 4464,
      "মেয়েদের": 4465,
      "আক্তার": 4466,
      "গবেষণার": 4467,
      "বলের": 4468,
      "হলুদ": 4469,
      "ষষ্ঠ": 4470,
      "পেরেরার": 4471,
      "ইসলামিক": 4472,
      "দোকান": 4473,
      "আপাতত": 4474,
      "স্টেট": 4475,
      "দক্ষ": 4476,
      "##একের": 4477,
      "অর্থনীতির": 4478,
      "কথায়": 4479,
      "তৎপরতা": 4480,
      "কার্ড": 4481,
      "স্কুলের": 4482,
      "অবশেষে": 4483,
      "সেটাই": 4484,
      "থাকত": 4485,
      "মতোই": 4486,
      "মানব": 4487,
      "দাঁড়ায়": 4488,
      "ফেরার": 4489,
      "ফ্যাশন": 4490,
      "যোগ্য": 4491,
      "বিনিময়": 4492,
      "কবির": 4493,
      "পূর্তি": 4494,
      "পেরেছে": 4495,
      "ওঠা": 4496,
      "সাংবিধানিক": 4497,
      "জানাতে": 4498,
      "কাপড়": 4499,
      "যোগাযোগের": 4500,
      "হকের": 4501,
      "পরদিন": 4502,
      "জাতি": 4503,
      "গঠনের": 4504,
      "রশীদ": 4505,
      "নরেন্দ্র": 4506,
      "ইঞ্চি": 4507,
      "গাজী": 4508,
      "আপনাদের": 4509,
      "যতটা": 4510,
      "হচ্ছিল": 4511,
      "ইন্ডিয়া": 4512,
      "নেবে": 4513,
      "চলচ্চিত্রটি": 4514,
      "নিকট": 4515,
      "পররাষ্ট্র": 4516,
      "নোবেল": 4517,
      "প্রশংসা": 4518,
      "ডেঙ্গু": 4519,
      "##সমূহ": 4520,
      "বাড়াতে": 4521,
      "হামলায়": 4522,
      "দাবিতে": 4523,
      "ত্রি": 4524,
      "মিল": 4525,
      "শাখার": 4526,
      "##অ্যান": 4527,
      "রস": 4528,
      "ইতিহাসের": 4529,
      "সচিবালয়": 4530,
      "অর": 4531,
      "শরীরে": 4532,
      "কাগজপত্র": 4533,
      "নিয়েই": 4534,
      "মসজিদের": 4535,
      "মাঝামাঝি": 4536,
      "করপোরেশন": 4537,
      "ব্যথা": 4538,
      "দৃশ্যমান": 4539,
      "ঘন": 4540,
      "পরিচিতি": 4541,
      "দিবসের": 4542,
      "বহন": 4543,
      "কাঁচা": 4544,
      "ভয়াবহ": 4545,
      "সংরক্ষিত": 4546,
      "বিধান": 4547,
      "পাঠাতে": 4548,
      "প্রচেষ্টা": 4549,
      "জগতে": 4550,
      "ক্রেডিট": 4551,
      "ডলারের": 4552,
      "বোলিংয়ে": 4553,
      "চুরি": 4554,
      "দেবী": 4555,
      "লাগবে": 4556,
      "সন্ধ্যা": 4557,
      "##্স": 4558,
      "বিচ্ছিন্ন": 4559,
      "পাবলিক": 4560,
      "ব্যস্ত": 4561,
      "করলেই": 4562,
      "সেগুলোর": 4563,
      "সভাপতিত্ব": 4564,
      "##টিতে": 4565,
      "অবনতি": 4566,
      "একপর্যায়ে": 4567,
      "অসংখ্য": 4568,
      "ফাউন্ডেশন": 4569,
      "পেরেছেন": 4570,
      "ফেলেছে": 4571,
      "আমির": 4572,
      "নিয়েছিল": 4573,
      "##জি": 4574,
      "##ং": 4575,
      "ব্যবসায়ীদের": 4576,
      "খুন": 4577,
      "##ণের": 4578,
      "ভারী": 4579,
      "নিম্ন": 4580,
      "ঢুকে": 4581,
      "কেনা": 4582,
      "পত্রিকা": 4583,
      "মমতা": 4584,
      "জাপান": 4585,
      "সুপারিশ": 4586,
      "রাজাপক্ষের": 4587,
      "উদ্যোগে": 4588,
      "প্রয়োজনে": 4589,
      "পাতা": 4590,
      "সেটাও": 4591,
      "তৃণমূল": 4592,
      "জাতিগত": 4593,
      "বন্য": 4594,
      "শাসনের": 4595,
      "বেশিরভাগ": 4596,
      "হাই": 4597,
      "সুস্থ": 4598,
      "শূন্য": 4599,
      "পাশের": 4600,
      "ধুঁকে": 4601,
      "মোকাবিলা": 4602,
      "পড়ছে": 4603,
      "সুফল": 4604,
      "সৃজনশীল": 4605,
      "বৈঠকের": 4606,
      "প্রেমিক": 4607,
      "কাউন্সিলের": 4608,
      "চরম": 4609,
      "সহজেই": 4610,
      "পাঠিয়ে": 4611,
      "রোড": 4612,
      "হতাশা": 4613,
      "চাইতে": 4614,
      "অবস্থানে": 4615,
      "প্রতিদ্বন্দ্বী": 4616,
      "ধন্যবাদ": 4617,
      "আয়তন": 4618,
      "সহজে": 4619,
      "প্রকাশের": 4620,
      "প্রেম": 4621,
      "ছাড়": 4622,
      "কথিত": 4623,
      "দান": 4624,
      "্যাবের": 4625,
      "ধর্মের": 4626,
      "##কেও": 4627,
      "শুধুমাত্র": 4628,
      "ছাড়াই": 4629,
      "দ্বিপক্ষীয়": 4630,
      "সবশেষ": 4631,
      "সচেতন": 4632,
      "স্মৃতি": 4633,
      "সেন": 4634,
      "ভালোবাসা": 4635,
      "সুলতান": 4636,
      "গায়ে": 4637,
      "ধাপ": 4638,
      "হারুন": 4639,
      "সমস্যায়": 4640,
      "কানাডা": 4641,
      "পদক": 4642,
      "দেশগুলোর": 4643,
      "আপনারা": 4644,
      "রাজস্ব": 4645,
      "শুটিং": 4646,
      "ক্যামেরা": 4647,
      "জনপ্রিয়তা": 4648,
      "গণতন্ত্রের": 4649,
      "পাই": 4650,
      "কাটা": 4651,
      "মিনিটে": 4652,
      "নগরের": 4653,
      "কেনার": 4654,
      "জেলে": 4655,
      "উঁচু": 4656,
      "পাশ": 4657,
      "ওবামা": 4658,
      "জ্বালানি": 4659,
      "তবুও": 4660,
      "কখনোই": 4661,
      "ঠান্ডা": 4662,
      "বরাত": 4663,
      "হত্যাকাণ্ডের": 4664,
      "ধর্ষণ": 4665,
      "কাজটা": 4666,
      "কর্মকর্তার": 4667,
      "মালান": 4668,
      "মুজিব": 4669,
      "বেঁধে": 4670,
      "হলের": 4671,
      "পরই": 4672,
      "চলার": 4673,
      "সাজা": 4674,
      "বাইরের": 4675,
      "##টিকে": 4676,
      "প্রত্যাহার": 4677,
      "প্রত্যেক": 4678,
      "আইনজীবীরা": 4679,
      "মাইল": 4680,
      "মেরামত": 4681,
      "আল্লাহ": 4682,
      "সংগীতশিল্পী": 4683,
      "মানের": 4684,
      "উপস্থাপন": 4685,
      "জমিতে": 4686,
      "কমেছে": 4687,
      "ফিরছেন": 4688,
      "এখানকার": 4689,
      "আকারের": 4690,
      "পারছেন": 4691,
      "মাহবুব": 4692,
      "চেয়ারপারসন": 4693,
      "প্রতিশ্রুতি": 4694,
      "চ্যান্সেলর": 4695,
      "রাসায়নিক": 4696,
      "পারস্পরিক": 4697,
      "মিশিয়ে": 4698,
      "ঘাটতি": 4699,
      "ভয়ংকর": 4700,
      "মির্জা": 4701,
      "বিবেচিত": 4702,
      "মরিচ": 4703,
      "কমপক্ষে": 4704,
      "অফিসে": 4705,
      "পাখি": 4706,
      "মধ্যেও": 4707,
      "কাজটি": 4708,
      "আকর্ষণ": 4709,
      "রংপুর": 4710,
      "একেবারে": 4711,
      "নিয়েছিলেন": 4712,
      "সুষ্ঠু": 4713,
      "উপন্যাস": 4714,
      "ওয়ানডে": 4715,
      "সামাল": 4716,
      "ব্যক্তিরা": 4717,
      "আনুষ্ঠানিকভাবে": 4718,
      "নিয়ন্ত্রিত": 4719,
      "বিস্তারিত": 4720,
      "দেশি": 4721,
      "শ্রমিকদের": 4722,
      "দৃষ্টি": 4723,
      "মাটি": 4724,
      "ব্যবধান": 4725,
      "প্রসঙ্গ": 4726,
      "সার্ভিস": 4727,
      "নেতৃত্বাধীন": 4728,
      "মিডিয়া": 4729,
      "বিবাহ": 4730,
      "চিকিৎসকের": 4731,
      "বিনিময়ে": 4732,
      "মূল্যবান": 4733,
      "শুরুতেই": 4734,
      "হাসি": 4735,
      "বাজারের": 4736,
      "সেনাপ্রধান": 4737,
      "পেলেন": 4738,
      "নেতিবাচক": 4739,
      "পাওনা": 4740,
      "বিপাকে": 4741,
      "ধরতে": 4742,
      "এজাহারে": 4743,
      "রক্ষাকারী": 4744,
      "শরীর": 4745,
      "##এমন": 4746,
      "যুক্তরাজ্য": 4747,
      "জবাব": 4748,
      "মৃত": 4749,
      "মেয়াদ": 4750,
      "খালি": 4751,
      "অনতিবিলম্বে": 4752,
      "রশিদ": 4753,
      "আগাম": 4754,
      "একধরনের": 4755,
      "সড়কে": 4756,
      "ওয়েবসাইট": 4757,
      "ব্যবসার": 4758,
      "পি": 4759,
      "পেয়েছিলেন": 4760,
      "শক্ত": 4761,
      "বাড়ানোর": 4762,
      "##সি": 4763,
      "সময়ই": 4764,
      "লেনদেন": 4765,
      "পায়নি": 4766,
      "পরিচালনায়": 4767,
      "রমনা": 4768,
      "নাতনি": 4769,
      "দৃশ্য": 4770,
      "প্রবৃদ্ধি": 4771,
      "শো": 4772,
      "মাসিক": 4773,
      "ক্ষমতাধর": 4774,
      "শুল্ক": 4775,
      "ধাপে": 4776,
      "ভাগ্য": 4777,
      "টিম": 4778,
      "লঙ্ঘন": 4779,
      "শপথ": 4780,
      "পারাপার": 4781,
      "রাজনীতিবিদ": 4782,
      "খেলেন": 4783,
      "পাসপোর্ট": 4784,
      "প্রতিমন্ত্রী": 4785,
      "ভুলে": 4786,
      "চুপ": 4787,
      "বিধানসভা": 4788,
      "বয়ে": 4789,
      "গিয়েছিলেন": 4790,
      "এটাও": 4791,
      "তারপরও": 4792,
      "জাতিসংঘ": 4793,
      "সাহায্যে": 4794,
      "গোটা": 4795,
      "প্রকৌশল": 4796,
      "জবাবদিহি": 4797,
      "সাকিব": 4798,
      "ইমরান": 4799,
      "স্টার": 4800,
      "বিশিষ্টজনেরা": 4801,
      "কাশেম": 4802,
      "জে": 4803,
      "##ট": 4804,
      "কক্ষে": 4805,
      "ব্যবসায়ীরা": 4806,
      "হালনাগাদ": 4807,
      "পৌরসভার": 4808,
      "তিনজনকে": 4809,
      "মুকুট": 4810,
      "সর্বাধিক": 4811,
      "জেল": 4812,
      "প্রদেশে": 4813,
      "নির্যাতনের": 4814,
      "জনগণকে": 4815,
      "সাজে": 4816,
      "রকমের": 4817,
      "বিকাশ": 4818,
      "মাদকদ্রব্য": 4819,
      "করলাম": 4820,
      "সুর": 4821,
      "সাম্রাজ্যের": 4822,
      "ট্রাস্ট": 4823,
      "দুজনই": 4824,
      "যাচাই": 4825,
      "ব্যবস্থার": 4826,
      "বিদ্যালয়ে": 4827,
      "বিজ্ঞপ্তি": 4828,
      "হ্রাস": 4829,
      "শনাক্ত": 4830,
      "খাওয়ার": 4831,
      "আবিষ্কার": 4832,
      "অফিসার": 4833,
      "জরিপ": 4834,
      "তত্ত্ব": 4835,
      "প্রবন্ধ": 4836,
      "আসল": 4837,
      "করণে": 4838,
      "আমেরিকা": 4839,
      "বাড়ানো": 4840,
      "ঠিকানা": 4841,
      "##লি": 4842,
      "বিষয়ক": 4843,
      "মিয়ানমারে": 4844,
      "বন্দ্যোপাধ্যায়": 4845,
      "টির": 4846,
      "মাধ্যম": 4847,
      "জিজ্ঞাসাবাদ": 4848,
      "হিউম্যানিটি": 4849,
      "চাষ": 4850,
      "প্রভাবিত": 4851,
      "বন্দী": 4852,
      "মৌসুম": 4853,
      "অন্যের": 4854,
      "ভোটার": 4855,
      "দে": 4856,
      "পার্ক": 4857,
      "পাথর": 4858,
      "বিলিয়ন": 4859,
      "ঠিকাদার": 4860,
      "যোগদান": 4861,
      "অপেক্ষায়": 4862,
      "ম্যার্কেল": 4863,
      "আইফোন": 4864,
      "গ্রন্থ": 4865,
      "সুবাদে": 4866,
      "রক্ষার": 4867,
      "দূরত্ব": 4868,
      "পেরেরা": 4869,
      "নেটওয়ার্ক": 4870,
      "হাউস": 4871,
      "চালক": 4872,
      "উপযুক্ত": 4873,
      "চেক": 4874,
      "##জনিত": 4875,
      "সন্তুষ্ট": 4876,
      "অংশের": 4877,
      "রোগের": 4878,
      "বিপিএলে": 4879,
      "ওঠার": 4880,
      "সর্বাত্মক": 4881,
      "দেখেন": 4882,
      "জানে": 4883,
      "দুর্বৃত্তদের": 4884,
      "বৃহৎ": 4885,
      "শাসনকাজে": 4886,
      "ল্যাপটপ": 4887,
      "পাকিস্তানে": 4888,
      "তবু": 4889,
      "বেগ": 4890,
      "বিস্তার": 4891,
      "বিবৃতিতে": 4892,
      "আদেশের": 4893,
      "রেহানার": 4894,
      "বিশেষত": 4895,
      "সুসম্পর্ক": 4896,
      "পদত্যাগ": 4897,
      "লন্ডনে": 4898,
      "পরিচয়ে": 4899,
      "নেতার": 4900,
      "আফগানিস্তানের": 4901,
      "দাঁড়িয়েছে": 4902,
      "পরিমাণে": 4903,
      "সাহস": 4904,
      "লিখে": 4905,
      "স্বাক্ষর": 4906,
      "জামাল": 4907,
      "হাইকোর্ট": 4908,
      "মেয়ের": 4909,
      "উপযোগী": 4910,
      "শক্তির": 4911,
      "পদের": 4912,
      "##টাই": 4913,
      "মতামত": 4914,
      "সেখানকার": 4915,
      "সম্প্রসারণ": 4916,
      "##য়া": 4917,
      "জজ": 4918,
      "সেন্ট": 4919,
      "সংসদীয়": 4920,
      "স্যার": 4921,
      "বানিয়ে": 4922,
      "অভিহিত": 4923,
      "অধিদপ্তরের": 4924,
      "পৌরসভা": 4925,
      "প্রতিবেশী": 4926,
      "চাপে": 4927,
      "তাপমাত্রা": 4928,
      "ইউসুফ": 4929,
      "বানানো": 4930,
      "##শ": 4931,
      "কোনও": 4932,
      "##হীন": 4933,
      "পরিচালনার": 4934,
      "জেনেছি": 4935,
      "খারিজ": 4936,
      "বাসে": 4937,
      "এসআই": 4938,
      "রা": 4939,
      "পরিবারে": 4940,
      "##গুলোকে": 4941,
      "আয়োজনে": 4942,
      "জমির": 4943,
      "হ্যাটট্রিক": 4944,
      "উসকানি": 4945,
      "খোঁজ": 4946,
      "আঙ্গেলা": 4947,
      "দিয়েই": 4948,
      "ফ্লাইট": 4949,
      "রোগী": 4950,
      "খেলছেন": 4951,
      "##সেটা": 4952,
      "অনুবাদ": 4953,
      "চেতনা": 4954,
      "ব্যক্তিকে": 4955,
      "এটিকে": 4956,
      "পারব": 4957,
      "বরিশাল": 4958,
      "ঘোষণার": 4959,
      "পর্যাপ্ত": 4960,
      "শ্রীলঙ্কা": 4961,
      "প্রকৃতি": 4962,
      "গঠনমূলক": 4963,
      "সালমান": 4964,
      "এখান": 4965,
      "ধারাবাহিক": 4966,
      "হাতের": 4967,
      "এন": 4968,
      "মোটরস": 4969,
      "রুপা": 4970,
      "স্পিকার": 4971,
      "রে": 4972,
      "দি": 4973,
      "নির্মাণকাজ": 4974,
      "আনুষ্ঠানিক": 4975,
      "কর্মীদের": 4976,
      "শাসক": 4977,
      "চেহারা": 4978,
      "যোগফল": 4979,
      "কাউন্সিল": 4980,
      "লেন": 4981,
      "এইচ": 4982,
      "নিচের": 4983,
      "মানিক": 4984,
      "বাংলায়": 4985,
      "ভালোভাবে": 4986,
      "কোরিয়া": 4987,
      "হত্যাকাণ্ড": 4988,
      "সীমিত": 4989,
      "জিনিস": 4990,
      "জাতের": 4991,
      "উদ্বেগ": 4992,
      "সালাহউদ্দিন": 4993,
      "যাওয়ায়": 4994,
      "বিপ্লব": 4995,
      "অপসারণ": 4996,
      "চক্রান্ত": 4997,
      "সীমান্তে": 4998,
      "##ির": 4999,
      "ইরান": 5000,
      "সমপরিমাণ": 5001,
      "ফখরুল": 5002,
      "রুপি": 5003,
      "বিমানের": 5004,
      "মনোযোগ": 5005,
      "বন্ধুকে": 5006,
      "মজার": 5007,
      "থেকেও": 5008,
      "পেস": 5009,
      "শিক্ষকদের": 5010,
      "গুজব": 5011,
      "দেখেছি": 5012,
      "সূত্রপাত": 5013,
      "প্রত্যাশা": 5014,
      "রাজ্জাক": 5015,
      "সমুদ্র": 5016,
      "মুসলমান": 5017,
      "দুটো": 5018,
      "প্রধানের": 5019,
      "ক্ষুব্ধ": 5020,
      "আগেও": 5021,
      "সমৃদ্ধ": 5022,
      "লোকসভা": 5023,
      "জিতে": 5024,
      "প্রেমে": 5025,
      "চিকিৎসার": 5026,
      "আম": 5027,
      "নদীতে": 5028,
      "বীর": 5029,
      "চালান": 5030,
      "ডেমোক্রেটিক": 5031,
      "বইয়ের": 5032,
      "হবার": 5033,
      "কর্তব্য": 5034,
      "ক্লাস": 5035,
      "ইনিংসের": 5036,
      "সঞ্চালনা": 5037,
      "শুধুই": 5038,
      "উদ্বোধনের": 5039,
      "পেশাদার": 5040,
      "স্থগিত": 5041,
      "উৎসবের": 5042,
      "দেশটিতে": 5043,
      "দৈর্ঘ্য": 5044,
      "প্রযোজক": 5045,
      "##পাড়া": 5046,
      "মামুনুর": 5047,
      "শতাধিক": 5048,
      "স্বার্থে": 5049,
      "স্মরণ": 5050,
      "অর্থে": 5051,
      "অর্ধেক": 5052,
      "সংঘটিত": 5053,
      "টিকে": 5054,
      "ইঞ্জিনিয়ার্স": 5055,
      "ফিরোজ": 5056,
      "এবারও": 5057,
      "স্বতন্ত্র": 5058,
      "হেফাজতে": 5059,
      "সংশোধন": 5060,
      "পশ্চিমা": 5061,
      "এসেছিলেন": 5062,
      "গানটি": 5063,
      "চেয়েও": 5064,
      "সম্প্রীতির": 5065,
      "নিবন্ধন": 5066,
      "হিন্দি": 5067,
      "সান": 5068,
      "কুচি": 5069,
      "কিনা": 5070,
      "##ায়": 5071,
      "ডেকে": 5072,
      "বাস্তবায়নে": 5073,
      "চেয়েছে": 5074,
      "রাম": 5075,
      "##কার": 5076,
      "নিলেন": 5077,
      "অবস্থানের": 5078,
      "যোগসাজশ": 5079,
      "খুনিদের": 5080,
      "আলোচিত": 5081,
      "গোলে": 5082,
      "প্রধানত": 5083,
      "সিন্ডিকেটের": 5084,
      "জাফর": 5085,
      "পাহাড়": 5086,
      "সবজি": 5087,
      "প্রবল": 5088,
      "বর্বরতা": 5089,
      "বেসামরিক": 5090,
      "জর্জ": 5091,
      "অ্যাপল": 5092,
      "মূল্যে": 5093,
      "পারত": 5094,
      "সময়টা": 5095,
      "তোলেন": 5096,
      "যুক্তরাজ্যে": 5097,
      "বিবিসি": 5098,
      "ভবনে": 5099,
      "সুলতানা": 5100,
      "গ্রহণযোগ্য": 5101,
      "নাকচ": 5102,
      "সেবার": 5103,
      "নিচ্ছে": 5104,
      "গাড়িতে": 5105,
      "উৎসবে": 5106,
      "ঈদ": 5107,
      "চারজন": 5108,
      "মনোভাব": 5109,
      "মন্ত্রিসভা": 5110,
      "এরপরই": 5111,
      "প্রিমিয়ার": 5112,
      "এফ": 5113,
      "শিরোপা": 5114,
      "ফি": 5115,
      "অনুমান": 5116,
      "বিপিএলের": 5117,
      "একর": 5118,
      "এড়িয়ে": 5119,
      "বিবৃতি": 5120,
      "গণ্য": 5121,
      "বাম": 5122,
      "সংস্কৃতির": 5123,
      "টিকিট": 5124,
      "ব্যবসায়": 5125,
      "আনিসুর": 5126,
      "সঙ্গী": 5127,
      "##বার": 5128,
      "ফার্স্ট": 5129,
      "মধ্যকার": 5130,
      "পিতার": 5131,
      "প্রতিষ্ঠানে": 5132,
      "ইউরোপ": 5133,
      "পূজা": 5134,
      "মাটির": 5135,
      "গরু": 5136,
      "মিলনায়তনে": 5137,
      "জমিদার": 5138,
      "##গণ": 5139,
      "প্রদর্শনী": 5140,
      "দেশীয়": 5141,
      "পার্লামেন্টারি": 5142,
      "ডিএনসিসি": 5143,
      "ধরন": 5144,
      "##সে": 5145,
      "বিশ্বব্যাপী": 5146,
      "নৌকা": 5147,
      "ফাউন্ডেশনের": 5148,
      "খেয়াল": 5149,
      "জেমস": 5150,
      "সংবিধানের": 5151,
      "দোকানি": 5152,
      "প্রশাসক": 5153,
      "হিসেব": 5154,
      "চালানোর": 5155,
      "যাকে": 5156,
      "জোটের": 5157,
      "আইএস": 5158,
      "পূর্বাভাস": 5159,
      "বাংলাদেশী": 5160,
      "##জামায়াতের": 5161,
      "ত্বকের": 5162,
      "ম্যাগাজিন": 5163,
      "দশ": 5164,
      "কমিউনিস্ট": 5165,
      "উঠছে": 5166,
      "নূর": 5167,
      "আরোপ": 5168,
      "বাস্তব": 5169,
      "সাগর": 5170,
      "গৃহীত": 5171,
      "উপাত্ত": 5172,
      "চ্যাম্পিয়ন": 5173,
      "লি": 5174,
      "ভিটামিন": 5175,
      "ফেলেন": 5176,
      "ঝড়": 5177,
      "##রূপে": 5178,
      "লাভের": 5179,
      "আগস্টের": 5180,
      "ইউ": 5181,
      "এটির": 5182,
      "বিজ্ঞাপন": 5183,
      "পত্রিকায়": 5184,
      "অন্যায়": 5185,
      "##গুলিতে": 5186,
      "এমপি": 5187,
      "নির্যাতিত": 5188,
      "শাড়ি": 5189,
      "আড়াই": 5190,
      "লন্ডন": 5191,
      "##কা": 5192,
      "আইসিসি": 5193,
      "মেশিন": 5194,
      "ঐতিহ্য": 5195,
      "বর্বরতার": 5196,
      "দেখছেন": 5197,
      "ফিটনেস": 5198,
      "ধাঁধা": 5199,
      "##কৃত": 5200,
      "ভিত্তিপ্রস্তর": 5201,
      "শুনতে": 5202,
      "##বার্ষিক": 5203,
      "##্বরাষ্ট্রমন্ত্রী": 5204,
      "দিকেই": 5205,
      "প্রাণীর": 5206,
      "ক্ষমা": 5207,
      "মাছের": 5208,
      "নিয়েও": 5209,
      "ইনস্টিটিউশনে": 5210,
      "ফারুক": 5211,
      "##শন": 5212,
      "অপরাধের": 5213,
      "তাঁদেরও": 5214,
      "প্রযোজনা": 5215,
      "অপরাজিত": 5216,
      "আল্লাহর": 5217,
      "আত্মত্যাগ": 5218,
      "অবকাঠামো": 5219,
      "মুখপাত্র": 5220,
      "জন্যও": 5221,
      "রাজ": 5222,
      "য়": 5223,
      "খুনের": 5224,
      "জরিমানা": 5225,
      "রাতের": 5226,
      "চাওয়া": 5227,
      "বাড়ে": 5228,
      "মেরে": 5229,
      "নারীরা": 5230,
      "কিশোরী": 5231,
      "আদমশুমারি": 5232,
      "জিজ্ঞাসা": 5233,
      "দর": 5234,
      "ময়মনসিংহ": 5235,
      "ক্ষতিকর": 5236,
      "রোহিঙ্গারা": 5237,
      "মীর": 5238,
      "তুলেছে": 5239,
      "উদ্": 5240,
      "পৃথিবীতে": 5241,
      "হরিণের": 5242,
      "জমে": 5243,
      "মুখ্য": 5244,
      "##ু": 5245,
      "তালিকার": 5246,
      "শতাংশের": 5247,
      "খাল": 5248,
      "মেলায়": 5249,
      "আসছেন": 5250,
      "##জাতীয়": 5251,
      "ইউনিয়নে": 5252,
      "পেটে": 5253,
      "ষড়যন্ত্র": 5254,
      "সোনার": 5255,
      "সহিংসতা": 5256,
      "ক্রমিক": 5257,
      "চাকরির": 5258,
      "দামে": 5259,
      "পারতেন": 5260,
      "দর্শন": 5261,
      "ক্যাসিনোর": 5262,
      "ওয়েব": 5263,
      "অস্তিত্ব": 5264,
      "আসায়": 5265,
      "চাইছেন": 5266,
      "সেদিকে": 5267,
      "ইন্ডিয়ান": 5268,
      "কিমি": 5269,
      "বন্যা": 5270,
      "মোদির": 5271,
      "সমন্বয়": 5272,
      "আওতাধীন": 5273,
      "আমিনুল": 5274,
      "##লা": 5275,
      "একদিকে": 5276,
      "ভ্রমণকারীদের": 5277,
      "সাব্বির": 5278,
      "তত": 5279,
      "একাদশ": 5280,
      "চর্চা": 5281,
      "কর্মকাণ্ড": 5282,
      "স্বেচ্ছায়": 5283,
      "উক্ত": 5284,
      "জ্যামাইকান": 5285,
      "সাক্ষাৎকারে": 5286,
      "পেল": 5287,
      "স্ত্রীর": 5288,
      "ক্ষেত্রেই": 5289,
      "সক্ষমতা": 5290,
      "নিয়োজিত": 5291,
      "প্রকট": 5292,
      "চক্রান্তের": 5293,
      "এয়ার": 5294,
      "অধিকারী": 5295,
      "ভাব": 5296,
      "আবদুল্লাহ": 5297,
      "পেরে": 5298,
      "বলিউড": 5299,
      "গড়তে": 5300,
      "সিরিজে": 5301,
      "মালিকদের": 5302,
      "পুরুষের": 5303,
      "ফ্রান্স": 5304,
      "বিদেশ": 5305,
      "ব্র্যান্ড": 5306,
      "গেম": 5307,
      "দর্শকদের": 5308,
      "রুশনারা": 5309,
      "তোলে": 5310,
      "ফায়ার": 5311,
      "সত্যি": 5312,
      "সশস্ত্র": 5313,
      "প্রশ্নবিদ্ধ": 5314,
      "পুরস্কারের": 5315,
      "স্বার্থ": 5316,
      "স্থাপিত": 5317,
      "চক্রবর্তী": 5318,
      "সাউথ": 5319,
      "ঐতিহ্যবাহী": 5320,
      "টেনে": 5321,
      "বিপরীত": 5322,
      "ব্যবসায়িক": 5323,
      "সিংয়ের": 5324,
      "দিল্লি": 5325,
      "জনতা": 5326,
      "কোনোভাবেই": 5327,
      "প্রাধান্য": 5328,
      "স্বর্ণালংকার": 5329,
      "জোড়া": 5330,
      "মিছিল": 5331,
      "লাগানো": 5332,
      "সীমানা": 5333,
      "##য়ে": 5334,
      "পাননি": 5335,
      "উইকেটের": 5336,
      "দগদগে": 5337,
      "মাদ্রাসা": 5338,
      "মেলে": 5339,
      "হুমায়ুন": 5340,
      "ভুয়া": 5341,
      "চলেছেন": 5342,
      "সমিতি": 5343,
      "কোড": 5344,
      "শব্দের": 5345,
      "কাঠামো": 5346,
      "আপত্তি": 5347,
      "ব্রিটেনের": 5348,
      "ব্যবহারকারী": 5349,
      "মোড়": 5350,
      "ক্ষেত্র": 5351,
      "রাজীবের": 5352,
      "মিষ্টি": 5353,
      "কূটনীতিক": 5354,
      "সভাপতির": 5355,
      "খ": 5356,
      "প্রত্যাগত": 5357,
      "কক্ষ": 5358,
      "আশপাশের": 5359,
      "শিক্ষার্থীর": 5360,
      "বাস্তবতা": 5361,
      "শ্রম": 5362,
      "নামাজ": 5363,
      "বিভাগীয়": 5364,
      "কথাও": 5365,
      "সংক্রান্ত": 5366,
      "রোমান": 5367,
      "পৃথিবী": 5368,
      "ওয়ান": 5369,
      "ভ্যাট": 5370,
      "ট্রাক": 5371,
      "স্বেচ্ছাসেবক": 5372,
      "উইন্ডোজ": 5373,
      "অপরাধে": 5374,
      "ঘটনাটি": 5375,
      "প্রাথমিকভাবে": 5376,
      "স্নাতকোত্তর": 5377,
      "ধারার": 5378,
      "সার্বিক": 5379,
      "ফাইনালে": 5380,
      "কল": 5381,
      "কাউন্টি": 5382,
      "গয়না": 5383,
      "বৈদেশিক": 5384,
      "ক্রিকেটের": 5385,
      "সফরও": 5386,
      "আগ": 5387,
      "##অস্থাবর": 5388,
      "বিতর্কের": 5389,
      "উপরে": 5390,
      "সনদ": 5391,
      "দেশটি": 5392,
      "শ্রেণি": 5393,
      "অবরোধ": 5394,
      "রিয়াল": 5395,
      "জন্মগ্রহণকারী": 5396,
      "প্রক্রিয়ায়": 5397,
      "বেড়াতে": 5398,
      "শ্রীলঙ্কার": 5399,
      "সেখানেই": 5400,
      "দুর্ঘটনায়": 5401,
      "দরিদ্র": 5402,
      "বুঝে": 5403,
      "অনেকটাই": 5404,
      "বোলার": 5405,
      "গণ": 5406,
      "দুর্ভাগ্য": 5407,
      "প্রচণ্ড": 5408,
      "নোট": 5409,
      "প্রত্যাখ্যান": 5410,
      "দলই": 5411,
      "অন্তর্বর্তী": 5412,
      "জানার": 5413,
      "##মাত্র": 5414,
      "চালাতে": 5415,
      "##কর্মীরা": 5416,
      "গ্রামীণ": 5417,
      "সমাবেশ": 5418,
      "একইভাবে": 5419,
      "বলবেন": 5420,
      "আলমগীর": 5421,
      "লিগ": 5422,
      "ছোট্ট": 5423,
      "পাওয়ায়": 5424,
      "প্রার্থীর": 5425,
      "কখনও": 5426,
      "পাব": 5427,
      "পতন": 5428,
      "নিউজিল্যান্ড": 5429,
      "##ব্রাহ্মণবাড়িয়া": 5430,
      "দুঃখ": 5431,
      "এসেছিল": 5432,
      "স্বামীর": 5433,
      "ওরা": 5434,
      "প্রবাহিত": 5435,
      "অনূর্ধ্ব": 5436,
      "বৈষম্য": 5437,
      "তখনকার": 5438,
      "ভাইয়ের": 5439,
      "অ্যালবাম": 5440,
      "আরবের": 5441,
      "পরপর": 5442,
      "শুনানিতে": 5443,
      "ন্যূনতম": 5444,
      "সমন্বয়ে": 5445,
      "প্রদানের": 5446,
      "গান্ধী": 5447,
      "বুক": 5448,
      "ধারায়": 5449,
      "এন্ড": 5450,
      "ওঠেন": 5451,
      "তীরে": 5452,
      "অংশগ্রহণের": 5453,
      "মন্ত্রিপরিষদ": 5454,
      "রোগীর": 5455,
      "সন্তানদের": 5456,
      "দুর্দান্ত": 5457,
      "স্থাপনা": 5458,
      "লেখার": 5459,
      "চেয়েছিলেন": 5460,
      "পার্বত্য": 5461,
      "ছোটখাটো": 5462,
      "জবাবদিহির": 5463,
      "অতিথিদের": 5464,
      "প্রজাতন্ত্র": 5465,
      "অভিযোগের": 5466,
      "বিচারের": 5467,
      "একা": 5468,
      "ছেলের": 5469,
      "আছি": 5470,
      "স্বরাষ্ট্র": 5471,
      "বরাবর": 5472,
      "লাইসেন্স": 5473,
      "চালিত": 5474,
      "অলিম্পিক": 5475,
      "নাটকের": 5476,
      "ভাল": 5477,
      "নিয়ন্ত্রক": 5478,
      "পদার্থ": 5479,
      "সূচক": 5480,
      "পায়ে": 5481,
      "শফিউল": 5482,
      "সম্প্রদায়": 5483,
      "ইউনাইটেড": 5484,
      "##েরা": 5485,
      "##বাড়ি": 5486,
      "দেখাতে": 5487,
      "আমন্ত্রিত": 5488,
      "নুরুল": 5489,
      "শিল্পের": 5490,
      "মারাত্মক": 5491,
      "প্রধানকে": 5492,
      "ঘোষ": 5493,
      "দারিদ্র্য": 5494,
      "প্রসঙ্গত": 5495,
      "পড়লে": 5496,
      "ঘটছে": 5497,
      "প্রকার": 5498,
      "সংক্ষিপ্ত": 5499,
      "##ভ": 5500,
      "কৌতূহল": 5501,
      "চর": 5502,
      "আদায়ে": 5503,
      "শিশুকে": 5504,
      "অগ্রসর": 5505,
      "পর্যটন": 5506,
      "দ্বীপ": 5507,
      "বাঁচার": 5508,
      "শেষের": 5509,
      "গোষ্ঠী": 5510,
      "সেঞ্চুরি": 5511,
      "আনিসের": 5512,
      "একদিনের": 5513,
      "বিশেষভাবে": 5514,
      "নেয়ামুল": 5515,
      "হোটেলে": 5516,
      "প্রতিষ্ঠানটির": 5517,
      "ব্যাপকভাবে": 5518,
      "বাস্তবায়নের": 5519,
      "এক্সপ্রেস": 5520,
      "প্রেক্ষাপট": 5521,
      "সিরিয়ার": 5522,
      "ত্বক": 5523,
      "দরজা": 5524,
      "বঞ্চিত": 5525,
      "কাঁধ": 5526,
      "দিনই": 5527,
      "বর্ষসেরা": 5528,
      "আশ্চর্য": 5529,
      "চলাচলের": 5530,
      "সারি": 5531,
      "##বেনআজ": 5532,
      "সংজ্ঞায়িত": 5533,
      "##কালীন": 5534,
      "বৃহত্তর": 5535,
      "বিক্রির": 5536,
      "প্রস্তাবিত": 5537,
      "##বহির্ভূত": 5538,
      "অর্থবছরে": 5539,
      "পেশায়": 5540,
      "হাটে": 5541,
      "অধিদপ্তর": 5542,
      "অমিত": 5543,
      "স্বার্থের": 5544,
      "জার্মানি": 5545,
      "ভিড়": 5546,
      "শতকে": 5547,
      "উৎপাদনের": 5548,
      "নাই": 5549,
      "গবেষকেরা": 5550,
      "সোচ্চার": 5551,
      "বটে": 5552,
      "অসম্ভব": 5553,
      "নায়ক": 5554,
      "আফগান": 5555,
      "##প্রথম": 5556,
      "দায়ে": 5557,
      "কর্মসূচির": 5558,
      "##সের": 5559,
      "টেনিস": 5560,
      "##রি": 5561,
      "অন": 5562,
      "শিশুরা": 5563,
      "আফগানিস্তান": 5564,
      "##র্ধ্বে": 5565,
      "ছুটি": 5566,
      "উত্তীর্ণ": 5567,
      "মজুরি": 5568,
      "অগ্রাধিকার": 5569,
      "ইস্ট": 5570,
      "শতাব্দীতে": 5571,
      "প্রান্তে": 5572,
      "অর্জনে": 5573,
      "দ্বন্দ্বের": 5574,
      "দক্ষিণের": 5575,
      "রেডিও": 5576,
      "স্বীকৃত": 5577,
      "সিইও": 5578,
      "নিবিড়": 5579,
      "পর্দায়": 5580,
      "এতই": 5581,
      "বিতর্কিত": 5582,
      "বিতরণ": 5583,
      "জিয়াকে": 5584,
      "নেদারল্যান্ডসের": 5585,
      "এশিয়ান": 5586,
      "মাঝারি": 5587,
      "কান": 5588,
      "মদ": 5589,
      "ততটা": 5590,
      "বয়সের": 5591,
      "নেপাল": 5592,
      "শুনেছেন": 5593,
      "কমানোর": 5594,
      "জেতা": 5595,
      "গ্রিক": 5596,
      "উদ্যোক্তা": 5597,
      "বিশ্বস্ত": 5598,
      "ছিলাম": 5599,
      "অধিনায়ককে": 5600,
      "সিংহ": 5601,
      "##লে": 5602,
      "ছিটকে": 5603,
      "বেঙ্গল": 5604,
      "সরকারী": 5605,
      "সাময়িকী": 5606,
      "মাশরাফিকে": 5607,
      "মূল্যায়ন": 5608,
      "বাদী": 5609,
      "ফজলুল": 5610,
      "চিহ্ন": 5611,
      "ধানের": 5612,
      "কো": 5613,
      "মনোবল": 5614,
      "লাভবান": 5615,
      "রয়ে": 5616,
      "মূল্যের": 5617,
      "ভাঙচুর": 5618,
      "সফরের": 5619,
      "ব্যাংকিং": 5620,
      "অভিনীত": 5621,
      "অবদানের": 5622,
      "টেলিভিশনে": 5623,
      "লেডি": 5624,
      "বিজ্ঞানী": 5625,
      "ধরেন": 5626,
      "ওয়াহাব": 5627,
      "##তেও": 5628,
      "জানুয়ারিতে": 5629,
      "মেরি": 5630,
      "বসুন্ধরা": 5631,
      "কৃষকের": 5632,
      "বিশ্বযুদ্ধের": 5633,
      "লোকের": 5634,
      "লক্ষণ": 5635,
      "ধরার": 5636,
      "পতাকা": 5637,
      "বিষয়গুলো": 5638,
      "ইউনিট": 5639,
      "মাইক্রোসফটের": 5640,
      "ব্যান্ড": 5641,
      "##কর্মী": 5642,
      "##মোকদ্দমা": 5643,
      "পোশাকের": 5644,
      "ধুয়ে": 5645,
      "সম্পর্কটা": 5646,
      "কর্মসংস্থান": 5647,
      "থাকেনি": 5648,
      "সত্যতা": 5649,
      "রোজা": 5650,
      "সহায়তায়": 5651,
      "মডেলের": 5652,
      "আকাশ": 5653,
      "বাছাই": 5654,
      "পায়ের": 5655,
      "নবী": 5656,
      "হোয়াইট": 5657,
      "লক্ষণীয়": 5658,
      "গণমাধ্যমে": 5659,
      "অনুষদের": 5660,
      "পরিশোধ": 5661,
      "নামেও": 5662,
      "ফসল": 5663,
      "##সমূহের": 5664,
      "আজও": 5665,
      "পাউন্ড": 5666,
      "অ্যাসোসিয়েশন": 5667,
      "আমন্ত্রণ": 5668,
      "##্য": 5669,
      "মাঠের": 5670,
      "কাপুর": 5671,
      "আরবি": 5672,
      "পাঠানোর": 5673,
      "সেভাবে": 5674,
      "বৈধ": 5675,
      "লিমিটেডের": 5676,
      "বিনিয়োগের": 5677,
      "প্রজাতি": 5678,
      "অপারেটিং": 5679,
      "প্রদত্ত": 5680,
      "পড়েছেন": 5681,
      "দোকানে": 5682,
      "রানা": 5683,
      "তুরস্কের": 5684,
      "প্রচারণা": 5685,
      "ছাপা": 5686,
      "মিত্র": 5687,
      "দুরূহ": 5688,
      "তথ্যপ্রযুক্তি": 5689,
      "ন্যায়": 5690,
      "জানাবেন": 5691,
      "ওয়ারিয়র্স": 5692,
      "সিনিয়র": 5693,
      "##হ": 5694,
      "অনুভব": 5695,
      "সবই": 5696,
      "বগুড়া": 5697,
      "ভোটারদের": 5698,
      "নির্ভরযোগ্য": 5699,
      "ছাড়িয়ে": 5700,
      "দুর্ঘটনার": 5701,
      "জ্বর": 5702,
      "তৈরিতে": 5703,
      "জানতেন": 5704,
      "কক্সবাজার": 5705,
      "যৌথভাবে": 5706,
      "দোষ": 5707,
      "মৃত্যুবরণ": 5708,
      "সিনেমার": 5709,
      "হেক্টর": 5710,
      "মাইকেল": 5711,
      "ফাঁস": 5712,
      "বিকৃত": 5713,
      "বিষয়ের": 5714,
      "কপি": 5715,
      "বিরতিতে": 5716,
      "দত্ত": 5717,
      "##দ": 5718,
      "মহা": 5719,
      "দলগুলোর": 5720,
      "পর্যালোচনা": 5721,
      "ডাকা": 5722,
      "দশম": 5723,
      "স্টেডিয়াম": 5724,
      "দখলে": 5725,
      "তরল": 5726,
      "ইলিশ": 5727,
      "প্রত্যক্ষ": 5728,
      "স্যামসাং": 5729,
      "খেলেছেন": 5730,
      "পরিবেশে": 5731,
      "ইউএনও": 5732,
      "উপায়ে": 5733,
      "গ্যাসের": 5734,
      "ভুগছেন": 5735,
      "ক্ষেত্রেও": 5736,
      "শহরটি": 5737,
      "যশোর": 5738,
      "খেলাপি": 5739,
      "ব": 5740,
      "জামায়াত": 5741,
      "বাটা": 5742,
      "জনগোষ্ঠীকে": 5743,
      "ডিগ্রী": 5744,
      "অ্যাকাউন্ট": 5745,
      "এক্স": 5746,
      "মেয়াদে": 5747,
      "রফিকুল": 5748,
      "কর্তৃপক্ষকে": 5749,
      "কার্যালয়ের": 5750,
      "সাংঘর্ষিক": 5751,
      "ব্যবস্থাপক": 5752,
      "শীর্ষক": 5753,
      "ঘোষিত": 5754,
      "প্রোগ্রাম": 5755,
      "অল": 5756,
      "ছাত্রীকে": 5757,
      "বর্জ্য": 5758,
      "করছিল": 5759,
      "বাধ্যতামূলক": 5760,
      "ভি": 5761,
      "উন্নীত": 5762,
      "ফ্রি": 5763,
      "আবহাওয়া": 5764,
      "জনগোষ্ঠীর": 5765,
      "রাহুল": 5766,
      "তথ্যমন্ত্রী": 5767,
      "হাফিজ": 5768,
      "কনজারভেটিভ": 5769,
      "সোনা": 5770,
      "প্রেক্ষাপটে": 5771,
      "এরশাদ": 5772,
      "চট্টগ্রামে": 5773,
      "বিমানবন্দরে": 5774,
      "ফোরামে": 5775,
      "চক্রের": 5776,
      "অ্যান্ড্রয়েড": 5777,
      "হতেন": 5778,
      "সপ্তম": 5779,
      "শতক": 5780,
      "দফায়": 5781,
      "নিউজিল্যান্ডের": 5782,
      "দেওয়ায়": 5783,
      "কারিগরি": 5784,
      "বোল্ড": 5785,
      "হেরে": 5786,
      "জনসন": 5787,
      "##আজ": 5788,
      "বলিউডের": 5789,
      "জারির": 5790,
      "সফলতা": 5791,
      "##েও": 5792,
      "টার্গেট": 5793,
      "একেবারেই": 5794,
      "এভাবেই": 5795,
      "মাসুদ": 5796,
      "##টার": 5797,
      "পৌর": 5798,
      "বুকে": 5799,
      "আবদ্ধ": 5800,
      "ম্যানেজার": 5801,
      "গরুর": 5802,
      "##ান": 5803,
      "ব্যায়াম": 5804,
      "মেঘালয়": 5805,
      "মন্ত্রিসভার": 5806,
      "সুনির্দিষ্ট": 5807,
      "হোন": 5808,
      "অনন্য": 5809,
      "পরেই": 5810,
      "শুনি": 5811,
      "খেলোয়াড়ী": 5812,
      "বন্ধুদের": 5813,
      "মোটরসাইকেল": 5814,
      "করাতে": 5815,
      "উইলিয়াম": 5816,
      "পরিদর্শন": 5817,
      "নারীকে": 5818,
      "ইয়াবা": 5819,
      "স্বাগত": 5820,
      "ভাগে": 5821,
      "জাপানি": 5822,
      "সামলে": 5823,
      "সংখ্যক": 5824,
      "##জানতে": 5825,
      "বিধিনিষেধ": 5826,
      "ধাক্কা": 5827,
      "কল্যাণ": 5828,
      "##প": 5829,
      "প্রশ্নোত্তর": 5830,
      "সমাধানের": 5831,
      "সার্জেন্ট": 5832,
      "আবাদ": 5833,
      "পেরিয়ে": 5834,
      "যাত্রীবাহী": 5835,
      "পূর্ণাঙ্গ": 5836,
      "সাইবার": 5837,
      "নিখোঁজ": 5838,
      "উড়ন্ত": 5839,
      "সম্পত্তি": 5840,
      "##বিহীন": 5841,
      "বিচিত্র": 5842,
      "##ছে": 5843,
      "মাথার": 5844,
      "রোগে": 5845,
      "মিয়ানমারকে": 5846,
      "##ম্যান": 5847,
      "এখানেই": 5848,
      "চৌধুরীর": 5849,
      "ব্র্যান্ডের": 5850,
      "সৃষ্টির": 5851,
      "পদ্মা": 5852,
      "উদ্ধারের": 5853,
      "অধ্যক্ষ": 5854,
      "ক্ষোভ": 5855,
      "মূর্তি": 5856,
      "মালিকেরা": 5857,
      "অস্বাভাবিক": 5858,
      "মার্ক": 5859,
      "জটিলতা": 5860,
      "প্রতিষ্ঠানগুলো": 5861,
      "ধনী": 5862,
      "ইসরায়েলের": 5863,
      "অভ্যাস": 5864,
      "প্রতিষ্ঠায়": 5865,
      "মর্যাদাপূর্ণ": 5866,
      "ইউরোপে": 5867,
      "যোগাযোগমাধ্যমে": 5868,
      "##কালে": 5869,
      "রবার্ট": 5870,
      "অনিয়ম": 5871,
      "##ছেন": 5872,
      "হিলারি": 5873,
      "ফেলেছিল": 5874,
      "উল্লেখ্য": 5875,
      "নিউইয়র্ক": 5876,
      "ডিজাইন": 5877,
      "উৎসাহ": 5878,
      "আটটি": 5879,
      "তহবিল": 5880,
      "বস্তু": 5881,
      "কয়লা": 5882,
      "ঝুঁকিপূর্ণ": 5883,
      "টেকসই": 5884,
      "বলব": 5885,
      "ক্ষুধা": 5886,
      "সৌজন্যে": 5887,
      "ছাত্রলীগ": 5888,
      "মূলতঃ": 5889,
      "চারপাশে": 5890,
      "সংগ্রাম": 5891,
      "সাম্রাজ্য": 5892,
      "ভাষ্য": 5893,
      "প্রকৃতির": 5894,
      "পদ্ধতির": 5895,
      "ওয়াশিংটন": 5896,
      "সমর্থক": 5897,
      "এসেও": 5898,
      "উন্নয়নশীল": 5899,
      "অভাবে": 5900,
      "উৎপাদিত": 5901,
      "নিলেও": 5902,
      "##িস": 5903,
      "উৎসর্গ": 5904,
      "ছুটির": 5905,
      "স্মরণীয়": 5906,
      "লেনে": 5907,
      "নামটি": 5908,
      "করণীয়": 5909,
      "দীর্ঘায়িত": 5910,
      "মঞ্চ": 5911,
      "কমিশনে": 5912,
      "মন্ত্রিসভায়": 5913,
      "গ্র্যান্ড": 5914,
      "সত্যিকারে": 5915,
      "এলিজাবেথ": 5916,
      "পর্যটকদের": 5917,
      "আমিন": 5918,
      "বসতি": 5919,
      "ডাল": 5920,
      "শফিকুর": 5921,
      "সমবয়সী": 5922,
      "মৌসুমের": 5923,
      "মহাসড়কের": 5924,
      "ডিসেম্বরে": 5925,
      "চার্লস": 5926,
      "অষ্টম": 5927,
      "বিরত": 5928,
      "বাসের": 5929,
      "প্রত্যেকের": 5930,
      "##নের": 5931,
      "বিশেষজ্ঞরা": 5932,
      "রাষ্ট্রদূত": 5933,
      "বোতল": 5934,
      "বলছি": 5935,
      "প্রচলন": 5936,
      "জানিয়েছি": 5937,
      "পারলাম": 5938,
      "আজাদ": 5939,
      "দেয়নি": 5940,
      "পাকা": 5941,
      "লে": 5942,
      "প্রেস": 5943,
      "তোমাদের": 5944,
      "ব্লক": 5945,
      "কৃষকেরা": 5946,
      "বিধিমালা": 5947,
      "মিশেল": 5948,
      "উত্তরের": 5949,
      "ক্ষমতাসীনদের": 5950,
      "তৌহিদ": 5951,
      "চালের": 5952,
      "পুষিয়ে": 5953,
      "##এসব": 5954,
      "সার": 5955,
      "দেখবেন": 5956,
      "থেমেছে": 5957,
      "বর্ষের": 5958,
      "রেজা": 5959,
      "আসামির": 5960,
      "নাটকে": 5961,
      "জুতা": 5962,
      "##মন্ত্রী": 5963,
      "##ফ": 5964,
      "ক্যালিফোর্নিয়া": 5965,
      "সংস্কৃত": 5966,
      "তথ্যের": 5967,
      "নীতিমালার": 5968,
      "খর্ব": 5969,
      "বৃষ্টির": 5970,
      "মুসলমানদের": 5971,
      "সমঝোতা": 5972,
      "রোগীদের": 5973,
      "প্রাক্তন": 5974,
      "ক্যানসার": 5975,
      "নেত্রী": 5976,
      "ব্রেক্সিট": 5977,
      "ডা": 5978,
      "করানো": 5979,
      "গো": 5980,
      "##েই": 5981,
      "হবেই": 5982,
      "রঙ": 5983,
      "কৃষ্ণ": 5984,
      "রবীন্দ্রনাথ": 5985,
      "খোঁজে": 5986,
      "##সুবিধা": 5987,
      "গোল্ডেন": 5988,
      "প্রতিপক্ষ": 5989,
      "সজাগ": 5990,
      "মারেন": 5991,
      "সৃষ্ট": 5992,
      "দিকের": 5993,
      "মেজর": 5994,
      "নির্দেশনার": 5995,
      "ছক্কা": 5996,
      "খেলোয়াড়দের": 5997,
      "সাক্ষাৎকার": 5998,
      "প্রকারান্তর": 5999,
      "ওপেনারের": 6000,
      "তোমরা": 6001,
      "অর্থনীতিতে": 6002,
      "সুমন": 6003,
      "ব্যাপারটা": 6004,
      "এলোমেলো": 6005,
      "পরিবর্তিত": 6006,
      "ভেসে": 6007,
      "কাটাতে": 6008,
      "সম্মুখীন": 6009,
      "ওয়েবসাইটে": 6010,
      "##সংকট": 6011,
      "সুন্দরী": 6012,
      "সংশোধনী": 6013,
      "ইয়াসির": 6014,
      "পরমাণু": 6015,
      "আসাম": 6016,
      "ডুবে": 6017,
      "বিষয়বস্তু": 6018,
      "কণ্ঠ": 6019,
      "দায়ের": 6020,
      "বিপ্লবী": 6021,
      "এগুলোর": 6022,
      "চরিত্রের": 6023,
      "সেদ্ধ": 6024,
      "চিকিৎসকদের": 6025,
      "যাপন": 6026,
      "যেগুলো": 6027,
      "নেয়া": 6028,
      "বাঁধ": 6029,
      "কর্ম": 6030,
      "উদ্ভিদ": 6031,
      "টাওয়ার": 6032,
      "পাইকারি": 6033,
      "মন্দিরের": 6034,
      "দীর্ঘমেয়াদি": 6035,
      "রিপোর্ট": 6036,
      "দ্বিগুণ": 6037,
      "মুর্তজার": 6038,
      "আলাপ": 6039,
      "ঢেকে": 6040,
      "অন্যত্র": 6041,
      "চলুন": 6042,
      "হজরত": 6043,
      "সূর্য": 6044,
      "কমানো": 6045,
      "কাইয়ুম": 6046,
      "ভীষণ": 6047,
      "নিচ্ছেন": 6048,
      "সার্ভার": 6049,
      "পাড়ি": 6050,
      "বলেছি": 6051,
      "তন্মধ্যে": 6052,
      "সম্পৃক্ত": 6053,
      "রিমান্ডে": 6054,
      "আলমের": 6055,
      "রূপে": 6056,
      "সদস্যরাষ্ট্র": 6057,
      "অনুসন্ধানে": 6058,
      "ভোলা": 6059,
      "সময়কালে": 6060,
      "খলিফা": 6061,
      "প্রকাশ্যে": 6062,
      "সুনাম": 6063,
      "কতটুকু": 6064,
      "সিরিয়া": 6065,
      "বিবরণ": 6066,
      "গুগলের": 6067,
      "ল": 6068,
      "সমতল": 6069,
      "সমানভাবে": 6070,
      "পাঠান": 6071,
      "বে": 6072,
      "জাতীয়তাবাদী": 6073,
      "থিয়েটার": 6074,
      "নাজমুল": 6075,
      "স্বাদ": 6076,
      "লজ্জায়": 6077,
      "দলগুলো": 6078,
      "স্তরে": 6079,
      "##প্রমাণ": 6080,
      "##ুর": 6081,
      "তেলের": 6082,
      "চিকিৎসাধীন": 6083,
      "বাজেটে": 6084,
      "পুরস্কৃত": 6085,
      "##বে": 6086,
      "এখনও": 6087,
      "দাখিল": 6088,
      "বিতাড়ন": 6089,
      "শিগগিরই": 6090,
      "সাজানো": 6091,
      "চুক্তিতে": 6092,
      "নমুনা": 6093,
      "দেখেছেন": 6094,
      "রানি": 6095,
      "অনুশীলন": 6096,
      "মাতা": 6097,
      "খ্রিষ্টাব্দের": 6098,
      "কারখানার": 6099,
      "তাহলেই": 6100,
      "অধ্যয়ন": 6101,
      "সামলেছেন": 6102,
      "অভ্যুত্থান": 6103,
      "গানে": 6104,
      "অতীতে": 6105,
      "আয়োজনের": 6106,
      "প্রকল্পে": 6107,
      "মাইক্রোসফট": 6108,
      "ফিল্ম": 6109,
      "স্পর্শ": 6110,
      "ম্যান": 6111,
      "বহুপক্ষীয়": 6112,
      "##বাবা": 6113,
      "চীনে": 6114,
      "ফুলের": 6115,
      "ডে": 6116,
      "হাট": 6117,
      "চাইছে": 6118,
      "রক্তচাপ": 6119,
      "দেশগুলো": 6120,
      "ফোনে": 6121,
      "বোলারকে": 6122,
      "গা": 6123,
      "##ব্যবস্থা": 6124,
      "হস্তান্তর": 6125,
      "জয়লাভ": 6126,
      "প্রেসক্লাবের": 6127,
      "পাহাড়ের": 6128,
      "সর্বপ্রথম": 6129,
      "ছয়জন": 6130,
      "কাহিনী": 6131,
      "অপারেশন": 6132,
      "বংশোদ্ভূত": 6133,
      "উত্তেজনা": 6134,
      "তালিকাভুক্ত": 6135,
      "ওসমান": 6136,
      "থাকাটা": 6137,
      "মোস্তফা": 6138,
      "হাইকমিশন": 6139,
      "স্মার্ট": 6140,
      "আফ্রিকান": 6141,
      "##প্রতিদ্বন্দ্বিতা": 6142,
      "পাল": 6143,
      "কর্তৃত্ববাদী": 6144,
      "গ্রাহক": 6145,
      "ফিফা": 6146,
      "চালুর": 6147,
      "গোষ্ঠীর": 6148,
      "হস্তক্ষেপ": 6149,
      "ছেলেদের": 6150,
      "ক্ষেপণাস্ত্র": 6151,
      "ঘুমিয়ে": 6152,
      "মোটামুটি": 6153,
      "মাহমুদউল্লাহ": 6154,
      "গণমাধ্যমের": 6155,
      "ছুটে": 6156,
      "রিসার্চ": 6157,
      "মাশরাফিদের": 6158,
      "অজানা": 6159,
      "সত্যিই": 6160,
      "দেখায়": 6161,
      "চমৎকার": 6162,
      "লড়াইয়ে": 6163,
      "চুলের": 6164,
      "উঠেছিল": 6165,
      "আতাউর": 6166,
      "কয়েকবার": 6167,
      "তারেক": 6168,
      "নিউজ": 6169,
      "প্লাটুনে": 6170,
      "নীতির": 6171,
      "জাল": 6172,
      "দেয়াল": 6173,
      "মুঠোফোনে": 6174,
      "মাঝেমধ্যে": 6175,
      "গণিত": 6176,
      "অনুভূতি": 6177,
      "##বাংলা": 6178,
      "##দুজনই": 6179,
      "চলছিলেন": 6180,
      "কাশ্মীর": 6181,
      "হেগ": 6182,
      "অক্টোবরে": 6183,
      "কলা": 6184,
      "অঙ্গীকার": 6185,
      "যুবক": 6186,
      "##রে": 6187,
      "দেননি": 6188,
      "সতীর্থে": 6189,
      "থাকি": 6190,
      "বসু": 6191,
      "ঢেলে": 6192,
      "নিবেদিত": 6193,
      "প্রখ্যাত": 6194,
      "ব্যাগ": 6195,
      "ডেপুটি": 6196,
      "নবম": 6197,
      "##প্রতি": 6198,
      "আলু": 6199,
      "আত্মহত্যা": 6200,
      "সুইডিশ": 6201,
      "তাদেরকে": 6202,
      "##গ": 6203,
      "বইটি": 6204,
      "স্থাপনের": 6205,
      "মুখের": 6206,
      "যত্ন": 6207,
      "ইঞ্জিনিয়ারিং": 6208,
      "নৈতিক": 6209,
      "মতামতের": 6210,
      "মধ্যবর্তী": 6211,
      "মোহাম্মদপুর": 6212,
      "টিতে": 6213,
      "ব্যতিক্রম": 6214,
      "শিক্ষিত": 6215,
      "কনিষ্ঠ": 6216,
      "সদস্যদেশ": 6217,
      "নিবাসে": 6218,
      "ভন": 6219,
      "কর্মকাণ্ডের": 6220,
      "ইন্ডিজ": 6221,
      "হতাশ": 6222,
      "অলক": 6223,
      "চেয়ারপারসনের": 6224,
      "প্রাতিষ্ঠানিক": 6225,
      "ভয়ে": 6226,
      "সিভিল": 6227,
      "এটিই": 6228,
      "সৈয়দা": 6229,
      "ব্যবহারে": 6230,
      "##ডি": 6231,
      "স্তরের": 6232,
      "স্থানান্তর": 6233,
      "ব্যবস্থায়": 6234,
      "মেয়েকে": 6235,
      "রানারআপ": 6236,
      "গণিতের": 6237,
      "স্তর": 6238,
      "রায়ে": 6239,
      "##সা": 6240,
      "মুঠোফোন": 6241,
      "ইসরায়েল": 6242,
      "##প্রতিষ্ঠান": 6243,
      "কড়া": 6244,
      "তহবিলের": 6245,
      "ভালোবাসার": 6246,
      "বিরোধ": 6247,
      "লেখেন": 6248,
      "হে": 6249,
      "যাব": 6250,
      "প্রতারণামূলক": 6251,
      "সেট": 6252,
      "নিষ্পত্তি": 6253,
      "যুব": 6254,
      "সীমা": 6255,
      "লাগতে": 6256,
      "আসেনি": 6257,
      "দেহ": 6258,
      "জানিয়েছিল": 6259,
      "ঘটনাস্থলে": 6260,
      "বুঝি": 6261,
      "অধস্তন": 6262,
      "মিউজিক": 6263,
      "হ": 6264,
      "সমাধানে": 6265,
      "##পো": 6266,
      "খসড়া": 6267,
      "এমনটা": 6268,
      "অবলম্বনে": 6269,
      "শ্রী": 6270,
      "লোকজনের": 6271,
      "দিল্লির": 6272,
      "মিলিত": 6273,
      "আবেদীন": 6274,
      "সম্প্রচার": 6275,
      "উৎপত্তি": 6276,
      "আজিজ": 6277,
      "ভূষিত": 6278,
      "অত্যাচার": 6279,
      "তোলেনি": 6280,
      "কোটা": 6281,
      "একমত": 6282,
      "পরিষদে": 6283,
      "সংবাদমাধ্যম": 6284,
      "মানুষদের": 6285,
      "স্টক": 6286,
      "পরিবহনের": 6287,
      "রাজাপক্ষে": 6288,
      "কর্মীরা": 6289,
      "সাহিত্যিক": 6290,
      "আয়েশা": 6291,
      "সদ্য": 6292,
      "মোটা": 6293,
      "সচেতনতা": 6294,
      "টুইট": 6295,
      "ফোনের": 6296,
      "সমালোচনার": 6297,
      "নির্ভরশীল": 6298,
      "সাময়িক": 6299,
      "তথ্যমতে": 6300,
      "##য়বহির্ভূত": 6301,
      "ইইউ": 6302,
      "আবুবকর": 6303,
      "ভাত": 6304,
      "##বতীয়": 6305,
      "কখন": 6306,
      "##স্": 6307,
      "হিসেবেও": 6308,
      "পেয়েছি": 6309,
      "মধু": 6310,
      "সংকেত": 6311,
      "হাইওয়ে": 6312,
      "##মো": 6313,
      "গুম": 6314,
      "নিচ্ছি": 6315,
      "##এটাই": 6316,
      "ইংরেজিতে": 6317,
      "জরিপে": 6318,
      "অপছন্দ": 6319,
      "ব্যর্থতা": 6320,
      "নম্বরে": 6321,
      "মোমেন": 6322,
      "ম্যাপ": 6323,
      "ফ্রিজ": 6324,
      "শানাকা": 6325,
      "ডিএসসিসি": 6326,
      "অর্থবছরের": 6327,
      "হাছান": 6328,
      "যুবদলের": 6329,
      "পরিবেশবান্ধব": 6330,
      "করতেই": 6331,
      "পারছি": 6332,
      "ওদের": 6333,
      "এনেছে": 6334,
      "বয়স্ক": 6335,
      "লেনদেনের": 6336,
      "উৎপন্ন": 6337,
      "হননি": 6338,
      "কারখানায়": 6339,
      "বক্তৃতা": 6340,
      "ব্যবহারকারীর": 6341,
      "তত্ত্বাবধানে": 6342,
      "রাইস": 6343,
      "গিয়েছে": 6344,
      "পাঠদান": 6345,
      "ম্যানেজমেন্ট": 6346,
      "রবি": 6347,
      "বৈদ্যুতিক": 6348,
      "বিগত": 6349,
      "একদম": 6350,
      "টুকরা": 6351,
      "বীজ": 6352,
      "ইঞ্জিন": 6353,
      "নকশার": 6354,
      "তামিল": 6355,
      "করো": 6356,
      "সংস্কারের": 6357,
      "##মান": 6358,
      "পরিবেশের": 6359,
      "শরণার্থীদের": 6360,
      "সিরাজ": 6361,
      "রেড": 6362,
      "উপলব্ধি": 6363,
      "সংগঠিত": 6364,
      "ডিএমপি": 6365,
      "শহরটির": 6366,
      "বিদ্রোহী": 6367,
      "ইংলিশ": 6368,
      "বিলুপ্ত": 6369,
      "মশা": 6370,
      "পারফরম্যান্সে": 6371,
      "মেঘালয়ে": 6372,
      "দাসুন": 6373,
      "দুর্যোগ": 6374,
      "স্লোগান": 6375,
      "তখনো": 6376,
      "ফিচার": 6377,
      "সংসার": 6378,
      "উচ্চারণ": 6379,
      "এড়াতে": 6380,
      "বিলের": 6381,
      "ঝামেলার": 6382,
      "বেশী": 6383,
      "সাক্ষ্য": 6384,
      "বিপর্যয়": 6385,
      "আইএসের": 6386,
      "নীরবতা": 6387,
      "যন্ত্রপাতি": 6388,
      "শুষ্ক": 6389,
      "আলি": 6390,
      "বাস্তবে": 6391,
      "সংঘর্ষ": 6392,
      "##দা": 6393,
      "মানা": 6394,
      "চি": 6395,
      "বিস্কুট": 6396,
      "প্রথমত": 6397,
      "শর্তে": 6398,
      "##তি": 6399,
      "জীবিত": 6400,
      "মালয়েশিয়া": 6401,
      "কিম": 6402,
      "বিরল": 6403,
      "মহাপরিচালক": 6404,
      "আশার": 6405,
      "বেলায়": 6406,
      "পরা": 6407,
      "মঙ্গল": 6408,
      "বিজনেস": 6409,
      "দাঁত": 6410,
      "প্রতিবাদে": 6411,
      "চেপে": 6412,
      "প্রথমবার": 6413,
      "অধ্যাদেশ": 6414,
      "নিবন্ধ": 6415,
      "মর্যাদার": 6416,
      "শিরোনাম": 6417,
      "বাঞ্ছনীয়": 6418,
      "ভিত্তিক": 6419,
      "শিলংয়ে": 6420,
      "কৃষকদের": 6421,
      "নেপালের": 6422,
      "প্রতিপক্ষের": 6423,
      "##টোয়েন্টি": 6424,
      "সৌন্দর্য": 6425,
      "উত্তোলন": 6426,
      "আদা": 6427,
      "সরেজমিনে": 6428,
      "যাত্রীদের": 6429,
      "রাখতেন": 6430,
      "অন্তরে": 6431,
      "সাফাইয়ে": 6432,
      "বিপদ": 6433,
      "বর্ণিত": 6434,
      "বহাল": 6435,
      "দাঁড়াচ্ছে": 6436,
      "##কি": 6437,
      "ছবিটির": 6438,
      "প্রতিযোগী": 6439,
      "কাটে": 6440,
      "লস": 6441,
      "গেটস": 6442,
      "মুক্তিযোদ্ধাদের": 6443,
      "ঠেকাতে": 6444,
      "সমন্বিত": 6445,
      "কমবে": 6446,
      "ভরে": 6447,
      "অফিসের": 6448,
      "রি": 6449,
      "সই": 6450,
      "কাগজ": 6451,
      "প্রার্থনা": 6452,
      "প্রশংসিত": 6453,
      "গেট": 6454,
      "পল": 6455,
      "দেখলাম": 6456,
      "নিন্দা": 6457,
      "দেখিয়েছেন": 6458,
      "##িন": 6459,
      "প্রয়োজনীয়তা": 6460,
      "রাখবে": 6461,
      "বিদ্রোহ": 6462,
      "কথাই": 6463,
      "দেরি": 6464,
      "জেসিয়া": 6465,
      "আসামের": 6466,
      "অভিজ্ঞতায়": 6467,
      "ম্যানচেস্টার": 6468,
      "বসানো": 6469,
      "রিপাবলিকান": 6470,
      "বানর": 6471,
      "মানেই": 6472,
      "##অ": 6473,
      "হজ": 6474,
      "সাহা": 6475,
      "আইএমএফ": 6476,
      "তুর্কি": 6477,
      "সর্বনিম্ন": 6478,
      "##মেইলে": 6479,
      "রানেই": 6480,
      "##নো": 6481,
      "আকর্ষণীয়": 6482,
      "জো": 6483,
      "আদালতকে": 6484,
      "বক্স": 6485,
      "সাধারণভাবে": 6486,
      "পাল্টে": 6487,
      "লিখতে": 6488,
      "সহযোগিতায়": 6489,
      "বিচারপতিদের": 6490,
      "সাব": 6491,
      "জুনিয়র": 6492,
      "প্রচারের": 6493,
      "পঞ্চায়েত": 6494,
      "জন্মের": 6495,
      "সংখ্যাগরিষ্ঠ": 6496,
      "যাচ্ছিল": 6497,
      "এসময়": 6498,
      "খুনি": 6499,
      "দাঁড়": 6500,
      "মসজিদে": 6501,
      "গণনা": 6502,
      "রোধ": 6503,
      "তোরসা": 6504,
      "##টাও": 6505,
      "দিতেন": 6506,
      "হিসেবেই": 6507,
      "ইট": 6508,
      "##সব": 6509,
      "শান্ত": 6510,
      "মহিলাদের": 6511,
      "দিয়েছি": 6512,
      "সমর্থকদের": 6513,
      "ভাগের": 6514,
      "প্রক্রিয়ার": 6515,
      "উত্তম": 6516,
      "পেশা": 6517,
      "সম্বন্ধে": 6518,
      "##কো": 6519,
      "ব্যবহারকারীদের": 6520,
      "আনন্দের": 6521,
      "পারিনি": 6522,
      "হাতেও": 6523,
      "কর্মকাণ্ডে": 6524,
      "স্মৃতির": 6525,
      "কান্তি": 6526,
      "আলোয়": 6527,
      "পুষ্টি": 6528,
      "শ্রেণীর": 6529,
      "আগামীকাল": 6530,
      "হত্যাকাণ্ডে": 6531,
      "ঠাকুর": 6532,
      "মিরপুর": 6533,
      "অধিকাংশই": 6534,
      "নওয়াজ": 6535,
      "অশুভ": 6536,
      "থাকতেন": 6537,
      "বিদ্যুতের": 6538,
      "দরে": 6539,
      "বোঝাতে": 6540,
      "লক্ষ্যমাত্রা": 6541,
      "##ইন": 6542,
      "##কিন্তু": 6543,
      "শাখায়": 6544,
      "শান্তিপূর্ণ": 6545,
      "দিই": 6546,
      "খনন": 6547,
      "পাখির": 6548,
      "সংক্রমণ": 6549,
      "ইরাক": 6550,
      "রুম": 6551,
      "##নে": 6552,
      "নেতৃস্থানীয়": 6553,
      "করেও": 6554,
      "মহাসড়ক": 6555,
      "বিক্রম": 6556,
      "লিঙ্গ": 6557,
      "সংকটের": 6558,
      "ত্রিপুরা": 6559,
      "দিলেও": 6560,
      "রাখবেন": 6561,
      "রিয়াজের": 6562,
      "সংলাপ": 6563,
      "পাহাড়ি": 6564,
      "ফাইনাল": 6565,
      "রমজান": 6566,
      "মেসি": 6567,
      "ত্রুটি": 6568,
      "সম্মিলিত": 6569,
      "রাজশাহীর": 6570,
      "মুম্বাই": 6571,
      "জিনিসটা": 6572,
      "কালে": 6573,
      "কিবরিয়া": 6574,
      "কার্বন": 6575,
      "টুয়েন্টি": 6576,
      "প্রত্যেকেই": 6577,
      "হোম": 6578,
      "অনুরূপ": 6579,
      "ফুটে": 6580,
      "অবশিষ্ট": 6581,
      "বাবু": 6582,
      "কর্মস্থলে": 6583,
      "উপপরিদর্শক": 6584,
      "সঠিকভাবে": 6585,
      "সালিশ": 6586,
      "আলীর": 6587,
      "স্কুপ": 6588,
      "গরিব": 6589,
      "দৃঢ়ভাবে": 6590,
      "প্রাইভেট": 6591,
      "ব্যাংকার": 6592,
      "গ্রন্থে": 6593,
      "লিখেছিলেন": 6594,
      "বাগান": 6595,
      "লুকিয়ে": 6596,
      "ভাগই": 6597,
      "শাসনকাল": 6598,
      "উইলিয়ামস": 6599,
      "তেজগাঁও": 6600,
      "মুনাফা": 6601,
      "##চার": 6602,
      "শত্রু": 6603,
      "খাতুন": 6604,
      "ভাজা": 6605,
      "অলরাউন্ড": 6606,
      "সাক্ষাৎ": 6607,
      "আগ্নেয়াস্ত্র": 6608,
      "বিচারে": 6609,
      "উদাহরণস্বরূপ": 6610,
      "মোহামেডান": 6611,
      "ফাইল": 6612,
      "বেঞ্চের": 6613,
      "ষড়যন্ত্রের": 6614,
      "কাহিনি": 6615,
      "মেট্রো": 6616,
      "বলেছিল": 6617,
      "অনুভূতিতে": 6618,
      "দৃষ্টান্ত": 6619,
      "গেছি": 6620,
      "বর্ণ": 6621,
      "কার্যত": 6622,
      "লাগাতে": 6623,
      "প্রিয়াঙ্কা": 6624,
      "করেছিলাম": 6625,
      "তুরস্ক": 6626,
      "শিক্ষকের": 6627,
      "বিক্রয়": 6628,
      "বস্তুনিষ্ঠ": 6629,
      "বাউন্সে": 6630,
      "গুরু": 6631,
      "মেলার": 6632,
      "টক": 6633,
      "বর্ষে": 6634,
      "বললে": 6635,
      "পর্বত": 6636,
      "শতাব্দী": 6637,
      "প্রয়াত": 6638,
      "উদ্বিগ্ন": 6639,
      "ত্রাণ": 6640,
      "খ্যাতি": 6641,
      "মসলা": 6642,
      "রাগ": 6643,
      "ঝড়টা": 6644,
      "ইয়াসিরের": 6645,
      "ভক্ত": 6646,
      "##মুক্ত": 6647,
      "কেউই": 6648,
      "ফাস্ট": 6649,
      "শ্লীলতাহানির": 6650,
      "##প্রেমিকার": 6651,
      "গায়ক": 6652,
      "দেখলে": 6653,
      "মাহিদুল": 6654,
      "অঙ্কের": 6655,
      "বেকারদের": 6656,
      "জোরদার": 6657,
      "বিচারকার্য": 6658,
      "ব্যাটারি": 6659,
      "ভাবা": 6660,
      "মাল": 6661,
      "##মেইল": 6662,
      "নীতিগত": 6663,
      "আয়াত": 6664,
      "একাধিকবার": 6665,
      "ঘটেনি": 6666,
      "একেকজন": 6667,
      "##কাল": 6668,
      "ময়লা": 6669,
      "##আর": 6670,
      "কোটাই": 6671,
      "দিল্লিতে": 6672,
      "উপেক্ষা": 6673,
      "ঠাঁই": 6674,
      "উইকেতে": 6675,
      "রূপান্তরিত": 6676,
      "ছোঁয়া": 6677,
      "ঐক্য": 6678,
      "অস্ট্রেলীয়": 6679,
      "সাংঘাতিক": 6680,
      "ব্যবসায়ে": 6681,
      "##তবে": 6682,
      "ভানুকা": 6683,
      "গ্লাভসকে": 6684,
      "খাঁ": 6685,
      "নিশ্চিতে": 6686,
      "লেগেছে": 6687,
      "রাজবংশের": 6688,
      "উদ্ভাবন": 6689,
      "শেয়ারের": 6690,
      "ধার": 6691,
      "স্টেডিয়ামে": 6692,
      "তুলেন": 6693,
      "প্রযোজ্য": 6694,
      "পেসার": 6695,
      "পাঞ্জাব": 6696,
      "হরতাল": 6697,
      "একত্রে": 6698,
      "##পূর্ণ": 6699,
      "ঘটুক": 6700,
      "সেপ্টেম্বরে": 6701,
      "অঙ্গ": 6702,
      "রাঙানো": 6703,
      "ইন্ডিজের": 6704,
      "আখ্যায়িত": 6705,
      "অসৎ": 6706,
      "ভেজে": 6707,
      "আনিস": 6708,
      "যুদ্ধাপরাধীদের": 6709,
      "ব্যক্ত": 6710,
      "আব্বাস": 6711,
      "অতিথির": 6712,
      "গ্রেগরী": 6713,
      "ভার": 6714,
      "ইসলামও": 6715,
      "##এক": 6716,
      "প্রেরণ": 6717,
      "লিগে": 6718,
      "ফুটবলার": 6719,
      "সিঙ্গাপুর": 6720,
      "কমতে": 6721,
      "সাময়িকভাবে": 6722,
      "মার": 6723,
      "জ্যাক": 6724,
      "দুবার": 6725,
      "চার্জ": 6726,
      "পাট": 6727,
      "দোষী": 6728,
      "হাজারের": 6729,
      "অনলাইনের": 6730,
      "ফ্লো": 6731,
      "পরিকল্পনার": 6732,
      "মানতে": 6733,
      "অ্যাটর্নি": 6734,
      "নাঈম": 6735,
      "প্রবেশের": 6736,
      "তলা": 6737,
      "##র্ধ্বতন": 6738,
      "ক্রমেই": 6739,
      "বদল": 6740,
      "দা": 6741,
      "স্মার্টফোনের": 6742,
      "নভেম্বরে": 6743,
      "শ্রীমঙ্গল": 6744,
      "নিকটতম": 6745,
      "দার্শনিক": 6746,
      "বুদ্ধিজীবীদের": 6747,
      "মঞ্জুর": 6748,
      "পাঁচজন": 6749,
      "চাঁদপুর": 6750,
      "আকাশে": 6751,
      "থান্ডার": 6752,
      "ডেটা": 6753,
      "দুঃশাসনের": 6754,
      "ঠিকমতো": 6755,
      "প্রথা": 6756,
      "পয়েন্টে": 6757,
      "হেঁটে": 6758,
      "দ্বন্দ্ব": 6759,
      "সাহিত্যের": 6760,
      "ভিসা": 6761,
      "জিজ্ঞেস": 6762,
      "কমান্ডার": 6763,
      "পালিত": 6764,
      "শরিফ": 6765,
      "উদ্ভাবক": 6766,
      "সাংবিধানিকভাবে": 6767,
      "নানান": 6768,
      "পৌঁছাতে": 6769,
      "পেলেই": 6770,
      "সংযোজন": 6771,
      "হয়রানি": 6772,
      "পড়েছিল": 6773,
      "দৃঢ়": 6774,
      "আইয়ুব": 6775,
      "জম্মু": 6776,
      "জাহিদ": 6777,
      "সহিংসতার": 6778,
      "বাঁচাতে": 6779,
      "এশীয়": 6780,
      "ব্রাজিল": 6781,
      "সন্তানকে": 6782,
      "ব্ল্যাক": 6783,
      "প্রয়োজনমতো": 6784,
      "চির": 6785,
      "আস্থাশীল": 6786,
      "স্পোর্টিং": 6787,
      "মাদ্রাসার": 6788,
      "ইহুদি": 6789,
      "শিরোনামে": 6790,
      "দিনাজপুর": 6791,
      "পশ্চিমবঙ্গে": 6792,
      "পরেও": 6793,
      "পর্বের": 6794,
      "মিশ্র": 6795,
      "উনারা": 6796,
      "আকবর": 6797,
      "স্বাস্থ্যের": 6798,
      "টেইলর": 6799,
      "আসন্ন": 6800,
      "##গুলোয়": 6801,
      "আকৃতির": 6802,
      "সংগ্রহের": 6803,
      "জানিয়েছিলেন": 6804,
      "বিপজ্জনক": 6805,
      "##সবকিছুর": 6806,
      "বর": 6807,
      "হামিদ": 6808,
      "অনুমোদিত": 6809,
      "রক্ষায়": 6810,
      "কাছেই": 6811,
      "নিদর্শন": 6812,
      "ভাইরাস": 6813,
      "রাজার": 6814,
      "কাশ্মীরের": 6815,
      "মাত্রায়": 6816,
      "##ীকে": 6817,
      "নরম": 6818,
      "রিজওয়ানা": 6819,
      "ডেভেলপমেন্ট": 6820,
      "টার্মিনাল": 6821,
      "জগন্নাথপুর": 6822,
      "নো": 6823,
      "কল্পনা": 6824,
      "উনাদের": 6825,
      "বর্ষপঞ্জীর": 6826,
      "বিনোদন": 6827,
      "ড্র": 6828,
      "সুইফট": 6829,
      "যাঁর": 6830,
      "বিরাগভাজন": 6831,
      "এঁকে": 6832,
      "কমলা": 6833,
      "নৃত্য": 6834,
      "নিশ্চয়তা": 6835,
      "অর্জনকে": 6836,
      "শহীদদের": 6837,
      "কফি": 6838,
      "চোট": 6839,
      "ক্যাপ্টেন": 6840,
      "সংশ্লিষ্টদের": 6841,
      "লেবুর": 6842,
      "মূল্যহীন": 6843,
      "চিঠিতে": 6844,
      "বাদে": 6845,
      "কাঠের": 6846,
      "কুখ্যাত": 6847,
      "পেশ": 6848,
      "পাঠ্যসূচি": 6849,
      "জিবি": 6850,
      "দেশেই": 6851,
      "কই": 6852,
      "পার্শ্ববর্তী": 6853,
      "স্পিকারের": 6854,
      "পর্যায়": 6855,
      "তাকিয়ে": 6856,
      "চিকিৎসকেরা": 6857,
      "অবাধ": 6858,
      "অভিজ্ঞতার": 6859,
      "মৎস্য": 6860,
      "নেতৃত্বের": 6861,
      "সামগ্রিক": 6862,
      "ক্লিক": 6863,
      "চ্যাপ্টার": 6864,
      "সন্ত্রাস": 6865,
      "ঘটেছিল": 6866,
      "কোমায়": 6867,
      "তিনবার": 6868,
      "সালেহউদ্দিন": 6869,
      "রীতিমতো": 6870,
      "আবেগ": 6871,
      "কানাডার": 6872,
      "আঁকা": 6873,
      "মাদ্রিদ": 6874,
      "এটাকে": 6875,
      "রাষ্ট্রে": 6876,
      "শিব": 6877,
      "অলক্ষ্যে": 6878,
      "আমজাদ": 6879,
      "প্র": 6880,
      "ছি": 6881,
      "দ্বারস্থ": 6882,
      "গ্রিন": 6883,
      "ক্লাবে": 6884,
      "চাকরিতে": 6885,
      "নুসরাত": 6886,
      "পাথেয়": 6887,
      "বিশ্বজুড়ে": 6888,
      "কর্নেল": 6889,
      "চাপা": 6890,
      "সিদ্ধান্তে": 6891,
      "মাকে": 6892,
      "পানীয়": 6893,
      "প্রভাবে": 6894,
      "শ্রমিকের": 6895,
      "আমাদেরই": 6896,
      "তথ্যসূত্র": 6897,
      "ঠিকই": 6898,
      "##ঁ": 6899,
      "ইংল্যান্ডে": 6900,
      "হয়রানির": 6901,
      "পড়ুয়া": 6902,
      "পুড়ে": 6903,
      "স্পেনের": 6904,
      "পেছনের": 6905,
      "অনুষদ": 6906,
      "যাচ্ছি": 6907,
      "নৌ": 6908,
      "ক্ষতিপূরণ": 6909,
      "বলছিলেন": 6910,
      "স্থিতিশীল": 6911,
      "মেক্সিকোর": 6912,
      "স্থির": 6913,
      "নির্ণয়": 6914,
      "পরিণতি": 6915,
      "আদায়ের": 6916,
      "হ্যারি": 6917,
      "সিরিয়ায়": 6918,
      "ঠিকঠাক": 6919,
      "##বাংলাদেশ": 6920,
      "প্রার্থীরা": 6921,
      "ইউপি": 6922,
      "তোমাকে": 6923,
      "পালনের": 6924,
      "আহ্বায়ক": 6925,
      "পাঞ্জাবি": 6926,
      "শীতের": 6927,
      "কর্মসংস্থানের": 6928,
      "টের": 6929,
      "ওপেন": 6930,
      "পশু": 6931,
      "গড়ার": 6932,
      "হুমকির": 6933,
      "প্লে": 6934,
      "গল্পের": 6935,
      "চলছিল": 6936,
      "সেনারা": 6937,
      "চাহিদার": 6938,
      "নির্মাণে": 6939,
      "শিগগির": 6940,
      "হাকিম": 6941,
      "রত্ন": 6942,
      "সেমি": 6943,
      "পালনকারী": 6944,
      "সামর্থ্য": 6945,
      "মাসুম": 6946,
      "সুখবর": 6947,
      "প্রসারিত": 6948,
      "মনিবের": 6949,
      "গ্লাস": 6950,
      "তুলনামূলক": 6951,
      "শ্রেণিতে": 6952,
      "রসুন": 6953,
      "পলাতক": 6954,
      "অর্থনীতিবিদ": 6955,
      "টুইটারে": 6956,
      "ক্যাম্পাসে": 6957,
      "টাঙ্গাইলের": 6958,
      "মার্চে": 6959,
      "কটি": 6960,
      "মুক্তিপ্রাপ্ত": 6961,
      "চক্র": 6962,
      "গ্রাহকদের": 6963,
      "গলায়": 6964,
      "রুট": 6965,
      "তফাজ্জ": 6966,
      "রঙিন": 6967,
      "##মি": 6968,
      "অপেক্ষাকৃত": 6969,
      "ভবিষ্যতের": 6970,
      "রিজভী": 6971,
      "অস্থায়ী": 6972,
      "ভারসাম্য": 6973,
      "বিজয়ের": 6974,
      "উত্থান": 6975,
      "শ্রমিকেরা": 6976,
      "বাজারমূল্য": 6977,
      "##জা": 6978,
      "আদিবাসী": 6979,
      "##বাবার": 6980,
      "টমেটো": 6981,
      "বাজেটের": 6982,
      "দেয়ার": 6983,
      "জয়ে": 6984,
      "ব্যাপারটি": 6985,
      "সৈন্য": 6986,
      "সমুন্নত": 6987,
      "ব্যয়ে": 6988,
      "বার্সেলোনা": 6989,
      "ডায়াবেটিস": 6990,
      "ঘুষ": 6991,
      "বিদ্যুৎকেন্দ্র": 6992,
      "যৌক্তিক": 6993,
      "রীতি": 6994,
      "আর্ট": 6995,
      "হাওয়া": 6996,
      "প্রশান্ত": 6997,
      "স্থানান্তরিত": 6998,
      "ক্ষতির": 6999,
      "রূপান্তর": 7000,
      "সায়েন্স": 7001,
      "ইনস্টিটিউশন": 7002,
      "হারিয়েছে": 7003,
      "হয়েছি": 7004,
      "স্টেশনে": 7005,
      "##ওখানে": 7006,
      "কমছে": 7007,
      "হাইকোর্টের": 7008,
      "চিরতরে": 7009,
      "প্রদর্শিত": 7010,
      "ইলেকট্রনিক": 7011,
      "পড়ল": 7012,
      "বাজে": 7013,
      "রাশির": 7014,
      "গতবার": 7015,
      "উড়িয়ে": 7016,
      "শোভনীয়": 7017,
      "ঘুরতে": 7018,
      "দেখছি": 7019,
      "বৈধতা": 7020,
      "লাগলেন": 7021,
      "সরঞ্জাম": 7022,
      "কমিউনিটি": 7023,
      "শাকিব": 7024,
      "বিহার": 7025,
      "##দলীয়": 7026,
      "##শীপা": 7027,
      "ফলপ্রসূ": 7028,
      "কাগজে": 7029,
      "বায়ু": 7030,
      "সালাম": 7031,
      "মৃণাল": 7032,
      "দারোয়ানের": 7033,
      "##তিন": 7034,
      "ক্রেতাদের": 7035,
      "ক্ষমতাশালী": 7036,
      "বিচারপ্রার্থীরা": 7037,
      "কখনই": 7038,
      "প্রোগ্রামিং": 7039,
      "মারধর": 7040,
      "এমনিতেই": 7041,
      "সূত্রগুলো": 7042,
      "গ": 7043,
      "##এতটা": 7044,
      "গলা": 7045,
      "সমাবেশে": 7046,
      "দ্বীপের": 7047,
      "এমনভাবে": 7048,
      "দাঁড়াতে": 7049,
      "অবতীর্ণ": 7050,
      "দুর্বলতা": 7051,
      "##েন": 7052,
      "দেশবাসীকে": 7053,
      "মিশ্রণ": 7054,
      "সার্ভিসের": 7055,
      "বোঝানো": 7056,
      "শৃঙ্খলা": 7057,
      "ক্রেতা": 7058,
      "##যোগ্য": 7059,
      "পরিমাপ": 7060,
      "ভট্টাচার্য": 7061,
      "সোহেল": 7062,
      "পলায়নপরতা": 7063,
      "অনুপ্রাণিত": 7064,
      "টুকরো": 7065,
      "ছাড়তে": 7066,
      "ক্রমাগত": 7067,
      "পিএইচডি": 7068,
      "গ্লোবাল": 7069,
      "স্কোর": 7070,
      "সঙ্গেই": 7071,
      "নিজেও": 7072,
      "দ্বিতীয়ত": 7073,
      "জিততে": 7074,
      "##পশ্চিম": 7075,
      "পরিবারকে": 7076,
      "লেজিসলে": 7077,
      "বিপ্লবের": 7078,
      "##উ": 7079,
      "অভিবাসী": 7080,
      "বিকাশের": 7081,
      "ওভারলেপ": 7082,
      "মুগ্ধ": 7083,
      "গাঢ়": 7084,
      "সর্বাবস্থা": 7085,
      "ন্যান্সি": 7086,
      "বিজ্ঞানের": 7087,
      "নির্মলা": 7088,
      "লিগের": 7089,
      "কোর": 7090,
      "এরফলে": 7091,
      "অবধি": 7092,
      "নিম্নকক্ষ": 7093,
      "তালুকদার": 7094,
      "নাট্য": 7095,
      "অর্ধ": 7096,
      "আহ্বানে": 7097,
      "রাখাইন": 7098,
      "দণ্ডপ্রাপ্ত": 7099,
      "ভাঙা": 7100,
      "##নির্ভর": 7101,
      "বহুল": 7102,
      "পুলিশকে": 7103,
      "শিল্পকলা": 7104,
      "চ্যারিটেবল": 7105,
      "##উল": 7106,
      "অপহরণ": 7107,
      "শোক": 7108,
      "চাপের": 7109,
      "মামুন": 7110,
      "একুশে": 7111,
      "ঘটবে": 7112,
      "সেকেন্ড": 7113,
      "এসএসসি": 7114,
      "ঘি": 7115,
      "ক্রিম": 7116,
      "স্বত্বাধিকারী": 7117,
      "গুলিতে": 7118,
      "আসামিরা": 7119,
      "শততম": 7120,
      "এরশাদের": 7121,
      "যুবরাজ": 7122,
      "দেখতেন": 7123,
      "ট্রেনের": 7124,
      "চাঁদ": 7125,
      "আগুনে": 7126,
      "সেনাদের": 7127,
      "মৃত্যুদণ্ড": 7128,
      "বারা": 7129,
      "অ্যাপলের": 7130,
      "রওনা": 7131,
      "ম্যাজিস্ট্রেট": 7132,
      "নিয়ন্ত্রণের": 7133,
      "ফ্ল্যাট": 7134,
      "বরখাস্ত": 7135,
      "অভিবাসন": 7136,
      "জাহান": 7137,
      "অসহায়": 7138,
      "চট্টোপাধ্যায়": 7139,
      "ডিন": 7140,
      "জাদুঘর": 7141,
      "আমিনের": 7142,
      "সুশাসনকে": 7143,
      "আনে": 7144,
      "প্রবৃদ্ধির": 7145,
      "ধারাবাহিকভাবে": 7146,
      "ওয়াই": 7147,
      "মোসাদ্দেক": 7148,
      "##নগর": 7149,
      "শীর্ষস্থানীয়": 7150,
      "##করণ": 7151,
      "প্রতিফলন": 7152,
      "নারায়ণগঞ্জ": 7153,
      "মার্কেট": 7154,
      "ইচ্ছে": 7155,
      "চিত্রনাট্য": 7156,
      "খানিকটা": 7157,
      "বিরুদ্ধেও": 7158,
      "প্রেসিডিয়াম": 7159,
      "টাইম": 7160,
      "সিনেমায়": 7161,
      "বিপদে": 7162,
      "পেশাগত": 7163,
      "স্মারক": 7164,
      "অভিন্ন": 7165,
      "এগুলি": 7166,
      "রহস্য": 7167,
      "সোসাইটি": 7168,
      "ঘণ্টায়": 7169,
      "জনগোষ্ঠী": 7170,
      "বুঝিয়ে": 7171,
      "তড়িৎ": 7172,
      "বালু": 7173,
      "ইউএস": 7174,
      "প্রকৃতপক্ষে": 7175,
      "হই": 7176,
      "কার্যকরী": 7177,
      "একটার": 7178,
      "বাতাস": 7179,
      "তৎপর": 7180,
      "বাড়ার": 7181,
      "জয়নুল": 7182,
      "আমু": 7183,
      "কাঠ": 7184,
      "তৃতীয়বার": 7185,
      "নজরদারি": 7186,
      "সংবাদপত্র": 7187,
      "দুদকে": 7188,
      "আধিপত্য": 7189,
      "হাওড়া": 7190,
      "দৃষ্টিভঙ্গি": 7191,
      "অতীতের": 7192,
      "ইয়র্ক": 7193,
      "নাটোর": 7194,
      "মিশন": 7195,
      "ফের": 7196,
      "কিংবদন্তি": 7197,
      "সর্ব": 7198,
      "প্রতিরোধে": 7199,
      "ফাঁকে": 7200,
      "কৃতিত্ব": 7201,
      "##ৎসা": 7202,
      "পিটার": 7203,
      "গ্রেট": 7204,
      "এতটাই": 7205,
      "পাতলা": 7206,
      "ভূ": 7207,
      "রাষ্ট্রপতির": 7208,
      "ক্রিস্টিন": 7209,
      "ম্যার্কেলের": 7210,
      "ঠিকাদারি": 7211,
      "অপরের": 7212,
      "অবিলম্বে": 7213,
      "সোজা": 7214,
      "অন্যরা": 7215,
      "জিতেছে": 7216,
      "অদ্ভুত": 7217,
      "পরিষেবা": 7218,
      "পুনরাবৃত্তি": 7219,
      "জটিলতার": 7220,
      "মালয়েশিয়ার": 7221,
      "রহিম": 7222,
      "সম্প্রসারণের": 7223,
      "কাউকেই": 7224,
      "জেগে": 7225,
      "সংজ্ঞা": 7226,
      "সংঘাত": 7227,
      "খায়": 7228,
      "পাঠক": 7229,
      "আমেরিকায়": 7230,
      "পে": 7231,
      "আচার": 7232,
      "সংখ্যায়": 7233,
      "বিভাগই": 7234,
      "পিছনে": 7235,
      "ভরসা": 7236,
      "মহাকাশ": 7237,
      "আসামিদের": 7238,
      "ইনচার্জ": 7239,
      "এসপি": 7240,
      "উ": 7241,
      "দাবির": 7242,
      "এজেন্ট": 7243,
      "করপোরেট": 7244,
      "ফলের": 7245,
      "দ্যা": 7246,
      "অবলম্বন": 7247,
      "উঁকি": 7248,
      "সৎ": 7249,
      "উপকূলে": 7250,
      "লাইফ": 7251,
      "ফেডারেশন": 7252,
      "লো": 7253,
      "স্বাগতিক": 7254,
      "ক্রয়": 7255,
      "##েড": 7256,
      "আসামিকে": 7257,
      "এঁদের": 7258,
      "ভেতরের": 7259,
      "রণবীর": 7260,
      "সোনালি": 7261,
      "কা": 7262,
      "অভ্যন্তরে": 7263,
      "গ্রেপ্তারে": 7264,
      "প্রান্ত": 7265,
      "শের": 7266,
      "গেটসের": 7267,
      "প্রজন্ম": 7268,
      "আবিষ্কৃত": 7269,
      "প্ল্যাটফর্ম": 7270,
      "দৈনন্দিন": 7271,
      "প্রায়শই": 7272,
      "চিৎকার": 7273,
      "পাতায়": 7274,
      "আশ্বাস": 7275,
      "ঈদে": 7276,
      "ত্বকে": 7277,
      "বেল": 7278,
      "শুরুটা": 7279,
      "এলেন": 7280,
      "স্বচ্ছ": 7281,
      "আত্মঘাতী": 7282,
      "পর্যটক": 7283,
      "মালিকানা": 7284,
      "অলরাউন্ডার": 7285,
      "দুদিন": 7286,
      "স্পোর্টস": 7287,
      "বিজ্ঞানীরা": 7288,
      "ব্রাজিলের": 7289,
      "বর্জন": 7290,
      "মেধাবী": 7291,
      "অ্যা": 7292,
      "প্রবাহ": 7293,
      "কনস্টেবল": 7294,
      "ক্যাম্প": 7295,
      "প্রাদেশিক": 7296,
      "প্রেসিডেন্টের": 7297,
      "সরু": 7298,
      "দর্শকের": 7299,
      "রিটার্ন": 7300,
      "দাবী": 7301,
      "পারা": 7302,
      "জানাই": 7303,
      "স্বর্ণ": 7304,
      "ডানার": 7305,
      "সহ্য": 7306,
      "বাদামি": 7307,
      "শতকরা": 7308,
      "চ্যাম্পিয়নস": 7309,
      "অভিযোগপত্র": 7310,
      "অক্ষাংশ": 7311,
      "চেয়েছেন": 7312,
      "সেন্টারে": 7313,
      "ইউরো": 7314,
      "অর্গানাইজেশন": 7315,
      "মরদেহ": 7316,
      "দেহের": 7317,
      "বিংশ": 7318,
      "##জুড়ে": 7319,
      "কেনাকাটা": 7320,
      "কৃষিবিদ": 7321,
      "অর্জিত": 7322,
      "মার্টিন": 7323,
      "শোভা": 7324,
      "আইনবিদ": 7325,
      "##তো": 7326,
      "ক্রমবর্ধমান": 7327,
      "সেরেনা": 7328,
      "রেখেছিলেন": 7329,
      "ভ্রমণের": 7330,
      "সহযোগিতার": 7331,
      "মিলবে": 7332,
      "গড়েন": 7333,
      "কৌশলগত": 7334,
      "কলাবাগান": 7335,
      "কিলোমিটারের": 7336,
      "আইসিটি": 7337,
      "সেন্ট্রাল": 7338,
      "বসিয়ে": 7339,
      "তুমুল": 7340,
      "ট্রেড": 7341,
      "অ্যাসিড": 7342,
      "জিন": 7343,
      "অ্যাকশন": 7344,
      "লোকেরা": 7345,
      "ব্র্যাক": 7346,
      "অভিনয়শিল্পী": 7347,
      "শিক্ষকেরা": 7348,
      "চালকের": 7349,
      "বৃথা": 7350,
      "ল্যান্ড": 7351,
      "হতাহত": 7352,
      "শাসনামলে": 7353,
      "##কারীদের": 7354,
      "একাডেমির": 7355,
      "নজির": 7356,
      "সাহিত্যে": 7357,
      "সাহেব": 7358,
      "নভেম্বরের": 7359,
      "জ": 7360,
      "পুতিন": 7361,
      "অভ্যুত্থানে": 7362,
      "জানানোর": 7363,
      "##একটি": 7364,
      "গ্রেটা": 7365,
      "অর্ডার": 7366,
      "গণপূর্ত": 7367,
      "বাঁধা": 7368,
      "টেলিভিশনের": 7369,
      "অধীন": 7370,
      "হার্ট": 7371,
      "পর্দা": 7372,
      "ভাতা": 7373,
      "##শিক্ষাপ্রতিষ্ঠান": 7374,
      "অদূরে": 7375,
      "টুর্নামেন্টে": 7376,
      "বিস্ফোরণ": 7377,
      "খ্রিস্টপূর্ব": 7378,
      "সম্রাটকে": 7379,
      "সত্যকে": 7380,
      "অপরাধী": 7381,
      "পেলেও": 7382,
      "বন্দরের": 7383,
      "লিপ্ত": 7384,
      "বাঘ": 7385,
      "মেলিন্ডা": 7386,
      "বললাম": 7387,
      "প্রতীয়মান": 7388,
      "দুপুরের": 7389,
      "সাজিয়ে": 7390,
      "স্বাধীনতাকে": 7391,
      "ধারণার": 7392,
      "বিরুদ্ধ": 7393,
      "খনিজ": 7394,
      "সফরকারী": 7395,
      "সংখ্যাগুলো": 7396,
      "দীর্ঘস্থায়ী": 7397,
      "খ্রিষ্টাব্দ": 7398,
      "প্লাস্টিক": 7399,
      "সনি": 7400,
      "মস্তিষ্কের": 7401,
      "বিশ্বমঞ্চে": 7402,
      "ভ্যান": 7403,
      "ঘূর্ণিঝড়": 7404,
      "সস": 7405,
      "নবাব": 7406,
      "মাওলানা": 7407,
      "আচরণের": 7408,
      "হতেই": 7409,
      "ছেলেকে": 7410,
      "বলল": 7411,
      "##ব্যবসা": 7412,
      "তাঁরাও": 7413,
      "শিল্পীদের": 7414,
      "ধূসর": 7415,
      "স্থাপত্য": 7416,
      "প্রিন্স": 7417,
      "মণ্ডল": 7418,
      "##জমি": 7419,
      "ঘটায়": 7420,
      "পরিশ্রম": 7421,
      "হাল": 7422,
      "সুবিধার": 7423,
      "কাটার": 7424,
      "অপসারিত": 7425,
      "অতঃপর": 7426,
      "আমলের": 7427,
      "##াস": 7428,
      "বইয়ে": 7429,
      "চমক": 7430,
      "প্রশিক্ষণের": 7431,
      "নোটিশ": 7432,
      "ভরা": 7433,
      "সোহরাওয়ার্দী": 7434,
      "মেয়েরা": 7435,
      "টেলিযোগাযোগ": 7436,
      "সূর্যের": 7437,
      "বুকের": 7438,
      "অধিকতর": 7439,
      "আমীর": 7440,
      "নজরে": 7441,
      "কম্পিউটারের": 7442,
      "আকৃষ্ট": 7443,
      "##কেন্দ্রীয়": 7444,
      "পুরান": 7445,
      "জন্মেছিলেন": 7446,
      "গুপ্ত": 7447,
      "##বাদ": 7448,
      "চলচ্চিত্রটির": 7449,
      "টেন্ডারবাজি": 7450,
      "আহমেদের": 7451,
      "মনিরুজ্জামান": 7452,
      "নদ": 7453,
      "##পরবর্তী": 7454,
      "গাজীপুর": 7455,
      "পার্শ্ব": 7456,
      "মুদ্রানীতির": 7457,
      "রক্তে": 7458,
      "আশায়": 7459,
      "ঘটনাপ্রবাহ": 7460,
      "লাতিন": 7461,
      "দেখান": 7462,
      "পাতার": 7463,
      "##চ": 7464,
      "প্যানেল": 7465,
      "পুড়িয়ে": 7466,
      "পোশাকে": 7467,
      "পতনের": 7468,
      "ভারতকে": 7469,
      "দুজনকে": 7470,
      "ওমর": 7471,
      "রশিদের": 7472,
      "নাগরিকের": 7473,
      "প্রতিবন্ধী": 7474,
      "ব্যক্তিও": 7475,
      "ছাপ": 7476,
      "##প্রচার": 7477,
      "দক্ষতার": 7478,
      "বোঝার": 7479,
      "পাত্রে": 7480,
      "নাক": 7481,
      "তরুণেরা": 7482,
      "ময়দা": 7483,
      "মিনহাজুল": 7484,
      "এসি": 7485,
      "পাথরের": 7486,
      "কারাদণ্ডের": 7487,
      "দেবতা": 7488,
      "ছায়া": 7489,
      "মনোনয়নপত্র": 7490,
      "চিফ": 7491,
      "ইন্দোনেশিয়া": 7492,
      "রোকেয়া": 7493,
      "মদ্যপ": 7494,
      "আত্মপ্রকাশ": 7495,
      "দুটির": 7496,
      "গেমসে": 7497,
      "হৃদয়": 7498,
      "যৌক্তিকতা": 7499,
      "নামতে": 7500,
      "পড়েছিলেন": 7501,
      "গেন্ডারিয়া": 7502,
      "সোয়া": 7503,
      "শুকনো": 7504,
      "সম": 7505,
      "স্থলবন্দর": 7506,
      "ক্যাম্পাস": 7507,
      "গতিতে": 7508,
      "পাসওয়ার্ড": 7509,
      "আবদুস": 7510,
      "মানবসেবা": 7511,
      "টান": 7512,
      "টুইটার": 7513,
      "মোটেও": 7514,
      "ফিরতে": 7515,
      "ইভাঙ্কা": 7516,
      "দৌড়ে": 7517,
      "উদ্বেগের": 7518,
      "ওয়ারী": 7519,
      "বিগ": 7520,
      "দম্পতির": 7521,
      "ইনস্টিটিউটের": 7522,
      "বৃত্তি": 7523,
      "শেরেবাংলা": 7524,
      "##রক্ষামন্ত্রীর": 7525,
      "কাতার": 7526,
      "ঠেলে": 7527,
      "শুকিয়ে": 7528,
      "শর্মা": 7529,
      "শ্রেণী": 7530,
      "সেমিস্টার": 7531,
      "রিচার্ড": 7532,
      "বিবিসির": 7533,
      "ময়রা": 7534,
      "ভাবলেন": 7535,
      "পাবনা": 7536,
      "টেস্টের": 7537,
      "##দার": 7538,
      "কুক্ষিগত": 7539,
      "প্যারিস": 7540,
      "কক্সবাজারের": 7541,
      "সাপ্তাহিক": 7542,
      "আস্তে": 7543,
      "সমসাময়িক": 7544,
      "ধাঁধার": 7545,
      "নয়ন": 7546,
      "মালিকানাধীন": 7547,
      "সামুদ্রিক": 7548,
      "সাহসী": 7549,
      "অতীত": 7550,
      "ইস্যু": 7551,
      "তত্ত্বের": 7552,
      "উচ্ছেদ": 7553,
      "##আমাদের": 7554,
      "তফসিল": 7555,
      "প্রবর্তন": 7556,
      "আইসিইউ": 7557,
      "রোডের": 7558,
      "অপরাহ": 7559,
      "মুক্তিযুদ্ধে": 7560,
      "স্বাভাবিকভাবেই": 7561,
      "ফরহাদ": 7562,
      "মাঝখানে": 7563,
      "উইনফ্রে": 7564,
      "মুসলিমদের": 7565,
      "থুনবার্গ": 7566,
      "বাস্তবায়িত": 7567,
      "মতিয়া": 7568,
      "জন্মদিন": 7569,
      "সম্পাদনের": 7570,
      "কোষ": 7571,
      "কর্মজীবন": 7572,
      "পুরনো": 7573,
      "বাসার": 7574,
      "খুঁজতে": 7575,
      "উপমহাদেশের": 7576,
      "ঈদুল": 7577,
      "সম্পদে": 7578,
      "বসার": 7579,
      "সোনালী": 7580,
      "সুন্দরবন": 7581,
      "বিরতি": 7582,
      "উপাধি": 7583,
      "##তু": 7584,
      "##ময়": 7585,
      "পয়সা": 7586,
      "পেলোসি": 7587,
      "ভোরে": 7588,
      "কাপড়ের": 7589,
      "##জন": 7590,
      "যন্ত্রের": 7591,
      "ফেনী": 7592,
      "দ্বীপে": 7593,
      "পণ্ডিত": 7594,
      "অক্সিজেন": 7595,
      "বিজ্ঞানচিন্তা": 7596,
      "সাগরের": 7597,
      "শেয়ারহোল্ডার": 7598,
      "উৎপাদনে": 7599,
      "অনুপ্রেরণাদায়ী": 7600,
      "স্থানের": 7601,
      "মাঝের": 7602,
      "জামিনে": 7603,
      "আয়কর": 7604,
      "সরল": 7605,
      "ফাঁকা": 7606,
      "ওয়েলস": 7607,
      "নেয়নি": 7608,
      "চলাকালে": 7609,
      "অসুবিধা": 7610,
      "রাজপথে": 7611,
      "ফৌজদারি": 7612,
      "প্রণালি": 7613,
      "জাপানে": 7614,
      "পাইলট": 7615,
      "শতভাগ": 7616,
      "একজনের": 7617,
      "ইতালির": 7618,
      "আসছি": 7619,
      "পারলেও": 7620,
      "যমুনা": 7621,
      "থ্রি": 7622,
      "ডিজাইনার": 7623,
      "পৌনে": 7624,
      "লীগে": 7625,
      "যাত্রায়": 7626,
      "চারদিকে": 7627,
      "সীতারমণ": 7628,
      "উদ্যোগের": 7629,
      "এপ্রিলে": 7630,
      "গাওয়া": 7631,
      "##কেন্দ্রিক": 7632,
      "পুরাতন": 7633,
      "বাচ্চা": 7634,
      "##ছ": 7635,
      "মাত্রার": 7636,
      "পরিবেশকর্মী": 7637,
      "নোয়াখালী": 7638,
      "উরসুলা": 7639,
      "কন্ডোলি": 7640,
      "দপ্তরের": 7641,
      "ঘটাতে": 7642,
      "সংস্করণে": 7643,
      "ওয়ার্ডের": 7644,
      "নবমবারে": 7645,
      "মাস্টার": 7646,
      "ইরাকের": 7647,
      "ইব্রাহিম": 7648,
      "পরিমাণমতো": 7649,
      "যোগাযোগমাধ্যম": 7650,
      "সভাপতিত্বে": 7651,
      "অন্ধকার": 7652,
      "গমন": 7653,
      "ভবনটি": 7654,
      "সুখ": 7655,
      "টেকনোলজি": 7656,
      "রাজকীয়": 7657,
      "মায়া": 7658,
      "তাও": 7659,
      "দুর্গ": 7660,
      "প্রজনন": 7661,
      "উপকূলীয়": 7662,
      "অধিবেশনে": 7663,
      "পিছিয়েছেন": 7664,
      "রিমান্ড": 7665,
      "সর্বমোট": 7666,
      "যুক্": 7667,
      "স্মিথ": 7668,
      "নাচ": 7669,
      "মুখেও": 7670,
      "নিকটবর্তী": 7671,
      "চাচ্ছি": 7672,
      "তাৎক্ষণিকভাবে": 7673,
      "চ্যানেলে": 7674,
      "জঙ্গিদের": 7675,
      "মন্দিরে": 7676,
      "বহিষ্কার": 7677,
      "তরঙ্গ": 7678,
      "কানে": 7679,
      "ফেরদৌস": 7680,
      "অ্যান্টি": 7681,
      "কীর্তিময়": 7682,
      "সাঁতার": 7683,
      "তলায়": 7684,
      "বাবাকে": 7685,
      "রানিয়া": 7686,
      "ধর্মঘট": 7687,
      "ক্ষমতাকাঠামোকে": 7688,
      "ছুড়ে": 7689,
      "সেখানেও": 7690,
      "আন": 7691,
      "ফাইনালের": 7692,
      "রেলপথ": 7693,
      "প্রসেসর": 7694,
      "জাতক": 7695,
      "##ররাষ্ট্রের": 7696,
      "লগার্ড": 7697,
      "প": 7698,
      "ফলশ্রুতিতে": 7699,
      "কাতারের": 7700,
      "মানবসৃষ্ট": 7701,
      "নাশার": 7702,
      "হুজুগে": 7703,
      "বিচ্ছেদ": 7704,
      "এশিয়ায়": 7705,
      "মেডিসিন": 7706,
      "বক্তব্যের": 7707,
      "চিরকালের": 7708,
      "দোয়া": 7709,
      "##ছি": 7710,
      "পরিসরে": 7711,
      "##কর্মীকে": 7712,
      "ফেব্রুয়ারিতে": 7713,
      "গ্যালাক্সি": 7714,
      "তাৎক্ষণিক": 7715,
      "কামনা": 7716,
      "বিপণন": 7717,
      "সংঘর্ষে": 7718,
      "বানিয়েছিলেন": 7719,
      "উচ্চতর": 7720,
      "টপ": 7721,
      "সনে": 7722,
      "রাস্তাটি": 7723,
      "##যা": 7724,
      "হা": 7725,
      "ব্যবস্থাপনার": 7726,
      "মানসিকভাবে": 7727,
      "ভেন্টিলেটর": 7728,
      "বাহিনীকে": 7729,
      "অস্থির": 7730,
      "আঙুল": 7731,
      "গ্যালারিতে": 7732,
      "পাড়ে": 7733,
      "বাঙালির": 7734,
      "প্রো": 7735,
      "ভোর": 7736,
      "ঢুকতে": 7737,
      "হত্যাকারীরা": 7738,
      "নারীও": 7739,
      "##থ": 7740,
      "নবনির্বাচিত": 7741,
      "টিআই": 7742,
      "রকমই": 7743,
      "মরে": 7744,
      "##পি": 7745,
      "বিষয়টিকে": 7746,
      "চিন্তার": 7747,
      "শাস্তির": 7748,
      "##বাহী": 7749,
      "বসা": 7750,
      "##বাজার": 7751,
      "##বড়": 7752,
      "আর্জেন্টিনা": 7753,
      "##আমরা": 7754,
      "ডাইরেক্টর": 7755,
      "দুপাশে": 7756,
      "দুইবার": 7757,
      "##মার": 7758,
      "সূত্রাপুর": 7759,
      "নিরসনের": 7760,
      "পাচ্ছি": 7761,
      "মেঘ": 7762,
      "প্রেসবক্সে": 7763,
      "নানাভাবে": 7764,
      "আভাস": 7765,
      "সচল": 7766,
      "##ছিল": 7767,
      "কসবা": 7768,
      "পার্লামেন্ট": 7769,
      "নর্থ": 7770,
      "বুঝলেন": 7771,
      "রক": 7772,
      "মুঘল": 7773,
      "মিজানের": 7774,
      "আত্মসমর্পণ": 7775,
      "সুদের": 7776,
      "##দি": 7777,
      "পুকুর": 7778,
      "অসম": 7779,
      "থাকুক": 7780,
      "দুঃখজনক": 7781,
      "প্রবীণ": 7782,
      "সাধন": 7783,
      "##ব্যবসায়িক": 7784,
      "সামগ্রী": 7785,
      "লোকদের": 7786,
      "আগমন": 7787,
      "জুনে": 7788,
      "মুহাম্মাদ": 7789,
      "প্রতিষ্ঠানকে": 7790,
      "সাঈদের": 7791,
      "হু": 7792,
      "এখনকার": 7793,
      "অভিভাবক": 7794,
      "আক্তারকে": 7795,
      "আইনগত": 7796,
      "রিকশা": 7797,
      "বিশুদ্ধ": 7798,
      "রনি": 7799,
      "##বেনামে": 7800,
      "বিসিএস": 7801,
      "জৈব": 7802,
      "শীত": 7803,
      "তুলা": 7804,
      "সভার": 7805,
      "বাইপাস": 7806,
      "ইত্যাদির": 7807,
      "পরতে": 7808,
      "নকল": 7809,
      "এসবের": 7810,
      "কেড়ে": 7811,
      "পর্দার": 7812,
      "লেয়ে": 7813,
      "শার্ট": 7814,
      "স্টেশনের": 7815,
      "এমনই": 7816,
      "অংশীদার": 7817,
      "বেকার": 7818,
      "অফিসারকে": 7819,
      "আফগানিস্তানে": 7820,
      "বাড়ায়": 7821,
      "লিটন": 7822,
      "শরীফ": 7823,
      "সম্মানিত": 7824,
      "##সাড়ে": 7825,
      "##আ": 7826,
      "আদৌ": 7827,
      "সিস্টেমের": 7828,
      "কথাটি": 7829,
      "##ভি": 7830,
      "আদম": 7831,
      "বানাতে": 7832,
      "বোনের": 7833,
      "দূতাবাস": 7834,
      "জায়গাও": 7835,
      "রোধে": 7836,
      "##মুখী": 7837,
      "ইউটিউব": 7838,
      "সমাজতান্ত্রিক": 7839,
      "##বাদী": 7840,
      "জালিয়াতি": 7841,
      "মন্দ": 7842,
      "##পুলিশ": 7843,
      "তৃণমূলের": 7844,
      "উদ্যান": 7845,
      "পোর্ট": 7846,
      "গ্রন্থের": 7847,
      "গেমস": 7848,
      "বিমানবন্দরের": 7849,
      "বিশ্লেষকেরা": 7850,
      "পরিয়ে": 7851,
      "অনুদান": 7852,
      "সেলফি": 7853,
      "সাক্ষী": 7854,
      "বছরই": 7855,
      "সাইট": 7856,
      "সম্পাদনা": 7857,
      "পূর্ববর্তী": 7858,
      "অস্ত্রের": 7859,
      "নাইট": 7860,
      "লাগার": 7861,
      "আসবেন": 7862,
      "##ব্যবসায়ে": 7863,
      "বন্যার": 7864,
      "আসর": 7865,
      "ফিফটি": 7866,
      "##আমি": 7867,
      "টানতে": 7868,
      "অনুকূলে": 7869,
      "ঘটলে": 7870,
      "ক্যাশিয়ার": 7871,
      "সুস্পষ্ট": 7872,
      "গ্রীষ্মকালীন": 7873,
      "নুর": 7874,
      "রিজার্ভ": 7875,
      "##কন্যা": 7876,
      "মহাসড়কে": 7877,
      "তারাই": 7878,
      "লেনের": 7879,
      "ভাষণ": 7880,
      "ঘাঁটি": 7881,
      "অংশগ্রহণকারী": 7882,
      "মাধ্যমেই": 7883,
      "মানুষেরা": 7884,
      "অ্যাপ্লিকেশন": 7885,
      "মোশাররফ": 7886,
      "কণ্ঠে": 7887,
      "এমডি": 7888,
      "হৃদ্": 7889,
      "ছাড়ার": 7890,
      "অবতরণ": 7891,
      "প্রতিকার": 7892,
      "ডাক্তার": 7893,
      "একাডেমিক": 7894,
      "সদস্যরূপে": 7895,
      "জনসাধারণের": 7896,
      "এনবিআর": 7897,
      "চারে": 7898,
      "##লো": 7899,
      "##ীর": 7900,
      "##প্রধান": 7901,
      "তিনজনের": 7902,
      "সুন্দরবনের": 7903,
      "ট্রেনে": 7904,
      "হাতছাড়া": 7905,
      "ব্যর্থতার": 7906,
      "সাগরে": 7907,
      "বদলি": 7908,
      "পুঁজি": 7909,
      "ওপরের": 7910,
      "জং": 7911,
      "ইতিমধ্যেই": 7912,
      "পাশেই": 7913,
      "দেশগুলোতে": 7914,
      "ফার্মগেটে": 7915,
      "আমদানির": 7916,
      "সভ্যতার": 7917,
      "করতো": 7918,
      "বিরুদ্ধেই": 7919,
      "ভাবমূর্তি": 7920,
      "চালাচ্ছে": 7921,
      "রক্তের": 7922,
      "ইসি": 7923,
      "লেখাপড়া": 7924,
      "ইসরায়েলি": 7925,
      "রেখা": 7926,
      "সহিংস": 7927,
      "শিশুটির": 7928,
      "বেতার": 7929,
      "সেরে": 7930,
      "রাজীবকে": 7931,
      "দই": 7932,
      "মজুত": 7933,
      "বন্ধন": 7934,
      "কলাম": 7935,
      "পরস্পরের": 7936,
      "বাঁ": 7937,
      "জনপথ": 7938,
      "ন": 7939,
      "আজকাল": 7940,
      "চ্যাম্পিয়নশিপ": 7941,
      "ধূমপান": 7942,
      "ইনডেমনিটি": 7943,
      "খবরের": 7944,
      "শাহরুখ": 7945,
      "ডায়াবেটিসে": 7946,
      "নাসির": 7947,
      "ফাঁসি": 7948,
      "##নিমিনি": 7949,
      "থেরেসা": 7950,
      "রাজস্থানের": 7951,
      "##পনিবেশিক": 7952,
      "কমিটিতে": 7953,
      "সংবিধানে": 7954,
      "অনুপাত": 7955,
      "কোচিং": 7956,
      "খোরশেদ": 7957,
      "মৌখিক": 7958,
      "শর্তটি": 7959,
      "কিনতেন": 7960,
      "নিলামে": 7961,
      "হযরত": 7962,
      "সঞ্চয়": 7963,
      "হাসবেন": 7964,
      "তাল": 7965,
      "জলের": 7966,
      "শিক্ষকতা": 7967,
      "আগস্টে": 7968,
      "চালিয়েছে": 7969,
      "কিশোরগঞ্জ": 7970,
      "রপ্তানির": 7971,
      "ডেইলি": 7972,
      "হেড": 7973,
      "উপকূল": 7974,
      "##গুলিকে": 7975,
      "নিল": 7976,
      "উর্দু": 7977,
      "স্বাক্ষরিত": 7978,
      "মহল": 7979,
      "##ইসমাইল": 7980,
      "মাংসের": 7981,
      "ভিয়েতনাম": 7982,
      "ফুটিয়ে": 7983,
      "পূর্বের": 7984,
      "ফিরোজের": 7985,
      "ফরিদপুর": 7986,
      "কবিতার": 7987,
      "সেন্সর": 7988,
      "এসেছি": 7989,
      "মুরগির": 7990,
      "কিং": 7991,
      "মশার": 7992,
      "মান্নান": 7993,
      "খামার": 7994,
      "নায়িকা": 7995,
      "প্রতিষ্ঠানগুলোর": 7996,
      "আরমানের": 7997,
      "ডানহাতি": 7998,
      "জনক": 7999,
      "মাই": 8000,
      "মানসিকতা": 8001,
      "##ক্যাসিনো": 8002,
      "হাসার": 8003,
      "গোসল": 8004,
      "##হাটি": 8005,
      "বস্তুর": 8006,
      "লাইভ": 8007,
      "চলাকালীন": 8008,
      "দ্রাঘিমাংশ": 8009,
      "পরিত্যক্ত": 8010,
      "যানজটে": 8011,
      "আরবে": 8012,
      "আংশিক": 8013,
      "ইতালীয়": 8014,
      "অনুসারী": 8015,
      "গোপনে": 8016,
      "##ফ্ল্যাট": 8017,
      "লোকমানকে": 8018,
      "কুষ্টিয়া": 8019,
      "স্টুডিও": 8020,
      "##টেকে": 8021,
      "একেক": 8022,
      "খেতাব": 8023,
      "এগোতে": 8024,
      "হুয়াওয়ে": 8025,
      "সার্চ": 8026,
      "দেয়ালে": 8027,
      "জাকিরের": 8028,
      "পথের": 8029,
      "##মে": 8030,
      "সহকর্মী": 8031,
      "##শুদ্ধি": 8032,
      "নেয়ার": 8033,
      "গন্ধ": 8034,
      "চুক্তিবদ্ধ": 8035,
      "ঘাট": 8036,
      "চাকা": 8037,
      "মেয়েটি": 8038,
      "বিষয়টা": 8039,
      "দপ্তরে": 8040,
      "আবরার": 8041,
      "হয়েছিলো": 8042,
      "অনুচ্ছেদ": 8043,
      "##পুরুষ": 8044,
      "##গো": 8045,
      "স্বাস্থ্যসেবা": 8046,
      "আরা": 8047,
      "কর্তৃত্ব": 8048,
      "ইন্টারনেটের": 8049,
      "বৃষ্টিপাত": 8050,
      "চিন": 8051,
      "মণিপুরিপাড়া": 8052,
      "থাইল্যান্ড": 8053,
      "পেছন": 8054,
      "গুরুত্বের": 8055,
      "##সন": 8056,
      "ইন্দোনেশিয়ার": 8057,
      "দুশ্চিন্তা": 8058,
      "ধাঁধাটি": 8059,
      "ব্লু": 8060,
      "বিধি": 8061,
      "দেখানোর": 8062,
      "পরম": 8063,
      "সাইকেল": 8064,
      "রেজাউল": 8065,
      "হিল": 8066,
      "প্রয়োগের": 8067,
      "উদ্দীন": 8068,
      "##সম্রাটের": 8069,
      "মেহেদী": 8070,
      "কেআইবি": 8071,
      "স্ত্রীকে": 8072,
      "সংরক্ষণের": 8073,
      "লিপি": 8074,
      "ম্যাক": 8075,
      "রোবট": 8076,
      "হারায়": 8077,
      "বনাম": 8078,
      "জগতের": 8079,
      "গড়া": 8080,
      "আইনটি": 8081,
      "সত্যিকার": 8082,
      "##সবশেষ": 8083,
      "রাশিতে": 8084,
      "হারানোর": 8085,
      "নই": 8086,
      "##কর": 8087,
      "##কলাবাগান": 8088,
      "##লোকমান": 8089,
      "অধ্যাদেশকে": 8090,
      "কোনোভাবে": 8091,
      "ছাত্রদলের": 8092,
      "##গেন্ডারিয়া": 8093,
      "স্থপতি": 8094,
      "##গামী": 8095,
      "রাজত্ব": 8096,
      "সতর্কতা": 8097,
      "কথাটা": 8098,
      "সাপেক্ষে": 8099,
      "নথি": 8100,
      "স্বপ্নের": 8101,
      "ভৌগোলিক": 8102,
      "জাহাজের": 8103,
      "বরফ": 8104,
      "ওষুধের": 8105,
      "শিল্পে": 8106,
      "প্রোটিন": 8107,
      "##মুল": 8108,
      "একজনকে": 8109,
      "প্রতিনিয়ত": 8110,
      "আরেকজন": 8111,
      "প্রসার": 8112,
      "জাকিরকে": 8113,
      "সুরা": 8114,
      "চারটির": 8115,
      "মোমেনকে": 8116,
      "কারনে": 8117,
      "মেট্রোপলিটন": 8118,
      "মরগান": 8119,
      "বুথ": 8120,
      "টুর্নামেন্ট": 8121,
      "উঠলে": 8122,
      "তল্লাশি": 8123,
      "উল্লিখিত": 8124,
      "বন্ধের": 8125,
      "প্রশ্নপত্র": 8126,
      "সমাপ্ত": 8127,
      "স্বচ্ছতা": 8128,
      "ভোটাধিকার": 8129,
      "পুরাণ": 8130,
      "বর্গসংখ্যাটি": 8131,
      "ডানহাতে": 8132,
      "বলতেন": 8133,
      "ফুটবলের": 8134,
      "অভিজাত": 8135,
      "বিষ": 8136,
      "রান্নার": 8137,
      "আতঙ্ক": 8138,
      "ভেঙ্গে": 8139,
      "দলিলমূল্য": 8140,
      "শিয়া": 8141,
      "এহসান": 8142,
      "বার্তায়": 8143,
      "নদের": 8144,
      "পাত্র": 8145,
      "সমালোচক": 8146,
      "স্পেন": 8147,
      "আয়োজক": 8148,
      "জবানবন্দি": 8149,
      "নাদুর্নীতি": 8150,
      "##শার্ট": 8151,
      "ঘটান": 8152,
      "ব্যাংকটির": 8153,
      "বেন": 8154,
      "অলিম্পিকে": 8155,
      "তিনিও": 8156,
      "আড়ালে": 8157,
      "বাতিলের": 8158,
      "বেশিগত": 8159,
      "প্রজেক্ট": 8160,
      "ঘনত্ব": 8161,
      "সেলিমে": 8162,
      "স্প্যানিশ": 8163,
      "ভঙ্গ": 8164,
      "বসতে": 8165,
      "ব্লকের": 8166,
      "বারী": 8167,
      "বানানোর": 8168,
      "আখ্যা": 8169,
      "আসুন": 8170,
      "ঘুমের": 8171,
      "ছাত্ররা": 8172,
      "বিচারিক": 8173,
      "আপন": 8174,
      "জব্দের": 8175,
      "উপকারী": 8176,
      "স্টিভ": 8177,
      "খালিদ": 8178,
      "অবৈধভাবে": 8179,
      "##বাণিজ্য": 8180,
      "জিম্বাবুয়ের": 8181,
      "সং": 8182,
      "কমপ্লেক্সে": 8183,
      "ধারাবাহিকতায়": 8184,
      "বিশ্বাসঘাতকের": 8185,
      "দম্পতি": 8186,
      "আক্রমণে": 8187,
      "গ্রাহকের": 8188,
      "শামসুল": 8189,
      "পরিবেশনা": 8190,
      "ফেডারেল": 8191,
      "দীর্ঘদিনের": 8192,
      "ক্যামেরার": 8193,
      "ঐশী": 8194,
      "এদিন": 8195,
      "আরমানও": 8196,
      "ডলারও": 8197,
      "##বিশিষ্ট": 8198,
      "নিক": 8199,
      "সেন্টিমিটার": 8200,
      "স্পেনীয়": 8201,
      "উড়ে": 8202,
      "অ্যাসোসিয়েশনের": 8203,
      "মধ্যবিত্ত": 8204,
      "ব্যাহত": 8205,
      "সমর্থকেরা": 8206,
      "##তৃতীয়াংশ": 8207,
      "গোলের": 8208,
      "উদ্বুদ্ধ": 8209,
      "উড়োজাহাজ": 8210,
      "উষ্ণ": 8211,
      "গান্ধীর": 8212,
      "মেট্রিক": 8213,
      "উদ্ভব": 8214,
      "মাদকও": 8215,
      "অ্যাওয়ার্ড": 8216,
      "চিংড়ি": 8217,
      "কথাবার্তা": 8218,
      "ওখানে": 8219,
      "মেয়েটির": 8220,
      "রানী": 8221,
      "হারানো": 8222,
      "দলিল": 8223,
      "##শাসিত": 8224,
      "বিনিয়োগকারীদের": 8225,
      "ডাই": 8226,
      "বিশেষজ্ঞদের": 8227,
      "প্রথমেই": 8228,
      "গঙ্গা": 8229,
      "তাপ": 8230,
      "আশপাশে": 8231,
      "হেনরি": 8232,
      "অপারেটর": 8233,
      "আরমানকে": 8234,
      "তারই": 8235,
      "বললেই": 8236,
      "প্রাক": 8237,
      "আসিফ": 8238,
      "এরকম": 8239,
      "পোষণ": 8240,
      "সন্দেহভাজন": 8241,
      "পরিমাণই": 8242,
      "আন্তর্জাতিকে": 8243,
      "##উত্তর": 8244,
      "কাজগুলো": 8245,
      "উন্নতির": 8246,
      "প্রতিবেদনের": 8247,
      "সূরা": 8248,
      "ভাস্কর্য": 8249,
      "প্লাস": 8250,
      "নয়টি": 8251,
      "কাঙ্ক্ষিত": 8252,
      "নিজেরাই": 8253,
      "ব্যবহারকারীরা": 8254,
      "প্রজাতন্ত্রের": 8255,
      "কুরআন": 8256,
      "তরুণী": 8257,
      "অস্ট্রেলিয়ায়": 8258,
      "মুহম্মদ": 8259,
      "ডিএনএ": 8260,
      "ইতালি": 8261,
      "ফরম": 8262,
      "মেঘনা": 8263,
      "##িয়ে": 8264,
      "মোল্লা": 8265,
      "পদোন্নতি": 8266,
      "ঝামেলা": 8267,
      "দরপত্র": 8268,
      "টম": 8269,
      "অনুষ্ঠানটি": 8270,
      "সঞ্চার": 8271,
      "আবেদনপত্র": 8272,
      "কার্যক্রমে": 8273,
      "উচ্চতায়": 8274,
      "রাখলে": 8275,
      "বিরক্ত": 8276,
      "ডাকসু": 8277,
      "প্রতিদ্বন্দ্বিত": 8278,
      "ভিডিওতে": 8279,
      "ডিসেম্বরের": 8280,
      "ঘটনাস্থল": 8281,
      "দিকেও": 8282,
      "বস্ত্র": 8283,
      "ট্রাকচালক": 8284,
      "জানুয়ারী": 8285,
      "অভ্যস্ত": 8286,
      "দখলের": 8287,
      "বিধায়ক": 8288,
      "খেলোয়াড়ের": 8289,
      "নিই": 8290,
      "##পশ্চিমে": 8291,
      "নীরব": 8292,
      "শাহজালাল": 8293,
      "মধ্যম": 8294,
      "ব্যতীত": 8295,
      "শুনেছি": 8296,
      "পারফরম্যান্স": 8297,
      "আত্মহত্যার": 8298,
      "##উপকরণ": 8299,
      "সীমান্তের": 8300,
      "হিট": 8301,
      "টাস্ক": 8302,
      "বিন্দু": 8303,
      "কাম": 8304,
      "সিদ্দিকী": 8305,
      "রুটি": 8306,
      "বিপুলসংখ্যক": 8307,
      "প্রচারে": 8308,
      "ভরাট": 8309,
      "আড়তদার": 8310,
      "পার্কে": 8311,
      "ফেলুন": 8312,
      "পাকিস্তানকে": 8313,
      "বুয়েট": 8314,
      "খালাস": 8315,
      "ডন": 8316,
      "কোরআন": 8317,
      "মেধা": 8318,
      "নিশ্চয়": 8319,
      "আপ": 8320,
      "সর্বত্র": 8321,
      "বরিস": 8322,
      "বিসিবির": 8323,
      "অঙ্গনে": 8324,
      "রাজধানীতে": 8325,
      "জ্ঞানের": 8326,
      "প্রাপ্তবয়স্ক": 8327,
      "বাউন্ডারি": 8328,
      "শিক্ষাক্রমে": 8329,
      "গঠনে": 8330,
      "টেকনাফ": 8331,
      "উদ্ভূত": 8332,
      "ঠেকেছে": 8333,
      "একত্রিত": 8334,
      "জামায়াতের": 8335,
      "স্পেস": 8336,
      "সমুদ্রের": 8337,
      "##দুই": 8338,
      "এতটা": 8339,
      "উঠল": 8340,
      "অস্থিরতা": 8341,
      "জুলিয়া": 8342,
      "বনে": 8343,
      "সম্মতি": 8344,
      "খ্রিস্টান": 8345,
      "ট্রফি": 8346,
      "অধিকারের": 8347,
      "কলেজটি": 8348,
      "সেল": 8349,
      "কর্মকর্তাকে": 8350,
      "উপসর্গ": 8351,
      "ভর্তির": 8352,
      "বৈচিত্র্য": 8353,
      "মজা": 8354,
      "কমবেশি": 8355,
      "##নার": 8356,
      "##গা": 8357,
      "পিপলস": 8358,
      "জানুয়ারির": 8359,
      "উপস্থিতিতে": 8360,
      "প্রকল্পটি": 8361,
      "ফোর": 8362,
      "নিরসনে": 8363,
      "ওয়া": 8364,
      "ভূমিকম্প": 8365,
      "চেম্বার": 8366,
      "পিছু": 8367,
      "সুদ": 8368,
      "সংক্ষেপে": 8369,
      "ডব্লিউ": 8370,
      "চর্বি": 8371,
      "বিদ্যালয়টি": 8372,
      "ডিভাইস": 8373,
      "উদ্যোক্তাদের": 8374,
      "তিব্বতের": 8375,
      "ইদানীং": 8376,
      "##রাও": 8377,
      "প্রশস্ত": 8378,
      "রকেট": 8379,
      "ঐক্যবদ্ধ": 8380,
      "জগৎ": 8381,
      "পেট": 8382,
      "আসরে": 8383,
      "গাইডলাইন": 8384,
      "দোকানের": 8385,
      "পোস্টার": 8386,
      "দায়িত্বশীল": 8387,
      "রয়্যাল": 8388,
      "উল": 8389,
      "শৈশব": 8390,
      "##িয়ান": 8391,
      "চেয়েছিল": 8392,
      "সংশয়": 8393,
      "ভাষণে": 8394,
      "##স্ট": 8395,
      "ইন্টার": 8396,
      "সুপরিচিত": 8397,
      "রক্ষণাবেক্ষণ": 8398,
      "সেন্টারের": 8399,
      "আখতার": 8400,
      "বিরাজ": 8401,
      "স্ট্রিট": 8402,
      "টেবিলে": 8403,
      "দামের": 8404,
      "খণ্ড": 8405,
      "এবারই": 8406,
      "বিশ্রাম": 8407,
      "গ্রহ": 8408,
      "জিতেছেন": 8409,
      "মুখোপাধ্যায়": 8410,
      "##জে": 8411,
      "ডাউনলোড": 8412,
      "পরিপূর্ণ": 8413,
      "ব্রিজ": 8414,
      "ঈশ্বর": 8415,
      "জনি": 8416,
      "রংপুরের": 8417,
      "শব্দটির": 8418,
      "পাশ্চাত্যমতে": 8419,
      "গুলো": 8420,
      "পুনঃ": 8421,
      "অডিও": 8422,
      "বন্দরে": 8423,
      "অপ্রতুল": 8424,
      "মোতায়েন": 8425,
      "পুলিশও": 8426,
      "চুরির": 8427,
      "সার্টিফিকেট": 8428,
      "বগুড়ার": 8429,
      "ইকোনমিক": 8430,
      "হ্রদ": 8431,
      "তুলেছিলেন": 8432,
      "হাড়": 8433,
      "চাপিয়ে": 8434,
      "তেলে": 8435,
      "গৌতম": 8436,
      "##কমার্স": 8437,
      "গুঞ্জন": 8438,
      "দেবীর": 8439,
      "কদিন": 8440,
      "রুহুল": 8441,
      "ক্যাথলিক": 8442,
      "বসেন": 8443,
      "বালিকা": 8444,
      "সিটির": 8445,
      "কাপের": 8446,
      "বিরূপ": 8447,
      "##ভুক্ত": 8448,
      "বারাক": 8449,
      "অস্ত্রোপচার": 8450,
      "পাহাড়ে": 8451,
      "ব্যবস্থাপনায়": 8452,
      "পাঁচটা": 8453,
      "হংকং": 8454,
      "তুলনামূলকভাবে": 8455,
      "উন্মোচন": 8456,
      "গোলাপি": 8457,
      "বাণী": 8458,
      "সম্মত": 8459,
      "সংবাদমাধ্যমের": 8460,
      "প্রান্তিক": 8461,
      "গোত্রের": 8462,
      "আবির্ভূত": 8463,
      "একের": 8464,
      "হলিউড": 8465,
      "নির্বাচনকে": 8466,
      "পৌঁছায়": 8467,
      "আদান": 8468,
      "বাবদ": 8469,
      "সমষ্টি": 8470,
      "বৃদ্ধ": 8471,
      "কিডনি": 8472,
      "কাছের": 8473,
      "##সমাবেশ": 8474,
      "##সংশ্লিষ্ট": 8475,
      "ব্যান্ডের": 8476,
      "উই": 8477,
      "করাই": 8478,
      "সংবাদমাধ্যমে": 8479,
      "উভয়ই": 8480,
      "গেলাম": 8481,
      "বর্ণের": 8482,
      "অনুপ্রেরণা": 8483,
      "বিস্ফোরণের": 8484,
      "লামা": 8485,
      "অং": 8486,
      "বর্ধিত": 8487,
      "ইন্দিরা": 8488,
      "বন্ড": 8489,
      "খানকে": 8490,
      "##সংলগ্ন": 8491,
      "মার্শাল": 8492,
      "রক্ষণশীল": 8493,
      "নিঃসন্দেহে": 8494,
      "এরপরও": 8495,
      "উসমানীয়": 8496,
      "হাজারো": 8497,
      "ক্রিস": 8498,
      "##খ": 8499,
      "ভাঁজ": 8500,
      "কোচের": 8501,
      "পাঠায়": 8502,
      "ভক্তদের": 8503,
      "ওজনের": 8504,
      "সাঁথিয়া": 8505,
      "আড্ডা": 8506,
      "##াম": 8507,
      "বিশ": 8508,
      "সিকি": 8509,
      "লড়াইয়ের": 8510,
      "প্রত্যাশিত": 8511,
      "গুণগত": 8512,
      "লাইনের": 8513,
      "মিলন": 8514,
      "বিরোধের": 8515,
      "লাইট": 8516,
      "নব": 8517,
      "শিবির": 8518,
      "ফিট": 8519,
      "##দ্বন্দ্বিতাপূর্ণ": 8520,
      "আর্মি": 8521,
      "ক্রিয়া": 8522,
      "দেখবে": 8523,
      "মেক্সিকো": 8524,
      "ঘটনাকে": 8525,
      "লর্ড": 8526,
      "চোটে": 8527,
      "কম্পিউটারে": 8528,
      "ডিরেক্টর": 8529,
      "ঘটানো": 8530,
      "আলিয়া": 8531,
      "বাতাসে": 8532,
      "মন্ত্রীর": 8533,
      "জিডিপি": 8534,
      "##বেন": 8535,
      "রোজ": 8536,
      "স্বয়ংক্রিয়": 8537,
      "ইন্টারনেটে": 8538,
      "পালা": 8539,
      "ঘৃণা": 8540,
      "মেকআপ": 8541,
      "এক্সেল": 8542,
      "প্রাচীনতম": 8543,
      "ক্রেতারা": 8544,
      "অধিবেশন": 8545,
      "পরাজয়": 8546,
      "ব্যস্ততা": 8547,
      "প্রত্নতাত্ত্বিক": 8548,
      "গতির": 8549,
      "গীতিকার": 8550,
      "হায়দার": 8551,
      "অনাকাঙ্ক্ষিত": 8552,
      "মানেন": 8553,
      "মাপের": 8554,
      "অধিনায়কের": 8555,
      "সাংবাদিকতা": 8556,
      "কোয়ান্টাম": 8557,
      "অপরাধীদের": 8558,
      "থাই": 8559,
      "বিদেশী": 8560,
      "খসরু": 8561,
      "জাকারবার্গ": 8562,
      "ফ": 8563,
      "ডট": 8564,
      "স্বস্তি": 8565,
      "ডিসি": 8566,
      "রসায়ন": 8567,
      "কর্ণাটক": 8568,
      "সময়েই": 8569,
      "সম্পদই": 8570,
      "বাক্য": 8571,
      "অগ্রণী": 8572,
      "ফুড": 8573,
      "খুচরা": 8574,
      "শঙ্কা": 8575,
      "জার্মানিতে": 8576,
      "ঠিকানায়": 8577,
      "হাঁটতে": 8578,
      "মেইল": 8579,
      "সংকটে": 8580,
      "##সিংহ": 8581,
      "সাব্যস্ত": 8582,
      "মোটেই": 8583,
      "চায়ের": 8584,
      "##বেসরকারি": 8585,
      "প্রার্থীকে": 8586,
      "চকলেট": 8587,
      "##বৃষ": 8588,
      "বাসিন্দারা": 8589,
      "শুনেই": 8590,
      "কমনওয়েলথ": 8591,
      "ইস্যুতে": 8592,
      "বাইরেও": 8593,
      "অযোগ্য": 8594,
      "ইন্দো": 8595,
      "যেকোন": 8596,
      "বাসিন্দাদের": 8597,
      "অঙ্ক": 8598,
      "ঘটিয়ে": 8599,
      "আনেন": 8600,
      "পাক": 8601,
      "বেঞ্চ": 8602,
      "বাই": 8603,
      "দাও": 8604,
      "রুবেল": 8605,
      "অনিয়মের": 8606,
      "প্রি": 8607,
      "প্রগতিশীল": 8608,
      "করুক": 8609,
      "তাড়া": 8610,
      "মানুষও": 8611,
      "গ্লোব": 8612,
      "খ্রিষ্টান": 8613,
      "বিরোধীদের": 8614,
      "নিবন্ধিত": 8615,
      "জড়ো": 8616,
      "ডিমের": 8617,
      "অঞ্চলটি": 8618,
      "টিভির": 8619,
      "বলেননি": 8620,
      "মোস্তাফিজুর": 8621,
      "প্রত্যক্ষদর্শী": 8622,
      "মৃতদেহ": 8623,
      "উদার": 8624,
      "চাকমা": 8625,
      "জগন্নাথ": 8626,
      "ঝুঁকির": 8627,
      "##লাল": 8628,
      "শতাংশে": 8629,
      "ভাঙন": 8630,
      "আজীবন": 8631,
      "উল্লাহ": 8632,
      "##এবারের": 8633,
      "নামেন": 8634,
      "মহিউদ্দিন": 8635,
      "অতিবাহিত": 8636,
      "মূসক": 8637,
      "সুরক্ষিত": 8638,
      "মূলধন": 8639,
      "আকৃতি": 8640,
      "নিয়েছি": 8641,
      "পাউডার": 8642,
      "জয়া": 8643,
      "বাক্স": 8644,
      "দিত": 8645,
      "হাউসের": 8646,
      "মৃত্যুতে": 8647,
      "লিটার": 8648,
      "আশরাফ": 8649,
      "সমূদ্র": 8650,
      "দর্শনের": 8651,
      "পার্লামেন্টের": 8652,
      "শিকাগো": 8653,
      "জাহাঙ্গীরনগর": 8654,
      "সমাপ্তি": 8655,
      "সিন্ধু": 8656,
      "##বঙ্গবন্ধু": 8657,
      "স্টেডিয়ামের": 8658,
      "বাচ্চাদের": 8659,
      "এক্ষেত্রে": 8660,
      "বস": 8661,
      "উপাচার্যের": 8662,
      "মাখন": 8663,
      "রোডে": 8664,
      "আকস্মিকভাবে": 8665,
      "জোরে": 8666,
      "ক্রমে": 8667,
      "ব্যাটিংয়ে": 8668,
      "ডিসপ্লে": 8669,
      "ট্রেনটি": 8670,
      "##বিদেশি": 8671,
      "ছুরি": 8672,
      "ফেলেছেন": 8673,
      "মুক্তিযোদ্ধারা": 8674,
      "বাণিজ্যের": 8675,
      "ঠোঁট": 8676,
      "কারওয়ান": 8677,
      "সোপর্দ": 8678,
      "টাইপ": 8679,
      "দুনিয়ার": 8680,
      "তথাকথিত": 8681,
      "বিপন্ন": 8682,
      "উপস্থাপনা": 8683,
      "যথা": 8684,
      "আবির্ভাব": 8685,
      "নারায়ণ": 8686,
      "লেক": 8687,
      "বোলারদের": 8688,
      "মেখে": 8689,
      "অব্যাহতি": 8690,
      "হাদিস": 8691,
      "নারায়ণগঞ্জের": 8692,
      "এইচএসসি": 8693,
      "ধ্বংসস্তূপ": 8694,
      "সবারই": 8695,
      "হারের": 8696,
      "ইউনিভার্সিটির": 8697,
      "জের": 8698,
      "অবহিত": 8699,
      "ফাংশন": 8700,
      "ইসলামকে": 8701,
      "জনমত": 8702,
      "জীব": 8703,
      "কারাগার": 8704,
      "##ডা": 8705,
      "যাবজ্জীবন": 8706,
      "আজকে": 8707,
      "করান": 8708,
      "##চি": 8709,
      "লাইনে": 8710,
      "##েস": 8711,
      "##ভারত": 8712,
      "বিস্মিত": 8713,
      "বাবুল": 8714,
      "কর্পোরেশন": 8715,
      "দাদা": 8716,
      "সুরকার": 8717,
      "অপব্যবহার": 8718,
      "কল্যাণে": 8719,
      "মনসুর": 8720,
      "বসন্ত": 8721,
      "রাশেদুল": 8722,
      "##বেকারদের": 8723,
      "সরবরাহের": 8724,
      "হোটেলের": 8725,
      "ডাকে": 8726,
      "উপকার": 8727,
      "উভয়ের": 8728,
      "ফেরি": 8729,
      "পলিসি": 8730,
      "মাইক": 8731,
      "ডু": 8732,
      "এনআরসি": 8733,
      "লালন": 8734,
      "বিট": 8735,
      "খেলতেন": 8736,
      "প্রথিতযশা": 8737,
      "মমতার": 8738,
      "রেখেই": 8739,
      "দ্রব্য": 8740,
      "জোগান": 8741,
      "উচ্চমাধ্যমিক": 8742,
      "কেন্দ্রটি": 8743,
      "ধারাবাহিকতা": 8744,
      "শিল্পীর": 8745,
      "কাপে": 8746,
      "বরাবরই": 8747,
      "মুন": 8748,
      "অপরিহার্য": 8749,
      "মানিয়ে": 8750,
      "ফুলে": 8751,
      "যথাযথভাবে": 8752,
      "আগত": 8753,
      "ভিন্নতা": 8754,
      "##টাকে": 8755,
      "করিনি": 8756,
      "##সু": 8757,
      "দ্বৈত": 8758,
      "শান্তির": 8759,
      "রিয়াজ": 8760,
      "বর্ধমান": 8761,
      "আয়ারল্যান্ড": 8762,
      "সোশ্যাল": 8763,
      "সঞ্জয়": 8764,
      "##মেষ": 8765,
      "পিটিয়ে": 8766,
      "লুইস": 8767,
      "চেয়ার": 8768,
      "কর্মসূচিতে": 8769,
      "সঙ্গেও": 8770,
      "রাখি": 8771,
      "মানদণ্ড": 8772,
      "নিরাপদে": 8773,
      "ট্রাম্পকে": 8774,
      "সফলভাবে": 8775,
      "আফ্রিদি": 8776,
      "কিভাবে": 8777,
      "শীতল": 8778,
      "কেমব্রিজ": 8779,
      "প্রতিযোগীরা": 8780,
      "বিকশিত": 8781,
      "##িংয়ের": 8782,
      "অধ্যায়": 8783,
      "বাকিরা": 8784,
      "সময়সীমা": 8785,
      "আফ্রিকায়": 8786,
      "যুক্তিতর্ক": 8787,
      "মাননীয়": 8788,
      "জ্যামাইকা": 8789,
      "পড়াশোনার": 8790,
      "সম্পাদিত": 8791,
      "প্রদর্শনের": 8792,
      "দেখছে": 8793,
      "অবসরপ্রাপ্ত": 8794,
      "প্রচারণার": 8795,
      "ন্যায্য": 8796,
      "ধারে": 8797,
      "গুলিবিদ্ধ": 8798,
      "কাঠামোর": 8799,
      "প্রেক্ষাগৃহে": 8800,
      "নামেই": 8801,
      "সুশাসন": 8802,
      "পারভেজ": 8803,
      "আরম্ভ": 8804,
      "##রাজ": 8805,
      "মাথাপিছু": 8806,
      "গ্যালারি": 8807,
      "আমানত": 8808,
      "প্রকাশে": 8809,
      "মতবিনিময়": 8810,
      "সমীর": 8811,
      "সময়মতো": 8812,
      "সহায়তার": 8813,
      "মনকে": 8814,
      "অসীম": 8815,
      "নাটকটি": 8816,
      "খোঁজখবর": 8817,
      "রসুলপুর": 8818,
      "গর্বিত": 8819,
      "মিয়ার": 8820,
      "নিবন্ধে": 8821,
      "##শি": 8822,
      "স্থায়ীভাবে": 8823,
      "নিরীহ": 8824,
      "কোহলি": 8825,
      "ধার্য": 8826,
      "দুর্ভোগ": 8827,
      "চওড়া": 8828,
      "ভিক্টোরিয়া": 8829,
      "আইটি": 8830,
      "মিশে": 8831,
      "ঘোড়া": 8832,
      "##রত": 8833,
      "আধ্যাত্মিক": 8834,
      "জামালপুর": 8835,
      "##কু": 8836,
      "##ভা": 8837,
      "কুড়িগ্রাম": 8838,
      "অংশটি": 8839,
      "কাছেও": 8840,
      "ক্যাম্পে": 8841,
      "বিধ্বস্ত": 8842,
      "সমীক্ষা": 8843,
      "##যে": 8844,
      "শারমিন": 8845,
      "মন্ত্রণালয়ে": 8846,
      "মিনার": 8847,
      "আসি": 8848,
      "উপনিবেশ": 8849,
      "##ড়": 8850,
      "লুটপাটের": 8851,
      "মন্দিরটি": 8852,
      "তাহমিনা": 8853,
      "স্বীকারোক্তি": 8854,
      "ছোটবেলা": 8855,
      "ঘটল": 8856,
      "আর্জেন্টিনার": 8857,
      "শিক্ষায়": 8858,
      "অলআউট": 8859,
      "ভুটান": 8860,
      "ছাদ": 8861,
      "পল্টন": 8862,
      "জোন": 8863,
      "পল্লী": 8864,
      "হাতিয়ার": 8865,
      "মধ্যপ্রাচ্যের": 8866,
      "মেলেনি": 8867,
      "অতএব": 8868,
      "একসাথে": 8869,
      "সংঘ": 8870,
      "চতুর্থবারে": 8871,
      "উনি": 8872,
      "বাদাম": 8873,
      "ব্যাটসম্যানের": 8874,
      "থাইল্যান্ডের": 8875,
      "স্যাটেলাইট": 8876,
      "মনোবিজ্ঞানের": 8877,
      "হাতি": 8878,
      "সমতা": 8879,
      "জামায়াতে": 8880,
      "ধ্বংসের": 8881,
      "পদার্থের": 8882,
      "প্রস্তাবে": 8883,
      "পেপার": 8884,
      "মনির": 8885,
      "শিক্ষাগত": 8886,
      "বাদশাহ": 8887,
      "গোয়াইনঘাট": 8888,
      "মধ্যপ্রাচ্য": 8889,
      "চাননি": 8890,
      "আত্মীয়": 8891,
      "তিব্বতী": 8892,
      "বিষাক্ত": 8893,
      "সিকিউরিটি": 8894,
      "তাছাড়া": 8895,
      "ছবিগুলো": 8896,
      "ব্রিটেন": 8897,
      "কারাবন্দী": 8898,
      "রেখেছিল": 8899,
      "অর্থায়ন": 8900,
      "##মিথুন": 8901,
      "কৌশিক": 8902,
      "নামঞ্জুর": 8903,
      "কর্মক্ষেত্রে": 8904,
      "তাআলা": 8905,
      "নিক্ষেপ": 8906,
      "সেটে": 8907,
      "খাবারে": 8908,
      "তিস্তা": 8909,
      "রাশেদ": 8910,
      "ডলারে": 8911,
      "স্টাইল": 8912,
      "বিশ্বাসের": 8913,
      "চ্যানেলের": 8914,
      "বর্ষা": 8915,
      "##টন": 8916,
      "শিক্ষানবিশ": 8917,
      "সরিষা": 8918,
      "ব্যাক": 8919,
      "আইসিসির": 8920,
      "রয়টার্স": 8921,
      "রাখছে": 8922,
      "আটজনের": 8923,
      "মুরগি": 8924,
      "##িয়ার": 8925,
      "অভিবাসীদের": 8926,
      "পয়লা": 8927,
      "মার্চের": 8928,
      "নামানুসারে": 8929,
      "উপন্যাসের": 8930,
      "##হা": 8931,
      "পশুর": 8932,
      "অ্যাপটি": 8933,
      "সাজ": 8934,
      "কার্ল": 8935,
      "বেইজিং": 8936,
      "মর্গে": 8937,
      "অনেকেরই": 8938,
      "লেনদেনে": 8939,
      "চাঁদা": 8940,
      "আরেকটা": 8941,
      "আত্মবিশ্বাস": 8942,
      "##ষধ": 8943,
      "আসলেই": 8944,
      "সমর্থনে": 8945,
      "##র্গ্যাল": 8946,
      "দীপিকা": 8947,
      "চাচা": 8948,
      "সংখ্যাগরিষ্ঠতা": 8949,
      "প্রণীত": 8950,
      "আসাদুজ্জামান": 8951,
      "গ্রেফতার": 8952,
      "আশরাফুল": 8953,
      "ধাতব": 8954,
      "আলাদাভাবে": 8955,
      "বুদ্ধিমত্তা": 8956,
      "পরিচালকের": 8957,
      "দিনব্যাপী": 8958,
      "টাউন": 8959,
      "নৌবাহিনীর": 8960,
      "প্রত্যাহারের": 8961,
      "ফিলিস্তিনি": 8962,
      "বিদ্যা": 8963,
      "শিক্ষাবর্ষে": 8964,
      "দূষণ": 8965,
      "তালা": 8966,
      "করমজা": 8967,
      "বনের": 8968,
      "ডিবি": 8969,
      "শীতকালে": 8970,
      "গ্রীক": 8971,
      "ক্ষত": 8972,
      "রাতেই": 8973,
      "ঘাম": 8974,
      "ইউনিটের": 8975,
      "আমিও": 8976,
      "তাড়াতাড়ি": 8977,
      "কাব্য": 8978,
      "ময়নাতদন্তের": 8979,
      "শেখার": 8980,
      "জনাব": 8981,
      "অধিগ্রহণ": 8982,
      "নারকেল": 8983,
      "স্বাধীনভাবে": 8984,
      "গরমে": 8985,
      "শ্বাস": 8986,
      "বিশ্লেষক": 8987,
      "তারাও": 8988,
      "ওয়ার্ডে": 8989,
      "প্রদর্শনীর": 8990,
      "হারাতে": 8991,
      "পৌঁছানোর": 8992,
      "উপরের": 8993,
      "দ্বাদশ": 8994,
      "সবগুলো": 8995,
      "রোল": 8996,
[...]
